{
  "version": "1.0",
  "truncation": null,
  "padding": null,
  "added_tokens": [
    {
      "id": 0,
      "content": "[UNK]",
      "single_word": false,
      "lstrip": false,
      "rstrip": false,
      "normalized": false,
      "special": true
    }
  ],
  "normalizer": {
    "type": "NFC"
  },
  "pre_tokenizer": {
    "type": "ByteLevel",
    "add_prefix_space": false,
    "trim_offsets": true,
    "use_regex": false
  },
  "post_processor": null,
  "decoder": {
    "type": "ByteLevel",
    "add_prefix_space": true,
    "trim_offsets": true,
    "use_regex": true
  },
  "model": {
    "type": "BPE",
    "dropout": null,
    "unk_token": "[UNK]",
    "continuing_subword_prefix": null,
    "end_of_word_suffix": null,
    "fuse_unk": false,
    "byte_fallback": false,
    "ignore_merges": false,
    "vocab": {
      "[UNK]": 0,
      "!": 1,
      "\"": 2,
      "#": 3,
      "$": 4,
      "%": 5,
      "&": 6,
      "'": 7,
      "(": 8,
      ")": 9,
      "*": 10,
      "+": 11,
      ",": 12,
      "-": 13,
      ".": 14,
      "/": 15,
      "0": 16,
      "1": 17,
      "2": 18,
      "3": 19,
      "4": 20,
      "5": 21,
      "6": 22,
      "7": 23,
      "8": 24,
      "9": 25,
      ":": 26,
      ";": 27,
      "<": 28,
      "=": 29,
      ">": 30,
      "?": 31,
      "@": 32,
      "A": 33,
      "B": 34,
      "C": 35,
      "D": 36,
      "E": 37,
      "F": 38,
      "G": 39,
      "H": 40,
      "I": 41,
      "J": 42,
      "K": 43,
      "L": 44,
      "M": 45,
      "N": 46,
      "O": 47,
      "P": 48,
      "Q": 49,
      "R": 50,
      "S": 51,
      "T": 52,
      "U": 53,
      "V": 54,
      "W": 55,
      "X": 56,
      "Y": 57,
      "Z": 58,
      "[": 59,
      "\\": 60,
      "]": 61,
      "^": 62,
      "_": 63,
      "`": 64,
      "a": 65,
      "b": 66,
      "c": 67,
      "d": 68,
      "e": 69,
      "f": 70,
      "g": 71,
      "h": 72,
      "i": 73,
      "j": 74,
      "k": 75,
      "l": 76,
      "m": 77,
      "n": 78,
      "o": 79,
      "p": 80,
      "q": 81,
      "r": 82,
      "s": 83,
      "t": 84,
      "u": 85,
      "v": 86,
      "w": 87,
      "x": 88,
      "y": 89,
      "z": 90,
      "{": 91,
      "|": 92,
      "}": 93,
      "~": 94,
      "¡": 95,
      "¢": 96,
      "£": 97,
      "¤": 98,
      "¥": 99,
      "¦": 100,
      "§": 101,
      "¨": 102,
      "©": 103,
      "ª": 104,
      "«": 105,
      "¬": 106,
      "®": 107,
      "¯": 108,
      "°": 109,
      "±": 110,
      "²": 111,
      "³": 112,
      "´": 113,
      "µ": 114,
      "¶": 115,
      "·": 116,
      "¸": 117,
      "¹": 118,
      "º": 119,
      "»": 120,
      "¼": 121,
      "½": 122,
      "¾": 123,
      "¿": 124,
      "Â": 125,
      "Ã": 126,
      "Ä": 127,
      "Å": 128,
      "Æ": 129,
      "Ç": 130,
      "È": 131,
      "É": 132,
      "Ê": 133,
      "Ë": 134,
      "Ì": 135,
      "Í": 136,
      "Î": 137,
      "Ï": 138,
      "Ð": 139,
      "Ñ": 140,
      "Ò": 141,
      "Ó": 142,
      "Ô": 143,
      "Õ": 144,
      "Ö": 145,
      "×": 146,
      "Ø": 147,
      "Ù": 148,
      "Ú": 149,
      "Û": 150,
      "Ü": 151,
      "Þ": 152,
      "à": 153,
      "á": 154,
      "â": 155,
      "ã": 156,
      "ä": 157,
      "å": 158,
      "æ": 159,
      "ç": 160,
      "è": 161,
      "é": 162,
      "ê": 163,
      "ë": 164,
      "ì": 165,
      "í": 166,
      "ï": 167,
      "ð": 168,
      "Ġ": 169,
      "Ģ": 170,
      "ģ": 171,
      "Ĥ": 172,
      "ĥ": 173,
      "Ħ": 174,
      "ħ": 175,
      "Ĩ": 176,
      "ĩ": 177,
      "Ī": 178,
      "ī": 179,
      "Ĭ": 180,
      "ĭ": 181,
      "Į": 182,
      "į": 183,
      "İ": 184,
      "ı": 185,
      "Ĳ": 186,
      "ĳ": 187,
      "Ĵ": 188,
      "ĵ": 189,
      "Ķ": 190,
      "ķ": 191,
      "ĸ": 192,
      "Ĺ": 193,
      "ĺ": 194,
      "Ļ": 195,
      "ļ": 196,
      "Ľ": 197,
      "ľ": 198,
      "Ŀ": 199,
      "ŀ": 200,
      "Ł": 201,
      "ł": 202,
      "Ń": 203,
      "áĪ": 204,
      "aĠ": 205,
      "Ġá": 206,
      "áī": 207,
      "áĬ": 208,
      "áĭ": 209,
      "nĠ": 210,
      "eĠ": 211,
      "iĠ": 212,
      "ar": 213,
      "an": 214,
      "áĮ": 215,
      "Ġáĭ": 216,
      "ĠáĬ": 217,
      "ĠáĪ": 218,
      "áį": 219,
      ",Ġ": 220,
      "áĬķ": 221,
      "Ġáī": 222,
      "sĠ": 223,
      "in": 224,
      "»į": 225,
      "ÃŃ": 226,
      "at": 227,
      "oĠ": 228,
      "al": 229,
      "áīµ": 230,
      "er": 231,
      "á»į": 232,
      "áĪŃ": 233,
      "Ãł": 234,
      "inĠ": 235,
      "º¹": 236,
      "waĠ": 237,
      "am": 238,
      "uĠ": 239,
      "yaĠ": 240,
      "as": 241,
      "áº¹": 242,
      "Ġáĭ¨": 243,
      "anĠ": 244,
      "daĠ": 245,
      "ak": 246,
      "áĭį": 247,
      "en": 248,
      "Ã©": 249,
      "łáĪ": 250,
      "il": 251,
      "arĠ": 252,
      "ik": 253,
      "áĪĿ": 254,
      "or": 255,
      "áĪį": 256,
      "on": 257,
      "áĪµ": 258,
      "tĠ": 259,
      "is": 260,
      "áº¹Ì": 261,
      "Ã¬": 262,
      "ku": 263,
      "ÃŃĠ": 264,
      "Ã¡": 265,
      "it": 266,
      "naĠ": 267,
      "dĠ": 268,
      "ab": 269,
      "áį¢": 270,
      "á»įÌ": 271,
      "ir": 272,
      "un": 273,
      "ur": 274,
      "áĬĵ": 275,
      "Ġáīł": 276,
      "th": 277,
      "áī°": 278,
      "áĭ«": 279,
      "áĪĪ": 280,
      "Ãº": 281,
      "taĠ": 282,
      "ĠáĮ": 283,
      "sh": 284,
      "onĠ": 285,
      "ch": 286,
      "ay": 287,
      "áĭŃ": 288,
      "19": 289,
      "áĪĺ": 290,
      "esĠ": 291,
      "ĠáĬ¥": 292,
      "Ã³": 293,
      "el": 294,
      "áī½": 295,
      "es": 296,
      "gb": 297,
      "Ã¨": 298,
      ".Ġ": 299,
      "om": 300,
      "ad": 301,
      "ĠáĬł": 302,
      "ol": 303,
      "im": 304,
      "áĭ°": 305,
      "áĬĲ": 306,
      "áī¥": 307,
      "áĪ¨": 308,
      "áĮĪ": 309,
      "áº¹ÌĢ": 310,
      "áĭµ": 311,
      "áº¹Ìģ": 312,
      "á»įÌģ": 313,
      "deĠ": 314,
      "20": 315,
      "niĠ": 316,
      "áĪĭ": 317,
      "ĠáĬĲ": 318,
      "áĮį": 319,
      "em": 320,
      "yĠ": 321,
      "ĠáĪĺ": 322,
      "of": 323,
      "iy": 324,
      "ag": 325,
      "unĠ": 326,
      "áīł": 327,
      "¹£": 328,
      "áĪ«": 329,
      ")Ġ": 330,
      "us": 331,
      "ic": 332,
      "áī³": 333,
      "ĠáĬ¨": 334,
      "ÃłĠ": 335,
      "tiĠ": 336,
      "aĠm": 337,
      "Ã²": 338,
      "ul": 339,
      "ok": 340,
      "a,Ġ": 341,
      "áĬŃ": 342,
      "wá»į": 343,
      "Ġ(": 344,
      "Ã©Ġ": 345,
      "theĠ": 346,
      "áĪĽ": 347,
      "áĪ³": 348,
      "af": 349,
      "iaĠ": 350,
      "um": 351,
      "áī£": 352,
      "aj": 353,
      "enĠ": 354,
      "ing": 355,
      "Ġáį": 356,
      "ek": 357,
      "ali": 358,
      "wan": 359,
      "aĠk": 360,
      "ut": 361,
      "Ã¹": 362,
      "ac": 363,
      "áĬĽ": 364,
      "Ġáī°": 365,
      "ai": 366,
      "Ã³Ġ": 367,
      "âĢ": 368,
      "áĪª": 369,
      "ĠáĭŃ": 370,
      "á¹£": 371,
      "ĠáīłáĪ": 372,
      "Ġáĭ¨áĪ": 373,
      "erĠ": 374,
      "a.": 375,
      "ofĠ": 376,
      "Ġá»į": 377,
      "ap": 378,
      "aw": 379,
      "uk": 380,
      "ĠáĬłáĪ": 381,
      "tr": 382,
      "wá»įnĠ": 383,
      "áĪħ": 384,
      "áĮ¥": 385,
      "áĬ¨": 386,
      "áį£": 387,
      "laĠ": 388,
      "ĠáĪĿ": 389,
      "ah": 390,
      "edĠ": 391,
      "ib": 392,
      "ig": 393,
      "leĠ": 394,
      "Ġáĭ¨áĬ": 395,
      "e,Ġ": 396,
      "qu": 397,
      "id": 398,
      "ati": 399,
      "ĠáĭĪ": 400,
      "tÃŃĠ": 401,
      "á»įÌĢ": 402,
      "áį¡": 403,
      "áº¹ÌĢĠ": 404,
      "kum": 405,
      "áįį": 406,
      "os": 407,
      "áĭ³": 408,
      "aiĠ": 409,
      "ĠáĬĲáĭį": 410,
      "áīĢ": 411,
      "az": 412,
      "toĠ": 413,
      "re": 414,
      "akaĠ": 415,
      "áĭ¨": 416,
      "ĠáĬ¥áĬķ": 417,
      "ti": 418,
      "áĭĪ": 419,
      "araĠ": 420,
      "Ã¡Ġ": 421,
      "baĠ": 422,
      "iĠyaĠ": 423,
      "áĪ°": 424,
      "áīħ": 425,
      "andĠ": 426,
      "áĪĮ": 427,
      "áĬ«": 428,
      "ro": 429,
      "ÆĻ": 430,
      "ĠáĪĪ": 431,
      "nÃŃĠ": 432,
      "áº¹ÌģĠ": 433,
      "ÃºĠ": 434,
      "ÃºnĠ": 435,
      "-Ġ": 436,
      "ish": 437,
      "ÃĢ": 438,
      ":Ġ": 439,
      "ceĠ": 440,
      "anaĠ": 441,
      "áĬł": 442,
      "neĠ": 443,
      "alĠ": 444,
      "á»įĠ": 445,
      "ĠáĬĲáĭįáį¢": 446,
      "ĠáĪµ": 447,
      "ug": 448,
      "áī¸": 449,
      "Ġáĭ«": 450,
      "nÃŃ": 451,
      "op": 452,
      "isĠ": 453,
      "le": 454,
      "áĪī": 455,
      "Ġáĭĵ": 456,
      "ang": 457,
      "i,Ġ": 458,
      "entĠ": 459,
      "201": 460,
      "Ã¨Ġ": 461,
      "áīłáĪ": 462,
      "áĭĬ": 463,
      "áĭĭ": 464,
      "áĪ®": 465,
      "shek": 466,
      "iĠwaĠ": 467,
      "áī±": 468,
      "ip": 469,
      "İáī½": 470,
      "asĠ": 471,
      "áī¸áĭį": 472,
      "zaĠ": 473,
      "áįĪ": 474,
      "uwaĠ": 475,
      "etĠ": 476,
      "kumaĠ": 477,
      "ikaĠ": 478,
      "ot": 479,
      "Ġáĭ¨áĪļ": 480,
      "ec": 481,
      "ash": 482,
      "áĭĿ": 483,
      "iyaĠ": 484,
      "áĮ£": 485,
      "200": 486,
      "áĪįáį¢": 487,
      "áĪĨ": 488,
      "ĠáĪĽ": 489,
      "Al": 490,
      "iv": 491,
      "all": 492,
      "ob": 493,
      "et": 494,
      "og": 495,
      "áĭļ": 496,
      "áī¶": 497,
      "if": 498,
      "Ã¬Ġ": 499,
      "iĠk": 500,
      "tok": 501,
      "áĪ³áĪĮ": 502,
      "áĮł": 503,
      "ent": 504,
      "18": 505,
      "ist": 506,
      "áĮī": 507,
      "ikinĠ": 508,
      "Ã²Ġ": 509,
      "áĮĭ": 510,
      "e.": 511,
      "akeĠ": 512,
      "and": 513,
      "ub": 514,
      "fr": 515,
      "ĠáīłáĬ": 516,
      "áĭ®": 517,
      "ingĠ": 518,
      "aniĠ": 519,
      "i.": 520,
      "pr": 521,
      "ud": 522,
      "ĠáĪĿáĪ³áĪĮ": 523,
      "ÌĢ": 524,
      "ih": 525,
      "oj": 526,
      "ij": 527,
      "Th": 528,
      "á»įÌģĠ": 529,
      "iĠm": 530,
      "wat": 531,
      "amaĠ": 532,
      "ÃĮ": 533,
      "ou": 534,
      "ĠáĪ²": 535,
      "ow": 536,
      "áĭ²": 537,
      "av": 538,
      "amb": 539,
      "lÃ¡": 540,
      "áĬķáĭµ": 541,
      "ĠáĮį": 542,
      "eĠd": 543,
      "st": 544,
      "Ġáīµ": 545,
      "od": 546,
      "kas": 547,
      "atiĠ": 548,
      "0Ġ": 549,
      "áĭİáī½": 550,
      "Ġáĭĺ": 551,
      "AĠ": 552,
      "áĪ¥": 553,
      "ant": 554,
      "Ġáº¹": 555,
      "áīĥ": 556,
      "ed": 557,
      "áĬĸ": 558,
      "áĪŀ": 559,
      "áĭĺ": 560,
      "rÃŃ": 561,
      "ung": 562,
      "agaĠ": 563,
      "cikinĠ": 564,
      "Ġáĭ¨áī°": 565,
      "áº¹Ġ": 566,
      "Am": 567,
      "au": 568,
      "ĠáĬ¥áĬĵ": 569,
      "á»įÌĢĠ": 570,
      "lesĠ": 571,
      "áĬĲáīµ": 572,
      "ĠáĪ°": 573,
      "wakaĠ": 574,
      "jeĠ": 575,
      "Ġáī¥": 576,
      "áĬ¥": 577,
      "Ch": 578,
      "for": 579,
      "áĪĬ": 580,
      "Mar": 581,
      "áĪ©": 582,
      "Ġá¹£": 583,
      "Ãłwá»įnĠ": 584,
      "Ġáĭį": 585,
      "áĪĻ": 586,
      "our": 587,
      "con": 588,
      "),Ġ": 589,
      "áĬķáĮį": 590,
      "nd": 591,
      "ikiĠ": 592,
      "iz": 593,
      "areĠ": 594,
      "ew": 595,
      "anc": 596,
      "ts": 597,
      "ĠáīĢ": 598,
      "ans": 599,
      "ann": 600,
      "ov": 601,
      "ind": 602,
      "elĠ": 603,
      "ep": 604,
      "áīłáĪŃ": 605,
      "ĵĠ": 606,
      "ĭáĭŃ": 607,
      "Ġáĭ°": 608,
      "auĠ": 609,
      "ter": 610,
      "ĠáĬ¥áĬķáĭ°": 611,
      "ark": 612,
      "oc": 613,
      "áĭĽ": 614,
      "199": 615,
      "Ġáĭ¨áĬłáĪ": 616,
      "l'": 617,
      "adaĠ": 618,
      "o,Ġ": 619,
      "su": 620,
      "Ã¹Ġ": 621,
      "oĠyaĠ": 622,
      "shekar": 623,
      "iĠnaĠ": 624,
      "áĪļ": 625,
      "dagaĠ": 626,
      "ÃĢwá»įnĠ": 627,
      "ÉĹ": 628,
      "ĠáĬŃ": 629,
      "ÅĦ": 630,
      "hu": 631,
      "áĪİ": 632,
      "ÃłtiĠ": 633,
      "aĠyaĠ": 634,
      "estĠ": 635,
      "com": 636,
      "ng": 637,
      "was": 638,
      "á»įÌģnĠ": 639,
      "oy": 640,
      "ain": 641,
      "Ġá»įd": 642,
      "áĮħ": 643,
      "áī²": 644,
      "bÃŃĠ": 645,
      "áī¢": 646,
      "pl": 647,
      "usĠ": 648,
      "gaĠ": 649,
      "waĠm": 650,
      "tÃŃĠÃ³Ġ": 651,
      "áĬĳ": 652,
      "anz": 653,
      "iyarĠ": 654,
      "jáº¹ÌģĠ": 655,
      "1Ġ": 656,
      "áįĭ": 657,
      "ĠáĪį": 658,
      "amm": 659,
      "ataĠ": 660,
      "ation": 661,
      "Ġd": 662,
      "ÃłnĠ": 663,
      "Sh": 664,
      "e-": 665,
      "Â«": 666,
      "kanĠ": 667,
      "aif": 668,
      "5Ġ": 669,
      "2Ġ": 670,
      ";Ġ": 671,
      "kat": 672,
      "láº¹ÌĢĠ": 673,
      "a.Ġ": 674,
      "00": 675,
      "áĬĿ": 676,
      "ong": 677,
      "oh": 678,
      "ayaĠ": 679,
      "áĪ±": 680,
      "aĠnaĠ": 681,
      "wen": 682,
      "âĢĻ": 683,
      "a'": 684,
      "iniĠ": 685,
      "awaĠ": 686,
      "áĪĨáĬķ": 687,
      "áį¤": 688,
      "ej": 689,
      "TheĠ": 690,
      "shiĠ": 691,
      "áĪ½": 692,
      "ationĠ": 693,
      "atĠ": 694,
      "áĮİ": 695,
      "uw": 696,
      "uz": 697,
      "ĠáĪĭáĭŃ": 698,
      "Â»": 699,
      "uĠm": 700,
      "áĭ«áĬķ": 701,
      "iwaĠ": 702,
      "áĪĪáĭį": 703,
      "Ġáī³": 704,
      "Ġáĭµ": 705,
      "ariĠ": 706,
      ").": 707,
      "Ã©r": 708,
      "up": 709,
      "ev": 710,
      "aĠh": 711,
      "daĠk": 712,
      "Wali": 713,
      "198": 714,
      "áĪŃáĬĽ": 715,
      "sÃŃĠ": 716,
      "áĭ±": 717,
      "s,Ġ": 718,
      "Ġáī£": 719,
      "áĪģ": 720,
      "art": 721,
      "ráº¹ÌĢĠ": 722,
      "wak": 723,
      "hĠ": 724,
      "eĠm": 725,
      "eg": 726,
      "6Ġ": 727,
      "inaĠ": 728,
      "ats": 729,
      "¢áīµ": 730,
      "áĭļáĪħ": 731,
      "7Ġ": 732,
      "kutok": 733,
      "siĠ": 734,
      "ex": 735,
      "4Ġ": 736,
      "ajer": 737,
      "Ab": 738,
      "3Ġ": 739,
      "ĽáĪŃáĬĽ": 740,
      "¢áīµáĭ®": 741,
      "ion": 742,
      "áĮµ": 743,
      "áĬĴ": 744,
      "áĭķ": 745,
      "end": 746,
      "eb": 747,
      "áīĨ": 748,
      "Ġá»įdÃºnĠ": 749,
      "ank": 750,
      "áĮĢ": 751,
      "reĠ": 752,
      "ĠáīłáĪĺ": 753,
      "wá»įn": 754,
      "¢áīµáĭ®áĮµ": 755,
      "Ar": 756,
      "sam": 757,
      "arĠdaĠ": 758,
      "áĪĪáīµ": 759,
      ",Ġm": 760,
      "Ã¨d": 761,
      "lÃºĠ": 762,
      "ez": 763,
      "áĮ½": 764,
      "áĪ¬": 765,
      "asiĠ": 766,
      "áĮĪáĪŃ": 767,
      "Ã¬j": 768,
      "Najer": 769,
      "197": 770,
      "ill": 771,
      "shekaraĠ": 772,
      "ineĠ": 773,
      "áī¡": 774,
      "air": 775,
      "áĪµáĮ¥": 776,
      "ÃŃn": 777,
      "Itok": 778,
      "196": 779,
      "¢áīµáĭ®áĮµáĭ«": 780,
      "Ġáĭ¨áĬłáĪĽáĪŃáĬĽ": 781,
      "Afr": 782,
      "ich": 783,
      "áĪ¨áīµ": 784,
      "asaĠ": 785,
      "ionĠ": 786,
      "icĠ": 787,
      "ers": 788,
      "ach": 789,
      "ĠáĪĿáĪ³áĪĮĠáĬĲáĭįáį¢": 790,
      "shekararĠ": 791,
      "queĠ": 792,
      "Ġáĭ¨áĬłáĪĽáĪŃáĬĽĠáĪĿáĪ³áĪĮĠáĬĲáĭįáį¢": 793,
      "áīłáīµ": 794,
      "ĠáĬĲáīłáĪŃ": 795,
      "asarĠ": 796,
      "áĭľ": 797,
      "ĠáĮ¥": 798,
      "áĪĺáĬķ": 799,
      "pro": 800,
      "eh": 801,
      "kar": 802,
      "Ġ1": 803,
      "wá»įÌģnĠ": 804,
      "ileĠ": 805,
      "áĪ»": 806,
      "Ã¨dÃ¨Ġ": 807,
      "yiĠ": 808,
      "ayinĠ": 809,
      "ĠáĭĪáĭ°": 810,
      "ofĠtheĠ": 811,
      "orĠ": 812,
      "ĠáĪĨ": 813,
      "oz": 814,
      "rÃ©": 815,
      "ĠáĮĪ": 816,
      "uc": 817,
      "nch": 818,
      "áĪµáīµ": 819,
      "ĠáĬ¨áī°": 820,
      "ÅĦĠ": 821,
      "ani": 822,
      "und": 823,
      "ikuwaĠ": 824,
      "áī»": 825,
      "»Į": 826,
      "anceĠ": 827,
      "any": 828,
      "aĠdaĠ": 829,
      "Ad": 830,
      "ĠáĬķ": 831,
      "ass": 832,
      "uh": 833,
      "ef": 834,
      "8Ġ": 835,
      "áĭ©": 836,
      "gbaĠ": 837,
      "yÃ¬": 838,
      ".ĠM": 839,
      "kutokaĠ": 840,
      "naĠm": 841,
      "nÃ¡": 842,
      "antĠ": 843,
      "\"Ġ": 844,
      "áĭĵ": 845,
      "meĠ": 846,
      "oĠm": 847,
      "An": 848,
      "áįĬ": 849,
      "o.": 850,
      "aĠs": 851,
      "desĠ": 852,
      "áĭįáĬķ": 853,
      "áī¶áī½": 854,
      "wandaĠ": 855,
      "lÃ³": 856,
      "nÃŃn": 857,
      "9Ġ": 858,
      "ansĠ": 859,
      "kwaĠ": 860,
      "ĠáĬ¥áĪµ": 861,
      "abb": 862,
      "yeĠ": 863,
      "tar": 864,
      "ĠáĭįáĪµáĮ¥": 865,
      "uneĠ": 866,
      "ĠáĬłáĭŃ": 867,
      "Ã¹nĠ": 868,
      "áĪŃáĮī": 869,
      "aĠb": 870,
      "aĠcikinĠ": 871,
      "emb": 872,
      "aur": 873,
      "iharĠ": 874,
      "ess": 875,
      "ementĠ": 876,
      "Ĭáĭľ": 877,
      "xĠ": 878,
      "shekaraĠtaĠ": 879,
      "ell": 880,
      "áĮłáĪ": 881,
      "uĠyaĠ": 882,
      "arinĠ": 883,
      "áĪªáĭ«": 884,
      "láº¹ÌĢ": 885,
      "urĠ": 886,
      "áĬĶ": 887,
      "ioĠ": 888,
      "ieĠ": 889,
      "ereĠ": 890,
      "ItokasiĠ": 891,
      "áīĭ": 892,
      "inc": 893,
      "iá¹£": 894,
      "ĠáĪģ": 895,
      "áĭ¶": 896,
      "itaĠ": 897,
      "St": 898,
      "wam": 899,
      "aut": 900,
      "áĪ²": 901,
      "orÃŃ": 902,
      "âĢĵĠ": 903,
      "áĬĽáĭį": 904,
      "tÃ³Ġ": 905,
      "áĬłáĪ": 906,
      "daĠs": 907,
      "áī¦": 908,
      "áĭŃáĪĿ": 909,
      "u,Ġ": 910,
      "yaĠK": 911,
      "es,Ġ": 912,
      "ilĠ": 913,
      "Ġáº¹ÌĢ": 914,
      "omĠ": 915,
      "ni": 916,
      "wa": 917,
      "áĬ¤": 918,
      "fÃºnĠ": 919,
      "áĪŃáĪµ": 920,
      "áĪľ": 921,
      "aĠd": 922,
      "gbÃłĠ": 923,
      "rinĠ": 924,
      "bay": 925,
      "Ġáīłáī°": 926,
      "áĪĲ": 927,
      "biĠ": 928,
      "aĠtaĠ": 929,
      "áĭĻ": 930,
      "ran": 931,
      "195": 932,
      "áĬ®": 933,
      "uf": 934,
      "wasĠ": 935,
      "agb": 936,
      "Jam": 937,
      "áī¤": 938,
      "In": 939,
      "Ġáīħ": 940,
      "ĠáĬłáĪµ": 941,
      "itĠ": 942,
      "ĠáĪ¥": 943,
      "est": 944,
      "aninĠ": 945,
      "sÃŃ": 946,
      "Il": 947,
      "Ġáī¤": 948,
      "sÃ¬Ġ": 949,
      "ĠáĬ«": 950,
      "par": 951,
      "ĠáīµáĪŃáĮī": 952,
      "Ġáĭ¨áĪĺ": 953,
      "d'": 954,
      "war": 955,
      "ÃŃrÃŃ": 956,
      "ny": 957,
      "áĬ©": 958,
      "zuwaĠ": 959,
      "wh": 960,
      "Ġá¹£eĠ": 961,
      "Ġá»įm": 962,
      "ĠáĮįáĬķ": 963,
      "áĪªáĬŃ": 964,
      "ugh": 965,
      "ĠáĬ¥áĬķáĭ²": 966,
      "Nob": 967,
      "aliĠ": 968,
      "ĠÂ«": 969,
      "ĠáĮĭ": 970,
      "iw": 971,
      "Ġáĭ¨áĬł": 972,
      "áīģ": 973,
      "áĮ¨": 974,
      "suĠ": 975,
      "tak": 976,
      "NobelĠ": 977,
      "raĠ": 978,
      "Ġá»įÌĢ": 979,
      "jam": 980,
      "áī¹": 981,
      "dÃ©": 982,
      "Un": 983,
      "áīłáĪ¨": 984,
      "Ãłk": 985,
      "acinĠ": 986,
      "ewaĠ": 987,
      "Mak": 988,
      "aĠf": 989,
      "ĠáĪ²áĪĨáĬķ": 990,
      "aliwaĠ": 991,
      "áį¡áį¡": 992,
      "ĭáĪĭ": 993,
      "awonĠ": 994,
      "17": 995,
      "thĠ": 996,
      "Ġá»Į": 997,
      "eĠdeĠ": 998,
      "ká»įÌģĠ": 999,
      "áĮĥ": 1000,
      "áĬŃáĪį": 1001,
      "As": 1002,
      "fir": 1003,
      "áĪĥ": 1004,
      "aĠy": 1005,
      "»áį": 1006,
      "ha": 1007,
      "ĠáīµáĪŃáĮīáĪĻ": 1008,
      "kuwaĠ": 1009,
      "aadaĠ": 1010,
      "erÃ©Ġ": 1011,
      "NÃł": 1012,
      "atsayinĠ": 1013,
      "byĠ": 1014,
      "ÃĵĠ": 1015,
      "ĠáĬĲáīłáĪŃáį¢": 1016,
      "ersĠ": 1017,
      "Kar": 1018,
      "anĠm": 1019,
      "ond": 1020,
      "iiĠ": 1021,
      "duĠ": 1022,
      "kĠ": 1023,
      "ĠáīłáĬł": 1024,
      "|Ġ": 1025,
      "ĠáĬłáĬķ": 1026,
      "eoĠ": 1027,
      "anĠk": 1028,
      "ciĠ": 1029,
      "áĪ´": 1030,
      "u.": 1031,
      "nÃŃnÃºĠ": 1032,
      ".áĪĿ": 1033,
      "eng": 1034,
      "haif": 1035,
      "Ġá»įj": 1036,
      "NÃłÃ¬j": 1037,
      "wit": 1038,
      "Ã¬n": 1039,
      "ĠáĪ³": 1040,
      "imb": 1041,
      "²áį": 1042,
      "áī´": 1043,
      "eĠs": 1044,
      "NÃłÃ¬jÃŃrÃŃ": 1045,
      "tur": 1046,
      "koĠ": 1047,
      "bÃŃ": 1048,
      "har": 1049,
      "eri": 1050,
      "194": 1051,
      "uĠwaĠ": 1052,
      "aĠg": 1053,
      "iliĠ": 1054,
      "ityĠ": 1055,
      "Ãłn": 1056,
      "áĮŃ": 1057,
      "ĠáĪĺáĬķáĮį": 1058,
      "Ġáĭ¨áĬłáĪĽáĪŃáĬĽĠáĪĿáĪ³áĪĮĠáĬĲáĭįáį¢ĠáīµáĪŃáĮīáĪĻ": 1059,
      "Ã¬y": 1060,
      "daĠm": 1061,
      "ĠáĮĬáĭľ": 1062,
      "watanĠ": 1063,
      "att": 1064,
      "wall": 1065,
      "ĠáīĢáĬķ": 1066,
      "Fr": 1067,
      "ais": 1068,
      "rÃŃĠ": 1069,
      "Ġáĭĭ": 1070,
      "ĠáĭĪáĭŃáĪĿ": 1071,
      "Ãºn": 1072,
      "Br": 1073,
      "áī³áīµ": 1074,
      "s.": 1075,
      "15": 1076,
      "arr": 1077,
      "Ġáĭĵ.áĪĿ": 1078,
      "Ol": 1079,
      "por": 1080,
      "parĠ": 1081,
      "16": 1082,
      "Ġ-": 1083,
      "forĠ": 1084,
      "amĠ": 1085,
      "amarĠ": 1086,
      "eĠ(": 1087,
      "áĪªáĬ«": 1088,
      "oĠwaĠ": 1089,
      "aĠl": 1090,
      "Ã¬d": 1091,
      "'sĠ": 1092,
      "Ã©t": 1093,
      "y,Ġ": 1094,
      "NajeriyaĠ": 1095,
      "katikaĠ": 1096,
      "aĠwaĠ": 1097,
      "II": 1098,
      "daĠy": 1099,
      "Ã¨r": 1100,
      "ĠáĪµáĪĪ": 1101,
      "wonĠ": 1102,
      "ĠáĬłáĪĪ": 1103,
      "ĠáĬĵ": 1104,
      "irĠ": 1105,
      "áĪ¨áīµáĬĵ": 1106,
      "ourĠ": 1107,
      "ĠáĪĬ": 1108,
      "áĮ»": 1109,
      "aĠku": 1110,
      "wakaĠwaĠ": 1111,
      "Ġáī¢": 1112,
      "ĠáįĪ": 1113,
      "mĠ": 1114,
      "Pr": 1115,
      "ĠáĬ¥áĪµáĬ¨": 1116,
      "lÃ©": 1117,
      "ph": 1118,
      "áĪĪáĪĿ": 1119,
      "AnĠ": 1120,
      "ĠáīłáĬĭáĪĭ": 1121,
      "áĪ¨áīµáĬĵĠáĪĿáĪ³áĪĮ": 1122,
      "ĠáĬķáĮī": 1123,
      "10": 1124,
      "ayeĠ": 1125,
      "Walioz": 1126,
      "Man": 1127,
      "a-": 1128,
      "nanĠ": 1129,
      "bir": 1130,
      "áĪ¥áīµ": 1131,
      "ibiĠ": 1132,
      "áį»áį": 1133,
      "ĠáĭŃáĪħ": 1134,
      "lÃ¡tiĠ": 1135,
      "asuĠ": 1136,
      "ĠáĭĺáĪĺáĬķ": 1137,
      "tionĠ": 1138,
      "wal": 1139,
      "nÃ¡ÃłĠ": 1140,
      "fiĠ": 1141,
      "áĪ¨áĪµ": 1142,
      "áĬķáĪĿ": 1143,
      "unaĠ": 1144,
      "ofar": 1145,
      "ontĠ": 1146,
      "utan": 1147,
      "Nig": 1148,
      "aĠmatsayinĠ": 1149,
      "ĠáĬŃáįį": 1150,
      "áĪ®áī½": 1151,
      "inĠm": 1152,
      "ugab": 1153,
      "lá»įÌģ": 1154,
      "seĠ": 1155,
      "áĪķ": 1156,
      "áĮ«": 1157,
      "ayy": 1158,
      "artaĠ": 1159,
      "wali": 1160,
      "Ġáī°áĪ¨áīµáĬĵĠáĪĿáĪ³áĪĮ": 1161,
      "ĠáĬ¨áī°áĪĽ": 1162,
      "Waliofar": 1163,
      "á¹£Ã¹Ġ": 1164,
      "uzoĠyaĠ": 1165,
      "funĠ": 1166,
      "ÆĻasarĠ": 1167,
      "pÃŃn": 1168,
      "atikaĠ": 1169,
      "gr": 1170,
      "diĠ": 1171,
      "daĠkumaĠ": 1172,
      "yaĠk": 1173,
      "e.Ġ": 1174,
      "TuzoĠyaĠ": 1175,
      "láº¹ÌĢ-": 1176,
      "to": 1177,
      "deĠlaĠ": 1178,
      "apaĠ": 1179,
      "cl": 1180,
      "áĮĪáĬ": 1181,
      "áĭİ": 1182,
      "aryĠ": 1183,
      "ayĠ": 1184,
      "Kan": 1185,
      "ari": 1186,
      "Is": 1187,
      "chaĠ": 1188,
      "gab": 1189,
      "pe": 1190,
      "ins": 1191,
      "193": 1192,
      "Marek": 1193,
      "shir": 1194,
      "Ã¬t": 1195,
      "Ib": 1196,
      "ĠáĭĵáĪĺ": 1197,
      "ÃĴ": 1198,
      "edeĠ": 1199,
      "bÃ¡Ġ": 1200,
      "yaĠm": 1201,
      "se": 1202,
      "lyĠ": 1203,
      "had": 1204,
      "tareĠ": 1205,
      "Ãłr": 1206,
      "áĪŃáĭ«": 1207,
      "Ã¬lÃºĠ": 1208,
      "ĠáĪĪáĪĺ": 1209,
      "amf": 1210,
      "tÃŃĠwá»įÌģnĠ": 1211,
      "áįĵ": 1212,
      "áĮĢáĪĺ": 1213,
      "Ġáĭķ": 1214,
      "fark": 1215,
      "shind": 1216,
      "aceĠ": 1217,
      "aisĠ": 1218,
      "withĠ": 1219,
      "áī°áĬĽ": 1220,
      "daĠkeĠ": 1221,
      "ath": 1222,
      "per": 1223,
      "áĭ´": 1224,
      "Ġáĭĵ.áĪĿ.": 1225,
      "cr": 1226,
      "pos": 1227,
      "eur": 1228,
      "sunĠ": 1229,
      "ard": 1230,
      "umb": 1231,
      "yanaĠ": 1232,
      "iqu": 1233,
      "áĮįáĪŀ": 1234,
      "láº¹ÌĢ-Ã¨dÃ¨Ġ": 1235,
      "TuzoĠyaĠNobelĠ": 1236,
      "oĠniĠ": 1237,
      "ien": 1238,
      "oun": 1239,
      "chĠ": 1240,
      "sab": 1241,
      "olog": 1242,
      "áį¦": 1243,
      "lá»įĠ": 1244,
      "alis": 1245,
      "Ġáĭ«áĪį": 1246,
      "maiĠ": 1247,
      "ninĠ": 1248,
      "abuĠ": 1249,
      "Ġá»įmá»įĠ": 1250,
      "áĭµáĪŃ": 1251,
      "Amer": 1252,
      "es.": 1253,
      "jiharĠ": 1254,
      "ilim": 1255,
      "fromĠ": 1256,
      "waniĠ": 1257,
      "wÃłĠ": 1258,
      "biy": 1259,
      "paĠ": 1260,
      "14": 1261,
      "ĠáĮĢ": 1262,
      "áĪ¶": 1263,
      "iki": 1264,
      "oĠk": 1265,
      "sonĠ": 1266,
      "ĠáĬĲáĮĪ": 1267,
      "fil": 1268,
      "inĠtheĠ": 1269,
      "Ġáįį": 1270,
      "WaliozaliwaĠ": 1271,
      "aus": 1272,
      "ĠáĬ¢": 1273,
      "neĠyaĠ": 1274,
      "an,Ġ": 1275,
      "áī³áĭĪ": 1276,
      "aĠ(": 1277,
      "quiĠ": 1278,
      "Ġáīģ": 1279,
      "ta": 1280,
      "shindiĠwaĠ": 1281,
      "ĠáĪķ": 1282,
      "áīµáĬķ": 1283,
      "ile-": 1284,
      "fin": 1285,
      "ĠáĮĭáĪŃ": 1286,
      "arÃ¡Ġ": 1287,
      "Ã²á¹£": 1288,
      "ya": 1289,
      "ĠáīłáĪĽ": 1290,
      "yÃŃĠ": 1291,
      "istor": 1292,
      "san": 1293,
      "rist": 1294,
      "omb": 1295,
      "amuĠ": 1296,
      "Ag": 1297,
      "inuĠ": 1298,
      "uj": 1299,
      "Ġáį¡": 1300,
      "ey": 1301,
      "áĬŃáĪįáīł": 1302,
      "Ak": 1303,
      "ateĠ": 1304,
      "..": 1305,
      "aĠshekaraĠtaĠ": 1306,
      "yan": 1307,
      "teĠ": 1308,
      "áĪīáį¢": 1309,
      "Nij": 1310,
      "áīĤ": 1311,
      "vyaĠ": 1312,
      "ĠáĭĵáĬŃáĪįáīł": 1313,
      "donĠ": 1314,
      "áĪİáī½": 1315,
      "ikaĠm": 1316,
      "ezaĠ": 1317,
      "áĮ¡": 1318,
      "áĭ°áĪ¨": 1319,
      "atuk": 1320,
      "BaadaĠ": 1321,
      "bu": 1322,
      "ukaĠ": 1323,
      "gbÃł": 1324,
      "ĠáĪļ": 1325,
      "ahĠ": 1326,
      "¦áĪŃ": 1327,
      "Ġáĭ°áĮįáĪŀ": 1328,
      "ens": 1329,
      "jir": 1330,
      "ĠáĬłáĬķáĭµ": 1331,
      "Ãłwá»įn": 1332,
      "Ã¹n": 1333,
      "tion": 1334,
      "ká»įĠ": 1335,
      "iĠ(": 1336,
      "áĭ°áĪŃ": 1337,
      "ili": 1338,
      "ouv": 1339,
      "ĠáĬłáĪį": 1340,
      "er,Ġ": 1341,
      "shindiĠwaĠTuzoĠyaĠNobelĠ": 1342,
      "ouĠ": 1343,
      "kub": 1344,
      "áī°áĪ¨": 1345,
      "soĠ": 1346,
      "ord": 1347,
      "zam": 1348,
      "adĠ": 1349,
      "áĪĺáĬĲ": 1350,
      "Ã¨n": 1351,
      "iá¹£áº¹ÌģĠ": 1352,
      "iláº¹ÌĢĠ": 1353,
      "pÃ©Ġ": 1354,
      "Wak": 1355,
      "umĠ": 1356,
      "aĠM": 1357,
      "anaĠnaĠ": 1358,
      "ranarĠ": 1359,
      "inĠk": 1360,
      "wasanĠ": 1361,
      "nam": 1362,
      "iya.": 1363,
      "áĮĪáĬĿ": 1364,
      "tÃł": 1365,
      "Tar": 1366,
      "áĪŃáīµ": 1367,
      "WaliofarikiĠ": 1368,
      "láº¹Ìģ": 1369,
      "imĠ": 1370,
      "thatĠ": 1371,
      "âĢľ": 1372,
      "Ã¬w": 1373,
      "Or": 1374,
      "olÃ³": 1375,
      "abbanĠ": 1376,
      "Ok": 1377,
      "oĠnaĠ": 1378,
      "áĬķáīµ": 1379,
      "far": 1380,
      "annanĠ": 1381,
      "embaĠ": 1382,
      "Ġáĭ¨áĬ¢áīµáĭ®áĮµáĭ«": 1383,
      "ĠáĪĺáĬķáĮįáĪ¥áīµ": 1384,
      "áĬķáĪµ": 1385,
      "12": 1386,
      "Yor": 1387,
      "pÃŃnláº¹ÌĢĠ": 1388,
      "okacinĠ": 1389,
      "aid": 1390,
      "Jan": 1391,
      "org": 1392,
      "wallonĠ": 1393,
      "iss": 1394,
      "ageĠ": 1395,
      "má»įÌĢĠ": 1396,
      "áĪĶ": 1397,
      "alikuwaĠ": 1398,
      "âĢĵ": 1399,
      "ivers": 1400,
      "Ã©-": 1401,
      "ĠáĪĪáĪĽ": 1402,
      "haifeĠ": 1403,
      "te": 1404,
      "awá»įnĠ": 1405,
      "Ã²r": 1406,
      "dun": 1407,
      "áīłáĪ©": 1408,
      "Tanz": 1409,
      "áĬķáīĭ": 1410,
      "hal": 1411,
      "osĠ": 1412,
      "aniaĠ": 1413,
      "Rom": 1414,
      "in,Ġ": 1415,
      "Mus": 1416,
      "áĬª": 1417,
      "It": 1418,
      "áī½áĬķ": 1419,
      "áĪĭáĪįáį¢": 1420,
      "tanaĠ": 1421,
      "ÃĪ": 1422,
      "ĠáĪĨáĬĲ": 1423,
      "Ġáĭ¨áĬĲ": 1424,
      "13": 1425,
      "áĬĵáīµ": 1426,
      "aleĠ": 1427,
      "lÃ©Ġ": 1428,
      "sunaĠ": 1429,
      "ĠáĪįáĮħ": 1430,
      "192": 1431,
      "=Ġ": 1432,
      "âĢĿ": 1433,
      "wenyeĠ": 1434,
      "i'": 1435,
      "kÃ³": 1436,
      ").ĠM": 1437,
      "uĠmwakaĠ": 1438,
      "ogb": 1439,
      "Ki": 1440,
      "oll": 1441,
      "uku": 1442,
      "Ãł.": 1443,
      "yarĠ": 1444,
      "ia": 1445,
      "afiĠ": 1446,
      "orÃŃláº¹ÌĢ-Ã¨dÃ¨Ġ": 1447,
      "comm": 1448,
      "yakeĠ": 1449,
      "Ã¡n": 1450,
      "ĠáĭµáĪ¨áĪµ": 1451,
      "hisĠ": 1452,
      "ĠáĭĿ": 1453,
      "ewĠ": 1454,
      "ser": 1455,
      "PapaĠ": 1456,
      "ajiĠ": 1457,
      "Ġ2": 1458,
      "áĭļáĭ«": 1459,
      "áįī": 1460,
      "ask": 1461,
      "igh": 1462,
      "ĠáĭĵáĬŃáĪįáīł.": 1463,
      "káº¹": 1464,
      "asi": 1465,
      "enc": 1466,
      "Ġáĭ«áĪįáī°": 1467,
      "fĠ": 1468,
      "itt": 1469,
      "piaĠ": 1470,
      "aĠaĠ": 1471,
      "inger": 1472,
      "Ãª": 1473,
      "akiĠ": 1474,
      "AfrikaĠ": 1475,
      "man": 1476,
      "áĭ°áī¥": 1477,
      "aĠkwaĠ": 1478,
      "áī°áĪ¨áĮİ": 1479,
      "jer": 1480,
      "aziĠ": 1481,
      "tareĠdaĠ": 1482,
      "pourĠ": 1483,
      "ri": 1484,
      "ĠáĪħ": 1485,
      "sÃ¬": 1486,
      "áĮĬ": 1487,
      "form": 1488,
      "aul": 1489,
      "aĠkar": 1490,
      "ĠáĬ¤": 1491,
      "áī£áĪį": 1492,
      "oá¹£Ã¹Ġ": 1493,
      "Ġáĭ¨áĬ¥": 1494,
      "OĠ": 1495,
      "eaĠ": 1496,
      "Ġáīĭ": 1497,
      "entr": 1498,
      "iya,Ġ": 1499,
      "ĠáĪµáĪĿ": 1500,
      "Ã©eĠ": 1501,
      "ĠáĪĮ": 1502,
      "indaĠ": 1503,
      "áĪĨáĬĳ": 1504,
      "azartaĠ": 1505,
      "ÃĢwá»įn": 1506,
      "eu": 1507,
      "áĪ£": 1508,
      "áĪ¸": 1509,
      "kus": 1510,
      "aitĠ": 1511,
      ",00": 1512,
      "tor": 1513,
      "ĠáĬłáĮĪ": 1514,
      "tern": 1515,
      "danĠ": 1516,
      "tsĠ": 1517,
      "ĠáīłáĬ¥": 1518,
      "ĠáĪĢ": 1519,
      "o-": 1520,
      "²áį±": 1521,
      "be": 1522,
      "dansĠ": 1523,
      "kÃ²Ġ": 1524,
      "li": 1525,
      "áī¸áĭįáį¢": 1526,
      "esh": 1527,
      "ĠM": 1528,
      "190": 1529,
      ".ĠItokasiĠ": 1530,
      "áĬķáĭ«": 1531,
      "Ã¬á¹£": 1532,
      "Afir": 1533,
      "ĠáĪĽáĪĪáīµ": 1534,
      "emi": 1535,
      "ahus": 1536,
      "afinĠ": 1537,
      "Ã¬yÃłnĠ": 1538,
      "oth": 1539,
      "áĪĬáĭĿ": 1540,
      "arg": 1541,
      "iiĠin": 1542,
      "oriĠ": 1543,
      "ern": 1544,
      "º¸": 1545,
      "áĪłáĪ": 1546,
      "latiĠ": 1547,
      "ĠáĪĥ": 1548,
      "áī¸áĭįáĬķ": 1549,
      "Afric": 1550,
      "ris": 1551,
      "antaĠ": 1552,
      "Nijer": 1553,
      "Gu": 1554,
      "ĠáĬķáĮīáĪ¥": 1555,
      "eĠdaĠ": 1556,
      "áĬ¨áī°": 1557,
      "ile-edeĠ": 1558,
      "waj": 1559,
      "part": 1560,
      "áī±áĬķ": 1561,
      "áĪµáī°": 1562,
      "áĭįáĭ«áĬķ": 1563,
      "kasanceĠ": 1564,
      "áįķ": 1565,
      "IĠ": 1566,
      "Joh": 1567,
      "Ind": 1568,
      "alÃ¡": 1569,
      "áī°áĪ¨áĮİáĪĺ": 1570,
      "Ġáĭ¨áĪļáĭ«": 1571,
      "pá»įÌĢĠ": 1572,
      "uĠnaĠ": 1573,
      "CĠ": 1574,
      "áĪĢ": 1575,
      "áº¹Ìģg": 1576,
      "áī£áī¢": 1577,
      "ju": 1578,
      "int": 1579,
      "ĠáĬłáĪĺ": 1580,
      "lugh": 1581,
      "189": 1582,
      "lá»į": 1583,
      "waĠnaĠ": 1584,
      "Ġáī³áĪªáĬŃ": 1585,
      "urk": 1586,
      "Makal": 1587,
      "abiĠ": 1588,
      "nchiĠ": 1589,
      "bÃ¡": 1590,
      "a)Ġ": 1591,
      "wad": 1592,
      "the": 1593,
      "ĠáīłáĬłáĪ": 1594,
      "Ġáĭ«áĪįáī°áī°áĪ¨áĮİáĪĺ": 1595,
      "Ġáĭ«áĪįáī°áī°áĪ¨áĮİáĪĺĠáĪĿáĪ³áĪĮ": 1596,
      "po": 1597,
      "²áį±áį»áį": 1598,
      "áĬķáĮ": 1599,
      "fic": 1600,
      "áĪĦ": 1601,
      "hak": 1602,
      "ĠáĮī": 1603,
      "ĠáĪ°áĭį": 1604,
      "icalĠ": 1605,
      "iriĠ": 1606,
      "risto": 1607,
      "Com": 1608,
      "ationalĠ": 1609,
      "ĠáīĭáĬķáīĭ": 1610,
      "aĠt": 1611,
      "áĭĽáīµ": 1612,
      "aĠhiiĠin": 1613,
      "Ġáĭ¨áĬłáĪĽáĪŃáĬĽĠáĪĿáĪ³áĪĮĠáĬĲáĭįáį¢ĠáīµáĪŃáĮīáĪĻĠáĭ«áĪįáī°áī°áĪ¨áĮİáĪĺĠáĪĿáĪ³áĪĮ": 1614,
      "uĠk": 1615,
      "iliy": 1616,
      "ashinĠ": 1617,
      "kut": 1618,
      "áĪŀáī½": 1619,
      "JiharĠ": 1620,
      "ear": 1621,
      "0.": 1622,
      "ráº¹ÌĢ": 1623,
      "NÃŃ": 1624,
      "andaĠ": 1625,
      "oĠ(": 1626,
      "ianĠ": 1627,
      "awanĠ": 1628,
      "áĮ¥áĪŃ": 1629,
      "MakalaĠhiiĠin": 1630,
      "páº¹ÌĢ": 1631,
      "yanĠ": 1632,
      "MakalaĠhiiĠinahus": 1633,
      "MakalaĠhiiĠinahusuĠmwakaĠ": 1634,
      "ninuĠ": 1635,
      "enceĠ": 1636,
      "áĪ«áīµ": 1637,
      "1.": 1638,
      "res": 1639,
      "Ġáĭ³": 1640,
      "shindiĠwaĠTuzoĠyaĠNobelĠyaĠ": 1641,
      "deĠl'": 1642,
      "atukioĠ": 1643,
      "áī£áīµ": 1644,
      "El": 1645,
      "áī¥áĪŃ": 1646,
      "áĪł": 1647,
      "ĠáĬłáĬ«": 1648,
      "Ġáį£": 1649,
      "fi": 1650,
      "on,Ġ": 1651,
      "dh": 1652,
      "Afirk": 1653,
      "áĪįáĬŃ": 1654,
      "ichĠ": 1655,
      "rap": 1656,
      "/áĪĿ": 1657,
      "mÃ¡": 1658,
      "Ġáĭ¨áĪĽ": 1659,
      "sc": 1660,
      "ankinĠ": 1661,
      "oci": 1662,
      "Ġáī¥áĭĻ": 1663,
      "ru": 1664,
      "stĠ": 1665,
      "amp": 1666,
      "áĭĭáĪįáį¢": 1667,
      "dÃ¡": 1668,
      "shugab": 1669,
      "ayiĠ": 1670,
      "gbeĠ": 1671,
      "ehem": 1672,
      "di": 1673,
      "Ã©sĠ": 1674,
      "sp": 1675,
      "yÃ¬nĠ": 1676,
      "atif": 1677,
      "ishaĠ": 1678,
      "yaĠKristo": 1679,
      "tel": 1680,
      "Ã¨nÃ¬yÃłnĠ": 1681,
      "áĪĭáīµ": 1682,
      "ĠáĭŃáĮĪ": 1683,
      "anĠhaifeĠ": 1684,
      "áĬ¨áĪį": 1685,
      "way": 1686,
      "ma": 1687,
      "áĪĿáĪ®": 1688,
      "farkoĠ": 1689,
      "vi": 1690,
      "yaĠKristo).ĠM": 1691,
      "Ac": 1692,
      "kÃł": 1693,
      "akar": 1694,
      "Ġ(BaadaĠ": 1695,
      "ept": 1696,
      "dagaĠcikinĠ": 1697,
      "rit": 1698,
      "gaĠwatanĠ": 1699,
      "yÃ¬ÃŃĠ": 1700,
      "oteĠ": 1701,
      "Ġ(BaadaĠyaĠKristo).ĠM": 1702,
      "1,Ġ": 1703,
      "gu": 1704,
      "orile-edeĠ": 1705,
      "Ġáĭĵ/áĪĿ": 1706,
      "ustr": 1707,
      "plusĠ": 1708,
      "ĠáĪŀ": 1709,
      "weng": 1710,
      "shekararĠ201": 1711,
      "En": 1712,
      "terĠ": 1713,
      "arĠm": 1714,
      "Univers": 1715,
      "gbÃ©": 1716,
      "asar": 1717,
      "eĠofĠ": 1718,
      "ĠáĮł": 1719,
      "áĪĭáĪį": 1720,
      "áĪ³áĭŃ": 1721,
      "kÃŃĠ": 1722,
      "yinĠ": 1723,
      "otĠ": 1724,
      "lak": 1725,
      "Wa": 1726,
      "ool": 1727,
      "Ing": 1728,
      "aik": 1729,
      "sun": 1730,
      "bayanĠ": 1731,
      "saĠ": 1732,
      "we": 1733,
      "ĠáĪĻ": 1734,
      "niĠm": 1735,
      "andeĠ": 1736,
      "abil": 1737,
      "olaĠ": 1738,
      "birninĠ": 1739,
      "áī³áĭĬ": 1740,
      "nÃŃĠá»įdÃºnĠ": 1741,
      "uat": 1742,
      "Jul": 1743,
      "add": 1744,
      "báº¹ÌĢ": 1745,
      "lin": 1746,
      "tunĠ": 1747,
      "ousĠ": 1748,
      "ĠáĬłáĪµáī°": 1749,
      "áĪĿáĪħ": 1750,
      "pam": 1751,
      "áĮĤ": 1752,
      "ĠáĮ½": 1753,
      "anoĠ": 1754,
      "peĠ": 1755,
      "edĠtoĠ": 1756,
      "iqueĠ": 1757,
      "zin": 1758,
      "ĠáĮİ": 1759,
      "jáº¹Ìģ": 1760,
      "ÆĻwallonĠ": 1761,
      "auk": 1762,
      "i.Ġ": 1763,
      "Ã¬l": 1764,
      "ilikuwaĠ": 1765,
      "áĪĺáĪŃ": 1766,
      "mar": 1767,
      "daĠd": 1768,
      "Vi": 1769,
      "tÃºnĠ": 1770,
      "ne": 1771,
      "ľáĪªáĬ«": 1772,
      "ĠáĪ³áĭŃ": 1773,
      "lang": 1774,
      "ayanĠ": 1775,
      ")ĠjeĠ": 1776,
      "ĠáĬ¥áĬķáĭ³": 1777,
      "shiĠneĠ": 1778,
      "tÃŃ": 1779,
      "Sch": 1780,
      "ĠáĭĭáĬĵ": 1781,
      "str": 1782,
      "áĬķáĭ³": 1783,
      "ĠáĬ®": 1784,
      "áĮĨ": 1785,
      "áĭ²áĪµ": 1786,
      "ĠáīłáĪļ": 1787,
      "tÃ¬Ġ": 1788,
      "oul": 1789,
      "ueĠ": 1790,
      "mÃ©": 1791,
      ".áĬł": 1792,
      "wÃ¡": 1793,
      "emberĠ": 1794,
      "já»įĠ": 1795,
      "edĠbyĠ": 1796,
      "áĮįáĪŃ": 1797,
      "ement": 1798,
      "comp": 1799,
      "0,Ġ": 1800,
      "Con": 1801,
      "ra": 1802,
      "\".": 1803,
      "ĠáĪĺáĬķ": 1804,
      "ĠáĪĺáĪµ": 1805,
      "Ġ(BaadaĠyaĠKristo).ĠMatukioĠ": 1806,
      "áī·": 1807,
      "atur": 1808,
      "maĠ": 1809,
      "iseĠ": 1810,
      "ign": 1811,
      "prÃ©": 1812,
      "ia,Ġ": 1813,
      "Col": 1814,
      "1-": 1815,
      "jáº¹Ġ": 1816,
      "áĮłáĪŃ": 1817,
      "ardĠ": 1818,
      "an.": 1819,
      "Ġáī¤áī°": 1820,
      "ko": 1821,
      "sĠ(": 1822,
      "eriaĠ": 1823,
      "kir": 1824,
      "Ġáį¢": 1825,
      "iĠyaĠm": 1826,
      "rel": 1827,
      "áĭĿáī¥": 1828,
      "bal": 1829,
      "inĠdaĠ": 1830,
      "kul": 1831,
      "sy": 1832,
      "áĪĭáĭŃ": 1833,
      "okoĠ": 1834,
      "aikiĠ": 1835,
      "zamaĠ": 1836,
      "NÃłÃ¬jÃŃrÃŃÃłĠ": 1837,
      "acc": 1838,
      "Éĵ": 1839,
      "uniĠ": 1840,
      "áĮĪáĬĺ": 1841,
      "manĠ": 1842,
      "áĪĿĠáīł": 1843,
      "ulk": 1844,
      "Â«Ġ": 1845,
      "2,Ġ": 1846,
      "laĠm": 1847,
      "hukum": 1848,
      "áº¹Ìģgáº¹ÌģĠ": 1849,
      "áįĸ": 1850,
      "Ben": 1851,
      "á»įbaĠ": 1852,
      "waĠk": 1853,
      "kÃ³Ġ": 1854,
      "Mat": 1855,
      "bi": 1856,
      "eneoĠ": 1857,
      "anciĠ": 1858,
      "pÃł": 1859,
      "BK": 1860,
      "ber": 1861,
      "jÃ¡": 1862,
      "gbÃ©Ġ": 1863,
      "alinĠ": 1864,
      "omoĠ": 1865,
      "ĠáĪģáĪī": 1866,
      "LeĠ": 1867,
      "Ġáĭ¨áĪĨ": 1868,
      "tiv": 1869,
      "Ġ:": 1870,
      "áĭī": 1871,
      "itÃ©Ġ": 1872,
      "áº¹Ìģr": 1873,
      "All": 1874,
      "eheĠ": 1875,
      "--": 1876,
      "oir": 1877,
      "5,Ġ": 1878,
      "ĠáįĬ": 1879,
      "Mal": 1880,
      "InĠ": 1881,
      "tiĠoĠ": 1882,
      "áĬŀ": 1883,
      "antarĠ": 1884,
      "Ġá»įjá»įÌģĠ": 1885,
      "gir": 1886,
      "iesĠ": 1887,
      "isiwaĠ": 1888,
      "ubl": 1889,
      "6,Ġ": 1890,
      "mentĠ": 1891,
      "KarneĠyaĠ": 1892,
      "ojaĠnaĠ": 1893,
      "ĠáĬłáĪĿ": 1894,
      "avec": 1895,
      "áĮĢáĪĺáĪªáĭ«": 1896,
      "Ġáĭ¨áĪĿ": 1897,
      "omaĠ": 1898,
      "elleĠ": 1899,
      "áĪŃáĪµáī²": 1900,
      "jÃºĠ": 1901,
      "min": 1902,
      "ten": 1903,
      "ÆĻaf": 1904,
      "ishĠ": 1905,
      "áĪĨáĬĲ": 1906,
      "2.": 1907,
      "weny": 1908,
      "arab": 1909,
      "ashar": 1910,
      "aĠn": 1911,
      "ĠáĪĺáĭ°áī¥": 1912,
      "hur": 1913,
      "eĠdesĠ": 1914,
      "ous": 1915,
      "ationsĠ": 1916,
      "áĪ«áĭĬ": 1917,
      "nying": 1918,
      "kubwaĠ": 1919,
      "intaĠ": 1920,
      "ahar": 1921,
      "8,Ġ": 1922,
      "Ġá»įjá»įÌģ": 1923,
      "Ingil": 1924,
      "Le": 1925,
      "oniĠ": 1926,
      "Ġáĭ¨áĬłáĪĽáĪŃáĬĽĠáĪĿáĪ³áĪĮĠáĬĲáĭįáį¢ĠáīµáĪŃáĮīáĪĻĠáĭ«áĪįáī°áī°áĪ¨áĮİáĪĺĠáĪĿáĪ³áĪĮĠáī°áĪ¨áīµáĬĵĠáĪĿáĪ³áĪĮ": 1927,
      "awal": 1928,
      "áº¹ÌģrÃŃ": 1929,
      "ĠáĪ°áĭİáī½": 1930,
      "beĠ": 1931,
      "cewaĠ": 1932,
      "20Ġ": 1933,
      "akinĠ": 1934,
      "mwan": 1935,
      "sik": 1936,
      "19Ġ": 1937,
      "MarekaniĠ": 1938,
      "ráº¹Ġ": 1939,
      "Ã¨sĠ": 1940,
      "7,Ġ": 1941,
      "tsak": 1942,
      "lu": 1943,
      "uv": 1944,
      "ÃĮpÃŃnláº¹ÌĢĠ": 1945,
      "Nigeri": 1946,
      "wor": 1947,
      "áī½áį¢": 1948,
      "ia.": 1949,
      "adh": 1950,
      "Ed": 1951,
      "Amáº¹ÌģrÃŃ": 1952,
      "uwarĠ": 1953,
      "ká»įÌĢ": 1954,
      "waiĠ": 1955,
      "ÆĻwallonĠÆĻaf": 1956,
      "At": 1957,
      "ail": 1958,
      "lat": 1959,
      "orinĠ": 1960,
      "ishiĠ": 1961,
      "land": 1962,
      "Ġáī¦": 1963,
      "istr": 1964,
      "ĠáĬĲáĮĪáĪŃ": 1965,
      "itsĠ": 1966,
      "kÃłĠ": 1967,
      "áįİ": 1968,
      "ominĠ": 1969,
      "ManazartaĠ": 1970,
      "y.": 1971,
      "Gh": 1972,
      "ast": 1973,
      "ivy": 1974,
      "Wat": 1975,
      "Far": 1976,
      "Ġáīłáĭĺ": 1977,
      "Tr": 1978,
      "ne,Ġ": 1979,
      "isaĠ": 1980,
      "lÃ¨Ġ": 1981,
      "ÃŃá¹£": 1982,
      "aliy": 1983,
      "áĬķáĮįáĪĬáĭĿ": 1984,
      "Ge": 1985,
      "Dun": 1986,
      "dar": 1987,
      "dakeĠ": 1988,
      "Ġáī°áĪĺ": 1989,
      "áī¦áī½": 1990,
      "Ã©esĠ": 1991,
      "áĪĿáį¢": 1992,
      "áī°áĭį": 1993,
      "abaĠ": 1994,
      "mat": 1995,
      "Gr": 1996,
      "áīµĠáĭ¨": 1997,
      "si": 1998,
      "Ãły": 1999,
      "áĮ¸": 2000,
      "ÃĮt": 2001,
      "Har": 2002,
      "adeĠ": 2003,
      "aĠmwakaĠwaĠ": 2004,
      "eĠduĠ": 2005,
      "lokacinĠ": 2006,
      "wamn": 2007,
      "NewĠ": 2008,
      "mon": 2009,
      "áĬķĠáĬł": 2010,
      "whichĠ": 2011,
      "miĠ": 2012,
      "Janu": 2013,
      "na": 2014,
      "ÃŃr": 2015,
      "áĮłáīĢ": 2016,
      "4,Ġ": 2017,
      "Ã¨reĠ": 2018,
      "5.": 2019,
      "iluĠ": 2020,
      "ikoĠ": 2021,
      "áĪĽáĪª": 2022,
      "eĠd'": 2023,
      "ĠáīĨ": 2024,
      "tit": 2025,
      "Ã©n": 2026,
      "ilÃ©-": 2027,
      "Par": 2028,
      "woĠ": 2029,
      "Ġáĭ¨áĪļáĮĪáĬĿ": 2030,
      "yáº¹Ġ": 2031,
      "iteĠ": 2032,
      "auxĠ": 2033,
      "a:Ġ": 2034,
      "ray": 2035,
      "anĠs": 2036,
      "3.": 2037,
      "fit": 2038,
      "iĠkwaĠ": 2039,
      "Ã¨t": 2040,
      "4.": 2041,
      "NĠ": 2042,
      "taĠk": 2043,
      "shig": 2044,
      "ĠáĭĵáĪĺáīµ": 2045,
      "ĠáĭĵáĪĿ": 2046,
      "kasarĠ": 2047,
      "áĪ¨áĭį": 2048,
      "ust": 2049,
      "dÃºnĠ": 2050,
      "wÃ¡Ġ": 2051,
      "faraĠ": 2052,
      "Ãł,Ġ": 2053,
      "áį¥": 2054,
      "ert": 2055,
      "Ãłm": 2056,
      "fal": 2057,
      "lim": 2058,
      "á»įÌģkas": 2059,
      "port": 2060,
      "i-": 2061,
      "sehem": 2062,
      "Ã§": 2063,
      "6.": 2064,
      "odĠ": 2065,
      "Ã¬r": 2066,
      "áĮĵ": 2067,
      "in.": 2068,
      "áĭŀ": 2069,
      "Nov": 2070,
      "ĠáĬª": 2071,
      "áį£Ġáĭ¨": 2072,
      "aun": 2073,
      "suk": 2074,
      "surĠ": 2075,
      "Ãºr": 2076,
      "daĠsuk": 2077,
      "sĠofĠ": 2078,
      "áĮįáī¥": 2079,
      "bo": 2080,
      "Ã¬m": 2081,
      "wakeĠ": 2082,
      "ĠáĪĿáĬŃ": 2083,
      "kuf": 2084,
      "ajiĠwaĠ": 2085,
      "pel": 2086,
      ").Ġ": 2087,
      "áĬķĠáīł": 2088,
      "7.": 2089,
      "obaĠ": 2090,
      "ĠáĬ¥áĭ¨": 2091,
      "áĭ±áĪµ": 2092,
      "páº¹ÌĢlÃºĠ": 2093,
      "Sept": 2094,
      "gáº¹Ìģgáº¹ÌģĠ": 2095,
      "rec": 2096,
      "ĠáĪĺáĭ°áī¥Ġ:": 2097,
      "kej": 2098,
      "avecĠ": 2099,
      ".áĬ¤": 2100,
      "Um": 2101,
      "áĪĭáĬķáĭµ": 2102,
      "áĬĸáī½": 2103,
      "Em": 2104,
      "áĬ¢": 2105,
      "outĠ": 2106,
      "ananĠ": 2107,
      "ect": 2108,
      "áįĴ": 2109,
      "wannanĠ": 2110,
      "yar": 2111,
      "abar": 2112,
      "ÆĻar": 2113,
      "Apr": 2114,
      "ait": 2115,
      "tan": 2116,
      "uwan": 2117,
      "3,Ġ": 2118,
      "Austr": 2119,
      "ras": 2120,
      "sin": 2121,
      "ĠáĪĭ": 2122,
      "pin": 2123,
      "pol": 2124,
      "áĭ³áĬķ": 2125,
      "áĮĮ": 2126,
      "col": 2127,
      "áĮ¨áĪ¨": 2128,
      "Ġáīĥ": 2129,
      "oĠvyaĠ": 2130,
      "ian": 2131,
      "á»Į": 2132,
      "áīµĠáīł": 2133,
      "áī³áī¸áĭį": 2134,
      "áĬ¥áĬķ": 2135,
      "biyuĠ": 2136,
      "TaĠ": 2137,
      "kun": 2138,
      "kÃ©": 2139,
      "Ġáº¹gb": 2140,
      "gbÃ¡": 2141,
      "áĭŃáĪħ": 2142,
      "Ken": 2143,
      "ele": 2144,
      "ĠáĪĺáĬ«": 2145,
      "áĬłáī¥": 2146,
      "jama'": 2147,
      "ilÃ©Ġ": 2148,
      "idĠ": 2149,
      "yak": 2150,
      "ĠS": 2151,
      "gbogb": 2152,
      "áĪ¨áĮĥ": 2153,
      "Kat": 2154,
      "gud": 2155,
      "aĠranarĠ": 2156,
      "Muh": 2157,
      "áĪ¨áĬķ": 2158,
      "Ġ(BaadaĠyaĠKristo).ĠMatukioĠWaliozaliwaĠ": 2159,
      "babbanĠ": 2160,
      "aĠshekararĠ": 2161,
      "ĠáĪĲ": 2162,
      "ativ": 2163,
      "ialĠ": 2164,
      "áĮ¦": 2165,
      "olÃ¹": 2166,
      "áĪĿáĬĵ": 2167,
      "aoĠ": 2168,
      "jiĠ": 2169,
      "ambaĠ": 2170,
      "saiĠ": 2171,
      "ajalis": 2172,
      "Af": 2173,
      "toĠtheĠ": 2174,
      "pamojaĠnaĠ": 2175,
      "Ray": 2176,
      "e)Ġ": 2177,
      "loĠ": 2178,
      "ht": 2179,
      "Ã©g": 2180,
      "allyĠ": 2181,
      "ĠáĬ¨áĬł": 2182,
      "aĠkatikaĠ": 2183,
      "LesĠ": 2184,
      "áĪĪáĭ«": 2185,
      "ancinĠ": 2186,
      "áī°áĪŃ": 2187,
      "Ġáī°áīĢ": 2188,
      "188": 2189,
      "ĠáĬĲáīłáĪ¨": 2190,
      "sÃ¡": 2191,
      "áĭįĠáĭ¨": 2192,
      "áīµáĬĵ": 2193,
      "Bir": 2194,
      "áĮĪáĭµ": 2195,
      "áīĨáĮ£": 2196,
      "yp": 2197,
      "otoĠ": 2198,
      "Ãī": 2199,
      "ĠáĪĨáĬĸ": 2200,
      "Ay": 2201,
      "uwanĠ": 2202,
      "Ø§": 2203,
      "Feb": 2204,
      "idanĠ": 2205,
      "Ph": 2206,
      "áĪĺáĬĵ": 2207,
      "ĠáīłáĪµ": 2208,
      "eth": 2209,
      "kung": 2210,
      "áĪ¨áĭ³": 2211,
      "rub": 2212,
      "sontĠ": 2213,
      "utaneĠ": 2214,
      "TanzaniaĠ": 2215,
      "atifuĠ": 2216,
      "je": 2217,
      "utĠ": 2218,
      "ká»į": 2219,
      "UniversityĠ": 2220,
      "Ang": 2221,
      "ĠáīłáĬ¢áīµáĭ®áĮµáĭ«": 2222,
      "i'arĠ": 2223,
      "oneĠ": 2224,
      ".áĬ¤.áĬł": 2225,
      "irinĠ": 2226,
      "áĬĲáĭļáĪħ": 2227,
      "reg": 2228,
      "tÃłbÃŃĠ": 2229,
      "act": 2230,
      "wasanĠÆĻwallonĠÆĻaf": 2231,
      "áĪĺáĪµ": 2232,
      "áīħáĪĿ": 2233,
      "hany": 2234,
      "ar,Ġ": 2235,
      "áĪĽáĭĬ": 2236,
      "iaĠyaĠ": 2237,
      "iaĠm": 2238,
      "ĠáĬĵáī¸áĭįáį¢": 2239,
      "essĠ": 2240,
      "LaĠ": 2241,
      "ĠáĪ´": 2242,
      "Ġáįķ": 2243,
      "áĪ°áī¥": 2244,
      "Ġá»įmá»į": 2245,
      "sak": 2246,
      "áīª": 2247,
      "daĠakaĠ": 2248,
      "Ãłw": 2249,
      "allĠ": 2250,
      "oyinĠ": 2251,
      "imuĠ": 2252,
      "ĠáĭĺáĬķáĭµ": 2253,
      "Nai": 2254,
      "idaĠ": 2255,
      "áĪĶáĪŃ": 2256,
      "áįħ": 2257,
      "ĠáĮ¨": 2258,
      "Ġáĭ¨áĪ°": 2259,
      "áĮĪáĬĻ": 2260,
      "tun": 2261,
      "ukoĠ": 2262,
      "Pro": 2263,
      "kup": 2264,
      "ĠáĬłáī¥": 2265,
      "%Ġ": 2266,
      "iraĠ": 2267,
      "Ġáī£áĪĪ": 2268,
      "heĠ": 2269,
      "Ġ3": 2270,
      "ĠáĮĢáĪĿáĪ®": 2271,
      "ukĠ": 2272,
      "áĪ°áĭį": 2273,
      "Ġáī¤áīµ": 2274,
      "âĢĺ": 2275,
      "bas": 2276,
      "Cl": 2277,
      "áĭ¥": 2278,
      "ĠáĪ«": 2279,
      "áĮ½áĪĲ": 2280,
      "yĠofĠ": 2281,
      "a,Ġm": 2282,
      "Ġáĭ«áĪĪ": 2283,
      "ilit": 2284,
      "anninĠ": 2285,
      "jiĠm": 2286,
      "wanzaĠ": 2287,
      "asheĠ": 2288,
      "RD": 2289,
      "gbaj": 2290,
      "Ġáįĵ": 2291,
      "áĬķĠáĬ¨": 2292,
      "atedĠ": 2293,
      "Febru": 2294,
      "utaĠ": 2295,
      "áįĬáīµ": 2296,
      "Jap": 2297,
      "amfaniĠ": 2298,
      "áĪŃáĪ±": 2299,
      "itedĠ": 2300,
      "ĠáĬ¢áīµáĭ®áĮµáĭ«": 2301,
      "riĠ": 2302,
      "samuĠ": 2303,
      "an-": 2304,
      "eseĠ": 2305,
      "fÃŃ": 2306,
      "ĠáĬłáī£": 2307,
      "ĠáĮ¦áĪŃ": 2308,
      "ohunĠ": 2309,
      "'Ġ": 2310,
      "Ãłd": 2311,
      "50": 2312,
      "Bar": 2313,
      "shenĠ": 2314,
      "ingĠtheĠ": 2315,
      "8.": 2316,
      "akanĠ": 2317,
      "euxĠ": 2318,
      "Nor": 2319,
      "ĠáĮ¸": 2320,
      "áĭ¨áĪŃ": 2321,
      "Ġáĭ«áĪĪáĭį": 2322,
      "áī¡áī¥": 2323,
      "ww": 2324,
      "ĠáĬłáĮĪáĪŃ": 2325,
      "-ĠM": 2326,
      "Fas": 2327,
      "fer": 2328,
      "oreĠ": 2329,
      "Ġáī¥áī»": 2330,
      "cons": 2331,
      "kaĠ": 2332,
      "ÙĦ": 2333,
      "qu'": 2334,
      "raph": 2335,
      "áĪĿĠáĭ¨": 2336,
      "Histor": 2337,
      "Im": 2338,
      "onn": 2339,
      "eleĠ": 2340,
      "emp": 2341,
      "áī£áĪĪ": 2342,
      "leg": 2343,
      "áĬ¤áĪį": 2344,
      "Sp": 2345,
      "Ġáī°áĭĪ": 2346,
      "Ġáº¸": 2347,
      "Ã¬bÃŃĠ": 2348,
      "dÃŃ": 2349,
      "amil": 2350,
      "egbeĠ": 2351,
      "áĪłáĪ¨": 2352,
      "áĪįáĮ£": 2353,
      "esĠdeĠ": 2354,
      "finĠ": 2355,
      "Ġ\"": 2356,
      "odunĠ": 2357,
      "Americ": 2358,
      "dig": 2359,
      "aĠmaiĠ": 2360,
      "Ã©,Ġ": 2361,
      "Viung": 2362,
      ",ĠandĠ": 2363,
      "ĥáĭŃ": 2364,
      "wah": 2365,
      "uli": 2366,
      "áĭĭáĪį": 2367,
      "ashenĠ": 2368,
      "ĠáĪĺáĪį": 2369,
      "jerum": 2370,
      "áį£Ġáīł": 2371,
      "cinĠ": 2372,
      "lâĢĻ": 2373,
      "áĪīáīµ": 2374,
      "JohnĠ": 2375,
      "jin": 2376,
      "áī³áĪįáį¢": 2377,
      "Ap": 2378,
      "aneĠ": 2379,
      "uĠ(": 2380,
      "ViungoĠvyaĠ": 2381,
      "Om": 2382,
      "igb": 2383,
      "itionĠ": 2384,
      "áĪĭáī¸áĭį": 2385,
      "hadiĠ": 2386,
      "ÉĹanĠ": 2387,
      "Ġá»ĮÌĢ": 2388,
      "Ãłká»įÌģ": 2389,
      "aĠzaĠ": 2390,
      "kud": 2391,
      "anj": 2392,
      "ĠáĬ¦": 2393,
      "atunĠ": 2394,
      "lakiniĠ": 2395,
      "Awar": 2396,
      "áĪĿĠáĬ¨": 2397,
      "Naijir": 2398,
      ",Ġmwan": 2399,
      "lÃ¡Ġ": 2400,
      "adiĠ": 2401,
      "Ġáī°áĬ¨": 2402,
      "dis": 2403,
      "uch": 2404,
      "nÃŃgbÃłĠ": 2405,
      "ani.": 2406,
      "ĠB": 2407,
      "weĠ": 2408,
      "cul": 2409,
      "áį²áį±áį»áį": 2410,
      "ĠáĬ¥áĬķáĭ²áĪģ": 2411,
      "eurĠ": 2412,
      "harĠ": 2413,
      "sĠdeĠ": 2414,
      "áĬħ": 2415,
      "ingerezaĠ": 2416,
      "yĠ(": 2417,
      "áĭįáĪ®": 2418,
      "ith": 2419,
      "ĠáĬ¥.áĬ¤.áĬł": 2420,
      "áĭµáĬķ": 2421,
      "báº¹ÌĢráº¹ÌĢĠ": 2422,
      "ká»įÌģ": 2423,
      "áĪļáĭ«": 2424,
      "nchiniĠ": 2425,
      "Ma": 2426,
      "Sal": 2427,
      "gam": 2428,
      "al'": 2429,
      "astĠ": 2430,
      "itu": 2431,
      "ÃłĠlaĠ": 2432,
      "aveĠ": 2433,
      "ba": 2434,
      "edĠtheĠ": 2435,
      "ĠáīģáĮ¥áĪŃ": 2436,
      "9,Ġ": 2437,
      "Intern": 2438,
      "YorÃ¹": 2439,
      "\",Ġ": 2440,
      "Shugab": 2441,
      "Ã¬gbÃł": 2442,
      "aĠkanĠ": 2443,
      "ItokasiĠÃĢwá»įnĠ": 2444,
      "Kis": 2445,
      "lor": 2446,
      "Ur": 2447,
      "jinaĠ": 2448,
      "ograph": 2449,
      "bur": 2450,
      "niĠÃ³Ġ": 2451,
      "oĠch": 2452,
      "kuuĠwaĠ": 2453,
      "ÃłrÃ¹nĠ": 2454,
      "ĠáĪī": 2455,
      "wá»įÌģ": 2456,
      "omin": 2457,
      "ĠáĪ¥áĪŃ": 2458,
      "wasanĠÆĻwallonĠÆĻafaĠtaĠ": 2459,
      "Wá»įÌģnĠ": 2460,
      "watuĠ": 2461,
      "5)Ġ": 2462,
      "ym": 2463,
      "oĠlaĠ": 2464,
      "tÃ³": 2465,
      "uaĠ": 2466,
      "Ã¨yÃŃĠ": 2467,
      "lec": 2468,
      "máº¹Ìģ": 2469,
      "iyoĠ": 2470,
      "asoĠ": 2471,
      "cent": 2472,
      "treĠ": 2473,
      "Pe": 2474,
      "ilayaĠ": 2475,
      "áĬĵáĪį": 2476,
      "School": 2477,
      "ofinĠ": 2478,
      "Ġáĭ¨áĪĨáĬĲ": 2479,
      "Ġáĭ®": 2480,
      "ihiĠ": 2481,
      "dayaĠ": 2482,
      "Tur": 2483,
      "aliaĠ": 2484,
      "áĪ¥áī³áīµ": 2485,
      "wasanĠÆĻwallonĠÆĻafaĠtaĠÆĻasarĠ": 2486,
      "oisĠ": 2487,
      "elop": 2488,
      "katikaĠm": 2489,
      "Lag": 2490,
      "dab": 2491,
      "wo": 2492,
      "ĠáĭĪáĬķ": 2493,
      "langu": 2494,
      "áĪŃáĬŃ": 2495,
      "kur": 2496,
      "wereĠ": 2497,
      "ikeĠ": 2498,
      "ĠáĮ£": 2499,
      "9.": 2500,
      "Og": 2501,
      "Ul": 2502,
      "duc": 2503,
      "Ùİ": 2504,
      "al-": 2505,
      "chiĠ": 2506,
      "ĠáĬłáīł": 2507,
      "ĠáīłáĪĿ": 2508,
      "Ġá»įdunĠ": 2509,
      "Ujerum": 2510,
      "áī¢áĭ«": 2511,
      "Itokasi": 2512,
      "ki": 2513,
      "zil": 2514,
      "áĬķĠáĭ«": 2515,
      "já»įÌģĠ": 2516,
      "áĬ¦": 2517,
      "Muhamm": 2518,
      "2019": 2519,
      "ÃłĠl'": 2520,
      "10Ġ": 2521,
      "is,Ġ": 2522,
      "ownĠ": 2523,
      "IlĠ": 2524,
      "kamaĠ": 2525,
      "áĮłáĪ«": 2526,
      "ĠáĪĺáĭ°áī¥Ġ:Ġáī°áĪ¨áīµáĬĵĠáĪĿáĪ³áĪĮ": 2527,
      "áĮ¨áĪ¨áĪ»": 2528,
      "áĮ¤": 2529,
      "Ã¡nĠ": 2530,
      "adar": 2531,
      "áĭµáĪĿ": 2532,
      "iceĠ": 2533,
      "ungiyarĠ": 2534,
      "wasuĠ": 2535,
      "ongĠ": 2536,
      "ĠáĭµáĪŃ": 2537,
      "ĠáĪľ": 2538,
      "áĬķĠáĪĺ": 2539,
      "iya": 2540,
      "aim": 2541,
      "de": 2542,
      "áīµĠáĪĺ": 2543,
      "ĠáĬ¨áįį": 2544,
      "oph": 2545,
      "Amurk": 2546,
      "Are": 2547,
      "aĠkat": 2548,
      "Eng": 2549,
      "|ĠRD": 2550,
      "umm": 2551,
      "And": 2552,
      "akwaiĠ": 2553,
      "cour": 2554,
      "iĠkatikaĠ": 2555,
      "Ġáī¡": 2556,
      "ĠáĪĺáĬ«áĬ¨áĪį": 2557,
      "Mag": 2558,
      "áĬķĠáĭ¨": 2559,
      "áĬķáĬĵ": 2560,
      "cont": 2561,
      "ĠáīłáĪĭáĭŃ": 2562,
      "áĭİáī¹": 2563,
      "wÃ²Ġ": 2564,
      "shineĠ": 2565,
      "ĠáīłáĭĺáĪĺáĬĲ": 2566,
      "Qu": 2567,
      "áĬķáĮī": 2568,
      "kal": 2569,
      "Des": 2570,
      "keĠ": 2571,
      "afaĠ": 2572,
      "Ġá»įjá»įÌģÃ¬bÃŃĠ": 2573,
      "iniĠyaĠ": 2574,
      "áº¹l": 2575,
      "Ìģ": 2576,
      "áĬ³": 2577,
      "áĪĺáĪĪ": 2578,
      "lex": 2579,
      "tim": 2580,
      "inĠs": 2581,
      "ĠáīłáĪ°": 2582,
      "AĠcikinĠ": 2583,
      "ajalisarĠ": 2584,
      "butĠ": 2585,
      "anĠhaifeĠshiĠ": 2586,
      "Aug": 2587,
      "Bl": 2588,
      "Pol": 2589,
      "kan": 2590,
      ")Ġ(": 2591,
      "autarĠ": 2592,
      "out": 2593,
      "áĮįáĭļ": 2594,
      "dÃ¡Ġ": 2595,
      "kÃ²": 2596,
      "áī¥áĪ¨": 2597,
      "ort": 2598,
      "áīħáĪŃ": 2599,
      "ĠáĬŃáįįáĪĪ": 2600,
      "aá¹£": 2601,
      "oĠh": 2602,
      "Ã¬wÃ©Ġ": 2603,
      "Ã¬s": 2604,
      "áĪĽáĭŃ": 2605,
      "WaliofarikiĠKarneĠyaĠ": 2606,
      "vit": 2607,
      "áĪħáĪį": 2608,
      "ĠáĬ¥áĪµáĬ¨Ġ": 2609,
      "Sc": 2610,
      "Will": 2611,
      "ition": 2612,
      "Haus": 2613,
      "pad": 2614,
      "usuĠ": 2615,
      "ainĠ": 2616,
      "mÃ¡aĠ": 2617,
      "áĪĿáĪħáĪŃáīµ": 2618,
      "vol": 2619,
      "Ãģ": 2620,
      "ashiĠ": 2621,
      "wandaĠyaĠ": 2622,
      "za": 2623,
      "acceĠ": 2624,
      "187": 2625,
      "Me": 2626,
      "o.Ġ": 2627,
      "áīĦ": 2628,
      "áįĥ": 2629,
      "orn": 2630,
      "áĭŃáĭĪ": 2631,
      "upandeĠ": 2632,
      "jÃ¹": 2633,
      "áĬķáĮįáĪĬáĭĿáĬĽ": 2634,
      "gbogboĠ": 2635,
      "sannanĠ": 2636,
      "áīµáį¢": 2637,
      "zab": 2638,
      "zaĠm": 2639,
      "enyeĠ": 2640,
      "Ã¨gb": 2641,
      "ahaif": 2642,
      "owoĠ": 2643,
      "jáº¹": 2644,
      "Ã©d": 2645,
      ")ĠniĠ": 2646,
      "iĠniĠ": 2647,
      "ayÃ©Ġ": 2648,
      "serv": 2649,
      "sá»įĠ": 2650,
      "Ã´": 2651,
      "ipaĠ": 2652,
      "ogoĠ": 2653,
      "andĠtheĠ": 2654,
      "eursĠ": 2655,
      "Car": 2656,
      "edĠinĠ": 2657,
      "tareheĠ": 2658,
      "Fil": 2659,
      "Us": 2660,
      "áĬķĠáĭŃ": 2661,
      "njeĠ": 2662,
      "áīĨáĮ£áĮłáĪŃ": 2663,
      "esĠetĠ": 2664,
      "owĠ": 2665,
      "Ġáº¹ÌĢká»įÌģĠ": 2666,
      "lÃ³Ġ": 2667,
      "ĠáĪ½": 2668,
      "esĠ(": 2669,
      "Agb": 2670,
      "Eur": 2671,
      "ore": 2672,
      "ett": 2673,
      "commeĠ": 2674,
      "áĪµáī³": 2675,
      "Jami'arĠ": 2676,
      "atuĠ": 2677,
      "áĭįáį¢": 2678,
      "11": 2679,
      "warĠ": 2680,
      "186": 2681,
      "láº¹ÌĢĠÃ¨dÃ¨Ġ": 2682,
      "Ġáī¦áī³": 2683,
      "Bo": 2684,
      "ĠâĢľ": 2685,
      "inter": 2686,
      "Was": 2687,
      "ĠáĬłáĪŃ": 2688,
      "lÃ³rÃŃĠ": 2689,
      "jÃ¡Ġ": 2690,
      "áī¥áĪ«": 2691,
      "uleĠ": 2692,
      "aĠK": 2693,
      "áĮģ": 2694,
      "EnĠ": 2695,
      "iakaĠ": 2696,
      "kil": 2697,
      "pá»įÌĢ": 2698,
      "emiĠ": 2699,
      "Bur": 2700,
      "bar": 2701,
      "trans": 2702,
      "tobaĠ": 2703,
      "IS": 2704,
      "Mon": 2705,
      "oroĠ": 2706,
      "tob": 2707,
      "Ãºká»įĠ": 2708,
      "ayoĠ": 2709,
      "Id": 2710,
      "rah": 2711,
      "NigeriaĠ": 2712,
      "shugabanĠ": 2713,
      "Georg": 2714,
      "áĮįáĭļáĬłáī¥": 2715,
      "wá»įÌģĠ": 2716,
      "Ã¬dÃ¬": 2717,
      "Tanzani": 2718,
      "aikinĠ": 2719,
      "ound": 2720,
      "áĬŀáī½": 2721,
      "akarĠ": 2722,
      "ĠáĬĲáīłáĪ©": 2723,
      "áĪµáĬĵ": 2724,
      "otherĠ": 2725,
      "apoĠ": 2726,
      "awoĠ": 2727,
      "shekaruĠ": 2728,
      "VĠ": 2729,
      "ack": 2730,
      "Ġá»įjá»įÌģÃ¬bÃŃĠnÃŃĠ": 2731,
      "Ah": 2732,
      "áĭ¬": 2733,
      "áĮĨáī½": 2734,
      "daĠt": 2735,
      "áĪ³áīµ": 2736,
      "Marekani": 2737,
      "rin": 2738,
      "Ġáĭ¨áīĢ": 2739,
      "ijiĠ": 2740,
      ",ĠmshindiĠwaĠTuzoĠyaĠNobelĠyaĠ": 2741,
      "nchiĠyaĠ": 2742,
      "eeĠ": 2743,
      "Ġáī°áī¥": 2744,
      "áĪŃáĪµáī²áĭ«áĬķ": 2745,
      "Gre": 2746,
      "aÉĹ": 2747,
      "utuĠ": 2748,
      "ostĠ": 2749,
      "wakaziĠ": 2750,
      "zaĠk": 2751,
      "ableĠ": 2752,
      "//": 2753,
      "30": 2754,
      "Wor": 2755,
      "bug": 2756,
      "tp": 2757,
      "Ġáīħáĭ±áĪµ": 2758,
      "bin": 2759,
      "lam": 2760,
      "áº¹ÌĢká»įÌģĠ": 2761,
      "áĭķáĪ«": 2762,
      "gwamn": 2763,
      "OktobaĠ": 2764,
      "sur": 2765,
      ",000Ġ": 2766,
      "wÃ©Ġ": 2767,
      "aĠkas": 2768,
      "40": 2769,
      "May": 2770,
      "alam": 2771,
      "Ã®": 2772,
      "ĠáĭŃáĮĪáĬĽ": 2773,
      "lÃŃ": 2774,
      "atiĠwaĠ": 2775,
      "2-": 2776,
      "báº¹Ìģ": 2777,
      "Ãłt": 2778,
      "kunĠ": 2779,
      "³áĪµ": 2780,
      "áĪµáĪ«": 2781,
      "i,Ġm": 2782,
      "Ã¨rÃ©Ġ": 2783,
      "bayaĠ": 2784,
      "ubaĠ": 2785,
      "idiĠ": 2786,
      "Ġáĭĵ/áĪĿĠ-": 2787,
      "iveĠ": 2788,
      "Kus": 2789,
      "gar": 2790,
      "s'": 2791,
      "ĠáĪĿáĬŃáĬķáĭ«": 2792,
      "ĠofĠ": 2793,
      "ĠáĪ¨": 2794,
      "ireĠ": 2795,
      "azin": 2796,
      "Wan": 2797,
      "rá»įÌĢĠ": 2798,
      "áĭ¶áī½": 2799,
      "15Ġ": 2800,
      "Ã²á¹£Ã¨": 2801,
      "4)Ġ": 2802,
      "br": 2803,
      "wur": 2804,
      "ĠáĬ¨áĪĺ": 2805,
      "Ġá»įdÃºnĠ201": 2806,
      "áĪº": 2807,
      "alsoĠ": 2808,
      "roup": 2809,
      "Itali": 2810,
      "kÃ©k": 2811,
      "áĮįáĭļáĬłáī¥áĪĶáĪŃ": 2812,
      "ĠáīłáĭļáĪħ": 2813,
      "áī£áĪĪáĭį": 2814,
      "áĮ¥áĬķ": 2815,
      "Ã¬nrinĠ": 2816,
      ".ĠÃĢwá»įnĠ": 2817,
      "ĠáĬłáĪī": 2818,
      "lÃ³g": 2819,
      "12Ġ": 2820,
      "6)Ġ": 2821,
      "eyĠ": 2822,
      "ar.": 2823,
      "áĮ£áĪį": 2824,
      "ment": 2825,
      "sĠandĠ": 2826,
      "asil": 2827,
      "wacceĠ": 2828,
      "Ã¬já»įbaĠ": 2829,
      "áī¤áīµ": 2830,
      "Hu": 2831,
      "histor": 2832,
      "rik": 2833,
      "ciĠgab": 2834,
      "Franc": 2835,
      "NiĠ": 2836,
      "Oro": 2837,
      "Tang": 2838,
      "yÃŃ": 2839,
      "áĬķáĬķ": 2840,
      "itiĠ": 2841,
      "balimb": 2842,
      "áĮĪáĬĵ": 2843,
      "áĮįáĪ«": 2844,
      "7)Ġ": 2845,
      "tsakaninĠ": 2846,
      "Kam": 2847,
      "ys": 2848,
      "Ġáĭ¨áĭĪ": 2849,
      "nÃŃpaĠ": 2850,
      "vil": 2851,
      "erĠ(": 2852,
      "aduĠ": 2853,
      "áĬŃáīµ": 2854,
      "UnitedĠ": 2855,
      "Min": 2856,
      "Mas": 2857,
      "ukanĠ": 2858,
      "kumaĠtaĠ": 2859,
      "he": 2860,
      "ush": 2861,
      "arenĠ": 2862,
      "istĠ": 2863,
      "landĠ": 2864,
      "ogunĠ": 2865,
      "Ã¨gbÃ¨Ġ": 2866,
      "us,Ġ": 2867,
      "alit": 2868,
      "naĠku": 2869,
      "tonĠ": 2870,
      "erg": 2871,
      "iusĠ": 2872,
      "Ġáº¹gbáº¹ÌģĠ": 2873,
      "(200": 2874,
      "áĮĪáī£": 2875,
      "cesĠ": 2876,
      "uss": 2877,
      "Ġáĭ¨áĬĲáīłáĪ¨": 2878,
      "http": 2879,
      "hadĠ": 2880,
      "ĠáĬ¥.áĬ¤.áĬł.": 2881,
      "áī³áĭŃ": 2882,
      "premi": 2883,
      "áĬĴáĭ«": 2884,
      "://": 2885,
      "iĠdaĠ": 2886,
      "nÃŃĠÃ¬": 2887,
      "ĠáĬŃáįįáĪį": 2888,
      "ristoĠ": 2889,
      "nom": 2890,
      "pat": 2891,
      "unĠm": 2892,
      "Brit": 2893,
      "Ij": 2894,
      "odeĠ": 2895,
      "eralĠ": 2896,
      "áĬĸáĪŃ": 2897,
      "áĪľáĬķ": 2898,
      "amfaninĠ": 2899,
      "fur": 2900,
      "enn": 2901,
      "/Ġ": 2902,
      "Ġáĭ²": 2903,
      "ĠáĪŃ": 2904,
      "oke": 2905,
      "inay": 2906,
      "ĠáĭŃáī£": 2907,
      "wÃŃ": 2908,
      "Ãłti": 2909,
      "azamaĠ": 2910,
      "áį¦Ġ": 2911,
      "laf": 2912,
      "Ç¹": 2913,
      "aka": 2914,
      "áĪĪáī°": 2915,
      "ingerez": 2916,
      "ĠáĬłáĬ«áī£áī¢": 2917,
      "me": 2918,
      "ine": 2919,
      "Ã³nĠ": 2920,
      "iyeĠ": 2921,
      "iyanĠ": 2922,
      "ĠáĬ¥áĬķáĮį": 2923,
      "áĭ°áĪ¨áĮĪ": 2924,
      "áĮ½áĪĲáįį": 2925,
      "er.": 2926,
      "ilaĠ": 2927,
      "gbá»įÌģnĠ": 2928,
      "bÃŃiĠ": 2929,
      "L'": 2930,
      "LÃ¡": 2931,
      "gen": 2932,
      "firstĠ": 2933,
      "farans": 2934,
      "Orodh": 2935,
      "Kik": 2936,
      "mus": 2937,
      "notĠ": 2938,
      "Ġáįĸ": 2939,
      "Farans": 2940,
      "dÃ©Ġ": 2941,
      "áĪ«áĪį": 2942,
      "alif": 2943,
      "pop": 2944,
      "atinĠ": 2945,
      "ÃłÃ¡": 2946,
      "áĮĪáĬķ": 2947,
      "aÆĻ": 2948,
      "soci": 2949,
      "omeĠ": 2950,
      "kamarĠ": 2951,
      "ene": 2952,
      "imm": 2953,
      "embaĠ-Ġ": 2954,
      "Sou": 2955,
      "Ã©c": 2956,
      "iyyarĠ": 2957,
      "hanyarĠ": 2958,
      "wasanĠÆĻwallonĠÆĻafaĠtaĠÆĻasarĠIngil": 2959,
      "ric": 2960,
      "áī£áĭŃ": 2961,
      "Leg": 2962,
      "enti": 2963,
      "áĪįáīħ": 2964,
      "ĠáĬłáīĨáĮ£áĮłáĪŃ": 2965,
      "ai,Ġ": 2966,
      "3)Ġ": 2967,
      "jag": 2968,
      "n.": 2969,
      "odaĠ": 2970,
      "yÃ©Ġ": 2971,
      "kam": 2972,
      "lĠ": 2973,
      "áĬķáĮĭ": 2974,
      "omiĠ": 2975,
      "18Ġ": 2976,
      "ĠáĬłáĬķáĭ±": 2977,
      "kÃ©kerÃ©Ġ": 2978,
      "17Ġ": 2979,
      "áĪ¨áĮį": 2980,
      "\"Ġ(": 2981,
      "Mad": 2982,
      "occ": 2983,
      "Abd": 2984,
      "For": 2985,
      "Od": 2986,
      "áĪŃáĭĿ": 2987,
      "isp": 2988,
      "áĮłáīĥ": 2989,
      "ĠáĮįáĭĽáīµ": 2990,
      "haÉĹ": 2991,
      "14Ġ": 2992,
      "ĠáĬ¥áĭ«": 2993,
      "prÃ©s": 2994,
      "Bab": 2995,
      "If": 2996,
      "kiĠ": 2997,
      "Ãłp": 2998,
      "áįĪáĪŃ": 2999,
      "NÃłÃ¬jÃŃrÃŃÃł.": 3000,
      "Willi": 3001,
      "Gab": 3002,
      "áīĢáĪŃ": 3003,
      "Paul": 3004,
      "i:Ġ": 3005,
      "áī³áĪį": 3006,
      "contr": 3007,
      "Eb": 3008,
      "áĭµáĪŀ": 3009,
      "endele": 3010,
      "aireĠ": 3011,
      ".ĠMan": 3012,
      "nÃłĠ": 3013,
      "niĠnaĠ": 3014,
      "30Ġ": 3015,
      "âĢİ": 3016,
      "áĮİáĪŃ": 3017,
      "ĠáĬ¨áī°áĪŀáī½": 3018,
      "bec": 3019,
      "resĠ": 3020,
      "okac": 3021,
      "ĠáĬłáĪĭ": 3022,
      "áįĢ": 3023,
      "áĭŃáĬĵ": 3024,
      "áĮĪáĪĪ": 3025,
      "áį£ĠáĬ¨": 3026,
      "ĠáĬ¥áĬķáĭ°áĪļ": 3027,
      "Ger": 3028,
      "Ipin": 3029,
      "bl": 3030,
      "car": 3031,
      "já»į": 3032,
      "anzaĠ": 3033,
      "áīµáĪŃ": 3034,
      "en,Ġ": 3035,
      "Char": 3036,
      "á»įÌģkasÃŃĠ": 3037,
      "OrodhaĠyaĠ": 3038,
      "mb": 3039,
      "ani,Ġ": 3040,
      "ther": 3041,
      "lÃ¡n": 3042,
      "1)Ġ": 3043,
      "BabbanĠ": 3044,
      "Ts": 3045,
      "yad": 3046,
      "ĠáĪ¶": 3047,
      "áĭ°áīµ": 3048,
      "áº¹Ìģrá»įÌģ": 3049,
      "gáº¹Ìģgáº¹ÌģĠbÃŃĠ": 3050,
      "Jos": 3051,
      "Re": 3052,
      "ĠáĬĥáĭŃ": 3053,
      "daĠtaĠ": 3054,
      "Ã¡st": 3055,
      "lughaĠyaĠ": 3056,
      "baadaĠ": 3057,
      "BKĠ(BaadaĠyaĠKristo).ĠMatukioĠWaliozaliwaĠ": 3058,
      "Ã¡stáº¹Ìģrá»įÌģ": 3059,
      "NijeriyaĠ": 3060,
      "áĬĺ": 3061,
      "Ġáº¹láº¹Ìģ": 3062,
      "itaĠceĠ": 3063,
      "Najeriya.": 3064,
      "Musul": 3065,
      "16Ġ": 3066,
      "fl": 3067,
      "pÃ¨Ġ": 3068,
      "uuĠ": 3069,
      "áĬķáį¡": 3070,
      "ilip": 3071,
      "ikaĠk": 3072,
      "áī¥áĪµ": 3073,
      "áĪĽáĬĸ": 3074,
      "HeĠ": 3075,
      "osh": 3076,
      "ojo": 3077,
      "ejiĠ": 3078,
      "anaĠk": 3079,
      "ĠáĭŃáī½": 3080,
      ",ĠÃ³Ġ": 3081,
      "ĠáĪĽáĪŃ": 3082,
      "ĠáĪģáĪĪáīµ": 3083,
      "áĪĪáĭ«áĭ©": 3084,
      "kungiyarĠ": 3085,
      "anis": 3086,
      "tal": 3087,
      "Ã¢": 3088,
      "Ã¬k": 3089,
      "ham": 3090,
      "áĪı": 3091,
      "áĪĳ": 3092,
      "kumaĠm": 3093,
      "áĪ°áĪ«": 3094,
      "Jamhur": 3095,
      "AmerikaĠ": 3096,
      "DagaĠ": 3097,
      "aĠc": 3098,
      "áīµĠáĬ¨": 3099,
      "sÃŃláº¹ÌĢĠ": 3100,
      "mag": 3101,
      "wá»įÌĢ": 3102,
      "áĬ¬": 3103,
      "áĬŃáĪµ": 3104,
      "ĠáĭĺáĪĺ": 3105,
      "mÃ©j": 3106,
      "Tib": 3107,
      "mÃŃ": 3108,
      "ĠáĪ¸": 3109,
      "ilis": 3110,
      "Ã²á¹£Ã¨rÃ©Ġ": 3111,
      "yanz": 3112,
      "202": 3113,
      "iya.Ġ": 3114,
      "iĠyaĠk": 3115,
      "Europ": 3116,
      "2)Ġ": 3117,
      "Lond": 3118,
      "mÃ¬n": 3119,
      "onÃŃ": 3120,
      "ĠáĪĿáĬķáĮ": 3121,
      "áĭĸ": 3122,
      "Ġáī´": 3123,
      "emĠ": 3124,
      "iwaĠnaĠ": 3125,
      "och": 3126,
      "tang": 3127,
      "Ġáĭ©": 3128,
      "alm": 3129,
      "nÃŃĠibiĠ": 3130,
      "etteĠ": 3131,
      "áĭ¨áīµ": 3132,
      "iĠyaĠK": 3133,
      "Ã¨tÃ²Ġ": 3134,
      "11Ġ": 3135,
      "MataĠ": 3136,
      "táº¹Ìģ": 3137,
      "orsĠ": 3138,
      "Ik": 3139,
      "jih": 3140,
      "azart": 3141,
      "Pl": 3142,
      "áº¸": 3143,
      "áĪĪáĭŃ": 3144,
      "lÃ¡raĠ": 3145,
      "ĠáĬłáīłáī£": 3146,
      "i)Ġ": 3147,
      "Ã¬má»įÌĢĠ": 3148,
      "iĠkar": 3149,
      "8)Ġ": 3150,
      "aĠS": 3151,
      "utanenĠ": 3152,
      "ĠáĪĮáĪĭ": 3153,
      "jÃº": 3154,
      "yankinĠ": 3155,
      "awa,Ġ": 3156,
      "row": 3157,
      "ungeĠ": 3158,
      "Ã¡stáº¹Ìģrá»įÌģÃ¬dÃ¬": 3159,
      "13Ġ": 3160,
      "say": 3161,
      "t,Ġ": 3162,
      "ÃłkÃ³": 3163,
      "ĠáĭĪáīħ": 3164,
      "ĠáĭĺáĪĺáĬĲ": 3165,
      "oá¹£Ã¹Ġkáº¹": 3166,
      "Oc": 3167,
      "ier": 3168,
      "iĠkat": 3169,
      "ivyoĠ": 3170,
      "Mis": 3171,
      "ldĠ": 3172,
      "ameĠ": 3173,
      "jáº¹ÌģĠp": 3174,
      "Amáº¹ÌģrÃŃkÃł": 3175,
      "bÃ¹nĠ": 3176,
      "garinĠ": 3177,
      "³áį": 3178,
      "áīµĠáĬł": 3179,
      "Ã©l": 3180,
      "áĪĿáĪŃ": 3181,
      "áĪĺáĪ¨": 3182,
      "25": 3183,
      "Ufarans": 3184,
      "dev": 3185,
      "onĠtheĠ": 3186,
      "Ã²k": 3187,
      "ĠáĭĵáĪĺáī³áīµ": 3188,
      "ĠáĪĥáĭŃ": 3189,
      "Kad": 3190,
      "isiĠ": 3191,
      "oleĠ": 3192,
      "áĭ°áĪį": 3193,
      "áī±áĪĿ": 3194,
      "ĠáĮ¦áĪŃáĬĲáīµ": 3195,
      "áĮįáī£": 3196,
      "áĪŃáĪĺáĬķ": 3197,
      "stit": 3198,
      "ĠáĬ¥áĬĵĠáĭ¨": 3199,
      "falmeĠ": 3200,
      "oĠl": 3201,
      "áĪįáĮį": 3202,
      "baĠdaĠ": 3203,
      "ĠáĪµáĪ«": 3204,
      "áĪªáĬ«áĭĬ": 3205,
      "Ã©tÃ©Ġ": 3206,
      "fÃ©r": 3207,
      "sel": 3208,
      "kuj": 3209,
      "War": 3210,
      "kund": 3211,
      "ĠáĪµáĪŃ": 3212,
      "ongoz": 3213,
      "Ġáĭ¨áĪĺáĮĢáĪĺáĪªáĭ«": 3214,
      "zaid": 3215,
      "wajenĠ": 3216,
      "IpinleĠ": 3217,
      "60": 3218,
      "arch": 3219,
      "ĠáĪ²áĭ«": 3220,
      "lamb": 3221,
      "publ": 3222,
      "wig": 3223,
      "abl": 3224,
      "niĠwá»įÌģnĠ": 3225,
      "samiĠ": 3226,
      "as,Ġ": 3227,
      "okinĠ": 3228,
      "ackĠ": 3229,
      "ĠáĬłáĭŃáĬĲáīµ": 3230,
      "Agos": 3231,
      "Ir": 3232,
      "]Ġ": 3233,
      "ech": 3234,
      "ĠáĬłáĪ¨": 3235,
      "ughĠ": 3236,
      "áĪĲáĬķáĪµ": 3237,
      "wÃłĠnÃŃĠ": 3238,
      "hasĠ": 3239,
      "eraĠ": 3240,
      "iyaĠtaĠ": 3241,
      "áĮłáĪ¨": 3242,
      "AfricanĠ": 3243,
      "fromĠtheĠ": 3244,
      "lÃ¡náº¹Ìģ": 3245,
      "áĪįáĭµ": 3246,
      "áĪĭáĪĪ": 3247,
      "jÃ¡deĠ": 3248,
      "ĠáĬĲáīłáĪ¨áį¢": 3249,
      "SĠ": 3250,
      "Yun": 3251,
      "al,Ġ": 3252,
      "áĪŃáĭµ": 3253,
      "áīłáī¥": 3254,
      "ĠáĭŃáī³": 3255,
      "áĭ®áĬķ": 3256,
      "lá»įĠsÃŃĠ": 3257,
      "koaĠwaĠ": 3258,
      "ĠáĭĽ": 3259,
      "áĭįĠáīł": 3260,
      "Ã¬gbÃłĠ": 3261,
      "IIĠ": 3262,
      "Award": 3263,
      "Ser": 3264,
      "atarĠdaĠ": 3265,
      "ojoibiĠ": 3266,
      "BayanĠ": 3267,
      "Di": 3268,
      "km": 3269,
      "ustĠ": 3270,
      "quesĠ": 3271,
      "pres": 3272,
      "Ann": 3273,
      "sec": 3274,
      "Igb": 3275,
      "Wh": 3276,
      "ina": 3277,
      "lÃ¡náº¹ÌģtÃ¬Ġ": 3278,
      "Ky": 3279,
      "Ġáį²áį±áį»áį": 3280,
      "áįįáĪ«": 3281,
      "áĭĵáĪĪáĪĿ": 3282,
      "áĭįáĪ®áįĵ": 3283,
      "litt": 3284,
      "sesĠ": 3285,
      "uhur": 3286,
      "orÃŃláº¹ÌĢĠÃ¨dÃ¨Ġ": 3287,
      "Ã¬gbÃłjÃ¡Ġ": 3288,
      "Dec": 3289,
      "kÃ¡": 3290,
      "vis": 3291,
      "ionsĠ": 3292,
      "Ùħ": 3293,
      "Ã¬gb": 3294,
      "ĠáĬ¥áĪŃ": 3295,
      "Kir": 3296,
      "áĪĭáĪĿ": 3297,
      "ĠáĭĪáĪŃ": 3298,
      "azarta": 3299,
      "ukuĠ": 3300,
      "ightĠ": 3301,
      "lÃ¡náº¹ÌģtÃ¬ĠkÃ©kerÃ©Ġ": 3302,
      "Be": 3303,
      "unc": 3304,
      "2020": 3305,
      "ishwaĠ": 3306,
      "ĠáĬĲáĮĪáĪ¥áī³áīµ": 3307,
      "akarantarĠ": 3308,
      "ĠáĪłáĪ": 3309,
      "iyyaĠ": 3310,
      "áĮĢáĪĺáĪŃáĭ«": 3311,
      "ĠáĪĮáĪİáī½": 3312,
      "tele.Ġ": 3313,
      "des": 3314,
      "ĠáĬ³áĪµ": 3315,
      "ĠáĬ¥áĮħ": 3316,
      "samunĠ": 3317,
      "shiry": 3318,
      "fÃºn": 3319,
      "ult": 3320,
      "nÃŃĠibiĠÃ¬gbÃłjÃ¡Ġ": 3321,
      "Bal": 3322,
      "dif": 3323,
      "nj": 3324,
      "atesĠ": 3325,
      "185": 3326,
      "old": 3327,
      "áĬĲáĮĪáĪŃ": 3328,
      "Â»Ġ": 3329,
      "takatifuĠ": 3330,
      "lÃ¡náº¹ÌģtÃ¬ĠkÃ©kerÃ©ĠnÃŃĠibiĠÃ¬gbÃłjÃ¡Ġ": 3331,
      "daĠyaĠ": 3332,
      "ĠáĪĽáĪµ": 3333,
      "ojÃºĠ": 3334,
      "eauĠ": 3335,
      "ĠáĬ©": 3336,
      "ibuĠ": 3337,
      "fáº¹ÌģĠ": 3338,
      "kaf": 3339,
      "áĭĮ": 3340,
      "áīµáį£": 3341,
      "ĠáĪĽáĪĪáīµĠáĬĲáĭįáį¢": 3342,
      "Lib": 3343,
      "aud": 3344,
      "kumaĠyaĠ": 3345,
      "daĠyawanĠ": 3346,
      "jirg": 3347,
      "jáº¹ÌģĠplÃ¡náº¹ÌģtÃ¬ĠkÃ©kerÃ©ĠnÃŃĠibiĠÃ¬gbÃłjÃ¡Ġ": 3348,
      "má»įÌģĠ": 3349,
      "alementĠ": 3350,
      "kunaĠ": 3351,
      "®áī½": 3352,
      "oĠtaĠ": 3353,
      "iyas": 3354,
      "ref": 3355,
      "du": 3356,
      "á¹£eĠ": 3357,
      "rÃ©g": 3358,
      "Her": 3359,
      "Ob": 3360,
      "Oá¹£Ã¹Ġ": 3361,
      "nunaĠ": 3362,
      "Æĺ": 3363,
      "akaĠm": 3364,
      "áĭ°áī¡áī¥": 3365,
      "ĠáĪĿáĭµáĪŃ": 3366,
      "Kas": 3367,
      "Lugh": 3368,
      "áīłáĪĭ": 3369,
      "áĮ£áĪĿ": 3370,
      "ĠáĪįáĭ©": 3371,
      "jáº¹ÌģĠplÃ¡náº¹ÌģtÃ¬ĠkÃ©kerÃ©ĠnÃŃĠibiĠÃ¬gbÃłjÃ¡ĠÃ¡stáº¹Ìģrá»įÌģÃ¬dÃ¬": 3372,
      "ky": 3373,
      "áĬĵĠáĭ¨": 3374,
      "theirĠ": 3375,
      "&Ġ": 3376,
      "Mor": 3377,
      "áĪªáĭİáī½": 3378,
      "áįĪáĪ¨áĬķ": 3379,
      "uĠzaĠ": 3380,
      "http://": 3381,
      "Kud": 3382,
      "Mach": 3383,
      "aaĠ": 3384,
      "Ã©m": 3385,
      "thisĠ": 3386,
      "ulik": 3387,
      "lÃ¡ti": 3388,
      "wasanĠk": 3389,
      "kÃ³paĠ": 3390,
      "Kim": 3391,
      "orÃŃĠ": 3392,
      "áĪµáĪĪ": 3393,
      "áĬĵĠáīł": 3394,
      "'yanĠ": 3395,
      "dauk": 3396,
      "umeĠ": 3397,
      "âĢ¢": 3398,
      "ĠáĪĿáĬķ": 3399,
      "e,Ġm": 3400,
      "ouldĠ": 3401,
      "kim": 3402,
      "ta,Ġ": 3403,
      "aká»į": 3404,
      "ĠáĭķáĪĪáīµ": 3405,
      "25Ġ": 3406,
      "3-": 3407,
      "wa.": 3408,
      "yÃłĠ": 3409,
      "Ġáĭľ": 3410,
      "áīĢáīµ": 3411,
      "9)Ġ": 3412,
      "iop": 3413,
      "ĠáĭĻ": 3414,
      "on.": 3415,
      "ayarĠ": 3416,
      "áĬ¨áĭļáĪħ": 3417,
      "filamuĠ": 3418,
      "áĭ²áĪµĠáĬłáīłáī£": 3419,
      "Colleg": 3420,
      "YorÃ¹bÃ¡Ġ": 3421,
      "gin": 3422,
      "áī²áĬ«": 3423,
      "áĮ¨áĪĽáĪª": 3424,
      "Aj": 3425,
      "Sec": 3426,
      "AmericanĠ": 3427,
      "AgostiĠ": 3428,
      "wa,Ġ": 3429,
      "áĭ«áĭį": 3430,
      "ĠáĬłáĭį": 3431,
      "áī¶áĪµ": 3432,
      "áĪĿáį¡": 3433,
      "áĭİáĪµ": 3434,
      "cap": 3435,
      "NewĠYor": 3436,
      "Part": 3437,
      "ver": 3438,
      "eny": 3439,
      "áĭĪáĭ°": 3440,
      "NÃŃĠ": 3441,
      "Sain": 3442,
      "haveĠ": 3443,
      "áĪĭáīħ": 3444,
      "Ku": 3445,
      "On": 3446,
      "sit": 3447,
      "tabiĠ": 3448,
      "Fiz": 3449,
      "NationalĠ": 3450,
      "uĠniĠ": 3451,
      "icsĠ": 3452,
      "wana": 3453,
      "ĠáĪĽáĭķ": 3454,
      "ideĠ": 3455,
      "la": 3456,
      "not": 3457,
      "pasĠ": 3458,
      "rem": 3459,
      "áĪ¹": 3460,
      "onc": 3461,
      "21Ġ": 3462,
      "ful": 3463,
      "Ãłá¹£": 3464,
      "wambaĠ": 3465,
      "alaĠ": 3466,
      "áĬ¨áĪĪ": 3467,
      "Ã©ri": 3468,
      "ananĠhukum": 3469,
      "'Y": 3470,
      "Alex": 3471,
      "red": 3472,
      "uataĠ": 3473,
      "sheĠ": 3474,
      "ĠáīĥáĪį": 3475,
      "Az": 3476,
      "fas": 3477,
      "hab": 3478,
      "sch": 3479,
      "áĮ¢": 3480,
      "Ã©.": 3481,
      "istanĠ": 3482,
      "jáº¹ÌģĠplÃ¡náº¹ÌģtÃ¬ĠkÃ©kerÃ©ĠnÃŃĠibiĠÃ¬gbÃłjÃ¡ĠÃ¡stáº¹Ìģrá»įÌģÃ¬dÃ¬.ĠItokasiĠ": 3483,
      "Er": 3484,
      "áĬ¢áīµáĭ®áĮµáĭ«": 3485,
      "iĠh": 3486,
      "taĠyiĠ": 3487,
      "áĪĭáĭĬ": 3488,
      "Ġáī¥áĪİ": 3489,
      "gbajÃº": 3490,
      "ĠáĬ¨áįįáī°áĬĽ": 3491,
      "gudan": 3492,
      "1,": 3493,
      "áĪĭáĬŃ": 3494,
      "entsĠ": 3495,
      "Afrik": 3496,
      "ellĠ": 3497,
      "entreĠ": 3498,
      "áĮįáĪŃĠáĬ³áĪµ": 3499,
      "cor": 3500,
      "ondĠ": 3501,
      "chang": 3502,
      "áĭ°áĪĿ": 3503,
      "áīłáĪį": 3504,
      "ĠáĬłáĪµáī°áĭ³": 3505,
      "kn": 3506,
      "áī«": 3507,
      "harib": 3508,
      "80": 3509,
      "Pop": 3510,
      "dr": 3511,
      "e:Ġ": 3512,
      "mÃºĠ": 3513,
      "yl": 3514,
      "atarĠ": 3515,
      "elyĠ": 3516,
      "áī¨": 3517,
      "Ġáīłáī¥": 3518,
      "áīłáĭļáĪħ": 3519,
      "ĠáīµáĪĿáĪħáĪŃáīµ": 3520,
      "ĠáĭĭáĬĵĠáĬ¨áī°áĪĽ": 3521,
      "Rob": 3522,
      "jiĠwaĠ": 3523,
      "sim": 3524,
      "wÃ²": 3525,
      "ars": 3526,
      "áīµĠáį": 3527,
      "áĬĵĠáĪĺ": 3528,
      "MwakaĠ": 3529,
      "lÃº": 3530,
      "ĠáĬłáĪ«": 3531,
      "ÆĻas": 3532,
      "ĠáĪĪáĪĿ": 3533,
      "70": 3534,
      "Mashar": 3535,
      "pek": 3536,
      "áīĢáĪĺ": 3537,
      "katiĠyaĠ": 3538,
      "centur": 3539,
      "San": 3540,
      "k.": 3541,
      "umiaĠ": 3542,
      "Ġáī£áĪħ": 3543,
      "Dis": 3544,
      "oin": 3545,
      "orig": 3546,
      "un,Ġ": 3547,
      "Ġáī°áĪ«": 3548,
      "awarĠ": 3549,
      "Ġáĭ¨áĮį": 3550,
      "itwaĠ": 3551,
      "áīĢáĭį": 3552,
      "cut": 3553,
      "zaiĠ": 3554,
      "¹¢": 3555,
      "err": 3556,
      "orÃºká»įĠ": 3557,
      "canĠ": 3558,
      "yab": 3559,
      "ararĠ": 3560,
      "áįĮ": 3561,
      "ÃłgbÃ©": 3562,
      "unanĠ": 3563,
      "imoĠ": 3564,
      "áĭ®áī½": 3565,
      "áĪĬáĭ«": 3566,
      "sup": 3567,
      "Najeriya,Ġ": 3568,
      "Ahm": 3569,
      "King": 3570,
      "kuwaĠm": 3571,
      "kutokaĠMarekani": 3572,
      "Dr": 3573,
      "Iá¹£": 3574,
      "Ug": 3575,
      "Ã¬nĠ": 3576,
      "Ġ(áĬ¨": 3577,
      "GhanaĠ": 3578,
      "InternationalĠ": 3579,
      "Op": 3580,
      "TazamaĠ": 3581,
      "lik": 3582,
      "lokac": 3583,
      "Ãºgb": 3584,
      "osoĠ": 3585,
      "184": 3586,
      "JulaiĠ": 3587,
      "Dav": 3588,
      "Ex": 3589,
      "Ġ/": 3590,
      "arwaĠ": 3591,
      "ĠáĪĦ": 3592,
      "conc": 3593,
      "Ġáĭ®áĪĲáĬķáĪµ": 3594,
      "WorldĠ": 3595,
      "nÃŃbiĠ": 3596,
      "Fiziki": 3597,
      "ÙĬ": 3598,
      "esp": 3599,
      "sÃ¬nĠ": 3600,
      "ce,Ġ": 3601,
      "ĠáĬłáįį": 3602,
      "Eth": 3603,
      "sol": 3604,
      "anb": 3605,
      "áīłáĪ«": 3606,
      "áĭĪáĮ£": 3607,
      ",000": 3608,
      "JanuariĠ": 3609,
      "(201": 3610,
      "fran": 3611,
      "wakil": 3612,
      "aniĠyaĠ": 3613,
      "stitut": 3614,
      "22Ġ": 3615,
      "so": 3616,
      "áĮĬáĭľ": 3617,
      "áī³áĭį": 3618,
      "Ġ(áĬ¥": 3619,
      "let": 3620,
      "Comm": 3621,
      "anĠhaifeĠshiĠaĠshekaraĠtaĠ": 3622,
      "ĠáĬłáĪĽ": 3623,
      "Ġáī¥áĪŃ": 3624,
      "AareĠ": 3625,
      "AwonĠ": 3626,
      "etaĠ": 3627,
      "agesĠ": 3628,
      "tÃŃĠÃ³ĠsÃ¬Ġ": 3629,
      "Ġáį¡áį¡": 3630,
      "Atl": 3631,
      "cel": 3632,
      "dag": 3633,
      "wish": 3634,
      "Ġ-Ġ": 3635,
      "aĠjiharĠ": 3636,
      "ertĠ": 3637,
      "áīłáī°": 3638,
      "ĠáĬ¨áĪļ": 3639,
      "ĠáĭŃáī³áĭĪ": 3640,
      "din": 3641,
      "hum": 3642,
      "anyaĠ": 3643,
      "waĠniĠ": 3644,
      "ony": 3645,
      "Awá»įnĠ": 3646,
      "iĠ-Ġ": 3647,
      "áĪ³áĭĬ": 3648,
      "áĬĸáĪµ": 3649,
      "24Ġ": 3650,
      "ĠdinĠ": 3651,
      "tionsĠ": 3652,
      "serik": 3653,
      "popul": 3654,
      "Sar": 3655,
      "hasaĠ": 3656,
      "saf": 3657,
      "oseĠ": 3658,
      "waÉĹ": 3659,
      "ĠáĪ¥áĪ«": 3660,
      "dom": 3661,
      "áĪĿáį£": 3662,
      "áĪ«áĪ±": 3663,
      "waik": 3664,
      "yamm": 3665,
      "ĠáĬ£": 3666,
      "Ġ(áĭ¨": 3667,
      "áĪ³áī¥": 3668,
      "NÃłÃ¬jÃŃrÃŃÃł": 3669,
      ")Ġáĭ¨": 3670,
      "daĠakeĠ": 3671,
      "iaĠ(": 3672,
      "atĠtheĠ": 3673,
      "Kh": 3674,
      "yÃ³": 3675,
      "áĬķáī²": 3676,
      "inat": 3677,
      "áī£áī¸áĭį": 3678,
      "ibiyarĠ": 3679,
      "alikuwaĠm": 3680,
      "ĠáĬ¥áĬķáĭ²áĪģáĪĿ": 3681,
      "lo": 3682,
      "sukaĠ": 3683,
      "ortĠ": 3684,
      "áĮĪáĪ©": 3685,
      "iaĠnaĠ": 3686,
      "á¹£Ã¨": 3687,
      "iĠwaĠm": 3688,
      "aisĠwaĠ": 3689,
      "sikuĠ": 3690,
      "Bay": 3691,
      "hadaĠ": 3692,
      "erc": 3693,
      "taĠkasanceĠ": 3694,
      "umaĠ": 3695,
      "iĠnaĠm": 3696,
      "ĠáīĭáĬķáīĭáĭİáī½": 3697,
      "áĭĪáĪ°": 3698,
      "waikway": 3699,
      "Yar": 3700,
      "lab": 3701,
      "tab": 3702,
      "ureĠ": 3703,
      "overn": 3704,
      "ĠáĪ±": 3705,
      "jÃ¹lá»įĠ": 3706,
      "amin": 3707,
      "osel": 3708,
      "28Ġ": 3709,
      "aâĢĻ": 3710,
      "gunĠ": 3711,
      "káº¹Ìģ": 3712,
      "eniĠ": 3713,
      "elek": 3714,
      "ewarĠ": 3715,
      "Gir": 3716,
      "iĠneĠ": 3717,
      "uisĠ": 3718,
      "Ġáĭ¶": 3719,
      "ihinĠ": 3720,
      "AS": 3721,
      "gÃŃ": 3722,
      "ĠØ": 3723,
      "áĪįáĪµ": 3724,
      "ĠáĬ¨áĭļáĭ«": 3725,
      "etĠdeĠ": 3726,
      "hakaĠ": 3727,
      "taf": 3728,
      "alib": 3729,
      "ĠáĬłáĪľáĪªáĬ«": 3730,
      "ĠáĭĪáĬķáĭµ": 3731,
      "ĠáĪĪáĬł": 3732,
      "partic": 3733,
      "áĭĲ": 3734,
      ",ĠtheĠ": 3735,
      "ship": 3736,
      "áĭŃáĬķ": 3737,
      "ime": 3738,
      "ĠáĪĺáĮł": 3739,
      "áĬĸáĪ©": 3740,
      "ĠáĪª": 3741,
      "samarĠdaĠ": 3742,
      "agbÃ¨gbÃ¨Ġ": 3743,
      "Go": 3744,
      "KwaĠ": 3745,
      "Ġáī½": 3746,
      "adinĠ": 3747,
      "Ġáĭ°áĪ¨áĮĥ": 3748,
      "...": 3749,
      "sunanĠ": 3750,
      "EĠ": 3751,
      "New": 3752,
      "Uch": 3753,
      "rib": 3754,
      "ĠáĬłáĭµáĪŃ": 3755,
      "Ġáĭ¨áĪħ": 3756,
      "nÃŃĠá»įjá»įÌģĠ": 3757,
      "áįĪáĭį": 3758,
      "áĪ¬áīµ": 3759,
      "Med": 3760,
      "nor": 3761,
      "ÃłgbÃłĠ": 3762,
      "iti": 3763,
      "ÃĮj": 3764,
      "ĠáĪĨáĬĲáį¢": 3765,
      "báº¹Ìģáº¹ÌĢĠ": 3766,
      "mas": 3767,
      "má»įÌĢ": 3768,
      "sign": 3769,
      "tatt": 3770,
      "Ã¬b": 3771,
      "olikiĠ": 3772,
      "eweĠ": 3773,
      "ĠáĭĵáĬŃáĪįáīł.ĠáĮį": 3774,
      "gudaĠ": 3775,
      "forĠtheĠ": 3776,
      "wigiz": 3777,
      "YaĠ": 3778,
      "ráº¹": 3779,
      "rad": 3780,
      "ĠáĪĺáĪ°": 3781,
      "Ġáĭ«áĪµ": 3782,
      "io": 3783,
      "jar": 3784,
      "má»į": 3785,
      "má»įÌģ": 3786,
      "waf": 3787,
      "ywo": 3788,
      "áįĲ": 3789,
      "Ġáĭ¨áĬ¤": 3790,
      "áįĭáīµ": 3791,
      "ĠáĪ¥áĬĲ": 3792,
      "commun": 3793,
      "score": 3794,
      "23Ġ": 3795,
      "gid": 3796,
      "áīĥáĪµ": 3797,
      "áĪĬáĬŃ": 3798,
      "Ã¬dÃŃ": 3799,
      "29Ġ": 3800,
      "kÃłn": 3801,
      "u.Ġ": 3802,
      "áĬķáį£": 3803,
      "áĪĪáĭ°": 3804,
      "áįįáīµ": 3805,
      "ViungoĠvyaĠnjeĠ": 3806,
      "8-": 3807,
      "A.": 3808,
      "ginaĠ": 3809,
      "n,Ġ": 3810,
      "eĠdeĠlaĠ": 3811,
      "girm": 3812,
      "100": 3813,
      "Fir": 3814,
      "Sik": 3815,
      "pers": 3816,
      "áĬĻ": 3817,
      "produc": 3818,
      "parti": 3819,
      "tureĠ": 3820,
      "ĠáĭĪáĬķáĭĿ": 3821,
      "Ġ4": 3822,
      "ull": 3823,
      "oyÃ¨Ġ": 3824,
      "juuĠyaĠ": 3825,
      "kuh": 3826,
      "ÉĹayaĠ": 3827,
      "oundĠ": 3828,
      "amuz": 3829,
      "naĠk": 3830,
      "le-": 3831,
      "UniversityĠofĠ": 3832,
      "iĠmaiĠ": 3833,
      "bayyanaĠ": 3834,
      "Ġáī°áī¥áĪİ": 3835,
      "23": 3836,
      "27Ġ": 3837,
      "Cr": 3838,
      "famil": 3839,
      "áĭĭáīĤ": 3840,
      "watoĠ": 3841,
      "Ãłráº¹Ġ": 3842,
      "w.": 3843,
      "áĪĿáĬĲáīµ": 3844,
      "ĠáīłáīĢ": 3845,
      "conn": 3846,
      "ĠáĪįáĮĨáī½": 3847,
      "duniyaĠ": 3848,
      "DuniyaĠ": 3849,
      "Del": 3850,
      "má»įĠ": 3851,
      "alifĠ": 3852,
      "wanz": 3853,
      "eĠdansĠ": 3854,
      "ĠáĬĲáīłáĪ©áį¢": 3855,
      "Kib": 3856,
      "yank": 3857,
      "atik": 3858,
      "antsĠ": 3859,
      "ĠáĮ¥áīħáĪĿ": 3860,
      "áĪŃáĪµáī¶áĪµ": 3861,
      "ĠáĭĿáĪŃáĭĿ": 3862,
      "Ek": 3863,
      "He": 3864,
      "Nd": 3865,
      "a;Ġ": 3866,
      "áĪįáį£": 3867,
      "okĠ": 3868,
      "OrÃŃ": 3869,
      "okuwaĠ": 3870,
      "ven": 3871,
      "yayinĠ": 3872,
      "Ã¡r": 3873,
      "ĠáīłáĮį": 3874,
      "ĠáĮŃ": 3875,
      "ationĠofĠ": 3876,
      "ĠáĬŃáįįáĪĪĠáĭĺáĪĺáĬķ": 3877,
      "eanĠ": 3878,
      "áĪĪáĪĽ": 3879,
      "usiĠ": 3880,
      "ectĠ": 3881,
      "walej": 3882,
      "Ãłká»įÌģká»įÌģĠ": 3883,
      "franÃ§": 3884,
      "áīŃ": 3885,
      "ai.": 3886,
      "whoĠ": 3887,
      "beenĠ": 3888,
      "hukumarĠ": 3889,
      "Engl": 3890,
      "2Ġáĭĵ.áĪĿ.": 3891,
      "ori": 3892,
      "áĪ¥áĪ«": 3893,
      "JuniĠ": 3894,
      "MĠ": 3895,
      "mod": 3896,
      "anti": 3897,
      "oĠsiĠ": 3898,
      "áĮĪáĪ«": 3899,
      "egeĠ": 3900,
      "anyanĠ": 3901,
      "áĭĵáīµ": 3902,
      ".ĠItokasiĠÃĢwá»įnĠ": 3903,
      "|ĠRD1-": 3904,
      "PĠ": 3905,
      "sub": 3906,
      "aliĠyaĠ": 3907,
      "Ġáĭ¨áĭį": 3908,
      "áĬĲáĭį": 3909,
      "ĠáĮįáī¥": 3910,
      "ĠdesĠ": 3911,
      "ĠÂ«áĭ¨": 3912,
      "Káº¹": 3913,
      "kaw": 3914,
      "áĭŃáīµ": 3915,
      "kutokaĠMarekaniĠ": 3916,
      "sabodaĠ": 3917,
      "ĠáĪĺáĬķáĮĪáĭµ": 3918,
      "kÃ¹n": 3919,
      "ÙĨ": 3920,
      "akaĠk": 3921,
      "usi": 3922,
      "utawal": 3923,
      "ocr": 3924,
      "onsĠ": 3925,
      "áĪĪáī²áĬ«": 3926,
      "áĪĺáīµ": 3927,
      "Ġáĭ¨áĬ¢": 3928,
      "180": 3929,
      "áĪ½áĬķ": 3930,
      "áĭŃáĭĪáīµ": 3931,
      "isi": 3932,
      "áĮłáīħ": 3933,
      "Ġáī¥áĪĶ": 3934,
      "ĠáĮ¥áĬĵáīµ": 3935,
      "jagor": 3936,
      "dang": 3937,
      "pÃ©": 3938,
      "inf": 3939,
      "ÃłwonĠ": 3940,
      "áĭĪáī½": 3941,
      "ĠáĮ¥áĬķ": 3942,
      "ÃłmÃ¬": 3943,
      "6-": 3944,
      "ĠáĬłáĪģ": 3945,
      "ongoĠ": 3946,
      "aĠlokacinĠ": 3947,
      "iki.": 3948,
      "ĠáĪĺáĮ½áĪĲáįį": 3949,
      "áĪ®áĪµ": 3950,
      "áĬĶáī³": 3951,
      "sehemuĠyaĠ": 3952,
      "ApriliĠ": 3953,
      "áĪĺáĬĵáĭĬ": 3954,
      "padÃłĠ": 3955,
      "kwaĠm": 3956,
      "saur": 3957,
      "oryĠ": 3958,
      "áĪµáįĭ": 3959,
      "chiniĠyaĠ": 3960,
      "daĠsukaĠ": 3961,
      "dishiĠ": 3962,
      "kinĠ": 3963,
      "sÃ³": 3964,
      "unt": 3965,
      "áĪĭáĭį": 3966,
      "rew": 3967,
      "ohonĠ": 3968,
      "wÃŃpÃ©Ġ": 3969,
      "Alexand": 3970,
      "Mich": 3971,
      "dok": 3972,
      "ĠáĪ®": 3973,
      "ĠáĬ¨áĬĲ": 3974,
      "áĭĺáĮĭ": 3975,
      "NaijiriaĠ": 3976,
      "26Ġ": 3977,
      "AN": 3978,
      "Co": 3979,
      "Ni": 3980,
      "lÃ¹": 3981,
      "áĪŁ": 3982,
      "nÃŃĠÃ¬lÃºĠ": 3983,
      "S.": 3984,
      "Wal": 3985,
      "pakaĠ": 3986,
      "syst": 3987,
      "ÃŃrÃłnĠ": 3988,
      "ĠáĪīáīĥáĪµ": 3989,
      "Fin": 3990,
      "fac": 3991,
      "wilayaĠ": 3992,
      "áĪ¾": 3993,
      "Ġáī°áĪ°": 3994,
      "lÃ³rÃŃ": 3995,
      "a-fin": 3996,
      "withĠtheĠ": 3997,
      "NigerianĠ": 3998,
      "baadaĠyaĠ": 3999,
      "bor": 4000,
      "gĠ": 4001,
      "mÃ¬": 4002,
      "áĬĲáĪ³": 4003,
      "áĪ¨áĪĿ": 4004,
      "ed.": 4005,
      "ourn": 4006,
      "incip": 4007,
      "90": 4008,
      "n'": 4009,
      "ĠáĬłáįĪ": 4010,
      "Ġáĭ¨áĪķ": 4011,
      "24": 4012,
      "Dem": 4013,
      "Uk": 4014,
      "kÃŃ": 4015,
      "taĠnaĠ": 4016,
      "áĪ«áĬķ": 4017,
      "autiĠ": 4018,
      "aĠgasarĠ": 4019,
      "ayyarĠ": 4020,
      "áĭķáĪ«áī¥": 4021,
      "BCĠ": 4022,
      "Pap": 4023,
      "ÆĻasaĠ": 4024,
      "FebruariĠ": 4025,
      "UjerumaniĠ": 4026,
      "ax": 4027,
      "t-": 4028,
      "enoĠ": 4029,
      "ĠáīłáįĬáīµ": 4030,
      "adem": 4031,
      "ishaĠm": 4032,
      "áįĪáĪį": 4033,
      "Ġáĭ¨áĬłáĪľáĪªáĬ«": 4034,
      "iweĠ": 4035,
      "Os": 4036,
      "awan": 4037,
      "mataĠ": 4038,
      "nomb": 4039,
      "atom": 4040,
      "utum": 4041,
      "anziaĠ": 4042,
      "ammal": 4043,
      "ĠáīħáĪŃ": 4044,
      "aussiĠ": 4045,
      "Of": 4046,
      "yn": 4047,
      "áįİáī½": 4048,
      "áĪįáĪĿ": 4049,
      "gbá»įÌĢ": 4050,
      "ĠáĬ¥áĬķáĮĤ": 4051,
      "aĠdun": 4052,
      "ativeĠ": 4053,
      "MuhammadĠ": 4054,
      "ĠáĭŃáī£áĪĭáĪįáį¢": 4055,
      "kasuwan": 4056,
      "ammaĠ": 4057,
      "ĠáĪģáĪĪ": 4058,
      "peluĠ": 4059,
      "ShugabanĠ": 4060,
      "Ã²á¹£Ã¨rÃ©": 4061,
      "Oy": 4062,
      "pay": 4063,
      "men": 4064,
      "ton": 4065,
      "ĠáĬłáīĢ": 4066,
      "âĢĶ": 4067,
      "ĠáĭĪáĭŃ": 4068,
      "Ġáĭ¨áĪļáĪĪáĭį": 4069,
      "ubuĠ": 4070,
      "ation,Ġ": 4071,
      "nyingiĠ": 4072,
      "amfaniĠdaĠ": 4073,
      "Gb": 4074,
      "ientĠ": 4075,
      "áī³áĪªáĬŃ": 4076,
      "umbaĠ": 4077,
      "Arab": 4078,
      "ĠáĮīáĭ³": 4079,
      "sinim": 4080,
      "wasanĠkwaikway": 4081,
      "Cor": 4082,
      "Pet": 4083,
      "asharaĠ": 4084,
      "183": 4085,
      "ĠáĬŃáĪį": 4086,
      "wenyeĠm": 4087,
      "www.": 4088,
      "Sam": 4089,
      "lÃ²Ġ": 4090,
      "vo": 4091,
      "iny": 4092,
      "prof": 4093,
      "WakristoĠ": 4094,
      "UlayaĠ": 4095,
      "ĠáīłáĪŃ": 4096,
      "áī¥áĪ¨áīµ": 4097,
      "ĠáĬķáĮį": 4098,
      "portĠ": 4099,
      "mak": 4100,
      "Ġáį²áį": 4101,
      "ĠáĪĽáĬķ": 4102,
      "ISB": 4103,
      "Kats": 4104,
      "alb": 4105,
      "iter": 4106,
      "ĠáĮĮ": 4107,
      "utilis": 4108,
      "Ber": 4109,
      "has": 4110,
      "Ġ5": 4111,
      "shaw": 4112,
      "ĠáīµáĬķ": 4113,
      "ĠáĬ¥áĬķáĭ²áĪħ": 4114,
      "mÃ¡aĠÅĦĠ": 4115,
      "lÃ³gÃºnĠ": 4116,
      "áĬĲáī±": 4117,
      "offic": 4118,
      "áĪĽáīµ": 4119,
      "ĠáįķáĪ¬": 4120,
      "babb": 4121,
      "lakeĠ": 4122,
      "le.": 4123,
      "ainsĠ": 4124,
      "ĠáĪķáĭĿáī¥": 4125,
      "Sab": 4126,
      "ye": 4127,
      "yawanĠ": 4128,
      "adil": 4129,
      "okeaĠ": 4130,
      "áĬŃáĪī": 4131,
      "5Ġ-Ġ": 4132,
      "Ġáī³áĪªáĬ«áĭĬ": 4133,
      "ĠáĭŃáī³áĭĪáīĥ": 4134,
      "Kal": 4135,
      "ĠáĪĺáĪłáĪ¨": 4136,
      "unĠniĠ": 4137,
      "ilÃ©-áº¹ÌĢká»įÌģĠ": 4138,
      "27": 4139,
      "ia.Ġ": 4140,
      "taraĠ": 4141,
      "oĠdaĠ": 4142,
      "yaĠkasanceĠ": 4143,
      "endĠ": 4144,
      "áĪĪáĬķ": 4145,
      "áĪĺáĭµ": 4146,
      "ĠáĬ¨áĬ¥": 4147,
      "The": 4148,
      "sababuĠ": 4149,
      "Ã¬mÃ¹Ġ": 4150,
      "dayaĠdagaĠcikinĠ": 4151,
      "LagosĠ": 4152,
      "NchiĠ": 4153,
      "gw": 4154,
      "vir": 4155,
      "amad": 4156,
      "alip": 4157,
      "asiasaĠ": 4158,
      "-ĠMtakatifuĠ": 4159,
      "0)Ġ": 4160,
      "cc": 4161,
      "vari": 4162,
      "anniĠ": 4163,
      "áĪ¨áĪ°": 4164,
      "ock": 4165,
      "SouthĠ": 4166,
      "arz": 4167,
      "áĪŃáī²": 4168,
      "akosoĠ": 4169,
      "enz": 4170,
      "ishiĠwaĠ": 4171,
      "polit": 4172,
      "'y": 4173,
      "Kil": 4174,
      "hiyoĠ": 4175,
      "wá»įĠ": 4176,
      "DĠ": 4177,
      "Mil": 4178,
      "ĠáĬ¨áĭļáĪħ": 4179,
      "aff": 4180,
      "ĠáĬĲáĭįáį¡áį¡": 4181,
      "Abub": 4182,
      "iá¹£áº¹Ġ": 4183,
      "ĠáĬĵáī¸áĭį": 4184,
      "Bah": 4185,
      "UingerezaĠ": 4186,
      "dir": 4187,
      "pre": 4188,
      "vid": 4189,
      "aĠÆĻasarĠ": 4190,
      "adiĠyaĠ": 4191,
      "ubwaĠ": 4192,
      "ThisĠ": 4193,
      "kusin": 4194,
      "anĠhaifeĠtaĠ": 4195,
      "upandeĠwaĠ": 4196,
      "yÃ³Ã²Ġ": 4197,
      "ĠáĭĿáĪŃáĭĿáĪŃ": 4198,
      "KatikaĠ": 4199,
      "ataif": 4200,
      "una": 4201,
      "áĪĺáĪį": 4202,
      "iyasaĠ": 4203,
      "iâĢĻ": 4204,
      "juĠ": 4205,
      "¶áį": 4206,
      "are": 4207,
      "áĭļáĪģ": 4208,
      "ĠáĬ¥áĬĵĠáīł": 4209,
      "taim": 4210,
      "Ġáº¹láº¹ÌģbÃ¹nĠ": 4211,
      "Ethiop": 4212,
      "dur": 4213,
      "ne.": 4214,
      "||": 4215,
      "Äģ": 4216,
      "aĠniĠ": 4217,
      "aseĠ": 4218,
      "áĭ«áĭĬ": 4219,
      "áĬ¨áī°áĪĽ": 4220,
      "group": 4221,
      "áĬĵáī¸áĭį": 4222,
      "tÃŃĠÃłwá»įnĠ": 4223,
      "ĠáīłáĬ©": 4224,
      "ĠáĪģáĬĶáī³": 4225,
      ")Ġáīł": 4226,
      "Â°": 4227,
      "ilion": 4228,
      "áĬĵáĪįáį¢": 4229,
      "ĠáĮĬ": 4230,
      "Ã¹gbá»įÌģnĠ": 4231,
      "4-": 4232,
      "Bel": 4233,
      "Ãłj": 4234,
      "Chin": 4235,
      "kÃŃĠÃ³Ġ": 4236,
      "Haif": 4237,
      "gÃ©n": 4238,
      ".Ġ(": 4239,
      "áĪ«áĪ²": 4240,
      "ĠáĭŃáīĢ": 4241,
      "áĬ¨áīµ": 4242,
      "ammanĠ": 4243,
      "illĠ": 4244,
      "yÃ¬ÃŃ": 4245,
      "áī¤áī°": 4246,
      "jinaĠlaĠ": 4247,
      "ItaĠ": 4248,
      "co": 4249,
      "kafinĠ": 4250,
      "áĮĦ": 4251,
      "Ġáī»": 4252,
      "iliĠyaĠ": 4253,
      "taĠhanyarĠ": 4254,
      "áīłáĬł": 4255,
      "iĠkamaĠ": 4256,
      "epend": 4257,
      "ĠduĠ": 4258,
      "incl": 4259,
      "Amerik": 4260,
      "babbanĠbirninĠ": 4261,
      "masuĠ": 4262,
      "ensĠ": 4263,
      "esĠofĠ": 4264,
      "áī¥áīµ": 4265,
      "ĠáĬĲáĮ»": 4266,
      "tsarinĠ": 4267,
      "CO": 4268,
      "dâĢĻ": 4269,
      "Ġáī±": 4270,
      "ikiaĠ": 4271,
      "áĪĪáī½": 4272,
      "indiĠ": 4273,
      "sanyaĠ": 4274,
      "pÃŃ": 4275,
      "áĬĲáīłáĪ¨": 4276,
      "agu": 4277,
      "aliwa": 4278,
      "ipoĠ": 4279,
      "kask": 4280,
      "tÃŃĠÃ³ĠtiĠ": 4281,
      "áĪ¶áī½": 4282,
      "ĠáĪļáĬĴ": 4283,
      "Per": 4284,
      "ron": 4285,
      "al.": 4286,
      "ĠáĬ¨áĬłáĪ": 4287,
      "Ilim": 4288,
      "ĠáįĪáĪŃ": 4289,
      "Ġáĭ¨áĪµ": 4290,
      "akonĠ": 4291,
      "ĠáĪĺáĮ¨áĪ¨áĪ»": 4292,
      "neĠdagaĠ": 4293,
      "áĭļáīĥ": 4294,
      "aux": 4295,
      "eff": 4296,
      "Bi": 4297,
      "JinaĠ": 4298,
      "MwakaĠwaĠ": 4299,
      "u-": 4300,
      "alim": 4301,
      "áĭ°áĭį": 4302,
      "ĠáĬŃáĪŃáĪµáī²áĭ«áĬķ": 4303,
      "tech": 4304,
      "lÃł": 4305,
      "okeĠ": 4306,
      "KenyaĠ": 4307,
      "Peop": 4308,
      "BC": 4309,
      "ItĠ": 4310,
      "rang": 4311,
      "Ġáįĭ": 4312,
      "suchĠ": 4313,
      "yanzuĠ": 4314,
      "walejinĠ": 4315,
      "2,": 4316,
      "bab": 4317,
      "yÃłnĠ": 4318,
      "tron": 4319,
      "JanuaryĠ": 4320,
      "Kit": 4321,
      "cik": 4322,
      "mi": 4323,
      "aĠwatanĠ": 4324,
      "anyĠ": 4325,
      "en.": 4326,
      "elsĠ": 4327,
      "áī´áĭİáĪµ": 4328,
      "ĠáĬĲáĮĪáĪ®áī½": 4329,
      ".ĠManazartaĠ": 4330,
      "Wah": 4331,
      "nem": 4332,
      "áĬ¸": 4333,
      "áĪĿáĬķ": 4334,
      "opoĠ": 4335,
      "Marej": 4336,
      "wakatiĠwaĠ": 4337,
      "Ġáī¢áĪĨáĬķ": 4338,
      "áĮĪáĬĺáĭį": 4339,
      "AllahĠ": 4340,
      "pá»įÌĢlá»į": 4341,
      "Bib": 4342,
      "loriĠ": 4343,
      "rá»įĠ": 4344,
      "ayyaĠ": 4345,
      "asĠtheĠ": 4346,
      "Al-": 4347,
      "ĠáĭĺáĪŃ": 4348,
      "eziĠ": 4349,
      "Láº¹Ìģ": 4350,
      "OnĠ": 4351,
      "trav": 4352,
      "ojaĠ": 4353,
      "ed,Ġ": 4354,
      "ÃĢwá»įnĠÃ¬t": 4355,
      "áī»áī¸áĭį": 4356,
      "Ġáĭ¨áĪĽáĭŃ": 4357,
      "TanaĠ": 4358,
      "o:Ġ": 4359,
      "Ġ(200": 4360,
      "tÃŃĠaĠ": 4361,
      "udiĠ": 4362,
      "zinaz": 4363,
      "Riv": 4364,
      "cin": 4365,
      "muĠ": 4366,
      "vy": 4367,
      "amaĠm": 4368,
      "áĮĪáĭ°": 4369,
      "ĠáĭŃáĮĪáĬĽáĪįáį¢": 4370,
      "ananĠhukumominĠ": 4371,
      "fim": 4372,
      "jim": 4373,
      "lil": 4374,
      "raf": 4375,
      "áĪĤ": 4376,
      "áĪĺáĮ£": 4377,
      "affunĠ": 4378,
      "ific": 4379,
      "ifuat": 4380,
      "ungan": 4381,
      "tsohonĠ": 4382,
      "aĠkasanceĠ": 4383,
      "Hen": 4384,
      "Waz": 4385,
      "nuĠ": 4386,
      "wÃ³nĠ": 4387,
      "ĠáĬłáīµ": 4388,
      "AugustĠ": 4389,
      "Hukum": 4390,
      "gbajÃºmá»įÌĢĠ": 4391,
      "5-": 4392,
      "ÙĪ": 4393,
      "ĠáĪ¦": 4394,
      "kuz": 4395,
      "ĠáīłáĪĻ": 4396,
      "iziĠ": 4397,
      "wararr": 4398,
      "Ibad": 4399,
      "ĠáĭµáĪŃáĮħ": 4400,
      "Octob": 4401,
      "agbaĠ": 4402,
      "otaĠ": 4403,
      "uelĠ": 4404,
      "áįĶ": 4405,
      "ini": 4406,
      "tĠofĠ": 4407,
      "aĠkwaĠm": 4408,
      "aientĠ": 4409,
      "aĠyaĠm": 4410,
      "FI": 4411,
      "Hot": 4412,
      "nau": 4413,
      "áĪĺáĭį": 4414,
      "unguĠ": 4415,
      "ternĠ": 4416,
      "daĠsaur": 4417,
      "áī·áĪįáį¢": 4418,
      "isaĠgaĠ": 4419,
      "áĭĭáĬĵ": 4420,
      "AĠwatanĠ": 4421,
      "áĮĢáĪŃáĪĺáĬķ": 4422,
      "utiĠ": 4423,
      "ĠáĬ¡": 4424,
      "akoĠ": 4425,
      "áĪĺáĪ°": 4426,
      "ĠáĬ¥áĬĲ": 4427,
      "erĠofĠ": 4428,
      "Mart": 4429,
      "Eg": 4430,
      "Gl": 4431,
      "iakaĠm": 4432,
      "sal": 4433,
      "tÃłĠ": 4434,
      "thro": 4435,
      "áĭ°áĬķ": 4436,
      "yaĠKemi": 4437,
      "gameĠdaĠ": 4438,
      "ĠáĪĿáĬŃáĬķáĭ«áīµ": 4439,
      "HaifaffunĠ": 4440,
      "-áĬł": 4441,
      "DolaĠ": 4442,
      "ÃłrÃŃ": 4443,
      "Ġ(áīł": 4444,
      "áįĪáĮ¥": 4445,
      "ext": 4446,
      "Waliofariki": 4447,
      "shindiĠwaĠTuzoĠyaĠNobelĠyaĠKemi": 4448,
      "Ã²rÃ¹nĠ": 4449,
      "ÃĢwá»įnĠáº¹láº¹ÌģbÃ¹nĠ": 4450,
      "eneoĠlaĠ": 4451,
      "a\"Ġ": 4452,
      "ba.": 4453,
      "deuxĠ": 4454,
      "áĬķáĭ±": 4455,
      "ikanĠ": 4456,
      "ÃĢÃłráº¹Ġ": 4457,
      "nÃ¡Ãł.": 4458,
      "á»įÌģkasÃŃ": 4459,
      "ĠáĪĿáĬķáĮ®áī½": 4460,
      "páº¹l": 4461,
      "yaw": 4462,
      "aĠsh": 4463,
      "ity,Ġ": 4464,
      "ĠáīłáĪ½": 4465,
      "ĠáĪĿáĬķáĪĿ": 4466,
      "nÃŃnuĠ": 4467,
      "Waliozaliwa": 4468,
      "Roma,Ġ": 4469,
      "28": 4470,
      "Gen": 4471,
      "nÃ¬": 4472,
      "áĪµáĭ«": 4473,
      "ing,Ġ": 4474,
      "áĬĽáį¦Ġ": 4475,
      "âĢ¹": 4476,
      "ijobaĠ": 4477,
      "áĪ±áĪµ": 4478,
      "lambarĠ": 4479,
      "oseluĠ": 4480,
      "De": 4481,
      "Hisp": 4482,
      "áĪ·": 4483,
      "Ã¬f": 4484,
      "áĪĭáĪ´": 4485,
      "Ġáĭĭáī¢": 4486,
      "resp": 4487,
      "Pat": 4488,
      "Ãłb": 4489,
      "ulĠ": 4490,
      "aĠkasarĠ": 4491,
      "ĠáĪĿáĪŃ": 4492,
      "SeptemberĠ": 4493,
      "Se": 4494,
      "Sark": 4495,
      "ĠáĪł": 4496,
      "atanĠ": 4497,
      "esab": 4498,
      "Ġáĭ¨áĬ«": 4499,
      "Ġáĭ¨áī°áĪ°": 4500,
      "arkonĠ": 4501,
      "Ġ17": 4502,
      "ziliz": 4503,
      "Es": 4504,
      "daiĠ": 4505,
      "ost": 4506,
      "uguĠ": 4507,
      "Coun": 4508,
      "pap": 4509,
      "·áį": 4510,
      "Ãłg": 4511,
      "áĮĪáĪį": 4512,
      "ĠáĪĺáĪŃ": 4513,
      "ĠáĪĺáĪįáĬŃ": 4514,
      "áĬŃáĪŃ": 4515,
      "áīłáĪĪ": 4516,
      "ojaĠwaĠ": 4517,
      "ation.": 4518,
      "struc": 4519,
      "Amáº¹ÌģrÃŃkÃłĠ": 4520,
      "26": 4521,
      "yr": 4522,
      "arm": 4523,
      "akam": 4524,
      "oldĠ": 4525,
      "Ã©ĠparĠ": 4526,
      "áĭ²áĭ«": 4527,
      "1Ġ-Ġ": 4528,
      "uĠmasoĠ": 4529,
      "DecemberĠ": 4530,
      "Aw": 4531,
      "Bank": 4532,
      "Cap": 4533,
      "ÃĮb": 4534,
      "wandaĠakaĠ": 4535,
      "oireĠ": 4536,
      "Ng": 4537,
      "pass": 4538,
      "aticĠ": 4539,
      "aĠkamaĠ": 4540,
      "AĠranarĠ": 4541,
      "áīĨáĪµ": 4542,
      "ĠáĮ½áĪĳ": 4543,
      "bet": 4544,
      "dukĠ": 4545,
      "rom": 4546,
      "therĠ": 4547,
      "áĪĭáĪĽ": 4548,
      "utt": 4549,
      "âĢº": 4550,
      "áīłáĪĺ": 4551,
      "Ġd'": 4552,
      "addin": 4553,
      "egb": 4554,
      "tuĠ": 4555,
      "áĭĪáĪŃ": 4556,
      "aĠfanninĠ": 4557,
      "class": 4558,
      "alÃ¡Ã¬": 4559,
      "BĠ": 4560,
      "takeĠ": 4561,
      "tiĠwonĠ": 4562,
      "anaĠnaĠm": 4563,
      "ĠáĪµáĪĻ": 4564,
      "áĪİáīµ": 4565,
      "poss": 4566,
      "ajiĠwaĠfilamuĠ": 4567,
      "Kiswah": 4568,
      "WilliamĠ": 4569,
      "ariĠwaĠ": 4570,
      "anĠ(": 4571,
      "áĬĵáĭĬ": 4572,
      "ĠáĮłáĪ": 4573,
      "Ã³mÃ¬n": 4574,
      "Ġáįª": 4575,
      "idayarĠ": 4576,
      "JamesĠ": 4577,
      "ĠáĪłáĪ«": 4578,
      "faĠ": 4579,
      "fimĠ": 4580,
      "vers": 4581,
      "ĠáĬħ": 4582,
      "áĭ³áĪŃ": 4583,
      "nÃŃnÃºĠerÃ©Ġ": 4584,
      "Ãłwá»įnĠá»įjá»įÌģÃ¬bÃŃĠnÃŃĠ": 4585,
      "risti": 4586,
      "ĠáĪ¥áĪŃáĭĪ": 4587,
      "GeorgeĠ": 4588,
      "Lou": 4589,
      "ism": 4590,
      "á»įÌģá»įÌĢ": 4591,
      "ĠáĭŃáĪĨ": 4592,
      "nÃŃĠÃĮpÃŃnláº¹ÌĢĠ": 4593,
      "Ġáĭ°áĪ´": 4594,
      "daĠkar": 4595,
      "nÃŃnÃº": 4596,
      "ÃĴg": 4597,
      "sikuĠyaĠ": 4598,
      "ISBNĠ": 4599,
      "sar": 4600,
      "Ø±": 4601,
      "anenĠ": 4602,
      "ĠáĪĤ": 4603,
      "oĠchaĠ": 4604,
      "ĠáĬ¥áĮįáĪŃĠáĬ³áĪµ": 4605,
      "olon": 4606,
      "ĠáĬłáĪ³": 4607,
      "sÃŃĠnÃŃĠ": 4608,
      "TazamaĠpiaĠ": 4609,
      "dominĠ": 4610,
      "laĠk": 4611,
      "nas": 4612,
      "uriĠ": 4613,
      "Ã¨meĠ": 4614,
      "âĢ¦": 4615,
      "Ġáĭ¨áĪ¥": 4616,
      "ĠáĪĿáĪįáĬŃ": 4617,
      "áĮłáĭį": 4618,
      "áĬ¥áĬķáĭ°": 4619,
      "jama'aĠ": 4620,
      "ĠáĬłáĭ«": 4621,
      "aguz": 4622,
      "áĭĪáīħ": 4623,
      "tanaĠdaĠ": 4624,
      "Rayayy": 4625,
      "Fasih": 4626,
      "EbunĠ": 4627,
      "áįĪáĪ¨áĬķáĪ³áĭŃ": 4628,
      "Uingerez": 4629,
      "kÃº": 4630,
      "inn": 4631,
      "áĪµáįĵ": 4632,
      "hukumaĠ": 4633,
      "Ġá»įdÃºnĠ200": 4634,
      "theyĠ": 4635,
      "97": 4636,
      "dro": 4637,
      "gidanĠ": 4638,
      "pÃ¡": 4639,
      "áĭķáĪį": 4640,
      "Ġáº¸ÌĢ": 4641,
      "'YanĠ": 4642,
      "FAĠ": 4643,
      "Ro": 4644,
      "coun": 4645,
      "sáº¹ÌĢĠ": 4646,
      "Ã¼": 4647,
      "áĪ¡": 4648,
      "áĪ¯": 4649,
      "ĠáĬĴ": 4650,
      "ĠáĬĸ": 4651,
      "ĠáĭĪáĪ¨áĭ³": 4652,
      "etĠleĠ": 4653,
      "arkashinĠ": 4654,
      "ĠáĬłáĪĪáīĥ": 4655,
      "iquesĠ": 4656,
      "contin": 4657,
      "Maj": 4658,
      "hai": 4659,
      "loc": 4660,
      "oirĠ": 4661,
      "akatifuĠ": 4662,
      "áĪĽáĬķ": 4663,
      "áĭĭáĬķ": 4664,
      "ÅĦĠá¹£": 4665,
      "Makar": 4666,
      "áĪłáĪ«": 4667,
      "includ": 4668,
      "Lak": 4669,
      "Mu": 4670,
      "MajalisarĠ": 4671,
      "MkoaĠwaĠ": 4672,
      "lav": 4673,
      "Ã©cr": 4674,
      "ĠáĮħ": 4675,
      "omitaĠ": 4676,
      "aniĠdaĠ": 4677,
      "Ġáº¹niĠ": 4678,
      "Ø§ÙĦ": 4679,
      "-áº¹ÌĢ": 4680,
      "Tim": 4681,
      "bel": 4682,
      "bang": 4683,
      "lamuĠ": 4684,
      "larg": 4685,
      "akk": 4686,
      "onaĠ": 4687,
      "iriĠnaĠ": 4688,
      "omonĠ": 4689,
      "áī¥áĭĻ": 4690,
      "press": 4691,
      "áĭİáī½áĬķ": 4692,
      "plac": 4693,
      "ollywo": 4694,
      "enez": 4695,
      "áī°áĬķ": 4696,
      "áĪĪáī½áį¢": 4697,
      "ĠáĬłáĪ¸": 4698,
      "áĭ¨áĪĿ": 4699,
      "áĭ¨áĬł": 4700,
      "princip": 4701,
      "birniĠ": 4702,
      "perm": 4703,
      "1892Ġáĭĵ.áĪĿ.": 4704,
      ")áį£": 4705,
      "Rep": 4706,
      "binĠ": 4707,
      "mulk": 4708,
      "temp": 4709,
      "Ã¬bÃŃ": 4710,
      ".ĠK": 4711,
      "agn": 4712,
      "Ġáį¤": 4713,
      "utumĠ": 4714,
      "ĠáĭŃáĪĺáĪµ": 4715,
      "danĠwasanĠÆĻwallonĠÆĻafaĠtaĠÆĻasarĠIngil": 4716,
      "pÃ¨ĠnÃŃĠ": 4717,
      "páº¹luĠ": 4718,
      "''": 4719,
      "Dar": 4720,
      "ienĠ": 4721,
      "áĭĳ": 4722,
      "áĪĺáĪ«": 4723,
      "ĠáĪĺáĮĢáĪĺáĪŃáĭ«": 4724,
      "uliwaĠ": 4725,
      "stat": 4726,
      "ĠáĭķáĪĪ": 4727,
      "âĢĿĠ": 4728,
      "ÃªmeĠ": 4729,
      "kit": 4730,
      "rĠ": 4731,
      "á»įnĠ": 4732,
      "Ã¬pÃŃnláº¹ÌĢĠ": 4733,
      "áĬĵĠáĬ¨": 4734,
      "progr": 4735,
      "StateĠ": 4736,
      "arÃ¡ĠAmáº¹ÌģrÃŃkÃł": 4737,
      "nadaĠ": 4738,
      "pend": 4739,
      "visiwaĠ": 4740,
      "alil": 4741,
      "iranĠ": 4742,
      "áĮĪáī¥": 4743,
      "Ã²unĠ": 4744,
      "ojÃº": 4745,
      "Ġáī³áĭĭáīĤ": 4746,
      "wamnanĠ": 4747,
      "Ġáīłáī°áĪĪáĭŃ": 4748,
      "Pres": 4749,
      "OlÃ³": 4750,
      "mÃŃĠ": 4751,
      "ĠáĪº": 4752,
      "orunĠ": 4753,
      "ĠáīłáĮ£áĪĿ": 4754,
      "ĠáĬ¥áĭį": 4755,
      "áĮĪáīł": 4756,
      "utionĠ": 4757,
      "iĠmwaĠ": 4758,
      "áĭĺáĪŃ": 4759,
      "Ġ10": 4760,
      "áĬ®áī½": 4761,
      "áĮįáī¥áĮ½": 4762,
      "fÃŃÃ¬mÃ¹Ġ": 4763,
      "áĮ¦áĪŃ": 4764,
      "alik": 4765,
      "áĭ°áĮį": 4766,
      "aidaĠ": 4767,
      "ĠáīłáĪĮ": 4768,
      "awak": 4769,
      "neĠaĠ": 4770,
      "ifÃ¡": 4771,
      "isteĠ": 4772,
      "ĠáĬŃáįįáĪĭ": 4773,
      "Ã¬tÃłnĠ": 4774,
      "torÃŃĠ": 4775,
      "ráº¹ÌĢ.": 4776,
      "WilayaĠ": 4777,
      "jiniĠ": 4778,
      ",ĠleĠ": 4779,
      "Ã²g": 4780,
      "Ã²yÃ¬nĠ": 4781,
      "ott": 4782,
      "áĭ²áĪħ": 4783,
      "iliyanĠ": 4784,
      "FebruaryĠ": 4785,
      "consid": 4786,
      "import": 4787,
      "ick": 4788,
      "oyeĠ": 4789,
      "ana'": 4790,
      "unciĠ": 4791,
      "aĠmat": 4792,
      "áĭĬáīµ": 4793,
      "áĮ£áīµ": 4794,
      "Â»Ġ(": 4795,
      "prot": 4796,
      "9Ġ-Ġ": 4797,
      "ĠáĬłáĭŃáĭ°": 4798,
      "BaadaĠyaĠ": 4799,
      "prÃ©sent": 4800,
      "origin": 4801,
      "Wam": 4802,
      "fus": 4803,
      "kÃ¬": 4804,
      "oloj": 4805,
      "age": 4806,
      "áĪ³áī¸áĭį": 4807,
      "enĠm": 4808,
      "áĮ¥áĪ¨": 4809,
      "kejÃ¬Ġ": 4810,
      "áĪįáĮ£áĬķ": 4811,
      "'yarĠ": 4812,
      "Pas": 4813,
      "binc": 4814,
      "áº¹ÌĢáº¹Ìģ": 4815,
      "Josep": 4816,
      "3,": 4817,
      "Mac": 4818,
      "ba,Ġ": 4819,
      "lasheĠ": 4820,
      "year": 4821,
      "arabuĠ": 4822,
      "ÃłÃły": 4823,
      "kulaĠ": 4824,
      "áĪĺáī±": 4825,
      "áĮįáĪį": 4826,
      "ĠáīłáĪģ": 4827,
      "AlÃ¡": 4828,
      "ĠáīĢáĮ¥": 4829,
      "shekararĠ200": 4830,
      "áĪķáĪŃ": 4831,
      "láº¹ÌģyÃ¬nĠ": 4832,
      "Academ": 4833,
      "ÃĢwá»įnĠáº¹láº¹ÌģbÃ¹nĠNobelĠ": 4834,
      "Can": 4835,
      "faitĠ": 4836,
      "waz": 4837,
      "áįĳ": 4838,
      "amiĠ": 4839,
      "áįĪáĪµ": 4840,
      "áīłáĪ©áīµ": 4841,
      "wadan": 4842,
      "ká»įÌĢá»įÌģĠ": 4843,
      "ÃłgbÃ©lÃ©": 4844,
      "als": 4845,
      "un.": 4846,
      "ellesĠ": 4847,
      "áĪ¨áī¥": 4848,
      "áĭµáĪ¨áĮį": 4849,
      "ifĠ": 4850,
      "Ibrah": 4851,
      "TibaĠmwakaĠwaĠ": 4852,
      "Æ´": 4853,
      "ĠáĪ»": 4854,
      "áĭįáĪĿ": 4855,
      "ont": 4856,
      "7Ġ-Ġ": 4857,
      "Adam": 4858,
      "ĠáĬ¥áĬķáĮįáĪĬáĭĿ": 4859,
      "7-": 4860,
      "9-": 4861,
      "Mb": 4862,
      "Up": 4863,
      "ers,Ġ": 4864,
      "Ãłf": 4865,
      "isionĠ": 4866,
      "Ãºs": 4867,
      "angaz": 4868,
      "succ": 4869,
      "kutokaĠnchiĠyaĠ": 4870,
      "áĮłáĪ©": 4871,
      "ĠáĬłáĮĪáĪįáĮį": 4872,
      "áĪĿáĪħáĪŃ": 4873,
      "sehemuĠ": 4874,
      "Soci": 4875,
      "euĠ": 4876,
      "hivyoĠ": 4877,
      "aĠr": 4878,
      "onĠ(": 4879,
      "áĪ¨áĮĭ": 4880,
      "uduĠ": 4881,
      "Manazarta": 4882,
      "rayuwaĠ": 4883,
      "ĠáĬ¥áĭ¨áī°": 4884,
      "sinimÃ¡Ġ": 4885,
      "Mt": 4886,
      "Sen": 4887,
      "duk": 4888,
      "natur": 4889,
      "owaĠ": 4890,
      "oot": 4891,
      "yenyeĠ": 4892,
      "anarĠ": 4893,
      "ĠáĪĺáĪĨáĬĳ": 4894,
      "áĭĪáĪ¨": 4895,
      "neĠnaĠ": 4896,
      "wengiĠ": 4897,
      "ementsĠ": 4898,
      "Ã³mÃ¬nÃłĠ": 4899,
      "awá»įn": 4900,
      "aidiĠ": 4901,
      "áĭ®áĪµ": 4902,
      "Ãłwá»įnĠÃ¨nÃ¬yÃłnĠ": 4903,
      "kutokanaĠnaĠ": 4904,
      "ĠáĬłáĪĺáīµ": 4905,
      "kuk": 4906,
      "afterĠ": 4907,
      "31Ġ": 4908,
      "jum": 4909,
      "oloniĠ": 4910,
      "tre": 4911,
      "toĠgbaĠ": 4912,
      "Ġáº¹ÌĢyÃłĠ": 4913,
      "aĠyankinĠ": 4914,
      "ĠáĪĥáĭŃáĪĽáĬĸ": 4915,
      "21": 4916,
      "Yamm": 4917,
      "dontĠ": 4918,
      "her": 4919,
      "twoĠ": 4920,
      "áĬĹ": 4921,
      "irg": 4922,
      "urr": 4923,
      "ayans": 4924,
      "usul": 4925,
      "kumb": 4926,
      "TareheĠ": 4927,
      "ĠáĭĪáīħáīµ": 4928,
      "sakeĠ": 4929,
      "áĬĥ": 4930,
      "ilÃ©": 4931,
      "ĠáĬ¥áĬĲáĭļáĪħ": 4932,
      "esiĠ": 4933,
      "olĠ": 4934,
      "áī£áĪŃ": 4935,
      "wang": 4936,
      "tele.ĠItokasiĠÃĢwá»įnĠ": 4937,
      "pá»įÌĢlá»įpá»įÌĢĠ": 4938,
      "Port": 4939,
      "elec": 4940,
      "áī£áĭĬ": 4941,
      "trad": 4942,
      "Lov": 4943,
      "der": 4944,
      "mill": 4945,
      "áį²áį": 4946,
      "kuuĠ": 4947,
      "ĠáĭŃáĭĺ": 4948,
      "ĠáĪĽáī´áĭİáĪµ": 4949,
      "SchoolĠ": 4950,
      "Ba": 4951,
      "hann": 4952,
      "´áį": 4953,
      "áĬ¹": 4954,
      "ĠáĬ¬": 4955,
      "ali.": 4956,
      "ĠáĪµáīµ": 4957,
      "Alber": 4958,
      "áĮĭáĪį": 4959,
      "Ġáĭįáĭµ": 4960,
      "áĪģáĬķ": 4961,
      "harĠzuwaĠ": 4962,
      "hor": 4963,
      "ģáĬĳ": 4964,
      "Ġáĭ´": 4965,
      "abub": 4966,
      "kumaĠk": 4967,
      "eĠdÃ©": 4968,
      "over": 4969,
      "45": 4970,
      "Cong": 4971,
      "ĠK": 4972,
      "áĬĵáĬķ": 4973,
      "Ã¨g": 4974,
      ".ĠÃĢ": 4975,
      "aiĠnaĠ": 4976,
      "Arg": 4977,
      "Ġá»įÌĢkanĠ": 4978,
      "haifiĠ": 4979,
      "ÃªtreĠ": 4980,
      "jirginĠ": 4981,
      "http://www.": 4982,
      "Bell": 4983,
      "fan": 4984,
      "nolog": 4985,
      "iyoy": 4986,
      "áĪ«áĪīáį¢": 4987,
      "au,Ġ": 4988,
      "Atlant": 4989,
      "gÃ©nÃ©r": 4990,
      "DolaĠlaĠ": 4991,
      "ĠáĭķáĪĪáī³áīµ": 4992,
      "WannanĠ": 4993,
      "aar": 4994,
      "iedĠ": 4995,
      "ahiĠ": 4996,
      "ifeĠ": 4997,
      "Thom": 4998,
      "kasaĠ": 4999,
      "Ghan": 5000,
      "Mah": 5001,
      "Sud": 5002,
      "Te": 5003,
      "Turk": 5004,
      "UN": 5005,
      "VI": 5006,
      "a)": 5007,
      "bak": 5008,
      "abinc": 5009,
      "oloseluĠ": 5010,
      "iyy": 5011,
      "wigizajiĠwaĠfilamuĠ": 5012,
      "Vol": 5013,
      "fÃłĠ": 5014,
      "ierĠ": 5015,
      "á»įÌģn": 5016,
      "aliz": 5017,
      "weenĠ": 5018,
      "CharlesĠ": 5019,
      "35": 5020,
      "aĠB": 5021,
      "leurĠ": 5022,
      "áĮłáĬĵ": 5023,
      "encesĠ": 5024,
      "dansĠleĠ": 5025,
      "NovemberĠ": 5026,
      "BKĠ(BaadaĠyaĠKristo).ĠMatukioĠWaliozaliwaĠWaliofarikiĠKarneĠyaĠ": 5027,
      "ĠáĮ¥áĬķáī³áĭĬ": 5028,
      "91": 5029,
      "RaisĠwaĠ": 5030,
      "TĠ": 5031,
      "kwanzaĠ": 5032,
      "wing": 5033,
      "intoĠ": 5034,
      "alum": 5035,
      "asalinĠ": 5036,
      "adayeĠ": 5037,
      "ĠáĭŃáĪ°": 5038,
      "ret": 5039,
      "ÃĢwá»įnĠá»įjá»įÌģÃ¬bÃŃĠnÃŃĠ": 5040,
      "Map": 5041,
      "bÃł": 5042,
      "nouv": 5043,
      "áī³áĭ°": 5044,
      "aĠmap": 5045,
      "áĪħáĬķ": 5046,
      "ĠáīĢáĬĵáīµ": 5047,
      "overĠ": 5048,
      "fuataĠ": 5049,
      "nit": 5050,
      "eliĠ": 5051,
      "imp": 5052,
      "áĮĪáĪª": 5053,
      "áĪĽáī½": 5054,
      "wand": 5055,
      "Ġáĭ¨áĪĻ": 5056,
      "ipin": 5057,
      "áĭ®áĪŃ": 5058,
      "ungu": 5059,
      "ndÃŃn": 5060,
      "tsar": 5061,
      "áĪ»áĭİáī½": 5062,
      "Braz": 5063,
      "ĠáĭŃáĪħáĬķ": 5064,
      "Air": 5065,
      "Jum": 5066,
      "crÃ©": 5067,
      "lÃłĠ": 5068,
      "inÃºĠ": 5069,
      "itinĠ": 5070,
      "aya,Ġ": 5071,
      ".ĠÃĮ": 5072,
      "áĪ«áĪµ": 5073,
      "reeĠ": 5074,
      "autresĠ": 5075,
      "Comp": 5076,
      "work": 5077,
      "Ã¯": 5078,
      "Ġ'": 5079,
      "tho": 5080,
      "áĮįáĬķ": 5081,
      "ĠáĪĿáĪµ": 5082,
      "ĠáĭĵáĪĪáĪĿ": 5083,
      "oĠmak": 5084,
      "ĠáīłáĬłáĬķáĭµ": 5085,
      "Ġá»įmá»įĠorÃŃláº¹ÌĢ-Ã¨dÃ¨Ġ": 5086,
      "alinĠarz": 5087,
      "Ãīt": 5088,
      "Waf": 5089,
      "WestĠ": 5090,
      "d,Ġ": 5091,
      "áĭ¨áĪ±áĪµ": 5092,
      "iĠkoĠ": 5093,
      "exp": 5094,
      "áī»áĭŃáĬĵ": 5095,
      "áĪłĠáĬĲáĮĪ": 5096,
      "shiĠneĠdanĠwasanĠÆĻwallonĠÆĻafaĠtaĠÆĻasarĠIngil": 5097,
      "ĠáįĵáĪŃáī²": 5098,
      "tu": 5099,
      "zaidiĠ": 5100,
      "inst": 5101,
      "Ġáĭ«áĪħáĪį": 5102,
      "ansuĠ": 5103,
      "áĪŃáĪµáī²áĭ«": 5104,
      "BritishĠ": 5105,
      "iev": 5106,
      "ĪáĪĿ": 5107,
      "áįĦ": 5108,
      "olu": 5109,
      "áĪĽáĪŃ": 5110,
      "ĠáĭĪáĪ¨": 5111,
      "áįĪáĪĪ": 5112,
      "aniĠ(": 5113,
      "ÃĢwá»įnĠÃ¨nÃ¬yÃłnĠ": 5114,
      "amarĠhukumarĠ": 5115,
      "IIIĠ": 5116,
      "alikuwaĠmwan": 5117,
      "eux": 5118,
      "Ny": 5119,
      "maj": 5120,
      "sing": 5121,
      "ĠF": 5122,
      "áĪįáĭ°": 5123,
      "adha": 5124,
      "umiĠ": 5125,
      "áĭ¨áī°": 5126,
      "prim": 5127,
      "ĠáĬłáĬķáĭ³": 5128,
      "amarĠhukumaĠ": 5129,
      "pÃłt": 5130,
      "ĠáĪ´áīµ": 5131,
      "Ãģfr": 5132,
      "Tun": 5133,
      "Wom": 5134,
      "div": 5135,
      "hukoĠ": 5136,
      "entiĠ": 5137,
      "áī³áī¸áĭįáĬķ": 5138,
      "ipÃ²Ġ": 5139,
      "ifoĠch": 5140,
      "dagaĠbayaĠ": 5141,
      "nÃŃnÃºĠÃłwá»įnĠ": 5142,
      "ĠáīĢáĬķĠáīłáĬ¢áīµáĭ®áĮµáĭ«": 5143,
      "Ã¨rÃ¨Ġ": 5144,
      "lá»įÌģdÃºnĠ": 5145,
      "Ã¹n-": 5146,
      "tas": 5147,
      "áĪĵ": 5148,
      "0Ġ-Ġ": 5149,
      "proc": 5150,
      "ĠáĪĺáĬķáĮįáĪµáīµ": 5151,
      "AfrikaĠKus": 5152,
      "jiĠmkuuĠwaĠ": 5153,
      "Ut": 5154,
      "pÃ¨": 5155,
      "abr": 5156,
      "ĠáĪĺáĪª": 5157,
      "ibleĠ": 5158,
      "AlakosoĠ": 5159,
      "auy": 5160,
      "eĠdeĠl'": 5161,
      "á»ĮÌĢ": 5162,
      "OctoberĠ": 5163,
      "áĮ¹": 5164,
      "atun": 5165,
      ".Ġ-": 5166,
      "imaĠ": 5167,
      "ĠáĪĺáĭµ": 5168,
      "nÃŃĠorÃŃláº¹ÌĢ-Ã¨dÃ¨Ġ": 5169,
      "Abuj": 5170,
      "FizikiaĠmwakaĠwaĠ": 5171,
      "ĠáĪ¥áĪŃáĭĪĠáĪĺáĬķáĮįáĪ¥áīµ": 5172,
      "Born": 5173,
      "cetteĠ": 5174,
      "labar": 5175,
      "nip": 5176,
      "arc": 5177,
      "Ġáī¥áĪĪáĭį": 5178,
      "peop": 5179,
      "fitoĠ": 5180,
      "Gwamn": 5181,
      "gh": 5182,
      "som": 5183,
      "Ã©lÃ©": 5184,
      "Ã³Ġá¹£eĠ": 5185,
      "ambayoĠ": 5186,
      "Ġáĭ°áī¡áī¥": 5187,
      "2Ġ-Ġ": 5188,
      "takrib": 5189,
      "ÃģfrÃŃ": 5190,
      "CityĠ": 5191,
      "áĪ°áĬķ": 5192,
      "ceĠtaĠ": 5193,
      "leyĠ": 5194,
      "huwarĠ": 5195,
      "KanananĠhukumominĠ": 5196,
      "fina-fin": 5197,
      "ahariĠyaĠ": 5198,
      "kwenyeĠ": 5199,
      "waĠkwaĠ": 5200,
      "onlyĠ": 5201,
      "aboutĠ": 5202,
      "leur": 5203,
      "etĠlaĠ": 5204,
      "awaĠdaĠ": 5205,
      "shirinĠ": 5206,
      "tanguĠ": 5207,
      "Had": 5208,
      "gasarĠ": 5209,
      "áīº": 5210,
      "almeĠ": 5211,
      "ali,Ġ": 5212,
      "áĪĮáĬŃáīµ": 5213,
      "ĠáĬķáĮīáĪµ": 5214,
      "ĠáĬłáĬ«áĪį": 5215,
      "darÃŃĠ": 5216,
      "ĠáįĪáĪŃáĭĸ": 5217,
      "gl": 5218,
      "jÃłĠ": 5219,
      "lÃ¹Ġ": 5220,
      "val": 5221,
      "Æ³": 5222,
      "áĪĪáī¥": 5223,
      "áĬĲáī¶áī½": 5224,
      "a'aik": 5225,
      "ĠáĭµáĪĿ": 5226,
      "8Ġ-Ġ": 5227,
      "Stat": 5228,
      "ItaliaĠ": 5229,
      "indaĠtaĠ": 5230,
      "score0": 5231,
      "hel": 5232,
      "mostĠ": 5233,
      "Ð°": 5234,
      "áī¼": 5235,
      "eĠnaĠ": 5236,
      "endaĠ": 5237,
      "ilos": 5238,
      "áĬĲáīłáĪŃ": 5239,
      "shekaraĠtaĠ201": 5240,
      "Ayy": 5241,
      "0-": 5242,
      "29": 5243,
      "34": 5244,
      "AD": 5245,
      "áĪĭáĪīáį¢": 5246,
      "edĠasĠ": 5247,
      "aiĠdaĠ": 5248,
      "expl": 5249,
      "aĠkatikaĠm": 5250,
      "Yoh": 5251,
      "bad": 5252,
      "mark": 5253,
      "rashinĠ": 5254,
      "sá»į": 5255,
      "wamb": 5256,
      "Ã¶": 5257,
      "aunaĠ": 5258,
      "d'unĠ": 5259,
      "rubutaĠ": 5260,
      "Cal": 5261,
      "Vic": 5262,
      "bil": 5263,
      "mÃ¹Ġ": 5264,
      "yst": 5265,
      "anim": 5266,
      "áº¹áº¹": 5267,
      "es)Ġ": 5268,
      "iaĠyaĠK": 5269,
      "áįĪáīµ": 5270,
      "Ġáĭ¨áĪļáĪį": 5271,
      "et,Ġ": 5272,
      "tÃŃĠÃ³Ġjáº¹ÌģĠ": 5273,
      "áĪŃáĭ«áĪĿ": 5274,
      "áĮłáīĥáĪĭáĭŃ": 5275,
      "iâĢĻarĠ": 5276,
      "Tanb": 5277,
      "US": 5278,
      "igbaĠ": 5279,
      "jul": 5280,
      "Ġ200": 5281,
      "ingu": 5282,
      "áĬ¨áĪ«": 5283,
      "peutĠ": 5284,
      "askazin": 5285,
      "edĠbyĠtheĠ": 5286,
      "betweenĠ": 5287,
      "36": 5288,
      "Lat": 5289,
      "Su": 5290,
      "a,": 5291,
      "bÃ¬nrinĠ": 5292,
      "jÃ¬Ġ": 5293,
      "son": 5294,
      "aĠJiharĠ": 5295,
      "áĪįáį¡áį¡": 5296,
      "ĠáĪĺáĬĲ": 5297,
      "activ": 5298,
      "awa.": 5299,
      "igu": 5300,
      "idg": 5301,
      "su.": 5302,
      "Najeriya": 5303,
      "film": 5304,
      "Ġáĭ¨áĪĿáīµ": 5305,
      "OpenĠ": 5306,
      "Sikuku": 5307,
      "pÃłtÃłk": 5308,
      "37": 5309,
      "Rich": 5310,
      "artĠ": 5311,
      "ablaĠ": 5312,
      "aĠma": 5313,
      "ĠáĬ¥áĬķáĪµ": 5314,
      "entomonĠ": 5315,
      "ÃłtiĠÃłwá»įnĠ": 5316,
      "áĬ©áĪį": 5317,
      "-d": 5318,
      "Ful": 5319,
      "Nuw": 5320,
      "Rh": 5321,
      "Uh": 5322,
      "ryĠ": 5323,
      "|-Ġ": 5324,
      "áĪįáįį": 5325,
      "áĪĪáĭ±": 5326,
      "ĠáĬłáĮ¥": 5327,
      "áĮĪáĭį": 5328,
      "Ġáī°áĬĲ": 5329,
      "app": 5330,
      "Ġ16": 5331,
      "IlÃ©-": 5332,
      "Janair": 5333,
      "KÃ¡": 5334,
      "Sat": 5335,
      "hiiĠ": 5336,
      "woteĠ": 5337,
      "ãĥ": 5338,
      "intern": 5339,
      "identĠ": 5340,
      "ojuĠ": 5341,
      "áĪĦáĭµ": 5342,
      "NÃŃĠá»įdÃºnĠ201": 5343,
      "ĠáĪ³áĭŃáĪĨáĬķ": 5344,
      "UmojaĠwaĠ": 5345,
      "hut": 5346,
      "kik": 5347,
      "lÃ¨": 5348,
      "itz": 5349,
      "áĭ°áĮĭ": 5350,
      "engineĠ": 5351,
      "AnĠhaifeĠ": 5352,
      "John": 5353,
      "Pal": 5354,
      "etoĠ": 5355,
      "ikish": 5356,
      "undĠ": 5357,
      "ĠáĪĺáĭĿ": 5358,
      "Ã²finĠ": 5359,
      "á»įÌĢn": 5360,
      "ĠáĪĽáĪħ": 5361,
      "anzib": 5362,
      "100Ġ": 5363,
      "jerinĠ": 5364,
      "ĠáĬŃáĪįáĪį": 5365,
      "Iv": 5366,
      "samaĠ": 5367,
      "tof": 5368,
      "ÙĲ": 5369,
      "áī¬": 5370,
      "áĮ³": 5371,
      "ĠáĭĲ": 5372,
      "arĠk": 5373,
      "ĠáĭĪáĮĪáĬķ": 5374,
      ":ĠTheĠ": 5375,
      "opĠ": 5376,
      "áĮłáįĭ": 5377,
      "aniĠm": 5378,
      "Ġáĭ¨áī°áĪĪáĭ«áĭ©": 5379,
      "Ġáī³áĪĭáīħ": 5380,
      "zaÉĵ": 5381,
      "AgbegbeĠ": 5382,
      "thernĠ": 5383,
      "gÃŃgaĠ": 5384,
      "moĠ": 5385,
      "ruwaĠ": 5386,
      "Ġá¹¢": 5387,
      "ĠáĬĳ": 5388,
      "abinĠ": 5389,
      "aya.": 5390,
      "ĠáĪĪáĭį": 5391,
      "auĠm": 5392,
      "whenĠ": 5393,
      "lughaĠ": 5394,
      "ĠáĪĽáĪµáī³áĭĪ": 5395,
      "Hak": 5396,
      "hank": 5397,
      "aĠlaĠ": 5398,
      "Ġáĭ¨áīµ": 5399,
      "áĪµáī±": 5400,
      "ĠáĪ²áĪĨáĬķĠáĭŃáĪħ": 5401,
      "Ġáĭ¨áĬłáĪĽáĪŃáĬĽĠáĪĿáĪ³áĪĮĠáĬĲáĭįáį¢ĠáīµáĪŃáĮīáĪĻĠáĪĺáĭ°áī¥Ġ:Ġáī°áĪ¨áīµáĬĵĠáĪĿáĪ³áĪĮ": 5402,
      "olÃ³rinĠ": 5403,
      "ĠáīłáĬ¥áĬķáĮįáĪĬáĭĿáĬĽ": 5404,
      "knownĠ": 5405,
      "JuneĠ": 5406,
      "Mut": 5407,
      "cinĠk": 5408,
      "µáį": 5409,
      "alÃłÃły": 5410,
      "ole": 5411,
      "useĠ": 5412,
      "ovutiĠ": 5413,
      "ÃĪkÃ³Ġ": 5414,
      "balimbaliĠ": 5415,
      "Ath": 5416,
      "Zanzib": 5417,
      "takaĠ": 5418,
      "yá»į": 5419,
      "yayiĠ": 5420,
      "Â²": 5421,
      "áĭ³áĪĿ": 5422,
      "obÃ¬nrinĠ": 5423,
      "tsawonĠ": 5424,
      "intaĠnaĠ": 5425,
      "Roy": 5426,
      "Val": 5427,
      "do": 5428,
      "long": 5429,
      "Ã¤": 5430,
      "ity": 5431,
      "iref": 5432,
      "ambay": 5433,
      "waĠmasoĠ": 5434,
      "wakatiĠ": 5435,
      "6Ġ-Ġ": 5436,
      "ciĠgabaĠdaĠ": 5437,
      "RĠ": 5438,
      "e),Ġ": 5439,
      "Ä«": 5440,
      "ĠáĪ©": 5441,
      "áĪŃáĮį": 5442,
      "ĠáĬĲáĭįáį¢Ġáĭ¨": 5443,
      "áĮłáĪį": 5444,
      "agbÃ¡": 5445,
      "ÃĪkÃ³": 5446,
      "ĠáĪĢáĮĪáĪŃ": 5447,
      "kÃ¹nrinĠ": 5448,
      "Oá¹£": 5449,
      "Sah": 5450,
      "TVĠ": 5451,
      "e)": 5452,
      "eo": 5453,
      "hat": 5454,
      "mÃº": 5455,
      "mesĠ": 5456,
      "nasar": 5457,
      "sil": 5458,
      "sos": 5459,
      "aĠNajeriyaĠ": 5460,
      "intĠ": 5461,
      "alsĠ": 5462,
      "el,Ġ": 5463,
      "áīłáĪĮ": 5464,
      "yÃ¬n": 5465,
      "aĠgarinĠ": 5466,
      "áĮ¥áĬķáī³áĭĬ": 5467,
      "okeoĠyaĠ": 5468,
      "DanĠ": 5469,
      "Pak": 5470,
      "eshiĠ": 5471,
      "uoĠ": 5472,
      "áĬķĠ(": 5473,
      "áī½áĭį": 5474,
      "idadiĠyaĠ": 5475,
      "Ġáĭ¨áī°áī£áĪĪáĭį": 5476,
      "territ": 5477,
      "awaĠnaĠ": 5478,
      "atsay": 5479,
      "wÃ¡jÃºĠ": 5480,
      "MayĠ": 5481,
      "jÃ¹Ġ": 5482,
      "pir": 5483,
      "wid": 5484,
      "áĬķáĭ°": 5485,
      "áĬķĠáĪĪ": 5486,
      "áĬķĠáĪµáĪĿ": 5487,
      "inz": 5488,
      "áį¢Ġáīł": 5489,
      "thanĠ": 5490,
      "áī°áĭĭáĪįáį¢": 5491,
      "ayenĠ": 5492,
      "áĪĭáĪī": 5493,
      "Ġáĭ¨áĪĮ": 5494,
      "Shir": 5495,
      "áĬĽáĭįĠáĬŃáįįáĪĪĠáĭĺáĪĺáĬķ": 5496,
      "sÃ¬kÃ²Ġ": 5497,
      "ĠáĭĻáĪªáĭ«": 5498,
      "pekeeĠ": 5499,
      "amuzikiĠ": 5500,
      "beg": 5501,
      "dat": 5502,
      "fun": 5503,
      "ief": 5504,
      "arans": 5505,
      "gbÃ³": 5506,
      "kumbu": 5507,
      "áī¶áī¹": 5508,
      "Christi": 5509,
      "iwaĠkuwaĠ": 5510,
      "ĠáĪĨáĬĲáĭį": 5511,
      "Tanzania": 5512,
      "IjobaĠ": 5513,
      "ĠáĬ¥áĮħáĮį": 5514,
      "tall": 5515,
      "Ãĵ": 5516,
      "taĠm": 5517,
      "ĠáĮĨ": 5518,
      "áĭŃáĬĲáīµ": 5519,
      "elez": 5520,
      "áĬĲáĮĪ": 5521,
      "áĬŃáĪĪ": 5522,
      "ekĠ": 5523,
      "aĠkoĠ": 5524,
      "ijiĠyaĠ": 5525,
      "antuĠ": 5526,
      "áī¨áĪŃ": 5527,
      "DavidĠ": 5528,
      "Ġ6": 5529,
      "arciĠ": 5530,
      "ini.": 5531,
      "áĭ«áĪµ": 5532,
      "áĭĺáī¥": 5533,
      "estĠunĠ": 5534,
      "aiss": 5535,
      "Ã²á¹£erÃ©Ġ": 5536,
      "olÃ³á¹£Ã¨": 5537,
      "wajeĠ": 5538,
      "scien": 5539,
      "ymp": 5540,
      "hom": 5541,
      "vic": 5542,
      "áī½áĪį": 5543,
      "áī½áĪģ": 5544,
      ".ĠB": 5545,
      "awezaĠ": 5546,
      "áĬ¨áĪŃ": 5547,
      "tiqu": 5548,
      "áĬ«áī£áī¢": 5549,
      "ograf": 5550,
      "3Ġ-Ġ": 5551,
      "shindiĠwaĠTuzoĠyaĠNobelĠyaĠKemiaĠmwakaĠwaĠ": 5552,
      "dam": 5553,
      "ren": 5554,
      "wouldĠ": 5555,
      "insuĠ": 5556,
      "ÃłgbÃ¡": 5557,
      "abis": 5558,
      "áĮĪáĬĲ": 5559,
      "áĮĪáĬĽ": 5560,
      "áĪªáī³": 5561,
      "Ġá¹£Ã¹gbá»įÌģnĠ": 5562,
      "ĠáĬ«áĪį": 5563,
      "AgbaĠ": 5564,
      "vileĠ": 5565,
      "olÃº": 5566,
      "ÆĻungiyarĠ": 5567,
      "angĠ": 5568,
      "aniĠnaĠ": 5569,
      "áį¤Ġáīł": 5570,
      "jam'": 5571,
      "Nijeriya.": 5572,
      "HukumarĠ": 5573,
      "oá¹£": 5574,
      "pÃ²Ġ": 5575,
      "oĠtiĠ": 5576,
      "áĬŃáĪŃáĪµáī²áĭ«áĬķ": 5577,
      "ĠáĪĽáĮ£": 5578,
      "iwonĠ": 5579,
      "Ã¨resĠ": 5580,
      "Nijeriya.Ġ": 5581,
      "endeleaĠku": 5582,
      "Bro": 5583,
      "Oh": 5584,
      "Ġáĭ¨áĭĵ": 5585,
      "áī£áĪįáį¢": 5586,
      "áįįáĪªáĬ«": 5587,
      "áĭ¨áĪĺ": 5588,
      "áī²áĬŃ": 5589,
      "harshenĠ": 5590,
      "Lagos": 5591,
      "dabanĠ": 5592,
      "AnnabiĠ": 5593,
      "âĢ¢ĠM": 5594,
      "franÃ§ais": 5595,
      "Den": 5596,
      "Litt": 5597,
      "Wash": 5598,
      "etiĠ": 5599,
      "ezĠ": 5600,
      "agbegbeĠ": 5601,
      "gabatarĠdaĠ": 5602,
      "JulyĠ": 5603,
      "wá»įÌĢĠ": 5604,
      "iĠtaĠ": 5605,
      ",ĠS": 5606,
      "abij": 5607,
      "Alg": 5608,
      "oup": 5609,
      "Ãłn.": 5610,
      "adhim": 5611,
      "ĠáĭŃáī½áĪĭáĪįáį¢": 5612,
      "AbubakarĠ": 5613,
      "kÃºr": 5614,
      "láº¹": 5615,
      "rest": 5616,
      "eĠtaĠ": 5617,
      "Ġáĭ¨áī³": 5618,
      ")ĠnaĠ": 5619,
      "áĪ³áī°": 5620,
      "Ġáī°áįĪ": 5621,
      "ĠáīłáĪį": 5622,
      "ighĠ": 5623,
      "leĠm": 5624,
      "usĠ(": 5625,
      "karneĠyaĠ": 5626,
      "áī¥áĪŃáĪĥ": 5627,
      "al'umm": 5628,
      "zabenĠ": 5629,
      "ĠáĭĵáĬŃáĪįáīł.ĠáĮįáĭµáĪĿ": 5630,
      "ĠáĭŃáī³áĭĪáīĥáĪįáį¢": 5631,
      "t.": 5632,
      "Ùı": 5633,
      "áĬĭáĪĭ": 5634,
      "áĪŃ-": 5635,
      "yaĠyiĠ": 5636,
      "ĠáĬ¥áĭµ": 5637,
      ".ĠS": 5638,
      "iyoyinĠ": 5639,
      "áĪ«áī¸áĭį": 5640,
      "apr": 5641,
      "osereĠ": 5642,
      "ĠáĬ¥áĬķáĭ°áĪĨáĬĲ": 5643,
      "tÃŃĠÃ³ĠÅĦĠ": 5644,
      "thĠcentur": 5645,
      "with": 5646,
      "âĢ¢ĠMtoĠ": 5647,
      "Fed": 5648,
      "doĠ": 5649,
      "def": 5650,
      "jimb": 5651,
      "oÃ¹Ġ": 5652,
      "vitaĠ": 5653,
      "Ø¨": 5654,
      "ary": 5655,
      "ĠáĬłáĭ²áĪµ": 5656,
      "á»įÌģr": 5657,
      "kasaĠdaĠ": 5658,
      "áīĥáĪį": 5659,
      "airesĠ": 5660,
      "shiryaĠ": 5661,
      "crip": 5662,
      "Ġáĭ¨áĪĨáĬĳ": 5663,
      "Ġáĭ¨áĬĲáīłáĪ¨áĭį": 5664,
      "áĪĪáī°áĬĽáĭį": 5665,
      "Ġáĭ©áĬĴ": 5666,
      "EnglishĠ": 5667,
      "CibiyarĠ": 5668,
      "bro": 5669,
      "call": 5670,
      "eyiĠ": 5671,
      "nomĠ": 5672,
      "yth": 5673,
      "aĠwas": 5674,
      "ÃłgbÃł": 5675,
      "eniyanĠ": 5676,
      "onÃŃá¹£": 5677,
      "isc": 5678,
      "áĭ«áĭ«": 5679,
      "áī¥áĪĬáĬŃ": 5680,
      "áº¹ÌĢláº¹ÌĢĠ": 5681,
      "áī£áĪī": 5682,
      "áĬĳáĪµ": 5683,
      "Fren": 5684,
      "nyingineĠ": 5685,
      "AnaĠ": 5686,
      "web": 5687,
      "áĬķáĮ«": 5688,
      "on-": 5689,
      "ons": 5690,
      "áīłáĬĽ": 5691,
      "Ġáī°áīĭ": 5692,
      "ĠáĭŃáī»": 5693,
      "ĠáĭŃáĮłáīĢ": 5694,
      "ojoj": 5695,
      "fÃºnĠÃłwá»įnĠ": 5696,
      "yaĠmutuĠ": 5697,
      "Ã©eĠparĠ": 5698,
      "gbá»įÌĢnĠ": 5699,
      "kumbukumb": 5700,
      "AP": 5701,
      "KĠ": 5702,
      "ká»įÌĢĠ": 5703,
      "oodĠ": 5704,
      "áĬ½": 5705,
      "abab": 5706,
      "conom": 5707,
      "d'uneĠ": 5708,
      "FranceĠ": 5709,
      "lá»įÌģwá»įÌģĠ": 5710,
      "IbrahimĠ": 5711,
      "Yul": 5712,
      "ix": 5713,
      "log": 5714,
      "ta.": 5715,
      "zur": 5716,
      "áĬ¡": 5717,
      "ondeĠ": 5718,
      "áī£áĪħ": 5719,
      "idiĠyaĠ": 5720,
      "áĬ«áĪį": 5721,
      "ainsiĠ": 5722,
      "áĬłáĪĿ": 5723,
      "ĠáĬ«áĪĮ": 5724,
      "Ġá»įÌĢd": 5725,
      "ique,Ġ": 5726,
      "Democr": 5727,
      "C.": 5728,
      "fáº¹Ìģ": 5729,
      "vin": 5730,
      "velop": 5731,
      ",ĠM": 5732,
      "sĠinĠ": 5733,
      "ikiĠwaĠ": 5734,
      "aziniĠ": 5735,
      "baĠtaĠ": 5736,
      "ĠáĪĪáĬ¥": 5737,
      "Ġáĭ«áĪī": 5738,
      "áĭĽáĪ¬": 5739,
      "áĪ±áĪĿ": 5740,
      "achĠ": 5741,
      "KanisaĠ": 5742,
      "n.k.": 5743,
      "ÃĮbÃłd": 5744,
      "dÃ¬": 5745,
      "huwaĠ": 5746,
      "ox": 5747,
      "áĮ¼": 5748,
      "Ġ(201": 5749,
      "izoĠ": 5750,
      "4Ġ-Ġ": 5751,
      "áīģáĪŃ": 5752,
      "argaj": 5753,
      "nÃŃĠá»įdÃºnĠ201": 5754,
      "ĠáĪ«áĪµ": 5755,
      "mÃ©jÃ¬Ġ": 5756,
      "Dam": 5757,
      "Wil": 5758,
      "biyarĠ": 5759,
      "ji": 5760,
      "kÃºĠ": 5761,
      "aĠG": 5762,
      "alesĠ": 5763,
      "inĠ(": 5764,
      "ident": 5765,
      "Ġáĭ¨áī°áĬŃáĪī": 5766,
      "ÃĢwá»įnĠÃĮt": 5767,
      "Ã©rÃ©Ġ": 5768,
      "ĠáĭįáĪµáĮ¥Ġáĭ¨áĪļáĮĪáĬĿ": 5769,
      "maĠÅĦĠ": 5770,
      "TanbihiĠ": 5771,
      "75": 5772,
      "Ele": 5773,
      "jour": 5774,
      "low": 5775,
      "annaĠ": 5776,
      "áĮĪáĭĽ": 5777,
      "nÃŃtorÃŃĠ": 5778,
      "ocinĠ": 5779,
      "upĠ": 5780,
      "jami'": 5781,
      "III": 5782,
      "AfirkaĠtaĠ": 5783,
      "ĠáĪŀáīµ": 5784,
      "Ã©galementĠ": 5785,
      "wá»įÌģn": 5786,
      "FĠ": 5787,
      "GÃ³mÃ¬nÃłĠ": 5788,
      "rá»įÌĢ": 5789,
      "aminĠ": 5790,
      "italĠ": 5791,
      "ariĠtaraĠ": 5792,
      "áĭ°áĪ¨áĮī": 5793,
      "TarayyarĠ": 5794,
      "ne,ĠdaĠkeĠ": 5795,
      "ÃĢwá»įnĠÃ¨nÃ¬yÃłnĠalÃłÃły": 5796,
      "a),Ġ": 5797,
      "le,Ġ": 5798,
      "táº¹ÌĢ": 5799,
      "Ã©lec": 5800,
      "aiz": 5801,
      "ĠáīłáĪ¨": 5802,
      "Alim": 5803,
      "ubuc": 5804,
      "áĬłáĪį": 5805,
      "walikuwaĠ": 5806,
      "KanoĠ": 5807,
      "ĠáĭĵáĪĺáī±": 5808,
      "aikiĠaĠmatsayinĠ": 5809,
      "áº¸ÌĢ": 5810,
      "RobertĠ": 5811,
      "Iá¹£áº¹ÌģĠ": 5812,
      "ĠáīłáĬ©áĪį": 5813,
      "Dur": 5814,
      "Lu": 5815,
      "hi": 5816,
      "ine,Ġ": 5817,
      "áĭįáĪµ": 5818,
      "oni": 5819,
      "is.": 5820,
      "áĭµáĪµáīµ": 5821,
      "isĠtheĠ": 5822,
      "stud": 5823,
      "áĬĿáĬĲáīµ": 5824,
      "ĠáĮĪáī¥": 5825,
      "Ġáī¤áī°ĠáĬŃáĪŃáĪµáī²áĭ«áĬķ": 5826,
      "Ã¬sÃłnĠ": 5827,
      "MakarantarĠ": 5828,
      ")ĠáĬ¨": 5829,
      "aeĠ": 5830,
      "bat": 5831,
      "cy": 5832,
      "e\"Ġ": 5833,
      "áĭ£": 5834,
      "Ġáĭ±": 5835,
      "anĠNajeriyaĠ": 5836,
      "daĠnaĠ": 5837,
      "onek": 5838,
      "áī³áī½áĬķ": 5839,
      "afuĠ": 5840,
      "wandaĠkeĠ": 5841,
      "áĮłáĪĭ": 5842,
      "hadiĠk": 5843,
      "NewĠYorkĠ": 5844,
      "kuhusuĠ": 5845,
      "Ã¬bÃŃláº¹ÌĢĠ": 5846,
      "KunaĠ": 5847,
      "new": 5848,
      "rank": 5849,
      "engaĠ": 5850,
      "ĠáĬłáĪ°": 5851,
      "ambaoĠ": 5852,
      "ĠáīµáĪįáīħ": 5853,
      "YorÃ¹bÃ¡": 5854,
      "ĠáĪľáīµáĪŃ": 5855,
      "LegasĠ": 5856,
      "toĠgbaĠEbunĠ": 5857,
      "herĠ": 5858,
      "áĬķáĭ²": 5859,
      "áĭįáĪį": 5860,
      "Ã©qu": 5861,
      "áĪĪáĪģ": 5862,
      "cheĠ": 5863,
      ".ĠH": 5864,
      "2019Ġ": 5865,
      "okanaĠnaĠ": 5866,
      "Alb": 5867,
      "áĪ©áīµ": 5868,
      "áĪİáĬķ": 5869,
      "nÃ¡Ãł,Ġ": 5870,
      "ĠáĪķáĭĿ": 5871,
      "gwamnatinĠ": 5872,
      "KadunaĠ": 5873,
      "ĠáįķáĪ¬áĭļ": 5874,
      "pÃłtÃłkÃ¬Ġ": 5875,
      "Jon": 5876,
      "jus": 5877,
      "sk": 5878,
      "ĠH": 5879,
      "ingiaĠ": 5880,
      "2007Ġ": 5881,
      "ĠáĭįáĮ¤": 5882,
      "compos": 5883,
      "ĠáĪ¥áĪĭáĪ´": 5884,
      "pÃłÃ¡Ġ": 5885,
      "Ġáĭ¨áĪ°áĭį": 5886,
      "ĠáīłáĭĺáĪĺáĬĲĠáĭ®áĪĲáĬķáĪµ": 5887,
      "overnmentĠ": 5888,
      "ilioniĠ": 5889,
      "JosephĠ": 5890,
      "Kur": 5891,
      "KingĠ": 5892,
      "Som": 5893,
      "aelĠ": 5894,
      "cas": 5895,
      "liv": 5896,
      "wap": 5897,
      "Ãį": 5898,
      "áĬ¾": 5899,
      "Ġáĭŀ": 5900,
      "ĠáįĢ": 5901,
      "trouv": 5902,
      "áīĢáĪį": 5903,
      "áīħáĪµ": 5904,
      "pris": 5905,
      "ÅĦĠá¹£eĠ": 5906,
      "wakaz": 5907,
      "AfricaĠ": 5908,
      "asarautarĠ": 5909,
      "Ã¬rÃ²yÃ¬nĠ": 5910,
      "AlexanderĠ": 5911,
      "ĠáĮ½áĪĳáįį": 5912,
      "báº¹ÌģĠ": 5913,
      "dec": 5914,
      "gaĠm": 5915,
      "naf": 5916,
      "pyaĠ": 5917,
      "arĠs": 5918,
      ".ĠItokasi": 5919,
      "áīĢáĭµáĪŀ": 5920,
      "angl": 5921,
      "daĠyakeĠ": 5922,
      "lÃ©Ġráº¹ÌĢĠ": 5923,
      "áĬķáĭ³áĪŃ": 5924,
      "kejÃ¬": 5925,
      "eneoĠyaĠ": 5926,
      "ĠáĮįáī¥áĮ½": 5927,
      "=\"": 5928,
      "Wad": 5929,
      "jÃ©Ġ": 5930,
      "pour": 5931,
      "iki,Ġ": 5932,
      "us.": 5933,
      "áĬ¨áįį": 5934,
      "áĭķáĭĿ": 5935,
      "Ã¬dÃŃĠ": 5936,
      "ĠáĭŃáĪħáĪĿ": 5937,
      "yaaniĠ": 5938,
      "atukio": 5939,
      "áĬ¨áī°áĪĪáĭį": 5940,
      "dÃ¡raĠ": 5941,
      "fasah": 5942,
      "AM": 5943,
      "numb": 5944,
      "iĠaĠ": 5945,
      "inv": 5946,
      "erb": 5947,
      "áĪµáī°áĬĽ": 5948,
      "Ġáīłáĭ¨": 5949,
      "ĠáĬłáĬĲ": 5950,
      "ĠáĬłáĭµ": 5951,
      "unĠM": 5952,
      "umoĠ": 5953,
      "áĭ³áĮħ": 5954,
      "ĠáĭµáĬķ": 5955,
      "yanaĠdaĠ": 5956,
      "ĠáīģáĮ¥": 5957,
      "Ãłwá»įnĠá»įmá»įĠ": 5958,
      "kaskazin": 5959,
      "Bak": 5960,
      "Hous": 5961,
      "Kej": 5962,
      "ile": 5963,
      "itaceĠ": 5964,
      "yĠandĠ": 5965,
      "trÃ¨sĠ": 5966,
      "ÆĻidayarĠ": 5967,
      "avy": 5968,
      "MarchĠ": 5969,
      "ĠáĬ¥áĬķáĭ°áī°": 5970,
      "ĠáīłáĪĺáĪĨáĬĳ": 5971,
      "Ã©taitĠ": 5972,
      "aĠkung": 5973,
      "spec": 5974,
      "Lab": 5975,
      "Lim": 5976,
      "Ter": 5977,
      "Wais": 5978,
      "cre": 5979,
      "nje": 5980,
      "udaĠ": 5981,
      "alorsĠ": 5982,
      "illeĠ": 5983,
      "ikip": 5984,
      "Ã³ĠsÃ¬Ġ": 5985,
      "áĬ¨áī¥": 5986,
      "áĪ¥áī±": 5987,
      "ÃŃnÃºĠ": 5988,
      "Associ": 5989,
      "tÃŃĠwá»įÌģnĠbÃŃĠ": 5990,
      "nameĠ": 5991,
      "áĮİáĪŃáĮİáĪŃ": 5992,
      "Reg": 5993,
      "cal": 5994,
      "qĠ": 5995,
      "tabb": 5996,
      "wayĠ": 5997,
      "ina,Ġ": 5998,
      "awĠ": 5999,
      "áĭ³áĬķáīµ": 6000,
      "lev": 6001,
      "autaĠ": 6002,
      "ion,Ġ": 6003,
      "daĠyawaĠ": 6004,
      "ĠáĪµáĪĪáĭļáĪħ": 6005,
      "pÃŃnláº¹ÌĢ": 6006,
      "ĠáĪħáĭĿáī¥": 6007,
      "wenyeweĠ": 6008,
      "ilosoph": 6009,
      ";Ġ(": 6010,
      "áĬķĠáĪĪáĪĺ": 6011,
      "tĠ(": 6012,
      "ÃºÃºs": 6013,
      "Ã³Ġá¹£": 6014,
      "ĠáĪĺáĪ¨áĮĥ": 6015,
      "aĠmwakaĠ": 6016,
      "áĭĭáīµ": 6017,
      "anzish": 6018,
      "ileĠniĠ": 6019,
      "IbileĠ": 6020,
      "ĠáĪĿáĬķáĮŃ": 6021,
      "Kwam": 6022,
      "dog": 6023,
      "faf": 6024,
      "kÃ¬Ġ": 6025,
      "Î±": 6026,
      "Ġ7": 6027,
      "áī§": 6028,
      "ere": 6029,
      "akat": 6030,
      "ĠáīłáĮ¥": 6031,
      "ĠáĬłáī£áĪį": 6032,
      "áī£áī¥": 6033,
      "apÃ¡Ġ": 6034,
      "ÃĢĠ": 6035,
      "ectiv": 6036,
      "ĠáĬŃáĪŃáĪµáī¶áĪµ": 6037,
      "ammentĠ": 6038,
      "áĬªáĭ«": 6039,
      "ĠáįĬáĭ°áĪį": 6040,
      "ministr": 6041,
      "ĠáįķáĪ®": 6042,
      "áįĪáĮ¥áĪ®": 6043,
      "d.Ġ": 6044,
      "ranĠ": 6045,
      "Åį": 6046,
      "arew": 6047,
      "áĮ¾": 6048,
      "in-": 6049,
      "Ã¬gbÃ©": 6050,
      "ĠáīłáĪĨ": 6051,
      "Ġáĭ¨áĬĸ": 6052,
      "ĠáĬ¥áĬķáĬ³": 6053,
      "ambaz": 6054,
      "shirye-": 6055,
      "daĠyawanĠjama'aĠ": 6056,
      "Láº¹ÌģyÃ¬nĠ": 6057,
      "ĠáĬłáĭŃáĭ°áĪĪáĪĿ": 6058,
      "CC": 6059,
      "aan": 6060,
      "fÃł": 6061,
      "oĠM": 6062,
      "ĠáīłáĪ«": 6063,
      "fordĠ": 6064,
      ".ĠÃĢwá»įnĠÃ¬t": 6065,
      "ĠáĬłáĬķáĭ³áĬķáĭµ": 6066,
      "hark": 6067,
      "tÃ²": 6068,
      "áĪµáī¶": 6069,
      "ayáº¹": 6070,
      "ĠáĪĺáĮ»": 6071,
      "ici": 6072,
      "ÆĻir": 6073,
      "aĠyaĠk": 6074,
      "áĪµáĪ«áīħ": 6075,
      "ĠáĪĽáĪŃáīĨáĪµ": 6076,
      "gudanarĠdaĠ": 6077,
      "ammalaĠkar": 6078,
      "ĠáīłáĪĻáĪī": 6079,
      "Ash": 6080,
      "VisiwaĠ": 6081,
      "zĠ": 6082,
      "osiĠ": 6083,
      "áīłáĪ¬": 6084,
      "áĭĿáĪĽáī½": 6085,
      "ÉĹauk": 6086,
      "ollow": 6087,
      "ĠáĬłáĪĿáĪĭáĬŃ": 6088,
      "Iy": 6089,
      "Luc": 6090,
      "meĠm": 6091,
      "pia": 6092,
      "wez": 6093,
      "ÙĴ": 6094,
      "aĠtiĠ": 6095,
      "áĪ«áĪĿ": 6096,
      "ipeĠ": 6097,
      "huadhim": 6098,
      "egem": 6099,
      "tainĠ": 6100,
      "ĠáĪļáĪĬ": 6101,
      "AwardĠ": 6102,
      "nemanĠ": 6103,
      "BestĠ": 6104,
      "MaiĠ": 6105,
      "centr": 6106,
      "les": 6107,
      "noĠ": 6108,
      "o)Ġ": 6109,
      "ale,Ġ": 6110,
      "okanĠ": 6111,
      "áĪ³áĪį": 6112,
      "áĭ¨áĭį": 6113,
      "áĬ«áī³": 6114,
      "áĭĺáĬķ": 6115,
      "ĠáĬ¥áĬķáĭ°áĮĪáĬĵ": 6116,
      "o,Ġm": 6117,
      "ever": 6118,
      "ĠáĮĢáĪĿáĪ®ĠáĬ¥áĪµáĬ¨Ġ": 6119,
      "LondonĠ": 6120,
      "ĠáīłáĪ½áī³": 6121,
      "alÃ¡Ã¬sÃŃĠnÃŃĠ": 6122,
      "Republ": 6123,
      "KanananĠhukumominĠjiharĠ": 6124,
      "Moh": 6125,
      "cikiĠ": 6126,
      "fad": 6127,
      "sanĠ": 6128,
      "zakeĠ": 6129,
      "áĬłáĭŃ": 6130,
      "AliĠ": 6131,
      "obiĠ": 6132,
      "ĠáīłáĬ¢": 6133,
      "annÃ©esĠ": 6134,
      "áī²áĬķ": 6135,
      "áĪģáĪī": 6136,
      "Stud": 6137,
      "AfrikaĠyaĠ": 6138,
      "áĮĬáĪµ": 6139,
      "aularĠ": 6140,
      "MarejeoĠ": 6141,
      "IjobaĠIbileĠ": 6142,
      "ĠáĬ«áĪĮáĬķáĭ³áĪŃ": 6143,
      "4,": 6144,
      "gur": 6145,
      "lib": 6146,
      "ami": 6147,
      "istaĠ": 6148,
      "abakiĠ": 6149,
      "estiv": 6150,
      "empl": 6151,
      "áīłáĭį": 6152,
      "enĠ(": 6153,
      "áį¡áĭ¨": 6154,
      "ĠáĪĪáī°": 6155,
      "isĠ(": 6156,
      "evelop": 6157,
      "áīĭáĬķáīĭ": 6158,
      "ÃĢwá»įnĠá»įjá»įÌģ": 6159,
      "áĮłáīĢáĪĿ": 6160,
      "sinimÃ¡ĠÃłgbÃ©lÃ©": 6161,
      "áĮİáĪŃáĮİáĪŃáĭ«áĬķ": 6162,
      "DarĠ": 6163,
      "DansĠ": 6164,
      "Kais": 6165,
      "Wab": 6166,
      "cert": 6167,
      "mayĠ": 6168,
      "pá»į": 6169,
      "pá»įĠ": 6170,
      "yiĠm": 6171,
      "yaliy": 6172,
      "aĠwasanĠ": 6173,
      "áĪµáĪĽ": 6174,
      "Ġáį«": 6175,
      "ekoĠ": 6176,
      "ossĠ": 6177,
      "áĪŀáĬŃ": 6178,
      "áĭĽáĭĿ": 6179,
      "partĠ": 6180,
      "Ġá»ĮdÃºnĠ": 6181,
      "ari'": 6182,
      "wengi,Ġ": 6183,
      "áĬķáĭ³áĬķáĭµ": 6184,
      "áĮ£áĪįáĭ«áĬķ": 6185,
      "paysĠ": 6186,
      "ĠáĪĽáĮ£áīĢ": 6187,
      "ES": 6188,
      "dÃ³": 6189,
      "rig": 6190,
      "zoĠ": 6191,
      "Ø¯": 6192,
      "ĠáĬĹ": 6193,
      "inform": 6194,
      "oft": 6195,
      "Ġáī°áĬĵ": 6196,
      "toĠbeĠ": 6197,
      "ijer": 6198,
      "yanay": 6199,
      "Ã¬lÃº": 6200,
      "cultur": 6201,
      ",ĠmshindiĠwaĠTuzoĠyaĠNobelĠyaĠTibaĠmwakaĠwaĠ": 6202,
      "YunifÃ¡": 6203,
      "tattalinĠarz": 6204,
      "ĠáĬłáĪģáĬķ": 6205,
      "-áº¹ÌĢyáº¹Ġ": 6206,
      "ÃĢwá»įnĠá»įjá»įÌģalÃ¡Ã¬sÃŃĠnÃŃĠ": 6207,
      "Sun": 6208,
      "lÃ²": 6209,
      "oaĠ": 6210,
      "s)Ġ": 6211,
      "ĠáĪİ": 6212,
      "áīµáĪĿ": 6213,
      "Ãłgb": 6214,
      "áĪįáĮħ": 6215,
      "itoĠ": 6216,
      "áĭ«áĭĿ": 6217,
      "ĠáĪĺáī¶": 6218,
      "áĪ«áĪ½": 6219,
      "ĠáĭŃáĭĪ": 6220,
      "owÃ³Ġ": 6221,
      "Ġá»įÌĢrá»įÌĢĠ": 6222,
      "lambarĠyab": 6223,
      ".,Ġ": 6224,
      "AT": 6225,
      "Jer": 6226,
      "moj": 6227,
      "uceĠ": 6228,
      "writ": 6229,
      "usin": 6230,
      "áį£Ġ": 6231,
      "ĠáĪĿáĬĵáĪį": 6232,
      "iyaĠdaĠ": 6233,
      "ChinaĠ": 6234,
      "niĠá»įdunĠ": 6235,
      "iliminĠ": 6236,
      "Ã²rÃ²Ġ": 6237,
      "áĭ³áĬķáĭ±": 6238,
      "William": 6239,
      "ĠáĪĿáĬĵáĪįáī£áīµ": 6240,
      "eyeĠ": 6241,
      "ixĠ": 6242,
      "met": 6243,
      "áĪįáīģ": 6244,
      "ĠáĬłáī£áīµ": 6245,
      "ndaniĠyaĠ": 6246,
      "amfan": 6247,
      "sabab": 6248,
      "ollywoodĠ": 6249,
      "AgbegbeĠIjobaĠIbileĠ": 6250,
      "Rad": 6251,
      "gargaj": 6252,
      "ie": 6253,
      "perĠ": 6254,
      "ºáį": 6255,
      "áĬķĠáīłáĪĺ": 6256,
      "taĠfarkoĠ": 6257,
      "opol": 6258,
      "Arch": 6259,
      "whereĠ": 6260,
      "150": 6261,
      "Ã¬dÃ¡": 6262,
      "lá»į.": 6263,
      "ilÃ©-iá¹£áº¹ÌģĠ": 6264,
      "91Ġáĭĵ.áĪĿ.": 6265,
      "Mo": 6266,
      "Ne": 6267,
      "Ot": 6268,
      "band": 6269,
      "ualĠ": 6270,
      "Ð¸": 6271,
      "aĠshekararĠ201": 6272,
      "uĠdaĠ": 6273,
      "áĮĪáī¡": 6274,
      "niĠk": 6275,
      "agenĠ": 6276,
      "auriĠ": 6277,
      "Institut": 6278,
      "ayyukanĠ": 6279,
      "iensĠ": 6280,
      "manyĠ": 6281,
      "YohaneĠ": 6282,
      "aprÃ¨sĠ": 6283,
      "áĮİáĪŃáĮİáĪŃáĭ«áĬķĠáĬ«áĪĮáĬķáĭ³áĪŃ": 6284,
      "Sol": 6285,
      "We": 6286,
      "him": 6287,
      "ly": 6288,
      "ving": 6289,
      "Åĵ": 6290,
      "aĠp": 6291,
      "akaf": 6292,
      "2091Ġáĭĵ.áĪĿ.": 6293,
      "Ġáī°áĭĭ": 6294,
      "azarinĠ": 6295,
      "ts,Ġ": 6296,
      "Ġáī£áĪį": 6297,
      "ĠáįĪáĪ¨áĬķ": 6298,
      "zamaniĠ": 6299,
      "OgunĠ": 6300,
      "áĪ¥áĪ«áīħ": 6301,
      "usieursĠ": 6302,
      "FIFAĠ": 6303,
      "Portug": 6304,
      "ijerum": 6305,
      "Centr": 6306,
      "Kig": 6307,
      "Oj": 6308,
      "dep": 6309,
      "gidaĠ": 6310,
      "kÃ¨Ġ": 6311,
      "¹áį": 6312,
      "ĠáĪ¹": 6313,
      "áĬķĠáĪĽ": 6314,
      "ilsĠ": 6315,
      "onyĠ": 6316,
      "shin": 6317,
      "gbÃ¡Ġ": 6318,
      "áĪªáīµ": 6319,
      "ĠáīłáĪķ": 6320,
      "áįįáĬĵ": 6321,
      "áīłáĪ°": 6322,
      "áīłáĪī": 6323,
      "rayuw": 6324,
      "uhuruĠ": 6325,
      "SaintĠ": 6326,
      "áĭ®áĪŃáĮĬáĪµ": 6327,
      "KwalejinĠ": 6328,
      "sousĠ": 6329,
      "typ": 6330,
      "Ã³p": 6331,
      "Ã©ĠenĠ": 6332,
      "ajir": 6333,
      "áĬłáĬķ": 6334,
      "etĠlesĠ": 6335,
      "2006": 6336,
      "ĠáĭµáĬķáĮĭ": 6337,
      "Ġ15": 6338,
      "ĠáĬłáĮĪáĪ«áīµ": 6339,
      "âĢİâĢİ": 6340,
      "áĪıáĪįáį¢": 6341,
      "Dut": 6342,
      "Kum": 6343,
      "Sil": 6344,
      "Tal": 6345,
      "gn": 6346,
      "s.Ġ": 6347,
      "táº¹l": 6348,
      "yoteĠ": 6349,
      "anal": 6350,
      "ithĠ": 6351,
      "ceĠdakeĠ": 6352,
      "Alh": 6353,
      "ĠáĪįáī¥": 6354,
      "AdÃ©": 6355,
      "AnĠginaĠ": 6356,
      "BKĠ(BaadaĠyaĠKristo).ĠMatukioĠ": 6357,
      "AwardsĠ": 6358,
      "ĠáĪĽáĪµáī³áĭĪáĪ»áĭİáī½": 6359,
      "1)": 6360,
      "BBCĠ": 6361,
      "Lang": 6362,
      "pÃ¡Ġ": 6363,
      "yam": 6364,
      "atolikiĠ": 6365,
      "ajuĠ": 6366,
      "uteĠ": 6367,
      "Ġáĭ¨áĪŀ": 6368,
      "re.": 6369,
      "owev": 6370,
      "Ġá¹£ÃŃá¹£": 6371,
      "grand": 6372,
      "indaĠyaĠ": 6373,
      "earlyĠ": 6374,
      "Ġ(BaadaĠyaĠKristo).ĠMatukioĠWaliozaliwaĠWaliofarikiĠKarneĠyaĠ": 6375,
      "Ev": 6376,
      "Kul": 6377,
      "LĠ": 6378,
      "Nam": 6379,
      "Nair": 6380,
      "wacinĠ": 6381,
      "yÃ¨Ġ": 6382,
      "iĠzaĠ": 6383,
      "ordĠ": 6384,
      "áĪµáĪį": 6385,
      "áĬĲáī±áĬķ": 6386,
      "ĠáĪĺáĮ¥": 6387,
      "ing.": 6388,
      "Ġáĭ¨áĬ®": 6389,
      "lead": 6390,
      "áĭ«áĬķáĭ³áĬķáĭ±": 6391,
      "AbuĠ": 6392,
      "dÃ©part": 6393,
      "Frank": 6394,
      "ĠáĬŃáįįáĪİáī½": 6395,
      "Ġáĭ¨áĪļáĭ«áĪµ": 6396,
      "Ġáĭ³áĪŃ": 6397,
      "aliye": 6398,
      "AprilĠ": 6399,
      "premierĠ": 6400,
      "TazamaĠpiaĠOrodhaĠyaĠ": 6401,
      "AlakosoĠAgbaĠ": 6402,
      "47": 6403,
      "Hany": 6404,
      "Kif": 6405,
      "Mov": 6406,
      "ObaĠ": 6407,
      "bÃłĠ": 6408,
      "kÃ¡Ġ": 6409,
      "Ġáī¶": 6410,
      "ĠáĮ«": 6411,
      "agharib": 6412,
      "kumaĠmaiĠ": 6413,
      "oss": 6414,
      "tif": 6415,
      "isheĠ": 6416,
      "Ġáº¹ÌĢyáº¹Ġ": 6417,
      "uatanaĠnaĠ": 6418,
      "sakand": 6419,
      "ViungoĠvyaĠnje": 6420,
      "DesembaĠ": 6421,
      "'estĠ": 6422,
      "Kih": 6423,
      "Mit": 6424,
      "gan": 6425,
      "moreĠ": 6426,
      "toutĠ": 6427,
      "vik": 6428,
      "áĬķáĪ³áĭĬ": 6429,
      "eroĠ": 6430,
      "taĠfaraĠ": 6431,
      "ĠáĮ³": 6432,
      ".ĠÃĵĠ": 6433,
      "ĠáĪĺáĪ³": 6434,
      "dansĠlesĠ": 6435,
      "jáº¹ÌģĠá»įmá»įĠ": 6436,
      "ÃłwÃ³Ġ": 6437,
      "yaddaĠ": 6438,
      "(Ġ": 6439,
      "Gar": 6440,
      "Sok": 6441,
      "hy": 6442,
      "ood": 6443,
      "¸áį": 6444,
      "áī¾": 6445,
      "áĬķáĭ¶": 6446,
      "iláº¹ÌĢ": 6447,
      "apá»įÌĢĠ": 6448,
      "ahaliĠ": 6449,
      "obj": 6450,
      "MariaĠ": 6451,
      "aĠbir": 6452,
      "ĠáīĢáĬķĠáį²áį±áį»áį": 6453,
      "OlÃº": 6454,
      "ninuĠawonĠ": 6455,
      "AgostiĠ-Ġ": 6456,
      "áĮĪáĪªáī±": 6457,
      "hadiĠkifoĠch": 6458,
      "50Ġ": 6459,
      "Dok": 6460,
      "Larab": 6461,
      "Ã¨yÃŃ": 6462,
      "aĠmas": 6463,
      "áĪ³áĪ³áĭŃ": 6464,
      "osp": 6465,
      "áīĢáĪ¨": 6466,
      "Ġáī¥áĭĽáīµ": 6467,
      "áĬ¥áĮįáĭļáĬłáī¥áĪĶáĪŃ": 6468,
      "áį¤Ġáĭ¨": 6469,
      "ĠáĭĿáĪŃáĭ«": 6470,
      "---": 6471,
      "Sala": 6472,
      "ĠáĪĪáĪĿáĪ³áĪĮ": 6473,
      "mor": 6474,
      "sáº¹ÌĢ": 6475,
      "yáº¹": 6476,
      "áĬķáĭ°áĪŃ": 6477,
      "gboyÃ¨Ġ": 6478,
      "áī³áī½": 6479,
      "Ã©ĠdeĠ": 6480,
      "ĠáĭĪáĪįáĭ°": 6481,
      "ationĠdeĠ": 6482,
      "wakifuat": 6483,
      "upandeĠwaĠm": 6484,
      "ÃºgbÃ²Ġ": 6485,
      "JulaiĠ-Ġ": 6486,
      "ÃĢwá»įnĠÃ¬tá»įÌģkasÃŃĠ": 6487,
      "ThomasĠ": 6488,
      "99": 6489,
      "Je": 6490,
      "Ver": 6491,
      "baiĠ": 6492,
      "ĠáīłáĮİáĪŃáĮİáĪŃáĭ«áĬķĠáĬ«áĪĮáĬķáĭ³áĪŃ": 6493,
      "esĠandĠ": 6494,
      "Ã²:Ġ": 6495,
      "toĠjeĠ": 6496,
      "ingĠtoĠ": 6497,
      "Ã¬tÃłg": 6498,
      "ĠáĬĲáĮĪáĪŃĠáĮįáĬķ": 6499,
      "digiriĠnaĠ": 6500,
      "lÃ¡raĠÃłwá»įnĠ": 6501,
      "OrÃŃláº¹ÌĢ-Ã¨dÃ¨Ġ": 6502,
      "shiĠneĠdanĠwasanĠÆĻwallonĠÆĻafaĠtaĠÆĻasarĠIngila.": 6503,
      "EastĠ": 6504,
      "Kin": 6505,
      "Kor": 6506,
      "dak": 6507,
      "kÃ¹": 6508,
      "nuf": 6509,
      "re,Ġ": 6510,
      "rÃ¨Ġ": 6511,
      "onneĠ": 6512,
      "áī°áį¢": 6513,
      "adir": 6514,
      "emistr": 6515,
      "ic,Ġ": 6516,
      "Ġáĭ¨áĬ¦": 6517,
      "áĪ©áĪĿ": 6518,
      "karniĠnaĠ": 6519,
      "ember": 6520,
      "áĪ²áĬķ": 6521,
      "sÃŃtÃ¬Ġ": 6522,
      "Ġá»įÌĢpá»įÌĢlá»įpá»įÌĢĠ": 6523,
      "ĠáĪ²áĪĨáĬķáį£": 6524,
      "ĠáīĢáĬķĠáĪĽáĪĪáīµĠáĬĲáĭįáį¢": 6525,
      "fiĠs": 6526,
      "yaĠmwakaĠ": 6527,
      "ight": 6528,
      "ement,Ġ": 6529,
      "SeptembaĠ": 6530,
      "ĠáĬłáīĨáĮ£áĮłáĪŃĠ(áĬ¨": 6531,
      "influ": 6532,
      "1892Ġáĭĵ.áĪĿ.ĠáĮĢáĪĿáĪ®ĠáĬ¥áĪµáĬ¨Ġ": 6533,
      "thoughĠ": 6534,
      "ĠáīĢáĬķĠáīłáĬ¢áīµáĭ®áĮµáĭ«ĠáĬłáīĨáĮ£áĮłáĪŃĠ(áĬ¨": 6535,
      "1892Ġáĭĵ.áĪĿ.ĠáĮĢáĪĿáĪ®ĠáĬ¥áĪµáĬ¨Ġ2091Ġáĭĵ.áĪĿ.": 6536,
      "ĠáīĢáĬķĠáīłáĬ¢áīµáĭ®áĮµáĭ«ĠáĬłáīĨáĮ£áĮłáĪŃĠ(áĬ¨1892Ġáĭĵ.áĪĿ.ĠáĮĢáĪĿáĪ®ĠáĬ¥áĪµáĬ¨Ġ2091Ġáĭĵ.áĪĿ.": 6537,
      "Mur": 6538,
      "YanaĠ": 6539,
      "hiv": 6540,
      "ie,Ġ": 6541,
      "lilikuwaĠ": 6542,
      "rÃº": 6543,
      "cheoĠ": 6544,
      ".ĠL": 6545,
      "Ġáĭĺáĭ´": 6546,
      "foreĠ": 6547,
      "play": 6548,
      "áĭ©áĪµ": 6549,
      "Philip": 6550,
      "Angel": 6551,
      ",ĠmwandishiĠ": 6552,
      "Ġáĭ¨áīĢáĬķĠáĪµáĪĿ": 6553,
      "Ġ(áĬ¥áĬķáĮįáĪĬáĭĿáĬĽ": 6554,
      "suchĠasĠ": 6555,
      "ĠáĪ²áĪĨáĬķĠáĭŃáĪħĠáīĢáĬķĠáīłáĬ¢áīµáĭ®áĮµáĭ«ĠáĬłáīĨáĮ£áĮłáĪŃĠ(áĬ¨1892Ġáĭĵ.áĪĿ.ĠáĮĢáĪĿáĪ®ĠáĬ¥áĪµáĬ¨Ġ2091Ġáĭĵ.áĪĿ.": 6556,
      "ĠáīłáĬ¥áĬķáĮįáĪĬáĭĿáĬĽĠáĪ²áĪĨáĬķĠáĭŃáĪħĠáīĢáĬķĠáīłáĬ¢áīµáĭ®áĮµáĭ«ĠáĬłáīĨáĮ£áĮłáĪŃĠ(áĬ¨1892Ġáĭĵ.áĪĿ.ĠáĮĢáĪĿáĪ®ĠáĬ¥áĪµáĬ¨Ġ2091Ġáĭĵ.áĪĿ.": 6557,
      "FrenchĠ": 6558,
      "ĠáīłáĮİáĪŃáĮİáĪŃáĭ«áĬķĠáĬ«áĪĮáĬķáĭ³áĪŃĠáĭ¨áīĢáĬķĠáĪµáĪĿ": 6559,
      "ĠáīłáĮİáĪŃáĮİáĪŃáĭ«áĬķĠáĬ«áĪĮáĬķáĭ³áĪŃĠáĭ¨áīĢáĬķĠáĪµáĪĿĠáīłáĬ¥áĬķáĮįáĪĬáĭĿáĬĽĠáĪ²áĪĨáĬķĠáĭŃáĪħĠáīĢáĬķĠáīłáĬ¢áīµáĭ®áĮµáĭ«ĠáĬłáīĨáĮ£áĮłáĪŃĠ(áĬ¨1892Ġáĭĵ.áĪĿ.ĠáĮĢáĪĿáĪ®ĠáĬ¥áĪµáĬ¨Ġ2091Ġáĭĵ.áĪĿ.": 6560,
      "Bon": 6561,
      "a).": 6562,
      "Ð¾": 6563,
      "iláº¹": 6564,
      "áīłáīĥ": 6565,
      "Ġáī°áīĥ": 6566,
      "idd": 6567,
      "ĠáĮłáīħ": 6568,
      "jáº¹sÃ¡": 6569,
      "áī¥áĪ«áĭŃ": 6570,
      "ĠáĬĥáĭŃáĪį": 6571,
      "áĪĮáĬŃáīµáĪªáĬŃ": 6572,
      "38": 6573,
      "FarkonĠ": 6574,
      "Kol": 6575,
      "banĠ": 6576,
      "áĪŃáī±": 6577,
      "envir": 6578,
      "wanaĠ": 6579,
      "áīħáĭ±áĪµ": 6580,
      "watakatifuĠ": 6581,
      "Ġá¹£iá¹£áº¹ÌģĠ": 6582,
      "kanĠtÃŃĠ": 6583,
      "ĠáĮĪáĭ°": 6584,
      "Ġáīłáī°áĮ¨áĪĽáĪª": 6585,
      "áĪĲáįĬ": 6586,
      "aĠyakeĠ": 6587,
      "askof": 6588,
      "NÃŃgbÃłĠ": 6589,
      "áĬķĠáĪĪáĪĽ": 6590,
      "áī°áĬĽáĭį": 6591,
      "áĪĪáĪĺ": 6592,
      "á¹£ir": 6593,
      "Ġáĭ¨áĪĢ": 6594,
      "appar": 6595,
      "áīĢáĮ¥": 6596,
      "iĠmwakaĠ": 6597,
      "tarihinĠ": 6598,
      "BiranenĠ": 6599,
      "Scien": 6600,
      "Ġáĭ¨áĪĺáĮĢáĪĺáĪªáĭ«áĭį": 6601,
      "A)Ġ": 6602,
      "Bau": 6603,
      "FM": 6604,
      "Mex": 6605,
      "Sw": 6606,
      "bÃº": 6607,
      "yauĠ": 6608,
      "ikĠ": 6609,
      "áĭŃáĪŃ": 6610,
      "aĠkwenyeĠ": 6611,
      "Ġá»įbaĠ": 6612,
      "Ġáĭ¨áĪļáī³áĭĪ": 6613,
      "ĠáĮįáĭĽ": 6614,
      "AĠshekararĠ": 6615,
      "const": 6616,
      "ĠáĬłáĪĪáĪĿ": 6617,
      "AnĠhaifiĠ": 6618,
      "jáº¹ÌģĠá»įÌĢkanĠ": 6619,
      "ĠáĬĥáĭŃáĪĪ": 6620,
      "Jar": 6621,
      "bá»įÌģá»įÌĢ": 6622,
      "rab": 6623,
      "Î¿": 6624,
      "enneĠ": 6625,
      "shair": 6626,
      "ĠáĬ¥áĬĶ": 6627,
      "ĠáĬłáĭ¨áĪŃ": 6628,
      "áĮįáĪªáĬŃ": 6629,
      "áĪ°áĪŃ": 6630,
      "áīłáīµĠáĮĬáĭľ": 6631,
      "ĠáĮĪáĬķ": 6632,
      "thatĠtheĠ": 6633,
      "OktobaĠ-Ġ": 6634,
      "aguziĠwaĠ": 6635,
      "46": 6636,
      "fe": 6637,
      "pÃº": 6638,
      "rin,Ġ": 6639,
      "ake.": 6640,
      "ensiĠ": 6641,
      "ĠáĬłáĭ²áĪµĠáĬłáīłáī£": 6642,
      "ekaĠ": 6643,
      "áĬ¨áĭļáĭ«": 6644,
      "auc": 6645,
      "áĪµáīµáĬĵ": 6646,
      "assanĠ": 6647,
      "tarih": 6648,
      "aĠgab": 6649,
      "akarant": 6650,
      "2019,Ġ": 6651,
      "August": 6652,
      "Italia": 6653,
      "aĠmapokeoĠyaĠ": 6654,
      "48": 6655,
      "Fabr": 6656,
      "Mik": 6657,
      "Mand": 6658,
      "da": 6659,
      "gwamnanĠ": 6660,
      "rikaĠ": 6661,
      "Ã©p": 6662,
      "usedĠ": 6663,
      "2015Ġ": 6664,
      "áĭĽáĬĽáĭį": 6665,
      "áĬłáĪĪ": 6666,
      "178": 6667,
      "insaĠ": 6668,
      "dansĠlaĠ": 6669,
      "EneoĠ": 6670,
      "NovembaĠ": 6671,
      "haÉĹinĠ": 6672,
      "PaulĠ": 6673,
      "iĠkatikaĠm": 6674,
      "Ġáīłáī¥áĭĽáīµ": 6675,
      "waÉĹan": 6676,
      "iakaĠmiref": 6677,
      "Way": 6678,
      "day": 6679,
      "duĠm": 6680,
      "oÃ²rÃ¹nĠ": 6681,
      "tarĠ": 6682,
      "zoteĠ": 6683,
      "uĠM": 6684,
      "ayarĠdaĠ": 6685,
      "alich": 6686,
      "ĠáĭŃáĪĦ": 6687,
      "ĠáĬłáĪħ": 6688,
      "áĭ³áĪį": 6689,
      "iĠkwaĠm": 6690,
      "akeĠkir": 6691,
      "áĭĺáĭį": 6692,
      "áĪ©áį¢": 6693,
      "ĠáīĢáĭ³": 6694,
      "wendaĠ": 6695,
      "ion.": 6696,
      "ers.": 6697,
      "ĠáĪµáĪĪáĪļ": 6698,
      "AkwaiĠ": 6699,
      "ĠáĪĻáĪī": 6700,
      "ArewacinĠ": 6701,
      "Ã´t": 6702,
      "villeĠ": 6703,
      "becameĠ": 6704,
      "pakaĠu": 6705,
      "ĠáĪĺáĪįáĬŃáĭĵ": 6706,
      "(199": 6707,
      "39": 6708,
      "tain": 6709,
      "wÃ³Ġ": 6710,
      "ink": 6711,
      "taĠzamaĠ": 6712,
      "char": 6713,
      "ĠáĪĺáĪĪ": 6714,
      "Ġáį³áį": 6715,
      "aineĠ": 6716,
      "Â»,Ġ": 6717,
      "Ġáī£áĭŃ": 6718,
      "ĠáīĢáĬķĠ-": 6719,
      "ráº¹ÌĢ,Ġ": 6720,
      "Ãłká»įÌģlÃ©Ġráº¹ÌĢĠ": 6721,
      "Offic": 6722,
      "RoyalĠ": 6723,
      "abakiĠsikuĠ": 6724,
      "iakaĠmirefu": 6725,
      ");Ġ": 6726,
      "DeĠ": 6727,
      "Sim": 6728,
      "bisaĠgaĠ": 6729,
      "pleĠ": 6730,
      "Ġ*": 6731,
      "Ã³n": 6732,
      ".ĠT": 6733,
      "2020Ġ": 6734,
      "áīłáīħ": 6735,
      "ajaĠ": 6736,
      "idarĠ": 6737,
      "áįįáĮ¥": 6738,
      "áĪ°áĪĽ": 6739,
      "áīłáĪ³": 6740,
      "ational": 6741,
      "ĠáĬłáĮĪáĪ®áī½": 6742,
      "luiĠ": 6743,
      "katikaĠmiakaĠmirefu": 6744,
      "aimakinĠ": 6745,
      "Roma,Ġhuadhim": 6746,
      "DarĠesĠ": 6747,
      "wakifuataĠmapokeoĠyaĠ": 6748,
      "wakifuataĠmapokeoĠyaĠRoma,Ġhuadhim": 6749,
      "B.": 6750,
      "PD": 6751,
      "ce": 6752,
      "ium": 6753,
      "pal": 6754,
      "áĪŃáī£": 6755,
      "áĬĵáĭŃáīµ": 6756,
      "ĠáĬ¥áĮįáĭļáĬłáī¥áĪĶáĪŃ": 6757,
      "áĭµáĪ¨áĪµ": 6758,
      "ÃĮlÃºĠ": 6759,
      "uhimuĠ": 6760,
      "JamiâĢĻarĠ": 6761,
      "IbnĠ": 6762,
      "áĭ´áīµ": 6763,
      "zinabakiĠsikuĠ": 6764,
      "FilmĠ": 6765,
      "Abdull": 6766,
      "Ġáī¥áĪĶáĪ«áĭĬ": 6767,
      "ĠáĭĪáĭŃáĬķáĪĿ": 6768,
      "WakristoĠwengi,Ġ": 6769,
      "ĠáīĢáĮ¥áĪİ": 6770,
      "isheĠzinabakiĠsikuĠ": 6771,
      "Fabrair": 6772,
      "WakristoĠwengi,ĠwakifuataĠmapokeoĠyaĠRoma,Ġhuadhim": 6773,
      "AR": 6774,
      "Do": 6775,
      "Str": 6776,
      "WarĠ": 6777,
      "Yes": 6778,
      "c.": 6779,
      "zoĠyaĠ": 6780,
      "Ġ~": 6781,
      "áĬķáĬŃ": 6782,
      "ones": 6783,
      "Ġáī°áĮįáī£": 6784,
      "áĭ³áĭµ": 6785,
      "áīłáĪµ": 6786,
      "Ġáĭ¨áī°áĪĺ": 6787,
      "underĠ": 6788,
      "Ġá»Įjá»įÌģĠ": 6789,
      "byĠtheĠ": 6790,
      "yaoĠ": 6791,
      "issionĠ": 6792,
      "Guine": 6793,
      "áĬ¥áĬķáĭ²": 6794,
      "languageĠ": 6795,
      "kmÂ²": 6796,
      "nombre": 6797,
      "ablaĠyaĠ": 6798,
      "tofautiĠ": 6799,
      "D-": 6800,
      "dem": 6801,
      "foisĠ": 6802,
      "abi": 6803,
      "unic": 6804,
      "áĮĪáĪ«áīµ": 6805,
      "ingsĠ": 6806,
      "watum": 6807,
      "áĪŀáīµ": 6808,
      "áĪĪáĪĿáĪ³áĪĮ": 6809,
      "ayyuk": 6810,
      "yawan": 6811,
      "áĪ¸áĬĲ": 6812,
      "BirninĠ": 6813,
      "jeshiĠ": 6814,
      "kuduĠmasoĠ": 6815,
      "Que": 6816,
      "develop": 6817,
      "onyesh": 6818,
      "toĠgbaĠEbunĠNobelĠ": 6819,
      "ĠáĪĽáĮ£áīĢáĪ»": 6820,
      "pakaĠuisheĠzinabakiĠsikuĠ": 6821,
      ")ĠáĬ¥áĬĵ": 6822,
      "BÃŃĠ": 6823,
      "Hel": 6824,
      "iel": 6825,
      "kif": 6826,
      "lov": 6827,
      "gbá»įÌģĠ": 6828,
      "age,Ġ": 6829,
      "á»įÌĢrá»įÌĢĠ": 6830,
      "reĠdeĠ": 6831,
      "undum": 6832,
      "takenĠ": 6833,
      "dÃ©c": 6834,
      "Ãłn,Ġ": 6835,
      "Olymp": 6836,
      "qu'ilĠ": 6837,
      "AnĠginaĠbirninĠ": 6838,
      "22": 6839,
      "Jac": 6840,
      "hiĠ": 6841,
      "mwakaĠ": 6842,
      "torĠ": 6843,
      "inap": 6844,
      "ikuĠ": 6845,
      "áĪªáĪµ": 6846,
      "2000Ġ": 6847,
      "and,Ġ": 6848,
      "filmĠ": 6849,
      "ĠáĬłáĪīáį¢": 6850,
      "Ġáī£áĪħáĪŃ": 6851,
      "FebruariĠ-Ġ": 6852,
      "HotunaĠ": 6853,
      "AlimfuataĠ": 6854,
      "1.Ġ": 6855,
      "Ly": 6856,
      "as.": 6857,
      "ild": 6858,
      "Ã¬,Ġ": 6859,
      "ĠáĪĺáĮ£": 6860,
      "aĠmakarantarĠ": 6861,
      "ajeĠ": 6862,
      "wann": 6863,
      ",ĠmshindiĠwaĠTuzoĠyaĠNobelĠyaĠKemiaĠmwakaĠwaĠ": 6864,
      "ĠáĮ¥áĪ©": 6865,
      "tÃŃtÃŃĠ": 6866,
      "burg": 6867,
      ",ĠmshindiĠwaĠTuzoĠyaĠNobelĠyaĠFizikiaĠmwakaĠwaĠ": 6868,
      "notammentĠ": 6869,
      "Argent": 6870,
      "IleĠ": 6871,
      "Å«": 6872,
      "ikaĠkar": 6873,
      "Ã¬.": 6874,
      "ĠáīłáĪħ": 6875,
      "com/": 6876,
      "Â».": 6877,
      "Arm": 6878,
      "undiĠ": 6879,
      "áĬłáĪµ": 6880,
      "ufuĠ": 6881,
      "namoĠ": 6882,
      "team": 6883,
      "dhidiĠyaĠ": 6884,
      "Trans": 6885,
      "titiĠ": 6886,
      "LughaĠzaĠ": 6887,
      "nasaraĠ": 6888,
      "cinĠkofinĠ": 6889,
      "Kut": 6890,
      "Maz": 6891,
      "barĠ": 6892,
      "roĠ": 6893,
      "sir": 6894,
      "sark": 6895,
      "ana,Ġ": 6896,
      "amu": 6897,
      "kuch": 6898,
      "áĭµáĪĺ": 6899,
      "rÃŃnĠ": 6900,
      "1999Ġ": 6901,
      "ÃłkÃ¡": 6902,
      "ĠáīłáĪĽáĪĪáīµ": 6903,
      "nÃŃĠÃ¬pÃŃnláº¹ÌĢĠ": 6904,
      "PopeĠ": 6905,
      "JuniĠ-Ġ": 6906,
      "rewĠ": 6907,
      "ĠáĬ¥áĬķáĮįáĪĬáĭĿáĬĽ": 6908,
      "BahariĠyaĠ": 6909,
      "Sel": 6910,
      "himĠ": 6911,
      "iograf": 6912,
      "alg": 6913,
      "erv": 6914,
      "áĪŃáĮİ": 6915,
      "tryĠ": 6916,
      "identi": 6917,
      "atiqu": 6918,
      "áīħáĭ«": 6919,
      "ĠáĪĽáĪŃáĭ«áĪĿ": 6920,
      "Ġáīµáĭį": 6921,
      "kasashenĠ": 6922,
      "áĮ«áĭĪ": 6923,
      "wallonĠkaf": 6924,
      "ĠáĪ³áĭŃáĬķáĪ³áĭĬ": 6925,
      "shigaĠ": 6926,
      "al'ad": 6927,
      "ĠáįĸáĪĪáī²áĬ«": 6928,
      "áī¥áĪ«áĭŃáĪµáĮ¥": 6929,
      "Cali": 6930,
      "Kong": 6931,
      "Sing": 6932,
      "dÃ¨Ġ": 6933,
      "follow": 6934,
      "Ùĩ": 6935,
      "áĬķáī³": 6936,
      "á»įdÃºnĠ": 6937,
      "iloĠ": 6938,
      "ahiyarĠ": 6939,
      "epoĠ": 6940,
      "Shek": 6941,
      "aliwaĠnaĠ": 6942,
      "ÃĵĠjáº¹ÌģĠ": 6943,
      "NÃŃĠá»įdÃºnĠ": 6944,
      "biasharaĠ": 6945,
      "SeptembaĠ-Ġ": 6946,
      "Australi": 6947,
      "ĠáĮīáĭ³áĭŃ": 6948,
      "DarĠesĠSala": 6949,
      "Cath": 6950,
      "Ear": 6951,
      "Res": 6952,
      "Rash": 6953,
      "Russ": 6954,
      "iumĠ": 6955,
      "sáº¹Ìģ": 6956,
      "ĠáĪ¬": 6957,
      "áĬķĠáĭ¨áĪļ": 6958,
      "akokoĠ": 6959,
      "eneĠ": 6960,
      "appl": 6961,
      "áĬłáĬķáĭµ": 6962,
      "iĠkanĠ": 6963,
      "ÃĮá¹£": 6964,
      "wá»įn.": 6965,
      ",ĠmwigizajiĠwaĠfilamuĠ": 6966,
      "fiel": 6967,
      "wengineĠ": 6968,
      "ĠáĬ¥áĬķáĭ³áĭŃ": 6969,
      "rasm": 6970,
      "ká»įÌģká»įÌģĠ": 6971,
      "ĠáĭĽáĪ¬": 6972,
      "present": 6973,
      "Ġáī³áĪªáĬ«áĭĬĠáĪĽáĪµáī³áĭĪáĪ»áĭİáī½": 6974,
      "kumbukumbuĠzaĠ": 6975,
      "ĠáĪĺáĪįáĬŃáĭĵĠáĪĿáĭµáĪŃ": 6976,
      "Sul": 6977,
      "cu": 6978,
      "k,Ġ": 6979,
      "ress": 6980,
      "daĠg": 6981,
      "ĠáĬłáī¶": 6982,
      "acikinĠ": 6983,
      "tso": 6984,
      "nÃ¡Ãł": 6985,
      "istoriaĠ": 6986,
      "rubut": 6987,
      "ĠáīłáĭĺáĪĺáĬĲĠáĪīáīĥáĪµ": 6988,
      "DesembaĠ-Ġ": 6989,
      "ahaifiy": 6990,
      "ĠáĬłáįĪĠáī³áĪªáĬŃ": 6991,
      "ĠáĪļáĬĴáĪµáīµ": 6992,
      "ĠáĭµáĪŃáĮħáīµ": 6993,
      "kumbukumbuĠzaĠwatakatifuĠ": 6994,
      "Pers": 6995,
      "cit": 6996,
      "versĠ": 6997,
      "anoĠyaĠ": 6998,
      "ini,Ġ": 6999,
      "asayans": 7000,
      "Ġáīłáīµ": 7001,
      "áĭ«áĪį": 7002,
      "apt": 7003,
      "akaĠdaĠ": 7004,
      "2010": 7005,
      "ector": 7006,
      "formĠ": 7007,
      "Ant": 7008,
      "áĬ®áĬĸ": 7009,
      "attaf": 7010,
      "nchiĠzaĠ": 7011,
      "wÃ¡yÃ©Ġ": 7012,
      "ĠáīłáĪµáī°": 7013,
      "Ġáĭĭáī¢ĠáĪĿáĬķáĮ®áī½": 7014,
      "Ach": 7015,
      "Hind": 7016,
      "Kog": 7017,
      "LeoĠ": 7018,
      "Nk": 7019,
      "fre": 7020,
      "gÃ¡": 7021,
      "kin": 7022,
      "pas": 7023,
      "piaĠm": 7024,
      "wanĠ": 7025,
      "áĪŃáī¶": 7026,
      "ismĠ": 7027,
      "ictĠ": 7028,
      "ickĠ": 7029,
      "Ġáįİ": 7030,
      "aph": 7031,
      "áĮ¥áĪĿ": 7032,
      "2011Ġ": 7033,
      "áįĪáĪĭ": 7034,
      "ectionĠ": 7035,
      "ĠáīłáĬ®": 7036,
      "plusieursĠ": 7037,
      "uĠyaĠm": 7038,
      "ĠáĬĵáīµáį¢": 7039,
      "ĠáīłáĬĭáĪĭĠáĬ¥áĪµáĬ¨": 7040,
      "ombeĠ": 7041,
      "áįĸáĪĪáī²áĬ«": 7042,
      "ĠáĮ¸áī£áĭŃ": 7043,
      "UgandaĠ": 7044,
      "katikaĠmiakaĠmirefu).ĠM": 7045,
      "Ġ~Ġ": 7046,
      "Av": 7047,
      "Bas": 7048,
      "Sup": 7049,
      "tir": 7050,
      "tÃº": 7051,
      "°áį»áį": 7052,
      "ine.": 7053,
      "akĠ": 7054,
      "áĪµáī´": 7055,
      "Ġáį»áį": 7056,
      "áĬ«áĪŃ": 7057,
      "ĠáĪµáī¥áĪµ": 7058,
      "2014Ġ": 7059,
      "iĠkwenyeĠ": 7060,
      "ambr": 7061,
      "Ġáĭ¨áī°áī£áĪĪ": 7062,
      "MarisĠ": 7063,
      "Ġáĭ°áĪ«áĪ²": 7064,
      "tÃŃĠÃ³ĠwÃłĠnÃŃĠ": 7065,
      "kanĠnÃ¡ÃłĠ": 7066,
      "IlÃ©Ġ": 7067,
      "wardĠ": 7068,
      "UnionĠ": 7069,
      "Ã¬kÃ¬Ġ": 7070,
      "Egyp": 7071,
      "33": 7072,
      "Ile-": 7073,
      "aish": 7074,
      "hiy": 7075,
      "kÃł.": 7076,
      "wer": 7077,
      "ĠØ§ÙĦ": 7078,
      "áĬķĠáĬ¥áĬĵ": 7079,
      "amiaĠ": 7080,
      "shaĠ": 7081,
      "ominaĠ": 7082,
      "áĪĭáīģ": 7083,
      "emat": 7084,
      "awa": 7085,
      "leĠofĠ": 7086,
      "2012Ġ": 7087,
      "ant,Ġ": 7088,
      "áĪİáĮĤ": 7089,
      "wasaĠ": 7090,
      "ItokasiĠÃłwá»įnĠá»įjá»įÌģÃ¬bÃŃĠnÃŃĠ": 7091,
      "ĠáīħáĪŃáĪµ": 7092,
      "áĮŃáĪŃ": 7093,
      "arri": 7094,
      "daĠdamaĠ": 7095,
      "Keny": 7096,
      "PeterĠ": 7097,
      "KatsinaĠ": 7098,
      "ĠáĮĬáĭ®áĪŃáĮĬáĪµ": 7099,
      "ijobaĠib": 7100,
      "áĬĵáĭŃáīµáĭµ": 7101,
      "5)": 7102,
      "Mos": 7103,
      "dÃºr": 7104,
      "lem": 7105,
      "med": 7106,
      "riv": 7107,
      "ra'": 7108,
      "yaraĠ": 7109,
      "aĠÅĦĠ": 7110,
      "áĬķáĮİ": 7111,
      "ator": 7112,
      "ÃłÃ¬sÃłnĠ": 7113,
      "áº¹n": 7114,
      "áĭµáĪ®": 7115,
      "emaĠ": 7116,
      "Ã²s": 7117,
      "áĬ¨áĪĭ": 7118,
      "áĬ¨áī³": 7119,
      "ibnĠ": 7120,
      "áĭĪáĭŃáĪĿ": 7121,
      "áĮĭáī¢": 7122,
      "haribiĠ": 7123,
      "ologieĠ": 7124,
      "NÃŃĠá»įjá»įÌģĠ": 7125,
      ".ĠÃĢwá»įnĠÃĮt": 7126,
      "MusulunciĠ": 7127,
      "JamhuriĠyaĠ": 7128,
      "táº¹Ìģláº¹ÌĢ": 7129,
      "alikuwaĠmshindiĠwaĠTuzoĠyaĠNobelĠyaĠ": 7130,
      "LakiniĠ": 7131,
      "(N": 7132,
      "BÃ¡": 7133,
      "Ros": 7134,
      "awaĠm": 7135,
      "cell": 7136,
      "pwan": 7137,
      "wÃł": 7138,
      "ĠáĬ¥áĪĿáĬĲáīµ": 7139,
      "esternĠ": 7140,
      "áĮĪáĪ¨": 7141,
      "áĪ«áĪįáį¢": 7142,
      "ah,Ġ": 7143,
      "edĠinĠtheĠ": 7144,
      "áį¡áĬ¥": 7145,
      "áĪĮáĪİáī½": 7146,
      "Ġáĭ¨áĪļáĮĪáĬĻ": 7147,
      "2003": 7148,
      "Alit": 7149,
      "áĮłáī¥": 7150,
      "ĠáĭįáĮŃ": 7151,
      "suiv": 7152,
      "waoĠ": 7153,
      "179": 7154,
      "Ã¨tÃ²": 7155,
      "falmeĠm": 7156,
      "cutarĠ": 7157,
      "asiasaĠwaĠ": 7158,
      "LouisĠ": 7159,
      "DolaĠlaĠRom": 7160,
      "ayáº¹yáº¹Ġ": 7161,
      "WakristoĠwengi,ĠwakifuataĠmapokeoĠyaĠRoma,ĠhuadhimishaĠ": 7162,
      "Flor": 7163,
      "Gáº¹ÌĢáº¹Ìģ": 7164,
      "Maur": 7165,
      "dinĠ": 7166,
      "eas": 7167,
      "wuĠ": 7168,
      "wellĠ": 7169,
      "zan": 7170,
      "Ġ8": 7171,
      "ernĠ": 7172,
      "amoĠ": 7173,
      "áĪĪáĭµ": 7174,
      "afiĠk": 7175,
      "ingtonĠ": 7176,
      "ĠáĭŃáĪĭáĪįáį¢": 7177,
      "ignĠ": 7178,
      "ĠáĪ²áĪĨáĬĳ": 7179,
      "anteĠ": 7180,
      "exist": 7181,
      "Isra": 7182,
      "áĬŀáī¹": 7183,
      "workĠ": 7184,
      "NorthĠ": 7185,
      "MuhammaduĠ": 7186,
      "Ġáī°áĪ«áĪ«": 7187,
      "JanuariĠ-Ġ": 7188,
      "babbarĠ": 7189,
      "bilaĠ": 7190,
      "ram": 7191,
      "taw": 7192,
      "Ã©po": 7193,
      "ĠáĬ¥áĪŃáĪ±": 7194,
      "áĮįáĬĺ": 7195,
      "ĠáīłáĬ¦": 7196,
      "Prim": 7197,
      "atureĠ": 7198,
      "Ġáī°áĬ¨áī³": 7199,
      "nÃŃgbÃłĠtÃŃĠ": 7200,
      "\"M": 7201,
      "Rec": 7202,
      "Rev": 7203,
      "Wag": 7204,
      "e).": 7205,
      "jaĠ": 7206,
      "nes": 7207,
      "wÃŃĠ": 7208,
      "tro": 7209,
      "igab": 7210,
      "ĠáĭĪáī³áĭ°": 7211,
      "2005Ġ": 7212,
      "stand": 7213,
      "edik": 7214,
      "huÉĹ": 7215,
      "áĬ®áīµ": 7216,
      "ĠáĪ¥áįįáĪ«": 7217,
      "ĠáĬ¥áĬķáĭ²áĭ«": 7218,
      "NÃłÃ¬jÃŃrÃŃÃł,Ġ": 7219,
      "ĠáĪµáĪĪáĪĨáĬĲ": 7220,
      "ĠáĬ¨áī°áĪĽĠáĬĲáĭįáį¢": 7221,
      "duniaĠ": 7222,
      "hadaĠdaĠ": 7223,
      "FirstĠ": 7224,
      "ĠáĪ¦áĪµáīµ": 7225,
      "HispaniaĠ": 7226,
      "ilÃ©Ġáº¹ÌĢká»įÌģĠ": 7227,
      "AF": 7228,
      "CN": 7229,
      "Greg": 7230,
      "Laf": 7231,
      "ne.Ġ": 7232,
      "áĪĿĠáĪĪ": 7233,
      "itanĠ": 7234,
      "ĠáĬłáīħ": 7235,
      "áĭ°áĪµ": 7236,
      "deĠm": 7237,
      "áĬ«áĪĿ": 7238,
      "odiĠ": 7239,
      "ovi": 7240,
      "ĠáĭµáĪį": 7241,
      "áĪ²áī²": 7242,
      "177": 7243,
      "organis": 7244,
      "wadandaĠ": 7245,
      "AfirkaĠ": 7246,
      "isiwaĠchaĠ": 7247,
      "laterĠ": 7248,
      "|ĠRD2-": 7249,
      "WilayaĠyaĠ": 7250,
      "á¹£irÃŃá¹£": 7251,
      "56": 7252,
      "Dir": 7253,
      "pil": 7254,
      "sm": 7255,
      "inrinĠ": 7256,
      "ata,Ġ": 7257,
      "amer": 7258,
      "Ã¡Ã¡": 7259,
      "thÃ©": 7260,
      "chin": 7261,
      "aganaĠ": 7262,
      "Ã²n": 7263,
      "round": 7264,
      "tÃŃĠÃ³ĠwÃłĠ": 7265,
      "Sheh": 7266,
      "ĠáĮįáĬķáĬĻ": 7267,
      "Fasah": 7268,
      "MeiĠ": 7269,
      "wurinĠ": 7270,
      "rikic": 7271,
      ".ĠManazarta": 7272,
      "ĠáĬłáįįáĪªáĬ«": 7273,
      "shipĠ": 7274,
      "kÃŃĠÃ³ĠtÃ³Ġ": 7275,
      "Tech": 7276,
      "sens": 7277,
      "arsaĠ": 7278,
      "elaĠ": 7279,
      "icaĠ": 7280,
      "appe": 7281,
      "ibuĠnaĠ": 7282,
      "áĬ«áĬ¨áĪĪ": 7283,
      "ĠáĪµáĪĭ": 7284,
      "iyaĠnaĠ": 7285,
      "áĪĨáĬĸ": 7286,
      "áĭ²áĭ®": 7287,
      "áĭĺáĪĺ": 7288,
      "Chur": 7289,
      "Champ": 7290,
      "huoĠ": 7291,
      "2ĠâĢĵĠ": 7292,
      "associ": 7293,
      "iá¹£áº¹Ìģ": 7294,
      "imbab": 7295,
      "NchiĠzaĠ": 7296,
      "ItaĠceĠ": 7297,
      "bincik": 7298,
      "TovutiĠ": 7299,
      "fa": 7300,
      "runĠ": 7301,
      "rÃłnĠ": 7302,
      "u:Ġ": 7303,
      "iĠlaĠ": 7304,
      "áĮª": 7305,
      "áĪĿĠáĪĨáĬĲ": 7306,
      "áĬŃáĪ²": 7307,
      "áī£áī³": 7308,
      "erĠandĠ": 7309,
      "awarĠdaĠ": 7310,
      "áĬ¨áĪ¨áĪĿ": 7311,
      "ĠáĪ²áīĢ": 7312,
      "ĠáīµáĪŃ": 7313,
      "Ġáĭĺáįĭ": 7314,
      "ĠáĭĺáĪĺáĬĵáĭĬ": 7315,
      "áīĥáĪ´": 7316,
      "ĠáĭįáĪĥ": 7317,
      "ÅĦĠd": 7318,
      "ÅĦĠjáº¹ÌģĠ": 7319,
      "StatesĠ": 7320,
      "áĮ¡áīµ": 7321,
      "RomanĠ": 7322,
      "ÃĪyÃŃĠ": 7323,
      "haka,Ġ": 7324,
      "kubwaĠyaĠ": 7325,
      "falmeĠwaĠ": 7326,
      "utawalaĠwaĠ": 7327,
      "ĠáĪĺáĮ¨áĪ¨áĪ»ĠáĭµáĪ¨áĪµ": 7328,
      "40Ġ": 7329,
      "Ram": 7330,
      "jej": 7331,
      "sasaĠ": 7332,
      "áĬķĠáī°": 7333,
      "gbáº¹ÌģĠ": 7334,
      "áĮĪáīµ": 7335,
      "ajiĠm": 7336,
      "utamad": 7337,
      "trod": 7338,
      "áį¡áīł": 7339,
      "áĪ°áĪį": 7340,
      "ent,Ġ": 7341,
      "andik": 7342,
      "ÃĢwá»įnĠarÃ¡Ġ": 7343,
      "KiingerezaĠ": 7344,
      "lokacinĠdaĠ": 7345,
      "áĪµáįĵáĬķáĭ«": 7346,
      "DemocraticĠ": 7347,
      "áīħáĪµáīĥáĪ´": 7348,
      "HanyoyinĠ": 7349,
      "ĠáīłáĬĭáĪĭĠáĬ¥áĪµáĬ¨ĠáĭĵáĪĺáī±": 7350,
      "5,": 7351,
      "fon": 7352,
      "souv": 7353,
      "tÃºn": 7354,
      "Ãłjáº¹sÃ¡": 7355,
      "Ã©s": 7356,
      "illaĠ": 7357,
      "áĪįáīµ": 7358,
      "itaĠm": 7359,
      "ulaĠ": 7360,
      "trib": 7361,
      "nÃŃĠÃłwá»įnĠ": 7362,
      "áĬłáīµ": 7363,
      "ĠáĪµáĪŀáī½": 7364,
      "obinĠ": 7365,
      "ubli": 7366,
      "Art": 7367,
      "Ġáīłáī°áĪĪ": 7368,
      "sÃŃwÃ¡jÃºĠ": 7369,
      "phys": 7370,
      "ilimaĠyaĠ": 7371,
      "Burtan": 7372,
      "yammacinĠ": 7373,
      "ĠáĪĺáĪłáĪ¨áīµ": 7374,
      "fimĠdinĠ": 7375,
      "SarkinĠ": 7376,
      "RayayyunĠM": 7377,
      "aĠkungiyarĠ": 7378,
      "4.Ġ": 7379,
      "Fat": 7380,
      "Sur": 7381,
      "ooĠ": 7382,
      "asc": 7383,
      "Ġáĭ¨áĭĵáĪĪáĪĿ": 7384,
      "chaĠm": 7385,
      "ĠáĬ¥áĪĿ": 7386,
      "adu": 7387,
      "imaninĠ": 7388,
      "áĪĽáĪ½": 7389,
      "oper": 7390,
      "2018": 7391,
      "2006Ġ": 7392,
      "ĠáīµáĪĿáĪħáĪŃ": 7393,
      "ĠáĬ¥áĬķáĭ°Ġáī°": 7394,
      "áĮħáĪĿ": 7395,
      "1960Ġ": 7396,
      "Islam": 7397,
      "awalaĠ": 7398,
      "Progr": 7399,
      "BabbanĠbirninĠ": 7400,
      "MachiĠ-Ġ": 7401,
      "mÃ¬ÃŃrÃłnĠ": 7402,
      "AcademyĠ": 7403,
      "57": 7404,
      "</": 7405,
      "Ju": 7406,
      "Plat": 7407,
      "Zimbab": 7408,
      "kaiĠ": 7409,
      "lineĠ": 7410,
      "tum": 7411,
      "asaliĠ": 7412,
      "áĪĿáįĴ": 7413,
      "Ġáīłáĭį": 7414,
      "olanz": 7415,
      "aĠmasuĠ": 7416,
      "áĪĽáĪį": 7417,
      "Ġáĭ¨áĪ®": 7418,
      "ĠáĪĿáĭķáĪ«áī¥": 7419,
      "áĪģáĪĪáīµ": 7420,
      "áĪľáīµ": 7421,
      "ĠáĬĲáĮĪáĪł": 7422,
      "lughaĠzaĠ": 7423,
      "girmaĠ": 7424,
      "Ġáī¡áĭµáĬķ": 7425,
      "daĠtakeĠ": 7426,
      "ApriliĠ-Ġ": 7427,
      "ĠáĭŃáīĢáĪ«áĪīáį¢": 7428,
      "kulaĠdaĠ": 7429,
      "RichardĠ": 7430,
      "gáº¹": 7431,
      "mÃ¡Ġ": 7432,
      "á¹¢": 7433,
      "ara,Ġ": 7434,
      "enaĠ": 7435,
      "áĭµáĬĵ": 7436,
      "ĠáĭŃáĭ©": 7437,
      "Ġáĭ¨áĪ´": 7438,
      "ukeĠ": 7439,
      "áįĪáĬķ": 7440,
      "Ġáĭ¨áī°áĭĪ": 7441,
      "ansaĠ": 7442,
      "áĪİáĪµ": 7443,
      "inĠmall": 7444,
      "áĪµáĪĪáĭļáĪħ": 7445,
      "ootb": 7446,
      "Hung": 7447,
      "poĠ": 7448,
      "ãĤ": 7449,
      "anch": 7450,
      "alamaĠ": 7451,
      "althĠ": 7452,
      "niĠsikuĠyaĠ": 7453,
      "aĠkarkashinĠ": 7454,
      "Ġá»įÌģ": 7455,
      "reas": 7456,
      "tiqueĠ": 7457,
      "áĬķáĮįáĪį": 7458,
      "s,ĠandĠ": 7459,
      "waÆĻ": 7460,
      "ĠáĮĭáĪ«": 7461,
      "positionĠ": 7462,
      "WakatiĠwaĠ": 7463,
      "relig": 7464,
      "daban-": 7465,
      "Ġáī¥áĪŃáĪĥ": 7466,
      "Sikukuu": 7467,
      "ae": 7468,
      "lati": 7469,
      "ariĠyaĠ": 7470,
      "eredĠ": 7471,
      "gbáº¹Ìģ": 7472,
      "ĠáĬłáĮĭ": 7473,
      "ojoĠ": 7474,
      "eĠdagaĠ": 7475,
      "áĬ¥áĬĲáĭļáĪħ": 7476,
      "ĠáĬŃáĪŃáĪµáī²áĭ«": 7477,
      "ĠáĮĪáĮ½": 7478,
      "randeĠ": 7479,
      "aĠfaraĠ": 7480,
      "má»įÌĢĠsÃŃĠ": 7481,
      "ĠáĮ½áĪķ": 7482,
      "daĠsukeĠ": 7483,
      "kilomitaĠ": 7484,
      "diffÃ©r": 7485,
      "KiswahiliĠ": 7486,
      "ĠáĭŃáĪĨáĬĵáĪįáį¢": 7487,
      "olojiaĠ": 7488,
      "ipinleĠ": 7489,
      "shirye-shiry": 7490,
      "ijobaĠibileĠniĠ": 7491,
      "jejen": 7492,
      "ĠáīłáĬĭáĪĭĠáĬ¥áĪµáĬ¨ĠáĭĵáĪĺáī±ĠáĪĺáĮ¨áĪ¨áĪ»ĠáĭµáĪ¨áĪµ": 7493,
      "(yaĠ": 7494,
      "Bad": 7495,
      "ZiwaĠ": 7496,
      "ĠÐ": 7497,
      "eĠniĠ": 7498,
      "ari,Ġ": 7499,
      "ĠáĬĽ": 7500,
      "atsĠ": 7501,
      "orukoĠ": 7502,
      "tÃŃĠwá»įnĠ": 7503,
      "azz": 7504,
      "formeĠ": 7505,
      "ĠáĭįáĪĢ": 7506,
      "1980": 7507,
      "samoĠ": 7508,
      "uhim": 7509,
      "taronĠ": 7510,
      "áĪ²áĭ«": 7511,
      "nigb": 7512,
      "bayarĠdaĠ": 7513,
      "ughtĠ": 7514,
      "lá»įÌģwá»įÌģ": 7515,
      "ĠáĭķáĪĪáī°": 7516,
      "farkonĠ": 7517,
      "ĠáįįáĪ¬": 7518,
      "rasmiĠ": 7519,
      "ongoziĠwaĠ": 7520,
      "birniĠne,ĠdaĠkeĠ": 7521,
      "ijobaĠibileĠniĠIpinleĠ": 7522,
      "2)": 7523,
      "Bos": 7524,
      "Cent": 7525,
      "Kab": 7526,
      "gÃ©": 7527,
      "ial": 7528,
      "kÃ¹Ġ": 7529,
      "someĠ": 7530,
      "à¤": 7531,
      "anay": 7532,
      "taĠsamuĠ": 7533,
      "again": 7534,
      "Ġáĭ¨áĪ±": 7535,
      "ĠáĭĪáĮĪ": 7536,
      "azim": 7537,
      "tiĠá¹£eĠ": 7538,
      "etsĠ": 7539,
      "áĮłáĪĪ": 7540,
      "Island": 7541,
      "TarihinĠ": 7542,
      "Ġáĭ¨áĬĲáīłáĪ©": 7543,
      "ĠáĪĿáĬķáĮĬáĭľ": 7544,
      "rÃ©gionĠ": 7545,
      "Kasuwan": 7546,
      "Oá¹£uĠ": 7547,
      "ikiped": 7548,
      "ĠáĪļáĪĬáĭ®áĬķ": 7549,
      "Nic": 7550,
      "Zam": 7551,
      "gig": 7552,
      "pĠ": 7553,
      "siyasaĠ": 7554,
      "tanĠ": 7555,
      "tot": 7556,
      "áĬ£": 7557,
      ",ĠÃłtiĠ": 7558,
      "áĬķáīĢ": 7559,
      "Ġáīłáīħ": 7560,
      "áĬ«áĬ¤áĪį": 7561,
      "2016": 7562,
      "ihÃłnĠ": 7563,
      "áĪİáī¹": 7564,
      "ĠáĪįáĮģ": 7565,
      "evenĠ": 7566,
      "kuwaĠnaĠ": 7567,
      "Ġáī¢áĭ«": 7568,
      "ĠáĭĺáĪĺáĬķĠáĬłáīĨáĮ£áĮłáĪŃ": 7569,
      "tionn": 7570,
      "zamanĠk": 7571,
      "uchum": 7572,
      "aĠkatiĠyaĠ": 7573,
      "MachiĠ": 7574,
      "ÉĹayaĠdagaĠcikinĠ": 7575,
      "Ġáĭ¨áĭįáĮŃ": 7576,
      "bornĠ": 7577,
      "áī¨áĪŃáĪ²áī²": 7578,
      "ĠáĪĺáĮ»áĪķ": 7579,
      "WakristoĠwengi,ĠwakifuataĠmapokeoĠyaĠRoma,ĠhuadhimishaĠkumbukumbuĠzaĠwatakatifuĠ": 7580,
      "Bern": 7581,
      "gre": 7582,
      "ois": 7583,
      "uth": 7584,
      "athĠ": 7585,
      "akabil": 7586,
      "onom": 7587,
      "onimoĠ": 7588,
      "Ã¡lÃŃ": 7589,
      "áĪĪáį¢": 7590,
      "cher": 7591,
      "ĠáĪĺáīħ": 7592,
      "ote.": 7593,
      "2007": 7594,
      "áīĥáĭįáĬķ": 7595,
      "aĠdukĠ": 7596,
      "Ġá»ĮbaĠ": 7597,
      "AsiaĠ": 7598,
      "áīĤáīµ": 7599,
      "áĬķáĮĮ": 7600,
      "edĠtoĠtheĠ": 7601,
      "berg": 7602,
      "surĠleĠ": 7603,
      "ÙİÙ": 7604,
      "bÃłbÃ¡Ġ": 7605,
      "sosaiĠ": 7606,
      "49": 7607,
      "68": 7608,
      "Zamb": 7609,
      "fond": 7610,
      "já»įÌĢ": 7611,
      "memb": 7612,
      "am,Ġ": 7613,
      "thereĠ": 7614,
      "esĠtheĠ": 7615,
      "esaĠ": 7616,
      "ĠáĭŃáĬĲ": 7617,
      "2009": 7618,
      "ĠáīłáĬ¤": 7619,
      "areĠnaĠ": 7620,
      "ShiĠneĠ": 7621,
      "Ġáī£áĪķáĪŃ": 7622,
      "Ġáĭ¨áĬłáĭ¨áĪŃ": 7623,
      "walit": 7624,
      "ilimiaĠ": 7625,
      "....": 7626,
      "áīĤáĭ«": 7627,
      "njiaĠ": 7628,
      "MasharikiĠ": 7629,
      "nau'": 7630,
      "olÃ³á¹£Ã¨lÃºĠ": 7631,
      "Dani": 7632,
      "Hab": 7633,
      "Jo": 7634,
      "aÃ®": 7635,
      "bikinĠ": 7636,
      "hud": 7637,
      "oung": 7638,
      "vip": 7639,
      "arib": 7640,
      "anaĠm": 7641,
      "Ġáīª": 7642,
      "usammanĠ": 7643,
      "Ġ(áĬł": 7644,
      "kumaĠanĠ": 7645,
      "lÃ¡báº¹ÌģĠ": 7646,
      "ĠáīłáĪĺáĪĨáĬķ": 7647,
      "samanĠ": 7648,
      "aureĠ": 7649,
      "auseĠ": 7650,
      "zamaĠm": 7651,
      "NovembaĠ-Ġ": 7652,
      "olÃ¹darÃŃĠ": 7653,
      "MayuĠ": 7654,
      "gener": 7655,
      "uuĠchaĠ": 7656,
      "Bibl": 7657,
      "HenryĠ": 7658,
      "ĠáĭŃáĪĺáĪµáĪĭáĪįáį¢": 7659,
      "Bag": 7660,
      "MunguĠ": 7661,
      "Tai": 7662,
      "baraĠ": 7663,
      "babaĠ": 7664,
      "nÃ¬Ġ": 7665,
      "siteĠ": 7666,
      "ty": 7667,
      "Ðµ": 7668,
      "atingĠ": 7669,
      "er'sĠ": 7670,
      "Ġáīłáĭĵ": 7671,
      "áĭ«áĪľ": 7672,
      "ellaĠ": 7673,
      "áĪĭáĪµ": 7674,
      "ajiliĠyaĠ": 7675,
      "áĬ¨áĪ°": 7676,
      "2013": 7677,
      "áįĪáĪ«": 7678,
      "ansu.": 7679,
      "a.ĠM": 7680,
      "dÃ©velop": 7681,
      "áĮ»áįĪ": 7682,
      "KiarabuĠ": 7683,
      "InĠtheĠ": 7684,
      "auniyarĠ": 7685,
      "baadayeĠ": 7686,
      "Wá»įÌģnĠbÃŃĠ": 7687,
      "KamusiĠ": 7688,
      "premiÃ¨reĠ": 7689,
      "ungeĠlaĠ": 7690,
      "abubuwanĠ": 7691,
      "calledĠ": 7692,
      "pÃŃnláº¹ÌĢĠá»ĮÌĢ": 7693,
      "Nik": 7694,
      "TV": 7695,
      "boĠ": 7696,
      "bid": 7697,
      "hivy": 7698,
      "pow": 7699,
      "tÃ¡": 7700,
      "||Ġ": 7701,
      "ateurĠ": 7702,
      "ĠáĮĥ": 7703,
      "chaĠk": 7704,
      "áĭŃáĪģ": 7705,
      "Ã³r": 7706,
      "agoĠ": 7707,
      "ĠáīłáĪĭ": 7708,
      "ĠáĬĲáĭįáį¢ĠáĬ¨": 7709,
      "2013Ġ": 7710,
      "etĠl'": 7711,
      "own": 7712,
      "suf": 7713,
      "ammedĠ": 7714,
      "1960": 7715,
      "ĠáĬłáĪĪáĭįáį¢": 7716,
      "philosoph": 7717,
      "hakanĠ": 7718,
      "ulkiĠ": 7719,
      "egeĠbiĠ": 7720,
      "leursĠ": 7721,
      "ZanzibarĠ": 7722,
      "500": 7723,
      "Fre": 7724,
      "Gud": 7725,
      "Pier": 7726,
      "Sin": 7727,
      "bre": 7728,
      "e;Ġ": 7729,
      "sou": 7730,
      "vij": 7731,
      "Ġ20": 7732,
      "ĠáīĦ": 7733,
      "or,Ġ": 7734,
      "univers": 7735,
      "gbÃ²": 7736,
      "áĪ¨áĪŃ": 7737,
      "Ã¹d": 7738,
      "Ġáī°áĮ½": 7739,
      "Ġáĭ¨áĪļáĪ°": 7740,
      "ĠáĮįáĭµ": 7741,
      "ste": 7742,
      "AĠshekararĠ201": 7743,
      "Christ": 7744,
      "tersĠ": 7745,
      "5ĠâĢĵĠ": 7746,
      "endel": 7747,
      "ezek": 7748,
      "ityĠofĠ": 7749,
      "ĠáĬłáĪĪáĭį": 7750,
      "Prof": 7751,
      "ique.": 7752,
      "Naijiria.Ġ": 7753,
      "jihoh": 7754,
      "ĠáĭķáĪĪáīµĠáīłáĬĭáĪĭĠáĬ¥áĪµáĬ¨ĠáĭĵáĪĺáī±ĠáĪĺáĮ¨áĪ¨áĪ»ĠáĭµáĪ¨áĪµ": 7755,
      "NuwambaĠ": 7756,
      "ÃºÃºsÃ¹Ġ": 7757,
      "táº¹lif": 7758,
      "AlhajiĠ": 7759,
      "yaĠmwakaĠ(yaĠ": 7760,
      "shairiĠ": 7761,
      "1=": 7762,
      "1),Ġ": 7763,
      "Bol": 7764,
      "Dan": 7765,
      "Pul": 7766,
      "Publ": 7767,
      "Wap": 7768,
      "biliĠ": 7769,
      "kabil": 7770,
      "tay": 7771,
      "ton,Ġ": 7772,
      "uy": 7773,
      "aĠL": 7774,
      "antiĠ": 7775,
      "anaĠkwaĠ": 7776,
      "Ġáĭ¨áī£": 7777,
      "una,Ġ": 7778,
      "áĭ«áĭĺ": 7779,
      "ĠáĬĲáĮ¥": 7780,
      "áĬŃáĬķ": 7781,
      "aidĠ": 7782,
      "ahud": 7783,
      "2004Ġ": 7784,
      "ĠáĪįáĭ°áīµ": 7785,
      "She": 7786,
      "a'sĠ": 7787,
      "ionalĠ": 7788,
      "lá»įÌģgbá»įÌĢnĠ": 7789,
      "ilimiĠ": 7790,
      "ĠáĬłáĪįáī°": 7791,
      "Ã¬á¹£áº¹ÌĢláº¹ÌĢĠ": 7792,
      "BeninĠ": 7793,
      "talabij": 7794,
      "Amerika.Ġ": 7795,
      "COVI": 7796,
      "ĠáĭŃáī»áĪĭáĪįáį¢": 7797,
      "2.Ġ": 7798,
      "Mc": 7799,
      "cat": 7800,
      "dubuĠ": 7801,
      "sanaĠ": 7802,
      "tash": 7803,
      "tayiĠ": 7804,
      "Ãł-": 7805,
      "Ġáĭ¨áīĨ": 7806,
      "áĪĿĠáĪĺ": 7807,
      "unz": 7808,
      "áĪĺáĮ¥": 7809,
      "Ã¨.": 7810,
      "Ã¨s": 7811,
      "ĠáĬłáĭ³": 7812,
      "áĭµáĪ¨": 7813,
      "ĠáĬ¨áĪĽ": 7814,
      "ultur": 7815,
      "a,ĠnaĠ": 7816,
      "áĪªáīĥ": 7817,
      "Ġá»įg": 7818,
      "ĠáĭĪáĮ¥": 7819,
      "áī¸áĭĭáĪįáį¢": 7820,
      "2010Ġ": 7821,
      "ĠáĪ°áĬĲ": 7822,
      "jáº¹ÌģĠÃ²á¹£Ã¨rÃ©Ġ": 7823,
      "aĠnaĠm": 7824,
      "queĠleĠ": 7825,
      "áĭĵáĬķ": 7826,
      "aĠkuanziaĠ": 7827,
      "ĠáĬķáĮīáĪłĠáĬĲáĮĪ": 7828,
      "tÃŃĠwá»įÌģnĠÅĦĠ": 7829,
      "ienn": 7830,
      ",000.": 7831,
      "ĠáīĨáĭŃ": 7832,
      "Ġáĭ¨áĪļáĮĪáĬĿáīłáīµ": 7833,
      "daĠsukaĠh": 7834,
      "áĬķáĮīáĪ¥": 7835,
      "Ã²á¹£Ã¨lÃºĠ": 7836,
      "ĠáĮĮáī³": 7837,
      "pÃŃnĠ": 7838,
      "Califor": 7839,
      "COVID-": 7840,
      "(m": 7841,
      "Domin": 7842,
      "Festiv": 7843,
      "TaĠkasanceĠ": 7844,
      "bah": 7845,
      "daraĠ": 7846,
      "dist": 7847,
      "futĠ": 7848,
      "haliĠ": 7849,
      "raj": 7850,
      "taif": 7851,
      "uesĠ": 7852,
      "aĠz": 7853,
      "aĠdagaĠ": 7854,
      "aldĠ": 7855,
      "islamuĠ": 7856,
      "kuw": 7857,
      "kuanz": 7858,
      "áĪĪáīĢ": 7859,
      "shaf": 7860,
      "Ġáį©": 7861,
      "Ġáī°áĬŃáĪį": 7862,
      "áĪªáĬ®áī½": 7863,
      "appel": 7864,
      "Ġáĭ«áĪ³": 7865,
      "2016Ġ": 7866,
      "ambakoĠ": 7867,
      "1999": 7868,
      "airĠ": 7869,
      "prov": 7870,
      "seed": 7871,
      "áī³áĭĪáīĢ": 7872,
      "beingĠ": 7873,
      "UsmanĠ": 7874,
      "áĬ¨áĭļáĪħĠáĭķáĪĪáīµĠáīłáĬĭáĪĭĠáĬ¥áĪµáĬ¨ĠáĭĵáĪĺáī±ĠáĪĺáĮ¨áĪ¨áĪ»ĠáĭµáĪ¨áĪµ": 7875,
      "áĬĵĠáĪĺáĭĭ": 7876,
      "katikaĠmiakaĠmirefu).ĠMpakaĠuisheĠzinabakiĠsikuĠ": 7877,
      "Gid": 7878,
      "OL": 7879,
      "Zar": 7880,
      "bahar": 7881,
      "daid": 7882,
      "ge": 7883,
      "mÃŃrÃłnĠ": 7884,
      "tedĠ": 7885,
      "aĠj": 7886,
      "ara.": 7887,
      "insĠ": 7888,
      "ĠáīłáĬĲ": 7889,
      "ĠáĬ¥áĪ±": 7890,
      "áĬŃáĪŃáĪµáī¶áĪµ": 7891,
      "áĪĽáĭįáĭ«áĬķ": 7892,
      "ĠáįĮ": 7893,
      "leĠdeĠ": 7894,
      "e,ĠandĠ": 7895,
      "áīħáĬĵ": 7896,
      "áī¸áĭī": 7897,
      "ĠáĪ²áĪį": 7898,
      "anzuĠ": 7899,
      "uhimm": 7900,
      "áįĬáĭ«": 7901,
      "wasĠtheĠ": 7902,
      "imboĠ": 7903,
      "160": 7904,
      "ĠáĪĬáīĢ": 7905,
      "ĠáĬłáĪĺáī³áīµ": 7906,
      "zauneĠ": 7907,
      "MichaelĠ": 7908,
      "jusqu'": 7909,
      "Fal": 7910,
      "Tel": 7911,
      "diniĠ": 7912,
      "inĠjirginĠ": 7913,
      "shahar": 7914,
      "iaĠniĠ": 7915,
      "ĠáīłáĪĢ": 7916,
      "áĬ¨áĬĲ": 7917,
      "tÃŃĠkÃ²Ġ": 7918,
      "áĬ«áĪĦ": 7919,
      "á»įÌĢĠsÃŃĠ": 7920,
      "induz": 7921,
      "uwa,Ġ": 7922,
      "aĠhar": 7923,
      "ĠáĮĪáĭ¥": 7924,
      "kwaĠsababuĠ": 7925,
      "bÃŃbÃŃĠ": 7926,
      "ĠáĪĺáĬķáĮįáĪ¥áī³áīµ": 7927,
      "Kiingerez": 7928,
      "askaziniĠ": 7929,
      "eshim": 7930,
      "adhiĠyaĠ": 7931,
      "áĭŀáī½": 7932,
      "timeĠ": 7933,
      "UfaransaĠ": 7934,
      "PartyĠ(": 7935,
      "asayansiĠwaĠ": 7936,
      "DukĠ": 7937,
      "Ham": 7938,
      "Hol": 7939,
      "U.": 7940,
      "buk": 7941,
      "cibiyarĠ": 7942,
      "kok": 7943,
      "sau": 7944,
      "seri": 7945,
      "yÃ¡": 7946,
      "yawaĠ": 7947,
      "aroĠ": 7948,
      "inĠK": 7949,
      "astron": 7950,
      "akawaĠ": 7951,
      "áĭµáĪį": 7952,
      "áº¹Ìģm": 7953,
      "Ã²p": 7954,
      "áĪ³áĪįáį¢": 7955,
      "ambapoĠ": 7956,
      "suit": 7957,
      "oĠyaĠm": 7958,
      "ationĠdesĠ": 7959,
      "ráº¹ÌĢĠnÃŃĠ": 7960,
      "áĬĴáĪįáĬŃ": 7961,
      "tarihiĠ": 7962,
      "ilĠestĠ": 7963,
      "Ġá»įÌĢnÃłĠ": 7964,
      "parĠleĠ": 7965,
      "----": 7966,
      "TaĠkumaĠ": 7967,
      "iakaĠyaĠ": 7968,
      "Ġáįªáį»áį": 7969,
      "ÃĢwá»įnĠáº¹láº¹ÌģbÃ¹nĠNobelĠnÃŃnÃºĠ": 7970,
      "takribanĠ": 7971,
      "\"m": 7972,
      "\")Ġ": 7973,
      "4)": 7974,
      "HasaĠ": 7975,
      "PP": 7976,
      "u)Ġ": 7977,
      "ĠáĬĥ": 7978,
      "ama,Ġ": 7979,
      "áĪµáĪĿ": 7980,
      "shah": 7981,
      "chez": 7982,
      "ĠáĬ¥áĬ©áĪį": 7983,
      "Ġáĭ¨áĪģ": 7984,
      "2008Ġ": 7985,
      "karatunĠ": 7986,
      "ĠáĪĨáĬĳ": 7987,
      "uck": 7988,
      "parĠlesĠ": 7989,
      "áĭ°áĪŃáĮį": 7990,
      "pourĠlaĠ": 7991,
      "ĠáīłáĬłáĪģáĬĳ": 7992,
      "ElleĠ": 7993,
      "áįĸáĪĬ": 7994,
      "TaĠyiĠ": 7995,
      "jinsiĠ": 7996,
      "Societ": 7997,
      "yaĠmutuĠaĠshekaraĠtaĠ": 7998,
      "aĠbirninĠ": 7999,
      "PortĠ": 8000,
      "found": 8001,
      "máº¹Ìģr": 8002,
      "sor": 8003,
      "udeĠ": 8004,
      "yá»įĠ": 8005,
      "ĠáīĤ": 8006,
      "áĪĪáĭĭáĪįáį¢": 8007,
      "Ã¨-": 8008,
      "áĭ°áĮĪ": 8009,
      "off": 8010,
      "ularĠ": 8011,
      "actionĠ": 8012,
      "reprÃ©sent": 8013,
      "áĭ¨áĪļ": 8014,
      "áįĪáĪ¨": 8015,
      "1990": 8016,
      "placeĠ": 8017,
      "waĠmwakaĠ": 8018,
      "katiĠyaĠm": 8019,
      "ĠáĮĪáī¥áĪ¨": 8020,
      "waĠnaĠPapaĠ": 8021,
      "prÃ©c": 8022,
      "shigaĠcikinĠ": 8023,
      "HistoriaĠyaĠ": 8024,
      "gwamnatiĠ": 8025,
      "WanasayansiĠwaĠ": 8026,
      "TanguĠ": 8027,
      "caract": 8028,
      "Saint-": 8029,
      "kasuwanciĠ": 8030,
      "ambayoĠniĠ": 8031,
      "lambarĠyaboĠtaĠ": 8032,
      "5.Ġ": 8033,
      "Group": 8034,
      "IVĠ": 8035,
      "Tak": 8036,
      "a/": 8037,
      "hÃłnĠ": 8038,
      "maisĠ": 8039,
      "owan": 8040,
      "peri": 8041,
      "sour": 8042,
      "Ø©": 8043,
      "arsĠ": 8044,
      "áįı": 8045,
      "Ã©v": 8046,
      "thenĠ": 8047,
      "oliĠ": 8048,
      "olud": 8049,
      "imataif": 8050,
      "áº¹Ìģká»įÌĢá»įÌģĠ": 8051,
      "aij": 8052,
      "á¹£áº¹ÌģĠ": 8053,
      "ĠáīłáĪŀ": 8054,
      "Ġá»įlá»įÌģ": 8055,
      "ĠáĬ¥áĬķáīħáĪµáīĥáĪ´": 8056,
      "oweĠ": 8057,
      "ambal": 8058,
      "Ġáī¥áĪĶáĪŃ": 8059,
      "ĠáĬŃáĪĪáī¥": 8060,
      "ĠáĪĬáĭ«": 8061,
      "link": 8062,
      "RayuwarĠ": 8063,
      "disc": 8064,
      "MeiĠ-Ġ": 8065,
      "aizariĠwaĠ": 8066,
      "againstĠ": 8067,
      "Ox": 8068,
      "SanĠ": 8069,
      "aoĠniĠ": 8070,
      "can": 8071,
      "cer": 8072,
      "nen": 8073,
      "Ø³": 8074,
      "Ġ9": 8075,
      "aĠÆĻar": 8076,
      "áĭ·": 8077,
      "arĠtaĠ": 8078,
      "kutaĠ": 8079,
      "naĠfarkoĠ": 8080,
      "áĬ¨áĬĵ": 8081,
      "2017": 8082,
      "áĮĭáīµ": 8083,
      "ijeĠ": 8084,
      "watuĠwaĠ": 8085,
      "áĭ²áĪ±": 8086,
      "jeĠijobaĠibileĠniĠIpinleĠ": 8087,
      "áĪ©áĬķ": 8088,
      "eph": 8089,
      "ÉĹinĠ": 8090,
      "produ": 8091,
      "agbÃ¡Ġ": 8092,
      "Ġáī¤áī¶áī½": 8093,
      "Ãªt": 8094,
      "ÃĮtum": 8095,
      "ÃłdÃºgbÃ²Ġ": 8096,
      "Ġáī°áĬ¨áī³áĭŃ": 8097,
      "patakiĠ": 8098,
      "áĬ¨áī°áĪĽáĭį": 8099,
      "ĠáĪĿáĪįáĬŃáīµ": 8100,
      "oluiluĠ": 8101,
      "Kip": 8102,
      "MjiĠ": 8103,
      "Tsak": 8104,
      "UĠ": 8105,
      "Vit": 8106,
      "bis": 8107,
      "bÃ³": 8108,
      "rag": 8109,
      "tá»įÌģĠ": 8110,
      "yaĠzamaĠ": 8111,
      "Ġáĭ¨áĪĪáĭį": 8112,
      "áĪĿáī¥": 8113,
      "áĪµáĬķ": 8114,
      "ĠáĬ¨áĪĨáĬĲ": 8115,
      "áĪ³áĪ°": 8116,
      "ceĠquiĠ": 8117,
      "1990Ġ": 8118,
      "shekarunĠ": 8119,
      "ainesĠ": 8120,
      "ĠdonĠ": 8121,
      "âĢĻĠ": 8122,
      "3ĠâĢĵĠ": 8123,
      "eĠsurĠ": 8124,
      "walik": 8125,
      "olÃ³rÃŃĠ": 8126,
      "áĮĬáĭ«": 8127,
      "IlĠestĠ": 8128,
      "ĠáīµáĬķáĪ½": 8129,
      "ĠáĪºáĪħ": 8130,
      "owever,Ġ": 8131,
      "Fl": 8132,
      "Fer": 8133,
      "Hon": 8134,
      "Liv": 8135,
      "Mlim": 8136,
      "Pan": 8137,
      "VitaĠ": 8138,
      "nipaĠ": 8139,
      "rais": 8140,
      "uiĠ": 8141,
      "áĬķáĮĢ": 8142,
      "inaĠm": 8143,
      "Ã¬p": 8144,
      "Ã©ĠÃłĠ": 8145,
      "ĠáĭŃáīĨ": 8146,
      "rot": 8147,
      "ĠáĪĪáĪļ": 8148,
      "ingĠofĠ": 8149,
      "katikaĠk": 8150,
      "aĠsunĠ": 8151,
      "ellementĠ": 8152,
      "whileĠ": 8153,
      "ienneĠ": 8154,
      "Columb": 8155,
      "bothĠ": 8156,
      "ĠáīĥáĪĭáīµ": 8157,
      "ĠáĭĺáĪĺáĬĲĠáĪĽáī´áĭİáĪµ": 8158,
      "peopleĠ": 8159,
      "::": 8160,
      "AC": 8161,
      "Est": 8162,
      "KamfaninĠ": 8163,
      "Po": 8164,
      "aal": 8165,
      "equ": 8166,
      "fonc": 8167,
      "hataĠ": 8168,
      "newĠ": 8169,
      "sansĠ": 8170,
      "uxĠ": 8171,
      "uruĠ": 8172,
      "áī°áīµ": 8173,
      "áĭŃáĪį": 8174,
      "adin": 8175,
      "alij": 8176,
      "awaÆĻ": 8177,
      "edĠonĠ": 8178,
      "e,ĠleĠ": 8179,
      "toĠm": 8180,
      "ĠáĪµáĬķ": 8181,
      "leyinĠ": 8182,
      "2008": 8183,
      "ubĠ": 8184,
      "pri": 8185,
      "1970": 8186,
      "ÃĴá¹£": 8187,
      "áįĵáĬķ": 8188,
      "ologyĠ": 8189,
      "ĠáĮĢáĪŃáĪĺáĬķ": 8190,
      "org/": 8191,
      "AllĠ": 8192,
      "Ġáī°áĪĺáĪ³áĪ³áĭŃ": 8193,
      "Ã¬má»įÌĢ": 8194,
      "occup": 8195,
      "ĠáĪĺáĪ°áĪ¨áīµ": 8196,
      "áĮ¥áĪ¨ĠáĬĲáĮĪáĪ®áī½": 8197,
      "tsohuwarĠ": 8198,
      "áĬ®áĬĸáĪļ": 8199,
      "DonĠ": 8200,
      "DubaĠ": 8201,
      "HarĠ": 8202,
      "civ": 8203,
      "d.": 8204,
      "dÃŃn": 8205,
      "hul": 8206,
      "no": 8207,
      "nonĠ": 8208,
      "viv": 8209,
      "xim": 8210,
      "ana.": 8211,
      "atum": 8212,
      "yaĠs": 8213,
      "asáº¹Ġ": 8214,
      "Ġáĭ¨áĮ¥": 8215,
      "kush": 8216,
      "naĠM": 8217,
      "uraĠ": 8218,
      "ĠáīłáĭĪ": 8219,
      "shidaĠ": 8220,
      "ulikuwaĠ": 8221,
      "Ġáī°áĮ«": 8222,
      "Ġáĭ¨áĪļáĪ°áĪ«": 8223,
      "ungum": 8224,
      "ĠáīłáĪĺáī£áĪį": 8225,
      "aĠfiĠ": 8226,
      "Acc": 8227,
      "áįĸáĪŃáīµ": 8228,
      "tuntunĠ": 8229,
      "AmurkaĠ": 8230,
      "Abdul": 8231,
      "ĠáĬłáīĢáįį": 8232,
      "success": 8233,
      "AlbertĠ": 8234,
      "á»įÌĢnÃ¹Ġ": 8235,
      "ĠáĮįáĬķáĬĻáĬĲáīµ": 8236,
      "88": 8237,
      "Gold": 8238,
      "HisĠ": 8239,
      "kij": 8240,
      "mu": 8241,
      "uallyĠ": 8242,
      "wag": 8243,
      "yÃ¡Ġ": 8244,
      "áĮİáī½": 8245,
      "áĪįáĮĭ": 8246,
      "ĠáĬ¥áĪ«áĪ±": 8247,
      "omor": 8248,
      "ĠáĬ¨áĪ°": 8249,
      "ibit": 8250,
      "Ġáĭ¨áĬ¡": 8251,
      "ĠáĭĵáĭŃáĬĲáīµ": 8252,
      "ĠáĪĽáĬħ": 8253,
      "ĠáĪįáĪĽ": 8254,
      "acheĠ": 8255,
      "áī¦áĪŃ": 8256,
      "Ġáĭ¨áĬłáĭįáĪ®áįĵ": 8257,
      "ĠáĮĢáĪĺáĪ¨": 8258,
      "ehemuĠ": 8259,
      "ĠáĬłáĪĿáī£": 8260,
      "surĠlaĠ": 8261,
      "oinsĠ": 8262,
      "MartinĠ": 8263,
      "'YanĠwasanĠÆĻwallonĠÆĻafaĠtaĠÆĻasarĠIngil": 8264,
      "ĠáĬŃáįįáĪĭáĮĪáĪŃ": 8265,
      "Din": 8266,
      "Develop": 8267,
      "Hor": 8268,
      "J.": 8269,
      "bit": 8270,
      "kad": 8271,
      "kafaĠ": 8272,
      "lerĠ": 8273,
      "asiĠyaĠ": 8274,
      "kunanĠ": 8275,
      "uni": 8276,
      "ĠáįĴ": 8277,
      "ishinĠ": 8278,
      "ĠáĪµáĭ«áĪľ": 8279,
      "ipp": 8280,
      "ots": 8281,
      "anci,Ġ": 8282,
      "ans,Ġ": 8283,
      "¢áīµáĭ®áĮµáĭ«áĬķ": 8284,
      "antĠlaĠ": 8285,
      "olÃ³gunĠ": 8286,
      "GrandĠ": 8287,
      "jama'aĠaĠ": 8288,
      "ĠáĪĺáĪįáĬ©": 8289,
      "kamaĠm": 8290,
      "âĢĶĠ": 8291,
      "kÃºrÃ²Ġ": 8292,
      "ĠáĪĽáĪŃáīĨáĪµĠáĭ°áĮįáĪŀ": 8293,
      "ikaĠkarneĠyaĠ": 8294,
      "ShehuĠ": 8295,
      "Aá¹£": 8296,
      "Dang": 8297,
      "GB": 8298,
      "Gi": 8299,
      "NollywoodĠ": 8300,
      "YankinĠ": 8301,
      "derĠ": 8302,
      "oÆĻ": 8303,
      "abĠ": 8304,
      "ĠáĮĦ": 8305,
      "áī½áĪī": 8306,
      "ĠáĪĿáĪħ": 8307,
      "igneĠ": 8308,
      "áĭ³áĪª": 8309,
      "Ġáĭ«áĪĭáī¸áĭį": 8310,
      "ashir": 8311,
      "Ġáĭ¨áī°áī£": 8312,
      "ts.": 8313,
      "huuĠ": 8314,
      "Armen": 8315,
      "áī¦áīµ": 8316,
      "Marekani.": 8317,
      "áĪµáī°áĪŃ": 8318,
      "comput": 8319,
      "tsakiyarĠ": 8320,
      "ArewaĠ": 8321,
      "wá»įÌĢny": 8322,
      "áĪįáĪµáįįáĬĵ": 8323,
      "ÃĮjá»įbaĠ": 8324,
      "DeltaĠ": 8325,
      "Seneg": 8326,
      "Ġáĭ¨áĭĵáĪĺáī±": 8327,
      "3)": 8328,
      "5),Ġ": 8329,
      "Li": 8330,
      "Law": 8331,
      "kÃ¹nĠ": 8332,
      "many": 8333,
      "yoĠ": 8334,
      "á»įd": 8335,
      "áĪŃáī³": 8336,
      "ÃłrinĠ": 8337,
      "akanaĠnaĠ": 8338,
      "arĠg": 8339,
      "ika.": 8340,
      "esc": 8341,
      "áĬĲáĬĽ": 8342,
      "áĪĭáĪĭ": 8343,
      "Ã²bÃŃĠ": 8344,
      "a,ĠM": 8345,
      "aciĠ": 8346,
      "áĭ¨áĪ©": 8347,
      "ÆĻwararr": 8348,
      "auth": 8349,
      "1998": 8350,
      "AdamĠ": 8351,
      "anĠsiyas": 8352,
      "KatikaĠm": 8353,
      "School,Ġ": 8354,
      "ĠáĮ£áĪį": 8355,
      "kaláº¹ÌĢĠ": 8356,
      "sayensiĠ": 8357,
      "DisambaĠ": 8358,
      "BahariĠ": 8359,
      "ĠáĪĥáĭŃáĪĽáĬĸáīµ": 8360,
      "electr": 8361,
      "KÃ¡tÃ³": 8362,
      "Ãłjáº¹sÃ¡raĠ": 8363,
      "300": 8364,
      "Káº¹Ìģ": 8365,
      "P.": 8366,
      "PÃ³p": 8367,
      "jÃŃ": 8368,
      "lom": 8369,
      "mafiĠ": 8370,
      "nov": 8371,
      "tag": 8372,
      "áĬķáĮ»": 8373,
      "Ġáīłáĭļáĭ«": 8374,
      "áĪĪáī±": 8375,
      "oluk": 8376,
      "áīłáī³áĪįáį¢": 8377,
      "icanĠ": 8378,
      "Ġáī°áĮĪ": 8379,
      "Ġáī°áĭ°áĪŃ": 8380,
      "atiĠawá»įnĠ": 8381,
      "Ġ1.": 8382,
      "oĠmwakaĠ": 8383,
      "áĬłáĪģ": 8384,
      "ĠáĬłáĪĪáį¢": 8385,
      "tareĠdaĠm": 8386,
      "crit": 8387,
      "lakin": 8388,
      "bienĠ": 8389,
      "ĠáĬłáĪ«áīµ": 8390,
      "áĪªáī³áĬķáĭ«": 8391,
      "2=": 8392,
      "PiaĠ": 8393,
      "Tro": 8394,
      "bish": 8395,
      "gomaĠ": 8396,
      "hap": 8397,
      "situ": 8398,
      "tá»įÌĢ": 8399,
      "erÃ©": 8400,
      "akal": 8401,
      "urg": 8402,
      "ĠáĮ¤": 8403,
      "ĠáĬłáĭĭ": 8404,
      "iyuĠ": 8405,
      "a,ĠdaĠ": 8406,
      "quel": 8407,
      "azam": 8408,
      "toĠwaĠ": 8409,
      "leoĠ": 8410,
      "etĠdesĠ": 8411,
      "ÃĮjá»įĠ": 8412,
      "izeĠ": 8413,
      "Ġáĭ°áī¥": 8414,
      "su,Ġ": 8415,
      "hukun": 8416,
      "extr": 8417,
      "áĮĢáīµ": 8418,
      "queĠlaĠ": 8419,
      "Ġ12": 8420,
      "8ĠâĢĵĠ": 8421,
      "áīĭáīĭ": 8422,
      "pointĠ": 8423,
      "ĠáĬłáī£áĪĭáīµ": 8424,
      "ominiraĠ": 8425,
      "UnitedĠStatesĠ": 8426,
      "DagaĠbayaĠ": 8427,
      "km2Ġ": 8428,
      "ulikanaĠ": 8429,
      "ĠáĭľáĬĵĠáĪĺáĭĭ": 8430,
      "CollegeĠ": 8431,
      "Ġáĭ¨áĪħáĭĿáī¥": 8432,
      "áįĲáī¥áĪĬáĬŃ": 8433,
      "jimill": 8434,
      "Pasif": 8435,
      "YammacinĠ": 8436,
      "Ġáĭ©áĬĴáī¨áĪŃáĪ²áī²": 8437,
      "YunifÃ¡sÃŃtÃ¬Ġ": 8438,
      "ĠáĪ³áĭŃáĬķáĪ³áĭĬĠáĮ¸áī£áĭŃ": 8439,
      "falmeĠmkuuĠwaĠ": 8440,
      "2),Ġ": 8441,
      "Don": 8442,
      "Ze": 8443,
      "bakwaiĠ": 8444,
      "hÃ¬nĠ": 8445,
      "ke": 8446,
      "oitwaĠ": 8447,
      "ÑĢ": 8448,
      "amÃ©r": 8449,
      "itÃ©sĠ": 8450,
      "áĬĵáĮĪáĪŃ": 8451,
      "theseĠ": 8452,
      "áĭµáīħ": 8453,
      "acr": 8454,
      "troisĠ": 8455,
      "ĠáĪĿáĭķáĪ«": 8456,
      "á»įÌĢkanĠ": 8457,
      "ugg": 8458,
      "áĭĿáĪĿ": 8459,
      "ambul": 8460,
      "ĠáīĢáĭŃ": 8461,
      "wasem": 8462,
      "Ã©rÃ©": 8463,
      "evisionĠ": 8464,
      "nigbaĠ": 8465,
      "Ġáĭ¨áĬĲáĮĪ": 8466,
      "view": 8467,
      ")ĠjeĠosereĠ": 8468,
      "Petr": 8469,
      "BlackĠ": 8470,
      "áĬĲáĮĪáĪŃĠáĮįáĬķ": 8471,
      "personn": 8472,
      "Ġáĭ¨áĪĻáĭļáīĥ": 8473,
      ")áį¢": 8474,
      "Ka": 8475,
      "Vir": 8476,
      "lit": 8477,
      "rÃ¬": 8478,
      "Ã£": 8479,
      "áĮįáĪĽáĭĬ": 8480,
      "2000": 8481,
      "2002Ġ": 8482,
      "2009Ġ": 8483,
      "áĮĭáĪ«": 8484,
      "áĮĭáĮĪáĪŃ": 8485,
      "ĠáĪ°áĪŃ": 8486,
      "áĬķáĮįáĪ¥áīµ": 8487,
      "ĠáĬ¥áĬķáĭ°ĠáĬĲáīłáĪŃ": 8488,
      "ĠáĬ¥áĪµáĬ«": 8489,
      "tionĠofĠ": 8490,
      "zamanĠ": 8491,
      "juuĠ": 8492,
      "EdwardĠ": 8493,
      "wasanĠkwaikwayoĠ": 8494,
      "áįĪáĪĭáĮĬ": 8495,
      "\".Ġ": 8496,
      "4),Ġ": 8497,
      "Ru": 8498,
      "lif": 8499,
      "puisĠ": 8500,
      "sen": 8501,
      "ilik": 8502,
      "áĪĪáīłáīµ": 8503,
      "ĠáĪĺáĬ®": 8504,
      "áĬŃáĪĿáĬĵ": 8505,
      "otunĠ": 8506,
      "antak": 8507,
      ",ĠmaisĠ": 8508,
      "engenez": 8509,
      "ĠáĭĭáĮĭ": 8510,
      "ĠáĪĬáīĥáĭįáĬķ": 8511,
      "tÃŃĠwá»įÌģnĠsÃ¬Ġ": 8512,
      "athemat": 8513,
      "ogboĠ": 8514,
      "itÃ©ĠdeĠ": 8515,
      "Ġáī°áĪĺáĪį": 8516,
      "ĠáĪģáĪĪáī°áĬĽ": 8517,
      "FederalĠ": 8518,
      "KungiyarĠ": 8519,
      "fath": 8520,
      "lÃ¬kÃ¬Ġ": 8521,
      "tá»įÌģ": 8522,
      "Î¹": 8523,
      "aĠJami'arĠ": 8524,
      "atreĠ": 8525,
      "asiliĠ": 8526,
      "áº¹ráº¹Ġ": 8527,
      "aki": 8528,
      "irdĠ": 8529,
      "áĮįáĪĪ": 8530,
      "usesĠ": 8531,
      "aĠkwall": 8532,
      "ĠáīłáĪ¥": 8533,
      "asĠaĠ": 8534,
      "ectsĠ": 8535,
      "2003Ġ": 8536,
      "eptĠ": 8537,
      "áī¢áĭŃ": 8538,
      "áĪµáīµáĪª": 8539,
      "Ãłwá»įnĠáº¹": 8540,
      "áĭ°áī¥áĪ¨": 8541,
      "daĠsauranĠ": 8542,
      "ĠáĪļáĬĴáĪµáīµáĪŃ": 8543,
      "\"TheĠ": 8544,
      "AL": 8545,
      "Bill": 8546,
      "Eos": 8547,
      "cir": 8548,
      "kom": 8549,
      "koy": 8550,
      "mis": 8551,
      "ux": 8552,
      "vonĠ": 8553,
      "yas": 8554,
      "yun": 8555,
      "á»įrÃŃĠ": 8556,
      "áĭ«áīĦ": 8557,
      "áĭµáĪľ": 8558,
      "Ã²wÃ²Ġ": 8559,
      "áį£ĠáĪĪ": 8560,
      "ĠáĭĪáĮ£": 8561,
      "áĭĿáī¡": 8562,
      "ĠáĬŃáĪŃ": 8563,
      "ĠáĮ¥áīłáī¥": 8564,
      "aĠdonĠ": 8565,
      "áĪĲáĪ´": 8566,
      "áĮ»áįį": 8567,
      "ká»įkÃłn": 8568,
      "ĠáĮ¨áĪĿáĪ®": 8569,
      "fÃŃl": 8570,
      "áĭ°áĪ¨áĮĪáĭį": 8571,
      "enyeĠm": 8572,
      "ÃĮjáº¹ÌĢ": 8573,
      "Ã¬dÃŃjeĠ": 8574,
      "Kifarans": 8575,
      "IV": 8576,
      "Ig": 8577,
      "Mab": 8578,
      "hav": 8579,
      "ÏĤ": 8580,
      "Ġáĭ¨áĪĭ": 8581,
      "niĠÃłwá»įnĠ": 8582,
      "áĪĽáī¸áĭį": 8583,
      "aiĠtaĠ": 8584,
      "ivid": 8585,
      "amboĠ": 8586,
      "1994Ġ": 8587,
      "rÃ©s": 8588,
      "ĠáĪ¥áĮĭ": 8589,
      "ĠáīµáĪŃáĮīáĪĿ": 8590,
      "Premi": 8591,
      "farkoĠnaĠ": 8592,
      "ardsĠ": 8593,
      "TarihiĠ": 8594,
      "Ã¬wá»įÌĢ": 8595,
      "ká»įÌĢwÃ©Ġ": 8596,
      "throughĠ": 8597,
      "AnĠhaifeĠshiĠ": 8598,
      "Denmark": 8599,
      "ĠáįĪáĪ¨áĬķáĪ³áĭŃ": 8600,
      "áīħáĭ«áĬĸáĪµ": 8601,
      "Ġáĭ¨áĪļáĮĪáĬĿáīłáīµĠáĪĺáĪįáĬŃáĭĵĠáĪĿáĭµáĪŃ": 8602,
      "(S": 8603,
      "Bul": 8604,
      "BAĠ": 8605,
      "Buh": 8606,
      "Tor": 8607,
      "XĠ": 8608,
      "ger": 8609,
      "kÃłnĠ": 8610,
      "milit": 8611,
      "tyĠ": 8612,
      "ªáĭ«": 8613,
      "ĠâĢ¹": 8614,
      "an'": 8615,
      "aniĠk": 8616,
      "Ġáī²": 8617,
      "at,Ġ": 8618,
      "alish": 8619,
      "Ġáīłáĭ°áī¡áī¥": 8620,
      "ĠáĬłáĭĺ": 8621,
      "áī¥áĬĽ": 8622,
      "ĠáĬĲáįĥ": 8623,
      "aĠmar": 8624,
      "a,ĠkumaĠ": 8625,
      "ÆĻan": 8626,
      "2018Ġ": 8627,
      "áįĬáĭİáī½": 8628,
      "Ġáĭ¨áĪĺáĮ£": 8629,
      "haifarĠdaĠ": 8630,
      "Ã¬yÃ¡Ġ": 8631,
      "utane": 8632,
      "ĠáĪļáĬ«áĬ¤áĪį": 8633,
      "Tarih": 8634,
      "ulkinĠ": 8635,
      "habit": 8636,
      "ĠáĬłáĪµáī°áĭ³áĭ°áĮį": 8637,
      "áīĢáĪĺáĮ«": 8638,
      "continu": 8639,
      "WaislamuĠ": 8640,
      "ĠáĮłáīħáĪĭáĭŃ": 8641,
      "ĠáĬĽáĭį": 8642,
      "KÃ¡tÃ³lÃ¬kÃ¬Ġ": 8643,
      "-áĬ¢": 8644,
      "66": 8645,
      "Et": 8646,
      "Mod": 8647,
      "doc": 8648,
      "dÃºgb": 8649,
      "rá»į": 8650,
      "ruku": 8651,
      "vu": 8652,
      "wareĠ": 8653,
      "zim": 8654,
      "ÆĬ": 8655,
      "áĪ¦": 8656,
      "el.": 8657,
      "olewaĠ": 8658,
      "ĠáĪĺáĪ¬áīµ": 8659,
      "áĪ«áĭįáĭ«áĬķ": 8660,
      "ĠáĪĿáĬĴáĪįáĬŃ": 8661,
      "ĠáĭĵáĪĭáĪĽ": 8662,
      "áĮĭáĪª": 8663,
      "ambarĠ": 8664,
      "Ġáĭĺáĭį": 8665,
      "Chil": 8666,
      "industr": 8667,
      "proj": 8668,
      "Ġ14": 8669,
      "Jama'": 8670,
      "áī¤áī±": 8671,
      "nye": 8672,
      "Ãłká»į": 8673,
      "alikuwaĠPap": 8674,
      "áĪ£áĪªáĭ«": 8675,
      "jÃ¡d": 8676,
      "Angl": 8677,
      "kudancinĠ": 8678,
      "Ã²kÃ¨Ġ": 8679,
      "kuzaliwaĠ": 8680,
      "ĠáĭķáĪĪáī°ĠáĪŀáīµ": 8681,
      "\"S": 8682,
      "HighĠ": 8683,
      "dÃŃĠ": 8684,
      "hist": 8685,
      "hij": 8686,
      "pur": 8687,
      "pup": 8688,
      "sĠofĠtheĠ": 8689,
      "abe": 8690,
      "uny": 8691,
      "thod": 8692,
      "áī°áĬĵ": 8693,
      "áĭ«áĪįáį¢": 8694,
      "áĭ«áĭįáĭ«áĬķ": 8695,
      "Ã¨Ã¨": 8696,
      "ĠáĬłáĬĵ": 8697,
      "áĭ°áĪŃáĪµ": 8698,
      "áĬĲáĪ£": 8699,
      "áĪ«áĪª": 8700,
      "ulti": 8701,
      "aig": 8702,
      "stateĠ": 8703,
      "áĬķáĮįáĪµáīµ": 8704,
      "nguv": 8705,
      "efuĠ": 8706,
      "áĬĽáĭįáĪĿ": 8707,
      "agbaraĠ": 8708,
      "ĠáīĢáĬķĠ": 8709,
      "Ãºn,Ġ": 8710,
      "OlÃ¹": 8711,
      "ĠáĪĬáĪĨáĬķ": 8712,
      "tÃŃĠwá»įÌģnĠtiĠ": 8713,
      "Ġáĭķáĭį": 8714,
      "olÃ³Ã²": 8715,
      "shiĠneĠÉĹanĠ": 8716,
      "HistoriaĠ": 8717,
      "ĠáĪľáĭ³": 8718,
      "iĠkatiĠyaĠ": 8719,
      "centuryĠ": 8720,
      "Girl": 8721,
      "lilil": 8722,
      "arewacinĠ": 8723,
      "ĠáĭĺáĪĺáĬķĠáĬłáīĨáĮ£áĮłáĪŃĠáĭ¨áĭĵáĪĺáī±": 8724,
      "AikinĠ": 8725,
      "God": 8726,
      "KwaĠm": 8727,
      "Mir": 8728,
      "Sav": 8729,
      "i;Ġ": 8730,
      "já»įÌģ": 8731,
      "las": 8732,
      "num": 8733,
      "o'": 8734,
      "áĪĿáīłáĪŃ": 8735,
      "áĮįáĬĵ": 8736,
      "icationĠ": 8737,
      "ĠáĬ¨áĭĪ": 8738,
      "ĠáĭŃáĪĺ": 8739,
      "e,ĠtheĠ": 8740,
      "ĠáĭĪáĭĺ": 8741,
      "áīłáĪ®": 8742,
      "áįĪáĮłáĪ¨": 8743,
      "áĬķáĭµáĪµáĬĵ": 8744,
      "everalĠ": 8745,
      "áĪĲáĭŃ": 8746,
      "áĮĥáĭĿáĪĽáī½": 8747,
      "crib": 8748,
      "TuzoĠyaĠNobelĠyaĠ": 8749,
      "ĠáĬ¢áĭ¨áĪ±áĪµ": 8750,
      "YorubaĠ": 8751,
      "beforeĠ": 8752,
      "uatwaĠnaĠPapaĠ": 8753,
      "ĠáĬªáĭ³áĬķ": 8754,
      "sakam": 8755,
      "ĠáĮ¸áĪĲáįĬ": 8756,
      "OmoĠ": 8757,
      "Tanzania.": 8758,
      "ĠáĬłáĪµáī°áĭ³áĭ°áĪŃ": 8759,
      "wishoĠwaĠ": 8760,
      "system": 8761,
      "IbadanĠ": 8762,
      "nipasáº¹Ġ": 8763,
      "jam'iyyarĠ": 8764,
      "ÃĢwá»įnĠÃ¨nÃ¬yÃłnĠalÃłÃłyÃ¨Ġ": 8765,
      "CentralĠ": 8766,
      "Pulitz": 8767,
      "fÃŃlmÃ¹Ġ": 8768,
      "55": 8769,
      "A,Ġ": 8770,
      "AuĠ": 8771,
      "Kon": 8772,
      "Round": 8773,
      "mil": 8774,
      "táº¹ÌĢĠ": 8775,
      "aĠD": 8776,
      "áĪŃáį£": 8777,
      "arĠdaĠk": 8778,
      "áīłáĬłáĪ": 8779,
      "uka": 8780,
      "wataĠ": 8781,
      "1997": 8782,
      "kanĠniĠ": 8783,
      "9ĠâĢĵĠ": 8784,
      "establ": 8785,
      "Ã©tud": 8786,
      "walip": 8787,
      "yanayinĠ": 8788,
      "halafuĠ": 8789,
      "aĠkarniĠnaĠ": 8790,
      "Ġáī¥áĭĻĠáĮĬáĭľ": 8791,
      "Viet": 8792,
      "WatuĠ": 8793,
      "Japan": 8794,
      "AareĠorile-edeĠ": 8795,
      "JinaĠlakeĠ": 8796,
      "'YanĠwasanĠÆĻwallonĠÆĻafaĠtaĠÆĻasarĠIngila": 8797,
      "6)": 8798,
      "ForĠ": 8799,
      "Gal": 8800,
      "Lá»įÌģ": 8801,
      "coll": 8802,
      "fanoĠ": 8803,
      "faÉĹ": 8804,
      "hus": 8805,
      "raisĠ": 8806,
      "sauĠ": 8807,
      "siyas": 8808,
      "zak": 8809,
      "áĬ»": 8810,
      "áĮ©": 8811,
      "introd": 8812,
      "er-": 8813,
      "asilimiaĠ": 8814,
      "áī£áī±": 8815,
      "utarĠ": 8816,
      "áĭ¨áĬłáĪ": 8817,
      "uwaĠdaĠ": 8818,
      "orĠofĠ": 8819,
      "rÃ©fÃ©r": 8820,
      "aĠbug": 8821,
      "Ġáº¹ÌĢrá»įĠ": 8822,
      "firam": 8823,
      "koĠkumaĠ": 8824,
      "ÃĴunĠ": 8825,
      "biyu,Ġ": 8826,
      "ĠáĬ¢áĬķ": 8827,
      "Ã²rÃ¡nĠ": 8828,
      "ĠáĬªáĪİ": 8829,
      "coursĠ": 8830,
      "JamhuriyarĠ": 8831,
      "secondĠ": 8832,
      "áĮĬáĭľáĭį": 8833,
      "PeopleĠ": 8834,
      "amarĠhukumaĠceĠdakeĠ": 8835,
      "jimboĠlaĠ": 8836,
      "ElezoĠyaĠ": 8837,
      "egeme": 8838,
      "AlimfuataĠPapaĠ": 8839,
      "EosentomonĠ": 8840,
      "67": 8841,
      "Found": 8842,
      "Hum": 8843,
      "Kijerum": 8844,
      "Ms": 8845,
      "Por": 8846,
      "io,Ġ": 8847,
      "pÃ©ri": 8848,
      "sÃ©": 8849,
      "ĠáĬ¦áĪŃ": 8850,
      "akh": 8851,
      "abarĠ": 8852,
      "charg": 8853,
      "ĠáĬ¥áĮ½": 8854,
      "Ã¨neĠ": 8855,
      "adv": 8856,
      "ustaĠ": 8857,
      "áĪ³áĭį": 8858,
      "erĠlesĠ": 8859,
      "appro": 8860,
      "aziĠyaĠ": 8861,
      "isĠaĠ": 8862,
      "entalĠ": 8863,
      "áĪĬáĭ«áĬķ": 8864,
      "ovuĠ": 8865,
      "áĭįáĬķĠáĭ¨": 8866,
      "jami'arĠ": 8867,
      "ĠáĪ²áĪĨáĬķĠáīł": 8868,
      "katikaĠKamusiĠ": 8869,
      "fiimuĠ": 8870,
      "kÃłwÃ©Ġ": 8871,
      "neyĠ": 8872,
      "yake.": 8873,
      "máº¹ÌģtaĠ": 8874,
      "GreekĠ": 8875,
      "ĠáĪŃáĭķ": 8876,
      "lokaciĠ": 8877,
      "soitĠ": 8878,
      "ĠáĬłáĪĽáĬ«": 8879,
      "ÃĢÃłráº¹Ġiláº¹ÌĢĠ": 8880,
      "ĠáĬĹáĪª": 8881,
      "nufinĠ": 8882,
      "Ġáīłáī°áĪĪáĭŃáĪĿ": 8883,
      "ÃĮjá»įĠKÃ¡tÃ³lÃ¬kÃ¬Ġ": 8884,
      "ElezoĠyaĠKik": 8885,
      "katikaĠKamusiĠElezoĠyaĠKik": 8886,
      ">Ġ": 8887,
      "Dep": 8888,
      "Hal": 8889,
      "LokacinĠ": 8890,
      "OneĠ": 8891,
      "RÃ©": 8892,
      "cĠ": 8893,
      "pet": 8894,
      "ËĪ": 8895,
      "oris": 8896,
      "kuanziaĠ": 8897,
      "chamaĠ": 8898,
      "Ã¨,Ġ": 8899,
      "ĠáĬłáī¡": 8900,
      "emper": 8901,
      "actor": 8902,
      "Ã³ĠtiĠ": 8903,
      "áįįáĪ¬": 8904,
      "ĠáĪĪáĭĪ": 8905,
      "áĮ£áĪª": 8906,
      "ewa,Ġ": 8907,
      "ÃĵĠtÃºnĠ": 8908,
      "ujokoĠ": 8909,
      "Oktob": 8910,
      "JanarĠ": 8911,
      "yakeĠniĠ": 8912,
      "ĠáĪĻáĭļáīĥ": 8913,
      "ParisĠ": 8914,
      "UmarĠ": 8915,
      "gameĠ": 8916,
      "akaoĠmak": 8917,
      "ĠáĭĺáĪĺáĬĲĠáĪĽáĪŃáīĨáĪµĠáĭ°áĮįáĪŀ": 8918,
      "serikaliĠyaĠ": 8919,
      "âĢºâĢº": 8920,
      "includingĠ": 8921,
      "ĠáĬłáĮĪáĪįáĮįáĪİáīµ": 8922,
      "ĠáįĪáĪŃáĭĸáĬķ": 8923,
      "C)Ġ": 8924,
      "KasaĠ": 8925,
      "luĠ": 8926,
      "inoĠ": 8927,
      "atak": 8928,
      "yaĠfaraĠ": 8929,
      "aye.": 8930,
      "es-": 8931,
      "acĠ": 8932,
      "ĠáĭŃáĮł": 8933,
      "á¹£áº¹Ġ": 8934,
      "2017Ġ": 8935,
      "owÃ³": 8936,
      "áĬ¥áĪµ": 8937,
      "Ġáĭ°áĮĭ": 8938,
      "oyiĠ": 8939,
      "shiĠdaĠ": 8940,
      "uzikiĠ": 8941,
      "egunĠ": 8942,
      "ebr": 8943,
      "sameĠ": 8944,
      "aĠdaĠkumaĠ": 8945,
      "ni:Ġ": 8946,
      "sÃŃláº¹ÌĢ": 8947,
      "takwasĠ": 8948,
      "Ã¬yÃłn": 8949,
      "Ã¬dÃŃn": 8950,
      "ĠáįĬáĪį": 8951,
      "JapaniĠ(": 8952,
      "Ġáĭ«áĪĪáĭįáĬķ": 8953,
      ",ĠmwanamuzikiĠ": 8954,
      "áį²áį±áį»áį¶áį": 8955,
      "adarÃŃĠ": 8956,
      "áĪĽáĭŃáĪµáĮ¥": 8957,
      "2020,Ġ": 8958,
      "aká»įrinĠ": 8959,
      "profess": 8960,
      "ĠáĪļáĬĴáĪµáī´": 8961,
      "tradition": 8962,
      "hannuĠ": 8963,
      "Victor": 8964,
      "ĠáĭµáĬķáĮĭáĭŃ": 8965,
      "ĠáĮĪáĬķáĭĺáī¥": 8966,
      "D.": 8967,
      "Ta": 8968,
      "dÃ¬Ġ": 8969,
      "etr": 8970,
      "haz": 8971,
      "oid": 8972,
      "tat": 8973,
      "yay": 8974,
      "inĠnaĠ": 8975,
      "amaĠk": 8976,
      "áĪĿáĪĮ": 8977,
      "ĠáĬłáĮł": 8978,
      "niĠodunĠ": 8979,
      "emeĠ": 8980,
      "um,Ġ": 8981,
      "wanaf": 8982,
      "ati,Ġ": 8983,
      "ĠáĬ¥áĬķáĭµ": 8984,
      "amba,Ġ": 8985,
      "stant": 8986,
      "ChuoĠ": 8987,
      "construc": 8988,
      "000": 8989,
      "Â»)": 8990,
      "propos": 8991,
      "parĠlaĠ": 8992,
      "Ã¬á¹£Ã¨": 8993,
      "áī£áī¢áĪİáĬķ": 8994,
      "Ġáī¡áĭµ": 8995,
      "Magharib": 8996,
      "áĪĺáĪĪáĪµ": 8997,
      "Ã¬dÃŃlÃ©Ġ": 8998,
      "franÃ§aisĠ": 8999,
      "UpandeĠ": 9000,
      "akafuatwaĠnaĠPapaĠ": 9001,
      "6,": 9002,
      "Civ": 9003,
      "GovernmentĠ": 9004,
      "Ke": 9005,
      "Obas": 9006,
      "couldĠ": 9007,
      "fum": 9008,
      "fÃŃrÃŃ": 9009,
      "maz": 9010,
      "pouv": 9011,
      "sa": 9012,
      "tÃ¬": 9013,
      "Ø¹": 9014,
      "áĥ": 9015,
      "Ãłjá»įĠ": 9016,
      "akas": 9017,
      "áĪĪáĪ°": 9018,
      "elim": 9019,
      "truc": 9020,
      "araĠtaĠ": 9021,
      "baĠsuĠ": 9022,
      "áĪĮáĪĭ": 9023,
      "2011": 9024,
      "áĭĭáĪŃáĭ«": 9025,
      "odoĠ": 9026,
      "queĠlesĠ": 9027,
      "karibuĠ": 9028,
      "sabonĠ": 9029,
      "EnuguĠ": 9030,
      "ArewaĠmasoĠ": 9031,
      "Congres": 9032,
      "shirye-shiryenĠ": 9033,
      "PÃ³pÃ¹": 9034,
      "AsĠ": 9035,
      "Cour": 9036,
      "Tab": 9037,
      "[[": 9038,
      "gegeĠbiĠ": 9039,
      "jinĠ": 9040,
      "kan.": 9041,
      "wach": 9042,
      "Ïģ": 9043,
      "áĮĲ": 9044,
      "áĬķáī°": 9045,
      "daĠcewaĠ": 9046,
      "shari'": 9047,
      "áĬĲáĪµ": 9048,
      "áĪ«áĭį": 9049,
      "afutaĠ": 9050,
      "áĭ³áĭĬ": 9051,
      "áĬ«áĭµ": 9052,
      "ĠáĪµáī´": 9053,
      "Ġáĭ¨áĪļáī£áĪį": 9054,
      "200Ġ": 9055,
      "áĭļáĭ«áĬķ": 9056,
      "ÃĮgbÃ©": 9057,
      "áĪĻáīµ": 9058,
      "ĠáĬ¥áĬķáĭ°ĠáĪĨáĬĲ": 9059,
      "ÃĢwá»įnĠÃ²á¹£erÃ©Ġ": 9060,
      "1980Ġ": 9061,
      "1987Ġ": 9062,
      "6ĠâĢĵĠ": 9063,
      "ĠáĬĲáīłáĪŃáį¡áį¡": 9064,
      "Frans": 9065,
      "ĠáĪķáĮį": 9066,
      "yÃ¬ÃŃĠniĠ": 9067,
      "ÃĮtÃłnĠ": 9068,
      "oĠchaĠm": 9069,
      "ĠáīµáĪĿáĪħáĪŃáīµĠáī¤áīµ": 9070,
      "ÃłmÃ¬Ġáº¹ÌĢyáº¹Ġ": 9071,
      "RayayyunĠm": 9072,
      "fusk": 9073,
      "ChuoĠKik": 9074,
      "58": 9075,
      "59": 9076,
      "Red": 9077,
      "a:": 9078,
      "donn": 9079,
      "dawoĠ": 9080,
      "gariĠ": 9081,
      "son,Ġ": 9082,
      "aĠN": 9083,
      "en'sĠ": 9084,
      "kunaĠm": 9085,
      "áĪĪáĪį": 9086,
      "ĠáĮĵ": 9087,
      "ĠáĬłáĭ°": 9088,
      "áĪ«áĬĴ": 9089,
      "leĠc": 9090,
      "nÃŃĠiláº¹ÌĢĠ": 9091,
      "au.": 9092,
      "term": 9093,
      "Ġáīłáī°áĪĪáĭ«áĭ©": 9094,
      "IluĠ": 9095,
      "jamhur": 9096,
      "ĠáįįáīħáĪŃ": 9097,
      "arÃ¡ĠNÃłÃ¬jÃŃrÃŃÃł": 9098,
      "ĠáĬłáĪįáįĭ": 9099,
      "ĠáĪħáĮį": 9100,
      "tunĠdagaĠ": 9101,
      "Ġáī¤áī°áĬŃáĪŃáĪµáī²áĭ«áĬķ": 9102,
      "Rayuw": 9103,
      "htm": 9104,
      "áĪµáĪ«áĬ¤áĪį": 9105,
      "lafiyaĠ": 9106,
      "AmerikaĠyaĠK": 9107,
      "Hispani": 9108,
      "GwamnatinĠ": 9109,
      "Nijeriya.ĠKanananĠhukumominĠjiharĠ": 9110,
      "ÃĮbÃłdÃłnĠ": 9111,
      "ĠáĬĥáĭŃáĪĪĠáĪ¥áĪĭáĪ´": 9112,
      "Wany": 9113,
      "camp": 9114,
      "cigab": 9115,
      "fig": 9116,
      "ganinĠ": 9117,
      "wel": 9118,
      "ĠáĬĶ": 9119,
      "áĬķĠáĭĪáĭ°": 9120,
      "Ġáĭ¨áī¥": 9121,
      "Ġáĭ¨áĪĪáĪĿ": 9122,
      "onj": 9123,
      "ity.": 9124,
      "es.Ġ": 9125,
      "icallyĠ": 9126,
      "okras": 9127,
      "actĠ": 9128,
      "ĠáīłáĪ®": 9129,
      "ikaĠlaĠ": 9130,
      "Al'": 9131,
      "ivesĠ": 9132,
      "áĮłáīµ": 9133,
      "ambayeĠ": 9134,
      "Ġáĭ°áĪŃ": 9135,
      "1995Ġ": 9136,
      "adaĠdaĠ": 9137,
      "1ĠâĢĵĠ": 9138,
      "ations": 9139,
      "a.ĠManazartaĠ": 9140,
      "ongo": 9141,
      "Arth": 9142,
      "ensemb": 9143,
      "pourĠlesĠ": 9144,
      "Ã¬á¹£ÃłĠ": 9145,
      "kÃŃĠwá»įÌģnĠ": 9146,
      "kulikoĠ": 9147,
      "kubwaĠwaĠ": 9148,
      "ÃłyÃłnĠ": 9149,
      "ilÃ©Ġiá¹£áº¹ÌģĠ": 9150,
      "Historia": 9151,
      "áį²áį±áį»áį·áį": 9152,
      "Ã¬gbÃ¬má»įÌĢĠ": 9153,
      "capit": 9154,
      "esabiwaĠkuwaĠ": 9155,
      "ĠáīĢáĬĵáīµĠáĭŃáīĢáĪ«áĪīáį¢": 9156,
      "Ġá¹£ÃŃá¹£eĠ": 9157,
      "Buk": 9158,
      "CE": 9159,
      "Fur": 9160,
      "Jig": 9161,
      "foundĠ": 9162,
      "kip": 9163,
      "mo": 9164,
      "manyanĠ": 9165,
      "pu": 9166,
      "v.": 9167,
      "aĠÃ©tÃ©Ġ": 9168,
      "atoĠ": 9169,
      "áĪµĠ(": 9170,
      "itiesĠ": 9171,
      "áĬĵĠáĪĪ": 9172,
      "chesĠ": 9173,
      "ayayy": 9174,
      "adj": 9175,
      "áī¥áĪĭ": 9176,
      "afrikaĠ": 9177,
      "nÃŃĠÃĮ": 9178,
      "ebiĠ": 9179,
      "áī¡áĪŃ": 9180,
      "ĠáīĢáĬķĠáĬĲáĭįáį¢": 9181,
      "lÃ©g": 9182,
      "post": 9183,
      "orÃŃláº¹ÌĢ-Ã¨dÃ¨ĠNÃłÃ¬jÃŃrÃŃÃłĠ": 9184,
      "ĠáĬķáĮīáĪ¥ĠáĬĲáīłáĪŃáį¢": 9185,
      "ĠáįĬáĭ°": 9186,
      "WatuĠwaĠ": 9187,
      "kufuatanaĠnaĠ": 9188,
      "AustraliaĠ": 9189,
[...]
