{
  "version": "1.0",
  "truncation": null,
  "padding": null,
  "added_tokens": [
    {
      "id": 0,
      "content": "[UNK]",
      "single_word": false,
      "lstrip": false,
      "rstrip": false,
      "normalized": false,
      "special": true
    }
  ],
  "normalizer": {
    "type": "NFC"
  },
  "pre_tokenizer": {
    "type": "ByteLevel",
    "add_prefix_space": false,
    "trim_offsets": true,
    "use_regex": false
  },
  "post_processor": null,
  "decoder": {
    "type": "ByteLevel",
    "add_prefix_space": true,
    "trim_offsets": true,
    "use_regex": true
  },
  "model": {
    "type": "BPE",
    "dropout": null,
    "unk_token": "[UNK]",
    "continuing_subword_prefix": null,
    "end_of_word_suffix": null,
    "fuse_unk": false,
    "byte_fallback": false,
    "ignore_merges": false,
    "vocab": {
      "[UNK]": 0,
      "!": 1,
      "\"": 2,
      "#": 3,
      "$": 4,
      "%": 5,
      "&": 6,
      "'": 7,
      "(": 8,
      ")": 9,
      "*": 10,
      "+": 11,
      ",": 12,
      "-": 13,
      ".": 14,
      "/": 15,
      "0": 16,
      "1": 17,
      "2": 18,
      "3": 19,
      "4": 20,
      "5": 21,
      "6": 22,
      "7": 23,
      "8": 24,
      "9": 25,
      ":": 26,
      ";": 27,
      "<": 28,
      "=": 29,
      ">": 30,
      "?": 31,
      "@": 32,
      "A": 33,
      "B": 34,
      "C": 35,
      "D": 36,
      "E": 37,
      "F": 38,
      "G": 39,
      "H": 40,
      "I": 41,
      "J": 42,
      "K": 43,
      "L": 44,
      "M": 45,
      "N": 46,
      "O": 47,
      "P": 48,
      "Q": 49,
      "R": 50,
      "S": 51,
      "T": 52,
      "U": 53,
      "V": 54,
      "W": 55,
      "X": 56,
      "Y": 57,
      "Z": 58,
      "[": 59,
      "\\": 60,
      "]": 61,
      "^": 62,
      "_": 63,
      "`": 64,
      "a": 65,
      "b": 66,
      "c": 67,
      "d": 68,
      "e": 69,
      "f": 70,
      "g": 71,
      "h": 72,
      "i": 73,
      "j": 74,
      "k": 75,
      "l": 76,
      "m": 77,
      "n": 78,
      "o": 79,
      "p": 80,
      "q": 81,
      "r": 82,
      "s": 83,
      "t": 84,
      "u": 85,
      "v": 86,
      "w": 87,
      "x": 88,
      "y": 89,
      "z": 90,
      "{": 91,
      "|": 92,
      "}": 93,
      "~": 94,
      "¡": 95,
      "¢": 96,
      "£": 97,
      "¤": 98,
      "¥": 99,
      "¦": 100,
      "§": 101,
      "¨": 102,
      "©": 103,
      "ª": 104,
      "«": 105,
      "¬": 106,
      "®": 107,
      "¯": 108,
      "°": 109,
      "±": 110,
      "²": 111,
      "³": 112,
      "´": 113,
      "µ": 114,
      "¶": 115,
      "·": 116,
      "¸": 117,
      "¹": 118,
      "º": 119,
      "»": 120,
      "¼": 121,
      "½": 122,
      "¾": 123,
      "¿": 124,
      "Â": 125,
      "Ã": 126,
      "Ä": 127,
      "Å": 128,
      "Æ": 129,
      "Ç": 130,
      "È": 131,
      "É": 132,
      "Ê": 133,
      "Ë": 134,
      "Ì": 135,
      "Í": 136,
      "Î": 137,
      "Ï": 138,
      "Ð": 139,
      "Ñ": 140,
      "Ò": 141,
      "Ó": 142,
      "Ô": 143,
      "Õ": 144,
      "Ö": 145,
      "×": 146,
      "Ø": 147,
      "Ù": 148,
      "Ú": 149,
      "Û": 150,
      "Ü": 151,
      "Þ": 152,
      "à": 153,
      "á": 154,
      "â": 155,
      "ã": 156,
      "ä": 157,
      "å": 158,
      "æ": 159,
      "ç": 160,
      "è": 161,
      "é": 162,
      "ê": 163,
      "ë": 164,
      "ì": 165,
      "í": 166,
      "ï": 167,
      "ð": 168,
      "Ġ": 169,
      "Ģ": 170,
      "ģ": 171,
      "Ĥ": 172,
      "ĥ": 173,
      "Ħ": 174,
      "ħ": 175,
      "Ĩ": 176,
      "ĩ": 177,
      "Ī": 178,
      "ī": 179,
      "Ĭ": 180,
      "ĭ": 181,
      "Į": 182,
      "į": 183,
      "İ": 184,
      "ı": 185,
      "Ĳ": 186,
      "ĳ": 187,
      "Ĵ": 188,
      "ĵ": 189,
      "Ķ": 190,
      "ķ": 191,
      "ĸ": 192,
      "Ĺ": 193,
      "ĺ": 194,
      "Ļ": 195,
      "ļ": 196,
      "Ľ": 197,
      "ľ": 198,
      "Ŀ": 199,
      "ŀ": 200,
      "Ł": 201,
      "ł": 202,
      "Ń": 203,
      "áĪ": 204,
      "aĠ": 205,
      "Ġá": 206,
      "áī": 207,
      "áĬ": 208,
      "áĭ": 209,
      "nĠ": 210,
      "iĠ": 211,
      "eĠ": 212,
      "ar": 213,
      "an": 214,
      "áĮ": 215,
      "Ġáĭ": 216,
      "ĠáĬ": 217,
      "ĠáĪ": 218,
      "áį": 219,
      "áĬķ": 220,
      ",Ġ": 221,
      "Ġáī": 222,
      "»į": 223,
      "ÃŃ": 224,
      "in": 225,
      "oĠ": 226,
      "at": 227,
      "al": 228,
      "áīµ": 229,
      "á»į": 230,
      "sĠ": 231,
      "áĪŃ": 232,
      "Ãł": 233,
      "º¹": 234,
      "er": 235,
      "inĠ": 236,
      "waĠ": 237,
      "yaĠ": 238,
      "am": 239,
      "uĠ": 240,
      "áº¹": 241,
      "as": 242,
      "Ġáĭ¨": 243,
      "daĠ": 244,
      "áĭį": 245,
      "ak": 246,
      "anĠ": 247,
      "łáĪ": 248,
      "en": 249,
      "ik": 250,
      "arĠ": 251,
      "Ã©": 252,
      "áĪĿ": 253,
      "il": 254,
      "áĪį": 255,
      "áĪµ": 256,
      "áº¹Ì": 257,
      "Ã¬": 258,
      "ku": 259,
      "or": 260,
      "ÃŃĠ": 261,
      "is": 262,
      "on": 263,
      "Ã¡": 264,
      "naĠ": 265,
      "it": 266,
      "áį¢": 267,
      "á»įÌ": 268,
      "ab": 269,
      "tĠ": 270,
      "áĬĵ": 271,
      "Ġáīł": 272,
      "áī°": 273,
      "un": 274,
      "ir": 275,
      "áĭ«": 276,
      "áĪĪ": 277,
      "Ãº": 278,
      "ĠáĮ": 279,
      "taĠ": 280,
      "sh": 281,
      "áĭŃ": 282,
      "áĪĺ": 283,
      "ur": 284,
      "ĠáĬ¥": 285,
      "Ġt": 286,
      "ay": 287,
      "Ã³": 288,
      "19": 289,
      "áī½": 290,
      "gb": 291,
      "ch": 292,
      "onĠ": 293,
      "ad": 294,
      ".Ġ": 295,
      "Ã¨": 296,
      "ĠáĬł": 297,
      "el": 298,
      "áĭ°": 299,
      "áĬĲ": 300,
      "im": 301,
      "om": 302,
      "dĠ": 303,
      "ol": 304,
      "áī¥": 305,
      "es": 306,
      "áĪ¨": 307,
      "áĮĪ": 308,
      "áº¹ÌĢ": 309,
      "áĭµ": 310,
      "áº¹Ìģ": 311,
      "esĠ": 312,
      "á»įÌģ": 313,
      "áĪĭ": 314,
      "ĠáĬĲ": 315,
      "niĠ": 316,
      "áĮį": 317,
      "20": 318,
      "ĠáĪĺ": 319,
      "iy": 320,
      "áīł": 321,
      "¹£": 322,
      "áĪ«": 323,
      "ag": 324,
      "Ġ(": 325,
      "heĠ": 326,
      "áī³": 327,
      "unĠ": 328,
      "ĠáĬ¨": 329,
      "em": 330,
      "Ã²": 331,
      "aĠm": 332,
      "ok": 333,
      "a,Ġ": 334,
      "wá»į": 335,
      "áĬŃ": 336,
      "us": 337,
      "of": 338,
      ")Ġ": 339,
      "deĠ": 340,
      "ul": 341,
      "áĪĽ": 342,
      "ic": 343,
      "áĪ³": 344,
      "áī£": 345,
      "aĠk": 346,
      "af": 347,
      "yĠ": 348,
      "aj": 349,
      "ut": 350,
      "ali": 351,
      "Ġáį": 352,
      "Ã©Ġ": 353,
      "um": 354,
      "ek": 355,
      "wan": 356,
      "ÃłĠ": 357,
      "Ã¹": 358,
      "tiĠ": 359,
      "áĬĽ": 360,
      "Ġáī°": 361,
      "iaĠ": 362,
      "áĪª": 363,
      "ĠáĭŃ": 364,
      "á¹£": 365,
      "ĠáīłáĪ": 366,
      "enĠ": 367,
      "Ġáĭ¨áĪ": 368,
      "ing": 369,
      "Ġá»į": 370,
      "a.": 371,
      "uk": 372,
      "aw": 373,
      "ĠáĬłáĪ": 374,
      "âĢ": 375,
      "wá»įnĠ": 376,
      "áĪħ": 377,
      "ac": 378,
      "áĮ¥": 379,
      "áĬ¨": 380,
      "áį£": 381,
      "id": 382,
      "ĠáĪĿ": 383,
      "if": 384,
      "ah": 385,
      "ap": 386,
      "Ġáĭ¨áĬ": 387,
      "Ã³Ġ": 388,
      "ib": 389,
      "ĠáĭĪ": 390,
      "á»įÌĢ": 391,
      "áį¡": 392,
      "kum": 393,
      "áįį": 394,
      "áĭ³": 395,
      "ĠáĬĲáĭį": 396,
      "ig": 397,
      "aiĠ": 398,
      "áīĢ": 399,
      "az": 400,
      "laĠ": 401,
      "akaĠ": 402,
      "áĭ¨": 403,
      "ĠáĬ¥áĬķ": 404,
      "áº¹ÌĢĠ": 405,
      "e,Ġ": 406,
      "áĭĪ": 407,
      "araĠ": 408,
      "erĠ": 409,
      "ot": 410,
      "iĠyaĠ": 411,
      "os": 412,
      "baĠ": 413,
      "áĪ°": 414,
      "áīħ": 415,
      "áĪĮ": 416,
      "re": 417,
      "áĬ«": 418,
      "ÆĻ": 419,
      "ĠáĪĪ": 420,
      "nÃŃĠ": 421,
      "ĠA": 422,
      "leĠ": 423,
      "ÃºnĠ": 424,
      "ÃĢ": 425,
      "tr": 426,
      "áĬł": 427,
      "anaĠ": 428,
      "i,Ġ": 429,
      "áº¹ÌģĠ": 430,
      "ÃºĠ": 431,
      "qu": 432,
      "ĠáĬĲáĭįáį¢": 433,
      "ish": 434,
      "-Ġ": 435,
      "Ã¡Ġ": 436,
      "ĠáĪµ": 437,
      "áī¸": 438,
      "neĠ": 439,
      "nÃŃ": 440,
      "Ġáĭ«": 441,
      "ati": 442,
      "op": 443,
      "ceĠ": 444,
      "áĪī": 445,
      "Ġáĭĵ": 446,
      "isĠ": 447,
      "ug": 448,
      "á»įĠ": 449,
      "et": 450,
      "áīłáĪ": 451,
      "áĭĬ": 452,
      ":Ġ": 453,
      "áĭĭ": 454,
      "201": 455,
      "áĪ®": 456,
      "iĠwaĠ": 457,
      "shek": 458,
      "ang": 459,
      "áī±": 460,
      "İáī½": 461,
      "áī¸áĭį": 462,
      "zaĠ": 463,
      "áįĪ": 464,
      "ip": 465,
      "edĠ": 466,
      "uwaĠ": 467,
      "kumaĠ": 468,
      "ikaĠ": 469,
      "Ġáĭ¨áĪļ": 470,
      "iyaĠ": 471,
      "áĭĿ": 472,
      "ij": 473,
      "iĠk": 474,
      "áĮ£": 475,
      "pr": 476,
      "áĪįáį¢": 477,
      "áĪĨ": 478,
      "ĠáĪĽ": 479,
      "Ġk": 480,
      "og": 481,
      "200": 482,
      "ist": 483,
      "ob": 484,
      "ofĠ": 485,
      "áĭļ": 486,
      "áī¶": 487,
      "iv": 488,
      "tok": 489,
      "áĪ³áĪĮ": 490,
      "andĠ": 491,
      "Ã¨Ġ": 492,
      "áĮł": 493,
      "i.": 494,
      "and": 495,
      "áĮī": 496,
      "ed": 497,
      "alĠ": 498,
      "ikinĠ": 499,
      "all": 500,
      "th": 501,
      "ih": 502,
      "áĮĭ": 503,
      "ha": 504,
      "oj": 505,
      "18": 506,
      "ĠtheĠ": 507,
      "od": 508,
      "akeĠ": 509,
      "ec": 510,
      "ĠáīłáĬ": 511,
      "áĭ®": 512,
      "iĠm": 513,
      "ent": 514,
      "kas": 515,
      "ĠáĪĿáĪ³áĪĮ": 516,
      "ÌĢ": 517,
      "tÃŃĠ": 518,
      "lÃ¡": 519,
      "entĠ": 520,
      "ub": 521,
      "e.": 522,
      "aniĠ": 523,
      "Al": 524,
      "ud": 525,
      "ÃĮ": 526,
      "amaĠ": 527,
      "wat": 528,
      "ĠáĪ²": 529,
      "áĭ²": 530,
      "áĬķáĭµ": 531,
      "ĠáĮį": 532,
      "amb": 533,
      "Ġáīµ": 534,
      "ow": 535,
      "etĠ": 536,
      "fr": 537,
      "asĠ": 538,
      "Ġs": 539,
      "ash": 540,
      "atiĠ": 541,
      "áĭİáī½": 542,
      "Ġáĭĺ": 543,
      "áĪ¥": 544,
      "Ġáº¹": 545,
      "áīĥ": 546,
      "áĬĸ": 547,
      "áĪŀ": 548,
      "áĭĺ": 549,
      "ant": 550,
      "theĠ": 551,
      "rÃŃ": 552,
      "agaĠ": 553,
      "00": 554,
      "cikinĠ": 555,
      "ung": 556,
      "Ġáĭ¨áī°": 557,
      "toĠ": 558,
      "jeĠ": 559,
      "ĠáĬ¥áĬĵ": 560,
      "áĬĲáīµ": 561,
      "ĠáĪ°": 562,
      "Ã²Ġ": 563,
      "wakaĠ": 564,
      "Ġáī¥": 565,
      "le": 566,
      "áĬ¥": 567,
      "áĪĬ": 568,
      "áĪ©": 569,
      "Ġá¹£": 570,
      "Ãłwá»įnĠ": 571,
      "Ġáĭį": 572,
      "áĪĻ": 573,
      "Ã¬Ġ": 574,
      "Mar": 575,
      "iz": 576,
      "áĬķáĮį": 577,
      "st": 578,
      "ikiĠ": 579,
      "ĠtÃŃĠ": 580,
      "ti": 581,
      "ĠáīĢ": 582,
      "ov": 583,
      "ou": 584,
      "Ch": 585,
      "areĠ": 586,
      "AĠ": 587,
      "áīłáĪŃ": 588,
      "nd": 589,
      "ĭáĭŃ": 590,
      "Ġáĭ°": 591,
      "ew": 592,
      "dagaĠ": 593,
      "ĠáĬ¥áĬķáĭ°": 594,
      "ts": 595,
      "iĠnaĠ": 596,
      "áĭĽ": 597,
      "oĠyaĠ": 598,
      "Ġáĭ¨áĬłáĪ": 599,
      "ans": 600,
      "ann": 601,
      "ind": 602,
      "o,Ġ": 603,
      "shekar": 604,
      "áĪļ": 605,
      "ÃĢwá»įnĠ": 606,
      "anc": 607,
      "),Ġ": 608,
      "ÉĹ": 609,
      "á»įÌģĠ": 610,
      "ĠáĬŃ": 611,
      "was": 612,
      "ÅĦ": 613,
      "aĠyaĠ": 614,
      "áº¹Ġ": 615,
      "av": 616,
      "199": 617,
      "oy": 618,
      "áĪİ": 619,
      "ÃłtiĠ": 620,
      "oc": 621,
      "á»įÌģnĠ": 622,
      "uw": 623,
      "Ġá»įd": 624,
      "áĮħ": 625,
      "áī²": 626,
      "bÃŃĠ": 627,
      "áī¢": 628,
      "gaĠ": 629,
      "á»įÌĢĠ": 630,
      "waĠm": 631,
      "for": 632,
      "elĠ": 633,
      "ark": 634,
      "ep": 635,
      "áĬĳ": 636,
      "iyarĠ": 637,
      "eĠd": 638,
      "anz": 639,
      "au": 640,
      "ng": 641,
      "aĠnaĠ": 642,
      "áįĭ": 643,
      "oh": 644,
      "ĠáĪį": 645,
      "ÃłnĠ": 646,
      "auĠ": 647,
      "jáº¹ÌģĠ": 648,
      "Ġd": 649,
      "our": 650,
      "lesĠ": 651,
      "adaĠ": 652,
      "iniĠ": 653,
      "amm": 654,
      "áĬĿ": 655,
      "a.Ġ": 656,
      "Am": 657,
      "áĪ±": 658,
      "ataĠ": 659,
      "ÃŃl": 660,
      "waĠk": 661,
      "wen": 662,
      "áĪĨáĬķ": 663,
      "Sh": 664,
      "áį¤": 665,
      "0Ġ": 666,
      "ej": 667,
      "shiĠ": 668,
      "e-": 669,
      "a'": 670,
      "áĪ½": 671,
      "uz": 672,
      "inaĠ": 673,
      "ingĠ": 674,
      "Â«": 675,
      "áĮİ": 676,
      "ayaĠ": 677,
      "ter": 678,
      "hu": 679,
      "ĠáĪĭáĭŃ": 680,
      "daĠk": 681,
      "áĭ«áĬķ": 682,
      "ong": 683,
      "su": 684,
      "áĪĪáĭį": 685,
      "Ġáī³": 686,
      "Ġáĭµ": 687,
      "ariĠ": 688,
      "Wali": 689,
      "atikaĠ": 690,
      "áĪŃáĬĽ": 691,
      "uĠm": 692,
      "áĭ±": 693,
      "Ġáī£": 694,
      "áĪģ": 695,
      "1Ġ": 696,
      "wak": 697,
      "ats": 698,
      "usĠ": 699,
      "con": 700,
      "¢áīµ": 701,
      "198": 702,
      "áĭļáĪħ": 703,
      "kanĠ": 704,
      "Â»": 705,
      "kutok": 706,
      "âĢĻ": 707,
      "awaĠ": 708,
      "ajer": 709,
      "ĽáĪŃáĬĽ": 710,
      "¢áīµáĭ®": 711,
      "âĢĵ": 712,
      "5Ġ": 713,
      "áĮµ": 714,
      "áĬĴ": 715,
      "áĭķ": 716,
      "ation": 717,
      "2Ġ": 718,
      ").": 719,
      "eg": 720,
      "áīĨ": 721,
      "Ġá»įdÃºnĠ": 722,
      "áĮĢ": 723,
      "wá»įn": 724,
      "ĠáīłáĪĺ": 725,
      "estĠ": 726,
      "¢áīµáĭ®áĮµ": 727,
      ",Ġm": 728,
      "ineĠ": 729,
      "arĠdaĠ": 730,
      "TheĠ": 731,
      "ank": 732,
      "Ġ1": 733,
      "com": 734,
      "áĪĪáīµ": 735,
      "ráº¹ÌĢĠ": 736,
      "Ã¨d": 737,
      "áĮ½": 738,
      "pl": 739,
      "sam": 740,
      "áĪ¬": 741,
      "ta": 742,
      "asiĠ": 743,
      "áĮĪáĪŃ": 744,
      "Ã¬j": 745,
      "yeĠ": 746,
      "Najer": 747,
      "shekaraĠ": 748,
      "eb": 749,
      "áī¡": 750,
      "asaĠ": 751,
      "ez": 752,
      "áĪµáĮ¥": 753,
      "Itok": 754,
      "ÃŃn": 755,
      "¢áīµáĭ®áĮµáĭ«": 756,
      "l'": 757,
      "Ġáĭ¨áĬłáĪĽáĪŃáĬĽ": 758,
      "iwaĠ": 759,
      ";Ġ": 760,
      "áĪ¨áīµ": 761,
      "197": 762,
      "ĠáĪĿáĪ³áĪĮĠáĬĲáĭįáį¢": 763,
      "shekararĠ": 764,
      "asarĠ": 765,
      "ev": 766,
      "Ġáĭ¨áĬłáĪĽáĪŃáĬĽĠáĪĿáĪ³áĪĮĠáĬĲáĭįáį¢": 767,
      "áīłáīµ": 768,
      "siĠ": 769,
      "ĠáĬĲáīłáĪŃ": 770,
      "áĭľ": 771,
      "ĠáĮ¥": 772,
      "aĠh": 773,
      "ion": 774,
      "196": 775,
      "áĪĺáĬķ": 776,
      "ers": 777,
      "6Ġ": 778,
      "reĠ": 779,
      "wá»įÌģnĠ": 780,
      "7Ġ": 781,
      "áĪ»": 782,
      "4Ġ": 783,
      "ationĠ": 784,
      "lÃºĠ": 785,
      "end": 786,
      "yiĠ": 787,
      "ayinĠ": 788,
      "ĠáĭĪáĭ°": 789,
      "ex": 790,
      "ĠáĪĨ": 791,
      "3Ġ": 792,
      "ileĠ": 793,
      "oz": 794,
      "ĠáĮĪ": 795,
      "Ã©r": 796,
      "áĪµáīµ": 797,
      "nch": 798,
      "ĠáĬ¨áī°": 799,
      "up": 800,
      "ill": 801,
      "ani": 802,
      "ikuwaĠ": 803,
      "»Į": 804,
      "áī»": 805,
      "aĠdaĠ": 806,
      "oĠk": 807,
      "ĠáĬķ": 808,
      "any": 809,
      "hĠ": 810,
      "Ab": 811,
      "uh": 812,
      "yÃ¬": 813,
      "oĠm": 814,
      "ach": 815,
      "áĭ©": 816,
      "gbaĠ": 817,
      "nÃ¡": 818,
      "kutokaĠ": 819,
      "lÃ³": 820,
      ".ĠM": 821,
      "ich": 822,
      "naĠm": 823,
      "áĭĵ": 824,
      "und": 825,
      "Ã¹Ġ": 826,
      "áįĬ": 827,
      "o.": 828,
      "áĭįáĬķ": 829,
      "sÃŃĠ": 830,
      "áī¶áī½": 831,
      "nÃŃn": 832,
      "wandaĠ": 833,
      "Afr": 834,
      "ĠáĬ¥áĪµ": 835,
      "arinĠ": 836,
      "ionĠ": 837,
      "art": 838,
      "ĠáĭįáĪµáĮ¥": 839,
      "anceĠ": 840,
      "ĠáĬłáĭŃ": 841,
      "Ã¹nĠ": 842,
      "abb": 843,
      "áĪŃáĮī": 844,
      "aĠcikinĠ": 845,
      "iharĠ": 846,
      "aut": 847,
      "itaĠ": 848,
      "bay": 849,
      "wa": 850,
      "Ĭáĭľ": 851,
      "shekaraĠtaĠ": 852,
      "áĮłáĪ": 853,
      "uĠyaĠ": 854,
      "Ã¨dÃ¨Ġ": 855,
      "áĪªáĭ«": 856,
      "ain": 857,
      "áĬĶ": 858,
      "ItokasiĠ": 859,
      "uc": 860,
      "ĠtiĠ": 861,
      "iá¹£": 862,
      "ef": 863,
      "air": 864,
      "áīĭ": 865,
      "ĠáĪģ": 866,
      "áĭ¶": 867,
      "iqu": 868,
      "wam": 869,
      "rÃ©": 870,
      "St": 871,
      "biĠ": 872,
      "áĪ²": 873,
      "aĠs": 874,
      "áĬĽáĭį": 875,
      "daĠs": 876,
      "s,Ġ": 877,
      "áĬłáĪ": 878,
      "láº¹ÌĢĠ": 879,
      "áī¦": 880,
      "ioĠ": 881,
      "áĭŃáĪĿ": 882,
      "8Ġ": 883,
      "meĠ": 884,
      "kar": 885,
      "Ġáº¹ÌĢ": 886,
      "ass": 887,
      "u,Ġ": 888,
      "iw": 889,
      "rinĠ": 890,
      "yaĠK": 891,
      "áĬ¤": 892,
      "fÃºnĠ": 893,
      "áĪŃáĪµ": 894,
      "áĪľ": 895,
      "Ar": 896,
      "tar": 897,
      "Ġáīłáī°": 898,
      "gbÃł": 899,
      "Pr": 900,
      "áĪĲ": 901,
      "áĭĻ": 902,
      "9Ġ": 903,
      "aĠtaĠ": 904,
      "áĬ®": 905,
      "Ad": 906,
      "emb": 907,
      "agb": 908,
      "áī¤": 909,
      "se": 910,
      "Ġáīħ": 911,
      "Jam": 912,
      "uf": 913,
      "ny": 914,
      "icĠ": 915,
      "Ãĵ": 916,
      "ĠáĬłáĪµ": 917,
      "ukaĠ": 918,
      "ĠáĪ¥": 919,
      "aninĠ": 920,
      "Ġáī¤": 921,
      "ĠáĬ«": 922,
      "ran": 923,
      "Ġá¹£eĠ": 924,
      "ĠáīµáĪŃáĮī": 925,
      "Ġáĭ¨áĪĺ": 926,
      "ereĠ": 927,
      "rist": 928,
      "ÃŃrÃŃ": 929,
      "195": 930,
      "zuwaĠ": 931,
      "áĬ©": 932,
      "aur": 933,
      "ell": 934,
      "Ġá»įm": 935,
      "ugh": 936,
      "ĠáĮįáĬķ": 937,
      "áĪªáĬŃ": 938,
      "ĠáĬ¥áĬķáĭ²": 939,
      "ÅĦĠ": 940,
      "\"Ġ": 941,
      "ĠÂ«": 942,
      "aliĠ": 943,
      "Nob": 944,
      "ieĠ": 945,
      "ĠáĮĭ": 946,
      "itĠ": 947,
      "Ġáĭ¨áĬł": 948,
      "atik": 949,
      "áīģ": 950,
      "áĮ¨": 951,
      "ciĠ": 952,
      "raĠ": 953,
      "In": 954,
      "atĠ": 955,
      "Br": 956,
      "war": 957,
      "uneĠ": 958,
      "Ġá»įÌĢ": 959,
      "áī¹": 960,
      "suĠ": 961,
      "ofĠtheĠ": 962,
      "áīłáĪ¨": 963,
      "ĠtoĠ": 964,
      "acinĠ": 965,
      "Ãłk": 966,
      "NobelĠ": 967,
      "jam": 968,
      "ĠáĪ²áĪĨáĬķ": 969,
      "Mak": 970,
      "est": 971,
      "awonĠ": 972,
      "áį¡áį¡": 973,
      "ĭáĪĭ": 974,
      "orĠ": 975,
      "An": 976,
      "Il": 977,
      "Ġá»Į": 978,
      "aĠd": 979,
      "áĮĥ": 980,
      "áĬŃáĪį": 981,
      "áĪĥ": 982,
      "»áį": 983,
      "ni": 984,
      "aĠb": 985,
      "iiĠ": 986,
      "ĠáīµáĪŃáĮīáĪĻ": 987,
      "aadaĠ": 988,
      "NÃł": 989,
      "anĠm": 990,
      "atsayinĠ": 991,
      "ĠáĬĲáīłáĪŃáį¢": 992,
      "Kar": 993,
      "haif": 994,
      "17": 995,
      "ansĠ": 996,
      "ĠáīłáĬł": 997,
      "ĠáĬłáĬķ": 998,
      "Un": 999,
      "tak": 1000,
      "áĪ´": 1001,
      ".áĪĿ": 1002,
      "Ġá»įj": 1003,
      "anĠk": 1004,
      "NÃłÃ¬j": 1005,
      "aliwaĠ": 1006,
      "u.": 1007,
      "nÃŃnÃºĠ": 1008,
      "Ã¬n": 1009,
      "ess": 1010,
      "inc": 1011,
      "ĠáĪ³": 1012,
      "²áį": 1013,
      "áī´": 1014,
      "NÃłÃ¬jÃŃrÃŃ": 1015,
      "aĠy": 1016,
      "antĠ": 1017,
      "had": 1018,
      "imb": 1019,
      "iliĠ": 1020,
      "aĠku": 1021,
      "áĮŃ": 1022,
      "daĠm": 1023,
      "ĠáĪĺáĬķáĮį": 1024,
      "Ãłn": 1025,
      "ewaĠ": 1026,
      "Ġáĭ¨áĬłáĪĽáĪŃáĬĽĠáĪĿáĪ³áĪĮĠáĬĲáĭįáį¢ĠáīµáĪŃáĮīáĪĻ": 1027,
      "Ã¬y": 1028,
      "ĠáĮĬáĭľ": 1029,
      "watanĠ": 1030,
      "ĠáīĢáĬķ": 1031,
      "ementĠ": 1032,
      "eoĠ": 1033,
      "rÃŃĠ": 1034,
      "wall": 1035,
      "Ġáĭĭ": 1036,
      "Ġ-": 1037,
      "|Ġ": 1038,
      "ond": 1039,
      "ĠáĭĪáĭŃáĪĿ": 1040,
      "orÃŃl": 1041,
      "eng": 1042,
      "har": 1043,
      "uĠk": 1044,
      "áī³áīµ": 1045,
      "Ãºn": 1046,
      "Ġáĭĵ.áĪĿ": 1047,
      "fir": 1048,
      "ayeĠ": 1049,
      "Ol": 1050,
      "amarĠ": 1051,
      "áĪªáĬ«": 1052,
      "ĠM": 1053,
      "fiĠ": 1054,
      "tÃŃĠÃ³Ġ": 1055,
      "Ã¬d": 1056,
      "194": 1057,
      "aneĠ": 1058,
      "NajeriyaĠ": 1059,
      "daĠy": 1060,
      "15": 1061,
      "desĠ": 1062,
      "eri": 1063,
      "es,Ġ": 1064,
      "ĠáĪµáĪĪ": 1065,
      "ĠáĬĵ": 1066,
      "ĠáĬłáĪĪ": 1067,
      "wonĠ": 1068,
      "erÃ©Ġ": 1069,
      "gab": 1070,
      "áĪ¨áīµáĬĵ": 1071,
      "Th": 1072,
      "ĠáĪĬ": 1073,
      "áĮ»": 1074,
      "16": 1075,
      "aĠl": 1076,
      "Ġáī¢": 1077,
      "ĠáįĪ": 1078,
      "wakaĠwaĠ": 1079,
      "oĠwaĠ": 1080,
      "ĠáĬ¥áĪµáĬ¨": 1081,
      "Or": 1082,
      "arr": 1083,
      "áĪĪáĪĿ": 1084,
      "ĠáĬķáĮī": 1085,
      "ĠáīłáĬĭáĪĭ": 1086,
      "áĪ¨áīµáĬĵĠáĪĿáĪ³áĪĮ": 1087,
      "Walioz": 1088,
      "áĪ¥áīµ": 1089,
      "nanĠ": 1090,
      "unaĠ": 1091,
      "ibiĠ": 1092,
      "áį»áį": 1093,
      "ĠáĭŃáĪħ": 1094,
      "lÃ¡tiĠ": 1095,
      "wasĠ": 1096,
      "bir": 1097,
      "fark": 1098,
      "dÃ©": 1099,
      "II": 1100,
      "ĠáĭĺáĪĺáĬķ": 1101,
      "uĠwaĠ": 1102,
      "funĠ": 1103,
      "áĪ¨áĪµ": 1104,
      "wal": 1105,
      "aĠwaĠ": 1106,
      "azar": 1107,
      "áĬķáĪĿ": 1108,
      "yaĠk": 1109,
      "par": 1110,
      "kuwaĠ": 1111,
      "urĠ": 1112,
      "ofar": 1113,
      "âĢĵĠ": 1114,
      "aif": 1115,
      "xĠ": 1116,
      "áº¹ÌĢ-": 1117,
      "aĠmatsayinĠ": 1118,
      "Nig": 1119,
      "a-": 1120,
      "ĠáĬŃáįį": 1121,
      "Fr": 1122,
      "áĪ®áī½": 1123,
      "á¹£Ã¨": 1124,
      "ugab": 1125,
      "As": 1126,
      "ká»įÌģĠ": 1127,
      "lá»įÌģ": 1128,
      "áĪķ": 1129,
      "áĮ«": 1130,
      "ilĠ": 1131,
      "wali": 1132,
      "AnĠ": 1133,
      "Ġáī°áĪ¨áīµáĬĵĠáĪĿáĪ³áĪĮ": 1134,
      "ĠáĬ¨áī°áĪĽ": 1135,
      "Waliofar": 1136,
      "lÃ©": 1137,
      "uzoĠyaĠ": 1138,
      "eĠdeĠ": 1139,
      "sÃ¬": 1140,
      "ÆĻasarĠ": 1141,
      "maiĠ": 1142,
      "pÃŃn": 1143,
      "apaĠ": 1144,
      "daĠkumaĠ": 1145,
      "eĠ(": 1146,
      "TuzoĠyaĠ": 1147,
      "aĠg": 1148,
      "ityĠ": 1149,
      "Man": 1150,
      "ey": 1151,
      "oĠniĠ": 1152,
      "chaĠ": 1153,
      "ersĠ": 1154,
      "ayy": 1155,
      "áĮĪáĬ": 1156,
      "áĭİ": 1157,
      "daĠkeĠ": 1158,
      "Kan": 1159,
      "bÃŃ": 1160,
      "d'": 1161,
      "asuĠ": 1162,
      "Ġth": 1163,
      "Marek": 1164,
      "att": 1165,
      "Ã¬t": 1166,
      "ÃĴ": 1167,
      "ĠáĭĵáĪĺ": 1168,
      "shir": 1169,
      "ais": 1170,
      "edeĠ": 1171,
      "Ib": 1172,
      "s.": 1173,
      "wit": 1174,
      ".ĠItokasiĠ": 1175,
      "wenyeĠ": 1176,
      "áĪŃáĭ«": 1177,
      "aceĠ": 1178,
      "kĠ": 1179,
      "ĠáĪĪáĪĺ": 1180,
      "wh": 1181,
      "amf": 1182,
      "áįĵ": 1183,
      "áĮĢáĪĺ": 1184,
      "Ġáĭķ": 1185,
      "193": 1186,
      "shind": 1187,
      "Is": 1188,
      "áī°áĬĽ": 1189,
      "Ãłr": 1190,
      "yanaĠ": 1191,
      "ro": 1192,
      "'sĠ": 1193,
      "aid": 1194,
      "yaĠm": 1195,
      "inĠm": 1196,
      "ĠtÃŃĠÃ³Ġ": 1197,
      "áĭ´": 1198,
      "Ġáĭĵ.áĪĿ.": 1199,
      "10": 1200,
      "tur": 1201,
      "sÃ¬Ġ": 1202,
      "seĠ": 1203,
      "iki": 1204,
      "nÃ¡ÃłĠ": 1205,
      "áĮįáĪŀ": 1206,
      "duĠ": 1207,
      "ins": 1208,
      "ari": 1209,
      "TuzoĠyaĠNobelĠ": 1210,
      "biy": 1211,
      "áį¦": 1212,
      "Ġáĭ«áĪį": 1213,
      "ninĠ": 1214,
      "paĠ": 1215,
      "áĭµáĪŃ": 1216,
      "ilim": 1217,
      "jiharĠ": 1218,
      "waniĠ": 1219,
      "14": 1220,
      "ai": 1221,
      "amĠ": 1222,
      "ĠáĮĢ": 1223,
      "áĪ¶": 1224,
      "sunĠ": 1225,
      "ĠáĬĲáĮĪ": 1226,
      "Ġáįį": 1227,
      "ĠáĬ¢": 1228,
      "neĠyaĠ": 1229,
      "y,Ġ": 1230,
      "sab": 1231,
      "áī³áĭĪ": 1232,
      "Ġá»įjá»įÌģ": 1233,
      "Ġáīģ": 1234,
      "por": 1235,
      "aĠf": 1236,
      "shindiĠwaĠ": 1237,
      "san": 1238,
      "ĠáĪķ": 1239,
      "áīµáĬķ": 1240,
      "ile-": 1241,
      "WaliozaliwaĠ": 1242,
      "ĠáĮĭáĪŃ": 1243,
      "Ġá»įmá»įĠ": 1244,
      "ĠáīłáĪĽ": 1245,
      "aryĠ": 1246,
      "umb": 1247,
      "tareĠ": 1248,
      "yÃŃĠ": 1249,
      "uj": 1250,
      "mĠ": 1251,
      "oĠnaĠ": 1252,
      "gbÃłĠ": 1253,
      "ele": 1254,
      "an,Ġ": 1255,
      "áĬŃáĪįáīł": 1256,
      "lá»įĠ": 1257,
      "Ġáį¡": 1258,
      "aĠ(": 1259,
      "aĠshekaraĠtaĠ": 1260,
      "Ã¬lÃºĠ": 1261,
      "alis": 1262,
      "áĪīáį¢": 1263,
      "Nij": 1264,
      "inuĠ": 1265,
      "oá¹£": 1266,
      "áīĤ": 1267,
      "ĠáĭĵáĬŃáĪįáīł": 1268,
      "vyaĠ": 1269,
      "máº¹Ìģ": 1270,
      "yan": 1271,
      "áĪİáī½": 1272,
      "aĠkar": 1273,
      "..": 1274,
      "bÃ¡": 1275,
      "parĠ": 1276,
      "áĮ¡": 1277,
      "áĭ°áĪ¨": 1278,
      "ard": 1279,
      "ph": 1280,
      "wÃłĠ": 1281,
      "ath": 1282,
      "BaadaĠ": 1283,
      "ili": 1284,
      "bÃ¡Ġ": 1285,
      "atuk": 1286,
      "iĠ(": 1287,
      "ĠáĪļ": 1288,
      "¦áĪŃ": 1289,
      "abuĠ": 1290,
      "Ġáĭ°áĮįáĪŀ": 1291,
      "inĠk": 1292,
      "ĠáĬłáĬķáĭµ": 1293,
      "Ãłwá»įn": 1294,
      "ya": 1295,
      "Ã¹n": 1296,
      "eĠm": 1297,
      "aisĠ": 1298,
      "Ak": 1299,
      "áĭ°áĪŃ": 1300,
      "donĠ": 1301,
      "kub": 1302,
      "zam": 1303,
      "ĠáĬłáĪį": 1304,
      "áī°áĪ¨": 1305,
      "far": 1306,
      "áĪĺáĬĲ": 1307,
      "amuĠ": 1308,
      "Wak": 1309,
      "shindiĠwaĠTuzoĠyaĠNobelĠ": 1310,
      "ontĠ": 1311,
      "anaĠnaĠ": 1312,
      "ranarĠ": 1313,
      "aĠM": 1314,
      "wasanĠ": 1315,
      "Ok": 1316,
      "iya.": 1317,
      "áĮĪáĬĿ": 1318,
      "áĪŃáīµ": 1319,
      "WaliofarikiĠ": 1320,
      "láº¹Ìģ": 1321,
      "iláº¹ÌĢĠ": 1322,
      "áº¹ÌĢ-Ã¨dÃ¨Ġ": 1323,
      "Tar": 1324,
      "sÃŃ": 1325,
      "obaĠ": 1326,
      "ezaĠ": 1327,
      "ráº¹ÌĢ": 1328,
      "istor": 1329,
      "fin": 1330,
      "Ã¬w": 1331,
      "olÃ³": 1332,
      "Ġ2": 1333,
      "Yor": 1334,
      "ĠS": 1335,
      "abbanĠ": 1336,
      "fil": 1337,
      "âĢľ": 1338,
      "áĬķáīµ": 1339,
      "pÃ©Ġ": 1340,
      "Ã¨n": 1341,
      "embaĠ": 1342,
      "olog": 1343,
      "annanĠ": 1344,
      "omb": 1345,
      "Ġáĭ¨áĬ¢áīµáĭ®áĮµáĭ«": 1346,
      "ĠáĪĺáĬķáĮįáĪ¥áīµ": 1347,
      "áĬķáĪµ": 1348,
      "okacinĠ": 1349,
      "ect": 1350,
      "Ã©-": 1351,
      "koĠ": 1352,
      "wallonĠ": 1353,
      "haifeĠ": 1354,
      "áĪĶ": 1355,
      "alikuwaĠ": 1356,
      "uku": 1357,
      "Ã²r": 1358,
      "12": 1359,
      "ĠáĪĪáĪĽ": 1360,
      "dun": 1361,
      "ens": 1362,
      "awá»įnĠ": 1363,
      "áīłáĪ©": 1364,
      "áĬķáīĭ": 1365,
      "diĠ": 1366,
      "Tanz": 1367,
      "out": 1368,
      "pÃŃnláº¹ÌĢĠ": 1369,
      "deĠlaĠ": 1370,
      "aĠt": 1371,
      "áĬª": 1372,
      "áī½áĬķ": 1373,
      "omĠ": 1374,
      "áĪĭáĪįáį¢": 1375,
      "ÃĪ": 1376,
      "ĠáĪĨáĬĲ": 1377,
      "Ġáĭ¨áĬĲ": 1378,
      "13": 1379,
      "áĬĵáīµ": 1380,
      "ourĠ": 1381,
      "eĠs": 1382,
      "aus": 1383,
      "irĠ": 1384,
      "ogb": 1385,
      "Ãł.": 1386,
      "uwarĠ": 1387,
      "hal": 1388,
      "ĠáĪįáĮħ": 1389,
      "Jan": 1390,
      "Ki": 1391,
      "ask": 1392,
      "i'": 1393,
      "uĠmwakaĠ": 1394,
      ").ĠM": 1395,
      "aĠkwaĠ": 1396,
      "Ã¬m": 1397,
      "âĢĿ": 1398,
      "yarĠ": 1399,
      "afiĠ": 1400,
      "yakeĠ": 1401,
      "ia": 1402,
      "cl": 1403,
      "PapaĠ": 1404,
      "ĠáĭµáĪ¨áĪµ": 1405,
      "ivers": 1406,
      "ĠáĭĿ": 1407,
      "pe": 1408,
      "ajiĠ": 1409,
      "in,Ġ": 1410,
      "áĭļáĭ«": 1411,
      "aĠaĠ": 1412,
      "áįī": 1413,
      "cr": 1414,
      "sunaĠ": 1415,
      "inger": 1416,
      "osĠ": 1417,
      "ateĠ": 1418,
      "ĠáĭĵáĬŃáĪįáīł.": 1419,
      "ogr": 1420,
      "oun": 1421,
      "iá¹£áº¹ÌģĠ": 1422,
      "Ġáĭ«áĪįáī°": 1423,
      "It": 1424,
      "Rom": 1425,
      "nam": 1426,
      "Ã¬l": 1427,
      "asi": 1428,
      "Amer": 1429,
      "eh": 1430,
      "kut": 1431,
      "byĠ": 1432,
      "akiĠ": 1433,
      "ayĠ": 1434,
      "áĭ°áī¥": 1435,
      "daĠd": 1436,
      "aniaĠ": 1437,
      "192": 1438,
      "enc": 1439,
      "áī°áĪ¨áĮİ": 1440,
      "aziĠ": 1441,
      "jer": 1442,
      "oll": 1443,
      "atiĠyaĠ": 1444,
      "tionĠ": 1445,
      "aleĠ": 1446,
      "AfrikaĠ": 1447,
      "atikaĠm": 1448,
      "ĠáĪħ": 1449,
      "Ã³Ġt": 1450,
      "áĮĬ": 1451,
      "Mus": 1452,
      "ĠáĬ¤": 1453,
      "áī£áĪį": 1454,
      "gr": 1455,
      "o-": 1456,
      "iya,Ġ": 1457,
      "Ã¹Ġk": 1458,
      "Ġáĭ¨áĬ¥": 1459,
      "Ġáīĭ": 1460,
      "ĠáĪµáĪĿ": 1461,
      "ĠáĪĮ": 1462,
      "itt": 1463,
      "kus": 1464,
      "azartaĠ": 1465,
      "eur": 1466,
      "ÃĢwá»įn": 1467,
      "áĪĨáĬĳ": 1468,
      "áĪ£": 1469,
      "áĪ¸": 1470,
      "queĠ": 1471,
      "ĠáĬłáĮĪ": 1472,
      "ĠáĪĢ": 1473,
      "ĠáīłáĬ¥": 1474,
      "org": 1475,
      "ri": 1476,
      "²áį±": 1477,
      "soĠ": 1478,
      "ká»įĠ": 1479,
      "áī¸áĭįáį¢": 1480,
      "inah": 1481,
      "lá»į": 1482,
      "bu": 1483,
      "áĬķáĭ«": 1484,
      "indaĠ": 1485,
      "ĠáĪĽáĪĪáīµ": 1486,
      "danĠ": 1487,
      "ÃĵĠ": 1488,
      "Ã¬yÃłnĠ": 1489,
      "áĪĬáĭĿ": 1490,
      "New": 1491,
      "per": 1492,
      "esh": 1493,
      "Ã¡n": 1494,
      ",00": 1495,
      "º¸": 1496,
      "oriĠ": 1497,
      "áĪłáĪ": 1498,
      "jáº¹Ìģ": 1499,
      "ĠáĪĥ": 1500,
      "latiĠ": 1501,
      "lyĠ": 1502,
      "áī¸áĭįáĬķ": 1503,
      "afinĠ": 1504,
      "Nijer": 1505,
      "ĠáĬķáĮīáĪ¥": 1506,
      "es.": 1507,
      "áĬ¨áī°": 1508,
      "ile-edeĠ": 1509,
      "áī±áĬķ": 1510,
      "antaĠ": 1511,
      "sonĠ": 1512,
      "áĪµáī°": 1513,
      "El": 1514,
      "Afir": 1515,
      "áĭįáĭ«áĬķ": 1516,
      "kasanceĠ": 1517,
      "ouĠ": 1518,
      "áįķ": 1519,
      "waj": 1520,
      "oĠ(": 1521,
      "ht": 1522,
      "aĠhiiĠ": 1523,
      "orÃŃláº¹ÌĢ-Ã¨dÃ¨Ġ": 1524,
      "aul": 1525,
      "áī°áĪ¨áĮİáĪĺ": 1526,
      "alÃ¡": 1527,
      "Ġáĭ¨áĪļáĭ«": 1528,
      "uĠnaĠ": 1529,
      "waĠnaĠ": 1530,
      "Ã©t": 1531,
      "er,Ġ": 1532,
      "áĪĢ": 1533,
      "áº¹Ìģg": 1534,
      "áī£áī¢": 1535,
      "ĠB": 1536,
      "iriĠ": 1537,
      "ĠáĬłáĪĺ": 1538,
      "wad": 1539,
      "Ġáī³áĪªáĬŃ": 1540,
      "Makal": 1541,
      "abiĠ": 1542,
      "nchiĠ": 1543,
      "ĠáīłáĬłáĪ": 1544,
      "Ġáĭ«áĪįáī°áī°áĪ¨áĮİáĪĺ": 1545,
      "Ġáĭ«áĪįáī°áī°áĪ¨áĮİáĪĺĠáĪĿáĪ³áĪĮ": 1546,
      "bayanĠ": 1547,
      "²áį±áį»áį": 1548,
      "hak": 1549,
      "áĬķáĮ": 1550,
      "inahus": 1551,
      "lugh": 1552,
      "atif": 1553,
      "ma": 1554,
      "pos": 1555,
      "áĪĦ": 1556,
      "on,Ġ": 1557,
      "ĠáĮī": 1558,
      "inĠtheĠ": 1559,
      "ĠáĪ°áĭį": 1560,
      "ageĠ": 1561,
      "risto": 1562,
      "ju": 1563,
      "iss": 1564,
      "ĠáīĭáĬķáīĭ": 1565,
      "áĭĽáīµ": 1566,
      "Ġáĭ¨áĬłáĪĽáĪŃáĬĽĠáĪĿáĪ³áĪĮĠáĬĲáĭįáį¢ĠáīµáĪŃáĮīáĪĻĠáĭ«áĪįáī°áī°áĪ¨áĮİáĪĺĠáĪĿáĪ³áĪĮ": 1567,
      "iliy": 1568,
      "kÃł": 1569,
      "ne": 1570,
      "urk": 1571,
      "áĪŀáī½": 1572,
      "JiharĠ": 1573,
      "Joh": 1574,
      "189": 1575,
      "chĠ": 1576,
      "páº¹ÌĢ": 1577,
      "awanĠ": 1578,
      "ahĠ": 1579,
      "oth": 1580,
      "dÃ¡": 1581,
      "áĮ¥áĪŃ": 1582,
      "MakalaĠhiiĠ": 1583,
      "Vi": 1584,
      "MakalaĠhiiĠinahus": 1585,
      "MakalaĠhiiĠinahusuĠmwakaĠ": 1586,
      "NÃŃ": 1587,
      "yanĠ": 1588,
      "áĪ«áīµ": 1589,
      "Ġáĭ³": 1590,
      "ra": 1591,
      "farkoĠ": 1592,
      "shindiĠwaĠTuzoĠyaĠNobelĠyaĠ": 1593,
      "akar": 1594,
      "ninuĠ": 1595,
      "áī£áīµ": 1596,
      "áĪł": 1597,
      "áī¥áĪŃ": 1598,
      "atukioĠ": 1599,
      "piaĠ": 1600,
      "ĠáĬłáĬ«": 1601,
      "Ġáį£": 1602,
      "tanaĠ": 1603,
      "190": 1604,
      "áĪįáĬŃ": 1605,
      "kÃ³": 1606,
      "ord": 1607,
      "ouv": 1608,
      "tÃ³Ġ": 1609,
      "mÃ¡": 1610,
      "ankinĠ": 1611,
      "/áĪĿ": 1612,
      "Ġáĭ¨áĪĽ": 1613,
      "gbÃ©": 1614,
      "gbeĠ": 1615,
      "man": 1616,
      "áĭĭáĪįáį¢": 1617,
      "int": 1618,
      "Ġáī¥áĭĻ": 1619,
      "ianĠ": 1620,
      "shugab": 1621,
      "umĠ": 1622,
      "andaĠ": 1623,
      "Ind": 1624,
      "=Ġ": 1625,
      "ayiĠ": 1626,
      "Gu": 1627,
      "oteĠ": 1628,
      "yÃ¬nĠ": 1629,
      "yaĠKristo": 1630,
      "Ã¨nÃ¬yÃłnĠ": 1631,
      "Afirk": 1632,
      "wÃ¡": 1633,
      "Ã¨r": 1634,
      "áĪĭáīµ": 1635,
      "dagaĠcikinĠ": 1636,
      "0.": 1637,
      "anĠhaifeĠ": 1638,
      "ĠáĭŃáĮĪ": 1639,
      "way": 1640,
      "áĬ¨áĪį": 1641,
      "emi": 1642,
      "áĪĿáĪ®": 1643,
      "eaĠ": 1644,
      "tareĠdaĠ": 1645,
      "yaĠKristo).ĠM": 1646,
      "Wa": 1647,
      "Ġ(BaadaĠ": 1648,
      "ishaĠ": 1649,
      "gaĠwatanĠ": 1650,
      "yÃ¬ÃŃĠ": 1651,
      "asar": 1652,
      "Ġ(BaadaĠyaĠKristo).ĠM": 1653,
      "Ã²á¹£Ã¨": 1654,
      "orile-edeĠ": 1655,
      "quiĠ": 1656,
      "lak": 1657,
      "Ġáĭĵ/áĪĿ": 1658,
      "weng": 1659,
      "ĠáĪŀ": 1660,
      "shekararĠ201": 1661,
      "arg": 1662,
      "ept": 1663,
      "lÃ©Ġ": 1664,
      "enceĠ": 1665,
      "ĠáĮł": 1666,
      "áĪĭáĪį": 1667,
      "ÃŃá¹£": 1668,
      "áĪ³áĭŃ": 1669,
      "peĠ": 1670,
      "olaĠ": 1671,
      "báº¹ÌĢ": 1672,
      "tern": 1673,
      "sun": 1674,
      "yinĠ": 1675,
      "ĠáĪĻ": 1676,
      "ru": 1677,
      "Univers": 1678,
      "mut": 1679,
      "birninĠ": 1680,
      "1.": 1681,
      "áī³áĭĬ": 1682,
      "ool": 1683,
      "nÃŃĠá»įdÃºnĠ": 1684,
      "Ã¬á¹£": 1685,
      ")ĠjeĠ": 1686,
      "aik": 1687,
      "i.Ġ": 1688,
      "niĠm": 1689,
      "form": 1690,
      "ĠáĬłáĪµáī°": 1691,
      "áĪĿáĪħ": 1692,
      "Ing": 1693,
      "pam": 1694,
      "áĮĤ": 1695,
      "ĠáĮ½": 1696,
      "ser": 1697,
      "ĠáĮİ": 1698,
      "uat": 1699,
      "aĠkatikaĠ": 1700,
      "Com": 1701,
      "ÆĻwallonĠ": 1702,
      "arÃ¡Ġ": 1703,
      "ilikuwaĠ": 1704,
      "1,Ġ": 1705,
      "áĪĺáĪŃ": 1706,
      "imĠ": 1707,
      "ett": 1708,
      "ľáĪªáĬ«": 1709,
      "ian": 1710,
      "pá»įÌĢĠ": 1711,
      "ĠáĪ³áĭŃ": 1712,
      "En": 1713,
      "ĠáĬ¥áĬķáĭ³": 1714,
      "shiĠneĠ": 1715,
      "be": 1716,
      "act": 1717,
      "ĠáĭĭáĬĵ": 1718,
      "Gr": 1719,
      "Jul": 1720,
      "áĬķáĭ³": 1721,
      "ĠáĬ®": 1722,
      "li": 1723,
      "áĮĨ": 1724,
      "áĭ²áĪµ": 1725,
      "gu": 1726,
      "ĠáīłáĪļ": 1727,
      "ern": 1728,
      "add": 1729,
      ".áĬł": 1730,
      "zin": 1731,
      "Ãłt": 1732,
      "icanĠ": 1733,
      "auk": 1734,
      "áĮįáĪŃ": 1735,
      "mat": 1736,
      "ĠáĪĺáĬķ": 1737,
      "ĠáĪĺáĪµ": 1738,
      "Ġ(BaadaĠyaĠKristo).ĠMatukioĠ": 1739,
      "maĠ": 1740,
      "áī·": 1741,
      "ci": 1742,
      "comm": 1743,
      "hisĠ": 1744,
      "abil": 1745,
      "mÃ©": 1746,
      "ast": 1747,
      "forĠ": 1748,
      "inĠdaĠ": 1749,
      "1-": 1750,
      "áĮłáĪŃ": 1751,
      "Mat": 1752,
      "tÃŃĠwá»įÌģnĠ": 1753,
      "Ġáī¤áī°": 1754,
      "a)Ġ": 1755,
      "kul": 1756,
      "Ġáį¢": 1757,
      "áĭĿáī¥": 1758,
      "áĪĭáĭŃ": 1759,
      "aikiĠ": 1760,
      "Éĵ": 1761,
      "andeĠ": 1762,
      "áĮĪáĬĺ": 1763,
      "zamaĠ": 1764,
      "oĠl": 1765,
      "ustr": 1766,
      "ulk": 1767,
      "uniĠ": 1768,
      "amp": 1769,
      "áĪĿĠáīł": 1770,
      "hukum": 1771,
      "jÃ¡": 1772,
      "áįĸ": 1773,
      "antarĠ": 1774,
      "áº¹Ìģgáº¹ÌģĠ": 1775,
      "bal": 1776,
      "á»įbaĠ": 1777,
      "CĠ": 1778,
      "mar": 1779,
      "anciĠ": 1780,
      "sĠ(": 1781,
      "eĠdaĠ": 1782,
      "taĠk": 1783,
      "ĠáĪģáĪī": 1784,
      "alinĠ": 1785,
      "eriaĠ": 1786,
      "ia,Ġ": 1787,
      "Ãłd": 1788,
      "Ġáĭ¨áĪĨ": 1789,
      "ear": 1790,
      "eheĠ": 1791,
      "Ġ:": 1792,
      "emberĠ": 1793,
      "ait": 1794,
      "we": 1795,
      "áĭī": 1796,
      "alif": 1797,
      "iraĠ": 1798,
      "\".": 1799,
      "ĠáįĬ": 1800,
      "arab": 1801,
      "áĬŀ": 1802,
      "áº¹r": 1803,
      "omaĠ": 1804,
      "omoĠ": 1805,
      "ká»įÌģ": 1806,
      "manĠ": 1807,
      "gir": 1808,
      "KarneĠyaĠ": 1809,
      "ojaĠnaĠ": 1810,
      "--": 1811,
      "gbÃ©Ġ": 1812,
      "ĠáĬłáĪĿ": 1813,
      "almeĠ": 1814,
      "adĠ": 1815,
      "eneoĠ": 1816,
      "áĮĢáĪĺáĪªáĭ«": 1817,
      "Ġáĭ¨áĪĿ": 1818,
      "okoĠ": 1819,
      "di": 1820,
      "an.": 1821,
      "iseĠ": 1822,
      "oci": 1823,
      "áĪŃáĪµáī²": 1824,
      "saĠ": 1825,
      "ayanĠ": 1826,
      "ÆĻaf": 1827,
      "áĪĨáĬĲ": 1828,
      "IĠ": 1829,
      "kÃŃĠ": 1830,
      "ubl": 1831,
      "ashar": 1832,
      "hur": 1833,
      "ko": 1834,
      "eu": 1835,
      "0,Ġ": 1836,
      "ĠáĪĺáĭ°áī¥": 1837,
      "Wat": 1838,
      "áĪ«áĭĬ": 1839,
      "nying": 1840,
      "Tr": 1841,
      "enn": 1842,
      "awal": 1843,
      "ationalĠ": 1844,
      "withĠ": 1845,
      "oá¹£Ã¹Ġk": 1846,
      "Ingil": 1847,
      "ahar": 1848,
      "Nigeri": 1849,
      "Ġáĭ¨áĬłáĪĽáĪŃáĬĽĠáĪĿáĪ³áĪĮĠáĬĲáĭįáį¢ĠáīµáĪŃáĮīáĪĻĠáĭ«áĪįáī°áī°áĪ¨áĮİáĪĺĠáĪĿáĪ³áĪĮĠáī°áĪ¨áīµáĬĵĠáĪĿáĪ³áĪĮ": 1850,
      "Col": 1851,
      "oniĠ": 1852,
      "ĠáĪ°áĭİáī½": 1853,
      "akinĠ": 1854,
      "kwaĠ": 1855,
      "dansĠ": 1856,
      "sik": 1857,
      "ust": 1858,
      "ba": 1859,
      "kÃ²": 1860,
      "BK": 1861,
      "bi": 1862,
      "thĠ": 1863,
      "já»įĠ": 1864,
      "e.Ġ": 1865,
      "lang": 1866,
      "Ġ3": 1867,
      "intaĠ": 1868,
      "po": 1869,
      "MarekaniĠ": 1870,
      "Mal": 1871,
      "áī½áį¢": 1872,
      "hem": 1873,
      "2,Ġ": 1874,
      "na": 1875,
      "waiĠ": 1876,
      "Ãª": 1877,
      "ÆĻwallonĠÆĻaf": 1878,
      "faraĠ": 1879,
      "rit": 1880,
      "orinĠ": 1881,
      "ÃĮpÃŃnláº¹ÌĢĠ": 1882,
      "cor": 1883,
      "ishiĠ": 1884,
      "Sch": 1885,
      "Ġáī¦": 1886,
      "ĠáĬĲáĮĪáĪŃ": 1887,
      "Ãłw": 1888,
      "vi": 1889,
      "áįİ": 1890,
      "Ã©eĠ": 1891,
      "tunĠ": 1892,
      "isaĠ": 1893,
      "2.": 1894,
      "ominĠ": 1895,
      "irg": 1896,
      "adh": 1897,
      "ĠsÃŃĠ": 1898,
      "stĠ": 1899,
      "aĠmwakaĠwaĠ": 1900,
      "ivy": 1901,
      "5,Ġ": 1902,
      "otĠ": 1903,
      "eleĠ": 1904,
      "tion": 1905,
      "Ġáīłáĭĺ": 1906,
      "Dun": 1907,
      "res": 1908,
      "ÃŃr": 1909,
      "Ag": 1910,
      "nat": 1911,
      "part": 1912,
      "áĬķáĮįáĪĬáĭĿ": 1913,
      "ĠtÃ³Ġ": 1914,
      "Far": 1915,
      "aliy": 1916,
      "ÃĮt": 1917,
      "6,Ġ": 1918,
      "ech": 1919,
      "Ġáī°áĪĺ": 1920,
      "áī¦áī½": 1921,
      "dakeĠ": 1922,
      "áĪĿáį¢": 1923,
      "áī°áĭį": 1924,
      "Ãły": 1925,
      "ber": 1926,
      "ká»įÌĢ": 1927,
      "Ed": 1928,
      "mwan": 1929,
      "Gh": 1930,
      "cewaĠ": 1931,
      "áīµĠáĭ¨": 1932,
      "2019": 1933,
      "abaĠ": 1934,
      "áĮ¸": 1935,
      "iluĠ": 1936,
      "fit": 1937,
      "anoĠ": 1938,
      "ia.": 1939,
      "lin": 1940,
      "áĬķĠáĬł": 1941,
      "lokacinĠ": 1942,
      "tsak": 1943,
      "jÃºĠ": 1944,
      "áĮłáīĢ": 1945,
      "dar": 1946,
      "fi": 1947,
      "pourĠ": 1948,
      "Ãł,Ġ": 1949,
      "áĪĽáĪª": 1950,
      "kubwaĠ": 1951,
      "ueĠ": 1952,
      "ĠáīĨ": 1953,
      "ilÃ©-": 1954,
      "Ã¨t": 1955,
      "Ġáĭ¨áĪļáĮĪáĬĿ": 1956,
      "ManazartaĠ": 1957,
      "7,Ġ": 1958,
      "TaĠ": 1959,
      "gwam": 1960,
      "Ã¬gbÃł": 1961,
      "Janu": 1962,
      "sp": 1963,
      "Con": 1964,
      "ardĠ": 1965,
      "Ãłm": 1966,
      "entr": 1967,
      "uwanĠ": 1968,
      "iĠkwaĠ": 1969,
      "Ã¬r": 1970,
      "Ben": 1971,
      "shig": 1972,
      "ĠáĭĵáĪĺáīµ": 1973,
      "icalĠ": 1974,
      "ĠáĭĵáĪĿ": 1975,
      "ray": 1976,
      "áĪ¨áĭį": 1977,
      "ananĠ": 1978,
      "iqueĠ": 1979,
      "Le": 1980,
      "dÃºnĠ": 1981,
      "fic": 1982,
      "á»įÌģkas": 1983,
      "áį¥": 1984,
      "i-": 1985,
      "ĠAl": 1986,
      "Har": 1987,
      "oul": 1988,
      "8,Ġ": 1989,
      "kasarĠ": 1990,
      "jáº¹Ġ": 1991,
      "áĮĵ": 1992,
      "5.": 1993,
      "áĭŀ": 1994,
      "ĠáĬª": 1995,
      "áį£Ġáĭ¨": 1996,
      "Ge": 1997,
      "Ãºr": 1998,
      "Na": 1999,
      "áĮįáī¥": 2000,
      "miĠ": 2001,
      "yar": 2002,
      "gbÃ¡": 2003,
      "ĠáĪĿáĬŃ": 2004,
      "4,Ġ": 2005,
      "ajiĠwaĠ": 2006,
      "sehem": 2007,
      "6.": 2008,
      "Um": 2009,
      "áĬķĠáīł": 2010,
      "veĠ": 2011,
      "wakeĠ": 2012,
      "kuf": 2013,
      "ĠáĬ¥áĭ¨": 2014,
      "áĭ±áĪµ": 2015,
      "4.": 2016,
      "ĠáĪĺáĭ°áī¥Ġ:": 2017,
      "gáº¹Ìģgáº¹ÌģĠ": 2018,
      "isiwaĠ": 2019,
      ".áĬ¤": 2020,
      "áĪĭáĬķáĭµ": 2021,
      "áĬĸáī½": 2022,
      "in.": 2023,
      "Ã©sĠ": 2024,
      "ÆĻar": 2025,
      "áĬ¢": 2026,
      "ashinĠ": 2027,
      "abar": 2028,
      "áįĴ": 2029,
      "ÃłbÃŃĠ": 2030,
      "OĠ": 2031,
      "deĠl'": 2032,
      "ras": 2033,
      "wannanĠ": 2034,
      "ousĠ": 2035,
      "Ġá»įmá»į": 2036,
      "Nov": 2037,
      "mentĠ": 2038,
      "uwan": 2039,
      "ĠáĪĭ": 2040,
      "acc": 2041,
      "áĭ³áĬķ": 2042,
      "idanĠ": 2043,
      "All": 2044,
      "kÃ²Ġ": 2045,
      "áĮĮ": 2046,
      "daĠsukaĠ": 2047,
      "páº¹ÌĢlÃºĠ": 2048,
      "min": 2049,
      "oĠvyaĠ": 2050,
      "áĮ¨áĪ¨": 2051,
      "Ġáīĥ": 2052,
      "á»Į": 2053,
      "anenĠ": 2054,
      "áīµĠáīł": 2055,
      "áī³áī¸áĭį": 2056,
      "ijir": 2057,
      "áĬ¥áĬķ": 2058,
      "kun": 2059,
      "biyuĠ": 2060,
      "gud": 2061,
      "7.": 2062,
      "áº¹Ìģr": 2063,
      "Ġáº¹gb": 2064,
      "land": 2065,
      "yak": 2066,
      "áĭŃáĪħ": 2067,
      "ĠáĪĺáĬ«": 2068,
      "áĬłáī¥": 2069,
      "Ray": 2070,
      "láº¹ÌĢ": 2071,
      "uli": 2072,
      "iesĠ": 2073,
      "jama'": 2074,
      "Ac": 2075,
      "gbogb": 2076,
      "áĪ¨áĮĥ": 2077,
      "Itali": 2078,
      "pin": 2079,
      "babbanĠ": 2080,
      "sak": 2081,
      "áĪ¨áĬķ": 2082,
      "Ġ(BaadaĠyaĠKristo).ĠMatukioĠWaliozaliwaĠ": 2083,
      ").Ġ": 2084,
      "aĠshekararĠ": 2085,
      "aĠranarĠ": 2086,
      "olÃ¹": 2087,
      "áĮ¦": 2088,
      "adeĠ": 2089,
      "ne,Ġ": 2090,
      "áĪĿáĬĵ": 2091,
      "ÉĹanĠ": 2092,
      "jiĠ": 2093,
      "tan": 2094,
      "ĠáĪĲ": 2095,
      "ambaĠ": 2096,
      "ajalis": 2097,
      "pamojaĠnaĠ": 2098,
      "oir": 2099,
      "za": 2100,
      "tiĠoĠ": 2101,
      "NewĠ": 2102,
      "kÃ³Ġ": 2103,
      "ĠáĬ¨áĬł": 2104,
      "ancinĠ": 2105,
      "a:Ġ": 2106,
      "áĪĪáĭ«": 2107,
      "áī°áĪŃ": 2108,
      "Ġáī°áīĢ": 2109,
      "eluĠ": 2110,
      "ĠáĬĲáīłáĪ¨": 2111,
      "áĭįĠáĭ¨": 2112,
      "áīµáĬĵ": 2113,
      "port": 2114,
      "eyĠ": 2115,
      "Ø§": 2116,
      "áĮĪáĭµ": 2117,
      "áīĨáĮ£": 2118,
      "kup": 2119,
      "ement": 2120,
      "wá»įÌģ": 2121,
      "plusĠ": 2122,
      "ĠáĪĨáĬĸ": 2123,
      "oyinĠ": 2124,
      "tor": 2125,
      "aph": 2126,
      "saiĠ": 2127,
      "irinĠ": 2128,
      "ilÃ©Ġ": 2129,
      "áĪĺáĬĵ": 2130,
      "ĠáīłáĪµ": 2131,
      "áĪ¨áĭ³": 2132,
      "i'arĠ": 2133,
      "kung": 2134,
      "lat": 2135,
      "rub": 2136,
      "NÃłÃ¬jÃŃrÃŃÃłĠ": 2137,
      "hany": 2138,
      "mp": 2139,
      "wÃ¡Ġ": 2140,
      "ĠáīłáĬ¢áīµáĭ®áĮµáĭ«": 2141,
      "mon": 2142,
      ".áĬ¤.áĬł": 2143,
      "3,Ġ": 2144,
      "ous": 2145,
      "atifuĠ": 2146,
      "3.": 2147,
      "áĬĲáĭļáĪħ": 2148,
      "Sept": 2149,
      "wasanĠÆĻwallonĠÆĻaf": 2150,
      "Muh": 2151,
      "lim": 2152,
      "áĪĺáĪµ": 2153,
      "áīħáĪĿ": 2154,
      "itiĠ": 2155,
      "áĪĽáĭĬ": 2156,
      "188": 2157,
      "ĠáĬĵáī¸áĭįáį¢": 2158,
      "At": 2159,
      "daĠakaĠ": 2160,
      "ĠáĪ´": 2161,
      "enyeĠ": 2162,
      "Ġáįķ": 2163,
      "áĪ°áī¥": 2164,
      "ÃŃláº¹ÌĢĠ": 2165,
      "aĠn": 2166,
      "Par": 2167,
      "zaid": 2168,
      "áīª": 2169,
      "kÃłĠ": 2170,
      "Feb": 2171,
      "ĠáĭĺáĬķáĭµ": 2172,
      "pá»įÌĢ": 2173,
      "tÃ¬": 2174,
      "áĪĶáĪŃ": 2175,
      "áįħ": 2176,
      "ĠáĮ¨": 2177,
      "Ġáĭ¨áĪ°": 2178,
      "áĮĪáĬĻ": 2179,
      "uv": 2180,
      "iaĠyaĠ": 2181,
      "ĠáĬłáī¥": 2182,
      "LeĠ": 2183,
      "Ġáī£áĪĪ": 2184,
      "ĠáĮĢáĪĿáĪ®": 2185,
      "áĪ°áĭį": 2186,
      "Ġáī¤áīµ": 2187,
      "Mut": 2188,
      "âĢĺ": 2189,
      "idaĠ": 2190,
      "áĭ¥": 2191,
      "jinaĠ": 2192,
      "ĠáĪ«": 2193,
      "áĮ½áĪĲ": 2194,
      "iaĠm": 2195,
      "ign": 2196,
      "akanĠ": 2197,
      "Ã¬b": 2198,
      "Ġáĭ«áĪĪ": 2199,
      ",Ġmwan": 2200,
      "jiĠm": 2201,
      "prÃ©": 2202,
      "anninĠ": 2203,
      "UniversityĠ": 2204,
      "Bir": 2205,
      "ten": 2206,
      "wanzaĠ": 2207,
      "harĠ": 2208,
      "wor": 2209,
      "Ġáįĵ": 2210,
      "áĬķĠáĬ¨": 2211,
      "istr": 2212,
      "TanzaniaĠ": 2213,
      "áįĬáīµ": 2214,
      "iniĠyaĠ": 2215,
      "Ma": 2216,
      "RD": 2217,
      "áĪŃáĪ±": 2218,
      "ĠáĬ¢áīµáĭ®áĮµáĭ«": 2219,
      "gbaj": 2220,
      "odĠ": 2221,
      "ar,Ġ": 2222,
      "kud": 2223,
      "samuĠ": 2224,
      "si": 2225,
      "y.": 2226,
      "ĠáĬłáī£": 2227,
      "utaĠ": 2228,
      "ÃłÃ¡": 2229,
      "ĠáĮ¦áĪŃ": 2230,
      "ohunĠ": 2231,
      "beĠ": 2232,
      "elleĠ": 2233,
      "shenĠ": 2234,
      "jáº¹": 2235,
      "amfaniĠ": 2236,
      "Ã©k": 2237,
      "fromĠ": 2238,
      "ÙĦ": 2239,
      "iteĠ": 2240,
      "áĭ¨áĪŃ": 2241,
      "Ġáĭ«áĪĪáĭį": 2242,
      "áī¡áī¥": 2243,
      ")Ġ(": 2244,
      "ĠáĬłáĮĪáĪŃ": 2245,
      "Febru": 2246,
      "nj": 2247,
      "ĠáĮ¸": 2248,
      "Okt": 2249,
      "Ġ\"": 2250,
      "Ġáī¥áī»": 2251,
      "zil": 2252,
      "ukoĠ": 2253,
      "áĪĿĠáĭ¨": 2254,
      "cons": 2255,
      "lu": 2256,
      "rel": 2257,
      "ww": 2258,
      "igh": 2259,
      "Fas": 2260,
      "InĠ": 2261,
      "Ã¬bÃŃĠ": 2262,
      "áī£áĪĪ": 2263,
      "áĬ¤áĪį": 2264,
      "NĠ": 2265,
      "wah": 2266,
      "Ġáī°áĭĪ": 2267,
      "egbeĠ": 2268,
      "laĠm": 2269,
      "Ġáº¸": 2270,
      "asheĠ": 2271,
      "imuĠ": 2272,
      "aĠmaiĠ": 2273,
      "a,Ġm": 2274,
      "áĪłáĪ¨": 2275,
      "oĠch": 2276,
      "áĪįáĮ£": 2277,
      "dab": 2278,
      "odunĠ": 2279,
      "shineĠ": 2280,
      "ationsĠ": 2281,
      "Viung": 2282,
      "anj": 2283,
      ".ĠItokasiĠÃĢwá»įnĠ": 2284,
      "ĥáĭŃ": 2285,
      "20Ġ": 2286,
      "00Ġ": 2287,
      "sin": 2288,
      "riĠ": 2289,
      "áĭĭáĪį": 2290,
      "an-": 2291,
      "ĠáĪĺáĪį": 2292,
      "jerum": 2293,
      "Oá¹£": 2294,
      "8.": 2295,
      "áį£Ġáīł": 2296,
      "áĪīáīµ": 2297,
      "Om": 2298,
      "cinĠ": 2299,
      "áī³áĪįáį¢": 2300,
      "ashenĠ": 2301,
      "ViungoĠvyaĠ": 2302,
      "atunĠ": 2303,
      "áĪĭáī¸áĭį": 2304,
      "lÃ¨Ġ": 2305,
      "Ãłká»įÌģ": 2306,
      "Ġá»ĮÌĢ": 2307,
      "hadiĠ": 2308,
      "Kis": 2309,
      "igb": 2310,
      "lakiniĠ": 2311,
      "Gre": 2312,
      "ĠáĬ¦": 2313,
      "oĠh": 2314,
      "Nor": 2315,
      "uch": 2316,
      "áĪĿĠáĬ¨": 2317,
      "ĠtÃŃĠwá»įÌģnĠ": 2318,
      "Naijir": 2319,
      "oĠlaĠ": 2320,
      "uĠ(": 2321,
      "kaĠ": 2322,
      "Histor": 2323,
      "Ph": 2324,
      "aĠkanĠ": 2325,
      "Ġáī°áĬ¨": 2326,
      "sy": 2327,
      "adiĠ": 2328,
      "essĠ": 2329,
      "áį²áį±áį»áį": 2330,
      "eth": 2331,
      "eĠdesĠ": 2332,
      "sÃ¡": 2333,
      "ani.": 2334,
      "edĠtoĠ": 2335,
      "ĠáĬ¥áĬķáĭ²áĪģ": 2336,
      "aĠzaĠ": 2337,
      "-ĠM": 2338,
      "áĬħ": 2339,
      "al'": 2340,
      "ingerezaĠ": 2341,
      "niĠk": 2342,
      "áĭįáĪ®": 2343,
      "ĠáĬ¥.áĬ¤.áĬł": 2344,
      "Ã¨reĠ": 2345,
      "áĭµáĬķ": 2346,
      "áĪļáĭ«": 2347,
      "nchiniĠ": 2348,
      "ook": 2349,
      "itedĠ": 2350,
      "ĠáīģáĮ¥áĪŃ": 2351,
      "aun": 2352,
      "kir": 2353,
      "watuĠ": 2354,
      "YorÃ¹": 2355,
      "ort": 2356,
      "Shugab": 2357,
      "Cl": 2358,
      "iveĠ": 2359,
      "Ken": 2360,
      "weĠ": 2361,
      "Sp": 2362,
      "Ay": 2363,
      "Ob": 2364,
      "ail": 2365,
      "ÃłrÃ¹nĠ": 2366,
      "ĠáĪī": 2367,
      "ĠáĪ¥áĪŃ": 2368,
      "wasanĠÆĻwallonĠÆĻafaĠtaĠ": 2369,
      "Wá»įÌģnĠ": 2370,
      "dÃŃ": 2371,
      "vit": 2372,
      "Jap": 2373,
      "siy": 2374,
      "Ã¨yÃŃĠ": 2375,
      "dig": 2376,
      "e)Ġ": 2377,
      "JohnĠ": 2378,
      "ihiĠ": 2379,
      "Bar": 2380,
      "asoĠ": 2381,
      "odh": 2382,
      "ilayaĠ": 2383,
      "oneĠ": 2384,
      "áĬĵáĪį": 2385,
      "ofinĠ": 2386,
      "Ġáĭ¨áĪĨáĬĲ": 2387,
      "finĠ": 2388,
      "falmeĠ": 2389,
      "Ġáĭ®": 2390,
      "Ã©,Ġ": 2391,
      "iya": 2392,
      "báº¹ÌĢráº¹ÌĢĠ": 2393,
      "ajalisarĠ": 2394,
      "idĠ": 2395,
      "alam": 2396,
      "ukĠ": 2397,
      "ichĠ": 2398,
      "Austr": 2399,
      "ult": 2400,
      "\",Ġ": 2401,
      "Og": 2402,
      "pol": 2403,
      "sukaĠ": 2404,
      "áĪ¥áī³áīµ": 2405,
      "wasanĠÆĻwallonĠÆĻafaĠtaĠÆĻasarĠ": 2406,
      "Ur": 2407,
      "ĠáĭĪáĬķ": 2408,
      "Lag": 2409,
      "dayaĠ": 2410,
      "áĪŃáĬŃ": 2411,
      "áº¹l": 2412,
      "ĠáĮ£": 2413,
      "gam": 2414,
      "Ùİ": 2415,
      "Im": 2416,
      "bur": 2417,
      "ĠáĬłáīł": 2418,
      "ĠáīłáĪĿ": 2419,
      "Ġá»įdunĠ": 2420,
      "máº¹ÌģrÃŃ": 2421,
      "Ujerum": 2422,
      "áī¢áĭ«": 2423,
      "comp": 2424,
      "Itokasi": 2425,
      "áĬķĠáĭ«": 2426,
      "Ã¨sĠ": 2427,
      "itsĠ": 2428,
      "itÃ©Ġ": 2429,
      "áĬ¦": 2430,
      "Ã§": 2431,
      "ikoĠ": 2432,
      "avec": 2433,
      "Ul": 2434,
      "loĠ": 2435,
      "adar": 2436,
      "afaĠ": 2437,
      "áĮłáĪ«": 2438,
      "ĠáĪĺáĭ°áī¥Ġ:Ġáī°áĪ¨áīµáĬĵĠáĪĿáĪ³áĪĮ": 2439,
      "áĮ¨áĪ¨áĪ»": 2440,
      "rÃ©Ġ": 2441,
      "áĮ¤": 2442,
      "kur": 2443,
      "áĭµáĪĿ": 2444,
      "ĠAmáº¹ÌģrÃŃ": 2445,
      "ungiyarĠ": 2446,
      "wasuĠ": 2447,
      "ĠáĭµáĪŃ": 2448,
      "ĠáĪľ": 2449,
      "áĬķĠáĪĺ": 2450,
      "iĠkatikaĠ": 2451,
      "áīµĠáĪĺ": 2452,
      "ĠáĬ¨áįį": 2453,
      "ishĠ": 2454,
      "9.": 2455,
      "amil": 2456,
      "ofĠA": 2457,
      "ikeĠ": 2458,
      "autarĠ": 2459,
      "|ĠRD": 2460,
      "%Ġ": 2461,
      "outĠ": 2462,
      "eĠd'": 2463,
      "akwaiĠ": 2464,
      "Amurk": 2465,
      "Intern": 2466,
      "Tur": 2467,
      "Ã©n": 2468,
      "Ġáī¡": 2469,
      "al-": 2470,
      "ĠáĪĺáĬ«áĬ¨áĪį": 2471,
      "Ã¬k": 2472,
      "áĬķĠáĭ¨": 2473,
      "áĬķáĬĵ": 2474,
      "eseĠ": 2475,
      "yĠ(": 2476,
      "ĠáīłáĪĭáĭŃ": 2477,
      "áĭİáī¹": 2478,
      "9,Ġ": 2479,
      "ialĠ": 2480,
      "má»įÌĢ": 2481,
      "ack": 2482,
      "ĠáīłáĭĺáĪĺáĬĲ": 2483,
      "áĬķáĮī": 2484,
      "ith": 2485,
      "Ġá»įjá»įÌģÃ¬bÃŃĠ": 2486,
      "woĠ": 2487,
      "11": 2488,
      "5)Ġ": 2489,
      "áĬ³": 2490,
      "áĪĺáĪĪ": 2491,
      "50": 2492,
      "o.Ġ": 2493,
      "uaĠ": 2494,
      "Ìģ": 2495,
      "astĠ": 2496,
      "eĠduĠ": 2497,
      "jÃ¹": 2498,
      "ĠáīłáĪ°": 2499,
      "anĠhaifeĠshiĠ": 2500,
      "má»įÌĢĠ": 2501,
      "Pe": 2502,
      "áĮįáĭļ": 2503,
      "usuĠ": 2504,
      "kuuĠwaĠ": 2505,
      "áī¥áĪ¨": 2506,
      "jin": 2507,
      "áīħáĪŃ": 2508,
      "ĠáĬŃáįįáĪĪ": 2509,
      "Are": 2510,
      "Haus": 2511,
      "NÃłÃ¬jÃŃrÃŃÃł": 2512,
      "áĪĽáĭŃ": 2513,
      "WaliofarikiĠKarneĠyaĠ": 2514,
      "mb": 2515,
      "áĪħáĪį": 2516,
      "Muhamm": 2517,
      "utĠ": 2518,
      "ĠáĬ¥áĪµáĬ¨Ġ": 2519,
      "mÃ¡aĠ": 2520,
      "umm": 2521,
      "endele": 2522,
      "pad": 2523,
      "yáº¹Ġ": 2524,
      "Ãģ": 2525,
      "aka": 2526,
      "wandaĠyaĠ": 2527,
      "Ang": 2528,
      "áĪĿáĪħáĪŃáīµ": 2529,
      "Des": 2530,
      "naĠk": 2531,
      "chiĠ": 2532,
      "leg": 2533,
      "aá¹£": 2534,
      "acceĠ": 2535,
      "Was": 2536,
      "atol": 2537,
      "Ã¬s": 2538,
      "Tanzani": 2539,
      "ound": 2540,
      "áīĦ": 2541,
      "áįĥ": 2542,
      "áĭŃáĭĪ": 2543,
      "omin": 2544,
      "AĠcikinĠ": 2545,
      "lam": 2546,
      "upandeĠ": 2547,
      "orsĠ": 2548,
      "áĬķáĮįáĪĬáĭĿáĬĽ": 2549,
      "áīµáį¢": 2550,
      ",ĠmshindiĠwaĠTuzoĠyaĠNobelĠyaĠ": 2551,
      "Ik": 2552,
      "Ãī": 2553,
      "Ã©esĠ": 2554,
      "zab": 2555,
      "ahaif": 2556,
      "ownĠ": 2557,
      "fer": 2558,
      "iliĠyaĠ": 2559,
      "zaĠm": 2560,
      "ipaĠ": 2561,
      "gbogboĠ": 2562,
      "iyoĠ": 2563,
      "Â«Ġ": 2564,
      "Ġá»įjá»įÌģĠk": 2565,
      "Mag": 2566,
      "báº¹Ìģ": 2567,
      "daĠt": 2568,
      "já»į": 2569,
      "Ã©g": 2570,
      "aim": 2571,
      "njeĠ": 2572,
      "áĬķĠáĭŃ": 2573,
      "Id": 2574,
      "áīĨáĮ£áĮłáĪŃ": 2575,
      "Us": 2576,
      "ionsĠ": 2577,
      "ĠáĪ½": 2578,
      "Pol": 2579,
      "emiĠ": 2580,
      "zaĠk": 2581,
      "ukanĠ": 2582,
      "áĪµáī³": 2583,
      "Ã¨gb": 2584,
      "Jami'arĠ": 2585,
      "School": 2586,
      "áĭįáį¢": 2587,
      "ĠâĢľ": 2588,
      "Ã¡nĠ": 2589,
      "iceĠ": 2590,
      "oph": 2591,
      "Ġáī¦áī³": 2592,
      "LesĠ": 2593,
      "col": 2594,
      "fÃŃ": 2595,
      "oreĠ": 2596,
      "ĠáĬłáĪŃ": 2597,
      "lÃ³rÃŃĠ": 2598,
      "shugabanĠ": 2599,
      "Ã©l": 2600,
      "áī¥áĪ«": 2601,
      "áĮģ": 2602,
      "akarĠ": 2603,
      "owoĠ": 2604,
      "tareheĠ": 2605,
      "Sal": 2606,
      "iakaĠ": 2607,
      "oup": 2608,
      "idiĠ": 2609,
      "Fil": 2610,
      "rah": 2611,
      "nchiĠyaĠ": 2612,
      "och": 2613,
      "aĠK": 2614,
      "áĮįáĭļáĬłáī¥": 2615,
      "arÃ¡": 2616,
      "with": 2617,
      "Will": 2618,
      "jÃ¡Ġ": 2619,
      "aikinĠ": 2620,
      "atiĠwaĠ": 2621,
      "áĬŀáī½": 2622,
      "mas": 2623,
      "'Ġ": 2624,
      "Bl": 2625,
      "Qu": 2626,
      "ká»į": 2627,
      "ĠáĬĲáīłáĪ©": 2628,
      "ijiĠ": 2629,
      "NigeriaĠ": 2630,
      "Wan": 2631,
      "anaĠk": 2632,
      "áĪµáĬĵ": 2633,
      "isp": 2634,
      "Ġá»įjá»įÌģÃ¬bÃŃĠnÃŃĠ": 2635,
      "shekaruĠ": 2636,
      "is,Ġ": 2637,
      "dÃ¡Ġ": 2638,
      "áĭ¬": 2639,
      "itu": 2640,
      "haÉĹ": 2641,
      "áĮĨáī½": 2642,
      "bug": 2643,
      "áĪ³áīµ": 2644,
      "Marekani": 2645,
      "LaĠ": 2646,
      "Ġáĭ¨áīĢ": 2647,
      ".ĠÃĢwá»įnĠ": 2648,
      "Ġáī°áī¥": 2649,
      "áĪŃáĪµáī²áĭ«áĬķ": 2650,
      "bar": 2651,
      "tun": 2652,
      "eeĠ": 2653,
      "wakaziĠ": 2654,
      "Ã¬wÃ©Ġ": 2655,
      "langu": 2656,
      "wo": 2657,
      "ert": 2658,
      "ayÃ©Ġ": 2659,
      "orn": 2660,
      "Ġáīħáĭ±áĪµ": 2661,
      ")ĠniĠ": 2662,
      "otoĠ": 2663,
      "ejiĠ": 2664,
      "áĭķáĪ«": 2665,
      "ograph": 2666,
      "OktobaĠ": 2667,
      "May": 2668,
      "wÃ²": 2669,
      "IS": 2670,
      "te": 2671,
      "tp": 2672,
      "//": 2673,
      "Bur": 2674,
      "lÃ¡Ġ": 2675,
      "oke": 2676,
      "ogoĠ": 2677,
      "Ã¨dÃ¨": 2678,
      "ĠáĭŃáĮĪáĬĽ": 2679,
      "nÃŃpaĠ": 2680,
      "atuĠ": 2681,
      "ene": 2682,
      "³áĪµ": 2683,
      "áĪµáĪ«": 2684,
      "kunĠ": 2685,
      "inĠs": 2686,
      "weny": 2687,
      "Ġáĭĵ/áĪĿĠ-": 2688,
      "ilit": 2689,
      "oroĠ": 2690,
      "aĠkas": 2691,
      "30": 2692,
      "186": 2693,
      "ĠáĪĿáĬŃáĬķáĭ«": 2694,
      "ĠáĪ¨": 2695,
      "bayaĠ": 2696,
      "ilaĠ": 2697,
      "ayoĠ": 2698,
      "áĭ¶áī½": 2699,
      "auxĠ": 2700,
      "Kus": 2701,
      "osh": 2702,
      "yp": 2703,
      "ĠáĬ¨áĪĺ": 2704,
      "187": 2705,
      "Ġá»įdÃºnĠ201": 2706,
      "wur": 2707,
      "áĪº": 2708,
      "ani,Ġ": 2709,
      "áĮįáĭļáĬłáī¥áĪĶáĪŃ": 2710,
      "ubaĠ": 2711,
      "ĠáīłáĭļáĪħ": 2712,
      "uleĠ": 2713,
      "áī£áĪĪáĭį": 2714,
      "áĮ¥áĬķ": 2715,
      "If": 2716,
      "Ã¬nrinĠ": 2717,
      "Af": 2718,
      "ĠáĬłáĪī": 2719,
      "2-": 2720,
      "ward": 2721,
      "áĮ£áĪį": 2722,
      "sontĠ": 2723,
      "wacceĠ": 2724,
      "Ã¬já»įbaĠ": 2725,
      "áī¤áīµ": 2726,
      "Tang": 2727,
      "NiĠ": 2728,
      "eĠofĠ": 2729,
      "arib": 2730,
      "atedĠ": 2731,
      "ciĠgab": 2732,
      "yÃŃ": 2733,
      "áĬķáĬķ": 2734,
      "waĠkwaĠ": 2735,
      "lÃ³g": 2736,
      "balimb": 2737,
      "odhaĠyaĠ": 2738,
      "áĮĪáĬĵ": 2739,
      "áĮįáĪ«": 2740,
      "from": 2741,
      "cent": 2742,
      "sannanĠ": 2743,
      "Ġáĭ¨áĭĪ": 2744,
      "kash": 2745,
      "mus": 2746,
      "arenĠ": 2747,
      "aduĠ": 2748,
      "áĬŃáīµ": 2749,
      "Ãłp": 2750,
      "allyĠ": 2751,
      "Georg": 2752,
      "str": 2753,
      "azin": 2754,
      "ogunĠ": 2755,
      "Ij": 2756,
      "iĠdaĠ": 2757,
      "niĠÃ³Ġ": 2758,
      "ush": 2759,
      "kumaĠtaĠ": 2760,
      "Ġáº¹ÌĢká»įÌģĠ": 2761,
      "Me": 2762,
      "áĮĪáī£": 2763,
      "Wor": 2764,
      "Ġáĭ¨áĬĲáīłáĪ¨": 2765,
      "hanyarĠ": 2766,
      "de": 2767,
      "mag": 2768,
      "ĠáĬ¥.áĬ¤.áĬł.": 2769,
      "(200": 2770,
      "7)Ġ": 2771,
      "ar.": 2772,
      "áī³áĭŃ": 2773,
      "áĬĴáĭ«": 2774,
      "4)Ġ": 2775,
      "Agb": 2776,
      "Kam": 2777,
      "inay": 2778,
      "ĠáĬŃáįįáĪį": 2779,
      "iyeĠ": 2780,
      "http": 2781,
      "6)Ġ": 2782,
      "lÃº": 2783,
      "ĠtÃºnĠ": 2784,
      "awoĠ": 2785,
      "áĬĸáĪŃ": 2786,
      "áĪľáĬķ": 2787,
      "amfaninĠ": 2788,
      "Hu": 2789,
      "aitĠ": 2790,
      "rec": 2791,
      "://": 2792,
      "apoĠ": 2793,
      "nÃŃgbÃł": 2794,
      "Ġáĭ²": 2795,
      "jÃº": 2796,
      "ĠáĪŃ": 2797,
      "itionĠ": 2798,
      "br": 2799,
      "lâĢĻ": 2800,
      "iyanĠ": 2801,
      "bÃŃiĠ": 2802,
      "rik": 2803,
      "ĠáĭŃáī£": 2804,
      ",000": 2805,
      "suk": 2806,
      "azamaĠ": 2807,
      "Ġ/": 2808,
      "Ç¹": 2809,
      "áĪĪáī°": 2810,
      "ingerez": 2811,
      "ĠáĬłáĬ«áī£áī¢": 2812,
      "laf": 2813,
      "isi": 2814,
      "ĠáĬ¥áĬķáĮį": 2815,
      "áĭ°áĪ¨áĮĪ": 2816,
      "áĮ½áĪĲáįį": 2817,
      "odaĠ": 2818,
      "wÃŃ": 2819,
      "Ãºká»įĠ": 2820,
      "gbá»įÌģnĠ": 2821,
      "LÃ¡": 2822,
      "farans": 2823,
      "Farans": 2824,
      "ureĠ": 2825,
      "Ġáįĸ": 2826,
      "áĪ«áĪį": 2827,
      "Mon": 2828,
      "gar": 2829,
      "áĮĪáĬķ": 2830,
      "Kik": 2831,
      "sĠofĠ": 2832,
      "Ã³nĠ": 2833,
      "wá»įÌĢ": 2834,
      "áº¹ÌĢká»įÌģĠ": 2835,
      "andĠtheĠ": 2836,
      "omiĠ": 2837,
      "iyyarĠ": 2838,
      "ĠApr": 2839,
      "wasanĠÆĻwallonĠÆĻafaĠtaĠÆĻasarĠIngil": 2840,
      "aÆĻ": 2841,
      "ham": 2842,
      "áī£áĭŃ": 2843,
      "Eng": 2844,
      "odeĠ": 2845,
      "áĪįáīħ": 2846,
      "qu'": 2847,
      "Ts": 2848,
      "ĠáĬłáīĨáĮ£áĮłáĪŃ": 2849,
      "en,Ġ": 2850,
      "Ã©kerÃ©Ġ": 2851,
      "Mas": 2852,
      "áĬķáĮĭ": 2853,
      "kuj": 2854,
      "ĠáĬłáĬķáĭ±": 2855,
      "10Ġ": 2856,
      "onn": 2857,
      "áĪ¨áĮį": 2858,
      "emp": 2859,
      "oisĠ": 2860,
      "aniĠyaĠ": 2861,
      "áĪŃáĭĿ": 2862,
      "ĠAg": 2863,
      "áĮłáīĥ": 2864,
      "ĠáĮįáĭĽáīµ": 2865,
      "ĠáĬ¥áĭ«": 2866,
      "áįĪáĪŃ": 2867,
      "NÃłÃ¬jÃŃrÃŃÃł.": 2868,
      "25": 2869,
      "ainĠ": 2870,
      "jag": 2871,
      "19Ġ": 2872,
      ".ĠMan": 2873,
      "tsakaninĠ": 2874,
      "Eb": 2875,
      "wereĠ": 2876,
      "ine": 2877,
      "istĠ": 2878,
      "áīĢáĪŃ": 2879,
      "áī³áĪį": 2880,
      "Leg": 2881,
      "áĭµáĪŀ": 2882,
      "ingĠtheĠ": 2883,
      "lÃ¡n": 2884,
      "âĢİ": 2885,
      "áĮİáĪŃ": 2886,
      "ĠáĬ¨áī°áĪŀáī½": 2887,
      "aÉĹ": 2888,
      "dh": 2889,
      "tÃŃ": 2890,
      "niĠnaĠ": 2891,
      "okac": 2892,
      "yĠofĠ": 2893,
      "ĠáĬłáĪĭ": 2894,
      "n.": 2895,
      "áįĢ": 2896,
      "áĭŃáĬĵ": 2897,
      "áĮĪáĪĪ": 2898,
      "áį£ĠáĬ¨": 2899,
      "ĠáĬ¥áĬķáĭ°áĪļ": 2900,
      "anzaĠ": 2901,
      "á»įÌģkasÃŃĠ": 2902,
      "For": 2903,
      "Gab": 2904,
      "Ipin": 2905,
      "bas": 2906,
      "áīµáĪŃ": 2907,
      "OrodhaĠyaĠ": 2908,
      "wÃłĠnÃŃĠ": 2909,
      "avecĠ": 2910,
      "Car": 2911,
      "baadaĠ": 2912,
      "kal": 2913,
      "yad": 2914,
      "ĠofĠ": 2915,
      "ĠáĪ¶": 2916,
      "isiĠ": 2917,
      "áĭ°áīµ": 2918,
      "á»įÌģÃ¬d": 2919,
      "áº¹Ìģrá»įÌģÃ¬d": 2920,
      "BabbanĠ": 2921,
      "Em": 2922,
      "ráº¹Ġ": 2923,
      "ĠáĬĥáĭŃ": 2924,
      "Ã¡st": 2925,
      "gáº¹Ìģgáº¹ÌģĠbÃŃĠ": 2926,
      "3)Ġ": 2927,
      ":ĠA": 2928,
      "Od": 2929,
      "he": 2930,
      "ĠK": 2931,
      "elop": 2932,
      "esĠdeĠ": 2933,
      "lughaĠyaĠ": 2934,
      "Ã¡stáº¹Ìģrá»įÌģÃ¬d": 2935,
      "21": 2936,
      "edĠtheĠ": 2937,
      "Ġáº¹láº¹Ìģ": 2938,
      "UnitedĠ": 2939,
      "NijeriyaĠ": 2940,
      "keĠ": 2941,
      "áĬĺ": 2942,
      "itaĠceĠ": 2943,
      "ireĠ": 2944,
      "Najeriya.": 2945,
      "Brit": 2946,
      "aĠS": 2947,
      "áĬķáį¡": 2948,
      "ina": 2949,
      "daĠtaĠ": 2950,
      "áī¥áĪµ": 2951,
      "áĪĽáĬĸ": 2952,
      "nom": 2953,
      "ojo": 2954,
      "iwaĠnaĠ": 2955,
      "\"Ġ(": 2956,
      "alit": 2957,
      "ĠáĭŃáī½": 2958,
      "terĠ": 2959,
      "ĠáĪĽáĪŃ": 2960,
      "ĠáĪģáĪĪáīµ": 2961,
      "áĪĪáĭ«áĭ©": 2962,
      "kungiyarĠ": 2963,
      "Ã¹ĠK": 2964,
      "mÃ©j": 2965,
      "áĪı": 2966,
      "áĪĳ": 2967,
      "kumaĠm": 2968,
      "áĪ°áĪ«": 2969,
      "Jamhur": 2970,
      "DagaĠ": 2971,
      "lÃ³Ġ": 2972,
      "áīµĠáĬ¨": 2973,
      "orÃŃláº¹ÌĢĠ": 2974,
      "Musul": 2975,
      "tÃ¬Ġk": 2976,
      "fur": 2977,
      "áĬ¬": 2978,
      "ilip": 2979,
      "áĬŃáĪµ": 2980,
      "ĠáĭĺáĪĺ": 2981,
      "ĠáĪ¸": 2982,
      "dr": 2983,
      "iusĠ": 2984,
      "kan": 2985,
      "yanz": 2986,
      "kund": 2987,
      "mÃ¬n": 2988,
      "iya.Ġ": 2989,
      "ĠáĪĿáĬķáĮ": 2990,
      "áĭĸ": 2991,
      "Ġáī´": 2992,
      "utuĠ": 2993,
      "lÃ¡raĠ": 2994,
      "Franc": 2995,
      "ment": 2996,
      "pÃ¨Ġ": 2997,
      "Ġáĭ©": 2998,
      "Ir": 2999,
      "áĭ¨áīµ": 3000,
      "Eur": 3001,
      "uuĠ": 3002,
      "erĠ(": 3003,
      "Ã¡stáº¹Ìģrá»įÌģÃ¬dÃ¬": 3004,
      "Mad": 3005,
      "Tib": 3006,
      "áº¸": 3007,
      "nÃŃĠibiĠ": 3008,
      "mak": 3009,
      "áĪĪáĭŃ": 3010,
      "Ã²k": 3011,
      "okinĠ": 3012,
      "awa,Ġ": 3013,
      "ĠáĬłáīłáī£": 3014,
      "whichĠ": 3015,
      "BKĠ(BaadaĠyaĠKristo).ĠMatukioĠWaliozaliwaĠ": 3016,
      "Willi": 3017,
      "yankinĠ": 3018,
      "jáº¹ÌģĠp": 3019,
      "samunĠ": 3020,
      "AmerikaĠ": 3021,
      "iĠh": 3022,
      "ĠáĪĮáĪĭ": 3023,
      "ungeĠ": 3024,
      "tsoh": 3025,
      "say": 3026,
      "us,Ġ": 3027,
      "Ser": 3028,
      "jih": 3029,
      "amaĠm": 3030,
      "ÃłkÃ³": 3031,
      "imm": 3032,
      "ĠáĭĪáīħ": 3033,
      "ĠáĭĺáĪĺáĬĲ": 3034,
      "aoĠ": 3035,
      "bÃ¹nĠ": 3036,
      "yÃ©Ġ": 3037,
      "garinĠ": 3038,
      "wÃ²Ġ": 3039,
      "wá»įÌģĠ": 3040,
      "Min": 3041,
      "wÃ©Ġ": 3042,
      "esĠ(": 3043,
      "embaĠ-Ġ": 3044,
      "Paul": 3045,
      "yl": 3046,
      "³áį": 3047,
      "áīµĠáĬł": 3048,
      "áĪĿáĪŃ": 3049,
      "áĪĺáĪ¨": 3050,
      "Ufarans": 3051,
      "Ġtr": 3052,
      "niĠwá»įÌģnĠ": 3053,
      "uss": 3054,
      "ĠáĭĵáĪĺáī³áīµ": 3055,
      "ĠáĪĥáĭŃ": 3056,
      "Ġáº¹gbáº¹ÌģĠ": 3057,
      "áĭ°áĪį": 3058,
      "áī±áĪĿ": 3059,
      "áį¦Ġ": 3060,
      "ĠáĮ¦áĪŃáĬĲáīµ": 3061,
      "artaĠ": 3062,
      "áĮįáī£": 3063,
      "katikaĠ": 3064,
      "atĠtheĠ": 3065,
      "áĪŃáĪĺáĬķ": 3066,
      "red": 3067,
      "ĠáĬ¥áĬĵĠáĭ¨": 3068,
      "histor": 3069,
      "áĪįáĮį": 3070,
      "baĠdaĠ": 3071,
      "ĠáĪµáĪ«": 3072,
      "áĪªáĬ«áĭĬ": 3073,
      "echn": 3074,
      "Jos": 3075,
      "já»įÌģ": 3076,
      "Ã¬gb": 3077,
      "ĠáĪµáĪŃ": 3078,
      "ongoz": 3079,
      "Ġáĭ¨áĪĺáĮĢáĪĺáĪªáĭ«": 3080,
      "ÃłĠlaĠ": 3081,
      "wajenĠ": 3082,
      "IpinleĠ": 3083,
      "Kad": 3084,
      "ĠáĪ²áĭ«": 3085,
      "40": 3086,
      "Mis": 3087,
      "onÃŃ": 3088,
      "cour": 3089,
      "ĠáĬłáĭŃáĬĲáīµ": 3090,
      "ĠáĬłáĪ¨": 3091,
      "áĪĲáĬķáĪµ": 3092,
      "lamb": 3093,
      "má»įÌģ": 3094,
      "tal": 3095,
      "Ã´": 3096,
      "als": 3097,
      "iyaĠtaĠ": 3098,
      "Char": 3099,
      "bin": 3100,
      "Ãłá¹£": 3101,
      "iyyaĠ": 3102,
      "áĮłáĪ¨": 3103,
      "akarantarĠ": 3104,
      "Kim": 3105,
      "publ": 3106,
      "elek": 3107,
      "lÃ¡náº¹Ìģ": 3108,
      "23": 3109,
      "Yun": 3110,
      "cul": 3111,
      "wig": 3112,
      "áĪįáĭµ": 3113,
      "áĪĭáĪĪ": 3114,
      "jÃ¡deĠ": 3115,
      "ĠáĬĲáīłáĪ¨áį¢": 3116,
      "BayanĠ": 3117,
      "surĠ": 3118,
      "vol": 3119,
      "áĪŃáĭµ": 3120,
      "áīłáī¥": 3121,
      "ĠáĭŃáī³": 3122,
      "áĭ®áĬķ": 3123,
      "eursĠ": 3124,
      "koaĠwaĠ": 3125,
      "Lond": 3126,
      "ĠáĭĽ": 3127,
      "áĭįĠáīł": 3128,
      "i:Ġ": 3129,
      "2020": 3130,
      "ojoibiĠ": 3131,
      "Ã¡t": 3132,
      "oduc": 3133,
      "lá»įĠsÃŃĠ": 3134,
      "Di": 3135,
      "Igb": 3136,
      "Pl": 3137,
      "atarĠdaĠ": 3138,
      "ull": 3139,
      "ony": 3140,
      "i,Ġm": 3141,
      "8)Ġ": 3142,
      "rá»įÌĢĠ": 3143,
      "ener": 3144,
      "Ġáį²áį±áį»áį": 3145,
      "áįįáĪ«": 3146,
      "áĭĵáĪĪáĪĿ": 3147,
      "áĭįáĪ®áįĵ": 3148,
      "Ùħ": 3149,
      "samiĠ": 3150,
      "uhur": 3151,
      "azarta": 3152,
      "fÃºn": 3153,
      "Ã¬gbÃłjÃ¡Ġ": 3154,
      "ĠáĬ¥áĪŃ": 3155,
      "tÃ¬ĠkÃ©kerÃ©Ġ": 3156,
      "War": 3157,
      "áĪĭáĪĿ": 3158,
      "ĠáĭĪáĪŃ": 3159,
      "sĠandĠ": 3160,
      "Ã¬pÃŃnláº¹ÌĢĠ": 3161,
      "icaĠ": 3162,
      "ĠáĬĲáĮĪáĪ¥áī³áīµ": 3163,
      "lÃ¡náº¹ÌģtÃ¬ĠkÃ©kerÃ©Ġ": 3164,
      "iĠniĠ": 3165,
      "ĠáĪłáĪ": 3166,
      "ilom": 3167,
      "áĮĢáĪĺáĪŃáĭ«": 3168,
      "ĠáĪĮáĪİáī½": 3169,
      "2)Ġ": 3170,
      "ct": 3171,
      "cut": 3172,
      "ĠáĬ³áĪµ": 3173,
      "ĠáĬ¥áĮħ": 3174,
      "1)Ġ": 3175,
      "12Ġ": 3176,
      "Dec": 3177,
      "by": 3178,
      "fĠ": 3179,
      "nÃŃĠibiĠÃ¬gbÃłjÃ¡Ġ": 3180,
      "tang": 3181,
      "ukuĠ": 3182,
      "áĬĲáĮĪáĪŃ": 3183,
      "lÃ¡náº¹ÌģtÃ¬ĠkÃ©kerÃ©ĠnÃŃĠibiĠÃ¬gbÃłjÃ¡Ġ": 3184,
      "Bab": 3185,
      "ĠáĪĽáĪµ": 3186,
      "shiry": 3187,
      "lÃ¡náº¹ÌģtÃ¬ĠkÃ©kerÃ©ĠnÃŃĠibiĠÃ¬gbÃłjÃ¡ĠÃ¡stáº¹Ìģrá»įÌģÃ¬dÃ¬": 3188,
      "kamarĠ": 3189,
      "ĠáĬ©": 3190,
      "oĠtaĠ": 3191,
      "kumaĠyaĠ": 3192,
      "takatifuĠ": 3193,
      "Re": 3194,
      "nunaĠ": 3195,
      "uĠzaĠ": 3196,
      "daĠyaĠ": 3197,
      "ensĠ": 3198,
      "orÃŃĠ": 3199,
      "ĠtÃŃ": 3200,
      "je": 3201,
      "aĠc": 3202,
      "áĭĮ": 3203,
      "áīµáį£": 3204,
      "ĠáĪĽáĪĪáīµĠáĬĲáĭįáį¢": 3205,
      "jirg": 3206,
      "Ã©d": 3207,
      "thatĠ": 3208,
      "daĠyawanĠ": 3209,
      "jáº¹ÌģĠplÃ¡náº¹ÌģtÃ¬ĠkÃ©kerÃ©ĠnÃŃĠibiĠÃ¬gbÃłjÃ¡ĠÃ¡stáº¹Ìģrá»įÌģÃ¬dÃ¬": 3210,
      "MataĠ": 3211,
      "ulik": 3212,
      "awarĠ": 3213,
      "®áī½": 3214,
      "á¹£eĠ": 3215,
      "Ky": 3216,
      "dis": 3217,
      "Æĺ": 3218,
      "Ġ-Ġ": 3219,
      "ink": 3220,
      "akaĠm": 3221,
      "áĭ°áī¡áī¥": 3222,
      "ĠáĪĿáĭµáĪŃ": 3223,
      "Ap": 3224,
      "And": 3225,
      "áīłáĪĭ": 3226,
      "áĮ£áĪĿ": 3227,
      "ĠáĪįáĭ©": 3228,
      "Worl": 3229,
      "15Ġ": 3230,
      "dauk": 3231,
      "ric": 3232,
      "aliĠyaĠ": 3233,
      "naĠku": 3234,
      "áĬĵĠáĭ¨": 3235,
      "euxĠ": 3236,
      "Kir": 3237,
      "áĪªáĭİáī½": 3238,
      "ostĠ": 3239,
      "áįĪáĪ¨áĬķ": 3240,
      "commeĠ": 3241,
      "ableĠ": 3242,
      "allĠ": 3243,
      "esĠetĠ": 3244,
      "otherĠ": 3245,
      "ivyoĠ": 3246,
      "aká»į": 3247,
      "wasanĠk": 3248,
      "Kas": 3249,
      "iaĠk": 3250,
      "vil": 3251,
      ",ĠÃ³Ġ": 3252,
      "hadaĠ": 3253,
      "http://": 3254,
      "60": 3255,
      "i)Ġ": 3256,
      "áĪµáĪĪ": 3257,
      "áĬĵĠáīł": 3258,
      "'yanĠ": 3259,
      "alm": 3260,
      "ĠáĪĿáĬķ": 3261,
      "Ger": 3262,
      "Kud": 3263,
      "inter": 3264,
      "ĠáĭķáĪĪáīµ": 3265,
      "Fl": 3266,
      "etaĠ": 3267,
      "Ġáĭľ": 3268,
      "áīĢáīµ": 3269,
      "ĠáĭĻ": 3270,
      "as,Ġ": 3271,
      "ayarĠ": 3272,
      "Ã²á¹£": 3273,
      "áĬ¨áĭļáĪħ": 3274,
      "ostiĠ": 3275,
      "edĠbyĠ": 3276,
      "filamuĠ": 3277,
      "áĭ²áĪµĠáĬłáīłáī£": 3278,
      "Ã¨gbÃ¨Ġ": 3279,
      "tonĠ": 3280,
      "âĢ¢": 3281,
      "áī²áĬ«": 3282,
      "cont": 3283,
      "áĮ¨áĪĽáĪª": 3284,
      "Lib": 3285,
      "Lugh": 3286,
      "Mach": 3287,
      "VĠ": 3288,
      "aaĠ": 3289,
      "hm": 3290,
      "Ãłti": 3291,
      "ojÃºĠ": 3292,
      "her": 3293,
      "kiĠ": 3294,
      "áĭ«áĭį": 3295,
      "ĠáĬłáĭį": 3296,
      "ime": 3297,
      "áī¶áĪµ": 3298,
      "harib": 3299,
      "Part": 3300,
      "Sout": 3301,
      "ki": 3302,
      "áĪĿáį¡": 3303,
      "áĭİáĪµ": 3304,
      "atarĠ": 3305,
      "omeĠ": 3306,
      "Cr": 3307,
      "wana": 3308,
      "áĭĪáĭ°": 3309,
      "ashiĠ": 3310,
      "tain": 3311,
      "NÃŃĠ": 3312,
      "YanĠ": 3313,
      "ars": 3314,
      "áĪĭáīħ": 3315,
      "ĠAr": 3316,
      "ier": 3317,
      "notĠ": 3318,
      "soci": 3319,
      "sÃŃláº¹ÌĢĠ": 3320,
      "yáº¹": 3321,
      "Fiz": 3322,
      "pop": 3323,
      "al,Ġ": 3324,
      "unanĠ": 3325,
      "ĠáĪĽáĭķ": 3326,
      "áĪ¹": 3327,
      "eraĠ": 3328,
      "17Ġ": 3329,
      "iop": 3330,
      "landĠ": 3331,
      "alsoĠ": 3332,
      "Ã³ĠtiĠ": 3333,
      "occ": 3334,
      "Afrik": 3335,
      "wambaĠ": 3336,
      "mÃŃ": 3337,
      "má»į": 3338,
      "ararĠ": 3339,
      "áĬ¨áĪĪ": 3340,
      "Abd": 3341,
      "ananĠhukum": 3342,
      "imoĠ": 3343,
      "gudan": 3344,
      "istanĠ": 3345,
      "185": 3346,
      "lÃ¡ti": 3347,
      "butĠ": 3348,
      "ĠáīĥáĪį": 3349,
      "ta,Ġ": 3350,
      "áĮ¢": 3351,
      "treĠ": 3352,
      "Ã¬má»įÌĢĠ": 3353,
      "Ã²á¹£Ã¨rÃ©": 3354,
      "mer": 3355,
      "kunaĠ": 3356,
      "áĬ¢áīµáĭ®áĮµáĭ«": 3357,
      "áĪĭáĭĬ": 3358,
      "Ġáī¥áĪİ": 3359,
      "stit": 3360,
      ",000Ġ": 3361,
      "gbajÃº": 3362,
      "ĠáĬ¨áįįáī°áĬĽ": 3363,
      "taĠyiĠ": 3364,
      "NewĠYor": 3365,
      "áĪĭáĬŃ": 3366,
      "áĮįáĪŃĠáĬ³áĪµ": 3367,
      "Bal": 3368,
      "On": 3369,
      "áĭ°áĪĿ": 3370,
      "áīłáĪį": 3371,
      "edĠinĠ": 3372,
      "ĠáĬłáĪµáī°áĭ³": 3373,
      "Mor": 3374,
      "áī«": 3375,
      "Ã¬nĠ": 3376,
      "oleĠ": 3377,
      "Dr": 3378,
      "EnĠ": 3379,
      "áī¨": 3380,
      "abl": 3381,
      "Ġáīłáī¥": 3382,
      "áīłáĭļáĪħ": 3383,
      "premi": 3384,
      "ĠáīµáĪĿáĪħáĪŃáīµ": 3385,
      "ĠáĭĭáĬĵĠáĬ¨áī°áĪĽ": 3386,
      "Os": 3387,
      "jiĠwaĠ": 3388,
      "teĠ": 3389,
      "wa.": 3390,
      "ĠH": 3391,
      "áīµĠáį": 3392,
      "áĬĵĠáĪĺ": 3393,
      "ÃłĠl'": 3394,
      "ewarĠ": 3395,
      "14Ġ": 3396,
      "MwakaĠ": 3397,
      "pat": 3398,
      "ĠáĬłáĪ«": 3399,
      "ĠáĪĪáĪĿ": 3400,
      "Ã²á¹£Ã¨rÃ©Ġ": 3401,
      "Mashar": 3402,
      "Yar": 3403,
      "uataĠ": 3404,
      "áīĢáĪĺ": 3405,
      "ĠAmáº¹ÌģrÃŃkÃł": 3406,
      "9)Ġ": 3407,
      "eurĠ": 3408,
      "fl": 3409,
      "pek": 3410,
      "Ġáī£áĪħ": 3411,
      "Pop": 3412,
      "masuĠ": 3413,
      "tit": 3414,
      "yab": 3415,
      "umeĠ": 3416,
      "Ġáī°áĪ«": 3417,
      "toĠtheĠ": 3418,
      "zaiĠ": 3419,
      "¹¢": 3420,
      "Ġáĭ¨áĮį": 3421,
      "áīĢáĭį": 3422,
      "ammal": 3423,
      "27": 3424,
      "30Ġ": 3425,
      "ÃłgbÃ©": 3426,
      "ustĠ": 3427,
      "reg": 3428,
      "kÃ¡": 3429,
      "la": 3430,
      "áįĮ": 3431,
      "un,Ġ": 3432,
      "ÆĻas": 3433,
      "áĭ®áī½": 3434,
      "áĪĬáĭ«": 3435,
      "Najeriya,Ġ": 3436,
      "Iá¹£": 3437,
      "k.": 3438,
      "old": 3439,
      "kutokaĠMarekani": 3440,
      "Colleg": 3441,
      "fas": 3442,
      "Ġ(áĬ¨": 3443,
      "TazamaĠ": 3444,
      "lokac": 3445,
      "ÙĬ": 3446,
      "kuwaĠm": 3447,
      "Ãºgb": 3448,
      "ofaut": 3449,
      "JulaiĠ": 3450,
      "dag": 3451,
      "eniĠ": 3452,
      "sheĠ": 3453,
      "chiniĠyaĠ": 3454,
      "3-": 3455,
      "litt": 3456,
      "ĠáĪĦ": 3457,
      ",ĠandĠ": 3458,
      "Ġáĭ®áĪĲáĬķáĪµ": 3459,
      "Fiziki": 3460,
      "HeĠ": 3461,
      "Ku": 3462,
      "car": 3463,
      "nÃłĠ": 3464,
      "wa,Ġ": 3465,
      "Ã®": 3466,
      "nÃŃbiĠ": 3467,
      "Ã¨tÃ²Ġ": 3468,
      "bayyanaĠ": 3469,
      "GhanaĠ": 3470,
      "Wh": 3471,
      "anis": 3472,
      "ĠáĬłáįį": 3473,
      "ight": 3474,
      "osoĠ": 3475,
      "Ug": 3476,
      "áīłáĪ«": 3477,
      "iĠkar": 3478,
      "16Ġ": 3479,
      "Rob": 3480,
      "sur": 3481,
      "áĭĪáĮ£": 3482,
      "JanuariĠ": 3483,
      "Europ": 3484,
      "lant": 3485,
      "ĠdinĠ": 3486,
      "jáº¹ÌģĠplÃ¡náº¹ÌģtÃ¬ĠkÃ©kerÃ©ĠnÃŃĠibiĠÃ¬gbÃłjÃ¡ĠÃ¡stáº¹Ìģrá»įÌģÃ¬dÃ¬.ĠItokasiĠ": 3487,
      "anyaĠ": 3488,
      "iĠmaiĠ": 3489,
      "áĮĬáĭľ": 3490,
      "Ġ(áĬ¥": 3491,
      "áī³áĭį": 3492,
      "icsĠ": 3493,
      "anĠhaifeĠshiĠaĠshekaraĠtaĠ": 3494,
      "orÃŃláº¹ÌĢĠÃ¨dÃ¨Ġ": 3495,
      "fáº¹ÌģĠ": 3496,
      "oĠsiĠ": 3497,
      "daĠakeĠ": 3498,
      "ĠáĬłáĪĽ": 3499,
      "owĠ": 3500,
      "Ġáī¥áĪŃ": 3501,
      "Ann": 3502,
      "L'": 3503,
      "wish": 3504,
      "anb": 3505,
      "Ġáį¡áį¡": 3506,
      "Gwam": 3507,
      "ys": 3508,
      "arwaĠ": 3509,
      "inat": 3510,
      "wakil": 3511,
      "YaĠ": 3512,
      "aĠjiharĠ": 3513,
      "ameĠ": 3514,
      "áīłáī°": 3515,
      "ĠáĬ¨áĪļ": 3516,
      "ĠáĭŃáī³áĭĪ": 3517,
      "Eth": 3518,
      "hasaĠ": 3519,
      "rin": 3520,
      "resĠ": 3521,
      "áĪ³áĭĬ": 3522,
      "áĬĸáĪµ": 3523,
      "dÃ©Ġ": 3524,
      "]Ġ": 3525,
      "scor": 3526,
      "uĠniĠ": 3527,
      "waik": 3528,
      "waÉĹ": 3529,
      "Stat": 3530,
      "ĠáĪ¥áĪ«": 3531,
      "1,": 3532,
      "Ã©.": 3533,
      "áĪĿáį£": 3534,
      "áĪ«áĪ±": 3535,
      "Wakrist": 3536,
      "sunanĠ": 3537,
      "11Ġ": 3538,
      "lik": 3539,
      "ráº¹": 3540,
      "ĠF": 3541,
      "ĠáĬ£": 3542,
      "akaĠk": 3543,
      "Ġ(áĭ¨": 3544,
      "prop": 3545,
      ")Ġáĭ¨": 3546,
      "100": 3547,
      "24": 3548,
      "yamm": 3549,
      "ĠØ": 3550,
      "áĪ³áī¥": 3551,
      "sÃ¬nĠ": 3552,
      "Dis": 3553,
      "mÃºĠ": 3554,
      "yÃ³": 3555,
      "áĬķáī²": 3556,
      "áī£áī¸áĭį": 3557,
      "ibiyarĠ": 3558,
      "ĠáĬ¥áĬķáĭ²áĪģáĪĿ": 3559,
      "ĠAgostiĠ": 3560,
      "Be": 3561,
      "Op": 3562,
      "mataĠ": 3563,
      "itwaĠ": 3564,
      "taĠkasanceĠ": 3565,
      "áĮĪáĪ©": 3566,
      "Ã©ri": 3567,
      "aisĠwaĠ": 3568,
      "prÃ©s": 3569,
      "AareĠ": 3570,
      "ai,Ġ": 3571,
      "ĠáīĭáĬķáīĭáĭİáī½": 3572,
      "Her": 3573,
      "on.": 3574,
      "áĭĪáĪ°": 3575,
      "ihinĠ": 3576,
      "waikway": 3577,
      "184": 3578,
      "28": 3579,
      "Ek": 3580,
      "dok": 3581,
      "ĠáĪ±": 3582,
      "waĠniĠ": 3583,
      "13Ġ": 3584,
      "yÃłĠ": 3585,
      "ilis": 3586,
      "nÃ¡Ãł": 3587,
      "AwonĠ": 3588,
      "ginaĠ": 3589,
      "ky": 3590,
      "21Ġ": 3591,
      "sá»įĠ": 3592,
      "firstĠ": 3593,
      "ce,Ġ": 3594,
      "Ġáĭ¶": 3595,
      "áĪįáĪµ": 3596,
      "iĠyaĠK": 3597,
      "ĠáĬ¨áĭļáĭ«": 3598,
      "umaĠ": 3599,
      "Bay": 3600,
      "hakaĠ": 3601,
      "má»įÌģĠ": 3602,
      "tÃł": 3603,
      "ĠáĬłáĪľáĪªáĬ«": 3604,
      "ĠáĭĪáĬķáĭµ": 3605,
      "ĠáĪĪáĬł": 3606,
      "(201": 3607,
      "Dav": 3608,
      "gÃŃ": 3609,
      "Ġ4": 3610,
      "áĭĲ": 3611,
      "áĭŃáĬķ": 3612,
      "ĠáĪĺáĮł": 3613,
      "áĬĸáĪ©": 3614,
      "alikuwaĠm": 3615,
      "gudaĠ": 3616,
      "sikuĠ": 3617,
      "WorldĠ": 3618,
      "CO": 3619,
      "gunĠ": 3620,
      "u.Ġ": 3621,
      "ĠáĪª": 3622,
      "samarĠdaĠ": 3623,
      "Uk": 3624,
      "Ġáī½": 3625,
      "Ġáĭ°áĪ¨áĮĥ": 3626,
      "Uch": 3627,
      "adinĠ": 3628,
      "ĠáĬłáĭµáĪŃ": 3629,
      "Ġáĭ¨áĪħ": 3630,
      "áįĪáĭį": 3631,
      "áĪ¬áīµ": 3632,
      "eweĠ": 3633,
      "ĠáĪĨáĬĲáį¢": 3634,
      "Ã¬lÃº": 3635,
      "aâĢĻ": 3636,
      "iaĠ(": 3637,
      "ĠáĭĵáĬŃáĪįáīł.ĠáĮį": 3638,
      "e:Ġ": 3639,
      "rib": 3640,
      "ÃĮj": 3641,
      "daĠsuk": 3642,
      "IlĠ": 3643,
      "wigiz": 3644,
      "ĠáĪĺáĪ°": 3645,
      "Ġáĭ«áĪµ": 3646,
      "ongĠ": 3647,
      "...": 3648,
      "serik": 3649,
      "girm": 3650,
      "26": 3651,
      "áįĲ": 3652,
      "iaĠnaĠ": 3653,
      "Ġáĭ¨áĬ¤": 3654,
      "áįĭáīµ": 3655,
      "ĠáĪ¥áĬĲ": 3656,
      "atolikiĠ": 3657,
      "Ber": 3658,
      "kaf": 3659,
      "amin": 3660,
      "orÃºká»įĠ": 3661,
      "áīĥáĪµ": 3662,
      "áĪĬáĬŃ": 3663,
      "auranĠ": 3664,
      "ightĠ": 3665,
      "score": 3666,
      "King": 3667,
      "taf": 3668,
      "áĬķáį£": 3669,
      "áĪĪáĭ°": 3670,
      "áįįáīµ": 3671,
      "ejÃ¬": 3672,
      "ViungoĠvyaĠnjeĠ": 3673,
      "n,Ġ": 3674,
      "waf": 3675,
      "ÃłmÃ¬": 3676,
      "eanĠ": 3677,
      "áĬĻ": 3678,
      "iĠneĠ": 3679,
      "ĠAfr": 3680,
      "iĠwaĠm": 3681,
      "anyanĠ": 3682,
      "mutaneĠ": 3683,
      "ĠáĭĪáĬķáĭĿ": 3684,
      "Sec": 3685,
      "hab": 3686,
      "lÃ¹": 3687,
      "kuh": 3688,
      "alib": 3689,
      "anzish": 3690,
      "juuĠyaĠ": 3691,
      "Sar": 3692,
      "sit": 3693,
      "ÉĹayaĠ": 3694,
      "amuz": 3695,
      "hasĠ": 3696,
      "KwaĠ": 3697,
      "NationalĠ": 3698,
      "Sik": 3699,
      "kÃłn": 3700,
      "duniyaĠ": 3701,
      "Ġáī°áī¥áĪİ": 3702,
      "Gir": 3703,
      "áĭĭáīĤ": 3704,
      "22Ġ": 3705,
      "yayinĠ": 3706,
      "er.": 3707,
      "áĪĿáĬĲáīµ": 3708,
      "ĠáīłáīĢ": 3709,
      "ÃĮb": 3710,
      "ĠáĪįáĮĨáī½": 3711,
      "serv": 3712,
      "DuniyaĠ": 3713,
      "Kib": 3714,
      "cesĠ": 3715,
      "watoĠ": 3716,
      "alifĠ": 3717,
      "ĠáĬĲáīłáĪ©áį¢": 3718,
      "yank": 3719,
      "ĠáĮ¥áīħáĪĿ": 3720,
      "áĪŃáĪµáī¶áĪµ": 3721,
      "agbÃ¡": 3722,
      "ĠáĭĿáĪŃáĭĿ": 3723,
      "hukumarĠ": 3724,
      "YorÃ¹bÃ¡Ġ": 3725,
      "báº¹Ìģáº¹ÌĢĠ": 3726,
      "ywo": 3727,
      "Ã¢": 3728,
      "áĪįáį£": 3729,
      "Nd": 3730,
      "OrÃŃ": 3731,
      "ĠáīłáĮį": 3732,
      "ĠáĮŃ": 3733,
      "18Ġ": 3734,
      "udiĠ": 3735,
      "ĠáĬŃáįįáĪĪĠáĭĺáĪĺáĬķ": 3736,
      "mÃ¬": 3737,
      "not": 3738,
      "rat": 3739,
      "ÙĨ": 3740,
      "áĪĪáĪĽ": 3741,
      "ĠtÃłbÃŃĠ": 3742,
      "natinĠ": 3743,
      "70": 3744,
      "Go": 3745,
      "áīŃ": 3746,
      "Ã¡l": 3747,
      "usiĠ": 3748,
      "2Ġáĭĵ.áĪĿ.": 3749,
      "eat": 3750,
      "pÃ©": 3751,
      "umiaĠ": 3752,
      "áĪ¥áĪ«": 3753,
      "etteĠ": 3754,
      "JuniĠ": 3755,
      "mod": 3756,
      "nuĠ": 3757,
      "áĮĪáĪ«": 3758,
      "áĭĵáīµ": 3759,
      "ĠÂ«áĭ¨": 3760,
      "walej": 3761,
      "|ĠRD1-": 3762,
      "25Ġ": 3763,
      "Per": 3764,
      "dom": 3765,
      "hor": 3766,
      "w.": 3767,
      "Ġáĭ¨áĭį": 3768,
      "áĬĲáĭį": 3769,
      "aĠkamaĠ": 3770,
      "ĠáĮįáī¥": 3771,
      "stitut": 3772,
      "ortĠ": 3773,
      "áĭŃáīµ": 3774,
      "kutokaĠMarekaniĠ": 3775,
      "ĠáĪĺáĬķáĮĪáĭµ": 3776,
      "fromĠtheĠ": 3777,
      "Sain": 3778,
      "iĠ-Ġ": 3779,
      "egeĠ": 3780,
      "Award": 3781,
      "áĪĪáī²áĬ«": 3782,
      "áĪĺáīµ": 3783,
      "utawal": 3784,
      "Ġáĭ¨áĬ¢": 3785,
      "áĪ½áĬķ": 3786,
      "áĭŃáĭĪáīµ": 3787,
      "Aj": 3788,
      "ful": 3789,
      "ori": 3790,
      "chang": 3791,
      "áĮłáīħ": 3792,
      "Ġáī¥áĪĶ": 3793,
      "ĠáĮ¥áĬĵáīµ": 3794,
      "jagor": 3795,
      "ÃłwonĠ": 3796,
      "asil": 3797,
      "áĭĪáī½": 3798,
      "ĠáĮ¥áĬķ": 3799,
      "Fir": 3800,
      "Of": 3801,
      "pÃł": 3802,
      "arch": 3803,
      "iki.": 3804,
      "ĠáĬłáĪģ": 3805,
      "iweĠ": 3806,
      "aĠlokacinĠ": 3807,
      "ayyarĠ": 3808,
      "yenyeĠ": 3809,
      "ĠáĪĺáĮ½áĪĲáįį": 3810,
      "app": 3811,
      "áĪ®áĪµ": 3812,
      "áĬĶáī³": 3813,
      "áĪĺáĬĵáĭĬ": 3814,
      "lab": 3815,
      "áĪµáįĭ": 3816,
      "una": 3817,
      "aĠkwaĠm": 3818,
      "din": 3819,
      "dishiĠ": 3820,
      "áĪĭáĭį": 3821,
      "NigerianĠ": 3822,
      "sehemuĠyaĠ": 3823,
      "80": 3824,
      "dang": 3825,
      "eauĠ": 3826,
      "ĠáĪ®": 3827,
      "adiĠyaĠ": 3828,
      "ĠáĬ¨áĬĲ": 3829,
      "áĭĺáĮĭ": 3830,
      "iĠnaĠm": 3831,
      "aireĠ": 3832,
      "-ĠA": 3833,
      "Awá»įnĠ": 3834,
      "kÃ¹n": 3835,
      "áĪŁ": 3836,
      "ojaĠ": 3837,
      "ItokasiĠÃĢwá»įnĠ": 3838,
      "jÃ¹lá»įĠ": 3839,
      "Ex": 3840,
      "wilayaĠ": 3841,
      "pres": 3842,
      "oá¹£Ã¹Ġkáº¹": 3843,
      "ÃŃrÃłnĠ": 3844,
      "ĠáĪīáīĥáĪµ": 3845,
      "baadaĠyaĠ": 3846,
      "áĪ¾": 3847,
      "Ġáī°áĪ°": 3848,
      "lÃ³rÃŃ": 3849,
      "IIĠ": 3850,
      "a-fin": 3851,
      "wÃŃpÃ©Ġ": 3852,
      "ertĠ": 3853,
      "áĬĲáĪ³": 3854,
      "áĪ¨áĪĿ": 3855,
      "wanz": 3856,
      "ific": 3857,
      "wardĠ": 3858,
      "tim": 3859,
      "ĠáĬłáįĪ": 3860,
      "Ġáĭ¨áĪķ": 3861,
      "ÆĻasaĠ": 3862,
      "Ni": 3863,
      "bec": 3864,
      "me": 3865,
      "ition": 3866,
      "áĪ«áĬķ": 3867,
      "aĠgasarĠ": 3868,
      "áĭķáĪ«áī¥": 3869,
      "Gl": 3870,
      "io": 3871,
      "ideĠ": 3872,
      "iĠyaĠk": 3873,
      "FebruariĠ": 3874,
      "||": 3875,
      "ĠáīłáįĬáīµ": 3876,
      "áįĪáĪį": 3877,
      "Ġáĭ¨áĬłáĪľáĪªáĬ«": 3878,
      "UniversityĠofĠ": 3879,
      "ShugabanĠ": 3880,
      "peluĠ": 3881,
      "u-": 3882,
      "taĠnaĠ": 3883,
      "gbá»įÌĢ": 3884,
      "alip": 3885,
      "ĠáīħáĪŃ": 3886,
      "des": 3887,
      "áįİáī½": 3888,
      "áĪįáĪĿ": 3889,
      "ĠáĬ¥áĬķáĮĤ": 3890,
      "e,Ġm": 3891,
      "Christ": 3892,
      "ĠáĭŃáī£áĪĭáĪįáį¢": 3893,
      "Oy": 3894,
      "ĠáĪģáĪĪ": 3895,
      "awan": 3896,
      "lĠ": 3897,
      "oseĠ": 3898,
      "kasuwan": 3899,
      "&Ġ": 3900,
      "Az": 3901,
      "Gb": 3902,
      "Wal": 3903,
      "iĠzaĠ": 3904,
      "oĠdaĠ": 3905,
      "sĠdeĠ": 3906,
      "ĠáĬłáīĢ": 3907,
      "umbaĠ": 3908,
      "ĠáĭĪáĭŃ": 3909,
      "ref": 3910,
      "Ġáĭ¨áĪļáĪĪáĭį": 3911,
      "ubuĠ": 3912,
      "Ãłráº¹Ġ": 3913,
      "Del": 3914,
      "áī³áĪªáĬŃ": 3915,
      "haveĠ": 3916,
      "ĠáĮīáĭ³": 3917,
      "amfaniĠdaĠ": 3918,
      "wasanĠkwaikway": 3919,
      "He": 3920,
      "alementĠ": 3921,
      "ĠáĬŃáĪį": 3922,
      "mi": 3923,
      "rad": 3924,
      "asharaĠ": 3925,
      "UlayaĠ": 3926,
      "Med": 3927,
      "dif": 3928,
      "Ġ5": 3929,
      "ĠáīłáĪŃ": 3930,
      "áī¥áĪ¨áīµ": 3931,
      "oyÃ¨Ġ": 3932,
      "ammaĠ": 3933,
      "ĠáĬķáĮį": 3934,
      "NaijiriaĠ": 3935,
      "padÃłĠ": 3936,
      "gid": 3937,
      "shaw": 3938,
      "Ġáį²áį": 3939,
      "ĠáĪĽáĬķ": 3940,
      "Ġkm": 3941,
      "ectr": 3942,
      "www.": 3943,
      "ISB": 3944,
      "Kats": 3945,
      "babb": 3946,
      "mulk": 3947,
      "sÃ³": 3948,
      "ĠáĮĮ": 3949,
      "ĠáīµáĬķ": 3950,
      "overn": 3951,
      "ongoĠ": 3952,
      "ĠáĬ¥áĬķáĭ²áĪħ": 3953,
      "tÃłbÃŃĠ": 3954,
      "áĬĲáī±": 3955,
      "áĪĽáīµ": 3956,
      "ĠáįķáĪ¬": 3957,
      "cap": 3958,
      "attalinĠ": 3959,
      "ĠáĪķáĭĿáī¥": 3960,
      "8-": 3961,
      "yawanĠ": 3962,
      "iny": 3963,
      "alaĠ": 3964,
      "áĬŃáĪī": 3965,
      "ĠkanĠ": 3966,
      "Ġáī³áĪªáĬ«áĭĬ": 3967,
      "aĠdun": 3968,
      "LagosĠ": 3969,
      "UjerumaniĠ": 3970,
      "fÃŃÃ¬m": 3971,
      "ĠáĭŃáī³áĭĪáīĥ": 3972,
      "lakeĠ": 3973,
      "Â°": 3974,
      "taĠhanyarĠ": 3975,
      "ĠáĪĺáĪłáĪ¨": 3976,
      "ock": 3977,
      "NchiĠ": 3978,
      "tab": 3979,
      "yaĠkasanceĠ": 3980,
      "iti": 3981,
      "áĪĪáĬķ": 3982,
      "áĪĺáĭµ": 3983,
      "unĠniĠ": 3984,
      "ĠáĬ¨áĬ¥": 3985,
      "asiasaĠ": 3986,
      "lÃ³gÃºnĠ": 3987,
      "ishiĠwaĠ": 3988,
      "oĠkatikaĠ": 3989,
      "Waliozali": 3990,
      "-ĠMtakatifuĠ": 3991,
      "dayaĠdagaĠcikinĠ": 3992,
      "AS": 3993,
      "ia.Ġ": 3994,
      "pÃ¨": 3995,
      "amad": 3996,
      "Ã¡r": 3997,
      "áĪ¨áĪ°": 3998,
      "0)Ġ": 3999,
      "Pap": 4000,
      "San": 4001,
      "lo": 4002,
      "pasĠ": 4003,
      "tat": 4004,
      "áĪŃáī²": 4005,
      "Ã¬gbÃłĠ": 4006,
      "oryĠ": 4007,
      "aĠmat": 4008,
      "24Ġ": 4009,
      "maj": 4010,
      "onĠtheĠ": 4011,
      "popul": 4012,
      "taraĠ": 4013,
      "inĠg": 4014,
      "Ã¬f": 4015,
      "ĠáĬ¨áĭļáĪħ": 4016,
      "ĠáĬĲáĭįáį¡áį¡": 4017,
      "ÅĦĠs": 4018,
      "ĠáĬĵáī¸áĭį": 4019,
      "JinaĠ": 4020,
      "UingerezaĠ": 4021,
      "aĠÆĻasarĠ": 4022,
      "contr": 4023,
      "anĠhaifeĠtaĠ": 4024,
      "upandeĠwaĠ": 4025,
      "ĠáĭĿáĪŃáĭĿáĪŃ": 4026,
      "fim": 4027,
      "iâĢĻ": 4028,
      "má»įĠ": 4029,
      "ĠnaĠ": 4030,
      "arz": 4031,
      "enz": 4032,
      "áĪĺáĪį": 4033,
      "adem": 4034,
      "entsĠ": 4035,
      "Ġáº¹láº¹ÌģbÃ¹nĠ": 4036,
      "/Ġ": 4037,
      "KatikaĠ": 4038,
      "juĠ": 4039,
      "ver": 4040,
      "¶áį": 4041,
      "áĭļáĪģ": 4042,
      "ĠáĬ¥áĬĵĠáīł": 4043,
      "indiĠ": 4044,
      "Kal": 4045,
      "new": 4046,
      "sar": 4047,
      "tel": 4048,
      "ini": 4049,
      "erÃ©": 4050,
      "ilion": 4051,
      "áĭ«áĭĬ": 4052,
      "aĠma": 4053,
      "taim": 4054,
      "áĬ¨áī°áĪĽ": 4055,
      "Ã©tÃ©Ġ": 4056,
      "'y": 4057,
      "29Ġ": 4058,
      "6-": 4059,
      "Lat": 4060,
      "Oct": 4061,
      "Pet": 4062,
      "áĬĵáī¸áĭį": 4063,
      "adil": 4064,
      "ĠáīłáĬ©": 4065,
      "ĠáĪģáĬĶáī³": 4066,
      "sabodaĠ": 4067,
      "InternationalĠ": 4068,
      "ĠApriliĠ": 4069,
      ")Ġáīł": 4070,
      "Sab": 4071,
      "áĬĵáĪįáį¢": 4072,
      "ĠáĮĬ": 4073,
      "Ã¹gbá»įÌģnĠ": 4074,
      "iĠkamaĠ": 4075,
      "ammanĠ": 4076,
      "23Ġ": 4077,
      "Dem": 4078,
      "kim": 4079,
      "uis": 4080,
      "Äģ": 4081,
      "Ãłj": 4082,
      "jim": 4083,
      "rá»įÌĢ": 4084,
      "áĪ«áĪ²": 4085,
      "agesĠ": 4086,
      "emĠ": 4087,
      "ĠáĭŃáīĢ": 4088,
      "áĬ¨áīµ": 4089,
      "yÃ¬ÃŃ": 4090,
      "áī¤áī°": 4091,
      "babbanĠbirninĠ": 4092,
      "jinaĠlaĠ": 4093,
      "sinim": 4094,
      "28Ġ": 4095,
      "4-": 4096,
      "ItaĠ": 4097,
      "Sam": 4098,
      "uoĠ": 4099,
      "áĮĦ": 4100,
      "Ġáī»": 4101,
      "unt": 4102,
      "olos": 4103,
      "áīłáĬł": 4104,
      "sanyaĠ": 4105,
      "Comm": 4106,
      "Haif": 4107,
      "áī¥áīµ": 4108,
      "ĠáĬĲáĮ»": 4109,
      "le-": 4110,
      "Ethiop": 4111,
      "Bah": 4112,
      "faĠ": 4113,
      "Ġáī±": 4114,
      "Amerik": 4115,
      "áĪĪáī½": 4116,
      "aux": 4117,
      "A.": 4118,
      "cik": 4119,
      "ox": 4120,
      "uĠK": 4121,
      "akonĠ": 4122,
      "áĬĲáīłáĪ¨": 4123,
      "Ġ(200": 4124,
      "áĪ¶áī½": 4125,
      "ĠáĪļáĬĴ": 4126,
      "Ng": 4127,
      "ĠáĬ¨áĬłáĪ": 4128,
      "Ilim": 4129,
      "ĠáįĪáĪŃ": 4130,
      "nÃ¬": 4131,
      "Ġáĭ¨áĪµ": 4132,
      "akosoĠ": 4133,
      "Ġtáº¹Ìģ": 4134,
      ".ĠK": 4135,
      "ĠáĪĺáĮ¨áĪ¨áĪ»": 4136,
      "utaneĠ": 4137,
      "neĠdagaĠ": 4138,
      "áĭļáīĥ": 4139,
      "29": 4140,
      "MwakaĠwaĠ": 4141,
      "kuk": 4142,
      "áĭ°áĭį": 4143,
      "ĠáĬŃáĪŃáĪµáī²áĭ«áĬķ": 4144,
      "Ġ17": 4145,
      "anniĠ": 4146,
      "unc": 4147,
      "183": 4148,
      "tsarinĠ": 4149,
      "eziĠ": 4150,
      "rÃ©g": 4151,
      "has": 4152,
      "sel": 4153,
      "Ġáįĭ": 4154,
      ".ĠManazartaĠ": 4155,
      "walejinĠ": 4156,
      "nem": 4157,
      "ayyaĠ": 4158,
      "Wah": 4159,
      "mwakaĠ": 4160,
      "tsĠ": 4161,
      "áī´áĭİáĪµ": 4162,
      "ĠáĬĲáĮĪáĪ®áī½": 4163,
      "entreĠ": 4164,
      "yanzuĠ": 4165,
      "Sc": 4166,
      "yÃłnĠ": 4167,
      "aĠwatanĠ": 4168,
      "áĬ¸": 4169,
      "enoĠ": 4170,
      "ikub": 4171,
      "áĪĿáĬķ": 4172,
      "Ãłwá»įnĠÃ¨nÃ¬yÃłnĠ": 4173,
      "Marej": 4174,
      "wakatiĠwaĠ": 4175,
      "Ġáī¢áĪĨáĬķ": 4176,
      "kusin": 4177,
      "áĮĪáĬĺáĭį": 4178,
      "pá»įÌĢlá»į": 4179,
      "Láº¹Ìģ": 4180,
      "oot": 4181,
      "ĠáĭĺáĪŃ": 4182,
      "ational": 4183,
      "27Ġ": 4184,
      "Mil": 4185,
      "nÃŃĠÃ¬lÃºĠ": 4186,
      "prot": 4187,
      "áī»áī¸áĭį": 4188,
      "Ġáĭ¨áĪĽáĭŃ": 4189,
      "commun": 4190,
      "TanaĠ": 4191,
      "aud": 4192,
      "ryĠ": 4193,
      "sakeĠ": 4194,
      "alim": 4195,
      "akoĠ": 4196,
      "kuz": 4197,
      "ÃĢwá»įnĠÃ¬t": 4198,
      "zinaz": 4199,
      "Haifaf": 4200,
      "Fin": 4201,
      "dev": 4202,
      "nau": 4203,
      "ÃłgbÃłĠ": 4204,
      "en.": 4205,
      ".Ġ(": 4206,
      "áĮĪáĭ°": 4207,
      "anziaĠ": 4208,
      "ĠáĭŃáĮĪáĬĽáĪįáį¢": 4209,
      "ananĠhukumominĠ": 4210,
      "Bel": 4211,
      "Kil": 4212,
      "muĠ": 4213,
      "áĪĤ": 4214,
      "ship": 4215,
      "áĪĺáĮ£": 4216,
      "ifuat": 4217,
      "AfricanĠ": 4218,
      "aĠkasanceĠ": 4219,
      "centur": 4220,
      "Aug": 4221,
      "jar": 4222,
      "ÙĪ": 4223,
      "ĠáĬłáīµ": 4224,
      "okeaĠ": 4225,
      "ackĠ": 4226,
      "ungan": 4227,
      "iziĠ": 4228,
      "Chin": 4229,
      "nÃŃnÃº": 4230,
      "iquesĠ": 4231,
      "wararr": 4232,
      "Ibad": 4233,
      "okuwaĠ": 4234,
      "pakaĠ": 4235,
      "tÃºnĠ": 4236,
      "ĠáĪ¦": 4237,
      "ĠáīłáĪĻ": 4238,
      "iá¹£áº¹Ìģ": 4239,
      "Ã³ĠtÃ³Ġ": 4240,
      "ĠáĭµáĪŃáĮħ": 4241,
      "Hukum": 4242,
      "Kit": 4243,
      "agbaĠ": 4244,
      "hut": 4245,
      "wÃ³nĠ": 4246,
      "áįĶ": 4247,
      "ikanĠ": 4248,
      "iter": 4249,
      "Bi": 4250,
      "Hot": 4251,
      "famil": 4252,
      "rem": 4253,
      "yaw": 4254,
      "áĪĺáĭį": 4255,
      "esab": 4256,
      "áº¹Ìģká»įÌĢ": 4257,
      "opoĠ": 4258,
      "ever": 4259,
      "agbÃ¨gbÃ¨Ġ": 4260,
      "áī·áĪįáį¢": 4261,
      "isaĠgaĠ": 4262,
      "Peop": 4263,
      "Ta": 4264,
      "sim": 4265,
      "vis": 4266,
      "ye": 4267,
      "áĭĭáĬĵ": 4268,
      "ourn": 4269,
      "áĮĢáĪŃáĪĺáĬķ": 4270,
      "ba.": 4271,
      "ĠáĬ¡": 4272,
      "atib": 4273,
      "áĪĺáĪ°": 4274,
      "ĠáĬ¥áĬĲ": 4275,
      "ectĠ": 4276,
      "yaĠKemi": 4277,
      "KenyaĠ": 4278,
      "byĠtheĠ": 4279,
      "'YanĠ": 4280,
      "2,": 4281,
      "nas": 4282,
      "ÃłrÃŃ": 4283,
      "iranĠ": 4284,
      "áĭ°áĬķ": 4285,
      "eder": 4286,
      "shindiĠwaĠTuzoĠyaĠNobelĠyaĠKemi": 4287,
      "ÃĢwá»įnĠáº¹láº¹ÌģbÃ¹nĠ": 4288,
      "ilÃ©-áº¹ÌĢká»įÌģĠ": 4289,
      "á»įÌģkasÃŃ": 4290,
      "ĠáĪĿáĬŃáĬķáĭ«áīµ": 4291,
      "-áĬł": 4292,
      "Cor": 4293,
      "DolaĠ": 4294,
      "Ġ(áīł": 4295,
      "ativeĠ": 4296,
      "áįĪáĮ¥": 4297,
      "Waliofariki": 4298,
      "Ã²rÃ¹nĠ": 4299,
      "eneoĠlaĠ": 4300,
      "Mung": 4301,
      "Mich": 4302,
      "kamaĠ": 4303,
      "s'": 4304,
      "áĬķáĭ±": 4305,
      "Ãłb": 4306,
      "âĢĶ": 4307,
      "nÃ¡Ãł.": 4308,
      "sababuĠ": 4309,
      "ĠáĪĿáĬķáĮ®áī½": 4310,
      "HaifaffunĠ": 4311,
      "Kh": 4312,
      "US": 4313,
      "Waz": 4314,
      "páº¹l": 4315,
      "Ãłg": 4316,
      "ondĠ": 4317,
      "ĠáīłáĪ½": 4318,
      "ĠáĪĿáĬķáĪĿ": 4319,
      "ipoĠ": 4320,
      "ed.": 4321,
      "Roma,Ġ": 4322,
      "JanuaryĠ": 4323,
      "lambarĠ": 4324,
      "Waliozaliwa": 4325,
      "AN": 4326,
      "canĠ": 4327,
      "iakaĠm": 4328,
      "o:Ġ": 4329,
      "áĪµáĭ«": 4330,
      "Ã³Ġá¹£eĠ": 4331,
      "âĢ¹": 4332,
      "ijobaĠ": 4333,
      "AĠwatanĠ": 4334,
      "áĪ±áĪµ": 4335,
      "Â»Ġ": 4336,
      "nÃŃnuĠ": 4337,
      "ellĠ": 4338,
      "Octob": 4339,
      "90": 4340,
      "Er": 4341,
      "áĪ·": 4342,
      "are": 4343,
      "áĪĭáĪ´": 4344,
      "aĠkasarĠ": 4345,
      "180": 4346,
      "Ġáĭĭáī¢": 4347,
      "gameĠdaĠ": 4348,
      "BB": 4349,
      "fÃ©r": 4350,
      "lil": 4351,
      "ĠáĪł": 4352,
      "ĠáĪĿáĪŃ": 4353,
      "oor": 4354,
      "sesĠ": 4355,
      "alb": 4356,
      "Ġáĭ¨áĬ«": 4357,
      "ost": 4358,
      "uguĠ": 4359,
      "ojÃº": 4360,
      "Ġáĭ¨áī°áĪ°": 4361,
      "ziliz": 4362,
      "DecemberĠ": 4363,
      "bor": 4364,
      "cc": 4365,
      "ataif": 4366,
      "ident": 4367,
      "atikaĠk": 4368,
      "Hisp": 4369,
      "a;Ġ": 4370,
      "·áį": 4371,
      "onc": 4372,
      "áĮĪáĪį": 4373,
      "ĠáĪĺáĪŃ": 4374,
      "ĠáĪĺáĪįáĬŃ": 4375,
      "wá»įĠ": 4376,
      "áĬŃáĪŃ": 4377,
      "áīłáĪĪ": 4378,
      "ed,Ġ": 4379,
      "otaĠ": 4380,
      "ĠAb": 4381,
      "anaĠnaĠm": 4382,
      "prof": 4383,
      "áĭ²áĭ«": 4384,
      "uĠmasoĠ": 4385,
      "Ġá»įjá»įÌģĠ": 4386,
      "hum": 4387,
      "oin": 4388,
      "warĠ": 4389,
      "ÃłgbÃł": 4390,
      "onaĠ": 4391,
      "elyĠ": 4392,
      "ott": 4393,
      "5Ġ-Ġ": 4394,
      "wandaĠakaĠ": 4395,
      "gbajÃºmá»įÌĢĠ": 4396,
      "tÃ¬Ġ": 4397,
      "akk": 4398,
      "ativ": 4399,
      "áīĨáĪµ": 4400,
      "ĠáĮ½áĪĳ": 4401,
      "ouldĠ": 4402,
      "Sark": 4403,
      "atanĠ": 4404,
      "áĪĭáĪĽ": 4405,
      "âĢº": 4406,
      "áīłáĪĺ": 4407,
      "ayyunĠ": 4408,
      "loriĠ": 4409,
      "lasheĠ": 4410,
      "ne.": 4411,
      "Ø±": 4412,
      "inf": 4413,
      "áĭĪáĪŃ": 4414,
      "Mart": 4415,
      "aĠfanninĠ": 4416,
      "ajiĠwaĠfilamuĠ": 4417,
      "Kiswah": 4418,
      "cel": 4419,
      "ĠáĪµáĪĻ": 4420,
      "áĪİáīµ": 4421,
      "sup": 4422,
      "Ãłwá»įnĠá»įjá»įÌģÃ¬bÃŃĠnÃŃĠ": 4423,
      "siyas": 4424,
      "daiĠ": 4425,
      "ariĠwaĠ": 4426,
      "áĬĵáĭĬ": 4427,
      "ĠáĮłáĪ": 4428,
      "Ã³mÃ¬n": 4429,
      "Ġáįª": 4430,
      "idayarĠ": 4431,
      "iĠyaĠm": 4432,
      "rew": 4433,
      "alÃ¡Ã¬": 4434,
      "kashinĠ": 4435,
      "ĠáĪłáĪ«": 4436,
      "Ahm": 4437,
      "Es": 4438,
      "ĠáĬħ": 4439,
      "Ãłf": 4440,
      "áĭ³áĪŃ": 4441,
      "tureĠ": 4442,
      "sikuĠyaĠ": 4443,
      "ĠáĪ¥áĪŃáĭĪ": 4444,
      "arÃ¡ĠAmáº¹ÌģrÃŃkÃł": 4445,
      "tsohonĠ": 4446,
      "5-": 4447,
      "Dar": 4448,
      "S.": 4449,
      "aĠr": 4450,
      "eny": 4451,
      "ĠáĭŃáĪĨ": 4452,
      "nÃŃĠÃĮpÃŃnláº¹ÌĢĠ": 4453,
      "Ġáĭ°áĪ´": 4454,
      "ÃĴg": 4455,
      "jama'aĠ": 4456,
      "Mt": 4457,
      "cer": 4458,
      "dominĠ": 4459,
      "ĠáĪĤ": 4460,
      "arĠk": 4461,
      "ĠáĬ¥áĮįáĪŃĠáĬ³áĪµ": 4462,
      "ĠáĬłáĪ³": 4463,
      "kask": 4464,
      "TazamaĠpiaĠ": 4465,
      "Bib": 4466,
      "iwaĠk": 4467,
      "uriĠ": 4468,
      "Ġáĭ¨áĪ¥": 4469,
      "ĠáĪĿáĪįáĬŃ": 4470,
      "produc": 4471,
      "áĮłáĭį": 4472,
      "iá¹£áº¹Ġ": 4473,
      "áĬ¥áĬķáĭ°": 4474,
      "ilomitaĠ": 4475,
      "''": 4476,
      "97": 4477,
      "MajalisarĠ": 4478,
      "waz": 4479,
      "akam": 4480,
      "ĠáĬłáĭ«": 4481,
      "olon": 4482,
      "áĭĪáīħ": 4483,
      "neĠaĠ": 4484,
      "RayayyunĠ": 4485,
      "Fasih": 4486,
      "burg": 4487,
      "EbunĠ": 4488,
      "áįĪáĪ¨áĬķáĪ³áĭŃ": 4489,
      "Bank": 4490,
      "Uingerez": 4491,
      "ilÃ©": 4492,
      "áĪµáįĵ": 4493,
      "iriĠnaĠ": 4494,
      "á»įÌģá»įÌĢ": 4495,
      "aguz": 4496,
      "hukumaĠ": 4497,
      "Ġá»įdÃºnĠ200": 4498,
      "eĠdeĠlaĠ": 4499,
      "-áº¹ÌĢ": 4500,
      "kÃŃ": 4501,
      "mÃŃĠ": 4502,
      "áĪ¡": 4503,
      "aĠsh": 4504,
      "kuuĠ": 4505,
      "adayeĠ": 4506,
      "forĠtheĠ": 4507,
      "daĠkar": 4508,
      "áĭķáĪį": 4509,
      "wadan": 4510,
      "addin": 4511,
      "Ġáº¸ÌĢ": 4512,
      "laĠk": 4513,
      "sch": 4514,
      "áĪ¯": 4515,
      "ane": 4516,
      "ĠáĬĴ": 4517,
      "ĠáĬĸ": 4518,
      "Ã¬p": 4519,
      "áº¹ÌĢáº¹Ìģ": 4520,
      "ĠáĭĪáĪ¨áĭ³": 4521,
      "fran": 4522,
      "ation,Ġ": 4523,
      "JamesĠ": 4524,
      "ĠáĬłáĪĪáīĥ": 4525,
      "Ø§ÙĦ": 4526,
      "uisĠ": 4527,
      "áĪĽáĬķ": 4528,
      "ÃĢÃłráº¹Ġ": 4529,
      "áĭĭáĬķ": 4530,
      "anci": 4531,
      "áĪłáĪ«": 4532,
      "Lak": 4533,
      "bang": 4534,
      "pers": 4535,
      "onsĠ": 4536,
      "ĠáĮħ": 4537,
      "ÅĦĠá¹£": 4538,
      "Makar": 4539,
      "MkoaĠwaĠ": 4540,
      "egb": 4541,
      "áī¥áĭĻ": 4542,
      "aff": 4543,
      "the": 4544,
      "entom": 4545,
      "áĭİáī½áĬķ": 4546,
      "AĠranarĠ": 4547,
      "AmericanĠ": 4548,
      "pÃ¨ĠnÃŃĠ": 4549,
      "26Ġ": 4550,
      "Mb": 4551,
      "Riv": 4552,
      "akatifuĠ": 4553,
      "áī°áĬķ": 4554,
      "áĪĪáī½áį¢": 4555,
      "ĠáĬłáĪ¸": 4556,
      "áĭ¨áĬł": 4557,
      "ojaĠwaĠ": 4558,
      "aniĠdaĠ": 4559,
      "birniĠ": 4560,
      "1892Ġáĭĵ.áĪĿ.": 4561,
      ")áį£": 4562,
      "yr": 4563,
      "Ġáį¤": 4564,
      "ĠáĭŃáĪĺáĪµ": 4565,
      "áĭ¨áĪĿ": 4566,
      "ejÃ¬Ġ": 4567,
      "sÃŃĠnÃŃĠ": 4568,
      "danĠwasanĠÆĻwallonĠÆĻafaĠtaĠÆĻasarĠIngil": 4569,
      "áĭĳ": 4570,
      "atom": 4571,
      "áĪĺáĪ«": 4572,
      "ĠáĪĺáĮĢáĪĺáĪŃáĭ«": 4573,
      "ick": 4574,
      "ĠkwaĠ": 4575,
      "Alex": 4576,
      "ĠdesĠ": 4577,
      "ĠáĭķáĪĪ": 4578,
      "iliyanĠ": 4579,
      "FAĠ": 4580,
      "hiiĠ": 4581,
      "nadaĠ": 4582,
      "á»įnĠ": 4583,
      "orÃŃ": 4584,
      "áĬĵĠáĬ¨": 4585,
      "Ã²unĠ": 4586,
      "ifÃ¡": 4587,
      "iĠmwaĠ": 4588,
      "OlÃ³": 4589,
      "ity": 4590,
      "áĮĪáī¥": 4591,
      "awai": 4592,
      "Ġáº¹niĠ": 4593,
      "oyeĠ": 4594,
      "Ġáī³áĭĭáīĤ": 4595,
      "Ġáīłáī°áĪĪáĭŃ": 4596,
      "ĠthatĠ": 4597,
      "SeptemberĠ": 4598,
      "Engl": 4599,
      "páº¹luĠ": 4600,
      "Maj": 4601,
      "t,Ġ": 4602,
      "ĠáĪº": 4603,
      "ĠáīłáĮ£áĪĿ": 4604,
      "ĠáĬ¥áĭį": 4605,
      "áĮĪáīł": 4606,
      "agu": 4607,
      "okeĠ": 4608,
      "áĭĺáĪŃ": 4609,
      "áĬ®áī½": 4610,
      "Ã¬tÃłnĠ": 4611,
      "áĮįáī¥áĮ½": 4612,
      "a)": 4613,
      "binĠ": 4614,
      "gin": 4615,
      "gidanĠ": 4616,
      "vy": 4617,
      "áĮ¦áĪŃ": 4618,
      "áĭ°áĮį": 4619,
      "ole": 4620,
      "Ã²g": 4621,
      "ĠáīłáĪĮ": 4622,
      "Abub": 4623,
      "Adam": 4624,
      "ĠáĬŃáįįáĪĭ": 4625,
      "ráº¹ÌĢ.": 4626,
      "WilayaĠ": 4627,
      "aseĠ": 4628,
      "oloj": 4629,
      "Ã²yÃ¬nĠ": 4630,
      "áĭ²áĪħ": 4631,
      "1Ġ-Ġ": 4632,
      "hadĠ": 4633,
      "beenĠ": 4634,
      "ISBNĠ": 4635,
      "Port": 4636,
      "jiniĠ": 4637,
      "so": 4638,
      "StateĠ": 4639,
      "Pat": 4640,
      "Up": 4641,
      "Wam": 4642,
      "binc": 4643,
      "sal": 4644,
      "Ã©c": 4645,
      "unciĠ": 4646,
      "áĭĬáīµ": 4647,
      "áĮ£áīµ": 4648,
      "ĠáĬłáĭŃáĭ°": 4649,
      "nor": 4650,
      "nomb": 4651,
      "samaĠ": 4652,
      "ana'": 4653,
      "ÃłÃły": 4654,
      "kulaĠ": 4655,
      "un.": 4656,
      "áĪ³áī¸áĭį": 4657,
      "áĮ¥áĪ¨": 4658,
      "BaadaĠyaĠ": 4659,
      "áĪįáĮ£áĬķ": 4660,
      "YorÃ¹bÃ¡": 4661,
      "'yarĠ": 4662,
      "Sat": 4663,
      "al.": 4664,
      "alil": 4665,
      "aĠkwenyeĠ": 4666,
      "ectionĠ": 4667,
      "Ibrah": 4668,
      "ÃĢwá»įnĠáº¹láº¹ÌģbÃ¹nĠNobelĠ": 4669,
      "ai.": 4670,
      "e)": 4671,
      "fimĠ": 4672,
      "ikiaĠ": 4673,
      "áĪĺáī±": 4674,
      "áĮįáĪį": 4675,
      "ĠáīłáĪģ": 4676,
      "ĠáīĢáĮ¥": 4677,
      "shekararĠ200": 4678,
      "áĪķáĪŃ": 4679,
      "portĠ": 4680,
      "láº¹ÌģyÃ¬nĠ": 4681,
      "ollywo": 4682,
      "Atlant": 4683,
      "GeorgeĠ": 4684,
      "FI": 4685,
      "ba,Ġ": 4686,
      "áįĳ": 4687,
      "enez": 4688,
      "oldĠ": 4689,
      "áįĪáĪµ": 4690,
      "áīłáĪ©áīµ": 4691,
      "ÃłgbÃ©lÃ©": 4692,
      "áĪ¨áī¥": 4693,
      "áĭµáĪ¨áĮį": 4694,
      "awak": 4695,
      "TibaĠmwakaĠwaĠ": 4696,
      "Coun": 4697,
      "hiyoĠ": 4698,
      "Æ´": 4699,
      "ĠáĪ»": 4700,
      "áĭįáĪĿ": 4701,
      "orig": 4702,
      "Ãºs": 4703,
      "eĠdansĠ": 4704,
      "oĠkwaĠ": 4705,
      "nÃŃnÃºĠerÃ©Ġ": 4706,
      "ĠáĬ¥áĬķáĮįáĪĬáĭĿ": 4707,
      "3,": 4708,
      "fan": 4709,
      "Ã©ta": 4710,
      "kutokaĠnchiĠyaĠ": 4711,
      "áĮłáĪ©": 4712,
      "ĠáĬłáĮĪáĪįáĮį": 4713,
      "áĪĿáĪħáĪŃ": 4714,
      "WakristoĠ": 4715,
      "áĪ¨áĮĭ": 4716,
      "offic": 4717,
      "angaz": 4718,
      "incip": 4719,
      "rayuwaĠ": 4720,
      "ĠáĬ¥áĭ¨áī°": 4721,
      "torÃŃĠ": 4722,
      "91": 4723,
      "Cap": 4724,
      "já»įÌģĠ": 4725,
      "ĠáĪĺáĪĨáĬĳ": 4726,
      "áĭĪáĪ¨": 4727,
      "ele.ĠItokasiĠÃĢwá»įnĠ": 4728,
      "awá»įn": 4729,
      "utt": 4730,
      "áĭ®áĪµ": 4731,
      "kutokanaĠnaĠ": 4732,
      "aĠyankinĠ": 4733,
      "ĠáĬłáĪĺáīµ": 4734,
      "Ba": 4735,
      "Hen": 4736,
      "wang": 4737,
      "ing,Ġ": 4738,
      "âĢ¦": 4739,
      "wengiĠ": 4740,
      "polit": 4741,
      "Tim": 4742,
      "Yamm": 4743,
      "lÃ²Ġ": 4744,
      "tabiĠ": 4745,
      "visiwaĠ": 4746,
      "alik": 4747,
      "oloniĠ": 4748,
      "prov": 4749,
      "aĠyaĠk": 4750,
      "harĠzuwaĠ": 4751,
      "ĠáĪĥáĭŃáĪĽáĬĸ": 4752,
      "7-": 4753,
      "De": 4754,
      "Eg": 4755,
      "Pas": 4756,
      "yst": 4757,
      "aĠniĠ": 4758,
      "áĬĹ": 4759,
      "tiĠwonĠ": 4760,
      "kumb": 4761,
      "haifiĠ": 4762,
      "TareheĠ": 4763,
      "fitoĠ": 4764,
      "ĠáĭĪáīħáīµ": 4765,
      "45": 4766,
      "kÃº": 4767,
      "ton": 4768,
      "áĬĥ": 4769,
      "anarĠ": 4770,
      "ĠáĬ¥áĬĲáĭļáĪħ": 4771,
      "áī£áĪŃ": 4772,
      "neĠnaĠ": 4773,
      "oloseluĠ": 4774,
      "dukĠ": 4775,
      "owaĠ": 4776,
      "pÃłt": 4777,
      "alum": 4778,
      "áī£áĭĬ": 4779,
      "iwaĠkuwaĠ": 4780,
      "farkonĠ": 4781,
      "nyingiĠ": 4782,
      "pap": 4783,
      "vent": 4784,
      "áį²áį": 4785,
      "ÃŃnĠ": 4786,
      "inn": 4787,
      "ĠáĭŃáĭĺ": 4788,
      "ĠáĪĽáī´áĭİáĪµ": 4789,
      "jirginĠ": 4790,
      "duk": 4791,
      "takeĠ": 4792,
      "´áį": 4793,
      "áĬ¹": 4794,
      "ĠáĬ¬": 4795,
      ".ĠÃĢ": 4796,
      "kumaĠk": 4797,
      "ĠáĪµáīµ": 4798,
      "áĮĭáĪį": 4799,
      "Ġáĭįáĭµ": 4800,
      "over": 4801,
      "áĪģáĬķ": 4802,
      "askazin": 4803,
      "encesĠ": 4804,
      "bÃł": 4805,
      "hann": 4806,
      "ģáĬĳ": 4807,
      "Ġáĭ´": 4808,
      "abub": 4809,
      "ayans": 4810,
      "ali.": 4811,
      "áĬĽáį¦Ġ": 4812,
      "Pres": 4813,
      "Josep": 4814,
      "já»įÌģĠk": 4815,
      "ID": 4816,
      "Ã©m": 4817,
      "áĬĵáĬķ": 4818,
      "aĠmap": 4819,
      "Ġá»įÌĢkanĠ": 4820,
      "hud": 4821,
      "ĠR": 4822,
      "ity,Ġ": 4823,
      "esiĠ": 4824,
      "áĪ«áĪīáį¢": 4825,
      "9Ġ-Ġ": 4826,
      "FebruaryĠ": 4827,
      "DolaĠlaĠ": 4828,
      "ĠáĭķáĪĪáī³áīµ": 4829,
      "oug": 4830,
      "vir": 4831,
      "anĠ(": 4832,
      "trans": 4833,
      "Ġ10": 4834,
      "áº¹ÌĢ-Ã¨dÃ¨": 4835,
      "http://www.": 4836,
      "wigizajiĠwaĠfilamuĠ": 4837,
      "22": 4838,
      "WannanĠ": 4839,
      "day": 4840,
      "Ġ'": 4841,
      "wand": 4842,
      "Â»Ġ(": 4843,
      "35": 4844,
      "bab": 4845,
      "fus": 4846,
      "jum": 4847,
      "rá»įĠ": 4848,
      "erg": 4849,
      "elsĠ": 4850,
      "etĠdeĠ": 4851,
      "tionsĠ": 4852,
      "sehemuĠ": 4853,
      "Sen": 4854,
      "bl": 4855,
      "lamuĠ": 4856,
      "asalinĠ": 4857,
      "umiĠ": 4858,
      "ahiĠ": 4859,
      "áĮłáĬĵ": 4860,
      "kasaĠ": 4861,
      "Afric": 4862,
      "aussiĠ": 4863,
      "ĠáĮ¥áĬķáī³áĭĬ": 4864,
      "RaisĠwaĠ": 4865,
      "jir": 4866,
      "wing": 4867,
      "uĠM": 4868,
      "itinĠ": 4869,
      "Ã³p": 4870,
      "olu": 4871,
      "ĠáĭŃáĪ°": 4872,
      "iĠkoĠ": 4873,
      "antsĠ": 4874,
      "Ġ16": 4875,
      "ÃĢwá»įnĠá»įjá»įÌģÃ¬bÃŃĠnÃŃĠ": 4876,
      "Ghan": 4877,
      "Ã³mÃ¬nÃłĠ": 4878,
      "fáº¹Ìģ": 4879,
      "pre": 4880,
      "imaĠ": 4881,
      "áī³áĭ°": 4882,
      "áĪħáĬķ": 4883,
      "ĠáīĢáĬĵáīµ": 4884,
      "mÃº": 4885,
      "oku": 4886,
      "áº¹s": 4887,
      ".ĠÃĮ": 4888,
      "áĮĪáĪª": 4889,
      "iyoy": 4890,
      "áĪĽáī½": 4891,
      "Ġáĭ¨áĪĻ": 4892,
      "aiĠnaĠ": 4893,
      "áĭ®áĪŃ": 4894,
      "toĠgbaĠ": 4895,
      "ndÃŃn": 4896,
      "áĪ»áĭİáī½": 4897,
      "ĠáĭŃáĪħáĬķ": 4898,
      "franÃ§": 4899,
      "Co": 4900,
      "Can": 4901,
      "dÃ¬": 4902,
      "fre": 4903,
      "áĪ«áĪµ": 4904,
      "ipin": 4905,
      "tsar": 4906,
      "Map": 4907,
      "Ny": 4908,
      "fuataĠ": 4909,
      "endĠ": 4910,
      "onĠ(": 4911,
      "adha": 4912,
      ".ĠItokasi": 4913,
      "áĮįáĬķ": 4914,
      "ĠáĪĿáĪµ": 4915,
      "ĠáĭĵáĪĪáĪĿ": 4916,
      "iĠwaĠk": 4917,
      "ĠáīłáĬłáĬķáĭµ": 4918,
      "ehem": 4919,
      "ahariĠyaĠ": 4920,
      "attalinĠarz": 4921,
      "Vol": 4922,
      "Waf": 4923,
      "bak": 4924,
      "vileĠ": 4925,
      "ikish": 4926,
      "iyy": 4927,
      "áĭ¨áĪ±áĪµ": 4928,
      "áī»áĭŃáĬĵ": 4929,
      "oĠmak": 4930,
      "Manazarta": 4931,
      "áĪłĠáĬĲáĮĪ": 4932,
      "shiĠneĠdanĠwasanĠÆĻwallonĠÆĻafaĠtaĠÆĻasarĠIngil": 4933,
      "ĠáįĵáĪŃáī²": 4934,
      "hadaĠdaĠ": 4935,
      "DP": 4936,
      "rom": 4937,
      "sec": 4938,
      "uĠdaĠ": 4939,
      "entiĠ": 4940,
      "Ġáĭ«áĪħáĪį": 4941,
      "ĠkatikaĠ": 4942,
      "ÃĢwá»įnĠÃ¨nÃ¬yÃłnĠ": 4943,
      "ÃŃláº¹ÌĢ": 4944,
      "áĪŃáĪµáī²áĭ«": 4945,
      "Jum": 4946,
      "Mah": 4947,
      "UN": 4948,
      "Wom": 4949,
      "ĪáĪĿ": 4950,
      "áįĦ": 4951,
      "áĪĽáĪŃ": 4952,
      "ĠáĭĪáĪ¨": 4953,
      "quesĠ": 4954,
      "áįĪáĪĪ": 4955,
      "dagaĠbayaĠ": 4956,
      "ext": 4957,
      "amarĠhukumarĠ": 4958,
      "alikuwaĠmwan": 4959,
      "dir": 4960,
      "kn": 4961,
      "mark": 4962,
      "áĪįáĭ°": 4963,
      "ont": 4964,
      "imp": 4965,
      "utilis": 4966,
      "áĭ¨áī°": 4967,
      "Ġd'": 4968,
      "conc": 4969,
      "ĠáĬłáĬķáĭ³": 4970,
      "amarĠhukumaĠ": 4971,
      "kÃ³paĠ": 4972,
      "ĠáĪ´áīµ": 4973,
      "Ãģfr": 4974,
      "Born": 4975,
      "Mu": 4976,
      "Sud": 4977,
      "hivyoĠ": 4978,
      "Ã¼": 4979,
      "áĪĵ": 4980,
      "áī³áī¸áĭįáĬķ": 4981,
      "ifoĠch": 4982,
      "waĠkatikaĠ": 4983,
      "nÃŃnÃºĠÃłwá»įnĠ": 4984,
      "ĠáīĢáĬķĠáīłáĬ¢áīµáĭ®áĮµáĭ«": 4985,
      "lá»įÌģdÃºnĠ": 4986,
      "Ã¹n-": 4987,
      "ItĠ": 4988,
      "n'": 4989,
      "Ġ200": 4990,
      "inÃºĠ": 4991,
      "ism": 4992,
      "ĠáĪĺáĬķáĮįáĪµáīµ": 4993,
      "endeleaĠku": 4994,
      "CharlesĠ": 4995,
      "Cong": 4996,
      "Lov": 4997,
      "a\"Ġ": 4998,
      "endaĠ": 4999,
      "ĠáĪĺáĪª": 5000,
      "aliz": 5001,
      "nÃŃĠá»įjá»įÌģĠk": 5002,
      "stat": 5003,
      "á»ĮÌĢ": 5004,
      "BKĠ(BaadaĠyaĠKristo).ĠMatukioĠWaliozaliwaĠWaliofarikiĠKarneĠyaĠ": 5005,
      "dur": 5006,
      "pay": 5007,
      "áĮ¹": 5008,
      "Ã³Ġá¹£": 5009,
      ".Ġ-": 5010,
      "ĠáĪĺáĭµ": 5011,
      "aniĠ(": 5012,
      "Braz": 5013,
      "ÃĪkÃ³": 5014,
      "FizikiaĠmwakaĠwaĠ": 5015,
      "ĠáĪ¥áĪŃáĭĪĠáĪĺáĬķáĮįáĪ¥áīµ": 5016,
      "34": 5017,
      "Aw": 5018,
      "Bell": 5019,
      "Rep": 5020,
      "ernĠ": 5021,
      "á»įÌģn": 5022,
      "age": 5023,
      "Ġáī¥áĪĪáĭį": 5024,
      "whoĠ": 5025,
      "Lou": 5026,
      "Ut": 5027,
      "yn": 5028,
      "atun": 5029,
      "eliĠ": 5030,
      "amba": 5031,
      "Ġáĭ°áī¡áī¥": 5032,
      "au,Ġ": 5033,
      "incl": 5034,
      "engineĠ": 5035,
      "fina-fin": 5036,
      "darÃŃĠ": 5037,
      "ÃģfrÃŃ": 5038,
      "Fark": 5039,
      "bad": 5040,
      "áĪ°áĬķ": 5041,
      "ternĠ": 5042,
      "KanananĠhukumominĠ": 5043,
      "WestĠ": 5044,
      "labar": 5045,
      "tuĠ": 5046,
      "arĠm": 5047,
      "ishwaĠ": 5048,
      "obiĠ": 5049,
      "ndaniĠyaĠ": 5050,
      "C.": 5051,
      "cin": 5052,
      "yá»į": 5053,
      "áīº": 5054,
      "oĠtiĠ": 5055,
      "ifeĠ": 5056,
      "áĪĮáĬŃáīµ": 5057,
      "ĠáĬķáĮīáĪµ": 5058,
      "AfrikaĠKus": 5059,
      "ĠáĬłáĬ«áĪį": 5060,
      "NovemberĠ": 5061,
      "ĠáįĪáĪŃáĭĸ": 5062,
      "36": 5063,
      "rang": 5064,
      "Æ³": 5065,
      "abr": 5066,
      "áĪĪáī¥": 5067,
      "áĬĲáī¶áī½": 5068,
      "ĠAd": 5069,
      "a'aik": 5070,
      "ĠáĭµáĪĿ": 5071,
      "7Ġ-Ġ": 5072,
      "wajeĠ": 5073,
      "score0": 5074,
      "áī¼": 5075,
      "arabuĠ": 5076,
      ",ĠtheĠ": 5077,
      "áĬĲáīłáĪŃ": 5078,
      "Najeriya": 5079,
      "shekaraĠtaĠ201": 5080,
      "pá»įÌĢlá»įpá»įÌĢĠ": 5081,
      "0-": 5082,
      "9-": 5083,
      "Kor": 5084,
      "gasarĠ": 5085,
      "hukoĠ": 5086,
      "Ãłl": 5087,
      "áĪĭáĪīáį¢": 5088,
      "auy": 5089,
      "á¹£Ã¨lÃºĠ": 5090,
      "shirinĠ": 5091,
      "indaĠtaĠ": 5092,
      "partic": 5093,
      "Oá¹£Ã¹ĠK": 5094,
      "Tun": 5095,
      "Yoh": 5096,
      "nip": 5097,
      "ambay": 5098,
      "epend": 5099,
      "rubutaĠ": 5100,
      "mÃ¡aĠÅĦĠ": 5101,
      "iâĢĻarĠ": 5102,
      "OctoberĠ": 5103,
      "bo": 5104,
      "bil": 5105,
      "igbaĠ": 5106,
      "nit": 5107,
      "pour": 5108,
      "rashinĠ": 5109,
      "ĠL": 5110,
      "amiĠ": 5111,
      "itaceĠ": 5112,
      "iaĠyaĠK": 5113,
      "áįĪáīµ": 5114,
      "Ġáĭ¨áĪļáĪį": 5115,
      "III": 5116,
      "áĪŃáĭ«áĪĿ": 5117,
      "berg": 5118,
      "áĮłáīĥáĪĭáĭŃ": 5119,
      "Tanb": 5120,
      "Ð°": 5121,
      "Ġ6": 5122,
      "onom": 5123,
      "áº¹ÌģrÃŃ": 5124,
      "ali,Ġ": 5125,
      "áĬ¨áĪ«": 5126,
      "Thom": 5127,
      "ThisĠ": 5128,
      "Ġthe": 5129,
      "AllahĠ": 5130,
      "Se": 5131,
      "bÃ¬nrinĠ": 5132,
      "anyĠ": 5133,
      "áĪįáį¡áį¡": 5134,
      "oni": 5135,
      "ĠáĪĺáĬĲ": 5136,
      "ceĠtaĠ": 5137,
      "Ġáĭ¨áĪĿáīµ": 5138,
      "dabanĠ": 5139,
      "Australi": 5140,
      "ablaĠ": 5141,
      "ayenĠ": 5142,
      "awa.": 5143,
      "idadiĠyaĠ": 5144,
      "ĠáĬ¥áĬķáĪµ": 5145,
      "ÃłtiĠÃłwá»įnĠ": 5146,
      "Ġáº¹ÌĢyÃłĠ": 5147,
      "áĬ©áĪį": 5148,
      "OpenĠ": 5149,
      "sinimÃ¡Ġ": 5150,
      "entomonĠ": 5151,
      "Nuw": 5152,
      "Te": 5153,
      "Turk": 5154,
      "a,": 5155,
      "jul": 5156,
      "aĠB": 5157,
      "aĠJiharĠ": 5158,
      "enneĠ": 5159,
      "áĪįáįį": 5160,
      "iref": 5161,
      "áĪĪáĭ±": 5162,
      "ĠáĬłáĮ¥": 5163,
      "áĮĪáĭį": 5164,
      "Ġáī°áĬĲ": 5165,
      "idg": 5166,
      "AlakosoĠ": 5167,
      "ovut": 5168,
      "IlÃ©-": 5169,
      "Janair": 5170,
      "eux": 5171,
      "Ayy": 5172,
      "woteĠ": 5173,
      "su.": 5174,
      "lughaĠ": 5175,
      "áĪĦáĭµ": 5176,
      "NÃŃĠá»įdÃºnĠ201": 5177,
      "ĠáĪ³áĭŃáĪĨáĬķ": 5178,
      "DanĠ": 5179,
      "ãĥ": 5180,
      "isionĠ": 5181,
      "áĭ°áĮĭ": 5182,
      "usul": 5183,
      "igu": 5184,
      "leur": 5185,
      "anzib": 5186,
      "aunaĠ": 5187,
      "gabatarĠdaĠ": 5188,
      "Ġá»įmá»įĠorÃŃláº¹ÌĢ-Ã¨dÃ¨Ġ": 5189,
      "Sikuku": 5190,
      "Uh": 5191,
      "rÃ¨Ġ": 5192,
      "sos": 5193,
      "ÙĲ": 5194,
      "Ã³l": 5195,
      "ĠáĪĺáĭĿ": 5196,
      "Ã²finĠ": 5197,
      "iĠkwenyeĠ": 5198,
      "ĠáĪĽáĪħ": 5199,
      "ambayoĠ": 5200,
      "awaĠdaĠ": 5201,
      "ationĠofĠ": 5202,
      "ĠáĬŃáĪįáĪį": 5203,
      "vari": 5204,
      "aĠlaĠ": 5205,
      "Ġá¹¢": 5206,
      "áī¬": 5207,
      "aniĠm": 5208,
      "áĮ³": 5209,
      "astr": 5210,
      "ĠáĭĪáĮĪáĬķ": 5211,
      "áĮłáįĭ": 5212,
      "ojuĠ": 5213,
      "Ġáĭ¨áī°áĪĪáĭ«áĭ©": 5214,
      "Ġáī³áĪĭáīħ": 5215,
      "2Ġ-Ġ": 5216,
      "zaÉĵ": 5217,
      "withĠtheĠ": 5218,
      "gÃŃgaĠ": 5219,
      "pÃłtÃłk": 5220,
      "lav": 5221,
      "ruwaĠ": 5222,
      "sol": 5223,
      "tas": 5224,
      "ĠáĬĳ": 5225,
      "ĠáĪĪáĭį": 5226,
      "obÃ¬nrinĠ": 5227,
      "UmojaĠwaĠ": 5228,
      "North": 5229,
      "ĠáĪĽáĪµáī³áĭĪ": 5230,
      "Ha": 5231,
      "OnĠ": 5232,
      "Ro": 5233,
      "cinĠk": 5234,
      "hank": 5235,
      "ĠáĭĲ": 5236,
      "alÃłÃły": 5237,
      "Ġáĭ¨áīµ": 5238,
      "áĪµáī±": 5239,
      "Amáº¹ÌģrÃŃ": 5240,
      "ĠáĪ²áĪĨáĬķĠáĭŃáĪħ": 5241,
      "Ġáĭ¨áĬłáĪĽáĪŃáĬĽĠáĪĿáĪ³áĪĮĠáĬĲáĭįáį¢ĠáīµáĪŃáĮīáĪĻĠáĪĺáĭ°áī¥Ġ:Ġáī°áĪ¨áīµáĬĵĠáĪĿáĪ³áĪĮ": 5242,
      "olÃ³rinĠ": 5243,
      "ĠáīłáĬ¥áĬķáĮįáĪĬáĭĿáĬĽ": 5244,
      "siyasaĠ": 5245,
      "William": 5246,
      "FM": 5247,
      "Zanzib": 5248,
      "loc": 5249,
      "takaĠ": 5250,
      "µáį": 5251,
      "aĠtiĠ": 5252,
      "ici": 5253,
      "takrib": 5254,
      "parti": 5255,
      "balimbaliĠ": 5256,
      "men": 5257,
      "yayiĠ": 5258,
      ",ĠS": 5259,
      "atur": 5260,
      "áĭ³áĪĿ": 5261,
      "oundĠ": 5262,
      "MutaneĠ": 5263,
      "zabenĠ": 5264,
      "AgbegbeĠ": 5265,
      "EĠ": 5266,
      "Ka": 5267,
      "Rich": 5268,
      "ax": 5269,
      "ce": 5270,
      "hi": 5271,
      "hat": 5272,
      "mill": 5273,
      "wÃł": 5274,
      "usi": 5275,
      "utanenĠ": 5276,
      "waĠmasoĠ": 5277,
      "wakatiĠ": 5278,
      "ciĠgabaĠdaĠ": 5279,
      "Iv": 5280,
      "eshiĠ": 5281,
      "kafinĠ": 5282,
      "nasar": 5283,
      "vers": 5284,
      "|-Ġ": 5285,
      "ĠáĪ©": 5286,
      "áĪŃáĮį": 5287,
      "wandaĠkeĠ": 5288,
      "ĠáĬĲáĭįáį¢Ġáĭ¨": 5289,
      "atsay": 5290,
      "áĮłáĪį": 5291,
      "ĠáĪĢáĮĪáĪŃ": 5292,
      "31Ġ": 5293,
      "aĠNajeriyaĠ": 5294,
      "aĠkoĠ": 5295,
      "áīłáĪĮ": 5296,
      "areĠdaĠ": 5297,
      "pÃŃnláº¹ÌĢ": 5298,
      "okeoĠyaĠ": 5299,
      "áĮ¥áĬķáī³áĭĬ": 5300,
      "ron": 5301,
      "Â²": 5302,
      "áĬķĠ(": 5303,
      "abinĠ": 5304,
      "áī½áĭį": 5305,
      "gbÃ³": 5306,
      "Ġáĭ¨áī°áī£áĪĪáĭį": 5307,
      "iwonĠ": 5308,
      "aĠgarinĠ": 5309,
      "Tanzania": 5310,
      "75": 5311,
      "CityĠ": 5312,
      "Had": 5313,
      "Soci": 5314,
      "Vic": 5315,
      "oaĠ": 5316,
      "vitaĠ": 5317,
      "arans": 5318,
      "áĬķáĭ°": 5319,
      "áĬķĠáĪĪ": 5320,
      "áĬķĠáĪµáĪĿ": 5321,
      "áį¢Ġáīł": 5322,
      "áī°áĭĭáĪįáį¢": 5323,
      "áĪĭáĪī": 5324,
      "Ġáĭ¨áĪĮ": 5325,
      "á»įÌĢn": 5326,
      "yÃ¬n": 5327,
      "áĬĽáĭįĠáĬŃáįįáĪĪĠáĭĺáĪĺáĬķ": 5328,
      "8Ġ-Ġ": 5329,
      "intaĠnaĠ": 5330,
      "ĠáĭĻáĪªáĭ«": 5331,
      "pekeeĠ": 5332,
      "amuzikiĠ": 5333,
      "kÃ¹nrinĠ": 5334,
      "áº¹Ìģká»įÌĢá»įÌģĠ": 5335,
      "moĠ": 5336,
      "uceĠ": 5337,
      "aruf": 5338,
      "itz": 5339,
      "aĠmwakaĠ": 5340,
      "kumbu": 5341,
      "áī¶áī¹": 5342,
      "ĠáĪĨáĬĲáĭį": 5343,
      "âĢĿĠ": 5344,
      "IjobaĠ": 5345,
      "ĠáĬ¥áĮħáĮį": 5346,
      "oĠchaĠ": 5347,
      "ĠáĮĨ": 5348,
      "áĭŃáĬĲáīµ": 5349,
      "elez": 5350,
      "áĬĲáĮĪ": 5351,
      "áĬŃáĪĪ": 5352,
      "ograf": 5353,
      "tanaĠdaĠ": 5354,
      "nyingineĠ": 5355,
      "work": 5356,
      "tanguĠ": 5357,
      "áī¨áĪŃ": 5358,
      "let": 5359,
      "rÃ¨": 5360,
      "Ã¤": 5361,
      "Ä«": 5362,
      "ĠD": 5363,
      "inz": 5364,
      "ÃłgbÃ¡": 5365,
      "áĭ«áĪµ": 5366,
      "olÃº": 5367,
      "ijiĠyaĠ": 5368,
      "áĭĺáī¥": 5369,
      "ungu": 5370,
      "Muhammad": 5371,
      "t-": 5372,
      "áī½áĪį": 5373,
      "áī½áĪģ": 5374,
      "Ã¨meĠ": 5375,
      "awezaĠ": 5376,
      "áĬ¨áĪŃ": 5377,
      "áĬ«áī£áī¢": 5378,
      "nÃŃĠorÃŃláº¹ÌĢ-Ã¨dÃ¨Ġ": 5379,
      "Al-": 5380,
      "Shir": 5381,
      "jerinĠ": 5382,
      "gwamn": 5383,
      "shindiĠwaĠTuzoĠyaĠNobelĠyaĠKemiaĠmwakaĠwaĠ": 5384,
      "AgbaĠ": 5385,
      "fÃł": 5386,
      "fÃłĠ": 5387,
      "tall": 5388,
      ",ĠM": 5389,
      "ini.": 5390,
      "insuĠ": 5391,
      "áĮĪáĬĲ": 5392,
      "áĮĪáĬĽ": 5393,
      "iyoyinĠ": 5394,
      ")ĠnaĠ": 5395,
      "áĪªáī³": 5396,
      "idiĠyaĠ": 5397,
      "Abuj": 5398,
      "ĠáĬ«áĪį": 5399,
      "Nijeriya.": 5400,
      "Bo": 5401,
      "ientĠ": 5402,
      "sing": 5403,
      "ÆĻungiyarĠ": 5404,
      "ansuĠ": 5405,
      "áį¤Ġáīł": 5406,
      "jam'": 5407,
      "harshenĠ": 5408,
      "John": 5409,
      "Lagos": 5410,
      "HukumarĠ": 5411,
      "gÃ©n": 5412,
      "saur": 5413,
      "tofaut": 5414,
      "Ã¶": 5415,
      "ons": 5416,
      "abin": 5417,
      "abis": 5418,
      "Ġ(201": 5419,
      "áĬŃáĪŃáĪµáī²áĭ«áĬķ": 5420,
      "ret": 5421,
      "reeĠ": 5422,
      "ĠáĪĽáĮ£": 5423,
      "ĠduĠ": 5424,
      "ĠMtoĠ": 5425,
      "AnĠhaifeĠ": 5426,
      "bertĠ": 5427,
      "Sah": 5428,
      "sub": 5429,
      "Ġáĭ¨áĭĵ": 5430,
      "áī£áĪįáį¢": 5431,
      "áįįáĪªáĬ«": 5432,
      "áĭ¨áĪĺ": 5433,
      "áī²áĬŃ": 5434,
      "agbegbeĠ": 5435,
      "Nijeriya.Ġ": 5436,
      "Yul": 5437,
      "bel": 5438,
      "ly": 5439,
      "oirĠ": 5440,
      "year": 5441,
      "eĠtaĠ": 5442,
      "ile": 5443,
      "aiĠdaĠ": 5444,
      "Ã¨tÃ²": 5445,
      "jiĠmkuuĠwaĠ": 5446,
      "Ful": 5447,
      "eniyanĠ": 5448,
      "abij": 5449,
      "esĠofĠ": 5450,
      "Ġá¹£Ã¹gbá»įÌģnĠ": 5451,
      "ÃĵĠk": 5452,
      "Ãłn.": 5453,
      "sabab": 5454,
      "adhim": 5455,
      "ĠáĭŃáī½áĪĭáĪįáį¢": 5456,
      "WilliamĠ": 5457,
      "ierĠ": 5458,
      "iedĠ": 5459,
      "Ùı": 5460,
      "Ġáĭ¨áī³": 5461,
      "áĪ³áī°": 5462,
      "Ġáī°áįĪ": 5463,
      "ĠáīłáĪį": 5464,
      "kasaĠdaĠ": 5465,
      "asĠtheĠ": 5466,
      "áī¥áĪŃáĪĥ": 5467,
      "resp": 5468,
      "ĠáĭĵáĬŃáĪįáīł.ĠáĮįáĭµáĪĿ": 5469,
      "ĠáĭŃáī³áĭĪáīĥáĪįáį¢": 5470,
      "Den": 5471,
      "rap": 5472,
      "sanĠ": 5473,
      "zur": 5474,
      "Ø¨": 5475,
      "áĬĭáĪĭ": 5476,
      "áĪŃ-": 5477,
      "yaĠyiĠ": 5478,
      "iláº¹": 5479,
      "ĠáĬ¥áĭµ": 5480,
      "áĪ«áī¸áĭį": 5481,
      "aĠmas": 5482,
      "osereĠ": 5483,
      "ĠAug": 5484,
      "etoĠ": 5485,
      "ĠáĬ¥áĬķáĭ°áĪĨáĬĲ": 5486,
      "JulyĠ": 5487,
      "âĢ¢ĠMtoĠ": 5488,
      "doĠ": 5489,
      "der": 5490,
      "dâĢĻ": 5491,
      "jimb": 5492,
      "ĠáĬłáĭ²áĪµ": 5493,
      "áīĥáĪį": 5494,
      "wÃ¡jÃºĠ": 5495,
      "Ġáĭ¨áĪĨáĬĳ": 5496,
      "Ġáĭ¨áĬĲáīłáĪ¨áĭį": 5497,
      "áĪĪáī°áĬĽáĭį": 5498,
      "Ġáĭ©áĬĴ": 5499,
      "CibiyarĠ": 5500,
      "ere": 5501,
      "áĭ«áĭ«": 5502,
      "áī¥áĪĬáĬŃ": 5503,
      "áī£áĪī": 5504,
      "baĠtaĠ": 5505,
      "áĬĳáĪµ": 5506,
      "plac": 5507,
      "Ãłká»įÌģká»įÌģĠ": 5508,
      "includ": 5509,
      "Hak": 5510,
      "Mac": 5511,
      "TV": 5512,
      "aĠwas": 5513,
      "áĬķáĮ«": 5514,
      "áīłáĬĽ": 5515,
      "Ġáī°áīĭ": 5516,
      "ĠáĭŃáī»": 5517,
      "ĠáĭŃáĮłáīĢ": 5518,
      "ojoj": 5519,
      "fÃºnĠÃłwá»įnĠ": 5520,
      "shiryaĠ": 5521,
      "yaĠmutuĠ": 5522,
      "al'umm": 5523,
      "gbá»įÌĢnĠ": 5524,
      "kumbukumb": 5525,
      "Cal": 5526,
      "Mer": 5527,
      "eyiĠ": 5528,
      "sáº¹ÌĢĠ": 5529,
      "áĬ½": 5530,
      "awaĠnaĠ": 5531,
      "Comp": 5532,
      "Ã²á¹£erÃ©Ġ": 5533,
      "Æ³anĠ": 5534,
      "Pak": 5535,
      "áĬ¡": 5536,
      "ary": 5537,
      ".ĠS": 5538,
      "áī£áĪħ": 5539,
      "áĬ«áĪį": 5540,
      ":ĠTheĠ": 5541,
      "áĬłáĪĿ": 5542,
      "ĠáĬ«áĪĮ": 5543,
      "Ġá»įÌĢd": 5544,
      "prÃ©sent": 5545,
      "Dam": 5546,
      "Pal": 5547,
      "bet": 5548,
      "biyarĠ": 5549,
      "him": 5550,
      "lÃ²": 5551,
      "arciĠ": 5552,
      "Ã¬gbÃ©": 5553,
      "aya,Ġ": 5554,
      "enĠm": 5555,
      "aziniĠ": 5556,
      "ĠáĪĪáĬ¥": 5557,
      "Ġáĭ«áĪī": 5558,
      "haih": 5559,
      "áĭĽáĪ¬": 5560,
      "áĪ±áĪĿ": 5561,
      "KanisaĠ": 5562,
      "AnnabiĠ": 5563,
      "ÃĮbÃłd": 5564,
      "Apr": 5565,
      "DĠ": 5566,
      "techn": 5567,
      "ymp": 5568,
      "áĮ¼": 5569,
      "abab": 5570,
      "apr": 5571,
      "anderĠ": 5572,
      "áīģáĪŃ": 5573,
      "argaj": 5574,
      "nÃŃĠá»įdÃºnĠ201": 5575,
      "ĠáĪ«áĪµ": 5576,
      ",ĠmshindiĠwaĠTuzoĠyaĠNobelĠyaĠTibaĠmwakaĠwaĠ": 5577,
      "n.k.": 5578,
      "ix": 5579,
      "iev": 5580,
      "ling": 5581,
      "annaĠ": 5582,
      "aĠkatikaĠm": 5583,
      "Ġáĭ¨áī°áĬŃáĪī": 5584,
      "ĠáĭįáĪµáĮ¥Ġáĭ¨áĪļáĮĪáĬĿ": 5585,
      "uĠkwaĠ": 5586,
      "oireĠ": 5587,
      "TanbihiĠ": 5588,
      "d,Ġ": 5589,
      "iĠtaĠ": 5590,
      "eĠnaĠ": 5591,
      "on-": 5592,
      "ellesĠ": 5593,
      "áĮĪáĭĽ": 5594,
      "nÃŃtorÃŃĠ": 5595,
      "ÃĢwá»įnĠÃĮt": 5596,
      "ocinĠ": 5597,
      "eff": 5598,
      "ĠáĪŀáīµ": 5599,
      "wá»įÌģn": 5600,
      "ÃĢwá»įnĠÃ¨nÃ¬yÃłnĠalÃłÃły": 5601,
      "du": 5602,
      "larg": 5603,
      "ta.": 5604,
      "ariĠtaraĠ": 5605,
      "áĭ°áĪ¨áĮī": 5606,
      "TarayyarĠ": 5607,
      "film": 5608,
      "akarant": 5609,
      "ne,ĠdaĠkeĠ": 5610,
      "áº¸ÌĢ": 5611,
      "mÃ¹Ġ": 5612,
      "saf": 5613,
      "Ġ7": 5614,
      "engaĠ": 5615,
      "Ġti": 5616,
      "ĠáīłáĪ¨": 5617,
      "ubuc": 5618,
      "tsawonĠ": 5619,
      "áĬłáĪį": 5620,
      "jami'": 5621,
      "walikuwaĠ": 5622,
      "ĠáĭĵáĪĺáī±": 5623,
      "aikiĠaĠmatsayinĠ": 5624,
      "ĠáīłáĬ©áĪį": 5625,
      "Democ": 5626,
      "MakarantarĠ": 5627,
      "Wil": 5628,
      "inĠ(": 5629,
      "áĭįáĪµ": 5630,
      "áĭµáĪµáīµ": 5631,
      "princip": 5632,
      "arkokinĠ": 5633,
      "áĬĿáĬĲáīµ": 5634,
      "ĠáĮĪáī¥": 5635,
      "ique,Ġ": 5636,
      "peop": 5637,
      "group": 5638,
      "Ġáī¤áī°ĠáĬŃáĪŃáĪµáī²áĭ«áĬķ": 5639,
      "Ã¬sÃłnĠ": 5640,
      "yÃ³Ã²Ġ": 5641,
      ")ĠáĬ¨": 5642,
      "Ele": 5643,
      "dog": 5644,
      "láº¹": 5645,
      "ĠC": 5646,
      "áĭ£": 5647,
      "Ġáĭ±": 5648,
      "áī³áī½áĬķ": 5649,
      "ers,Ġ": 5650,
      "3Ġ-Ġ": 5651,
      "áĮłáĪĭ": 5652,
      "hadiĠk": 5653,
      "KanoĠ": 5654,
      "class": 5655,
      "asarautarĠ": 5656,
      "co": 5657,
      "wag": 5658,
      "inu": 5659,
      "daĠnaĠ": 5660,
      "ĠáĬłáĪ°": 5661,
      "erĠofĠ": 5662,
      "ĠáīµáĪįáīħ": 5663,
      "autaĠ": 5664,
      "AfirkaĠtaĠ": 5665,
      "ĠáĪľáīµáĪŃ": 5666,
      "LegasĠ": 5667,
      "kuhusuĠ": 5668,
      "fun": 5669,
      "áĬķáĭ²": 5670,
      "áĭįáĪį": 5671,
      "Ã©cr": 5672,
      "onek": 5673,
      "áĪĪáĪģ": 5674,
      ".ĠB": 5675,
      "okanaĠnaĠ": 5676,
      "ĠAn": 5677,
      "áĪ©áīµ": 5678,
      "áĪİáĬķ": 5679,
      "nÃ¡Ãł,Ġ": 5680,
      "ĠáĪķáĭĿ": 5681,
      "atiĠyaĠm": 5682,
      "gwamnatinĠ": 5683,
      "ĠáįķáĪ¬áĭļ": 5684,
      "JuneĠ": 5685,
      "KunaĠ": 5686,
      "Rh": 5687,
      "coun": 5688,
      "ji": 5689,
      "wap": 5690,
      "aminĠ": 5691,
      "iki,Ġ": 5692,
      "urr": 5693,
      "ĠáĭįáĮ¤": 5694,
      "ÅĦĠá¹£eĠ": 5695,
      "ĠáĪ¥áĪĭáĪ´": 5696,
      "Ã¬á¹£áº¹ÌĢ": 5697,
      "ÃªmeĠ": 5698,
      "Ġáĭ¨áĪ°áĭį": 5699,
      "ĠáīłáĭĺáĪĺáĬĲĠáĭ®áĪĲáĬķáĪµ": 5700,
      "ilioniĠ": 5701,
      "Jer": 5702,
      "Wad": 5703,
      "dontĠ": 5704,
      "jÃ¹Ġ": 5705,
      "kam": 5706,
      "vid": 5707,
      "áĬ¾": 5708,
      "Ġáĭŀ": 5709,
      "ĠáįĢ": 5710,
      "áīĢáĪį": 5711,
      "áīħáĪµ": 5712,
      "wakaz": 5713,
      "6Ġ-Ġ": 5714,
      "Ã¬rÃ²yÃ¬nĠ": 5715,
      "ĠáĮ½áĪĳáįį": 5716,
      ";Ġ(": 5717,
      "GÃ³mÃ¬nÃłĠ": 5718,
      "Ter": 5719,
      "jÃ©Ġ": 5720,
      "láº¹ÌĢ-Ã¨dÃ¨Ġ": 5721,
      "naf": 5722,
      "Ãį": 5723,
      "aĠG": 5724,
      "Ã©s": 5725,
      "onÃŃá¹£": 5726,
      "áīĢáĭµáĪŀ": 5727,
      "Alim": 5728,
      "áĭķáĭĿ": 5729,
      "áĬķáĭ³áĪŃ": 5730,
      "syst": 5731,
      "eneoĠyaĠ": 5732,
      "ĠáĮįáī¥áĮ½": 5733,
      "jÃłĠ": 5734,
      "lÃ¨": 5735,
      "ilos": 5736,
      "istaĠ": 5737,
      "esp": 5738,
      "umoĠ": 5739,
      "áĬ¨áįį": 5740,
      "ĠkatikaĠm": 5741,
      "ste": 5742,
      "avy": 5743,
      "Ã¬dÃŃĠ": 5744,
      "daĠyakeĠ": 5745,
      "ĠáĭŃáĪħáĪĿ": 5746,
      "atukio": 5747,
      "áĬ¨áī°áĪĪáĭį": 5748,
      "dÃ¡raĠ": 5749,
      "nÃŃgbÃłĠtÃŃĠ": 5750,
      "KadunaĠ": 5751,
      "fasah": 5752,
      "Litt": 5753,
      "div": 5754,
      "faf": 5755,
      "yiĠm": 5756,
      "áĪµáī°áĬĽ": 5757,
      "Ġáīłáĭ¨": 5758,
      "ĠáĬłáĬĲ": 5759,
      "ĠáĬłáĭµ": 5760,
      "Ã©ĠparĠ": 5761,
      "áĭ³áĮħ": 5762,
      "ĠáĭµáĬķ": 5763,
      "illĠ": 5764,
      "yanaĠdaĠ": 5765,
      "ĠáīģáĮ¥": 5766,
      "aularĠ": 5767,
      "=\"": 5768,
      "AlÃ¡": 5769,
      "aĠp": 5770,
      "el,Ġ": 5771,
      "ÆĻidayarĠ": 5772,
      "ĠáĬ¥áĬķáĭ°áī°": 5773,
      "ĠáīłáĪĺáĪĨáĬĳ": 5774,
      "aĠkung": 5775,
      "partĠ": 5776,
      "ÃĪkÃ³Ġ": 5777,
      "Wais": 5778,
      "báº¹ÌģĠ": 5779,
      "kaw": 5780,
      "uelĠ": 5781,
      "es)Ġ": 5782,
      "áĬ¨áī¥": 5783,
      "ĠsiĠ": 5784,
      "áĪ¥áī±": 5785,
      "ÅĦĠk": 5786,
      "IIIĠ": 5787,
      "lÃ©Ġráº¹ÌĢĠ": 5788,
      "wenyeweĠ": 5789,
      "áĮİáĪŃáĮİáĪŃ": 5790,
      "SĠ": 5791,
      "a),Ġ": 5792,
      "ina,Ġ": 5793,
      "áĭ³áĬķáīµ": 5794,
      "et,Ġ": 5795,
      "izoĠ": 5796,
      "usĠ(": 5797,
      "Ġ15": 5798,
      "ĠáĪµáĪĪáĭļáĪħ": 5799,
      "ĠáĪħáĭĿáī¥": 5800,
      ".ĠÃĢwá»įnĠÃ¬t": 5801,
      "AnaĠ": 5802,
      "Roy": 5803,
      "fad": 5804,
      "pá»į": 5805,
      "rĠ": 5806,
      "áĬķĠáĪĪáĪĺ": 5807,
      "in-": 5808,
      "ÃºÃºs": 5809,
      "ĠáĪĺáĪ¨áĮĥ": 5810,
      "ajiliĠyaĠ": 5811,
      "uth": 5812,
      "utum": 5813,
      "anaĠdaĠ": 5814,
      "áĭĭáīµ": 5815,
      "conn": 5816,
      "ileĠniĠ": 5817,
      "Ã¬dÃŃ": 5818,
      "IbileĠ": 5819,
      "ologyĠ": 5820,
      "consid": 5821,
      "ĠáĪĿáĬķáĮŃ": 5822,
      "toĠgbaĠEbunĠ": 5823,
      "tabb": 5824,
      "web": 5825,
      "áī§": 5826,
      "arew": 5827,
      "ikiĠwaĠ": 5828,
      "ĠáīłáĮ¥": 5829,
      "ĠáĬłáī£áĪį": 5830,
      "áī£áī¥": 5831,
      "ĠáĬŃáĪŃáĪµáī¶áĪµ": 5832,
      "ÃŃnÃºĠ": 5833,
      "áĬªáĭ«": 5834,
      "Ã¬má»įÌĢ": 5835,
      "ĠáįĬáĭ°áĪį": 5836,
      "ĠáįķáĪ®": 5837,
      "gudanarĠdaĠ": 5838,
      "nemanĠ": 5839,
      "áįĪáĮ¥áĪ®": 5840,
      "Gar": 5841,
      "Jon": 5842,
      "Wash": 5843,
      "áĮ¾": 5844,
      "ikip": 5845,
      "Ã³paĠ": 5846,
      "ĠáīłáĪĨ": 5847,
      "Ġáĭ¨áĬĸ": 5848,
      "ĠáĬ¥áĬķáĬ³": 5849,
      "2006": 5850,
      "ambaz": 5851,
      "zamaniĠ": 5852,
      ",ĠmwandishiĠ": 5853,
      "nje": 5854,
      "DesembaĠ": 5855,
      "shirye-": 5856,
      "daĠyawanĠjama'aĠ": 5857,
      "Láº¹ÌģyÃ¬nĠ": 5858,
      "ĠáĬłáĭŃáĭ°áĪĪáĪĿ": 5859,
      "ayáº¹": 5860,
      "ĠáīłáĪ«": 5861,
      "ishaĠm": 5862,
      "eĠdeĠl'": 5863,
      "ayyukanĠ": 5864,
      "amfan": 5865,
      "ementsĠ": 5866,
      "BritishĠ": 5867,
      "ĠáĬłáĬķáĭ³áĬķáĭµ": 5868,
      "CC": 5869,
      "dam": 5870,
      "pass": 5871,
      "áĪµáī¶": 5872,
      "Ã³n": 5873,
      "ĠáĪĺáĮ»": 5874,
      "ÆĻir": 5875,
      "Arab": 5876,
      "weenĠ": 5877,
      "áĪµáĪ«áīħ": 5878,
      "ĠáĪĽáĪŃáīĨáĪµ": 5879,
      "ammalaĠkar": 5880,
      "DavidĠ": 5881,
      "ĠáīłáĪĻáĪī": 5882,
      "mesĠ": 5883,
      "ÙĴ": 5884,
      "nÃŃgbÃłĠ": 5885,
      "áīłáĪ¬": 5886,
      "áĭĿáĪĽáī½": 5887,
      "ĠáĬłáĪĿáĪĭáĬŃ": 5888,
      "Hany": 5889,
      "Kwam": 5890,
      "ika": 5891,
      "áĪ«áĪĿ": 5892,
      "huadhim": 5893,
      "ĠáĪļáĪĬ": 5894,
      "ÃºrÃ²Ġ": 5895,
      "ĠáĬ¥áĪµáĬ¨Ġ20": 5896,
      "YohaneĠ": 5897,
      "Iy": 5898,
      "o)Ġ": 5899,
      "udaĠ": 5900,
      "ĠT": 5901,
      "iĠaĠ": 5902,
      ".ĠD": 5903,
      "áĪ³áĪį": 5904,
      "áĭ¨áĭį": 5905,
      "áĬ«áī³": 5906,
      "áĭĺáĬķ": 5907,
      "ĠáĬ¥áĬķáĭ°áĮĪáĬĵ": 5908,
      "egem": 5909,
      "yaaniĠ": 5910,
      "poss": 5911,
      "pÃłÃ¡Ġ": 5912,
      "ĠáīłáĪ½áī³": 5913,
      "alÃ¡Ã¬sÃŃĠnÃŃĠ": 5914,
      "KanananĠhukumominĠjiharĠ": 5915,
      "Bak": 5916,
      "cikiĠ": 5917,
      "gáº¹": 5918,
      "moj": 5919,
      "sá»į": 5920,
      "zakeĠ": 5921,
      "Ã©lÃ©": 5922,
      "áĬłáĭŃ": 5923,
      "progr": 5924,
      "ĠáīłáĬ¢": 5925,
      "áī²áĬķ": 5926,
      "áĪģáĪī": 5927,
      "áĮĬáĪµ": 5928,
      "IjobaĠIbileĠ": 5929,
      "ĠáĬ«áĪĮáĬķáĭ³áĪŃ": 5930,
      "Kur": 5931,
      "Kais": 5932,
      "Ros": 5933,
      "VisiwaĠ": 5934,
      "euĠ": 5935,
      "eyeĠ": 5936,
      "gur": 5937,
      "aĠwasanĠ": 5938,
      "oĠM": 5939,
      "abakiĠ": 5940,
      "áīłáĭį": 5941,
      "agn": 5942,
      "áį¡áĭ¨": 5943,
      "ĠáĪĪáī°": 5944,
      "áīĭáĬķáīĭ": 5945,
      "ÃĢwá»įnĠá»įjá»įÌģ": 5946,
      "áĮłáīĢáĪĿ": 5947,
      "Ġ(BaadaĠyaĠKristo).ĠMatukioĠWaliozaliwaĠWaliofarikiĠKarneĠyaĠ": 5948,
      "RobertĠ": 5949,
      "overnmentĠ": 5950,
      "MarejeoĠ": 5951,
      "áĮİáĪŃáĮİáĪŃáĭ«áĬķ": 5952,
      "dÃ³": 5953,
      "sk": 5954,
      "ving": 5955,
      "áĪµáĪĽ": 5956,
      "Ġáį«": 5957,
      "ijer": 5958,
      "etĠleĠ": 5959,
      "áĪŀáĬŃ": 5960,
      "áĭĽáĭĿ": 5961,
      "ÉĹauk": 5962,
      "suchĠ": 5963,
      "4Ġ-Ġ": 5964,
      "Ġá»ĮdÃºnĠ": 5965,
      "ari'": 5966,
      "AfrikaĠyaĠ": 5967,
      "wengi,Ġ": 5968,
      "áĬķáĭ³áĬķáĭµ": 5969,
      "zaidiĠ": 5970,
      "áĮ£áĪįáĭ«áĬķ": 5971,
      "NewĠYorkĠ": 5972,
      "ĠáĪĽáĮ£áīĢ": 5973,
      "4,": 5974,
      "Oh": 5975,
      "Ver": 5976,
      "Wab": 5977,
      "ief": 5978,
      "yaliy": 5979,
      "Ø¯": 5980,
      "ĠáĬĹ": 5981,
      "Ã¨-": 5982,
      "Ġáī°áĬĵ": 5983,
      "osiĠ": 5984,
      "yanay": 5985,
      "dansĠleĠ": 5986,
      "YunifÃ¡": 5987,
      "ĠáĬłáĪģáĬķ": 5988,
      "ÃĢwá»įnĠá»įjá»įÌģalÃ¡Ã¬sÃŃĠnÃŃĠ": 5989,
      "pia": 5990,
      "ĠáĪİ": 5991,
      "áīµáĪĿ": 5992,
      "iláº¹ÌĢ": 5993,
      "áĪįáĮħ": 5994,
      "isc": 5995,
      "áĭ«áĭĿ": 5996,
      "adir": 5997,
      "ĠáĪĺáī¶": 5998,
      "áĪ«áĪ½": 5999,
      "ĠáĭŃáĭĪ": 6000,
      "ingĠtoĠ": 6001,
      "truc": 6002,
      "exp": 6003,
      "BĠ": 6004,
      "Kum": 6005,
      "Kig": 6006,
      "sark": 6007,
      "ĠáĪĿáĬĵáĪį": 6008,
      "apÃ¡Ġ": 6009,
      "iyaĠdaĠ": 6010,
      "lex": 6011,
      "niĠá»įdunĠ": 6012,
      "Ã¬dÃ¡": 6013,
      "áĭ³áĬķáĭ±": 6014,
      "lambarĠyab": 6015,
      "ĠáĪĿáĬĵáĪįáī£áīµ": 6016,
      "AP": 6017,
      "Som": 6018,
      "gan": 6019,
      "gá»įÌģ": 6020,
      "kÃ¬": 6021,
      "rop": 6022,
      "rank": 6023,
      "tattalinĠarz": 6024,
      "áĪįáīģ": 6025,
      "taĠfarkoĠ": 6026,
      "ĠáĬłáī£áīµ": 6027,
      "ajuĠ": 6028,
      "isteĠ": 6029,
      "fordĠ": 6030,
      "waĠkwanzaĠ": 6031,
      "Ãłwá»įnĠá»įmá»įĠ": 6032,
      "DarĠ": 6033,
      "cal": 6034,
      "ranĠ": 6035,
      "tÃ²": 6036,
      "tÃłĠ": 6037,
      "ºáį": 6038,
      "áĬķĠáīłáĪĺ": 6039,
      "intoĠ": 6040,
      "Stud": 6041,
      "The": 6042,
      "lá»į.": 6043,
      "OgunĠ": 6044,
      "91Ġáĭĵ.áĪĿ.": 6045,
      "1)": 6046,
      "AR": 6047,
      "Feder": 6048,
      "Reg": 6049,
      "deuxĠ": 6050,
      "pÃ¡": 6051,
      "to": 6052,
      "aĠshekararĠ201": 6053,
      "inap": 6054,
      "áĮĪáī¡": 6055,
      "agenĠ": 6056,
      "afuĠ": 6057,
      "ipeĠ": 6058,
      "ĠsÃŃ": 6059,
      "o,Ġm": 6060,
      "ation.": 6061,
      "fiĠs": 6062,
      "RayuwarĠ": 6063,
      "LondonĠ": 6064,
      "AgbegbeĠIjobaĠIbileĠ": 6065,
      "áĮİáĪŃáĮİáĪŃáĭ«áĬķĠáĬ«áĪĮáĬķáĭ³áĪŃ": 6066,
      "Lab": 6067,
      "Oj": 6068,
      "da": 6069,
      "Ãłgb": 6070,
      "akaf": 6071,
      "ikuuĠ": 6072,
      "Ġáī°áĭĭ": 6073,
      "awa": 6074,
      "azz": 6075,
      "azarinĠ": 6076,
      "Ġáī£áĪį": 6077,
      "ĠáįĪáĪ¨áĬķ": 6078,
      "lá»įÌģwá»įÌģĠ": 6079,
      "Iá¹£áº¹ÌģĠ": 6080,
      "áĪ¥áĪ«áīħ": 6081,
      "ijerum": 6082,
      "bat": 6083,
      "vic": 6084,
      "wá»įÌĢĠ": 6085,
      "¹áį": 6086,
      "Ġm": 6087,
      "ĠáĪ¹": 6088,
      "áĬķĠáĪĽ": 6089,
      "useĠ": 6090,
      "ekoĠ": 6091,
      "áĪªáīµ": 6092,
      "ĠáīłáĪķ": 6093,
      "identĠ": 6094,
      "áįįáĬĵ": 6095,
      "áīłáĪ°": 6096,
      "áīłáĪī": 6097,
      "ChinaĠ": 6098,
      "auĠm": 6099,
      "indaĠyaĠ": 6100,
      "áĭ®áĪŃáĮĬáĪµ": 6101,
      "37": 6102,
      "Kih": 6103,
      "Lim": 6104,
      "dak": 6105,
      "t.": 6106,
      "usin": 6107,
      "ida": 6108,
      "áĬłáĬķ": 6109,
      "press": 6110,
      "ĠáĭµáĬķáĮĭ": 6111,
      "iliminĠ": 6112,
      "ĠáĬłáĮĪáĪ«áīµ": 6113,
      "Academ": 6114,
      "âĢİâĢİ": 6115,
      "áĪıáĪįáį¢": 6116,
      "MaiĠ": 6117,
      "yth": 6118,
      "yoteĠ": 6119,
      "Ã¯": 6120,
      "ami": 6121,
      "utionĠ": 6122,
      "ceĠdakeĠ": 6123,
      "ĠáĪįáī¥": 6124,
      "0Ġ-Ġ": 6125,
      "OlÃº": 6126,
      "Frank": 6127,
      "aliye": 6128,
      "NovembaĠ": 6129,
      "ĠáĪĽáĪµáī³áĭĪáĪ»áĭİáī½": 6130,
      "Kut": 6131,
      "bÃº": 6132,
      "fac": 6133,
      "hel": 6134,
      "hiy": 6135,
      "ux": 6136,
      "ym": 6137,
      "Ġáĭ¨áĪŀ": 6138,
      "sakand": 6139,
      "KwalejinĠ": 6140,
      "re,Ġ": 6141,
      "yauĠ": 6142,
      "Ãł-": 6143,
      "áĪµáĪį": 6144,
      "ondeĠ": 6145,
      "aboutĠ": 6146,
      "áĬĲáī±áĬķ": 6147,
      "ĠáĪĺáĮ¥": 6148,
      "Ġáĭ¨áĬ®": 6149,
      "áĭ«áĬķáĭ³áĬķáĭ±": 6150,
      "ainsiĠ": 6151,
      "Institut": 6152,
      "ĠáĬŃáįįáĪİáī½": 6153,
      "AnĠginaĠ": 6154,
      "Ġáĭ¨áĪļáĭ«áĪµ": 6155,
      "Ġáĭ³áĪŃ": 6156,
      "áº¹ráº¹Ġ": 6157,
      "TazamaĠpiaĠOrodhaĠyaĠ": 6158,
      "99": 6159,
      "ES": 6160,
      "ObaĠ": 6161,
      "aelĠ": 6162,
      "Ġáī¶": 6163,
      "undĠ": 6164,
      "ĠáĮ«": 6165,
      "enĠ(": 6166,
      "kumaĠmaiĠ": 6167,
      "Ġá¹£ÃŃá¹£": 6168,
      "uatanaĠnaĠ": 6169,
      "ViungoĠvyaĠnje": 6170,
      "yaddaĠ": 6171,
      "betweenĠ": 6172,
      "47": 6173,
      "Nollywo": 6174,
      "gaĠm": 6175,
      "ká»įÌĢĠ": 6176,
      "lem": 6177,
      "Î±": 6178,
      "áĬķáĪ³áĭĬ": 6179,
      "ĠáĮ³": 6180,
      "taĠfaraĠ": 6181,
      "chez": 6182,
      "ĠáĪĺáĪ³": 6183,
      "andik": 6184,
      "daĠyawaĠ": 6185,
      "Allah": 6186,
      "South": 6187,
      "AlakosoĠAgbaĠ": 6188,
      "Nair": 6189,
      "kiraĠ": 6190,
      "pá»įĠ": 6191,
      "¸áį": 6192,
      "Ð¸": 6193,
      "áī¾": 6194,
      "áĬķáĭ¶": 6195,
      "aya.": 6196,
      ".ĠH": 6197,
      "imeĠ": 6198,
      "ahaliĠ": 6199,
      "ighĠ": 6200,
      "autresĠ": 6201,
      "ĠáīĢáĬķĠáį²áį±áį»áį": 6202,
      "peutĠ": 6203,
      "ninuĠawonĠ": 6204,
      "SeptembaĠ": 6205,
      "fÃŃÃ¬mÃ¹Ġ": 6206,
      "áĮĪáĪªáī±": 6207,
      "hadiĠkifoĠch": 6208,
      ".,Ġ": 6209,
      "Kif": 6210,
      "beg": 6211,
      "wez": 6212,
      ".ĠT": 6213,
      "Ã¨yÃŃ": 6214,
      "áĪ³áĪ³áĭŃ": 6215,
      "áīĢáĪ¨": 6216,
      "Ġáī¥áĭĽáīµ": 6217,
      "áĬ¥áĮįáĭļáĬłáī¥áĪĶáĪŃ": 6218,
      "áį¤Ġáĭ¨": 6219,
      "ĠáĪ²áĪĨáĬķáį£": 6220,
      "oá¹£Ã¹ĠK": 6221,
      "ĠáĭĿáĪŃáĭ«": 6222,
      "---": 6223,
      "2019,Ġ": 6224,
      "Sala": 6225,
      "ĠáĪĪáĪĿáĪ³áĪĮ": 6226,
      "sinimÃ¡ĠÃłgbÃ©lÃ©": 6227,
      "Ne": 6228,
      "Sun": 6229,
      "ium": 6230,
      "arm": 6231,
      "áĬķáĭ°áĪŃ": 6232,
      "áī³áī½": 6233,
      "ĠáĭĪáĪįáĭ°": 6234,
      "ossĠ": 6235,
      "iĠmwakaĠ": 6236,
      "leyĠ": 6237,
      "wakifuat": 6238,
      "daban-": 6239,
      "upandeĠwaĠm": 6240,
      "SchoolĠ": 6241,
      "wacinĠ": 6242,
      "sĠinĠ": 6243,
      "ĠáīłáĮİáĪŃáĮİáĪŃáĭ«áĬķĠáĬ«áĪĮáĬķáĭ³áĪŃ": 6244,
      "ĠAs": 6245,
      "aĠbir": 6246,
      "Ã¬tÃłg": 6247,
      "ĠáĬĲáĮĪáĪŃĠáĮįáĬķ": 6248,
      "ĠáĮĢáĪĿáĪ®ĠáĬ¥áĪµáĬ¨Ġ20": 6249,
      "lÃ¡raĠÃłwá»įnĠ": 6250,
      "nÃŃbiĠtÃŃĠ": 6251,
      "ÃĢwá»įnĠÃ¬tá»įÌģkasÃŃĠ": 6252,
      "AbubakarĠ": 6253,
      "Portug": 6254,
      "shiĠneĠdanĠwasanĠÆĻwallonĠÆĻafaĠtaĠÆĻasarĠIngila.": 6255,
      "38": 6256,
      "Dok": 6257,
      "Sok": 6258,
      "Way": 6259,
      "baiĠ": 6260,
      "e),Ġ": 6261,
      "jÃ¬Ġ": 6262,
      "log": 6263,
      "nuf": 6264,
      "rÃº": 6265,
      "vo": 6266,
      "áī°áį¢": 6267,
      "Ġáĭ¨áĬ¦": 6268,
      "áĪ©áĪĿ": 6269,
      "oĠyaĠk": 6270,
      "aĠyaĠm": 6271,
      ",ĠmwigizajiĠwaĠfilamuĠ": 6272,
      "ion,Ġ": 6273,
      "uck": 6274,
      "áĪ²áĬķ": 6275,
      "ĠáīĢáĬķĠáĪĽáĪĪáīµĠáĬĲáĭįáį¢": 6276,
      "yaĠmwakaĠ": 6277,
      "ĠáĬłáīĨáĮ£áĮłáĪŃĠ(áĬ¨": 6278,
      "1892Ġáĭĵ.áĪĿ.ĠáĮĢáĪĿáĪ®ĠáĬ¥áĪµáĬ¨Ġ20": 6279,
      "ĠáīĢáĬķĠáīłáĬ¢áīµáĭ®áĮµáĭ«ĠáĬłáīĨáĮ£áĮłáĪŃĠ(áĬ¨": 6280,
      "1892Ġáĭĵ.áĪĿ.ĠáĮĢáĪĿáĪ®ĠáĬ¥áĪµáĬ¨Ġ2091Ġáĭĵ.áĪĿ.": 6281,
      "ĠáīĢáĬķĠáīłáĬ¢áīµáĭ®áĮµáĭ«ĠáĬłáīĨáĮ£áĮłáĪŃĠ(áĬ¨1892Ġáĭĵ.áĪĿ.ĠáĮĢáĪĿáĪ®ĠáĬ¥áĪµáĬ¨Ġ2091Ġáĭĵ.áĪĿ.": 6282,
      "48": 6283,
      "rig": 6284,
      "artĠ": 6285,
      "áº¹taĠ": 6286,
      "Ġáĭĺáĭ´": 6287,
      "áĭ©áĪµ": 6288,
      "assanĠ": 6289,
      "aiss": 6290,
      "whenĠ": 6291,
      "daĠdamaĠ": 6292,
      "Ġáĭ¨áīĢáĬķĠáĪµáĪĿ": 6293,
      "Ġ(áĬ¥áĬķáĮįáĪĬáĭĿáĬĽ": 6294,
      "ĠáĪ²áĪĨáĬķĠáĭŃáĪħĠáīĢáĬķĠáīłáĬ¢áīµáĭ®áĮµáĭ«ĠáĬłáīĨáĮ£áĮłáĪŃĠ(áĬ¨1892Ġáĭĵ.áĪĿ.ĠáĮĢáĪĿáĪ®ĠáĬ¥áĪµáĬ¨Ġ2091Ġáĭĵ.áĪĿ.": 6295,
      "ĠáīłáĬ¥áĬķáĮįáĪĬáĭĿáĬĽĠáĪ²áĪĨáĬķĠáĭŃáĪħĠáīĢáĬķĠáīłáĬ¢áīµáĭ®áĮµáĭ«ĠáĬłáīĨáĮ£áĮłáĪŃĠ(áĬ¨1892Ġáĭĵ.áĪĿ.ĠáĮĢáĪĿáĪ®ĠáĬ¥áĪµáĬ¨Ġ2091Ġáĭĵ.áĪĿ.": 6296,
      "ĠáīłáĮİáĪŃáĮİáĪŃáĭ«áĬķĠáĬ«áĪĮáĬķáĭ³áĪŃĠáĭ¨áīĢáĬķĠáĪµáĪĿ": 6297,
      "ĠáīłáĮİáĪŃáĮİáĪŃáĭ«áĬķĠáĬ«áĪĮáĬķáĭ³áĪŃĠáĭ¨áīĢáĬķĠáĪµáĪĿĠáīłáĬ¥áĬķáĮįáĪĬáĭĿáĬĽĠáĪ²áĪĨáĬķĠáĭŃáĪħĠáīĢáĬķĠáīłáĬ¢áīµáĭ®áĮµáĭ«ĠáĬłáīĨáĮ£áĮłáĪŃĠ(áĬ¨1892Ġáĭĵ.áĪĿ.ĠáĮĢáĪĿáĪ®ĠáĬ¥áĪµáĬ¨Ġ2091Ġáĭĵ.áĪĿ.": 6298,
      "Kul": 6299,
      "Larab": 6300,
      "banĠ": 6301,
      "cre": 6302,
      "sir": 6303,
      "tarĠ": 6304,
      "tÃ³": 6305,
      "yam": 6306,
      "202": 6307,
      "áīłáīĥ": 6308,
      "a,Ġk": 6309,
      "Ġáī°áīĥ": 6310,
      "idarĠ": 6311,
      "isĠtheĠ": 6312,
      "jáº¹ÌģĠá»įmá»įĠ": 6313,
      "ĠáĮłáīħ": 6314,
      "Italia": 6315,
      "jáº¹sÃ¡": 6316,
      "áī¥áĪ«áĭŃ": 6317,
      "ĠáĬĥáĭŃáĪį": 6318,
      "uhuruĠ": 6319,
      "áĪĮáĬŃáīµáĪªáĬŃ": 6320,
      "d.Ġ": 6321,
      "gidaĠ": 6322,
      "lÃ¹Ġ": 6323,
      "lilikuwaĠ": 6324,
      "zoĠ": 6325,
      "aniĠk": 6326,
      "á»įkÃłn": 6327,
      "áĪŃáī±": 6328,
      "urg": 6329,
      "áīħáĭ±áĪµ": 6330,
      "2010": 6331,
      "2007Ġ": 6332,
      "toĠjeĠ": 6333,
      "ĠáĮĪáĭ°": 6334,
      "Arg": 6335,
      "Ġáīłáī°áĮ¨áĪĽáĪª": 6336,
      "áĪĲáįĬ": 6337,
      "askof": 6338,
      "digiriĠnaĠ": 6339,
      "waÉĹan": 6340,
      "Sil": 6341,
      "kinĠ": 6342,
      "mafiĠ": 6343,
      "áĬķĠáĪĪáĪĽ": 6344,
      "akat": 6345,
      "áī°áĬĽáĭį": 6346,
      "áĪĪáĪĺ": 6347,
      "gbÃ²": 6348,
      "okanĠ": 6349,
      "Ġáĭ¨áĪĢ": 6350,
      "áīĢáĮ¥": 6351,
      "opol": 6352,
      "watakatifuĠ": 6353,
      "etĠlaĠ": 6354,
      "succ": 6355,
      "estiv": 6356,
      "BKĠ(BaadaĠyaĠKristo).ĠMatukioĠ": 6357,
      "view": 6358,
      "Ã¬bÃŃláº¹ÌĢĠ": 6359,
      "BiranenĠ": 6360,
      "Ġtrans": 6361,
      "Ġáĭ¨áĪĺáĮĢáĪĺáĪªáĭ«áĭį": 6362,
      "cutarĠ": 6363,
      "origin": 6364,
      "FarkonĠ": 6365,
      "Bau": 6366,
      "Tal": 6367,
      "band": 6368,
      "ood": 6369,
      "Ġ8": 6370,
      "ake.": 6371,
      "orÃŃá¹£": 6372,
      "áĭŃáĪŃ": 6373,
      ".ĠL": 6374,
      "Ġá»įbaĠ": 6375,
      "ibuĠ": 6376,
      "Ġáĭ¨áĪļáī³áĭĪ": 6377,
      "ĠáĮįáĭĽ": 6378,
      "ĠáĬłáĪĪáĪĿ": 6379,
      "AnĠhaifiĠ": 6380,
      "jáº¹ÌģĠá»įÌĢkanĠ": 6381,
      "ĠáĬĥáĭŃáĪĪ": 6382,
      "KK": 6383,
      "Mov": 6384,
      "bá»įÌģá»įÌĢ": 6385,
      "Ġ*": 6386,
      "shair": 6387,
      "ĠáĬ¥áĬĶ": 6388,
      "gboyÃ¨Ġ": 6389,
      "ĠáĬłáĭ¨áĪŃ": 6390,
      "áĮįáĪªáĬŃ": 6391,
      "wanaĠ": 6392,
      "áĪ°áĪŃ": 6393,
      "2011": 6394,
      "áīłáīµĠáĮĬáĭľ": 6395,
      "ĠáĮĪáĬķ": 6396,
      "karniĠnaĠ": 6397,
      "insaĠ": 6398,
      "UnitedĠStat": 6399,
      "kaskazin": 6400,
      "JosephĠ": 6401,
      "aĠmapokeoĠyaĠ": 6402,
      "irefu": 6403,
      "AM": 6404,
      "We": 6405,
      "etiĠ": 6406,
      "ial": 6407,
      "jÃ¬": 6408,
      "oodĠ": 6409,
      "rab": 6410,
      "wid": 6411,
      "zoteĠ": 6412,
      "Î¿": 6413,
      "ensiĠ": 6414,
      "ĠáĬłáĭ²áĪµĠáĬłáīłáī£": 6415,
      "áĬ¨áĭļáĭ«": 6416,
      "isĠ(": 6417,
      "MariaĠ": 6418,
      "áĪµáīµáĬĵ": 6419,
      "auriĠ": 6420,
      "ráº¹ÌĢ,Ġ": 6421,
      "awalaĠ": 6422,
      "Republ": 6423,
      "100Ġ": 6424,
      "Nam": 6425,
      "aan": 6426,
      "barĠ": 6427,
      "han": 6428,
      "kÃ¹": 6429,
      "Ð¾": 6430,
      "intĠ": 6431,
      "intern": 6432,
      "agharib": 6433,
      "ifĠ": 6434,
      "kumaĠanĠ": 6435,
      "ambaoĠ": 6436,
      "AĠshekararĠ": 6437,
      "áĭĽáĬĽáĭį": 6438,
      "1999": 6439,
      "uhim": 6440,
      "áĬłáĪĪ": 6441,
      "aĠyakeĠ": 6442,
      "EneoĠ": 6443,
      "natur": 6444,
      "gwamnanĠ": 6445,
      "Ġáīłáī¥áĭĽáīµ": 6446,
      "Ev": 6447,
      "Jar": 6448,
      "Moh": 6449,
      "bisaĠgaĠ": 6450,
      "gl": 6451,
      "oÃ²rÃ¹nĠ": 6452,
      "anth": 6453,
      "onlyĠ": 6454,
      "ajaĠ": 6455,
      "alich": 6456,
      "ĠáĭŃáĪĦ": 6457,
      "ĠáĬłáĪħ": 6458,
      "áĭ³áĪį": 6459,
      "áĭĺáĭį": 6460,
      "áĪ©áį¢": 6461,
      "ĠáīĢáĭ³": 6462,
      "orÃŃláº¹ÌĢ-Ã¨dÃ¨": 6463,
      "ĠáĪµáĪĪáĪļ": 6464,
      "lá»įÌģwá»įÌģ": 6465,
      "ĠáĪĻáĪī": 6466,
      "SaintĠ": 6467,
      "ĠáĪĺáĪįáĬŃáĭĵ": 6468,
      "abrair": 6469,
      "'estĠ": 6470,
      "Dev": 6471,
      "Mand": 6472,
      "Rad": 6473,
      "Su": 6474,
      "Tel": 6475,
      "taĠzamaĠ": 6476,
      "adam": 6477,
      "ĠáĪĺáĪĪ": 6478,
      "aĠmakarantarĠ": 6479,
      "ajeĠ": 6480,
      "ajir": 6481,
      "Ġáį³áį": 6482,
      "proc": 6483,
      "2003": 6484,
      "Ġáī£áĭŃ": 6485,
      "tarihinĠ": 6486,
      "ĠáīĢáĬķĠ-": 6487,
      "Fren": 6488,
      "ÃłwÃ³Ġ": 6489,
      "Ãłká»įÌģlÃ©Ġráº¹ÌĢĠ": 6490,
      "aimakinĠ": 6491,
      "iakaĠmirefu": 6492,
      "abakiĠsikuĠ": 6493,
      "AF": 6494,
      "BahariĠyaĠ": 6495,
      "EastĠ": 6496,
      "bÃłĠ": 6497,
      "crÃ©": 6498,
      "eroĠ": 6499,
      "áīłáīħ": 6500,
      "áįįáĮ¥": 6501,
      "áĪ°áĪĽ": 6502,
      "áīłáĪ³": 6503,
      ",ĠmshindiĠwaĠTuzoĠyaĠNobelĠyaĠKemiaĠmwakaĠwaĠ": 6504,
      "ĠáĬłáĮĪáĪ®áī½": 6505,
      "Guine": 6506,
      ",ĠmshindiĠwaĠTuzoĠyaĠNobelĠyaĠFizikiaĠmwakaĠwaĠ": 6507,
      "aribuĠ": 6508,
      "babbarĠ": 6509,
      "uisheĠ": 6510,
      "Roma,Ġhuadhim": 6511,
      "ThomasĠ": 6512,
      "ĠkatikaĠmiakaĠmirefu": 6513,
      "wakifuataĠmapokeoĠyaĠ": 6514,
      "wakifuataĠmapokeoĠyaĠRoma,Ġhuadhim": 6515,
      ")ĠáĬ¥áĬĵ": 6516,
      "Ig": 6517,
      "hom": 6518,
      "low": 6519,
      "áĪŃáī£": 6520,
      "is.": 6521,
      "áĬĵáĭŃáīµ": 6522,
      "ĠáĬ¥áĮįáĭļáĬłáī¥áĪĶáĪŃ": 6523,
      "áĭµáĪ¨áĪµ": 6524,
      "osp": 6525,
      "aniĠnaĠ": 6526,
      "JamiâĢĻarĠ": 6527,
      "Ãłn,Ġ": 6528,
      "d'unĠ": 6529,
      "IbnĠ": 6530,
      "áĭ´áīµ": 6531,
      "nÃ¡ÃłĠniĠ": 6532,
      "NÃŃgbÃł": 6533,
      "zinabakiĠsikuĠ": 6534,
      "maĠÅĦĠ": 6535,
      "dhidiĠyaĠ": 6536,
      "Ġáī¥áĪĶáĪ«áĭĬ": 6537,
      "ĠáĭĪáĭŃáĬķáĪĿ": 6538,
      "ĠáīĢáĮ¥áĪİ": 6539,
      "WakristoĠwengi,Ġ": 6540,
      "gÃ©nÃ©r": 6541,
      "uisheĠzinabakiĠsikuĠ": 6542,
      "WakristoĠwengi,ĠwakifuataĠmapokeoĠyaĠRoma,Ġhuadhim": 6543,
      "Mit": 6544,
      "cetteĠ": 6545,
      "pend": 6546,
      "Åį": 6547,
      "Ġ~": 6548,
      "áĬķáĬŃ": 6549,
      "inceĠ": 6550,
      "inrinĠ": 6551,
      "eneĠ": 6552,
      "ulĠ": 6553,
      "Ġáī°áĮįáī£": 6554,
      "áĭ³áĭµ": 6555,
      "áīłáĪµ": 6556,
      "2007": 6557,
      "watum": 6558,
      "Ġáĭ¨áī°áĪĺ": 6559,
      "anyik": 6560,
      "Olymp": 6561,
      "ÃªtreĠ": 6562,
      "áĬ¥áĬķáĭ²": 6563,
      "ablaĠyaĠ": 6564,
      "33": 6565,
      "Fabrair": 6566,
      "pÃ²Ġ": 6567,
      "italĠ": 6568,
      "áĮĪáĪ«áīµ": 6569,
      "2018": 6570,
      "ipÃ²Ġ": 6571,
      "áĪŀáīµ": 6572,
      "uwa,Ġ": 6573,
      "áĪĪáĪĿáĪ³áĪĮ": 6574,
      "yawan": 6575,
      "ombeĠ": 6576,
      "áĪ¸áĬĲ": 6577,
      "kuduĠmasoĠ": 6578,
      "mÃ©jÃ¬": 6579,
      "onyesh": 6580,
      "jeshiĠ": 6581,
      "ĠAgostiĠ-Ġ": 6582,
      "pakaĠuisheĠzinabakiĠsikuĠ": 6583,
      "BBCĠ": 6584,
      "ĠáĪĽáĮ£áīĢáĪ»": 6585,
      "DarĠesĠ": 6586,
      "Sol": 6587,
      "Yes": 6588,
      "mostĠ": 6589,
      "arc": 6590,
      "abi": 6591,
      "ÃĮá¹£": 6592,
      "com/": 6593,
      "undum": 6594,
      "ember": 6595,
      "ÃĵĠjáº¹ÌģĠ": 6596,
      "ArewacinĠ": 6597,
      "MeiĠ": 6598,
      "ĠAugustĠ": 6599,
      "AnĠginaĠbirninĠ": 6600,
      "BÃŃĠ": 6601,
      "inform": 6602,
      "wann": 6603,
      "áĪªáĪµ": 6604,
      "2016": 6605,
      "tÃŃĠaĠ": 6606,
      "Ġá¹£iá¹£áº¹ÌģĠ": 6607,
      "tainĠ": 6608,
      "uĠkatikaĠ": 6609,
      "ĠáĬłáĪīáį¢": 6610,
      "Ġáī£áĪħáĪŃ": 6611,
      "aguziĠwaĠ": 6612,
      "AlimfuataĠ": 6613,
      "Mk": 6614,
      "Ġ20": 6615,
      "oĠs": 6616,
      "atab": 6617,
      "ones": 6618,
      "import": 6619,
      "ĠáĪĺáĮ£": 6620,
      "afr": 6621,
      "ibleĠ": 6622,
      "2015": 6623,
      "edĠasĠ": 6624,
      "wendaĠ": 6625,
      "ĠáĮ¥áĪ©": 6626,
      "rubut": 6627,
      "BirninĠ": 6628,
      "JulaiĠ-Ġ": 6629,
      "Democrat": 6630,
      "IleĠ": 6631,
      "Ot": 6632,
      "iaĠkatikaĠ": 6633,
      "cheoĠ": 6634,
      "adu": 6635,
      "elaĠ": 6636,
      "ĠáīłáĪħ": 6637,
      "angĠ": 6638,
      "eĠdÃ©": 6639,
      "áĬłáĪµ": 6640,
      "AkwaiĠ": 6641,
      "LughaĠzaĠ": 6642,
      "HotunaĠ": 6643,
      "nasaraĠ": 6644,
      "FIFAĠ": 6645,
      "ĠáĬ¥áĬķáĮįáĪĬáĭĿáĬĽ": 6646,
      "cinĠkofinĠ": 6647,
      "Sing": 6648,
      "TĠ": 6649,
      "long": 6650,
      "mit": 6651,
      "amaĠk": 6652,
      "Ã¬bÃ¡": 6653,
      "onyĠ": 6654,
      "áĭµáĪĺ": 6655,
      "rÃŃnĠ": 6656,
      "compos": 6657,
      "ĠáīłáĪĽáĪĪáīµ": 6658,
      "shigaĠ": 6659,
      "500": 6660,
      "Dur": 6661,
      "Law": 6662,
      "iograf": 6663,
      "les": 6664,
      "roĠ": 6665,
      "temp": 6666,
      "velop": 6667,
      "á»įdÃºnĠ": 6668,
      "áĪŃáĮİ": 6669,
      "áīħáĭ«": 6670,
      "ĠáĪĽáĪŃáĭ«áĪĿ": 6671,
      "Ġáīµáĭį": 6672,
      "Shek": 6673,
      "150": 6674,
      "áĮ«áĭĪ": 6675,
      "wengineĠ": 6676,
      "ĠáĪ³áĭŃáĬķáĪ³áĭĬ": 6677,
      "biasharaĠ": 6678,
      "Ãłká»įÌģká»įÌģ": 6679,
      "ookĠ": 6680,
      "Ã©galementĠ": 6681,
      "ĠáįĸáĪĪáī²áĬ«": 6682,
      "áī¥áĪ«áĭŃáĪµáĮ¥": 6683,
      "46": 6684,
      "Je": 6685,
      "cy": 6686,
      "maz": 6687,
      "met": 6688,
      "Ùĩ": 6689,
      "áĬķáī³": 6690,
      "ahiyarĠ": 6691,
      "Ã©rÃ©Ġ": 6692,
      "undiĠ": 6693,
      "aliwaĠnaĠ": 6694,
      "NÃŃĠá»įdÃºnĠ": 6695,
      "AfirkaĠ": 6696,
      "ĠáĮīáĭ³áĭŃ": 6697,
      "HanyoyinĠ": 6698,
      "B.": 6699,
      "Kol": 6700,
      "a).": 6701,
      "def": 6702,
      "faitĠ": 6703,
      "hy": 6704,
      "wamb": 6705,
      "ĠáĪ¬": 6706,
      "áĬķĠáĭ¨áĪļ": 6707,
      "ine,Ġ": 6708,
      "amu": 6709,
      "gbÃ¡Ġ": 6710,
      "us.": 6711,
      "áĬłáĬķáĭµ": 6712,
      "kasashenĠ": 6713,
      "wá»įn.": 6714,
      "Ã¨resĠ": 6715,
      "ĠáĬ¥áĬķáĭ³áĭŃ": 6716,
      "al'ad": 6717,
      "ĠáĭĽáĪ¬": 6718,
      "Ġáī³áĪªáĬ«áĭĬĠáĪĽáĪµáī³áĭĪáĪ»áĭİáī½": 6719,
      "kumbukumbuĠzaĠ": 6720,
      "ĠáĪĺáĪįáĬŃáĭĵĠáĪĿáĭµáĪŃ": 6721,
      "Air": 6722,
      "A)Ġ": 6723,
      "pyaĠ": 6724,
      "pÃ¡Ġ": 6725,
      "sign": 6726,
      "val": 6727,
      "zoĠyaĠ": 6728,
      "Ã¡Ã¡": 6729,
      "ĠáĬłáī¶": 6730,
      "Ã²s": 6731,
      "acikinĠ": 6732,
      "angu": 6733,
      "rasm": 6734,
      "áº¹lif": 6735,
      "ĠáīłáĭĺáĪĺáĬĲĠáĪīáīĥáĪµ": 6736,
      "ahaifiy": 6737,
      "PopeĠ": 6738,
      "Offic": 6739,
      "ĠáĬłáįĪĠáī³áĪªáĬŃ": 6740,
      "ĠáĪļáĬĴáĪµáīµ": 6741,
      "ĠáĭµáĪŃáĮħáīµ": 6742,
      "ilosoph": 6743,
      "kumbukumbuĠzaĠwatakatifuĠ": 6744,
      "Kin": 6745,
      "Kog": 6746,
      "LeoĠ": 6747,
      "le,Ġ": 6748,
      "ren": 6749,
      "asayans": 6750,
      "daĠg": 6751,
      "Ã©qu": 6752,
      "Ġáīłáīµ": 6753,
      "áĭ«áĪį": 6754,
      "2014": 6755,
      "Alg": 6756,
      "stant": 6757,
      "ezek": 6758,
      "áĬ®áĬĸ": 6759,
      "atikaĠkar": 6760,
      "attaf": 6761,
      "wallonĠkaf": 6762,
      "nchiĠzaĠ": 6763,
      "ĠáīłáĪµáī°": 6764,
      "NewĠYork": 6765,
      "KatsinaĠ": 6766,
      "Ġáĭĭáī¢ĠáĪĿáĬķáĮ®áī½": 6767,
      "DarĠesĠSala": 6768,
      "MayĠ": 6769,
      "dÃºgb": 6770,
      "kÃ¬Ġ": 6771,
      "áĪŃáī¶": 6772,
      "irÃŃá¹£": 6773,
      "ayarĠdaĠ": 6774,
      "Ġáįİ": 6775,
      "áĮ¥áĪĿ": 6776,
      "akaĠdaĠ": 6777,
      "2012": 6778,
      "áįĪáĪĭ": 6779,
      "ĠáīłáĬ®": 6780,
      "1960": 6781,
      "Ġá»įÌĢpá»įÌĢlá»įpá»įÌĢĠ": 6782,
      "ĠáĬĵáīµáį¢": 6783,
      "ĠáīłáĬĭáĪĭĠáĬ¥áĪµáĬ¨": 6784,
      "sÃ¬kÃ²Ġ": 6785,
      "áįĸáĪĪáī²áĬ«": 6786,
      "ĠáĮ¸áī£áĭŃ": 6787,
      "ĠkatikaĠmiakaĠmirefu).ĠM": 6788,
      "BC": 6789,
      "BestĠ": 6790,
      "gÃ¡": 6791,
      "hiv": 6792,
      "jour": 6793,
      "ough": 6794,
      "pwan": 6795,
      "piaĠm": 6796,
      "°áį»áį": 6797,
      "ĠØ§ÙĦ": 6798,
      "anim": 6799,
      "ana,Ġ": 6800,
      "áĪµáī´": 6801,
      "imaninĠ": 6802,
      "Ġáį»áį": 6803,
      "áĬ«áĪŃ": 6804,
      "ĠáĪµáī¥áĪµ": 6805,
      "iĠkatikaĠm": 6806,
      "Ġáĭ¨áī°áī£áĪĪ": 6807,
      "leurĠ": 6808,
      "MarisĠ": 6809,
      "Ġáĭ°áĪ«áĪ²": 6810,
      "Que": 6811,
      "JamhuriĠyaĠ": 6812,
      "centuryĠ": 6813,
      "Ile-": 6814,
      "Sul": 6815,
      "kÃ¨Ġ": 6816,
      "sil": 6817,
      "tu": 6818,
      "áĬķĠáĬ¥áĬĵ": 6819,
      "ikuĠ": 6820,
      "ominaĠ": 6821,
      "áĪĭáīģ": 6822,
      "agul": 6823,
      "re.": 6824,
      "iĠkanĠ": 6825,
      "prim": 6826,
      "owÃ³Ġ": 6827,
      "áĪİáĮĤ": 6828,
      "ÃŃlÃ©Ġ": 6829,
      "ráº¹ÌĢĠnÃŃĠ": 6830,
      "airesĠ": 6831,
      "tarih": 6832,
      "ĠáīħáĪŃáĪµ": 6833,
      "áĮŃáĪŃ": 6834,
      "crip": 6835,
      "namoĠ": 6836,
      "wÃ¡yÃ©Ġ": 6837,
      ".ĠÃĢwá»įnĠÃĮt": 6838,
      "ĠáĮĬáĭ®áĪŃáĮĬáĪµ": 6839,
      "ijobaĠib": 6840,
      "áĬĵáĭŃáīµáĭµ": 6841,
      "55": 6842,
      "Nk": 6843,
      "PP": 6844,
      "dec": 6845,
      "hil": 6846,
      "kÃł.": 6847,
      "som": 6848,
      "yaraĠ": 6849,
      "áĬķáĮİ": 6850,
      "ini,Ġ": 6851,
      "ÃłÃ¬sÃłnĠ": 6852,
      "asiliĠyaĠ": 6853,
      "enaĠ": 6854,
      "kuch": 6855,
      "tĠ(": 6856,
      "áĭµáĪ®": 6857,
      "Ã²:Ġ": 6858,
      "áĬ¨áĪĭ": 6859,
      "áĬ¨áī³": 6860,
      "áĭĪáĭŃáĪĿ": 6861,
      "2013": 6862,
      "áĮĭáī¢": 6863,
      "haribiĠ": 6864,
      "walip": 6865,
      "nameĠ": 6866,
      "alikuwaĠmshindiĠwaĠTuzoĠyaĠNobelĠyaĠ": 6867,
      "ItaĠceĠ": 6868,
      "LakiniĠ": 6869,
      "AD": 6870,
      "hiĠ": 6871,
      "hivy": 6872,
      "ie,Ġ": 6873,
      "lib": 6874,
      "wuĠ": 6875,
      "Ġ9": 6876,
      "itanĠ": 6877,
      "ĠáĬ¥áĪĿáĬĲáīµ": 6878,
      "áĮĪáĪ¨": 6879,
      "áĪ«áĪįáį¢": 6880,
      "afiĠk": 6881,
      "áį¡áĬ¥": 6882,
      "áĪĮáĪİáī½": 6883,
      "Ġáĭ¨áĪļáĮĪáĬĻ": 6884,
      "iĠkwaĠm": 6885,
      "áĮłáī¥": 6886,
      "odiĠ": 6887,
      "Alit": 6888,
      "ĠáĭįáĮŃ": 6889,
      "wasaĠ": 6890,
      "conom": 6891,
      "1980": 6892,
      "baadayeĠ": 6893,
      "ilÃ©-iá¹£áº¹ÌģĠ": 6894,
      "asiasaĠwaĠ": 6895,
      "DolaĠlaĠRom": 6896,
      "WakristoĠwengi,ĠwakifuataĠmapokeoĠyaĠRoma,ĠhuadhimishaĠ": 6897,
      "Cali": 6898,
      "Centr": 6899,
      "Gáº¹ÌĢáº¹Ìģ": 6900,
      "Maz": 6901,
      "Sel": 6902,
      "Sci": 6903,
      "ra'": 6904,
      "yÃ¨Ġ": 6905,
      "itoĠ": 6906,
      "áĪĪáĭµ": 6907,
      "ĠáĭŃáĪĭáĪįáį¢": 6908,
      "ingĠs": 6909,
      "ĠáĪ²áĪĨáĬĳ": 6910,
      "áĬŀáī¹": 6911,
      "ministr": 6912,
      "Ã¬kÃ¬": 6913,
      "MuhammadĠ": 6914,
      "MachiĠ": 6915,
      "Ġáī°áĪ«áĪ«": 6916,
      "UgandaĠ": 6917,
      "BÃ¡": 6918,
      "Emp": 6919,
      "Hel": 6920,
      "Kong": 6921,
      "Sim": 6922,
      "TVĠ": 6923,
      "maw": 6924,
      "s)Ġ": 6925,
      "arsaĠ": 6926,
      "alorsĠ": 6927,
      "ĠáĬ¥áĪŃáĪ±": 6928,
      "gbáº¹Ìģ": 6929,
      "áĮįáĬĺ": 6930,
      "ic,Ġ": 6931,
      "edik": 6932,
      "ĠáīłáĬ¦": 6933,
      "âĢĵĠ1": 6934,
      "expl": 6935,
      "ÅĦĠjáº¹ÌģĠ": 6936,
      "KiingerezaĠ": 6937,
      "Ġáī°áĬ¨áī³": 6938,
      "Keny": 6939,
      "Ath": 6940,
      "lÃŃ": 6941,
      "lÃł": 6942,
      "rÃłnĠ": 6943,
      "sasaĠ": 6944,
      "inaĠm": 6945,
      "atak": 6946,
      "apá»įÌĢĠ": 6947,
      "ĠáĭĪáī³áĭ°": 6948,
      "2015Ġ": 6949,
      "own": 6950,
      "huÉĹ": 6951,
      "áĬ®áīµ": 6952,
      "ĠáĪ¥áįįáĪ«": 6953,
      "ĠáĬ¥áĬķáĭ²áĭ«": 6954,
      "IlÃ©Ġ": 6955,
      "NÃłÃ¬jÃŃrÃŃÃł,Ġ": 6956,
      "ĠáĪµáĪĪáĪĨáĬĲ": 6957,
      "ĠáĬ¨áī°áĪĽĠáĬĲáĭįáį¢": 6958,
      "ĠthisĠ": 6959,
      "OktobaĠ-Ġ": 6960,
      "ĠáĪ¦áĪµáīµ": 6961,
      "toĠgbaĠEbunĠNobelĠ": 6962,
      "Mex": 6963,
      "Wag": 6964,
      "coll": 6965,
      "do": 6966,
      "dinĠ": 6967,
      "nouv": 6968,
      "wÃŃĠ": 6969,
      "amer": 6970,
      "akokoĠ": 6971,
      "áĪĿĠáĪĪ": 6972,
      "ĠáĬłáīħ": 6973,
      "áĭ°áĪµ": 6974,
      "igab": 6975,
      "áĬ«áĪĿ": 6976,
      "leĠm": 6977,
      "ĠkoĠ": 6978,
      "ĠdonĠ": 6979,
      "ĠáĭµáĪį": 6980,
      "áĪ²áī²": 6981,
      "rayuw": 6982,
      "isiwaĠchaĠ": 6983,
      "|ĠRD2-": 6984,
      ".ĠManazarta": 6985,
      "WilayaĠyaĠ": 6986,
      "Bon": 6987,
      "gener": 6988,
      "gargaj": 6989,
      "iĠlaĠ": 6990,
      "shaĠ": 6991,
      "cheĠ": 6992,
      "empl": 6993,
      "iyaĠnaĠ": 6994,
      "2009": 6995,
      "Alh": 6996,
      "AliĠ": 6997,
      "Sheh": 6998,
      "ĠáĮįáĬķáĬĻ": 6999,
      "178": 7000,
      "Fasah": 7001,
      "Greg": 7002,
      "MusulunciĠ": 7003,
      "ĠáĬłáįįáĪªáĬ«": 7004,
      "NchiĠzaĠ": 7005,
      "fimĠdinĠ": 7006,
      "jáº¹sÃ¡raĠ": 7007,
      "Dut": 7008,
      "OL": 7009,
      "lov": 7010,
      "wouldĠ": 7011,
      "awarĠdaĠ": 7012,
      "áĬ«áĬ¨áĪĪ": 7013,
      "ĠáĪµáĪĭ": 7014,
      "áĪĨáĬĸ": 7015,
      "áĭ²áĭ®": 7016,
      "áĭĺáĪĺ": 7017,
      "Ã²rÃ²Ġ": 7018,
      "haka,Ġ": 7019,
      "1=": 7020,
      "Ju": 7021,
      "MĠ": 7022,
      "Rash": 7023,
      "Str": 7024,
      "c.": 7025,
      "hul": 7026,
      "herĠ": 7027,
      "lor": 7028,
      "sci": 7029,
      "áĮª": 7030,
      "áĪĿĠáĪĨáĬĲ": 7031,
      "gbá»įÌģĠ": 7032,
      "áĬŃáĪ²": 7033,
      "áī£áī³": 7034,
      "áĬ¨áĪ¨áĪĿ": 7035,
      "ibnĠ": 7036,
      "2005": 7037,
      "ĠáĪ²áīĢ": 7038,
      "ĠáīµáĪŃ": 7039,
      "Ġáĭĺáįĭ": 7040,
      "ĠáĭĺáĪĺáĬĵáĭĬ": 7041,
      "áīĥáĪ´": 7042,
      "antuĠ": 7043,
      "ĠáĭįáĪĥ": 7044,
      "ÅĦĠd": 7045,
      "bayarĠdaĠ": 7046,
      "ÃĵĠd": 7047,
      "179": 7048,
      "Isra": 7049,
      "áĮ¡áīµ": 7050,
      "ÃĪyÃŃĠ": 7051,
      "kubwaĠyaĠ": 7052,
      "falmeĠwaĠ": 7053,
      "MuhammaduĠ": 7054,
      "wurinĠ": 7055,
      "rikic": 7056,
      "mÃ¬ÃŃrÃłnĠ": 7057,
      "ĠáĪĺáĮ¨áĪ¨áĪ»ĠáĭµáĪ¨áĪµ": 7058,
      "franÃ§ais": 7059,
      "39": 7060,
      "Cent": 7061,
      "Hind": 7062,
      "KingĠ": 7063,
      "dÃºr": 7064,
      "gen": 7065,
      "kwaĠm": 7066,
      "rá»į": 7067,
      "ariĠyaĠ": 7068,
      "áĬķĠáī°": 7069,
      "amoĠ": 7070,
      "as.": 7071,
      "áĮĪáīµ": 7072,
      "utamad": 7073,
      "áį¡áīł": 7074,
      "áĪ°áĪį": 7075,
      "nÃŃĠÃ¬pÃŃnláº¹ÌĢĠ": 7076,
      "Alb": 7077,
      "ÃĮlÃºĠ": 7078,
      "owev": 7079,
      "FranceĠ": 7080,
      "áĪµáįĵáĬķáĭ«": 7081,
      "áīħáĪµáīĥáĪ´": 7082,
      "ĠáīłáĬĭáĪĭĠáĬ¥áĪµáĬ¨ĠáĭĵáĪĺáī±": 7083,
      ")Ġt": 7084,
      "</": 7085,
      "Ly": 7086,
      "jej": 7087,
      "ari,Ġ": 7088,
      "alsĠ": 7089,
      "áĪįáīµ": 7090,
      "áĬłáīµ": 7091,
      "ĠáĪµáĪŀáī½": 7092,
      "MarchĠ": 7093,
      "auc": 7094,
      "Ġáīłáī°áĪĪ": 7095,
      "Ã©eĠparĠ": 7096,
      "Burtan": 7097,
      "yammacinĠ": 7098,
      "FirstĠ": 7099,
      "ĠáĪĺáĪłáĪ¨áīµ": 7100,
      "SarkinĠ": 7101,
      "bincik": 7102,
      "aĠkungiyarĠ": 7103,
      "Ash": 7104,
      "Luc": 7105,
      "Techn": 7106,
      "Tovut": 7107,
      "bid": 7108,
      "Ðµ": 7109,
      "Ġáĭ¨áĭĵáĪĪáĪĿ": 7110,
      "ĠáĬ¥áĪĿ": 7111,
      "esaĠ": 7112,
      "esĠandĠ": 7113,
      "niĠsikuĠyaĠ": 7114,
      "emistr": 7115,
      "áĪĽáĪ½": 7116,
      "angl": 7117,
      "ipl": 7118,
      "ĠáīµáĪĿáĪħáĪŃ": 7119,
      "ĠáĬ¥áĬķáĭ°Ġáī°": 7120,
      "ansaĠ": 7121,
      "áĮħáĪĿ": 7122,
      "imbab": 7123,
      "tÃŃĠÃ³ĠsÃ¬Ġ": 7124,
      "BabbanĠbirninĠ": 7125,
      "pÃłtÃłkÃ¬Ġ": 7126,
      "CN": 7127,
      "dat": 7128,
      "etr": 7129,
      "runĠ": 7130,
      "sa": 7131,
      "tot": 7132,
      ",ĠÃłtiĠ": 7133,
      "amanĠ": 7134,
      "asaliĠ": 7135,
      "áĪĿáįĴ": 7136,
      "kush": 7137,
      "Ġáīłáĭį": 7138,
      "unic": 7139,
      "olanz": 7140,
      "Ã²n": 7141,
      "áĪĽáĪį": 7142,
      "ekaĠ": 7143,
      "Ġáĭ¨áĪ®": 7144,
      "áį£Ġ": 7145,
      "ĠáĪĿáĭķáĪ«áī¥": 7146,
      "áĪģáĪĪáīµ": 7147,
      "áĪľáīµ": 7148,
      "ilimaĠyaĠ": 7149,
      "ĠáĬĲáĮĪáĪł": 7150,
      "lughaĠzaĠ": 7151,
      "lokacinĠdaĠ": 7152,
      "falmeĠm": 7153,
      "Ġáī¡áĭµáĬķ": 7154,
      "JuniĠ-Ġ": 7155,
      "ĠáĭŃáīĢáĪ«áĪīáį¢": 7156,
      "kulaĠdaĠ": 7157,
      "68": 7158,
      "Duk": 7159,
      "bah": 7160,
      "bilaĠ": 7161,
      "mor": 7162,
      "nis": 7163,
      "ualĠ": 7164,
      "á¹¢": 7165,
      "ilsĠ": 7166,
      "itaĠm": 7167,
      "chaĠm": 7168,
      "áĭµáĬĵ": 7169,
      "ajiĠm": 7170,
      "ĠáĭŃáĭ©": 7171,
      "Ġáĭ¨áĪ´": 7172,
      "opĠ": 7173,
      "áįĪáĬķ": 7174,
      "Ġáĭ¨áī°áĭĪ": 7175,
      "áĪİáĪµ": 7176,
      "oĠkwenyeĠ": 7177,
      "inĠmall": 7178,
      "yaoĠ": 7179,
      "má»įÌĢĠsÃŃĠ": 7180,
      "áĪµáĪĪáĭļáĪħ": 7181,
      "aish": 7182,
      "kejÃ¬Ġ": 7183,
      "pÃº": 7184,
      ",ĠB": 7185,
      "ellaĠ": 7186,
      "afterĠ": 7187,
      "Ġá»įÌģ": 7188,
      "á»įÌĢrá»įÌĢĠ": 7189,
      "áĬķáĮįáĪį": 7190,
      "ĠáĮĭáĪ«": 7191,
      "ayyuk": 7192,
      "aĠkarkashinĠ": 7193,
      "WakatiĠwaĠ": 7194,
      "Ã³ĠtiĠk": 7195,
      "daĠtakeĠ": 7196,
      "team": 7197,
      "Ġáī¥áĪŃáĪĥ": 7198,
      "FebruariĠ-Ġ": 7199,
      "KiswahiliĠ": 7200,
      "Laf": 7201,
      "Mos": 7202,
      "Rev": 7203,
      "call": 7204,
      "já»įÌĢ": 7205,
      "ãĤ": 7206,
      "alamaĠ": 7207,
      "uraĠ": 7208,
      "ĠáĬłáĮĭ": 7209,
      "ote.": 7210,
      "andĠt": 7211,
      "áĬ¥áĬĲáĭļáĪħ": 7212,
      "ĠáĬŃáĪŃáĪµáī²áĭ«": 7213,
      "play": 7214,
      "ĠáĮĪáĮ½": 7215,
      "Island": 7216,
      "ĠáĮ½áĪķ": 7217,
      "girmaĠ": 7218,
      "elopmentĠ": 7219,
      "tsohuwarĠ": 7220,
      "Abdull": 7221,
      "JanuariĠ-Ġ": 7222,
      "daĠsukeĠ": 7223,
      "ĠáĭŃáĪĨáĬĵáĪįáį¢": 7224,
      "birniĠne,ĠdaĠkeĠ": 7225,
      "ipinleĠ": 7226,
      "ijobaĠibileĠniĠ": 7227,
      "ĠáīłáĬĭáĪĭĠáĬ¥áĪµáĬ¨ĠáĭĵáĪĺáī±ĠáĪĺáĮ¨áĪ¨áĪ»ĠáĭµáĪ¨áĪµ": 7228,
      "jejen": 7229,
      "(yaĠ": 7230,
      "Val": 7231,
      "ZiwaĠ": 7232,
      "Zimbab": 7233,
      "babaĠ": 7234,
      "son": 7235,
      "ty": 7236,
      "ĠP": 7237,
      "ĠáĬĽ": 7238,
      "ijeĠ": 7239,
      "ĠáĭįáĪĢ": 7240,
      "áĪ²áĭ«": 7241,
      "nigb": 7242,
      "177": 7243,
      "ĠáĭķáĪĪáī°": 7244,
      "ĠáįįáĪ¬": 7245,
      "zamaĠm": 7246,
      "TarihinĠ": 7247,
      "rasmiĠ": 7248,
      "DesembaĠ-Ġ": 7249,
      "CollegeĠ": 7250,
      "ijobaĠibileĠniĠIpinleĠ": 7251,
      "Fre": 7252,
      "Gud": 7253,
      "IV": 7254,
      "Li": 7255,
      "Res": 7256,
      "eo": 7257,
      "liv": 7258,
      "ris": 7259,
      "ĠÐ": 7260,
      "anay": 7261,
      "ine.": 7262,
      "taĠsamuĠ": 7263,
      "alij": 7264,
      "Ġáĭ¨áĪ±": 7265,
      "ĠáĭĪáĮĪ": 7266,
      "azim": 7267,
      "nÃŃĠÃłwá»įnĠ": 7268,
      "2017": 7269,
      "2014Ġ": 7270,
      "1998": 7271,
      "samoĠ": 7272,
      "samanĠ": 7273,
      "waoĠ": 7274,
      "áĮłáĪĪ": 7275,
      "istoriaĠ": 7276,
      "Ġáĭ¨áĬĲáīłáĪ©": 7277,
      "hakanĠ": 7278,
      "adhiĠyaĠ": 7279,
      "ĠáĪĿáĬķáĮĬáĭľ": 7280,
      "ilÃ©Ġáº¹ÌĢká»įÌģĠ": 7281,
      "aprÃ¨sĠ": 7282,
      "ĠáĪļáĪĬáĭ®áĬķ": 7283,
      "\"M": 7284,
      "baraĠ": 7285,
      "dem": 7286,
      "ixĠ": 7287,
      "mis": 7288,
      "vip": 7289,
      "áĬ£": 7290,
      "ara,Ġ": 7291,
      "áĬķáīĢ": 7292,
      "ilich": 7293,
      "abinc": 7294,
      "Ġáīłáīħ": 7295,
      "Ã©ĠdeĠ": 7296,
      "ing.": 7297,
      "áĬ«áĬ¤áĪį": 7298,
      "ihÃłnĠ": 7299,
      "ChuoĠ": 7300,
      "1990": 7301,
      "áĪİáī¹": 7302,
      "ĠáĪįáĮģ": 7303,
      "estĠunĠ": 7304,
      "Ġá»ĮbaĠ": 7305,
      "Ġáī¢áĭ«": 7306,
      "ĠáĭĺáĪĺáĬķĠáĬłáīĨáĮ£áĮłáĪŃ": 7307,
      "uchum": 7308,
      "Philip": 7309,
      "Kasuwan": 7310,
      "ÉĹayaĠdagaĠcikinĠ": 7311,
      "Ã¡lÃŃ": 7312,
      "Ġáĭ¨áĭįáĮŃ": 7313,
      "ikubwaĠ": 7314,
      "Sikukuu": 7315,
      "sosaiĠ": 7316,
      "áī¨áĪŃáĪ²áī²": 7317,
      "shirye-shiry": 7318,
      "ĠáĪĺáĮ»áĪķ": 7319,
      "WakristoĠwengi,ĠwakifuataĠmapokeoĠyaĠRoma,ĠhuadhimishaĠkumbukumbuĠzaĠwatakatifuĠ": 7320,
      "Nic": 7321,
      "jaĠ": 7322,
      "ooĠ": 7323,
      "owan": 7324,
      "taw": 7325,
      "unz": 7326,
      "áĪĪáį¢": 7327,
      "á»įÌģk": 7328,
      "ĠáĪĺáīħ": 7329,
      "Ã²Ġk": 7330,
      "off": 7331,
      "2000": 7332,
      "and,Ġ": 7333,
      "áīĥáĭįáĬķ": 7334,
      "waĠmwakaĠ": 7335,
      "taif": 7336,
      "ion.": 7337,
      "waÆĻ": 7338,
      "efuĠ": 7339,
      "áīĤáīµ": 7340,
      "zamanĠk": 7341,
      "áĬķáĮĮ": 7342,
      "ÃłdÃºgb": 7343,
      "ItaliaĠ": 7344,
      "ÙİÙ": 7345,
      "mÃ©jÃ¬Ġ": 7346,
      "nau'": 7347,
      "ikiped": 7348,
      "bahar": 7349,
      "dÃ¨Ġ": 7350,
      "writ": 7351,
      "orukoĠ": 7352,
      "onimoĠ": 7353,
      "oft": 7354,
      "ĠáĭŃáĬĲ": 7355,
      "uka": 7356,
      "nÃŃp": 7357,
      "ĠáīłáĬ¤": 7358,
      "ambr": 7359,
      "ambul": 7360,
      "stud": 7361,
      "waĠki": 7362,
      "ShiĠneĠ": 7363,
      "Ġáī£áĪķáĪŃ": 7364,
      "uhimuĠ": 7365,
      "uĠyaĠm": 7366,
      "taronĠ": 7367,
      "Ġáĭ¨áĬłáĭ¨áĪŃ": 7368,
      "walit": 7369,
      "áīĤáĭ«": 7370,
      "tÃŃĠwá»įÌģnĠbÃŃĠ": 7371,
      "MasharikiĠ": 7372,
      "AwardsĠ": 7373,
      "abubuwanĠ": 7374,
      "LouisĠ": 7375,
      "RichardĠ": 7376,
      "AwardĠ": 7377,
      "Ear": 7378,
      "Ram": 7379,
      "bÃ³": 7380,
      "bikinĠ": 7381,
      "Å«": 7382,
      "anoĠyaĠ": 7383,
      "Ġ(áĬł": 7384,
      "leĠdeĠ": 7385,
      "ÃĢĠ": 7386,
      "2012Ġ": 7387,
      "overĠ": 7388,
      "ĠáīłáĪĺáĪĨáĬķ": 7389,
      "Ġá»įÌĢrá»įÌĢĠ": 7390,
      "ilimiaĠ": 7391,
      "....": 7392,
      "ologieĠ": 7393,
      "olÃ¹darÃŃĠ": 7394,
      "ĠáĭŃáĪĺáĪµáĪĭáĪįáį¢": 7395,
      "(Ġ": 7396,
      "300": 7397,
      "56": 7398,
      "Hung": 7399,
      "Mur": 7400,
      "Sup": 7401,
      "aineĠ": 7402,
      "ram": 7403,
      "rest": 7404,
      "wÃ³Ġ": 7405,
      "aĠj": 7406,
      "Ġáīª": 7407,
      "ild": 7408,
      "Ġáīłáĭĵ": 7409,
      "áĭ«áĪľ": 7410,
      "áĪĭáĪµ": 7411,
      "áĬ¨áĪ°": 7412,
      "áįĪáĪ«": 7413,
      "areĠnaĠ": 7414,
      "ansu.": 7415,
      "daĠsaur": 7416,
      "áĮ»áįĪ": 7417,
      "whereĠ": 7418,
      "Islam": 7419,
      "round": 7420,
      "ollow": 7421,
      "auniyarĠ": 7422,
      "Wá»įÌģnĠbÃŃĠ": 7423,
      "KamusiĠ": 7424,
      "ungeĠlaĠ": 7425,
      "pÃŃnláº¹ÌĢĠá»ĮÌĢ": 7426,
      "YunifÃ¡sÃŃ": 7427,
      "49": 7428,
      "Hab": 7429,
      "haliĠ": 7430,
      "amiaĠ": 7431,
      "orunĠ": 7432,
      "ĠáĮĥ": 7433,
      "áĭŃáĪģ": 7434,
      "ictĠ": 7435,
      "ĠáīłáĪĭ": 7436,
      "ĠáĬĲáĭįáį¢ĠáĬ¨": 7437,
      "iĠkatiĠyaĠ": 7438,
      "2008": 7439,
      "2006Ġ": 7440,
      "takenĠ": 7441,
      "ĠáĬłáĪĪáĭįáį¢": 7442,
      "wadandaĠ": 7443,
      "Trans": 7444,
      "MayuĠ": 7445,
      "Flor": 7446,
      "egeĠbiĠ": 7447,
      "abijinĠ": 7448,
      "DemocraticĠ": 7449,
      "-d": 7450,
      "Sur": 7451,
      "gig": 7452,
      "mil": 7453,
      "noĠ": 7454,
      "pil": 7455,
      "s.Ġ": 7456,
      "tum": 7457,
      "vij": 7458,
      "ĠáīĦ": 7459,
      "áĪ¨áĪŃ": 7460,
      "Ġáī°áĮ½": 7461,
      "ahud": 7462,
      "Ġáĭ¨áĪļáĪ°": 7463,
      "obinĠ": 7464,
      "ĠáĮįáĭµ": 7465,
      "lead": 7466,
      "ts,Ġ": 7467,
      "Â»,Ġ": 7468,
      "aureĠ": 7469,
      "ĠáĬłáĪĪáĭį": 7470,
      "Ã¨rÃ¨Ġ": 7471,
      "arÃ¡ĠNÃłÃ¬jÃŃrÃŃÃł": 7472,
      "áº¹ráº¹": 7473,
      "njiaĠ": 7474,
      "Naijiria.Ġ": 7475,
      "jihoh": 7476,
      "Ã´t": 7477,
      "ĠáĭķáĪĪáīµĠáīłáĬĭáĪĭĠáĬ¥áĪµáĬ¨ĠáĭĵáĪĺáī±ĠáĪĺáĮ¨áĪ¨áĪ»ĠáĭµáĪ¨áĪµ": 7478,
      "awaidaĠ": 7479,
      "knownĠ": 7480,
      "NuwambaĠ": 7481,
      "Washing": 7482,
      "yaĠmwakaĠ(yaĠ": 7483,
      "shairiĠ": 7484,
      "AT": 7485,
      "Jo": 7486,
      "Pul": 7487,
      "Sw": 7488,
      "mÃŃrÃłnĠ": 7489,
      "nen": 7490,
      "nipaĠ": 7491,
      "sens": 7492,
      "yÃ©": 7493,
      "Ġáĭ¨áī£": 7494,
      "áĭ«áĭĺ": 7495,
      "ĠáĬĲáĮ¥": 7496,
      "Ã²Ġs": 7497,
      "áĬŃáĬķ": 7498,
      "ĠAmer": 7499,
      "lÃ¡báº¹ÌģĠ": 7500,
      "ĠáĪįáĭ°áīµ": 7501,
      "Progr": 7502,
      "ilimiĠ": 7503,
      "ĠáĬłáĪįáī°": 7504,
      "ĠáĭŃáī»áĪĭáĪįáį¢": 7505,
      "RÃ©": 7506,
      "VID": 7507,
      "daid": 7508,
      "e\"Ġ": 7509,
      "sanaĠ": 7510,
      "ata,Ġ": 7511,
      "Ġáĭ¨áīĨ": 7512,
      "áĪĿĠáĪĺ": 7513,
      "una,Ġ": 7514,
      "áĪĺáĮ¥": 7515,
      "ĠáĬłáĭ³": 7516,
      "áĭµáĪ¨": 7517,
      "ĠáĬ¨áĪĽ": 7518,
      "Ã¹d": 7519,
      "áĪªáīĥ": 7520,
      "idd": 7521,
      "ĠáĭĪáĮ¥": 7522,
      "áī¸áĭĭáĪįáį¢": 7523,
      "owÃ³": 7524,
      "ĠáĪ°áĬĲ": 7525,
      "AĠshekararĠ201": 7526,
      "áĭĵáĬķ": 7527,
      "ĠáĬķáĮīáĪłĠáĬĲáĮĪ": 7528,
      "manyĠ": 7529,
      "ĠáīĨáĭŃ": 7530,
      "Ġáĭ¨áĪļáĮĪáĬĿáīłáīµ": 7531,
      "BeninĠ": 7532,
      "áĬķáĮīáĪ¥": 7533,
      "languageĠ": 7534,
      "alsaf": 7535,
      "serikaliĠyaĠ": 7536,
      "ĠáĮĮáī³": 7537,
      "2)": 7538,
      "57": 7539,
      "AĠk": 7540,
      "Sir": 7541,
      "Zar": 7542,
      "Zamb": 7543,
      "diniĠ": 7544,
      "geĠ": 7545,
      "||Ġ": 7546,
      "ara.": 7547,
      "antiĠ": 7548,
      "oĠjeĠ": 7549,
      "áĪĪáīĢ": 7550,
      "Ã²p": 7551,
      "Ġáį©": 7552,
      "Ġáī°áĬŃáĪį": 7553,
      "áĪªáĬ®áī½": 7554,
      "Ġáĭ«áĪ³": 7555,
      "prob": 7556,
      "2004": 7557,
      "1997": 7558,
      "aĠkuanziaĠ": 7559,
      "áī³áĭĪáīĢ": 7560,
      "ector": 7561,
      "Kiingerez": 7562,
      "Ã³ĠtÃºnĠ": 7563,
      "ĠAmáº¹ÌģrÃŃkÃłĠ": 7564,
      "UsmanĠ": 7565,
      "áĬ¨áĭļáĪħĠáĭķáĪĪáīµĠáīłáĬĭáĪĭĠáĬ¥áĪµáĬ¨ĠáĭĵáĪĺáī±ĠáĪĺáĮ¨áĪ¨áĪ»ĠáĭµáĪ¨áĪµ": 7566,
      "PartyĠ(": 7567,
      "SouthĠ": 7568,
      "áĬĵĠáĪĺáĭĭ": 7569,
      "utawalaĠ": 7570,
      "Amerika.Ġ": 7571,
      "HanyoyinĠhaÉĹ": 7572,
      "ĠkatikaĠmiakaĠmirefu).ĠMpakaĠuisheĠzinabakiĠsikuĠ": 7573,
      "5,": 7574,
      "MjiĠ": 7575,
      "TaĠkasanceĠ": 7576,
      "buk": 7577,
      "ball": 7578,
      "e).": 7579,
      "mÃ¡Ġ": 7580,
      "raj": 7581,
      "ĠáīłáĬĲ": 7582,
      "ĠáĬ¥áĪ±": 7583,
      "olĠ": 7584,
      "oliĠ": 7585,
      "niĠaĠ": 7586,
      "Ã²t": 7587,
      "áĬŃáĪŃáĪµáī¶áĪµ": 7588,
      "áĪĽáĭįáĭ«áĬķ": 7589,
      "alig": 7590,
      "ĠáįĮ": 7591,
      "á»įÌĢĠsÃŃĠ": 7592,
      "áīħáĬĵ": 7593,
      "áī¸áĭī": 7594,
      "atiqu": 7595,
      "thisĠ": 7596,
      "ojoĠ": 7597,
      "ubwaĠ": 7598,
      "ĠáĪ²áĪį": 7599,
      "Chur": 7600,
      "induz": 7601,
      "1999Ġ": 7602,
      "uhimm": 7603,
      "áįĬáĭ«": 7604,
      "ĠáĪĬáīĢ": 7605,
      "dÃ©part": 7606,
      "askaziniĠ": 7607,
      "eshim": 7608,
      "ĠáĬłáĪĺáī³áīµ": 7609,
      "2019Ġ": 7610,
      "fiel": 7611,
      "zauneĠ": 7612,
      "FilmĠ": 7613,
      "MachiĠ-Ġ": 7614,
      "COVID": 7615,
      "Rec": 7616,
      "many": 7617,
      "tanĠ": 7618,
      "inĠjirginĠ": 7619,
      "shahar": 7620,
      "gbáº¹ÌģĠ": 7621,
      "chaĠk": 7622,
      "emaĠ": 7623,
      "ĠáīłáĪĢ": 7624,
      "áĬ¨áĬĲ": 7625,
      "áĬ«áĪĦ": 7626,
      "ambakoĠ": 7627,
      "auyaĠ": 7628,
      "waĠkar": 7629,
      "She": 7630,
      "ĠáĮĪáĭ¥": 7631,
      "imboĠ": 7632,
      "ĠáĪĺáĬķáĮįáĪ¥áī³áīµ": 7633,
      "bÃŃbÃŃĠ": 7634,
      "duniaĠ": 7635,
      "áĭŀáī½": 7636,
      "PeterĠ": 7637,
      "ĠApriliĠ-Ġ": 7638,
      "ÃĢwá»įnĠáº¹láº¹ÌģbÃ¹nĠNobelĠnÃŃnÃºĠ": 7639,
      "Ã©taitĠ": 7640,
      "ehemuĠ": 7641,
      "asayansiĠwaĠ": 7642,
      "COVID-": 7643,
      "HasaĠ": 7644,
      "Maur": 7645,
      "PĠ": 7646,
      "cibiyarĠ": 7647,
      "iel": 7648,
      "mall": 7649,
      "rÃ¬": 7650,
      "tash": 7651,
      "u:Ġ": 7652,
      "ÃłĠt": 7653,
      "ama,Ġ": 7654,
      "ilarĠ": 7655,
      "shaf": 7656,
      "áĭµáĪį": 7657,
      "emat": 7658,
      "áĪ³áĪįáį¢": 7659,
      "Ã©ĠenĠ": 7660,
      "appl": 7661,
      "reat": 7662,
      "2005Ġ": 7663,
      "unguĠ": 7664,
      "ÉĹinĠ": 7665,
      "anzuĠ": 7666,
      "ammedĠ": 7667,
      "huoĠ": 7668,
      "áĬĴáĪįáĬŃ": 7669,
      "Ant": 7670,
      "aientĠ": 7671,
      "TaĠkumaĠ": 7672,
      "UfaransaĠ": 7673,
      "Ġáįªáį»áį": 7674,
      "Bas": 7675,
      "Plat": 7676,
      "biliĠ": 7677,
      "lati": 7678,
      "yÃ¨": 7679,
      "aĠL": 7680,
      "an'": 7681,
      "ĠáĬĥ": 7682,
      "illaĠ": 7683,
      "áĪµáĪĿ": 7684,
      "ise": 7685,
      "ĠáĬ¥áĬ©áĪį": 7686,
      "Ġáĭ¨áĪģ": 7687,
      "eteĠ": 7688,
      "ipp": 7689,
      "ent,Ġ": 7690,
      "1996": 7691,
      "ĠáĪĨáĬĳ": 7692,
      "lá»įÌģgbá»įÌĢnĠ": 7693,
      "áĭ°áĪŃáĮį": 7694,
      ",000.": 7695,
      "ĠáīłáĬłáĪģáĬĳ": 7696,
      "áįĸáĪĬ": 7697,
      "TaĠyiĠ": 7698,
      "jinsiĠ": 7699,
      "iakaĠyaĠ": 7700,
      "siyasanĠ": 7701,
      "ZanzibarĠ": 7702,
      "yaĠmutuĠaĠshekaraĠtaĠ": 7703,
      "aĠbirninĠ": 7704,
      "Kip": 7705,
      "a:": 7706,
      "hÃłnĠ": 7707,
      "jÃŃ": 7708,
      "káº¹Ìģ": 7709,
      "rag": 7710,
      "anaĠm": 7711,
      "ĠáīĤ": 7712,
      "arĠtaĠ": 7713,
      "áĪĪáĭĭáĪįáį¢": 7714,
      "áĭ°áĮĪ": 7715,
      "imataif": 7716,
      "olud": 7717,
      "apt": 7718,
      "Ã³ĠsÃ¬Ġ": 7719,
      "áĭ¨áĪļ": 7720,
      "áįĪáĪ¨": 7721,
      "ambal": 7722,
      "oweĠ": 7723,
      "shekarunĠ": 7724,
      "taur": 7725,
      "ĠáĮĪáī¥áĪ¨": 7726,
      "Prof": 7727,
      "sÃŃwÃ¡jÃºĠ": 7728,
      "waĠnaĠPapaĠ": 7729,
      "shigaĠcikinĠ": 7730,
      "HistoriaĠyaĠ": 7731,
      "AmurkaĠ": 7732,
      "WanasayansiĠwaĠ": 7733,
      "kasuwanciĠ": 7734,
      "ambayoĠniĠ": 7735,
      "gwamnatiĠ": 7736,
      "lambarĠyaboĠtaĠ": 7737,
      "(N": 7738,
      "2=": 7739,
      "Dir": 7740,
      "Fer": 7741,
      "wer": 7742,
      "Ø©": 7743,
      "Ø³": 7744,
      "áįı": 7745,
      "2020Ġ": 7746,
      "aĠmak": 7747,
      "ĠáīłáĪŀ": 7748,
      "Ġá»įlá»įÌģ": 7749,
      "ĠáĬ¥áĬķáīħáĪµáīĥáĪ´": 7750,
      "ĠAm": 7751,
      "ĠAĠ": 7752,
      "Ġáī¥áĪĶáĪŃ": 7753,
      "izariĠwaĠ": 7754,
      "ĠáĬŃáĪĪáī¥": 7755,
      "jáº¹ÌģĠÃ²á¹£Ã¨rÃ©Ġ": 7756,
      "Ġáº¹ÌĢyáº¹Ġ": 7757,
      "seed": 7758,
      "ĠáĪĬáĭ«": 7759,
      "rough": 7760,
      "olÃ³á¹£Ã¨lÃºĠ": 7761,
      "perm": 7762,
      "NÃŃĠá»įjá»įÌģĠk": 7763,
      "Ã¨yÃŃĠtÃŃĠ": 7764,
      "IbrahimĠ": 7765,
      "WarĠ": 7766,
      "cit": 7767,
      "dubuĠ": 7768,
      "numb": 7769,
      "uy": 7770,
      "áĭ·": 7771,
      "insĠ": 7772,
      "inĠK": 7773,
      "kuw": 7774,
      "shah": 7775,
      "áĬ¨áĬĵ": 7776,
      "trouv": 7777,
      "áĮĭáīµ": 7778,
      "áĭ²áĪ±": 7779,
      "etĠlesĠ": 7780,
      "áĪ©áĬķ": 7781,
      "Champ": 7782,
      "1970": 7783,
      "ationĠdeĠ": 7784,
      "karatunĠ": 7785,
      "tarihiĠ": 7786,
      "Ġáī¤áī¶áī½": 7787,
      "d'uneĠ": 7788,
      "ÃĮtum": 7789,
      "Greek": 7790,
      "Ġáī°áĬ¨áī³áĭŃ": 7791,
      "TanguĠ": 7792,
      "patakiĠ": 7793,
      "áĬ¨áī°áĪĽáĭį": 7794,
      "HispaniaĠ": 7795,
      "influ": 7796,
      "ĠáĪĿáĪįáĬŃáīµ": 7797,
      "bÃłbÃ¡Ġ": 7798,
      "oluiluĠ": 7799,
      "Bill": 7800,
      "Mlim": 7801,
      "Tsak": 7802,
      "VitaĠ": 7803,
      "bis": 7804,
      "kit": 7805,
      "mot": 7806,
      "tele.ĠItokasiĠÃĢwá»įnĠ": 7807,
      "aĠÆĻar": 7808,
      "yaĠzamaĠ": 7809,
      "Ġáĭ¨áĪĪáĭį": 7810,
      "áĪĿáī¥": 7811,
      "áĪµáĬķ": 7812,
      "oluk": 7813,
      "ĠáĬ¨áĪĨáĬĲ": 7814,
      "áĪ³áĪ°": 7815,
      "iaĠniĠ": 7816,
      "2011Ġ": 7817,
      "ovi": 7818,
      "epoĠ": 7819,
      "ammentĠ": 7820,
      "daĠsauranĠ": 7821,
      "ĠtoĠtheĠ": 7822,
      "olÃ³rÃŃĠ": 7823,
      "áĮĬáĭ«": 7824,
      "Oá¹£Ã¹Ġk": 7825,
      "ĠáīµáĬķáĪ½": 7826,
      "Hispani": 7827,
      "ĠáĪºáĪħ": 7828,
      "1.Ġ": 7829,
      "::": 7830,
      "Bag": 7831,
      "Publ": 7832,
      "manyanĠ": 7833,
      "sáº¹Ìģ": 7834,
      "u)Ġ": 7835,
      "áĬķáĮĢ": 7836,
      "arĠdaĠk": 7837,
      "áº¹Ìģm": 7838,
      "ĠáĭŃáīĨ": 7839,
      "ĠáĪĪáĪļ": 7840,
      "uduĠ": 7841,
      "ashir": 7842,
      "leyinĠ": 7843,
      "aĠsunĠ": 7844,
      "ĠáīĥáĪĭáīµ": 7845,
      "ĠáĭĺáĪĺáĬĲĠáĪĽáī´áĭİáĪµ": 7846,
      "Argent": 7847,
      "DeĠ": 7848,
      "HarĠ": 7849,
      "Hous": 7850,
      "KamfaninĠ": 7851,
      "Ox": 7852,
      "Sa": 7853,
      "a/": 7854,
      "oÃ¹Ġ": 7855,
      "perĠ": 7856,
      "siteĠ": 7857,
      "sÃŃláº¹ÌĢ": 7858,
      "arĠg": 7859,
      "áī°áīµ": 7860,
      "áĭŃáĪį": 7861,
      "aĠkatiĠyaĠ": 7862,
      "repr": 7863,
      "ĠáĪµáĬķ": 7864,
      "2000Ġ": 7865,
      "áįĵáĬķ": 7866,
      "ĠáĮĢáĪŃáĪĺáĬķ": 7867,
      "Ġáī°áĪĺáĪ³áĪ³áĭŃ": 7868,
      "ĠáĪĺáĪ°áĪ¨áīµ": 7869,
      "áĮ¥áĪ¨ĠáĬĲáĮĪáĪ®áī½": 7870,
      "RoyalĠ": 7871,
      "áĬ®áĬĸáĪļ": 7872,
      "Califor": 7873,
      "Bad": 7874,
      "DansĠ": 7875,
      "Nik": 7876,
      "Russ": 7877,
      "Vit": 7878,
      "YanaĠ": 7879,
      "ry": 7880,
      "wÃ³": 7881,
      "asiĠyaĠ": 7882,
      "Ġáĭ¨áĮ¥": 7883,
      "ĠáīłáĭĪ": 7884,
      "shidaĠ": 7885,
      "ulikuwaĠ": 7886,
      "Ġáī°áĮ«": 7887,
      "ibit": 7888,
      "ethĠ": 7889,
      "Ġáĭ¨áĪļáĪ°áĪ«": 7890,
      "ambapoĠ": 7891,
      "ungum": 7892,
      "anci,Ġ": 7893,
      "ĠáīłáĪĺáī£áĪį": 7894,
      "oĠmwakaĠ": 7895,
      "ique.": 7896,
      "áįĸáĪŃáīµ": 7897,
      "NovembaĠ-Ġ": 7898,
      "jama'aĠaĠ": 7899,
      "SeptembaĠ-Ġ": 7900,
      "nÃŃgbÃłĠtÃŃĠÃ³Ġ": 7901,
      "mataĠtaĠ": 7902,
      "ĠáĬłáīĢáįį": 7903,
      "ĠáĮįáĬķáĬĻáĬĲáīµ": 7904,
      ")áį¢": 7905,
      "Pers": 7906,
      "PortĠ": 7907,
      "Tak": 7908,
      "bit": 7909,
      "fond": 7910,
      "gomaĠ": 7911,
      "kÃºĠ": 7912,
      "pal": 7913,
      "sáº¹ÌĢ": 7914,
      "suneĠ": 7915,
      "aĠdagaĠ": 7916,
      "ana": 7917,
      "áĮİáī½": 7918,
      "alg": 7919,
      "Ã©po": 7920,
      "áĪįáĮĭ": 7921,
      "onneĠ": 7922,
      "ĠáĬ¥áĪ«áĪ±": 7923,
      "ĠáĬ¨áĪ°": 7924,
      "Ġáĭ¨áĬ¡": 7925,
      "á»įÌĢkanĠ": 7926,
      "ignĠ": 7927,
      "ĠáĭĵáĭŃáĬĲáīµ": 7928,
      "ĠáĪĽáĬħ": 7929,
      "1993": 7930,
      "ĠáĪįáĪĽ": 7931,
      "huuĠ": 7932,
      "áī¦áĪŃ": 7933,
      "Ġáĭ¨áĬłáĭįáĪ®áįĵ": 7934,
      "ĠáĮĢáĪĺáĪ¨": 7935,
      "org/": 7936,
      "ĠáĬłáĪĿáī£": 7937,
      "'YanĠwasanĠÆĻwallonĠÆĻafaĠtaĠÆĻasarĠIngil": 7938,
      "Bibl": 7939,
      "ĠáĬŃáįįáĪĭáĮĪáĪŃ": 7940,
      "Seneg": 7941,
      ");Ġ": 7942,
      "Gener": 7943,
      "cas": 7944,
      "duĠm": 7945,
      "izaĠ": 7946,
      "táº¹Ìģ": 7947,
      "aroĠ": 7948,
      "Ãłjáº¹sÃ¡raĠ": 7949,
      "kunanĠ": 7950,
      "ĠáįĴ": 7951,
      "tiĠaĠ": 7952,
      "otunĠ": 7953,
      "trav": 7954,
      "ĠáĪµáĭ«áĪľ": 7955,
      "lev": 7956,
      "¢áīµáĭ®áĮµáĭ«áĬķ": 7957,
      "olÃ³gunĠ": 7958,
      "ĠáĪĺáĪįáĬ©": 7959,
      "ĠAfric": 7960,
      "ĠáĪĽáĪŃáīĨáĪµĠáĭ°áĮįáĪŀ": 7961,
      "atikaĠkarneĠyaĠ": 7962,
      "ShehuĠ": 7963,
      "KÃ¡t": 7964,
      "YankinĠ": 7965,
      "med": 7966,
      "mayĠ": 7967,
      "o'": 7968,
      "oÆĻ": 7969,
      "qĠ": 7970,
      "ĠáĮĦ": 7971,
      "áī½áĪī": 7972,
      "aĠmar": 7973,
      "aciĠ": 7974,
      "ĠáĪĿáĪħ": 7975,
      "áĭ³áĪª": 7976,
      "aiĠtaĠ": 7977,
      "Ġáĭ«áĪĭáī¸áĭį": 7978,
      "Ġáĭ¨áī°áī£": 7979,
      "annÃ©esĠ": 7980,
      "a.ĠM": 7981,
      "su,Ġ": 7982,
      "áī¦áīµ": 7983,
      "Marekani.": 7984,
      "kusanĠ": 7985,
      "áĪµáī°áĪŃ": 7986,
      "ominiraĠ": 7987,
      "wá»įÌĢny": 7988,
      "áĪįáĪµáįįáĬĵ": 7989,
      "ÃĮjá»įbaĠ": 7990,
      "DeltaĠ": 7991,
      "paysĠ": 7992,
      "ĠtheirĠ": 7993,
      "takribanĠ": 7994,
      "Ġáĭ¨áĭĵáĪĺáī±": 7995,
      "suchĠasĠ": 7996,
      "DonĠ": 7997,
      "Dani": 7998,
      "GB": 7999,
      "Jac": 8000,
      "SanĠ": 8001,
      "bakwaiĠ": 8002,
      "oiĠ": 8003,
      "anal": 8004,
      "ana.": 8005,
      "á»įd": 8006,
      "áĪŃáī³": 8007,
      "ÃłrinĠ": 8008,
      "aki": 8009,
      "akanaĠnaĠ": 8010,
      "áĬĲáĬĽ": 8011,
      "áĪĭáĪĭ": 8012,
      "Ã²bÃŃĠ": 8013,
      "aĠmasuĠ": 8014,
      "áĭ¨áĪ©": 8015,
      "ÆĻwararr": 8016,
      "oper": 8017,
      "foreĠ": 8018,
      "Ġ12": 8019,
      "reĠdeĠ": 8020,
      "RomanĠ": 8021,
      "ĠáĮ£áĪį": 8022,
      "Petr": 8023,
      "Angel": 8024,
      "sayensiĠ": 8025,
      "DisambaĠ": 8026,
      "EnglishĠ": 8027,
      "olojiaĠ": 8028,
      "ĠáĪĥáĭŃáĪĽáĬĸáīµ": 8029,
      "KÃ¡tÃ³l": 8030,
      "AL": 8031,
      "Festiv": 8032,
      "PÃ³p": 8033,
      "foisĠ": 8034,
      "mÃ¹": 8035,
      "oung": 8036,
      "vik": 8037,
      "anaĠkwaĠ": 8038,
      "áĬķáĮ»": 8039,
      "alesĠ": 8040,
      "Ġáīłáĭļáĭ«": 8041,
      "uni": 8042,
      "áĪĪáī±": 8043,
      "áīłáī³áĪįáį¢": 8044,
      "a,ĠnaĠ": 8045,
      "usammanĠ": 8046,
      "Ġáī°áĮĪ": 8047,
      "Ġáī°áĭ°áĪŃ": 8048,
      "quat": 8049,
      "ishinĠ": 8050,
      "2013Ġ": 8051,
      "wataĠ": 8052,
      "atiĠawá»įnĠ": 8053,
      "áĬłáĪģ": 8054,
      "ĠáĬłáĪĪáį¢": 8055,
      "lakin": 8056,
      "----": 8057,
      "ĠáĬłáĪ«áīµ": 8058,
      "-áº¹ÌĢyáº¹Ġ": 8059,
      "wadandaĠsukaĠ": 8060,
      "áĪªáī³áĬķáĭ«": 8061,
      "86": 8062,
      "CE": 8063,
      "Gid": 8064,
      "ge": 8065,
      "rÃ¹nĠ": 8066,
      "wayĠ": 8067,
      "à¤": 8068,
      "ĠN": 8069,
      "atum": 8070,
      "kuanz": 8071,
      "ĠáĮ¤": 8072,
      "ĠáĬłáĭĭ": 8073,
      "a,ĠdaĠ": 8074,
      "therĠ": 8075,
      "Ġáĭ°áī¥": 8076,
      "wasem": 8077,
      "hukun": 8078,
      "kanĠtÃŃĠ": 8079,
      "áĮĢáīµ": 8080,
      "AbuĠ": 8081,
      "áīĭáīĭ": 8082,
      "ÃĵĠtÃºnĠ": 8083,
      "haifarĠdaĠ": 8084,
      "zamanĠ": 8085,
      ")ĠjeĠosereĠ": 8086,
      "ĠáĬłáī£áĪĭáīµ": 8087,
      "Oá¹£uĠK": 8088,
      "DagaĠbayaĠ": 8089,
      "ulikanaĠ": 8090,
      "ĠáĭľáĬĵĠáĪĺáĭĭ": 8091,
      "Ġáĭ¨áĪħáĭĿáī¥": 8092,
      "áįĲáī¥áĪĬáĬŃ": 8093,
      "jimill": 8094,
      "YammacinĠ": 8095,
      "Egyp": 8096,
      "Pasif": 8097,
      "Denmark": 8098,
      "Ġáĭ©áĬĴáī¨áĪŃáĪ²áī²": 8099,
      "ĠáĪ³áĭŃáĬķáĪ³áĭĬĠáĮ¸áī£áĭŃ": 8100,
      "Cath": 8101,
      "Dang": 8102,
      "Ms": 8103,
      "Po": 8104,
      "UK": 8105,
      "fa": 8106,
      "hÃ¬nĠ": 8107,
      "yawaĠ": 8108,
      ",ĠtÃŃĠ": 8109,
      "áĬĵáĮĪáĪŃ": 8110,
      "áĭµáīħ": 8111,
      "niĠodunĠ": 8112,
      "ickĠ": 8113,
      "ĠáĪĿáĭķáĪ«": 8114,
      "áĭĿáĪĿ": 8115,
      "ÃĮd": 8116,
      "ÃĮjá»įĠ": 8117,
      "ĠáīĢáĭŃ": 8118,
      "eje": 8119,
      "a'sĠ": 8120,
      "Ġ1.": 8121,
      "nigbaĠ": 8122,
      "Ġáĭ¨áĬĲáĮĪ": 8123,
      "jiĠmkuuĠ": 8124,
      "worl": 8125,
      "cultur": 8126,
      "áĬĲáĮĪáĪŃĠáĮįáĬķ": 8127,
      "BahariĠ": 8128,
      "Ġáĭ¨áĪĻáĭļáīĥ": 8129,
      "nipas": 8130,
      "Virg": 8131,
      "kwenyeĠ": 8132,
      "moreĠ": 8133,
      "zim": 8134,
      "ĠandĠ": 8135,
      "alk": 8136,
      "akh": 8137,
      "adin": 8138,
      ".ĠA": 8139,
      "áī¥áĬĽ": 8140,
      "áĮįáĪĽáĭĬ": 8141,
      "a,ĠkumaĠ": 8142,
      "aĠkwall": 8143,
      "utumĠ": 8144,
      "ah,Ġ": 8145,
      "appar": 8146,
      "erĠandĠ": 8147,
      "uwaĠdaĠ": 8148,
      "obj": 8149,
      "áĮĭáĪ«": 8150,
      "áĮĭáĮĪáĪŃ": 8151,
      "ĠáĪ°áĪŃ": 8152,
      "áĬķáĮįáĪ¥áīµ": 8153,
      "tiqu": 8154,
      "ĠáĬ¥áĬķáĭ°ĠáĬĲáīłáĪŃ": 8155,
      "compl": 8156,
      "ĠáĬ¥áĪµáĬ«": 8157,
      "aĠdukĠ": 8158,
      "UnionĠ": 8159,
      "tÃŃĠÃ³Ġjáº¹ÌģĠ": 8160,
      "ulkiĠ": 8161,
      "Columb": 8162,
      "oorunĠ": 8163,
      "English": 8164,
      "egeme": 8165,
      "áįĪáĪĭáĮĬ": 8166,
      "falmeĠmkuuĠwaĠ": 8167,
      "Eos": 8168,
      "fÃŃl": 8169,
      "hataĠ": 8170,
      "alish": 8171,
      "akas": 8172,
      "envir": 8173,
      "áĪĪáīłáīµ": 8174,
      "ĠáĪĺáĬ®": 8175,
      "áĬŃáĪĿáĬĵ": 8176,
      "trÃ¨sĠ": 8177,
      "edĠbyĠtheĠ": 8178,
      "edĠth": 8179,
      "anteĠ": 8180,
      "Marc": 8181,
      "aveĠ": 8182,
      "AfricaĠ": 8183,
      "AdÃ©": 8184,
      "ĠáĭĭáĮĭ": 8185,
      "engenez": 8186,
      "ĠáĪĬáīĥáĭįáĬķ": 8187,
      "activ": 8188,
      "áº¹rin": 8189,
      "dansĠlesĠ": 8190,
      "Ġáī°áĪĺáĪį": 8191,
      ",ĠmwanamuzikiĠ": 8192,
      "musul": 8193,
      "ĠáĪģáĪĪáī°áĬĽ": 8194,
      "wasanĠkwaikwayoĠ": 8195,
      "MunguĠ": 8196,
      "Kat": 8197,
      "KungiyarĠ": 8198,
      "U.": 8199,
      "dep": 8200,
      "kaiĠ": 8201,
      "rÃ¹": 8202,
      "tayiĠ": 8203,
      "yá»įĠ": 8204,
      "Åĵ": 8205,
      "ÏĤ": 8206,
      "inv": 8207,
      "á»įrÃŃĠ": 8208,
      "áĪŃáį£": 8209,
      "asc": 8210,
      "asiliĠ": 8211,
      "islamuĠ": 8212,
      "áĮįáĪĪ": 8213,
      "agoĠ": 8214,
      "ustaĠ": 8215,
      "ĠáīłáĪ¥": 8216,
      "nÃŃĠÃ¬": 8217,
      "áī¢áĭŃ": 8218,
      "áĪµáīµáĪª": 8219,
      "Ġá»Įjá»įÌģĠk": 8220,
      "Ãłwá»įnĠáº¹": 8221,
      "ectiv": 8222,
      "áĭ°áī¥áĪ¨": 8223,
      "Group": 8224,
      "luiĠ": 8225,
      "Ãīt": 8226,
      "ongoziĠwaĠ": 8227,
      "Ã¬dÃŃjeĠ": 8228,
      "NollywoodĠ": 8229,
      "Kifarans": 8230,
      "Bol": 8231,
      "DukĠ": 8232,
      "Fat": 8233,
      "Gold": 8234,
      "Hal": 8235,
      "daraĠ": 8236,
      "lit": 8237,
      "ress": 8238,
      "uel": 8239,
      "yun": 8240,
      "aĠJami'arĠ": 8241,
      "or,Ġ": 8242,
      "áĭ«áīĦ": 8243,
      "uruĠ": 8244,
      "áĭµáĪľ": 8245,
      "iyas": 8246,
      "ulaĠ": 8247,
      "ĠáĭĪáĮ£": 8248,
      "2010Ġ": 8249,
      "áĭĿáī¡": 8250,
      "oĠyaĠm": 8251,
      "ĠáĬŃáĪŃ": 8252,
      "Ġ14": 8253,
      "ĠáĮ¥áīłáī¥": 8254,
      "Art": 8255,
      "áĪĲáĪ´": 8256,
      "áĮ»áįį": 8257,
      "kuwaĠnaĠ": 8258,
      "ogboĠ": 8259,
      "Ã¡nÃ¬": 8260,
      "issionĠ": 8261,
      "ĠáĮ¨áĪĿáĪ®": 8262,
      "áĭ°áĪ¨áĮĪáĭį": 8263,
      "inkinĠ": 8264,
      "ÃĮjáº¹ÌĢ": 8265,
      "nombre": 8266,
      "\".Ġ": 8267,
      "\")Ġ": 8268,
      "fÃŃrÃŃ": 8269,
      "mam": 8270,
      "v.": 8271,
      "Ġáĭ¨áĪĭ": 8272,
      "onal": 8273,
      "uny": 8274,
      "gbá»įÌģ": 8275,
      "esternĠ": 8276,
      "ultur": 8277,
      "áĪĽáī¸áĭį": 8278,
      "aliaĠ": 8279,
      "etsĠ": 8280,
      "antak": 8281,
      "jeĠijobaĠibileĠniĠIpinleĠ": 8282,
      "ezĠ": 8283,
      "ĠáĪ¥áĮĭ": 8284,
      "ĠáīµáĪŃáĮīáĪĿ": 8285,
      "farkoĠnaĠ": 8286,
      "TarihiĠ": 8287,
      "Ã¬wá»įÌĢ": 8288,
      "grand": 8289,
      "tsakiyarĠ": 8290,
      "ement,Ġ": 8291,
      "IbadanĠ": 8292,
      "HenryĠ": 8293,
      "ĠáįĪáĪ¨áĬķáĪ³áĭŃ": 8294,
      "áīħáĭ«áĬĸáĪµ": 8295,
      "Ġáĭ¨áĪļáĮĪáĬĿáīłáīµĠáĪĺáĪįáĬŃáĭĵĠáĪĿáĭµáĪŃ": 8296,
      "85": 8297,
      "Hon": 8298,
      "KatikaĠm": 8299,
      "myĠ": 8300,
      "nÃł": 8301,
      "torĠ": 8302,
      "ªáĭ«": 8303,
      "Ã£": 8304,
      "ĠâĢ¹": 8305,
      ",ĠÃłwá»įnĠ": 8306,
      "Ġáī²": 8307,
      "atiĠm": 8308,
      "akawaĠ": 8309,
      "abor": 8310,
      "Ġáīłáĭ°áī¡áī¥": 8311,
      "ĠtunĠ": 8312,
      "Ã¨Ã¨": 8313,
      "ĠáĬłáĭĺ": 8314,
      "ĠáĬĲáįĥ": 8315,
      "aziĠyaĠ": 8316,
      "ÆĻan": 8317,
      "ĠáĪĪáĭĪ": 8318,
      "2004Ġ": 8319,
      "territ": 8320,
      "acheĠ": 8321,
      "áįĬáĭİáī½": 8322,
      "Prim": 8323,
      "Ġáĭ¨áĪĺáĮ£": 8324,
      "Ãłká»į": 8325,
      "ĠáĪļáĬ«áĬ¤áĪį": 8326,
      "Viet": 8327,
      "GrandĠ": 8328,
      "jÃ¡d": 8329,
      "ĠáĬłáĪµáī°áĭ³áĭ°áĮį": 8330,
      "áīĢáĪĺáĮ«": 8331,
      "ayáº¹yáº¹Ġ": 8332,
      "ĠáĮłáīħáĪĭáĭŃ": 8333,
      "ĠáĪļáĬĴáĪµáīµáĪŃ": 8334,
      "ĠáĬĽáĭį": 8335,
      "-áĬ¢": 8336,
      "Ach": 8337,
      "Kon": 8338,
      "PiaĠ": 8339,
      "RĠ": 8340,
      "aeĠ": 8341,
      "boĠ": 8342,
      "kafaĠ": 8343,
      "ruku": 8344,
      "zak": 8345,
      "ÆĬ": 8346,
      "ÑĢ": 8347,
      "áĪ¦": 8348,
      "akal": 8349,
      "enseĠ": 8350,
      "arĠs": 8351,
      "ĠáĪĺáĪ¬áīµ": 8352,
      "áĪ«áĭįáĭ«áĬķ": 8353,
      "ĠáĪĿáĬĴáĪįáĬŃ": 8354,
      "appr": 8355,
      "ĠáĭĵáĪĭáĪĽ": 8356,
      "áĮĭáĪª": 8357,
      "ambarĠ": 8358,
      "Ġáĭĺáĭį": 8359,
      "áī¤áī±": 8360,
      "Jama'": 8361,
      "nye": 8362,
      "máº¹ÌģtaĠ": 8363,
      "Tarih": 8364,
      "alikuwaĠPap": 8365,
      "KiarabuĠ": 8366,
      "áĪ£áĪªáĭ«": 8367,
      "kudancinĠ": 8368,
      "MeiĠ-Ġ": 8369,
      "August": 8370,
      "MartinĠ": 8371,
      "ĠáĭķáĪĪáī°ĠáĪŀáīµ": 8372,
      "Bos": 8373,
      "La": 8374,
      "dawoĠ": 8375,
      "faÉĹ": 8376,
      "yoĠ": 8377,
      "naĠfarkoĠ": 8378,
      "áī°áĬĵ": 8379,
      "áĭ«áĪįáį¢": 8380,
      "áĭ«áĭįáĭ«áĬķ": 8381,
      "ĠáĬłáĬĵ": 8382,
      "electr": 8383,
      "áĭ°áĪŃáĪµ": 8384,
      "áĬĲáĪ£": 8385,
      "áĪ«áĪª": 8386,
      "leĠofĠ": 8387,
      "2008Ġ": 8388,
      "enti": 8389,
      "áĬķáĮįáĪµáīµ": 8390,
      "nguv": 8391,
      "1983": 8392,
      "1987": 8393,
      "egunĠ": 8394,
      "ionalĠ": 8395,
      "Ã©rÃ©": 8396,
      "achĠ": 8397,
      "áĬĽáĭįáĪĿ": 8398,
      "Arch": 8399,
      "agbaraĠ": 8400,
      "OlÃ¹": 8401,
      "ĠáĪĬáĪĨáĬķ": 8402,
      "Ġáĭķáĭį": 8403,
      "filmĠ": 8404,
      "Kiarab": 8405,
      "shiĠneĠÉĹanĠ": 8406,
      "ĠáĪľáĭ³": 8407,
      "ArewaĠ": 8408,
      "premierĠ": 8409,
      "premiÃ¨reĠ": 8410,
      "Girl": 8411,
      "fusk": 8412,
      "Societ": 8413,
      "arewacinĠ": 8414,
      "ĠáĭĺáĪĺáĬķĠáĬłáīĨáĮ£áĮłáĪŃĠáĭ¨áĭĵáĪĺáī±": 8415,
      "66": 8416,
      "PDP": 8417,
      "Tor": 8418,
      "mu": 8419,
      "yas": 8420,
      "zan": 8421,
      "Î¹": 8422,
      "yaĠs": 8423,
      "am,Ġ": 8424,
      "uĠaĠ": 8425,
      "áĪĿáīłáĪŃ": 8426,
      "illeĠ": 8427,
      "elim": 8428,
      "áĮįáĬĵ": 8429,
      "age,Ġ": 8430,
      "ĠáĬ¨áĭĪ": 8431,
      "ĠáĭŃáĪĺ": 8432,
      "ĠáĭĪáĭĺ": 8433,
      "áīłáĪ®": 8434,
      "áįĪáĮłáĪ¨": 8435,
      "áĬķáĭµáĪµáĬĵ": 8436,
      "oyiĠ": 8437,
      "áĪĲáĭŃ": 8438,
      "áĮĥáĭĿáĪĽáī½": 8439,
      "firam": 8440,
      "TuzoĠyaĠNobelĠyaĠ": 8441,
      "biyu,Ġ": 8442,
      "ĠáĬ¢áĭ¨áĪ±áĪµ": 8443,
      "YorubaĠ": 8444,
      "yÃ¬ÃŃĠniĠ": 8445,
      "uatwaĠnaĠPapaĠ": 8446,
      "ĠáĬªáĭ³áĬķ": 8447,
      "ĠáĮ¸áĪĲáįĬ": 8448,
      "Tanzania.": 8449,
      "ĠáĬłáĪµáī°áĭ³áĭ°áĪŃ": 8450,
      "jam'iyyarĠ": 8451,
      "Pulitz": 8452,
      "KÃ¡tÃ³lÃ¬kÃ¬": 8453,
      "4)": 8454,
      "Kab": 8455,
      "KwaĠm": 8456,
      "Round": 8457,
      "bre": 8458,
      "memb": 8459,
      "oitwaĠ": 8460,
      "roy": 8461,
      "anch": 8462,
      "arĠS": 8463,
      "isk": 8464,
      "islam": 8465,
      "itionsĠ": 8466,
      "áīłáĬłáĪ": 8467,
      "ical": 8468,
      "Ġst": 8469,
      "ĠseĠ": 8470,
      "Â»)": 8471,
      "associ": 8472,
      "jami'arĠ": 8473,
      "yanayinĠ": 8474,
      "aĠkarniĠnaĠ": 8475,
      "Ġáī¥áĭĻĠáĮĬáĭľ": 8476,
      "OmoĠ": 8477,
      "AareĠorile-edeĠ": 8478,
      "JinaĠlakeĠ": 8479,
      "AcademyĠ": 8480,
      "'YanĠwasanĠÆĻwallonĠÆĻafaĠtaĠÆĻasarĠIngila": 8481,
      "fÃŃlmÃ¹Ġ": 8482,
      "Dan": 8483,
      "Lá»įÌģ": 8484,
      "Liv": 8485,
      "pi": 8486,
      "páº¹": 8487,
      "ton,Ġ": 8488,
      "ven": 8489,
      "yÃ¡Ġ": 8490,
      "áĬ»": 8491,
      "áĮ©": 8492,
      "inj": 8493,
      "ĠtiĠk": 8494,
      "a,ĠM": 8495,
      "áī£áī±": 8496,
      "yĠandĠ": 8497,
      "ifi": 8498,
      "áĭ¨áĬłáĪ": 8499,
      "ĠáīĢáĬķĠ": 8500,
      "ÃĴunĠ": 8501,
      "ĠáĬ¢áĬķ": 8502,
      "Ã²rÃ¡nĠ": 8503,
      "dansĠlaĠ": 8504,
      "link": 8505,
      "ĠáĬªáĪİ": 8506,
      "HistoriaĠ": 8507,
      "JamhuriyarĠ": 8508,
      "áĮĬáĭľáĭį": 8509,
      "utawalaĠwaĠ": 8510,
      "ÃĢÃłráº¹Ġiláº¹ÌĢĠ": 8511,
      "amarĠhukumaĠceĠdakeĠ": 8512,
      "jimboĠlaĠ": 8513,
      "ElezoĠyaĠ": 8514,
      "AlimfuataĠPapaĠ": 8515,
      "EosentomonĠ": 8516,
      "5)": 8517,
      "87": 8518,
      "Est": 8519,
      "Hol": 8520,
      "Kijerum": 8521,
      "ma'": 8522,
      "souv": 8523,
      "arsĠ": 8524,
      "ĠáĬ¦áĪŃ": 8525,
      "inst": 8526,
      "erv": 8527,
      "waĠnaĠm": 8528,
      "asilimiaĠ": 8529,
      "ika.": 8530,
      "tĠofĠ": 8531,
      "ĠáĬ¥áĮ½": 8532,
      "áĪ³áĭį": 8533,
      "ĠAc": 8534,
      "that": 8535,
      "ambayeĠ": 8536,
      "áĪĬáĭ«áĬķ": 8537,
      "ewa,Ġ": 8538,
      "tersĠ": 8539,
      "1960Ġ": 8540,
      "uhus": 8541,
      "áĭįáĬķĠáĭ¨": 8542,
      "ĠáĪ²áĪĨáĬķĠáīł": 8543,
      "sÃ¬ĠtÃºnĠ": 8544,
      "philosoph": 8545,
      "haliĠyaĠ": 8546,
      "earlyĠ": 8547,
      "fiimuĠ": 8548,
      "yake.": 8549,
      "ĠáĪŃáĭķ": 8550,
      "ĠtÃŃtÃŃĠ": 8551,
      "Abdul": 8552,
      "ĠáĬłáĪĽáĬ«": 8553,
      "bornĠ": 8554,
      "Victor": 8555,
      "ĠáĬĹáĪª": 8556,
      "Ġ~Ġ": 8557,
      "Ġáīłáī°áĪĪáĭŃáĪĿ": 8558,
      "KamusiĠElezoĠyaĠ": 8559,
      "KamusiĠElezoĠyaĠKik": 8560,
      "Domin": 8561,
      "Hor": 8562,
      "LokacinĠ": 8563,
      "dá»įÌģ": 8564,
      "feĠ": 8565,
      "jus": 8566,
      "nes": 8567,
      "oid": 8568,
      "toutĠ": 8569,
      "ËĪ": 8570,
      "arif": 8571,
      "atar": 8572,
      "chamaĠ": 8573,
      "ĠáĬłáī¡": 8574,
      "omor": 8575,
      "ingsĠ": 8576,
      "áį£ĠáĪĪ": 8577,
      "áįįáĪ¬": 8578,
      "trad": 8579,
      "áĮ£áĪª": 8580,
      "shiĠdaĠ": 8581,
      "aĠdaĠkumaĠ": 8582,
      "Ãºn,Ġ": 8583,
      "ujokoĠ": 8584,
      "páº¹ÌĢlÃº": 8585,
      "ĠáĪĻáĭļáīĥ": 8586,
      "EnuguĠ": 8587,
      "Oktob": 8588,
      "gameĠ": 8589,
      "akaoĠmak": 8590,
      "ĠáĭĺáĪĺáĬĲĠáĪĽáĪŃáīĨáĪµĠáĭ°áĮįáĪŀ": 8591,
      "lokaciĠ": 8592,
      "âĢºâĢº": 8593,
      "ĠáĬłáĮĪáĪįáĮįáĪİáīµ": 8594,
      "ĠáįĪáĪŃáĭĸáĬķ": 8595,
      "ÃĢwá»įnĠÃ¨nÃ¬yÃłnĠalÃłÃłyÃ¨Ġ": 8596,
      "ÃĮjá»įĠKÃ¡tÃ³lÃ¬kÃ¬": 8597,
      "Et": 8598,
      "KasaĠ": 8599,
      "Mab": 8600,
      "Mod": 8601,
      "ÉĻ": 8602,
      "iniĠnaĠ": 8603,
      "yaĠfaraĠ": 8604,
      "usuf": 8605,
      "wanaf": 8606,
      "ĠáĭŃáĮł": 8607,
      "ibut": 8608,
      "áĬ¥áĪµ": 8609,
      "Ġáĭ°áĮĭ": 8610,
      "uzikiĠ": 8611,
      ",ĠmaisĠ": 8612,
      "ers.": 8613,
      "exist": 8614,
      "takwasĠ": 8615,
      "Ã¬yÃłn": 8616,
      "Ã¬dÃŃn": 8617,
      "ĠáįĬáĪį": 8618,
      "WatuĠ": 8619,
      "Ġáĭ«áĪĪáĭįáĬķ": 8620,
      "áį²áį±áį»áį¶áį": 8621,
      "JapaniĠ(": 8622,
      "adarÃŃĠ": 8623,
      "áĪĽáĭŃáĪµáĮ¥": 8624,
      "kashiĠ": 8625,
      "aká»įrinĠ": 8626,
      "villeĠ": 8627,
      "ĠáĪļáĬĴáĪµáī´": 8628,
      "PeopleĠ": 8629,
      "ĠáĭµáĬķáĮĭáĭŃ": 8630,
      "ĠáĮĪáĬķáĭĺáī¥": 8631,
      "DaĠ": 8632,
      "Mir": 8633,
      "e;Ġ": 8634,
      "kÃ©": 8635,
      "pet": 8636,
      "raisĠ": 8637,
      "er'sĠ": 8638,
      "áĪĿáĪĮ": 8639,
      "aye.": 8640,
      "ĠáĬłáĮł": 8641,
      "okiĠ": 8642,
      "usedĠ": 8643,
      "ĠáĬ¥áĬķáĭµ": 8644,
      "araĠtaĠ": 8645,
      "refer": 8646,
      "ovuĠ": 8647,
      "ans,Ġ": 8648,
      "ionn": 8649,
      "Premi": 8650,
      "gabashinĠ": 8651,
      "arri": 8652,
      "wasĠtheĠ": 8653,
      "htm": 8654,
      "áī£áī¢áĪİáĬķ": 8655,
      "EdwardĠ": 8656,
      "Ġáī¡áĭµ": 8657,
      "áĪĺáĪĪáĪµ": 8658,
      "Magharib": 8659,
      "UpandeĠ": 8660,
      "wá»įÌģnĠá¹£eĠ": 8661,
      "akafuatwaĠnaĠPapaĠ": 8662,
      "96": 8663,
      "Buh": 8664,
      "Ham": 8665,
      "aal": 8666,
      "hus": 8667,
      "hap": 8668,
      "nomĠ": 8669,
      "pir": 8670,
      "sauĠ": 8671,
      "yay": 8672,
      "zik": 8673,
      "áĪĪáĪ°": 8674,
      "utarĠ": 8675,
      "baĠsuĠ": 8676,
      "áĪĮáĪĭ": 8677,
      "áĭĭáĪŃáĭ«": 8678,
      "000": 8679,
      "oyonĠ": 8680,
      "ÃĵĠs": 8681,
      "aĠdonĠ": 8682,
      "AsiaĠ": 8683,
      "auseĠ": 8684,
      "ÃłdÃŃn": 8685,
      "oĠchaĠm": 8686,
      "Obas": 8687,
      "ArewaĠmasoĠ": 8688,
      "AlexanderĠ": 8689,
      "Ġá¹£ÃŃá¹£eĠ": 8690,
      "nufinĠ": 8691,
      "AlhajiĠ": 8692,
      "shirye-shiryenĠ": 8693,
      "HanyoyinĠhaÉĹinĠ": 8694,
      "PÃ³pÃ¹": 8695,
      "Mw": 8696,
      "Pier": 8697,
      "Red": 8698,
      "haz": 8699,
      "vin": 8700,
      "vonĠ": 8701,
      "Ø¹": 8702,
      "Ġ[": 8703,
      "aĠÅĦĠ": 8704,
      "áĮĲ": 8705,
      "áĬķáī°": 8706,
      "onj": 8707,
      "abarĠ": 8708,
      "shari'": 8709,
      "ayÃ©": 8710,
      "áĬĲáĪµ": 8711,
      "áĪ«áĭį": 8712,
      "Ġ(m": 8713,
      "áĭ³áĭĬ": 8714,
      "ots": 8715,
      "áĬ«áĭµ": 8716,
      "ĠáĪµáī´": 8717,
      "2016Ġ": 8718,
      "Ġáĭ¨áĪļáī£áĪį": 8719,
      "áĭļáĭ«áĬķ": 8720,
      "ÃĮgbÃ©": 8721,
      "owerĠ": 8722,
      "áĪĻáīµ": 8723,
      "ĠáĬ¥áĬķáĭ°ĠáĪĨáĬĲ": 8724,
      "1990Ġ": 8725,
      "ongo": 8726,
      "ĠáĬĲáīłáĪŃáį¡áį¡": 8727,
      "dÃ©velop": 8728,
      "walik": 8729,
      "Frans": 8730,
      "sabonĠ": 8731,
      "ĠáĪķáĮį": 8732,
      "ÃĮtÃłnĠ": 8733,
      "ÃłyÃłnĠ": 8734,
      "zaidiĠyaĠ": 8735,
      "dÃŃjeĠ": 8736,
      "ĠáīµáĪĿáĪħáĪŃáīµĠáī¤áīµ": 8737,
      "becameĠ": 8738,
      "ĠkmÂ²": 8739,
      "Æ´arĠ": 8740,
      "AnĠhaifeĠshiĠ": 8741,
      "FederalĠ": 8742,
      "ChuoĠKik": 8743,
      "77": 8744,
      "Ze": 8745,
      "can": 8746,
      "eiĠ": 8747,
      "jÃł": 8748,
      "pup": 8749,
      "uit": 8750,
      "wr": 8751,
      "wach": 8752,
      "ĠâĢĺ": 8753,
      "althĠ": 8754,
      "kunaĠm": 8755,
      "áĪĪáĪį": 8756,
      "ĠáĮĵ": 8757,
      "ĠáĬłáĭ°": 8758,
      "iyuĠ": 8759,
      "áĪ«áĬĴ": 8760,
      "ikaĠlaĠ": 8761,
      "áĮłáīµ": 8762,
      "andanĠ": 8763,
      "amboĠ": 8764,
      "ungaĠnaĠ": 8765,
      "March": 8766,
      "Ġáīłáī°áĪĪáĭ«áĭ©": 8767,
      "jamhur": 8768,
      "maiĠsunaĠ": 8769,
      "ĠáįįáīħáĪŃ": 8770,
      "ĠáĬłáĪįáįĭ": 8771,
      "ĠáĪħáĮį": 8772,
      "Ġáī¤áī°áĬŃáĪŃáĪµáī²áĭ«áĬķ": 8773,
      "Historia": 8774,
      "School,Ġ": 8775,
      "áĪµáĪ«áĬ¤áĪį": 8776,
      "lafiyaĠ": 8777,
      "2020,Ġ": 8778,
      "GwamnatinĠ": 8779,
      "MichaelĠ": 8780,
      "Ibrahim": 8781,
      "Nijeriya.ĠKanananĠhukumominĠjiharĠ": 8782,
      "ÃĮbÃłdÃłnĠ": 8783,
      "ÃºÃºsÃ¹Ġ": 8784,
      "ĠáĬĥáĭŃáĪĪĠáĪ¥áĪĭáĪ´": 8785,
      "C)Ġ": 8786,
      "cigab": 8787,
      "follow": 8788,
      "ganinĠ": 8789,
      "gegeĠbiĠ": 8790,
      "liss": 8791,
      "rin,Ġ": 8792,
      "sc": 8793,
      "ĠáĬĶ": 8794,
      "áĬķĠáĭĪáĭ°": 8795,
      "Ġáĭ¨áī¥": 8796,
      "Ġáĭ¨áĪĪáĪĿ": 8797,
      "en'sĠ": 8798,
      "ĠáīłáĪ®": 8799,
      "Ġáĭ°áĪŃ": 8800,
      "a.ĠManazartaĠ": 8801,
      "ebiĠ": 8802,
      "ender": 8803,
      "IluĠ": 8804,
      "attunĠ": 8805,
      "RomaĠ": 8806,
      "juuĠ": 8807,
      "kubwaĠwaĠ": 8808,
      "sakam": 8809,
      "áį²áį±áį»áį·áį": 8810,
      "AmerikaĠyaĠK": 8811,
      "lilil": 8812,
      "MajalisarĠD": 8813,
      "ĠáīĢáĬĵáīµĠáĭŃáīĢáĪ«áĪīáį¢": 8814,
      "leursĠ": 8815,
      "2.Ġ": 8816,
      "400": 8817,
      "40Ġ": 8818,
      "Cup": 8819,
      "GovernmentĠ": 8820,
      "I,Ġ": 8821,
      "Jig": 8822,
      "TaĠf": 8823,
      "nÃ¬Ġ": 8824,
      "ounĠ": 8825,
      "viv": 8826,
      "Ïģ": 8827,
      "atureĠ": 8828,
      "alth": 8829,
      "daĠcewaĠ": 8830,
      "áĪµĠ(": 8831,
      "áĬĵĠáĪĪ": 8832,
      "áī¥áĪĭ": 8833,
      "ts.": 8834,
      "1986": 8835,
      "1988": 8836,
      "áī¡áĪŃ": 8837,
      "ĠáīĢáĬķĠáĬĲáĭįáį¢": 8838,
      "dÃ©c": 8839,
      "organis": 8840,
      "ĠáĬķáĮīáĪ¥ĠáĬĲáīłáĪŃáį¢": 8841,
      "ĠáįĬáĭ°": 8842,
      "kufuatanaĠnaĠ": 8843,
      "áĮĪáĪĪáĮį": 8844,
      "ĠáĪªáįĲáī¥áĪĬáĬŃ": 8845,
      "ĠáĮłáĪĭ": 8846,
      "Ġáĭ°áĪ´áīµ": 8847,
      "VisiwaĠvyaĠ": 8848,
      "FrenchĠ": 8849,
      "afrikaĠ": 8850,
      "ĠáĪĿáĬķáĮĬáĭľáĪĿ": 8851,
      "jimillarĠ": 8852,
      "50Ġ": 8853,
      "Day": 8854,
      "FĠ": 8855,
      "fon": 8856,
      "kÃłnĠ": 8857,
      "maceĠ": 8858,
      "Ġ18": 8859,
      "oninĠ": 8860,
      "áī°áĬŀáī½": 8861,
      "afutaĠ": 8862,
      "ĠáĭĪáĪ°": 8863,
      "á»įÌĢrá»įÌĢ": 8864,
      "araĠyaĠ": 8865,
      "nÃŃĠÃĮ": 8866,
      "áĭĿáĬĵ": 8867,
      "thod": 8868,
      "ĠáĮįáĪ«": 8869,
      "Ġáĭ¨áī°áīĢ": 8870,
      "ÃĢwá»įnĠarÃ¡Ġ": 8871,
      "Â».": 8872,
      "ĠáīłáĪĺáĮ¨áĪ¨áĪ»": 8873,
      "evenĠ": 8874,
      "shekaraĠtaĠ200": 8875,
      "ĠáĬłáĬķáĭ°": 8876,
      "ilĠestĠ": 8877,
      "tareĠdaĠm": 8878,
      "ĠáĬłáĭįáĪ«": 8879,
      "Afrika.": 8880,
      "Brazil": 8881,
      "ammalaĠkaratunĠ": 8882,
      "áĬ¥áĬķáĭ²áĪģ": 8883,
      "Book": 8884,
      "Jiograf": 8885,
      "Nap": 8886,
      "bun": 8887,
      "las": 8888,
      "wareĠ": 8889,
      "áĬķáĬ«": 8890,
      "er-": 8891,
      "iko": 8892,
      "áĪĿĠáĭŃ": 8893,
      "ilik": 8894,
      "irkir": 8895,
      "okaĠ": 8896,
      "icr": 8897,
      "áį¡áĬł": 8898,
      "nÃŃĠiláº¹ÌĢĠ": 8899,
      "ugg": 8900,
      "ijiĠm": 8901,
      "ĠáĮįáĪį": 8902,
      "Ġáĭ°áī¥áĪ¨": 8903,
      "1989": 8904,
      "Najeriya.Ġ": 8905,
      "ughul": 8906,
      "Ãłn-": 8907,
      "Ã¬yÃ¡Ġ": 8908,
      "ĠáīłáĬĭáĪĭĠáīł": 8909,
      "ĠáīłáĬłáĪľáĪªáĬ«": 8910,
      "neyĠ": 8911,
      "Indones": 8912,
      "abilaĠlaĠ": 8913,
      "kÃŃĠÃ³Ġ": 8914,
      "WatuĠwaĠ": 8915,
      "relig": 8916,
      "Ġáĭ¨áīĢáĭµáĪŀ": 8917,
      "Yar'": 8918,
      "agbÃ¡Ġtáº¹Ìģ": 8919,
      "esabiwaĠkuwaĠ": 8920,
      "jumlaĠ": 8921,
      "usieursĠ": 8922,
      "Ġáīłáī¥áĭĽáīµĠáĭ¨áĪļáĮĪáĬĿáīłáīµĠáĪĺáĪįáĬŃáĭĵĠáĪĿáĭµáĪŃ": 8923,
      "ĠáĪµáī¥áĪµáī¥": 8924,
      "owever,Ġ": 8925,
      "nipasáº¹Ġ": 8926,
      "88": 8927,
      "Hum": 8928,
      "HighĠ": 8929,
      "Wany": 8930,
      "Zam": 8931,
      "civ": 8932,
      "fanoĠ": 8933,
      "kif": 8934,
      "luĠ": 8935,
      "uist": 8936,
      "uuĠyaĠ": 8937,
      "ikĠ": 8938,
      "ĠáĮ»": 8939,
      "ayayy": 8940,
      "áĪ¨áįĪ": 8941,
      "áĮįáĬĿ": 8942,
      "ĠáīłáĪ±": 8943,
      "Ġáĭ¨áĪ¶": 8944,
      "acr": 8945,
      "ĠáĬĲáĭįĠáį¢": 8946,
      "áīħáĪį": 8947,
      "2012,Ġ": 8948,
      "áĪ®áĪŀ": 8949,
      "lÃ¡ÃłrÃŃ": 8950,
      "wats": 8951,
      "amba,Ġ": 8952,
      "áĪ©áĬŃ": 8953,
      "ĠáĬ¥áĬķáĭ°áĬĲáīłáĪŃ": 8954,
      "waĠkamaĠ": 8955,
      "ĠáĭµáĬķáĮįáĪį": 8956,
      "takararĠ": 8957,
      "TuzoĠyaĠPulitz": 8958,
      "Ãłwá»įnĠá»įmá»į": 8959,
      "ĠáĬłáĪµáī°áĭĭ": 8960,
      "UmarĠ": 8961,
      "Birtan": 8962,
      "kujit": 8963,
      "ĠáĬ¥áĬķáĪµáĪ³": 8964,
      "WaislamuĠ": 8965,
      "ĠáĭĪáĭĺáī°": 8966,
      "Bern": 8967,
      "Gal": 8968,
      "Jih": 8969,
      "Keb": 8970,
      "fum": 8971,
      "pp": 8972,
      "pÃŃnĠ": 8973,
      "tay": 8974,
      "vu": 8975,
      "wellĠ": 8976,
      "zarg": 8977,
      "áīµáĪµ": 8978,
      "ere,Ġ": 8979,
      "áĪµáī²": 8980,
      "1918": 8981,
      "esĠtheĠ": 8982,
      "ĠáĪĺáĮĢáĪĺáĪªáĭ«": 8983,
      "áĪ³áī¸áĭįáĬķ": 8984,
      "waniĠm": 8985,
      "ĠáīłáĪ³": 8986,
      "appe": 8987,
      "ĠáĬ¥áĬķáĭ´áīµ": 8988,
      "araĠnyingiĠ": 8989,
      "leĠc": 8990,
      "Ġáĭ«áĭĺ": 8991,
      "odoĠ": 8992,
      "iĠmwakaĠwaĠ": 8993,
      "Ġáĭ¨áī°áĬĲáĪ³": 8994,
      "leoĠ": 8995,
      "izeĠ": 8996,
      "Chil": 8997,
      "eph": 8998,
      "áīĨáī¥": 8999,
      "iwajuĠ": 9000,
      "Ã¬wÃ¡": 9001,
      "halarciĠ": 9002,
      "ĠáĮīáĪį": 9003,
      "áĪłáī¥": 9004,
      "ĠáĭŃáĮĪáĪĺ": 9005,
      "báº¹ÌĢráº¹ÌĢ": 9006,
      "ká»įÌĢwÃ©Ġ": 9007,
      "Urus": 9008,
      "eleke": 9009,
      "notammentĠ": 9010,
      "samaĠdaĠ": 9011,
      "áī£áĪħáĪŃ": 9012,
      "CCM": 9013,
      "shahararr": 9014,
      "BungeĠlaĠ": 9015,
      "IN": 9016,
      "J.": 9017,
      "Not": 9018,
      "dÃ¹": 9019,
      "damarĠ": 9020,
      "kad": 9021,
      "Ð½": 9022,
      "áĮ®": 9023,
      "asili": 9024,
      "Ġáĭ¨áĬŃ": 9025,
      "ĠtabiĠ": 9026,
      "adj": 9027,
      "ĠáĬłáĬŃ": 9028,
      "áº¹ÌĢ,Ġ": 9029,
      "agueĠ": 9030,
      "um,Ġ": 9031,
      "á¹£áº¹ÌģĠ": 9032,
      "Ġá»įgá»įÌģ": 9033,
      "oss": 9034,
      "shekarar,Ġ": 9035,
      "ÃĢwá»įnĠÃ²á¹£erÃ©Ġ": 9036,
      "aĠnaĠm": 9037,
      "ItokasiĠÃłwá»įnĠá»įjá»įÌģÃ¬bÃŃĠnÃŃĠ": 9038,
      "jami": 9039,
      "166": 9040,
      "á¹£Ã¨lÃº": 9041,
      "phys": 9042,
      "yakeĠniĠ": 9043,
      "aikiĠaĠ": 9044,
      "workĠ": 9045,
      "TsarinĠ": 9046,
      "ĠáĮ½áĪķáįĪáīµ": 9047,
      "Buk": 9048,
      "bot": 9049,
      "cat": 9050,
      "iumĠ": 9051,
      "mÃ³": 9052,
      "nkanĠ": 9053,
      "rÃ³": 9054,
      "ĠaĠ": 9055,
      "ikiĠk": 9056,
      "cher": 9057,
      "Ã¨s": 9058,
      "ĠáĪĺáĬĸ": 9059,
      "áĪ«áĪŃ": 9060,
      "okras": 9061,
      "áĪĽáĪ¨": 9062,
      "e,Ġmwan": 9063,
      "ÆĻung": 9064,
      "áĮ£áĬķ": 9065,
      "Chad": 9066,
      "wasuĠm": 9067,
      "2ĠâĢĵĠ": 9068,
      "ogbonĠ": 9069,
      "ulkinĠ": 9070,
      "InĠtheĠ": 9071,
      "inĠsamaĠ": 9072,
      "ĠáĭĺáĪĺáī»": 9073,
      "present": 9074,
      "cikakk": 9075,
      "Ġáī¢áĪĨáĬķáĪĿ": 9076,
      "kuzaliwaĠ": 9077,
      "RaisĠwaĠMarekaniĠ": 9078,
      "\"m": 9079,
      "1),Ġ": 9080,
      "BAĠ": 9081,
      "D.": 9082,
      "tá»įÌĢ": 9083,
      "zang": 9084,
      "áĭ¢": 9085,
      "aliĠm": 9086,
      "ikonĠ": 9087,
      "char": 9088,
      "áĭ°áĪŃáĮī": 9089,
      "áĬĲáĮį": 9090,
      "áĪĽáĪįáį¢": 9091,
      "ĠáĬłáĪ¥": 9092,
      "áĭĪáĮ¡": 9093,
      "ÃĢyá»į": 9094,
      "1994": 9095,
      "formeĠ": 9096,
      "áĭķáī¥áĪ«áĭŃáĪµáĮ¥": 9097,
      "ĠáĮ¥áĭ«áīĦ": 9098,
      "shekaraĠtaĠalifĠ": 9099,
      "aĠbug": 9100,
      "Ã¬dÃŃlÃ©Ġ": 9101,
      "aĠlabar": 9102,
      "iliyop": 9103,
      "University,Ġ": 9104,
      "HarsunanĠ": 9105,
      "ÃłÃ¡rÃŃnĠ": 9106,
      "Ġáĭ¨áĪĨáĬĲáĭį": 9107,
      "ÃģfÃŃrÃŃ": 9108,
      "ÃłkÃ³soĠ": 9109,
      "ĠáĬłáĭµáĪŃáĮİ": 9110,
      "Good": 9111,
      "ĠáĪłáĪ«áĭĬáīµ": 9112,
      "hannuĠ": 9113,
      "unguzaĠ": 9114,
      "áĬ¨áįįáī°áĬĽ": 9115,
      "fiĠsaniĠdaĠ": 9116,
      "ÃłdÃºgbÃ²Ġ": 9117,
      "Found": 9118,
      "Mc": 9119,
      "dishiĠwaĠ": 9120,
      "found": 9121,
      "hanaĠ": 9122,
      "wayeĠ": 9123,
      "áĬķáĪ°": 9124,
      "amat": 9125,
      "en-": 9126,
      "áĪµáĪĬ": 9127,
      "orÃº": 9128,
      "ismĠ": 9129,
      "Ġáīłáį": 9130,
      "shi,Ġ": 9131,
      "áĭŃáīħ": 9132,
      "imaniĠ": 9133,
      "ĠáĮįáĪªáĬŃ": 9134,
      "Ġáĭ¨áī°áĭĪáĪ°": 9135,
      "tser": 9136,
      "ations": 9137,
      "áīłáīµáį¢": 9138,
      "Ġáº¹ÌĢrá»įĠ": 9139,
      "ni:Ġ": 9140,
      "Ġá»įjá»įĠ": 9141,
      "which": 9142,
      "áī³áĭĪáīħ": 9143,
      "wÃłĠnÃŃ": 9144,
      "zamantak": 9145,
      "ÃĢwá»įnĠá»įmá»įĠ": 9146,
      "wadannanĠ": 9147,
      "mutanenĠ": 9148,
      ",ĠmshindiĠwaĠTuzoĠyaĠNobelĠyaĠFasih": 9149,
      "Ã¨gbÃ¨": 9150,
      "baĠdaĠshaw": 9151,
      "ĠáĪĺáĮłáĬķ": 9152,
      "UchaguziĠwaĠ": 9153,
      "Saint-": 9154,
      "Congres": 9155,
      "countr": 9156,
      "AlitokeaĠ": 9157,
      "KamusiĠElezoĠyaĠKikatolikiĠ": 9158,
      ",7": 9159,
      "Gi": 9160,
      "IVĠ": 9161,
      "poĠ": 9162,
      "tele": 9163,
      "ĠÎ": 9164,
[...]
