{
  "version": "1.0",
  "truncation": null,
  "padding": null,
  "added_tokens": [],
  "normalizer": null,
  "pre_tokenizer": {
    "type": "Sequence",
    "pretokenizers": [
      {
        "type": "Split",
        "pattern": {
          "Regex": " ?\\S+|\\s+"
        },
        "behavior": "Isolated",
        "invert": false
      },
      {
        "type": "ByteLevel",
        "add_prefix_space": false,
        "trim_offsets": true,
        "use_regex": false
      }
    ]
  },
  "post_processor": null,
  "decoder": {
    "type": "ByteLevel",
    "add_prefix_space": true,
    "trim_offsets": true,
    "use_regex": true
  },
  "model": {
    "type": "BPE",
    "dropout": null,
    "unk_token": null,
    "continuing_subword_prefix": null,
    "end_of_word_suffix": null,
    "fuse_unk": false,
    "byte_fallback": false,
    "ignore_merges": false,
    "vocab": {
      "!": 0,
      "\"": 1,
      "#": 2,
      "$": 3,
      "%": 4,
      "&": 5,
      "'": 6,
      "(": 7,
      ")": 8,
      "*": 9,
      "+": 10,
      ",": 11,
      "-": 12,
      ".": 13,
      "/": 14,
      "0": 15,
      "1": 16,
      "2": 17,
      "3": 18,
      "4": 19,
      "5": 20,
      "6": 21,
      "7": 22,
      "8": 23,
      "9": 24,
      ":": 25,
      ";": 26,
      "<": 27,
      "=": 28,
      ">": 29,
      "?": 30,
      "@": 31,
      "A": 32,
      "B": 33,
      "C": 34,
      "D": 35,
      "E": 36,
      "F": 37,
      "G": 38,
      "H": 39,
      "I": 40,
      "J": 41,
      "K": 42,
      "L": 43,
      "M": 44,
      "N": 45,
      "O": 46,
      "P": 47,
      "Q": 48,
      "R": 49,
      "S": 50,
      "T": 51,
      "U": 52,
      "V": 53,
      "W": 54,
      "X": 55,
      "Y": 56,
      "Z": 57,
      "[": 58,
      "\\": 59,
      "]": 60,
      "^": 61,
      "_": 62,
      "`": 63,
      "a": 64,
      "b": 65,
      "c": 66,
      "d": 67,
      "e": 68,
      "f": 69,
      "g": 70,
      "h": 71,
      "i": 72,
      "j": 73,
      "k": 74,
      "l": 75,
      "m": 76,
      "n": 77,
      "o": 78,
      "p": 79,
      "q": 80,
      "r": 81,
      "s": 82,
      "t": 83,
      "u": 84,
      "v": 85,
      "w": 86,
      "x": 87,
      "y": 88,
      "z": 89,
      "{": 90,
      "|": 91,
      "}": 92,
      "~": 93,
      "¡": 94,
      "¢": 95,
      "£": 96,
      "¤": 97,
      "¥": 98,
      "¦": 99,
      "§": 100,
      "¨": 101,
      "©": 102,
      "ª": 103,
      "«": 104,
      "¬": 105,
      "®": 106,
      "¯": 107,
      "°": 108,
      "±": 109,
      "²": 110,
      "³": 111,
      "´": 112,
      "µ": 113,
      "¶": 114,
      "·": 115,
      "¸": 116,
      "¹": 117,
      "º": 118,
      "»": 119,
      "¼": 120,
      "½": 121,
      "¾": 122,
      "¿": 123,
      "À": 124,
      "Á": 125,
      "Â": 126,
      "Ã": 127,
      "Ä": 128,
      "Å": 129,
      "Æ": 130,
      "Ç": 131,
      "È": 132,
      "É": 133,
      "Ê": 134,
      "Ë": 135,
      "Ì": 136,
      "Í": 137,
      "Î": 138,
      "Ï": 139,
      "Ð": 140,
      "Ñ": 141,
      "Ò": 142,
      "Ó": 143,
      "Ô": 144,
      "Õ": 145,
      "Ö": 146,
      "×": 147,
      "Ø": 148,
      "Ù": 149,
      "Ú": 150,
      "Û": 151,
      "Ü": 152,
      "Ý": 153,
      "Þ": 154,
      "ß": 155,
      "à": 156,
      "á": 157,
      "â": 158,
      "ã": 159,
      "ä": 160,
      "å": 161,
      "æ": 162,
      "ç": 163,
      "è": 164,
      "é": 165,
      "ê": 166,
      "ë": 167,
      "ì": 168,
      "í": 169,
      "î": 170,
      "ï": 171,
      "ð": 172,
      "ñ": 173,
      "ò": 174,
      "ó": 175,
      "ô": 176,
      "õ": 177,
      "ö": 178,
      "÷": 179,
      "ø": 180,
      "ù": 181,
      "ú": 182,
      "û": 183,
      "ü": 184,
      "ý": 185,
      "þ": 186,
      "ÿ": 187,
      "Ā": 188,
      "ā": 189,
      "Ă": 190,
      "ă": 191,
      "Ą": 192,
      "ą": 193,
      "Ć": 194,
      "ć": 195,
      "Ĉ": 196,
      "ĉ": 197,
      "Ċ": 198,
      "ċ": 199,
      "Č": 200,
      "č": 201,
      "Ď": 202,
      "ď": 203,
      "Đ": 204,
      "đ": 205,
      "Ē": 206,
      "ē": 207,
      "Ĕ": 208,
      "ĕ": 209,
      "Ė": 210,
      "ė": 211,
      "Ę": 212,
      "ę": 213,
      "Ě": 214,
      "ě": 215,
      "Ĝ": 216,
      "ĝ": 217,
      "Ğ": 218,
      "ğ": 219,
      "Ġ": 220,
      "ġ": 221,
      "Ģ": 222,
      "ģ": 223,
      "Ĥ": 224,
      "ĥ": 225,
      "Ħ": 226,
      "ħ": 227,
      "Ĩ": 228,
      "ĩ": 229,
      "Ī": 230,
      "ī": 231,
      "Ĭ": 232,
      "ĭ": 233,
      "Į": 234,
      "į": 235,
      "İ": 236,
      "ı": 237,
      "Ĳ": 238,
      "ĳ": 239,
      "Ĵ": 240,
      "ĵ": 241,
      "Ķ": 242,
      "ķ": 243,
      "ĸ": 244,
      "Ĺ": 245,
      "ĺ": 246,
      "Ļ": 247,
      "ļ": 248,
      "Ľ": 249,
      "ľ": 250,
      "Ŀ": 251,
      "ŀ": 252,
      "Ł": 253,
      "ł": 254,
      "Ń": 255,
      "áĪ": 256,
      "Ġá": 257,
      "áī": 258,
      "áĬ": 259,
      "áĭ": 260,
      "áĮ": 261,
      "Ġáĭ": 262,
      "ĠáĬ": 263,
      "an": 264,
      "ĠáĪ": 265,
      "áį": 266,
      "áĬķ": 267,
      "Ġáī": 268,
      "ar": 269,
      "in": 270,
      "Ġt": 271,
      "»į": 272,
      "ÃŃ": 273,
      "ĠÃ": 274,
      "Ġn": 275,
      "Ġa": 276,
      "áīµ": 277,
      "á»į": 278,
      "Ġd": 279,
      "áĪŃ": 280,
      "Ġk": 281,
      "º¹": 282,
      "wa": 283,
      "Ġs": 284,
      "áº¹": 285,
      "Ġáĭ¨": 286,
      "on": 287,
      "áĭį": 288,
      "er": 289,
      "Ġm": 290,
      "łáĪ": 291,
      "en": 292,
      "Ġl": 293,
      "ti": 294,
      "áĪĿ": 295,
      "áĪį": 296,
      "áĪµ": 297,
      "áº¹Ì": 298,
      "Ã©": 299,
      "ya": 300,
      "es": 301,
      "Ġo": 302,
      "Ãł": 303,
      "un": 304,
      "Ã¡": 305,
      "al": 306,
      "is": 307,
      "ĠA": 308,
      "áį¢": 309,
      "á»įÌ": 310,
      "il": 311,
      "as": 312,
      "áĬĵ": 313,
      "Ġáīł": 314,
      "he": 315,
      "Ġp": 316,
      "Ġ(": 317,
      "áī°": 318,
      "Ġb": 319,
      "áĭ«": 320,
      "áĪĪ": 321,
      "Ãº": 322,
      "ĠáĮ": 323,
      "am": 324,
      "or": 325,
      "áĭŃ": 326,
      "áĪĺ": 327,
      "Ã¬": 328,
      "ĠáĬ¥": 329,
      "Ġ1": 330,
      "Ġc": 331,
      "áī½": 332,
      "Ġf": 333,
      "gb": 334,
      "ka": 335,
      "Ġya": 336,
      "Ġda": 337,
      "Ġwa": 338,
      "at": 339,
      "ĠM": 340,
      "ĠáĬł": 341,
      "it": 342,
      "ĠÃł": 343,
      "Ġw": 344,
      "áĭ°": 345,
      "áĬĲ": 346,
      "ur": 347,
      "áī¥": 348,
      "áĪ¨": 349,
      "áĮĪ": 350,
      "áĭµ": 351,
      "áº¹ÌĢ": 352,
      "áº¹Ìģ": 353,
      "Ġr": 354,
      "á»įÌģ": 355,
      "áĪĭ": 356,
      "ĠáĬĲ": 357,
      "áĮį": 358,
      "ir": 359,
      "ĠáĪĺ": 360,
      "Ġh": 361,
      "Ġj": 362,
      "Ã¨": 363,
      "áīł": 364,
      "ĠS": 365,
      "el": 366,
      "¹£": 367,
      "áĪ«": 368,
      "Ã³": 369,
      "áī³": 370,
      "ĠáĬ¨": 371,
      "us": 372,
      "Ġna": 373,
      "ĠK": 374,
      "ĠI": 375,
      "ik": 376,
      "Ġni": 377,
      "áĬŃ": 378,
      "om": 379,
      "ĠnÃŃ": 380,
      "á»įn": 381,
      "ĠN": 382,
      "and": 383,
      "ia": 384,
      "ed": 385,
      "áĪĽ": 386,
      "ab": 387,
      "áĪ³": 388,
      "áī£": 389,
      "ad": 390,
      "Ġ2": 391,
      "Ġg": 392,
      "ĠB": 393,
      "um": 394,
      "Ġáį": 395,
      "ĠÃ¬": 396,
      "Ġthe": 397,
      "Ġ19": 398,
      "wá»įn": 399,
      "ol": 400,
      "Ã¹": 401,
      "ic": 402,
      "ati": 403,
      "áĬĽ": 404,
      "Ġáī°": 405,
      "im": 406,
      "Ġá»į": 407,
      "áĪª": 408,
      "ĠáĭŃ": 409,
      "ut": 410,
      "Ã²": 411,
      "ĠáīłáĪ": 412,
      "ĠC": 413,
      "Ġáĭ¨áĪ": 414,
      "ĠT": 415,
      "et": 416,
      "á¹£": 417,
      "ĠáĬłáĪ": 418,
      "em": 419,
      "áĪħ": 420,
      "áĮ¥": 421,
      "áĬ¨": 422,
      "ak": 423,
      "áį£": 424,
      "ent": 425,
      "ĠáĪĿ": 426,
      "Ġof": 427,
      "ul": 428,
      "Ġin": 429,
      "Ġde": 430,
      "Ġáĭ¨áĬ": 431,
      "ay": 432,
      "ĠáĭĪ": 433,
      "áį¡": 434,
      "Ãºn": 435,
      "ĠO": 436,
      "ĠP": 437,
      "Ġta": 438,
      "ĠtÃŃ": 439,
      "áįį": 440,
      "á»įÌĢ": 441,
      "áĭ³": 442,
      "ĠáĬĲáĭį": 443,
      "âĢ": 444,
      "Ġy": 445,
      "áīĢ": 446,
      "Ġi": 447,
      "hi": 448,
      "áĭ¨": 449,
      "ai": 450,
      "ĠáĬ¥áĬķ": 451,
      "le": 452,
      "áĭĪ": 453,
      "ing": 454,
      "Ġ20": 455,
      "áĪ°": 456,
      "áīħ": 457,
      "rÃŃ": 458,
      "ĠG": 459,
      "ĠW": 460,
      "ĠL": 461,
      "ara": 462,
      "áĪĮ": 463,
      "áĬ«": 464,
      "ta": 465,
      "ĠáĪĪ": 466,
      "Ġti": 467,
      "ĠD": 468,
      "ĠF": 469,
      "os": 470,
      "ha": 471,
      "áĬł": 472,
      "Ġz": 473,
      "ok": 474,
      "ana": 475,
      "ĠJ": 476,
      "ĠR": 477,
      "Ġla": 478,
      "ĠáĬĲáĭįáį¢": 479,
      "re": 480,
      "qu": 481,
      "ĠáĪµ": 482,
      "áī¸": 483,
      "Ġáĭ«": 484,
      "ro": 485,
      "Ġil": 486,
      "id": 487,
      "ĠÃ³": 488,
      "áĪī": 489,
      "ba": 490,
      "Ġáĭĵ": 491,
      "ĠE": 492,
      "ĠH": 493,
      "Ġto": 494,
      "Ġal": 495,
      "áīłáĪ": 496,
      "áĭĬ": 497,
      "Ġ-": 498,
      "áĭĭ": 499,
      "áĪ®": 500,
      "ani": 501,
      "áī±": 502,
      "İáī½": 503,
      "áī¸áĭį": 504,
      "ig": 505,
      "áįĪ": 506,
      "ce": 507,
      "ch": 508,
      "Ġáĭ¨áĪļ": 509,
      "áĭĿ": 510,
      "áĮ£": 511,
      "ag": 512,
      "áĪįáį¢": 513,
      "áĪĨ": 514,
      "ĠáĪĽ": 515,
      "uk": 516,
      "áĭļ": 517,
      "áī¶": 518,
      "e,": 519,
      "Ġand": 520,
      "áĪ³áĪĮ": 521,
      "áĮł": 522,
      "áĮī": 523,
      "ra": 524,
      "iy": 525,
      "ĠÃĢ": 526,
      "ĠU": 527,
      "áĮĭ": 528,
      "ali": 529,
      "ri": 530,
      "ÌĢ": 531,
      "láº¹ÌĢ": 532,
      "ĠáīłáĬ": 533,
      "áĭ®": 534,
      "ot": 535,
      "Ãłn": 536,
      "Ġv": 537,
      "Ġma": 538,
      "ĠáĪĿáĪ³áĪĮ": 539,
      "ĠÃłwá»įn": 540,
      "00": 541,
      "ec": 542,
      "ĠáĪ²": 543,
      "ga": 544,
      "ari": 545,
      "áĭ²": 546,
      "Ġgb": 547,
      "uwa": 548,
      "áĬķáĭµ": 549,
      "Ġáº¹": 550,
      "ĠáĮį": 551,
      "Ġáīµ": 552,
      "19": 553,
      "áĭİáī½": 554,
      "e.": 555,
      "ist": 556,
      "Ġáĭĺ": 557,
      "op": 558,
      "ation": 559,
      "ud": 560,
      "áĪ¥": 561,
      "are": 562,
      "áīĥ": 563,
      "iya": 564,
      "áĬĸ": 565,
      "áĪŀ": 566,
      "áĭĺ": 567,
      "Ġá¹£": 568,
      "Ġáĭ¨áī°": 569,
      "Ġle": 570,
      "est": 571,
      "ĠáĬ¥áĬĵ": 572,
      "ant": 573,
      "áĬĲáīµ": 574,
      "ĠáĪ°": 575,
      "uma": 576,
      "la": 577,
      "Ġáī¥": 578,
      "áĬ¥": 579,
      "bi": 580,
      "á»įÌģn": 581,
      "ji": 582,
      "áĪĬ": 583,
      "ans": 584,
      "pa": 585,
      "áĪ©": 586,
      "ci": 587,
      "Ġáĭį": 588,
      "áĪĻ": 589,
      "Ġe": 590,
      "ers": 591,
      "asi": 592,
      "ama": 593,
      "od": 594,
      "áĬķáĮį": 595,
      "ĠÃ¨": 596,
      "ĠÃłti": 597,
      "ÆĻ": 598,
      "ĠáīĢ": 599,
      "tion": 600,
      "ug": 601,
      "ang": 602,
      "rin": 603,
      "iv": 604,
      "áīłáĪŃ": 605,
      "ĭáĭŃ": 606,
      "Ġáĭ°": 607,
      "Ġen": 608,
      "ub": 609,
      "ĠÃĮ": 610,
      "ĠáĬ¥áĬķáĭ°": 611,
      "ĠY": 612,
      "dÃºn": 613,
      "áĭĽ": 614,
      "Ġáĭ¨áĬłáĪ": 615,
      "og": 616,
      "Ġjáº¹Ìģ": 617,
      "Ġet": 618,
      "áĪļ": 619,
      "Ã¬n": 620,
      "Ġ201": 621,
      "lÃº": 622,
      "ini": 623,
      "ĠÃĢwá»įn": 624,
      "ĠâĢ": 625,
      "st": 626,
      "ĠáĬŃ": 627,
      "ĠsÃŃ": 628,
      "Ġ\"": 629,
      "ÅĦ": 630,
      "áĪİ": 631,
      "Ġun": 632,
      "ĠlÃ¡": 633,
      "iki": 634,
      "li": 635,
      "áĮħ": 636,
      "áī²": 637,
      "áī¢": 638,
      "aj": 639,
      "ĠÃ²": 640,
      "áĬĳ": 641,
      "a,": 642,
      "Ã¹n": 643,
      "ow": 644,
      "af": 645,
      "áįĭ": 646,
      "ĠáĪį": 647,
      "Ġkuma": 648,
      "Ġkwa": 649,
      "di": 650,
      "hek": 651,
      "ye": 652,
      "ĠÂ": 653,
      "áĬĿ": 654,
      "ann": 655,
      "Ġon": 656,
      "áĪ±": 657,
      "áį¤": 658,
      "áĪĨáĬķ": 659,
      "hin": 660,
      "áĪ½": 661,
      "Ġwas": 662,
      "ÃŃn": 663,
      "ke": 664,
      "Ġje": 665,
      "Ġshek": 666,
      "áĮİ": 667,
      "Ġol": 668,
      "ĠIt": 669,
      "th": 670,
      "ĠáĪĭáĭŃ": 671,
      "Ġor": 672,
      "áĭ«áĬķ": 673,
      ").": 674,
      "ĠÅĦ": 675,
      "áĪĪáĭį": 676,
      "up": 677,
      "Ġáī³": 678,
      "Ġáĭµ": 679,
      "Ġas": 680,
      "ĠÆĻ": 681,
      "if": 682,
      "a.": 683,
      "Ġráº¹ÌĢ": 684,
      "áĪŃáĬĽ": 685,
      "ob": 686,
      "Ġá»įdÃºn": 687,
      "áĭ±": 688,
      "áĪģ": 689,
      "Ġáī£": 690,
      "),": 691,
      "ikin": 692,
      "ere": 693,
      "our": 694,
      "Ġne": 695,
      "áĭļáĪħ": 696,
      "¢áīµ": 697,
      "ter": 698,
      "ĠAm": 699,
      "dÃ¨": 700,
      "Ġar": 701,
      "Ġati": 702,
      "ĽáĪŃáĬĽ": 703,
      "¢áīµáĭ®": 704,
      "Ġ200": 705,
      "áĮµ": 706,
      "áĬĴ": 707,
      "áĭķ": 708,
      "gbÃł": 709,
      "áīĨ": 710,
      "áĮĢ": 711,
      "ĠáīłáĪĺ": 712,
      "¢áīµáĭ®áĮµ": 713,
      "za": 714,
      "har": 715,
      "Ġkan": 716,
      "zi": 717,
      "Ġis": 718,
      "rÃ©": 719,
      "áĪĪáīµ": 720,
      "ap": 721,
      "áĮ½": 722,
      "lÃ©": 723,
      "áĮĪáĪŃ": 724,
      "si": 725,
      "áĪ¬": 726,
      "Ġdes": 727,
      "okasi": 728,
      "ep": 729,
      "oj": 730,
      "ov": 731,
      "ĠbÃŃ": 732,
      "áī¡": 733,
      "áĪµáĮ¥": 734,
      "won": 735,
      "Ġwá»įÌģn": 736,
      "¢áīµáĭ®áĮµáĭ«": 737,
      "Ġáĭ¨áĬłáĪĽáĪŃáĬĽ": 738,
      "bÃŃ": 739,
      "áĪ¨áīµ": 740,
      "ili": 741,
      "Ġam": 742,
      "ĠAl": 743,
      "wan": 744,
      "ĠV": 745,
      "Ġth": 746,
      "Ġl'": 747,
      "war": 748,
      "áīłáīµ": 749,
      "ĠáĬĲáīłáĪŃ": 750,
      "áĭľ": 751,
      "ina": 752,
      "ile": 753,
      "ĠáĮ¥": 754,
      "Ġan": 755,
      "Ġcon": 756,
      "Ã¡Ãł": 757,
      "de": 758,
      "áĪĺáĬķ": 759,
      "ká»įÌģ": 760,
      "ung": 761,
      "da": 762,
      "ĠÂ«": 763,
      "Ġkas": 764,
      "áĪ»": 765,
      "Ġmat": 766,
      "ĠAf": 767,
      "Ġpar": 768,
      "Ġsu": 769,
      "Ġkati": 770,
      "Ġba": 771,
      "Ġza": 772,
      "ĠáĭĪáĭ°": 773,
      "Ġqu": 774,
      "te": 775,
      "ĠáĪĨ": 776,
      "ĠItokasi": 777,
      "ĠáĮĪ": 778,
      "Ġku": 779,
      "ly": 780,
      "áĪµáīµ": 781,
      "ĠáĬ¨áī°": 782,
      "Ġfor": 783,
      "ne": 784,
      "áī»": 785,
      "»Į": 786,
      "o,": 787,
      "ĠáĬķ": 788,
      "Ġ18": 789,
      "má»į": 790,
      "oka": 791,
      "20": 792,
      "áĭ©": 793,
      "res": 794,
      "ac": 795,
      "ĠfÃºn": 796,
      "ĠIn": 797,
      "áĭĵ": 798,
      "áįĬ": 799,
      "Ġ3": 800,
      "áĭįáĬķ": 801,
      "áī¶áī½": 802,
      "Ã¡n": 803,
      "ĠtÃ³": 804,
      "Ġá¹£e": 805,
      "Ġsi": 806,
      "Ġcikin": 807,
      "ĠnÃŃn": 808,
      "ĠáĬ¥áĪµ": 809,
      "ĠorÃŃ": 810,
      "Â»": 811,
      "ĠáĭįáĪµáĮ¥": 812,
      "âĢĻ": 813,
      "ement": 814,
      "anda": 815,
      "ĠáĬłáĭŃ": 816,
      "waka": 817,
      "ko": 818,
      "me": 819,
      "áĪŃáĮī": 820,
      "já»įÌģ": 821,
      "Ġdu": 822,
      "s,": 823,
      "Ġse": 824,
      "Ĭáĭľ": 825,
      "ine": 826,
      "ni": 827,
      "Ġcom": 828,
      "Ġles": 829,
      "áĮłáĪ": 830,
      "áĪªáĭ«": 831,
      "já»į": 832,
      "áĬĶ": 833,
      "Ġáº¹ÌĢ": 834,
      "Ġ:": 835,
      "ĠAn": 836,
      "áīĭ": 837,
      "oc": 838,
      "ong": 839,
      "kan": 840,
      "of": 841,
      "ĠáĪģ": 842,
      "áĭ¶": 843,
      "áĪ²": 844,
      "ber": 845,
      "áĬĽáĭį": 846,
      "Ġ.": 847,
      "áĬłáĪ": 848,
      "we": 849,
      "Ġdaga": 850,
      "Ġ199": 851,
      "ĠnÃ¡Ãł": 852,
      "áī¦": 853,
      "je": 854,
      "ita": 855,
      "áĭŃáĪĿ": 856,
      "ie": 857,
      "ah": 858,
      "Ġ|": 859,
      "Ġshi": 860,
      "áĪŃáĪµ": 861,
      "áĬ¤": 862,
      "uc": 863,
      "áĪľ": 864,
      "Ġkar": 865,
      "Ġáīłáī°": 866,
      "Ġkatika": 867,
      "Ġre": 868,
      "áĪĲ": 869,
      "áĭĻ": 870,
      "áĬ®": 871,
      "á¹£áº¹Ìģ": 872,
      "áī¤": 873,
      "una": 874,
      "Ġáīħ": 875,
      "ĠnÃŃnÃº": 876,
      "ÃĢ": 877,
      "ada": 878,
      "Ġfi": 879,
      "erÃ©": 880,
      "ĠáĬłáĪµ": 881,
      "jÃŃ": 882,
      "ĠáĪ¥": 883,
      "Ġd'": 884,
      "Ġáī¤": 885,
      "ĠáĬ«": 886,
      "Ġkut": 887,
      "ika": 888,
      "ou": 889,
      "ity": 890,
      "ĠáīµáĪŃáĮī": 891,
      "Ġáĭ¨áĪĺ": 892,
      "ata": 893,
      "Ġpro": 894,
      "áĬ©": 895,
      "end": 896,
      "ĠáĮįáĬķ": 897,
      "áĪªáĬŃ": 898,
      "Ġá»įÌĢ": 899,
      "18": 900,
      "tr": 901,
      "ĠáĬ¥áĬķáĭ²": 902,
      "Ġá»įmá»į": 903,
      "sa": 904,
      "to": 905,
      "ĠÃ©": 906,
      "eriya": 907,
      "ĠáĮĭ": 908,
      "Ġáĭ¨áĬł": 909,
      "áīģ": 910,
      "i,": 911,
      "Ġá»Į": 912,
      "áĮ¨": 913,
      "Ġke": 914,
      "ance": 915,
      "ĠlÃ¡ti": 916,
      "ele": 917,
      "áī¹": 918,
      "iyar": 919,
      "Ġmwaka": 920,
      "ÉĹ": 921,
      "ate": 922,
      "rÃŃÃł": 923,
      "Ġga": 924,
      "áīłáĪ¨": 925,
      "ve": 926,
      "ĠáĪ²áĪĨáĬķ": 927,
      "Ġce": 928,
      "o.": 929,
      "áį¡áį¡": 930,
      "ĭáĪĭ": 931,
      "ÃłÃ¬": 932,
      "Ġau": 933,
      "asa": 934,
      "áĮĥ": 935,
      "ge": 936,
      "ĠlÃ³": 937,
      "áĬŃáĪį": 938,
      "áĪĥ": 939,
      "»áį": 940,
      "Ġshekar": 941,
      "ĠáīµáĪŃáĮīáĪĻ": 942,
      "Ġsh": 943,
      "ĠáĬĲáīłáĪŃáį¢": 944,
      "und": 945,
      "Ġpl": 946,
      "ĠáīłáĬł": 947,
      "ish": 948,
      "fu": 949,
      "ĠáĬłáĬķ": 950,
      "Ġbi": 951,
      "Ġ198": 952,
      "áĪ´": 953,
      "Ã¬ÃŃ": 954,
      ".áĪĿ": 955,
      "ĠdÃ©": 956,
      "oy": 957,
      "jÃŃrÃŃÃł": 958,
      "s.": 959,
      "ĠsÃ¬": 960,
      "zo": 961,
      "ĠNÃłÃ¬": 962,
      "ĠáĪ³": 963,
      "²áį": 964,
      "se": 965,
      "áī´": 966,
      "fi": 967,
      "ká»į": 968,
      "ith": 969,
      "áĮŃ": 970,
      "ĠáĪĺáĬķáĮį": 971,
      "ric": 972,
      "Ġmas": 973,
      "ĠNÃłÃ¬jÃŃrÃŃÃł": 974,
      "wo": 975,
      "ĠáĮĬáĭľ": 976,
      "Ġest": 977,
      "que": 978,
      "au": 979,
      "ĠáīĢáĬķ": 980,
      "ĠáĭĪáĭŃáĪĿ": 981,
      "Ġab": 982,
      "Ġáĭĭ": 983,
      "áī³áīµ": 984,
      "Ġagb": 985,
      "Ġyi": 986,
      "Ġáĭĵ.áĪĿ": 987,
      "ĠâĢĵ": 988,
      "ĠThe": 989,
      "Ġdi": 990,
      "The": 991,
      "les": 992,
      "ary": 993,
      "áĪªáĬ«": 994,
      "Ġat": 995,
      "Ġch": 996,
      "ort": 997,
      "Ġ197": 998,
      "Ġha": 999,
      "ala": 1000,
      "iwa": 1001,
      "ib": 1002,
      "cin": 1003,
      "ĠáĪµáĪĪ": 1004,
      "ĠáĬĵ": 1005,
      "ĠáĬłáĪĪ": 1006,
      "áĪ¨áīµáĬĵ": 1007,
      "kÃł": 1008,
      "ĠáĪĬ": 1009,
      "áĮ»": 1010,
      "aba": 1011,
      "Ġwat": 1012,
      "Ġ196": 1013,
      "Ġáī¢": 1014,
      "ĠáįĪ": 1015,
      "oh": 1016,
      "ĠáĬ¥áĪµáĬ¨": 1017,
      "á¹£Ã¹": 1018,
      "amu": 1019,
      "Ã¨dÃ¨": 1020,
      "áĪĪáĪĿ": 1021,
      "Ġbe": 1022,
      "ank": 1023,
      "ip": 1024,
      "ĠSt": 1025,
      "ĠáīłáĬĭáĪĭ": 1026,
      "ĠáĬķáĮī": 1027,
      "Ġawon": 1028,
      "Ġpe": 1029,
      "Ġá»įjá»įÌģ": 1030,
      "ĠAr": 1031,
      "Ġfr": 1032,
      "ĠorÃŃláº¹ÌĢ": 1033,
      "ire": 1034,
      "áĪ¥áīµ": 1035,
      "art": 1036,
      "áį»áį": 1037,
      "sÃŃ": 1038,
      "Ġ4": 1039,
      "ĠáĭŃáĪħ": 1040,
      "ij": 1041,
      "ion": 1042,
      "ĠCh": 1043,
      "lÃ¡": 1044,
      "'s": 1045,
      "ĠáĭĺáĪĺáĬķ": 1046,
      "áĪ¨áĪµ": 1047,
      "ond": 1048,
      "ĠilÃ©": 1049,
      "áĬķáĪĿ": 1050,
      "-Ã¨dÃ¨": 1051,
      "á¹£Ã¨": 1052,
      "Ãĵ": 1053,
      "ori": 1054,
      "yÃłn": 1055,
      "pÃŃn": 1056,
      "u,": 1057,
      "adi": 1058,
      "anz": 1059,
      "ede": 1060,
      "ĠáĬŃáįį": 1061,
      "áĪ®áī½": 1062,
      "Ġáī°áĪ¨áīµáĬĵ": 1063,
      "200": 1064,
      "ma": 1065,
      "áĪķ": 1066,
      "áĮ«": 1067,
      "Ġwá»įn": 1068,
      "ĠáĬ¨áī°áĪĽ": 1069,
      "tic": 1070,
      "chi": 1071,
      "pá»įÌĢ": 1072,
      "jÃº": 1073,
      "ĠZ": 1074,
      "amb": 1075,
      "Ġ5": 1076,
      "Ġwh": 1077,
      "jÃ¬": 1078,
      "any": 1079,
      "aif": 1080,
      "áĮĪáĬ": 1081,
      "áĭİ": 1082,
      "Ġ(19": 1083,
      "Ġby": 1084,
      "Ġshekara": 1085,
      "ĠAb": 1086,
      "all": 1087,
      "ĠáĭĵáĪĺ": 1088,
      "jo": 1089,
      "Ġáĭĵ.áĪĿ.": 1090,
      "Ġit": 1091,
      "ĠÃ¬lÃº": 1092,
      "es,": 1093,
      "ont": 1094,
      "arin": 1095,
      "Ġshekarar": 1096,
      "Ġad": 1097,
      "áĪŃáĭ«": 1098,
      "ia.": 1099,
      "ĠáĪĪáĪĺ": 1100,
      "Ġsa": 1101,
      "áįĵ": 1102,
      "Ġ'": 1103,
      "Ġáĭķ": 1104,
      "áĮĢáĪĺ": 1105,
      "Ġmai": 1106,
      "ĠNaj": 1107,
      "ami": 1108,
      "uu": 1109,
      "kÃ³": 1110,
      "áī°áĬĽ": 1111,
      "ĠWali": 1112,
      "bÃ¡": 1113,
      "asar": 1114,
      "áĭ´": 1115,
      "i.": 1116,
      "Ġts": 1117,
      "inu": 1118,
      "ĠNajeriya": 1119,
      "ĠUn": 1120,
      "má»įÌĢ": 1121,
      "Ġu": 1122,
      "Ġawá»įn": 1123,
      "áĮįáĪŀ": 1124,
      "Ġfun": 1125,
      "ell": 1126,
      "wÃ©": 1127,
      "ila": 1128,
      "Ġko": 1129,
      "Ġap": 1130,
      "pÃŃnláº¹ÌĢ": 1131,
      "ure": 1132,
      "Ġaka": 1133,
      "áį¦": 1134,
      "enye": 1135,
      "iger": 1136,
      "Ġáĭ«áĪį": 1137,
      "nÃ¬": 1138,
      "amm": 1139,
      "dun": 1140,
      "áĭµáĪŃ": 1141,
      "ĠarÃ¡": 1142,
      "Ġgba": 1143,
      "awa": 1144,
      "ĠáĮĢ": 1145,
      "áĪ¶": 1146,
      "ĠáĬĲáĮĪ": 1147,
      "Ġáįį": 1148,
      "Ġkutoka": 1149,
      "yÃŃ": 1150,
      "ĠáĬ¢": 1151,
      "ĠAd": 1152,
      "Ġcha": 1153,
      "áī³áĭĪ": 1154,
      "Ġlati": 1155,
      "ous": 1156,
      "yÃ©": 1157,
      "ord": 1158,
      "Ġex": 1159,
      "Ġáīģ": 1160,
      "ban": 1161,
      "ct": 1162,
      "áīµáĬķ": 1163,
      "ĠáĪķ": 1164,
      "ĠáĮĭáĪŃ": 1165,
      "eng": 1166,
      "ĠáīłáĪĽ": 1167,
      "ark": 1168,
      "Ġak": 1169,
      "ane": 1170,
      "ht": 1171,
      "ikuwa": 1172,
      "ale": 1173,
      "gbe": 1174,
      "áĬŃáĪįáīł": 1175,
      "Ġáį¡": 1176,
      "ard": 1177,
      "oni": 1178,
      "Ġara": 1179,
      "iri": 1180,
      "ver": 1181,
      "áĪīáį¢": 1182,
      "Ġlá»į": 1183,
      "ore": 1184,
      "Ġwith": 1185,
      "áīĤ": 1186,
      "ĠáĭĵáĬŃáĪįáīł": 1187,
      "áĪİáī½": 1188,
      "obel": 1189,
      "áĮ¡": 1190,
      "áĭ°áĪ¨": 1191,
      "u.": 1192,
      "rÃ¹n": 1193,
      "fin": 1194,
      "ll": 1195,
      "Ġ6": 1196,
      "ĠáĪļ": 1197,
      "¦áĪŃ": 1198,
      "ĠNobel": 1199,
      "Ġáĭ°áĮįáĪŀ": 1200,
      "ĠerÃ©": 1201,
      "An": 1202,
      "amar": 1203,
      "ĠáĬłáĬķáĭµ": 1204,
      "gun": 1205,
      "ĠwÃł": 1206,
      "ÃĮ": 1207,
      "ais": 1208,
      "ihar": 1209,
      "anar": 1210,
      "Ġst": 1211,
      "iti": 1212,
      "áĭ°áĪŃ": 1213,
      "ĠáĬłáĪį": 1214,
      "ĠáĭĵáĬŃáĪįáīł.": 1215,
      "ek": 1216,
      "áī°áĪ¨": 1217,
      "áĪĺáĬĲ": 1218,
      "Ġim": 1219,
      "ayin": 1220,
      "ue": 1221,
      "sh": 1222,
      "ĠpÃ©": 1223,
      "gbÃ©": 1224,
      "áĮĪáĬĿ": 1225,
      "Ġ195": 1226,
      "ake": 1227,
      "áĪŃáīµ": 1228,
      "yÃ¬n": 1229,
      "Ġwanda": 1230,
      "Ġiláº¹ÌĢ": 1231,
      "ĠFr": 1232,
      "gba": 1233,
      "áĬķáīµ": 1234,
      "Ġsun": 1235,
      "ĠNiger": 1236,
      "ich": 1237,
      "ces": 1238,
      "Ġáĭ¨áĬ¢áīµáĭ®áĮµáĭ«": 1239,
      "ĠOl": 1240,
      "ĠáĪĺáĬķáĮįáĪ¥áīµ": 1241,
      "..": 1242,
      "áĬķáĪµ": 1243,
      "ect": 1244,
      "áĪĶ": 1245,
      "ĠÃ¬t": 1246,
      "ĠLe": 1247,
      "so": 1248,
      "ayan": 1249,
      "Ġile": 1250,
      "rÃ²": 1251,
      "gbo": 1252,
      "usu": 1253,
      "ĠáĪĪáĪĽ": 1254,
      "áīłáĪ©": 1255,
      "wÃ²": 1256,
      "áĬķáīĭ": 1257,
      "ern": 1258,
      "ivers": 1259,
      "áī½áĬķ": 1260,
      "ĠÃ¨dÃ¨": 1261,
      "áĬª": 1262,
      "ĠorÃŃláº¹ÌĢ-Ã¨dÃ¨": 1263,
      "áĪĭáĪįáį¢": 1264,
      "out": 1265,
      "ĠáĪĨáĬĲ": 1266,
      "Ġáĭ¨áĬĲ": 1267,
      "rÃŃkÃł": 1268,
      "áĬĵáīµ": 1269,
      "ĠkÃŃ": 1270,
      "ĠáĪįáĮħ": 1271,
      "po": 1272,
      "bo": 1273,
      "age": 1274,
      "Ġfrom": 1275,
      "oma": 1276,
      "Ġ17": 1277,
      "Ġdans": 1278,
      "Ã©r": 1279,
      "ĠáĭµáĪ¨áĪµ": 1280,
      "ĠolÃ³": 1281,
      "Ġ,": 1282,
      "ĠáĭĿ": 1283,
      "-ede": 1284,
      "ĠbÃ¡": 1285,
      "ano": 1286,
      "áĭļáĭ«": 1287,
      "Ġ9": 1288,
      "lá»į": 1289,
      "áįī": 1290,
      "ass": 1291,
      "ence": 1292,
      "NÃŃ": 1293,
      "ens": 1294,
      "ira": 1295,
      "eb": 1296,
      "Ġáĭ«áĪįáī°": 1297,
      "mo": 1298,
      "ĠmÃ¡": 1299,
      "isha": 1300,
      "yáº¹": 1301,
      "16": 1302,
      "av": 1303,
      "tÃ¬": 1304,
      "Ġhe": 1305,
      "áĭ°áī¥": 1306,
      "ill": 1307,
      "áī°áĪ¨áĮİ": 1308,
      "ÃĢwá»įn": 1309,
      "ew": 1310,
      "ment": 1311,
      "Ġoá¹£Ã¹": 1312,
      "ĠyÃ¬ÃŃ": 1313,
      "ĠáĪħ": 1314,
      "ĠÃĴ": 1315,
      "áĮĬ": 1316,
      "ĠkÃ³": 1317,
      "annan": 1318,
      "áī£áĪį": 1319,
      "ĠáĬ¤": 1320,
      "aliwa": 1321,
      "anin": 1322,
      "Ġune": 1323,
      "ame": 1324,
      "Ġáĭ¨áĬ¥": 1325,
      "15": 1326,
      "ĠYor": 1327,
      "Ġáīĭ": 1328,
      "ĠáĪµáĪĿ": 1329,
      "Ġ7": 1330,
      "ĠáĪĮ": 1331,
      "Ġmw": 1332,
      "áĪ£": 1333,
      "áĪĨáĬĳ": 1334,
      "áĪ¸": 1335,
      "ĠáĬłáĮĪ": 1336,
      "aka": 1337,
      "ĠAmer": 1338,
      "ĠáīłáĬ¥": 1339,
      "y,": 1340,
      "ĠáĪĢ": 1341,
      "nÃ¬yÃłn": 1342,
      "pin": 1343,
      "tÃł": 1344,
      "²áį±": 1345,
      "Ġthat": 1346,
      "Ġmats": 1347,
      "ĠrÃ©": 1348,
      "áī¸áĭįáį¢": 1349,
      "uh": 1350,
      "áĬķáĭ«": 1351,
      "az": 1352,
      "Ġkáº¹": 1353,
      "ast": 1354,
      "Ã©e": 1355,
      "ĠáĪĽáĪĪáīµ": 1356,
      "io": 1357,
      "bu": 1358,
      "ph": 1359,
      "oz": 1360,
      "áĪĬáĭĿ": 1361,
      "olog": 1362,
      "ember": 1363,
      "Ġzuwa": 1364,
      "º¸": 1365,
      "áĪłáĪ": 1366,
      "ia,": 1367,
      "ile-ede": 1368,
      "Ġdon": 1369,
      "ĠáĪĥ": 1370,
      "áī¸áĭįáĬķ": 1371,
      "man": 1372,
      "Ġpr": 1373,
      "ĠMar": 1374,
      "ĠtÃºn": 1375,
      "ĠáĬķáĮīáĪ¥": 1376,
      "Ġwon": 1377,
      "mi": 1378,
      "rist": 1379,
      "áĬ¨áī°": 1380,
      "áī±áĬķ": 1381,
      "sÃ¬": 1382,
      "áĪµáī°": 1383,
      "áĭįáĭ«áĬķ": 1384,
      "ĠÃ¨nÃ¬yÃłn": 1385,
      "ins": 1386,
      "áįķ": 1387,
      "Ġare": 1388,
      "Ġninu": 1389,
      "áī°áĪ¨áĮİáĪĺ": 1390,
      "Ġáĭ¨áĪļáĭ«": 1391,
      "fa": 1392,
      "Ġkama": 1393,
      "17": 1394,
      "áĪĢ": 1395,
      "Ġtare": 1396,
      "ĠSh": 1397,
      "ux": 1398,
      "Ġ194": 1399,
      "áī£áī¢": 1400,
      "int": 1401,
      "kas": 1402,
      "Ġ8": 1403,
      "afa": 1404,
      "ĠáĬłáĪĺ": 1405,
      "Ġáī³áĪªáĬŃ": 1406,
      "âĢĿ": 1407,
      "emi": 1408,
      "rit": 1409,
      "In": 1410,
      "áĬķáĮ": 1411,
      "ash": 1412,
      "ĠáīłáĬłáĪ": 1413,
      "Ġáĭ«áĪįáī°áī°áĪ¨áĮİáĪĺ": 1414,
      "Ġmut": 1415,
      "²áį±áį»áį": 1416,
      "000": 1417,
      "áĪĦ": 1418,
      "ĠáĮī": 1419,
      "es.": 1420,
      "hun": 1421,
      "ĠáĪ°áĭį": 1422,
      "angu": 1423,
      "dÃŃ": 1424,
      "oja": 1425,
      "ĠAs": 1426,
      "rika": 1427,
      "áĭĽáīµ": 1428,
      "ĠáīĭáĬķáīĭ": 1429,
      "ĠkÃ²": 1430,
      "lu": 1431,
      "âĢĵ": 1432,
      "áĪŀáī½": 1433,
      "Ġ=": 1434,
      "áĮ¥áĪŃ": 1435,
      "ian": 1436,
      "pr": 1437,
      "áĪ«áīµ": 1438,
      "ola": 1439,
      "Ġáĭ³": 1440,
      "Ġáį£": 1441,
      "ust": 1442,
      "kÃ²": 1443,
      "áī£áīµ": 1444,
      "áī¥áĪŃ": 1445,
      "ĠáĬłáĬ«": 1446,
      "áĪł": 1447,
      "Ġki": 1448,
      "áº¹Ìģg": 1449,
      "áĪįáĬŃ": 1450,
      "ĠMat": 1451,
      "/áĪĿ": 1452,
      "Ġáĭ¨áĪĽ": 1453,
      "ff": 1454,
      "akar": 1455,
      "Ġel": 1456,
      "áĭĭáĪįáį¢": 1457,
      "Ġáī¥áĭĻ": 1458,
      "ĠEn": 1459,
      "Ġhi": 1460,
      "ua": 1461,
      "wÃ¡": 1462,
      "ĠÃ¬gbÃł": 1463,
      "jÃ¡": 1464,
      "pe": 1465,
      "10": 1466,
      "ĠPa": 1467,
      "áĪĭáīµ": 1468,
      "ĠÉĹ": 1469,
      "ĠáĭŃáĮĪ": 1470,
      "áĬ¨áĪį": 1471,
      "ene": 1472,
      "áĪĿáĪ®": 1473,
      "Ġac": 1474,
      "áº¹ÌĢr": 1475,
      "ĠÃ¡": 1476,
      "Ġáĭĵ/áĪĿ": 1477,
      "Ġmatsayin": 1478,
      "Ġso": 1479,
      "Ġqui": 1480,
      "ĠáĪŀ": 1481,
      "er,": 1482,
      "áĪĭáĪį": 1483,
      "Ġ16": 1484,
      "Ġav": 1485,
      "ĠáĮł": 1486,
      "abu": 1487,
      "14": 1488,
      "áĪ³áĭŃ": 1489,
      "Ġ/": 1490,
      "Ġsur": 1491,
      "á»įÌĢn": 1492,
      "ĠâĢľ": 1493,
      "Ġorile-ede": 1494,
      "áº¹Ìģgáº¹Ìģ": 1495,
      "yar": 1496,
      "ite": 1497,
      "Ġnchi": 1498,
      "yo": 1499,
      "Ġkuwa": 1500,
      "tÃŃ": 1501,
      "Ġib": 1502,
      "ĠÃ²á¹£Ã¨": 1503,
      "ĠáĪĻ": 1504,
      "tÃ²": 1505,
      "Ġpour": 1506,
      "áī³áĭĬ": 1507,
      "ĠdÃ¡": 1508,
      "Ġ(200": 1509,
      "Ġfar": 1510,
      "ĠáĬłáĪµáī°": 1511,
      "ise": 1512,
      "áĪĿáĪħ": 1513,
      "Ġhis": 1514,
      "dÃ¡": 1515,
      "áĮĤ": 1516,
      "ĠáĮ½": 1517,
      "Ġwatan": 1518,
      "ká»įÌĢ": 1519,
      "Ġbir": 1520,
      "dÃ¬": 1521,
      "tern": 1522,
      "aye": 1523,
      "Ġ15": 1524,
      "ĠáĮİ": 1525,
      "anu": 1526,
      "Ġms": 1527,
      "Ġtr": 1528,
      "ľáĪªáĬ«": 1529,
      "áĪĺáĪŃ": 1530,
      "ĠáĪ³áĭŃ": 1531,
      "ĠIs": 1532,
      "Ġsuka": 1533,
      "ult": 1534,
      "Ġpáº¹ÌĢ": 1535,
      "ĠáĬ¥áĬķáĭ³": 1536,
      "áĬķáĭ³": 1537,
      "ĠáĭĭáĬĵ": 1538,
      "land": 1539,
      "ĠáĬ®": 1540,
      "Ġjáº¹": 1541,
      "yi": 1542,
      "áĮĨ": 1543,
      "ĠáīłáĪļ": 1544,
      "Ġtun": 1545,
      "áĭ²áĪµ": 1546,
      "arta": 1547,
      "ath": 1548,
      ".áĬł": 1549,
      "ĠmÃ©": 1550,
      "on,": 1551,
      "ĠáĪĺáĬķ": 1552,
      "áĮįáĪŃ": 1553,
      "ĠáĪĺáĪµ": 1554,
      "yin": 1555,
      "yan": 1556,
      "áī·": 1557,
      "abi": 1558,
      "Ġ10": 1559,
      "itÃ©": 1560,
      "ania": 1561,
      "ĠMare": 1562,
      "áĮłáĪŃ": 1563,
      "une": 1564,
      "Ġáī¤áī°": 1565,
      "ĠÃĮpÃŃnláº¹ÌĢ": 1566,
      "ign": 1567,
      "hem": 1568,
      "Ġáį¢": 1569,
      "áĭĿáī¥": 1570,
      "áĪĭáĭŃ": 1571,
      "áĮĪáĬĺ": 1572,
      "uni": 1573,
      "Ġus": 1574,
      "Ġiá¹£áº¹Ìģ": 1575,
      "1,": 1576,
      "áįĸ": 1577,
      "aban": 1578,
      "Ġik": 1579,
      "ofar": 1580,
      "já»įba": 1581,
      "per": 1582,
      "uri": 1583,
      "ĠáĪģáĪī": 1584,
      "ru": 1585,
      "ea": 1586,
      "Ġáĭ¨áĪĨ": 1587,
      "yÃ¨": 1588,
      "yÃł": 1589,
      "Ġ193": 1590,
      "áĭī": 1591,
      "Ġgáº¹Ìģgáº¹Ìģ": 1592,
      "dÃ©": 1593,
      "Ġhuk": 1594,
      "Ġcomp": 1595,
      "ĠáįĬ": 1596,
      "oun": 1597,
      "ozaliwa": 1598,
      "ĠKar": 1599,
      "iversity": 1600,
      "ational": 1601,
      "áĬŀ": 1602,
      "ĠAfrika": 1603,
      "ki": 1604,
      "elu": 1605,
      "kani": 1606,
      "à¤": 1607,
      "kin": 1608,
      "12": 1609,
      "ĠÆĻasar": 1610,
      "ĠIb": 1611,
      "Ġvya": 1612,
      "Ġlo": 1613,
      "wá»įÌģ": 1614,
      "ors": 1615,
      "áº¹Ìģr": 1616,
      "ĠtÃł": 1617,
      "ĠÃĪ": 1618,
      "omin": 1619,
      "Ġ(20": 1620,
      "ĠáĬłáĪĿ": 1621,
      "ĠTu": 1622,
      "áĮĢáĪĺáĪªáĭ«": 1623,
      "Ġáĭ¨áĪĿ": 1624,
      "ade": 1625,
      "Ġpáº¹ÌĢlÃº": 1626,
      "áĪŃáĪµáī²": 1627,
      "áĪĨáĬĲ": 1628,
      "Ġlá»įÌģ": 1629,
      "gbÃ¨": 1630,
      "hindi": 1631,
      "Ġwasan": 1632,
      "Ġibi": 1633,
      "gbáº¹Ìģ": 1634,
      "ĠáĪĺáĭ°áī¥": 1635,
      "gbÃ¡": 1636,
      "ward": 1637,
      "Ã³n": 1638,
      "Ba": 1639,
      "Ġfa": 1640,
      "áĪ«áĭĬ": 1641,
      "--": 1642,
      "Ġir": 1643,
      "ry": 1644,
      "ishi": 1645,
      "ĠáĪ°áĭİáī½": 1646,
      "kasÃŃ": 1647,
      "ĠwÃ¡": 1648,
      "ĠlÃ³rÃŃ": 1649,
      "ons": 1650,
      "Ġplus": 1651,
      "oko": 1652,
      "ja": 1653,
      "13": 1654,
      "lÃ³": 1655,
      "Ġkw": 1656,
      "ĠAfric": 1657,
      "áº¹ÌģrÃŃkÃł": 1658,
      "áº¹ÌĢráº¹ÌĢ": 1659,
      "ost": 1660,
      "áī½áį¢": 1661,
      "á¹£e": 1662,
      "ofariki": 1663,
      "Ġáīłáĭĺ": 1664,
      "vel": 1665,
      "Ġáī¦": 1666,
      "kati": 1667,
      "ĠáĬĲáĮĪáĪŃ": 1668,
      "ĠAmáº¹ÌģrÃŃkÃł": 1669,
      "áįİ": 1670,
      "wam": 1671,
      "ical": 1672,
      "anaz": 1673,
      "gÃºn": 1674,
      "tit": 1675,
      "Ġfil": 1676,
      "Al": 1677,
      "Ġhar": 1678,
      "Ġque": 1679,
      "an,": 1680,
      "áĬķáĮįáĪĬáĭĿ": 1681,
      "0,": 1682,
      "ĠTuzo": 1683,
      "che": 1684,
      "na": 1685,
      "ĠUniversity": 1686,
      "ĠáĭĵáĪĿ": 1687,
      "áī°áĭį": 1688,
      "Ġáī°áĪĺ": 1689,
      "áī¦áī½": 1690,
      "Ġhaif": 1691,
      "ĠMa": 1692,
      "aki": 1693,
      "isi": 1694,
      "áĪĿáį¢": 1695,
      "Ġyake": 1696,
      "emp": 1697,
      "áĮ¸": 1698,
      "ida": 1699,
      "ráº¹": 1700,
      "láº¹Ìģ": 1701,
      "ese": 1702,
      "Ġsha": 1703,
      "-áº¹ÌĢ": 1704,
      "1.": 1705,
      "ound": 1706,
      "ĠáĭĵáĪĺáīµ": 1707,
      "uka": 1708,
      "rÃłn": 1709,
      "ess": 1710,
      "wÃ³": 1711,
      "ef": 1712,
      "lá»įÌģ": 1713,
      "ts": 1714,
      "áį¥": 1715,
      "Ġjihar": 1716,
      "ated": 1717,
      "áĮłáīĢ": 1718,
      "Ġráº¹": 1719,
      "áĪĽáĪª": 1720,
      "anazarta": 1721,
      "ĠáīĨ": 1722,
      "ĠÃ²á¹£Ã¨rÃ©": 1723,
      "pÃ©": 1724,
      "Ġáĭ¨áĪļáĮĪáĬĿ": 1725,
      "ĠmÃ¡a": 1726,
      "jÃł": 1727,
      "ima": 1728,
      "ugha": 1729,
      "erm": 1730,
      "kÃ¬": 1731,
      "2,": 1732,
      "ole": 1733,
      "iz": 1734,
      "ĠMarekani": 1735,
      "Ġloka": 1736,
      "tÃ©": 1737,
      "áĪ¨áĭį": 1738,
      "'a": 1739,
      "uniya": 1740,
      "1-": 1741,
      "risto": 1742,
      "Ġwali": 1743,
      "ĠCom": 1744,
      "á»įÌģkasÃŃ": 1745,
      "Le": 1746,
      "Ã¨s": 1747,
      "ĠyÃŃ": 1748,
      "ĠtÃłbÃŃ": 1749,
      "ĠkÃ©": 1750,
      "be": 1751,
      "ĠWaliozaliwa": 1752,
      "áĮĵ": 1753,
      "Ġkasance": 1754,
      "ind": 1755,
      "á¹£áº¹": 1756,
      "ĠalÃ¡": 1757,
      "áĭŀ": 1758,
      "ĠáĬª": 1759,
      "ubwa": 1760,
      "áįĬáīµ": 1761,
      "Ġkus": 1762,
      "áĮįáī¥": 1763,
      "ĠÃ¨yÃŃ": 1764,
      "ex": 1765,
      "Ġgbo": 1766,
      "urs": 1767,
      "cl": 1768,
      "ĠáĪĿáĬŃ": 1769,
      "aij": 1770,
      "istor": 1771,
      "áĬ¢": 1772,
      "áĭ±áĪµ": 1773,
      "Ã¨re": 1774,
      "Ġka": 1775,
      "ĠáĬ¥áĭ¨": 1776,
      "Ġ14": 1777,
      "ĠNew": 1778,
      "ĠMus": 1779,
      "Ġou": 1780,
      "ran": 1781,
      "ĠAg": 1782,
      "áĪģáĪĿ": 1783,
      "ations": 1784,
      ".áĬ¤": 1785,
      "áĪĭáĬķáĭµ": 1786,
      "áĭ³áĬķ": 1787,
      "áĬĸáī½": 1788,
      "ĠWaliofariki": 1789,
      "ote": 1790,
      "Ġid": 1791,
      "áįĴ": 1792,
      "ÃłÃ¡": 1793,
      "Ġcomm": 1794,
      "alis": 1795,
      "Ġhii": 1796,
      "for": 1797,
      "nin": 1798,
      "ĠáĪĭ": 1799,
      "Ġká»į": 1800,
      "Ġáī¤áīµ": 1801,
      "áĮĮ": 1802,
      "ĠonÃŃ": 1803,
      "anya": 1804,
      "rá»įÌĢ": 1805,
      "áĬ¥áĬķ": 1806,
      "áĮ¨áĪ¨": 1807,
      "lic": 1808,
      "Ġáīĥ": 1809,
      "Ġohun": 1810,
      "Ġyan": 1811,
      "áī³áī¸áĭį": 1812,
      "áĬłáī¥": 1813,
      "Ġmil": 1814,
      "áĭŃáĪħ": 1815,
      "Ta": 1816,
      "Ġhu": 1817,
      "Ġob": 1818,
      "áĪ¨áĬķ": 1819,
      "ool": 1820,
      "amp": 1821,
      "ĠáĪĺáĬ«": 1822,
      "Ġser": 1823,
      "ight": 1824,
      "áĮ¦": 1825,
      "áĪ¨áĮĥ": 1826,
      "ome": 1827,
      "ĠáĪĲ": 1828,
      "áīħáĪĿ": 1829,
      "port": 1830,
      "iss": 1831,
      "abban": 1832,
      "ĠáĬłáī¥": 1833,
      "Ġ;": 1834,
      "ĠolÃ¹": 1835,
      "5,": 1836,
      "enti": 1837,
      "Ġpia": 1838,
      "ĠáĬ¨áĬł": 1839,
      "áĪĪáĭ«": 1840,
      "áī°áĪŃ": 1841,
      "Ġáī°áīĢ": 1842,
      ".áĬł.": 1843,
      "áĪĿáĬĵ": 1844,
      "ĠáĬĲáīłáĪ¨": 1845,
      "áĮĪáĭµ": 1846,
      "áīĨáĮ£": 1847,
      "fic": 1848,
      "uli": 1849,
      "ck": 1850,
      "ĠáĪĨáĬĸ": 1851,
      "in,": 1852,
      "emba": 1853,
      "Ġnot": 1854,
      "áĪ°áĭį": 1855,
      "áĪĺáĬĵ": 1856,
      "Ġmk": 1857,
      "ĠGu": 1858,
      "ĠáĬłáĮĪáĪŃ": 1859,
      "ĠáīłáĪµ": 1860,
      "ars": 1861,
      "Ġson": 1862,
      "ĠjÃ¹": 1863,
      "ĠÂ»": 1864,
      "ĠáĬłáī£": 1865,
      "áĪ¨áĭ³": 1866,
      "áĪīáīµ": 1867,
      "ĠlÃ¨": 1868,
      "ĠáīłáĬ¢áīµáĭ®áĮµáĭ«": 1869,
      "Ġáº¸": 1870,
      "Ġwani": 1871,
      "mÃ¹": 1872,
      "lÃł": 1873,
      "lo": 1874,
      "3,": 1875,
      "áĬĲáĭļáĪħ": 1876,
      "áĭµáĬķ": 1877,
      "áĪĶáĪŃ": 1878,
      "\".": 1879,
      "anan": 1880,
      "Ġbiy": 1881,
      "áĪĺáĪµ": 1882,
      "áĪĽáĭĬ": 1883,
      "ĠáĬĵáī¸áĭįáį¢": 1884,
      "áĪ°áī¥": 1885,
      "enn": 1886,
      "ĠáĪ´": 1887,
      "tor": 1888,
      "Ġáįķ": 1889,
      "0.": 1890,
      "áīª": 1891,
      "ĠgbÃ©": 1892,
      "ĠCol": 1893,
      "ĠáĭĺáĬķáĭµ": 1894,
      "isa": 1895,
      "Ġ(A": 1896,
      "Ġyana": 1897,
      "Ġmo": 1898,
      "áīµáĬĵ": 1899,
      "Ġup": 1900,
      "áįħ": 1901,
      "Ġáĭ¨áĪ°": 1902,
      "áĮĪáĬĻ": 1903,
      "Ġsab": 1904,
      "ĠáĮ¨": 1905,
      "ques": 1906,
      "Ġáī£áĪĪ": 1907,
      "ĠnÃŃgbÃł": 1908,
      "ĠáĮĢáĪĿáĪ®": 1909,
      "Ãª": 1910,
      "Ġcons": 1911,
      "Ġmáº¹Ìģ": 1912,
      "ĠNij": 1913,
      "bÃł": 1914,
      "mÃŃ": 1915,
      "áĭ¥": 1916,
      "ĠáĪ«": 1917,
      "áĮ½áĪĲ": 1918,
      "Ġáĭ«áĪĪ": 1919,
      "6,": 1920,
      "Ġme": 1921,
      "Ġtel": 1922,
      "Ġdan": 1923,
      "áĪŃáĪ±": 1924,
      "Ġgbogbo": 1925,
      "Ġáįĵ": 1926,
      "emb": 1927,
      "7,": 1928,
      "Ġranar": 1929,
      "ept": 1930,
      "ĠáĬ¢áīµáĭ®áĮµáĭ«": 1931,
      "Ġbayan": 1932,
      "ide": 1933,
      "su": 1934,
      "ĠOk": 1935,
      "Ġomo": 1936,
      "ĠáĮ¦áĪŃ": 1937,
      "ĠManazarta": 1938,
      "Baada": 1939,
      "Ġnom": 1940,
      "2.": 1941,
      "Ġny": 1942,
      "jáº¹Ìģ": 1943,
      "anta": 1944,
      "lÃ¨": 1945,
      "8,": 1946,
      "á»Į": 1947,
      "áĭ¨áĪŃ": 1948,
      "Ġáĭ«áĪĪáĭį": 1949,
      "áī¡áī¥": 1950,
      "y.": 1951,
      "ĠáĮ¸": 1952,
      "á¹£Ãł": 1953,
      "Ġáī¥áī»": 1954,
      "Ġfarko": 1955,
      "ld": 1956,
      "ited": 1957,
      "Ġwak": 1958,
      "uwar": 1959,
      "áĬķáĬķ": 1960,
      "áī£áĪĪ": 1961,
      "Ġá»ĮÌĢ": 1962,
      "ande": 1963,
      "uta": 1964,
      "llon": 1965,
      "kÃłn": 1966,
      "áĬ¤áĪį": 1967,
      "aya": 1968,
      "Ġáī°áĭĪ": 1969,
      "-Ã¬": 1970,
      "ĠOr": 1971,
      "Ġá»įdun": 1972,
      "uru": 1973,
      "Ġsá»į": 1974,
      "áĪłáĪ¨": 1975,
      "áĪįáĮ£": 1976,
      "Ġorin": 1977,
      "ĠáĬ¨áįį": 1978,
      "ĥáĭŃ": 1979,
      "arans": 1980,
      "ĠáĪĺáĪį": 1981,
      "Ġ192": 1982,
      "Ġmshindi": 1983,
      "ohn": 1984,
      "Ġáĭ¨áĭĪ": 1985,
      "áĭĭáĪį": 1986,
      "ju": 1987,
      "Ġaf": 1988,
      "Ġtana": 1989,
      "ĠKi": 1990,
      "ress": 1991,
      "ĠáĬłáĭį": 1992,
      "anc": 1993,
      "áī³áĪįáį¢": 1994,
      "lÃ¹": 1995,
      "áĪĭáī¸áĭį": 1996,
      "ungiyar": 1997,
      "ats": 1998,
      "ĠTh": 1999,
      "Ã¹bÃ¡": 2000,
      "Ġmag": 2001,
      "ĠáĬ¥.áĬ¤": 2002,
      "Ġfara": 2003,
      "ĠNaij": 2004,
      "ukio": 2005,
      "ĠBr": 2006,
      "ĠáĬ¦": 2007,
      "ĠfÃŃ": 2008,
      "Ġwhich": 2009,
      "oul": 2010,
      "Â«": 2011,
      "Ã¬bÃŃ": 2012,
      "Ġáī°áĬ¨": 2013,
      "iyan": 2014,
      "ĠII": 2015,
      "Ġhaife": 2016,
      "4,": 2017,
      "imb": 2018,
      "áĭµáĪĿ": 2019,
      "Ġlokacin": 2020,
      "Ã¬nrin": 2021,
      "ĠNaijir": 2022,
      "att": 2023,
      "áį²áį±áį»áį": 2024,
      "Ġmar": 2025,
      "ĠSch": 2026,
      "Ġmi": 2027,
      "áĬħ": 2028,
      "ĠTanz": 2029,
      "7.": 2030,
      "6.": 2031,
      "Ġáº¹ÌĢká»įÌģ": 2032,
      "áĪļáĭ«": 2033,
      "ĠAmerika": 2034,
      "Ġmasu": 2035,
      "ĠÃłká»įÌģ": 2036,
      "ugh": 2037,
      "ĠáīģáĮ¥áĪŃ": 2038,
      "Ġuk": 2039,
      "ura": 2040,
      "3.": 2041,
      "ĠáĪ¥áĪŃ": 2042,
      "Ġmb": 2043,
      "ĠáĪī": 2044,
      "Ġiya": 2045,
      "mÃ¬": 2046,
      "ĠÃĮt": 2047,
      "Ġyank": 2048,
      "ĠLa": 2049,
      "oro": 2050,
      "1)": 2051,
      "Ġ12": 2052,
      "Ġmus": 2053,
      "Ġkasar": 2054,
      "iko": 2055,
      "ĠAk": 2056,
      "irst": 2057,
      "sion": 2058,
      "5.": 2059,
      "jáº¹": 2060,
      "4.": 2061,
      "uwan": 2062,
      "Ġáĭ¨áīĢ": 2063,
      "áĬĵáĪį": 2064,
      "imu": 2065,
      "Ãºká»į": 2066,
      "ogra": 2067,
      "Ġáĭ¨áĪĨáĬĲ": 2068,
      "Ã©s": 2069,
      "Ġkul": 2070,
      "pinle": 2071,
      "ice": 2072,
      "Ġáĭ®": 2073,
      "ĠáĬłáīł": 2074,
      "Ġmata": 2075,
      "áĪ¥áī³áīµ": 2076,
      "ĠPapa": 2077,
      "áĪŃáĬŃ": 2078,
      "ĠáĭĪáĬķ": 2079,
      "Ġsuna": 2080,
      "ĠáĮ£": 2081,
      "du": 2082,
      "ĠSa": 2083,
      "Ùİ": 2084,
      "ĠáīłáĪĿ": 2085,
      "áī¢áĭ«": 2086,
      "tions": 2087,
      "one": 2088,
      "ĠMatukio": 2089,
      "Ġzama": 2090,
      "áĬ¦": 2091,
      "anci": 2092,
      "ĠwÃŃ": 2093,
      "áĮ¨áĪ¨áĪ»": 2094,
      "ito": 2095,
      "áĮłáĪ«": 2096,
      "ĠRD": 2097,
      "Ġmu": 2098,
      "áĮ¤": 2099,
      "eri": 2100,
      "kÃ¹n": 2101,
      "ĠáĪľ": 2102,
      "ĠáīłáĭļáĪħ": 2103,
      "Ġgud": 2104,
      "ĠáĭµáĪŃ": 2105,
      "ĠnÃŃpa": 2106,
      "Ni": 2107,
      "aus": 2108,
      "áĪ³áīµ": 2109,
      "áĪľáĬķ": 2110,
      "joba": 2111,
      "Ġip": 2112,
      "ĠAfir": 2113,
      "kÃ¨": 2114,
      "ĠJam": 2115,
      "Ġita": 2116,
      "ĠYorÃ¹bÃ¡": 2117,
      "nÃŃ": 2118,
      "atu": 2119,
      "ĠÃłrÃ¹n": 2120,
      "udi": 2121,
      "orn": 2122,
      "iyo": 2123,
      "Ġavec": 2124,
      "Ġáī¡": 2125,
      "ope": 2126,
      "ĠáĪĺáĬ«áĬ¨áĪį": 2127,
      "Ġbirnin": 2128,
      "Ġsont": 2129,
      "Ġalikuwa": 2130,
      "ĠáīłáĪĭáĭŃ": 2131,
      "akala": 2132,
      "outh": 2133,
      "áĭİáī¹": 2134,
      "ĠMas": 2135,
      "ĠáīłáĭĺáĪĺáĬĲ": 2136,
      "com": 2137,
      "8.": 2138,
      "áĮįáĭļ": 2139,
      "Ġá»įjá»įÌģÃ¬bÃŃ": 2140,
      "áĬķáĮī": 2141,
      "ĠáĬ¨áĪĺ": 2142,
      "ustr": 2143,
      "5)": 2144,
      "ĠØ": 2145,
      "era": 2146,
      "ille": 2147,
      "elle": 2148,
      "Ìģ": 2149,
      "wá»įÌĢ": 2150,
      "áĬ³": 2151,
      "áº¹ÌģyÃ¬n": 2152,
      "ĠrÃŃ": 2153,
      "rÃ¬": 2154,
      "ĠáīłáĪ°": 2155,
      "oth": 2156,
      "Ġhad": 2157,
      "duc": 2158,
      "It": 2159,
      "ĠjÃ¡": 2160,
      "áīħáĪŃ": 2161,
      "ĠáĬŃáįįáĪĪ": 2162,
      "an.": 2163,
      "áī¥áĪ¨": 2164,
      "áĪĽáĭŃ": 2165,
      "umb": 2166,
      "áĪħáĪį": 2167,
      "ose": 2168,
      "alin": 2169,
      "ongo": 2170,
      "ĠNÃłÃ¬jÃŃrÃŃÃł.": 2171,
      "Ġodun": 2172,
      "Ġform": 2173,
      "Th": 2174,
      "ĠáĬłáĪŃ": 2175,
      "áĪĺáĪĪ": 2176,
      "áĪĿáĪħáĪŃáīµ": 2177,
      "cc": 2178,
      "Ġmaj": 2179,
      "Ġmá»įÌģ": 2180,
      "áº¹Ìģáº¹ÌĢ": 2181,
      "iá¹£áº¹Ìģ": 2182,
      "utar": 2183,
      "Ġsin": 2184,
      "Ġáīł19": 2185,
      "oto": 2186,
      "áĭŃáĭĪ": 2187,
      "áįĥ": 2188,
      "oi": 2189,
      "áīĦ": 2190,
      "ugaban": 2191,
      "3)": 2192,
      "ĠRe": 2193,
      "áĬķáĮįáĪĬáĭĿáĬĽ": 2194,
      "ĠPro": 2195,
      "gu": 2196,
      "áīµáį¢": 2197,
      "Ġhadi": 2198,
      "ĠInd": 2199,
      "ally": 2200,
      "ingere": 2201,
      "kun": 2202,
      "áĬķáĬĵ": 2203,
      "ĠbÃŃi": 2204,
      "eo": 2205,
      "uba": 2206,
      "Ġyawan": 2207,
      "Ġph": 2208,
      "ĠáĬ¥áĬķáĭ²áĪģáĪĿ": 2209,
      "Ġmji": 2210,
      "arr": 2211,
      "der": 2212,
      "Ġtak": 2213,
      "ĠáĪ½": 2214,
      "áīµáį£": 2215,
      "Ġsy": 2216,
      "áīĨáĮ£áĮłáĪŃ": 2217,
      "Ġáĭ¨áĮį": 2218,
      "áĪµáī³": 2219,
      "ther": 2220,
      "sc": 2221,
      "Ġáº¹gbáº¹Ìģ": 2222,
      "lis": 2223,
      "ĠmÃº": 2224,
      "-19": 2225,
      "gbÃ²": 2226,
      "ĠÃ¬já»įba": 2227,
      "Ġkwenye": 2228,
      "ĠkÃº": 2229,
      "ĠÆĻwa": 2230,
      "dÃŃn": 2231,
      "own": 2232,
      "4)": 2233,
      "org": 2234,
      "Ġáī¦áī³": 2235,
      "áĮįáĭļáĬłáī¥": 2236,
      "ĠÃ¨tÃ²": 2237,
      "Ã§": 2238,
      "ule": 2239,
      "En": 2240,
      "áĮģ": 2241,
      "áĭįáį¢": 2242,
      "ois": 2243,
      "Ã©es": 2244,
      "ĠÃĵ": 2245,
      "gbá»įÌģn": 2246,
      "ĠQ": 2247,
      "áī¥áĪ«": 2248,
      "iku": 2249,
      "ayi": 2250,
      "ĠNijeriya": 2251,
      "ĠáĬ¥.áĬ¤.áĬł.": 2252,
      "Ġmak": 2253,
      "ĠpÃ¨": 2254,
      "ĠayÃ©": 2255,
      "Ġdis": 2256,
      "áĮĪáĬķ": 2257,
      "owo": 2258,
      "ÙĦ": 2259,
      "ĠAward": 2260,
      "ĠáīłáīĢ": 2261,
      "Ġgbaj": 2262,
      "áĬŀáī½": 2263,
      "Ġpa": 2264,
      "ike": 2265,
      "Ġcont": 2266,
      "Ġilu": 2267,
      "ĠáĬĲáīłáĪ©": 2268,
      "ĠNigeria": 2269,
      "áĪµáĬĵ": 2270,
      "áĭ¬": 2271,
      "rÃ¨": 2272,
      "Ġ(S": 2273,
      "áĮĨáī½": 2274,
      "arÃŃ": 2275,
      "Ġ13": 2276,
      "wÃł": 2277,
      "áĭ°áīµ": 2278,
      "ayo": 2279,
      "Ġlugha": 2280,
      "Ġáī°áī¥": 2281,
      "áĪŃáĪµáī²áĭ«áĬķ": 2282,
      "illi": 2283,
      "áĮ¥áĬķ": 2284,
      "Ġzai": 2285,
      "9,": 2286,
      "akini": 2287,
      "Ġinah": 2288,
      "wamn": 2289,
      "amba": 2290,
      "Ġapp": 2291,
      "6)": 2292,
      "Ġwere": 2293,
      "Ġáīħáĭ±áĪµ": 2294,
      "7)": 2295,
      "áĭķáĪ«": 2296,
      "ĠJanu": 2297,
      "ĠBen": 2298,
      "Ġay": 2299,
      "ett": 2300,
      "áĮįáĭļáĬłáī¥áĪĶáĪŃ": 2301,
      "Ġcl": 2302,
      "áī¤áīµ": 2303,
      "ĠáĭŃáĮĪáĬĽ": 2304,
      "ww": 2305,
      "Ġsp": 2306,
      "³áĪµ": 2307,
      "Ġáĭ¨áĪµ": 2308,
      "Il": 2309,
      "mÃ¬n": 2310,
      "ĠáĪ¨": 2311,
      "ĠáĪĿáĬŃáĬķáĭ«": 2312,
      "Makala": 2313,
      "2)": 2314,
      "ĠKristo": 2315,
      "áĭ¶áī½": 2316,
      "Ġinahusu": 2317,
      "Ġaiki": 2318,
      "áĭįáĪĿ": 2319,
      "antar": 2320,
      "áĪº": 2321,
      "áĬŃáīµ": 2322,
      "áī£áĪĪáĭį": 2323,
      "Ã³Ã²": 2324,
      "Ġgr": 2325,
      "ĠáĬłáĪī": 2326,
      "ogo": 2327,
      "hari": 2328,
      "ĠWa": 2329,
      "ĠáĪĿáĬķ": 2330,
      "áĮ£áĪį": 2331,
      "ĠkÃ©k": 2332,
      "ze": 2333,
      "ĠlÃ©": 2334,
      "9.": 2335,
      "Ġshir": 2336,
      "orld": 2337,
      "fun": 2338,
      "inist": 2339,
      "áĮĪáĬĵ": 2340,
      "sÃłn": 2341,
      "ĠÃ¬pÃŃnláº¹ÌĢ": 2342,
      "ĠáĭŃáī£": 2343,
      "ĠJohn": 2344,
      "La": 2345,
      "Ġbu": 2346,
      "Ġamb": 2347,
      "uis": 2348,
      "áĪ«áĪį": 2349,
      "udu": 2350,
      "ĠprÃ©": 2351,
      "ĠkÃ©kerÃ©": 2352,
      "áĭŃáĬķ": 2353,
      "áĮĪáī£": 2354,
      "gin": 2355,
      "ĠÃ¬wÃ©": 2356,
      "ven": 2357,
      "dÃº": 2358,
      "fe": 2359,
      "Ġ(C": 2360,
      "Ġáĭ¨áĬĲáīłáĪ¨": 2361,
      "eth": 2362,
      "alia": 2363,
      "Ġhal": 2364,
      "áĬĴáĭ«": 2365,
      "idi": 2366,
      "ime": 2367,
      "ĠáĬŃáįįáĪį": 2368,
      "hemu": 2369,
      "ĠMay": 2370,
      "áĬĸáĪŃ": 2371,
      "gi": 2372,
      "mp": 2373,
      "ys": 2374,
      "Ġinda": 2375,
      "ĠAfirka": 2376,
      "áī±áĪĿ": 2377,
      "ĠSept": 2378,
      "ĠKristo).": 2379,
      "ĠNov": 2380,
      "Ġáĭ²": 2381,
      "Ġ190": 2382,
      "Ġpol": 2383,
      "Ġ(Baada": 2384,
      "Ġci": 2385,
      "ober": 2386,
      "ĠáĪŃ": 2387,
      "Ġmul": 2388,
      "tar": 2389,
      "tp": 2390,
      "imo": 2391,
      "Ã©n": 2392,
      "able": 2393,
      "ris": 2394,
      "Ç¹": 2395,
      "ĠáĬłáĬ«áī£áī¢": 2396,
      "áĪĪáī°": 2397,
      "ĠáĬ¥áĬķáĮį": 2398,
      "áĮ½áĪĲáįį": 2399,
      "áĭ°áĪ¨áĮĪ": 2400,
      "ĠAmeric": 2401,
      "ode": 2402,
      "Ġ[": 2403,
      "Ġáįĸ": 2404,
      "Ġtele.": 2405,
      "//": 2406,
      "Ġsam": 2407,
      "áīĢáīµ": 2408,
      "ebru": 2409,
      "Ġbiyu": 2410,
      "92": 2411,
      "ĠáĬłáīĨáĮ£áĮłáĪŃ": 2412,
      "ingi": 2413,
      "-áº¹ÌĢká»įÌģ": 2414,
      "ĠJul": 2415,
      "onn": 2416,
      "áĭŃáĬĵ": 2417,
      "ĠTanzania": 2418,
      "áĪįáīħ": 2419,
      "áĭ®áĬķ": 2420,
      "\",": 2421,
      "ates": 2422,
      "Ġ)": 2423,
      "ĠlâĢĻ": 2424,
      "Ġres": 2425,
      "bar": 2426,
      "Ã¬dÃ¬": 2427,
      "://": 2428,
      "vent": 2429,
      "Ġrel": 2430,
      "ĠáīłáĮį": 2431,
      "áĪ¨áĮį": 2432,
      "ĠáĬłáĬķáĭ±": 2433,
      "ute": 2434,
      "ĠkÃ³pa": 2435,
      "ase": 2436,
      "orth": 2437,
      "áĬķáĮĭ": 2438,
      "áĪŃáĭĿ": 2439,
      "áĮłáīĥ": 2440,
      "ĠáĮįáĭĽáīµ": 2441,
      "Ġcewa": 2442,
      "ĠáĬ¥áĭ«": 2443,
      "áįĪáĪŃ": 2444,
      "mar": 2445,
      "Ġwata": 2446,
      "old": 2447,
      "Ġzam": 2448,
      "abar": 2449,
      "Ġmwan": 2450,
      "ĠGre": 2451,
      "Ġ(M": 2452,
      "áĭµáĪŀ": 2453,
      "áī³áĪį": 2454,
      "Ġáº¹láº¹Ìģ": 2455,
      "áĮĪáĪĪ": 2456,
      "Ġwaka": 2457,
      "ĠVi": 2458,
      "Ġáīłáī¥": 2459,
      "umani": 2460,
      "áĪĿáĬķ": 2461,
      "Ġáīłáĭ°": 2462,
      "áĮİáĪŃ": 2463,
      "ĠáĬ¨áī°áĪŀáī½": 2464,
      "ĠÆĻwallon": 2465,
      "Ġkam": 2466,
      "ĠáĬłáĪĭ": 2467,
      "o-": 2468,
      "áįĢ": 2469,
      "ĠáĬ¥áĬķáĭ°áĪļ": 2470,
      "Ġkwan": 2471,
      "ĠâĢĺ": 2472,
      "Ġwana": 2473,
      "áĭ¨áīµ": 2474,
      "ĠGe": 2475,
      "ĠáĪ¶": 2476,
      "á»įÌģÃ¬dÃ¬": 2477,
      "áº¹Ìģrá»įÌģÃ¬dÃ¬": 2478,
      "ĠáĬĥáĭŃ": 2479,
      "rÃ³": 2480,
      "yp": 2481,
      "ĠKan": 2482,
      "kÃº": 2483,
      "tiv": 2484,
      "ĠÃ¡st": 2485,
      "Ġalso": 2486,
      "ĠlÃ¡ra": 2487,
      "ĠÃ¡stáº¹Ìģrá»įÌģÃ¬dÃ¬": 2488,
      "ĠáīłáįĬáīµ": 2489,
      "áĬĺ": 2490,
      "oll": 2491,
      "ĠáĭŃáī½": 2492,
      "ĠÃģ": 2493,
      "Ġall": 2494,
      "Ġrep": 2495,
      "ĠpÃł": 2496,
      "ĠRom": 2497,
      "áĪĽáĬĸ": 2498,
      "ayar": 2499,
      "bÃ¹n": 2500,
      "áīµáĪŃ": 2501,
      "oir": 2502,
      "Ġlangu": 2503,
      "ople": 2504,
      "Ġwal": 2505,
      "ĠáĪĽáĪŃ": 2506,
      "ĠáĪģáĪĪáīµ": 2507,
      "áĪĪáĭ«áĭ©": 2508,
      "Ã¡ra": 2509,
      "Ġmf": 2510,
      "9)": 2511,
      "ĠGh": 2512,
      "ain": 2513,
      "erumani": 2514,
      "ĠáĭŃáī³": 2515,
      "ĠDe": 2516,
      "He": 2517,
      "áĪı": 2518,
      "áĪĳ": 2519,
      "áĪ°áĪ«": 2520,
      "kÃ¡": 2521,
      "Ġduniya": 2522,
      "áī¥áĪµ": 2523,
      "ĠAt": 2524,
      "áīĢáĭį": 2525,
      "Ġmah": 2526,
      "isiwa": 2527,
      "ĠáĪ¸": 2528,
      "áĬ¬": 2529,
      "áĬŃáĪµ": 2530,
      "ĠáĭĺáĪĺ": 2531,
      "Ġwad": 2532,
      "en,": 2533,
      "aga": 2534,
      "ĠAustr": 2535,
      "áĮ£áĪĿ": 2536,
      "ĠáĪĿáĬķáĮ": 2537,
      "50": 2538,
      "ĠÆ": 2539,
      "ami'": 2540,
      "Ġana": 2541,
      "áĭĸ": 2542,
      "Ġáī´": 2543,
      "Ġdake": 2544,
      "Ġáĭ©": 2545,
      "entre": 2546,
      "oyin": 2547,
      "ĠSchool": 2548,
      "Wá»įÌģn": 2549,
      "osi": 2550,
      "ĠÃĪkÃ³": 2551,
      "8)": 2552,
      "ĠáĬłáīłáī£": 2553,
      "Ġsai": 2554,
      "ton": 2555,
      "Ġkafa": 2556,
      "Ġweng": 2557,
      "anen": 2558,
      "alla": 2559,
      "lex": 2560,
      "oya": 2561,
      "áĪĪáĭŃ": 2562,
      "sáº¹ÌĢ": 2563,
      "Ġake": 2564,
      "Ġ2019": 2565,
      "Éĵ": 2566,
      "áĪ«áīħ": 2567,
      "ette": 2568,
      "ĠáĪĮáĪĭ": 2569,
      "amoja": 2570,
      "áī£áĭŃ": 2571,
      "Ġ(an": 2572,
      "ĠPar": 2573,
      "pÃ¡": 2574,
      "Ġes": 2575,
      "Ġaut": 2576,
      "ĠIng": 2577,
      "Ġdaya": 2578,
      "ĠáĭĪáīħ": 2579,
      "ĠáĭĺáĪĺáĬĲ": 2580,
      "Ġbáº¹ÌĢráº¹ÌĢ": 2581,
      "ĠJihar": 2582,
      "usi": 2583,
      "ingereza": 2584,
      "ĠKing": 2585,
      "alme": 2586,
      "ho": 2587,
      "³áį": 2588,
      "áĪįáĮį": 2589,
      "son": 2590,
      "áĬķáį¡": 2591,
      "áĪĿáį£": 2592,
      "áĪ®áįĵ": 2593,
      "ĠáĭĵáĪĺáī³áīµ": 2594,
      "ork": 2595,
      "gr": 2596,
      "áĪĿáĪŃ": 2597,
      "ĠáĮ¦áĪŃáĬĲáīµ": 2598,
      "áĪĺáĪ¨": 2599,
      "ĠáĪĥáĭŃ": 2600,
      "áĪŃáĪĺáĬķ": 2601,
      "áĮįáī£": 2602,
      "Ġnd": 2603,
      "Ġipa": 2604,
      "ĠWar": 2605,
      "ĠBK": 2606,
      "ĠáĪµáĪ«": 2607,
      "áĪªáĬ«áĭĬ": 2608,
      "Ġbabban": 2609,
      "wai": 2610,
      "11": 2611,
      "Ġáĭ¨áĭį": 2612,
      "Ġáĭ¨áĭĵ": 2613,
      "ĠáĬ¨áĪļ": 2614,
      "ĠáĪµáĪŃ": 2615,
      "Ġáĭ¨áĪĺáĮĢáĪĺáĪªáĭ«": 2616,
      "jen": 2617,
      "wa,": 2618,
      "Ġwannan": 2619,
      "Ġhas": 2620,
      "iaka": 2621,
      "Ġut": 2622,
      "Ġra": 2623,
      "Ġkil": 2624,
      "áĮįáĪ«": 2625,
      "ĠFebru": 2626,
      "ĠáĪ²áĭ«": 2627,
      "tain": 2628,
      "ĠPr": 2629,
      "ashin": 2630,
      "Ġju": 2631,
      "ĠÃ¬dÃŃ": 2632,
      "ĠáĬłáĭŃáĬĲáīµ": 2633,
      "ĠGr": 2634,
      "katifu": 2635,
      "Ġgab": 2636,
      "ĠáĬłáĪ¨": 2637,
      "ĠgbÃł": 2638,
      "áĪĲáĬķáĪµ": 2639,
      "Ġjama": 2640,
      "Ġyar": 2641,
      "áĪĺáīµ": 2642,
      "Ġfirst": 2643,
      "áĪĭáĪĪ": 2644,
      "áĮłáĪ¨": 2645,
      "áĪįáĭµ": 2646,
      "als": 2647,
      "Ġká»įÌģ": 2648,
      "hine": 2649,
      "ĠáĬĲáīłáĪ¨áį¢": 2650,
      "ĠjÃ¹lá»į": 2651,
      "Ġtabi": 2652,
      "ziki": 2653,
      "ĠáĭĽ": 2654,
      "áĪŃáĭµ": 2655,
      "áº¹ÌģtÃ¬": 2656,
      "áīłáī¥": 2657,
      "ĠIpinle": 2658,
      "Ġkasa": 2659,
      "Ġparti": 2660,
      "Ġye": 2661,
      "form": 2662,
      "gl": 2663,
      "ĠplÃ¡n": 2664,
      "ĠOn": 2665,
      "ĠáĬ¨áĭļáĭ«": 2666,
      "eta": 2667,
      "lÃŃ": 2668,
      "áĬĲáĮĪáĪŃ": 2669,
      "Ġáį²áį±áį»áį": 2670,
      "ula": 2671,
      "afin": 2672,
      "ĠÃ¬gbÃłjÃ¡": 2673,
      "ĠKarne": 2674,
      "atin": 2675,
      "áįįáĪ«": 2676,
      "ĠáĬ¨áįįáī°áĬĽ": 2677,
      "ĠAc": 2678,
      "ĠáĬ¥áĪŃ": 2679,
      "Ġhukum": 2680,
      "fer": 2681,
      "áĭ°áĪį": 2682,
      "ĠáĭĪáĪŃ": 2683,
      "ĠIntern": 2684,
      "dÃł": 2685,
      "ĠáĬłáĭ²áĪµ": 2686,
      "pen": 2687,
      "sÃ¹": 2688,
      "ĠáĬĲáĮĪáĪ¥áī³áīµ": 2689,
      "fáº¹Ìģ": 2690,
      "Ġkim": 2691,
      "ĠáĪłáĪ": 2692,
      "Ġtáº¹Ìģ": 2693,
      "áĮĢáĪĺáĪŃáĭ«": 2694,
      "ĠáĪĮáĪİáī½": 2695,
      "ory": 2696,
      "ĠáĬ³áĪµ": 2697,
      "ĠáĬ¥áĮħ": 2698,
      "roup": 2699,
      "Ġits": 2700,
      "ĠplÃ¡náº¹ÌģtÃ¬": 2701,
      "Ġkab": 2702,
      "áĪĭáĪĿ": 2703,
      "agos": 2704,
      "má»įÌģ": 2705,
      "Ġina": 2706,
      "ĠMe": 2707,
      "Ġsehemu": 2708,
      "Ġgir": 2709,
      "ĠáĪĽáĪµ": 2710,
      "ugust": 2711,
      "ungu": 2712,
      "30": 2713,
      "str": 2714,
      "ĠáĪĺáĮł": 2715,
      "oso": 2716,
      "ÃĴ": 2717,
      "ĠáĬ©": 2718,
      "fÃł": 2719,
      "Ġkm": 2720,
      "Ġrec": 2721,
      "áĭĮ": 2722,
      "uke": 2723,
      "á¹£áº¹ÌĢ": 2724,
      "do": 2725,
      "ĠáĬłáįį": 2726,
      "ĠTur": 2727,
      "ĠÃ¡stáº¹Ìģrá»įÌģÃ¬dÃ¬.": 2728,
      "ublic": 2729,
      "ĠApr": 2730,
      "ĠdÃŃ": 2731,
      "jin": 2732,
      "pl": 2733,
      "®áī½": 2734,
      "áĪ¬áīµ": 2735,
      "ĠáĪĺáĪ°": 2736,
      "ĠáĪĿáĭµáĪŃ": 2737,
      "ĠmÃ©jÃ¬": 2738,
      "inc": 2739,
      "Ġtra": 2740,
      "áīłáĪĭ": 2741,
      "ĠáĪįáĭ©": 2742,
      "cha": 2743,
      "atun": 2744,
      "yn": 2745,
      "áĪªáĭİáī½": 2746,
      "áįĪáĪ¨áĬķ": 2747,
      "Ġyankin": 2748,
      "oss": 2749,
      "ive": 2750,
      "Ã´": 2751,
      "ony": 2752,
      "Ġ&": 2753,
      "Ġ(N": 2754,
      "ĠSe": 2755,
      "adu": 2756,
      "ĠEb": 2757,
      "Ġaá¹£": 2758,
      "Ġwatu": 2759,
      "áī³áĭŃ": 2760,
      "áī¶áĪµ": 2761,
      "Ġlakini": 2762,
      "Ġkamar": 2763,
      "oph": 2764,
      "áĬ¥áĪµ": 2765,
      "ĠJap": 2766,
      "áĭĵáīµ": 2767,
      "ĠáĭķáĪĪáīµ": 2768,
      "velop": 2769,
      "áº¸": 2770,
      "áĪįáį£": 2771,
      "ĠkejÃ¬": 2772,
      "Ġáĭľ": 2773,
      "anga": 2774,
      "Ġmkuu": 2775,
      "ogun": 2776,
      "ĠáĭĻ": 2777,
      "áĬ¨áĭļáĪħ": 2778,
      "annin": 2779,
      "ham": 2780,
      "eral": 2781,
      "áĪµáĪĪ": 2782,
      "Ġpad": 2783,
      "áī²áĬ«": 2784,
      "áĮ¨áĪĽáĪª": 2785,
      "ĠÆĻafa": 2786,
      "gÃ¹n": 2787,
      "Ġmiaka": 2788,
      "Ġcomme": 2789,
      "áĭ°áĭį": 2790,
      "áĭİáĪµ": 2791,
      "gion": 2792,
      "wu": 2793,
      "er.": 2794,
      "pá»į": 2795,
      "ta,": 2796,
      "ĠHe": 2797,
      "ĠorÃºká»į": 2798,
      "Ġsamu": 2799,
      "ĠáīłáĪŃ": 2800,
      "áįįáīµ": 2801,
      "vi": 2802,
      "áĬķáį£": 2803,
      "áĪĭáīħ": 2804,
      "nÃł": 2805,
      "Ġ2020": 2806,
      "rÃł": 2807,
      "anti": 2808,
      "Ġyin": 2809,
      "áĮ¢": 2810,
      "ĠáĬłáĭµáĪŃ": 2811,
      "ĠIlÃ©": 2812,
      "ĠgbajÃº": 2813,
      "Ġmon": 2814,
      "ĠáĪĽáĭķ": 2815,
      "igh": 2816,
      "wá»į": 2817,
      "áĪ¹": 2818,
      "Ġbáº¹Ìģáº¹ÌĢ": 2819,
      "áįĭáīµ": 2820,
      "Ġbut": 2821,
      "ora": 2822,
      "orun": 2823,
      "Ġáĭ«áĪµ": 2824,
      "Ġpamoja": 2825,
      "ĠÃ¬má»įÌĢ": 2826,
      "áĬ¨áĪĪ": 2827,
      "Ġtsak": 2828,
      "atur": 2829,
      "Ġpo": 2830,
      "ĠÃ¬tá»įÌģkasÃŃ": 2831,
      "Ya": 2832,
      "Ġtrans": 2833,
      "ena": 2834,
      "ashi": 2835,
      "tun": 2836,
      "rop": 2837,
      "Ġlit": 2838,
      "Ġdif": 2839,
      "ĠKe": 2840,
      "áĭ²áĭ«": 2841,
      "ĠáīĥáĪį": 2842,
      "ya.": 2843,
      "ģáĬķ": 2844,
      "áĪĭáĭĬ": 2845,
      "Ġáī¥áĪİ": 2846,
      "imi": 2847,
      "ĠáĬłáĪµáī°áĭ³": 2848,
      "ĠáĭĪáīħáīµ": 2849,
      "ision": 2850,
      "tÃ³": 2851,
      "ulo": 2852,
      "rÃŃn": 2853,
      "áīłáĪį": 2854,
      "ĠagbÃ¨": 2855,
      "fani": 2856,
      "ĠX": 2857,
      "áĬ¢áīµáĭ®áĮµáĭ«": 2858,
      "ĠMac": 2859,
      "áĪĭáĬŃ": 2860,
      "ĠnÃŃbi": 2861,
      "Ġduk": 2862,
      "Ġann": 2863,
      "áī«": 2864,
      "áĪĿáį¡": 2865,
      "ĠáĬ¨áĬĲ": 2866,
      "ĠOá¹£Ã¹": 2867,
      "ona": 2868,
      "¹¢": 2869,
      "Ġ(áĭ¨": 2870,
      "Ġul": 2871,
      "áī¨": 2872,
      "ĠáīµáĪĿáĪħáĪŃáīµ": 2873,
      "áĪĬáĭ«": 2874,
      "lÃ³gÃºn": 2875,
      "ĠwÃŃpÃ©": 2876,
      "áīłáĭļáĪħ": 2877,
      "áįĪáĭį": 2878,
      "Ġamba": 2879,
      "ree": 2880,
      "Ġmá»įÌĢ": 2881,
      "atic": 2882,
      "ĠáĬłáĪ«": 2883,
      "din": 2884,
      "umi": 2885,
      "tp://": 2886,
      "yá»į": 2887,
      "ular": 2888,
      "atar": 2889,
      "Ġcan": 2890,
      "ojÃº": 2891,
      "ya,": 2892,
      "Ġ(199": 2893,
      "ĠUnited": 2894,
      "Ġ(áĬ¨": 2895,
      "áīĢáĪĺ": 2896,
      "Ġáī£áĪħ": 2897,
      "Ġáĭ¨áī³": 2898,
      "Ġáį²áį": 2899,
      "Ġáī°áĪ«": 2900,
      "is,": 2901,
      "Ġ(m": 2902,
      "ĠPh": 2903,
      "Ġwasu": 2904,
      "Ġkup": 2905,
      "áī³áĭį": 2906,
      "áįĮ": 2907,
      "áĭ®áī½": 2908,
      "istoria": 2909,
      "aransa": 2910,
      "Ġmod": 2911,
      "Ġhave": 2912,
      "Ġnje": 2913,
      "ĠáĬ¨áĭļáĪħ": 2914,
      "áīĢáĪŃ": 2915,
      "Ġcent": 2916,
      "ude": 2917,
      "Les": 2918,
      "itu": 2919,
      "bin": 2920,
      "ĠáĪĦ": 2921,
      "áĪ½áĬķ": 2922,
      "Ġáĭ®áĪĲáĬķáĪµ": 2923,
      "rá»į": 2924,
      "ume": 2925,
      "owe": 2926,
      "ĠáĬ¨áĬłáĪ": 2927,
      "ĠÃłká»įÌģká»įÌģ": 2928,
      "omi": 2929,
      "uhamm": 2930,
      "eni": 2931,
      "Ġfin": 2932,
      "áīłáĪ«": 2933,
      "áĭİáī½áĬķ": 2934,
      "ĠáīłáĭĪ": 2935,
      "áĭŃáĭĪáīµ": 2936,
      "nu": 2937,
      "ĠáīłáĮ£áĪĿ": 2938,
      "áĪĽáīµ": 2939,
      "ĠBa": 2940,
      "Ġáº¹ni": 2941,
      "ÃĪ": 2942,
      "bÃ²": 2943,
      "2-": 2944,
      "-A": 2945,
      "áĮĬáĭľ": 2946,
      "ĠáĭŃáī³áĭĪ": 2947,
      "ĠChin": 2948,
      "ĠHar": 2949,
      "ech": 2950,
      "Ġind": 2951,
      "ĠáĬłáĪĽ": 2952,
      "Ġáī¥áĪŃ": 2953,
      "ĠPol": 2954,
      "mba": 2955,
      "pp": 2956,
      "Ø§": 2957,
      "áĪ«áĬķ": 2958,
      "Ġáį¡áį¡": 2959,
      "Ãłráº¹": 2960,
      ",000": 2961,
      "0)": 2962,
      "Ġpáº¹": 2963,
      "áīłáī°": 2964,
      "áĪ³áĭĬ": 2965,
      "ofin": 2966,
      "ĠCon": 2967,
      "hed": 2968,
      "Ġmany": 2969,
      "gÃ©": 2970,
      "áĬĸáĪµ": 2971,
      "Ġkal": 2972,
      "zini": 2973,
      "Ġdin": 2974,
      "áĭ°áĪĿ": 2975,
      "áĬĽáį¦": 2976,
      "tre": 2977,
      "áĪ«áĪ±": 2978,
      "ĠáĪĿáĬŃáĬķáĭ«áīµ": 2979,
      "Ġter": 2980,
      "-m": 2981,
      "lÃ²": 2982,
      "ĠáĬ£": 2983,
      "ĠGhana": 2984,
      "ĠAare": 2985,
      "erin": 2986,
      "áĪ³áī¥": 2987,
      "uko": 2988,
      "Ġaká»į": 2989,
      "áĬĲáĭį": 2990,
      "áĮĪáĪ©": 2991,
      "andishi": 2992,
      "ĠÂ«áĭ¨": 2993,
      "á¹£Ã¨lÃº": 2994,
      "ĠagbÃ¨gbÃ¨": 2995,
      "ero": 2996,
      "Ġlori": 2997,
      "ishwa": 2998,
      "Ġmutane": 2999,
      "ĠAng": 3000,
      "áī£áī¸áĭį": 3001,
      "ĠáĪ¥áĪ«": 3002,
      "him": 3003,
      "áĭĪáĭ°": 3004,
      "erv": 3005,
      "Ġs'": 3006,
      "ema": 3007,
      "ten": 3008,
      "Ġgarin": 3009,
      "ages": 3010,
      "áĭŃáīµ": 3011,
      "ĠmÃŃ": 3012,
      "láº¹": 3013,
      "ĠáĪ±": 3014,
      "áĬķáī²": 3015,
      "ĠNaijiria": 3016,
      "illiam": 3017,
      "ĠComm": 3018,
      "fÃŃ": 3019,
      "Ġáĭ¶": 3020,
      "ĠáĬłáīĢ": 3021,
      "ĠáĪĺáĪłáĪ¨": 3022,
      "ĠáĪĺáĮ½áĪĲáįį": 3023,
      "ĠAfrica": 3024,
      "gal": 3025,
      "ĠÃłmÃ¬": 3026,
      "áĭĲ": 3027,
      "Ġaikin": 3028,
      "ĠBe": 3029,
      "Ġpremi": 3030,
      "dÃ³": 3031,
      "Ġshugaban": 3032,
      "áĪįáĪµ": 3033,
      "ĠBur": 3034,
      "ĠáĬłáīµ": 3035,
      "Ġgwamn": 3036,
      "ĠáĬłáĪľáĪªáĬ«": 3037,
      "ĠáĭĪáĬķáĭµ": 3038,
      "ĠáĪĪáĬł": 3039,
      "áĬĸáĪ©": 3040,
      "ĠáĮ¥áīħáĪĿ": 3041,
      "áĮĪáĬĺáĭį": 3042,
      "Ġcin": 3043,
      "ĠPe": 3044,
      "Ġsiku": 3045,
      "ĠLagos": 3046,
      "Ġsec": 3047,
      "ĠAugust": 3048,
      "Ġfilm": 3049,
      "ĠáĪª": 3050,
      "Ġáī½": 3051,
      "Ġos": 3052,
      "Ġáĭ°áĪ¨áĮĥ": 3053,
      "Ġkai": 3054,
      "row": 3055,
      "Ġáĭ¨áĪħ": 3056,
      "Ġmakar": 3057,
      "Ġbec": 3058,
      "ĠáĪĨáĬĲáį¢": 3059,
      "chini": 3060,
      "Ġ11": 3061,
      "ĠáĬłáĭ«": 3062,
      "Ġeneo": 3063,
      "ĠáīĭáĬķáīĭáĭİáī½": 3064,
      "ĠSouth": 3065,
      "Ġpas": 3066,
      "Ġgid": 3067,
      "Ġhany": 3068,
      "áĭĪáĪ°": 3069,
      "ká»įÌĢá»įÌģ": 3070,
      "ĠÃŃ": 3071,
      "Ġag": 3072,
      "ident": 3073,
      "áįĲ": 3074,
      "Ã¬mÃ¹": 3075,
      "ĠáĬ¥áĮįáĪŃ": 3076,
      "áī¥áīµ": 3077,
      "ĠáĪĿáĪµ": 3078,
      "Ġáĭ¨áĬ¤": 3079,
      "ĠáĪ¥áĬĲ": 3080,
      "ĠáĪĽáĬķ": 3081,
      "áīĥáĪµ": 3082,
      "áĪĬáĬŃ": 3083,
      "ĠÉĹan": 3084,
      "Ġ189": 3085,
      "Ã³mÃ¬n": 3086,
      "us,": 3087,
      "ĠÃĮtá»įÌģkasÃŃ": 3088,
      "kazini": 3089,
      "áĬĻ": 3090,
      "áĪŃáĪµáī¶áĪµ": 3091,
      "ĠáĭĪáĬķáĭĿ": 3092,
      "Ġwakazi": 3093,
      "bre": 3094,
      "Ġwake": 3095,
      "akin": 3096,
      "ungo": 3097,
      "áĪĿáĬĲáīµ": 3098,
      "Ġáīłáī³": 3099,
      "Ġkwanza": 3100,
      "Ġ(18": 3101,
      "áĮ£áīµ": 3102,
      "its": 3103,
      "ĠKen": 3104,
      "áĪįáĮ£áĬķ": 3105,
      "Ġhasa": 3106,
      "ĠEur": 3107,
      "Ġcol": 3108,
      "Ġáī°áī¥áĪİ": 3109,
      "uti": 3110,
      "ami'ar": 3111,
      "unan": 3112,
      "áĭĭáīĤ": 3113,
      "hariki": 3114,
      "ani.": 3115,
      "score": 3116,
      "oke": 3117,
      "ĠáĪįáĮĨáī½": 3118,
      "wa.": 3119,
      "ĠIle": 3120,
      "eli": 3121,
      "ĠYork": 3122,
      "áĪĪáĬķ": 3123,
      "ĠáĬĲáīłáĪ©áį¢": 3124,
      "yÃ¡": 3125,
      "Ġkya": 3126,
      "unif": 3127,
      "amil": 3128,
      "ĠáĭĿáĪŃáĭĿ": 3129,
      "ashe": 3130,
      "ĠDec": 3131,
      "ĠBar": 3132,
      "Ġhai": 3133,
      "Ã²rÃ¹n": 3134,
      "ĠColle": 3135,
      "ĠCl": 3136,
      "tá»įÌĢ": 3137,
      "áĪįáĪĿ": 3138,
      "ĠáĮŃ": 3139,
      "ĠÃłwon": 3140,
      "ĠnÃ¡Ãł.": 3141,
      "ild": 3142,
      "ĠPl": 3143,
      "iji": 3144,
      "ism": 3145,
      "Ġá»įÌĢpá»įÌĢ": 3146,
      "áīŃ": 3147,
      "ĠáĬłáįĪ": 3148,
      "ikia": 3149,
      "Ġaux": 3150,
      "amo": 3151,
      "Ġlil": 3152,
      "ays": 3153,
      "Ġsup": 3154,
      "va": 3155,
      "ĠáĮįáī¥": 3156,
      "ĠRD1-": 3157,
      "25": 3158,
      "Ġact": 3159,
      "Ġsana": 3160,
      "ĠMag": 3161,
      "cent": 3162,
      "Ġ(oj": 3163,
      "uran": 3164,
      "rÃº": 3165,
      "áĪ®áĪµ": 3166,
      "ĠáĪĺáĬķáĮĪáĭµ": 3167,
      "ela": 3168,
      "áĮĪáĪ«": 3169,
      "áĪĭáĭį": 3170,
      "irin": 3171,
      "ĠyÃ³Ã²": 3172,
      "Ġbo": 3173,
      "ĠDa": 3174,
      "áĪĪáī²áĬ«": 3175,
      "Ġhak": 3176,
      "Ġtheir": 3177,
      "ative": 3178,
      "Ġáĭ¨áĬ¢": 3179,
      "âĢİ": 3180,
      "Ġáī¥áĪĶ": 3181,
      "Ġzaidi": 3182,
      "ĠAfrican": 3183,
      "ĠKáº¹": 3184,
      "ĠáĮ¥áĬĵáīµ": 3185,
      "olu": 3186,
      "ants": 3187,
      "Ġjina": 3188,
      "áĭĪáĪĪ": 3189,
      "áĭĪáī½": 3190,
      "ĠáĮ¥áĬķ": 3191,
      "Ġkubwa": 3192,
      "ies": 3193,
      "ĠáĪĺáĪŃ": 3194,
      "áĭĬáīµ": 3195,
      "áĮłáīħ": 3196,
      "-d": 3197,
      "oda": 3198,
      "red": 3199,
      "Ġnchini": 3200,
      "Ġpelu": 3201,
      "áĬ¨áīµ": 3202,
      "ĠáĭŃáī£áĪĭáĪįáį¢": 3203,
      "áĪµáįĭ": 3204,
      "Ġqu'": 3205,
      "ĠMal": 3206,
      "ĠsÃŃláº¹ÌĢ": 3207,
      "ĠÃ²á¹£": 3208,
      "áĬĶáī³": 3209,
      "han": 3210,
      "ĠMuhamm": 3211,
      "Ġnaa": 3212,
      "zaji": 3213,
      "hu": 3214,
      "Ġcar": 3215,
      "ĠDes": 3216,
      "ĠáĪ®": 3217,
      "ĠáĪĪáĪĿ": 3218,
      "áĭĺáĮĭ": 3219,
      "enc": 3220,
      "21": 3221,
      "áĪŁ": 3222,
      "ĠOs": 3223,
      "Ġtar": 3224,
      "ty": 3225,
      "Ġaj": 3226,
      "Ã©ri": 3227,
      "áĭĭáĬķ": 3228,
      "áĪĺáĬĵáĭĬ": 3229,
      "ĠáĪīáīĥáĪµ": 3230,
      "gan": 3231,
      "lin": 3232,
      "tim": 3233,
      "Ġáī°áĪ°": 3234,
      "áĪ¾": 3235,
      "áĪ¨áĪĿ": 3236,
      "ivyo": 3237,
      "Ġ(B": 3238,
      "Ġray": 3239,
      "Ġáīłáĭ¨": 3240,
      "imÃ¡": 3241,
      "Ġáĭ¨áĪķ": 3242,
      "akoso": 3243,
      "ood": 3244,
      "áĪĽáĬķ": 3245,
      "áĭķáĪ«áī¥": 3246,
      "Ġshine": 3247,
      "ĠPart": 3248,
      "Ġ(P": 3249,
      "orin": 3250,
      "ĠNigerian": 3251,
      "ĠÃłgbÃ©": 3252,
      "áº¹ÌĢáº¹Ìģ": 3253,
      "Ġ188": 3254,
      "ussi": 3255,
      "23": 3256,
      "Ġojo": 3257,
      "áįĪáĪį": 3258,
      "Ġáĭ¨áĬłáĪľáĪªáĬ«": 3259,
      "oibi": 3260,
      "Ġkir": 3261,
      "eshi": 3262,
      "bÃ¬nrin": 3263,
      "Ġáīłáĭĵ": 3264,
      "Ġthis": 3265,
      "ĠáīħáĪŃ": 3266,
      "ial": 3267,
      "ĠMata": 3268,
      "áįİáī½": 3269,
      "ĠáĬ¥áĬķáĮĤ": 3270,
      "Ġlat": 3271,
      "rod": 3272,
      "Ġigb": 3273,
      "Ġáĭ¨áĪļáĪĪáĭį": 3274,
      "Ġbas": 3275,
      "ĠáĬ¨áĬ¥": 3276,
      "Ġkungiyar": 3277,
      "iye": 3278,
      "báº¹ÌĢráº¹ÌĢ": 3279,
      "ĠáĮīáĭ³": 3280,
      "Ġ(ojoibi": 3281,
      "lah": 3282,
      "Ġdara": 3283,
      "Ã¹gbá»įÌģn": 3284,
      "ĠáĭĪáĭŃ": 3285,
      "ĠáĬŃáĪį": 3286,
      "Ã®": 3287,
      "ction": 3288,
      "Ġpop": 3289,
      "Ùħ": 3290,
      "Ġ(áīł": 3291,
      "áĬĲáĪ³": 3292,
      "ĠgÃŃ": 3293,
      "ĠilÃ©-áº¹ÌĢká»įÌģ": 3294,
      "Ġjir": 3295,
      "way": 3296,
      "ashen": 3297,
      "ĠBir": 3298,
      "pÃ²": 3299,
      "ĠIl": 3300,
      "ĠTr": 3301,
      "ĠáĬķáĮį": 3302,
      "yana": 3303,
      "ĠnÃŃnu": 3304,
      "ĠAmerican": 3305,
      "els": 3306,
      "ugu": 3307,
      "sÃ¬n": 3308,
      "Ġáĭ¨áīµ": 3309,
      "ĠáĮĮ": 3310,
      "ĠAnd": 3311,
      "ĠáĬ¥áĬķáĭ²áĪħ": 3312,
      "ĠáĭŃáī³áĭĪáīĥ": 3313,
      "ka,": 3314,
      "omb": 3315,
      "áĪİáīµ": 3316,
      "ĠáĭŃáīĢ": 3317,
      "ĠáīµáĬķ": 3318,
      "on.": 3319,
      "rÃ¡": 3320,
      "Ġamfani": 3321,
      "ĠAre": 3322,
      "áī¥áĪ¨áīµ": 3323,
      "ubu": 3324,
      "ĠÃ²un": 3325,
      "ock": 3326,
      "ĠáĪģáĪĪ": 3327,
      "ĠáįķáĪ¬": 3328,
      "jerumani": 3329,
      "Ġogun": 3330,
      "ĠáĪķáĭĿáī¥": 3331,
      "áĪµáĬķ": 3332,
      "ĠÃłkÃ³": 3333,
      "áĬŃáĪī": 3334,
      "áĭĪáĮ£": 3335,
      "ĠEl": 3336,
      "Ġáī³áĪªáĬ«áĭĬ": 3337,
      "Ġdur": 3338,
      "ĠUr": 3339,
      "ould": 3340,
      "Ġstr": 3341,
      "ĠWest": 3342,
      "ilu": 3343,
      "ĠáĪĺáĮ¨áĪ¨áĪ»": 3344,
      "ukan": 3345,
      "dÃ¹": 3346,
      "Ġgasar": 3347,
      "áĬĲáī±": 3348,
      "insi": 3349,
      "ĠdâĢĻ": 3350,
      "Ġfim": 3351,
      "ĠÐ": 3352,
      "go": 3353,
      "áĪĺáĭį": 3354,
      "áĪ¨áĪ°": 3355,
      "Ġmafi": 3356,
      "Ġone": 3357,
      "Ġshiga": 3358,
      "Ġother": 3359,
      "Ġper": 3360,
      "overn": 3361,
      "Ġ'yan": 3362,
      "endele": 3363,
      "Ã¢": 3364,
      "áĪŃáī²": 3365,
      "ĠáīłáĬĲ": 3366,
      "Ġ30": 3367,
      "toba": 3368,
      "que,": 3369,
      "ĠJanuary": 3370,
      "Ġáº¹láº¹ÌģbÃ¹n": 3371,
      "Ġbar": 3372,
      "bÃº": 3373,
      "ĠáĬĲáĭįáį¡áį¡": 3374,
      "ĠáĬĵáī¸áĭį": 3375,
      "áĭįáĪ®áįĵ": 3376,
      "itwa": 3377,
      "ĠáĭĿáĪŃáĭĿáĪŃ": 3378,
      "t,": 3379,
      "60": 3380,
      "en.": 3381,
      "ents": 3382,
      "ĠLond": 3383,
      "ĠAmur": 3384,
      "Ġagbe": 3385,
      "áīłáĪ©áīµ": 3386,
      "ĠJos": 3387,
      "Ġ25": 3388,
      "anÃ§": 3389,
      "¶áį": 3390,
      "áĬ¨áī°áĪĽ": 3391,
      "alisar": 3392,
      "ĠjÃ¡de": 3393,
      "áĪĺáĭµ": 3394,
      "yl": 3395,
      "áī°áĬķ": 3396,
      "kÃ¹nrin": 3397,
      "Ġcour": 3398,
      "Ġinter": 3399,
      "Mwaka": 3400,
      "Ġsiya": 3401,
      "II": 3402,
      "le,": 3403,
      "áĬĵáī¸áĭį": 3404,
      "okana": 3405,
      "ĠáīłáĬ©": 3406,
      "ences": 3407,
      "ĠEd": 3408,
      "eno": 3409,
      "iation": 3410,
      "ĠWorld": 3411,
      "áĬĵáĪįáį¢": 3412,
      "ĠáĮĬ": 3413,
      "áĪĺáĪį": 3414,
      "Ġáįĭ": 3415,
      "ĠáĪģáĬĶáī³": 3416,
      "rÃ²yÃ¬n": 3417,
      "Ġáº¸ÌĢ": 3418,
      "áī¤áī°": 3419,
      "ĠsinimÃ¡": 3420,
      "gar": 3421,
      "áĪ«áĪ²": 3422,
      "Ġgaba": 3423,
      "ĠEm": 3424,
      "Ġáĭ¨áĬ¥áĪµ": 3425,
      "áĮĦ": 3426,
      "Ġáī»": 3427,
      "esi": 3428,
      "dom": 3429,
      "ĠáĬĲáĮ»": 3430,
      "ection": 3431,
      "Ġtarehe": 3432,
      "ĠfÃŃÃ¬mÃ¹": 3433,
      "ĠpadÃł": 3434,
      "22": 3435,
      "ku": 3436,
      "Kati": 3437,
      "Ġáī±": 3438,
      "ĠojÃº": 3439,
      "áĪħáĬķ": 3440,
      "ĠgbajÃºmá»įÌĢ": 3441,
      "hel": 3442,
      "ach": 3443,
      "ilaya": 3444,
      "ron": 3445,
      "áĭ«áĭĬ": 3446,
      "áĪĪáī½": 3447,
      "áĪĪáĪĽ": 3448,
      "ĠáĪĺáĪįáĬŃ": 3449,
      "Ġincl": 3450,
      "Ġpáº¹lu": 3451,
      "Ġ*": 3452,
      "ĠBo": 3453,
      "ĠáĮįáĭµáĪĿ": 3454,
      "áĪ¶áī½": 3455,
      "ĠáĪļáĬĴ": 3456,
      "Ġ(d": 3457,
      "Am": 3458,
      "wood": 3459,
      "Ġal'": 3460,
      "Ġalif": 3461,
      "láº¹ÌĢ-Ã¨dÃ¨": 3462,
      "ĠáįĪáĪŃ": 3463,
      "...": 3464,
      "wÃ¡jÃº": 3465,
      "80": 3466,
      "urg": 3467,
      "oire": 3468,
      "Ġbay": 3469,
      "iga": 3470,
      "áĭļáīĥ": 3471,
      "Ġsannan": 3472,
      "Ġwakati": 3473,
      "Ġum": 3474,
      "ĠTar": 3475,
      "cess": 3476,
      "enda": 3477,
      "Ġijoba": 3478,
      "ĠáĬŃáĪŃáĪµáī²áĭ«áĬķ": 3479,
      "ĠÆĻar": 3480,
      "Un": 3481,
      "Ġ2000": 3482,
      "ĠlÃ¡Ãł": 3483,
      "áĬĵáĬķ": 3484,
      "amin": 3485,
      "áĭĭáĬĵ": 3486,
      "iste": 3487,
      "ĠÃ¬tÃłn": 3488,
      "ĠáĬłáĪĺáīµ": 3489,
      "Ġáĭ¨áī£": 3490,
      "Ġpat": 3491,
      "ĠáĬĲáĮĪáĪ®áī½": 3492,
      "ĠOktoba": 3493,
      "ĠState": 3494,
      "ĠwÃ³n": 3495,
      "Ġráº¹ÌĢ.": 3496,
      "áĪģáĬķ": 3497,
      "áī´áĭİáĪµ": 3498,
      "áº¹ráº¹": 3499,
      "áĬ¸": 3500,
      "Ġáīłáĭį": 3501,
      "ĠKas": 3502,
      "Ġáī¢áĪĨáĬķ": 3503,
      "cce": 3504,
      "ĠCar": 3505,
      "91": 3506,
      "Ġsub": 3507,
      "ĠÃłÃ¬": 3508,
      "ĠáĭĺáĪŃ": 3509,
      "ier": 3510,
      "undi": 3511,
      "ĠNational": 3512,
      "uf": 3513,
      "ÃłÃł": 3514,
      "ĠáĭŃáĪĺáĪµ": 3515,
      "á¹£u": 3516,
      "Ġdeux": 3517,
      "áī»áī¸áĭį": 3518,
      "aux": 3519,
      "Ġáĭ¨áĪĽáĭŃ": 3520,
      "ĠSp": 3521,
      "sib": 3522,
      "ĠSeptember": 3523,
      "Ġtáº¹": 3524,
      "tis": 3525,
      "Ġl'Ã©": 3526,
      "áĮĪáĭ°": 3527,
      "Ġge": 3528,
      "Ġáĭ«áĪħáĪį": 3529,
      "ĠáĭŃáĮĪáĬĽáĪįáį¢": 3530,
      "ĠHaus": 3531,
      "ĠdÃ©p": 3532,
      "áĪĤ": 3533,
      "Ġtro": 3534,
      "Ġlar": 3535,
      "ĠáĭŃáĪħáĪĿ": 3536,
      "ĠMaj": 3537,
      "áīłáĬł": 3538,
      "Ġáįª": 3539,
      "ĠÃ¬p": 3540,
      "bÃŃláº¹ÌĢ": 3541,
      "cip": 3542,
      "ĠáĪ¦": 3543,
      "ĠáĭŃáĪĨ": 3544,
      "ĠáīłáĪĻ": 3545,
      "Ġwho": 3546,
      "ĠáĭµáĪŃáĮħ": 3547,
      "ĠMut": 3548,
      "al,": 3549,
      "erb": 3550,
      "ury": 3551,
      "ikali": 3552,
      "gbá»įÌĢn": 3553,
      "Ġmara": 3554,
      "Ġ(F": 3555,
      "Ġras": 3556,
      "icha": 3557,
      "haribi": 3558,
      "áįĶ": 3559,
      "áĮłáĭį": 3560,
      "áī·áĪįáį¢": 3561,
      "ĠDecember": 3562,
      "-M": 3563,
      "kwa": 3564,
      "áĮĢáĪŃáĪĺáĬķ": 3565,
      "40": 3566,
      "ĠáĬ¡": 3567,
      "Ġpá»įÌĢ": 3568,
      "áĪĺáĮ£": 3569,
      "ĠáĬ¥áĬĲ": 3570,
      "Ġjuu": 3571,
      "ely": 3572,
      "áĬ¥áĬķáĮįáĪĬáĭĿáĬĽ": 3573,
      "lá»įpá»įÌĢ": 3574,
      "cep": 3575,
      "Ġjama'a": 3576,
      "Ġco": 3577,
      "ukum": 3578,
      "Ġkáº¹Ìģ": 3579,
      "ĠáĪĺáĮĢáĪĺáĪŃáĭ«": 3580,
      "á¹£i": 3581,
      "Ġmais": 3582,
      "shen": 3583,
      "Ġdo": 3584,
      "-áĬł": 3585,
      "ĠáĭŃáĭĺ": 3586,
      "áįĪáĮ¥": 3587,
      "iro": 3588,
      "w.": 3589,
      "Ġ1.": 3590,
      "Ġamma": 3591,
      "Ġses": 3592,
      "Ġgu": 3593,
      "ĠBab": 3594,
      "ĠInternational": 3595,
      "Ġ21": 3596,
      "ĠáĪĿáĬķáĪĿ": 3597,
      "ĠáĪĿáĬķáĮ®áī½": 3598,
      "ves": 3599,
      "hm": 3600,
      "Ġdig": 3601,
      "ĠáīłáĪ½": 3602,
      "Ġiye": 3603,
      "onom": 3604,
      "Ġbeen": 3605,
      "rÃ¬n": 3606,
      "riti": 3607,
      "áĪĽáĬĸáīµ": 3608,
      "lÃ¬": 3609,
      "tu": 3610,
      "run": 3611,
      "áĪ·": 3612,
      "áĬķáĭ±": 3613,
      "áĪĺáĪ°": 3614,
      "ĠáĪĿáĪŃ": 3615,
      "ĠUf": 3616,
      "Ġolos": 3617,
      "Ġáĭĭáī¢": 3618,
      "ĠKus": 3619,
      "ĠWilliam": 3620,
      "áĪĭáĪ´": 3621,
      "Ġvi": 3622,
      "ĠNajeriya.": 3623,
      "Ġsc": 3624,
      "áĬķáĭ°": 3625,
      "ĠáĪł": 3626,
      "áĮĪáĪį": 3627,
      "Ġáĭ¨áĬ«": 3628,
      "Ġáĭ¨áī°áĪ°": 3629,
      "ĠáĭŃáĪħáĬķ": 3630,
      "áĬ¥áĬķáĭ°": 3631,
      "ĠFil": 3632,
      "Ġ23": 3633,
      "ayen": 3634,
      "Ġáº¹ÌĢyÃł": 3635,
      "·áį": 3636,
      "áĬŃáĪŃ": 3637,
      "ĠNe": 3638,
      "okea": 3639,
      "áīłáĪĪ": 3640,
      "urin": 3641,
      "ick": 3642,
      "thi": 3643,
      "iláº¹": 3644,
      "ĠáĪĺáĪĨáĬĳ": 3645,
      "ĠOrÃŃ": 3646,
      "Ġkaratun": 3647,
      "ĠinÃº": 3648,
      "ĠsÃ¡": 3649,
      "Ã¡Ã¬": 3650,
      "Ġili": 3651,
      "áīłáĪĺ": 3652,
      "ĠUjerumani": 3653,
      "Ġpers": 3654,
      "ĠáĮ½áĪĳ": 3655,
      "ĠáĪĽáĪŃáīĨ": 3656,
      "Ġ100": 3657,
      "omon": 3658,
      "Ãī": 3659,
      "arch": 3660,
      "as,": 3661,
      "hip": 3662,
      "70": 3663,
      "ed.": 3664,
      "ĠáĪ¥áĪŃáĭĪ": 3665,
      "ĠáĪµáĪĻ": 3666,
      "ation,": 3667,
      "Ġsan": 3668,
      "ograph": 3669,
      "ĠáĮłáĪ": 3670,
      "ĠáĪĺáĭµ": 3671,
      "umo": 3672,
      "áĭ³áĪŃ": 3673,
      "ĠáĪłáĪ«": 3674,
      "Ġexp": 3675,
      "Ġne,": 3676,
      "Ġri": 3677,
      "ger": 3678,
      "ology": 3679,
      "rÃ¡n": 3680,
      "ĠáĬħ": 3681,
      "áĭ¨áĪ±": 3682,
      "imbo": 3683,
      "1892": 3684,
      "Ġshekaru": 3685,
      "áĭ¨áĪĿ": 3686,
      "ĠÃĢÃłráº¹": 3687,
      "Ġáĭ°áĪ´": 3688,
      "Ġsyst": 3689,
      "imin": 3690,
      "Ġere": 3691,
      "ĠáĪĤ": 3692,
      "ĠChar": 3693,
      "ĠáĬłáĪ³": 3694,
      "Ġbaya": 3695,
      "ĠagbÃ¡": 3696,
      "Ġbuga": 3697,
      "-s": 3698,
      "Ġif": 3699,
      "yy": 3700,
      "áĪĭáĪĽ": 3701,
      "Ġáĭ¨áĪ¥": 3702,
      "ĠáĪĿáĪįáĬŃ": 3703,
      "ĠÃ©t": 3704,
      "wi": 3705,
      "ÙĬ": 3706,
      "áĬĵáĭĬ": 3707,
      "Ġhanyar": 3708,
      "Ã³mÃ¬nÃł": 3709,
      "adin": 3710,
      "Ġmap": 3711,
      "Ġkif": 3712,
      "Ġáį¤": 3713,
      "áĭļáĪģ": 3714,
      "Ġá¹£ÃŃ": 3715,
      "Ġá¹£iá¹£áº¹Ìģ": 3716,
      "áįĪáĪ¨áĬķáĪ³áĭŃ": 3717,
      "Ġ(T": 3718,
      "Ġilikuwa": 3719,
      "Ġabin": 3720,
      "glish": 3721,
      "ĠÃłgbÃł": 3722,
      "urn": 3723,
      "isho": 3724,
      "anzu": 3725,
      "-I": 3726,
      "áĪ¡": 3727,
      "ĠOb": 3728,
      "Ġne.": 3729,
      "ĠáĪĺáĪª": 3730,
      "ĠáĭŃáĪ°": 3731,
      "torÃŃ": 3732,
      "-i": 3733,
      "ted": 3734,
      "ĠEbun": 3735,
      "ancin": 3736,
      "Ġkn": 3737,
      "áĪ¯": 3738,
      "ĠáĬĴ": 3739,
      "ĠáĬĸ": 3740,
      "ĠáĭĪáĪ¨áĭ³": 3741,
      "ĠáĭĪáĮĪáĬķ": 3742,
      "ani,": 3743,
      "ĠáĬłáĪĪáīĥ": 3744,
      "Ġmal": 3745,
      "Ġ24": 3746,
      "Ġupande": 3747,
      "dÃ²": 3748,
      "igi": 3749,
      "áĭķáĪį": 3750,
      "Ġd'un": 3751,
      "áĪłáĪ«": 3752,
      "ĠáĮħ": 3753,
      "Ġwenye": 3754,
      "ĠKis": 3755,
      "Ġentre": 3756,
      "ĠrÃ¨": 3757,
      "okin": 3758,
      "báº¹ÌĢ": 3759,
      "sÃŃláº¹ÌĢ": 3760,
      "aid": 3761,
      "Ar": 3762,
      "cial": 3763,
      "t.": 3764,
      "orm": 3765,
      "ĠáĬłáĪ¸": 3766,
      "ĠPres": 3767,
      "Kwa": 3768,
      "áĪĪáī½áį¢": 3769,
      "rib": 3770,
      "ĠáĭķáĪĪ": 3771,
      "Ġused": 3772,
      "gbon": 3773,
      "eph": 3774,
      "ctober": 3775,
      "Ġ1,": 3776,
      "ĠFrance": 3777,
      "áĭĳ": 3778,
      "ĠUs": 3779,
      "áī¶áī½áĬķ": 3780,
      "ĠáĪ´áīµ": 3781,
      "tional": 3782,
      "Ġáĭ¨áĭĺ": 3783,
      "ĠáĬłáĮ¥": 3784,
      "lÃ©wÃ²": 3785,
      "áĮįáī¥áĮ½": 3786,
      "24": 3787,
      "Ġnan": 3788,
      "Ġ(I": 3789,
      "Ġakan": 3790,
      "uss": 3791,
      "áĪĺáĪ«": 3792,
      "áĮĪáī¥": 3793,
      "Ġáī³áĭĭáīĤ": 3794,
      "Ġáīłáī°áĪĪáĭŃ": 3795,
      "ÙĨ": 3796,
      "ĠPort": 3797,
      "As": 3798,
      "ĠáĪº": 3799,
      "ĠáĬ¥áĭį": 3800,
      "áĮĪáīł": 3801,
      "áĭ²áĪħ": 3802,
      "áĬ®áī½": 3803,
      "rodha": 3804,
      "Ġher": 3805,
      "Ġbaada": 3806,
      "anni": 3807,
      "áĮ¦áĪŃ": 3808,
      "Ġwá»į": 3809,
      "Ġhada": 3810,
      "ĠáīłáĪĮ": 3811,
      "Ġolu": 3812,
      "ĠáĬŃáįįáĪĭ": 3813,
      "ĠKusini": 3814,
      "kÃ¹": 3815,
      "oot": 3816,
      "ĠáīłáĮ¥": 3817,
      "ĠTs": 3818,
      "ĠOgun": 3819,
      "ing,": 3820,
      "áĪ°áĬķ": 3821,
      "ĠáĬłáĭŃáĭ°": 3822,
      "Ġinto": 3823,
      "Ġmp": 3824,
      "ĠUm": 3825,
      "omo": 3826,
      "áĬ¹": 3827,
      "Ġláº¹ÌģyÃ¬n": 3828,
      "ĠáĬłáĭ°": 3829,
      "áĪ³áī¸áĭį": 3830,
      "Ġeniyan": 3831,
      "28": 3832,
      "ife": 3833,
      "Ġtsakanin": 3834,
      "ako": 3835,
      "lam": 3836,
      "ĠgÃŃga": 3837,
      "ĠTi": 3838,
      "ĠJe": 3839,
      "ĠNa": 3840,
      "ĠbÃł": 3841,
      "ĠáīĢáĮ¥": 3842,
      "ove": 3843,
      "Ġkarne": 3844,
      "ures": 3845,
      "ĠkÃ¡": 3846,
      "Ġlin": 3847,
      "ĠáīłáĪģ": 3848,
      "áįĪáĪµ": 3849,
      "áĪķáĪŃ": 3850,
      "ires": 3851,
      "áįĳ": 3852,
      "áĪĺáī±": 3853,
      "áĪ¨áī¥": 3854,
      "áĮ¥áĪ¨": 3855,
      "Ġoloselu": 3856,
      "Ġtit": 3857,
      "ĠIS": 3858,
      "oli": 3859,
      "áĭµáĪ¨áĮį": 3860,
      "ĠKwa": 3861,
      "abe": 3862,
      "-Ãł": 3863,
      "fanin": 3864,
      "ĠáĪ»": 3865,
      "Ġrub": 3866,
      "áįĪáīµ": 3867,
      "áĪĿáĪħáĪŃ": 3868,
      "ĠáĬ¥áĬķáĮįáĪĬáĭĿ": 3869,
      "Ġkad": 3870,
      "indi": 3871,
      "ĠCity": 3872,
      "ģáĬĳ": 3873,
      "áĮłáĪ©": 3874,
      "ĠáĬłáĮĪáĪįáĮį": 3875,
      "Ġprin": 3876,
      "ĠhaÉĹ": 3877,
      "wani": 3878,
      "ĠNovember": 3879,
      "ĠmÃ¬ÃŃ": 3880,
      "áĪ¨áĮĭ": 3881,
      "ĠáĬ¥áĭ¨áī°": 3882,
      "in.": 3883,
      "Ġchini": 3884,
      "ĠFebruary": 3885,
      "ĠNorth": 3886,
      "adem": 3887,
      "áĮłáĬĵ": 3888,
      "ĠolÃ³rin": 3889,
      "mÃº": 3890,
      "Ġht": 3891,
      "ĠSo": 3892,
      "á»įÌģá»įÌĢ": 3893,
      "Ġwork": 3894,
      "Ġmaso": 3895,
      "Ġiliy": 3896,
      "Ġji": 3897,
      "29": 3898,
      "ral": 3899,
      "áĬĹ": 3900,
      "Ġá»įÌĢkan": 3901,
      "ĠÃī": 3902,
      "ĠAde": 3903,
      "ĠKam": 3904,
      "ĠÃ©c": 3905,
      "aifa": 3906,
      "Ã©,": 3907,
      "báº¹Ìģ": 3908,
      "dÃłn": 3909,
      "á»įÌĢrá»įÌĢ": 3910,
      "Ġprop": 3911,
      "âĢº": 3912,
      "ered": 3913,
      "Ġise": 3914,
      "Ġten": 3915,
      "Ġdir": 3916,
      "Ġ(K": 3917,
      "Ġali": 3918,
      "ta.": 3919,
      "Ġer": 3920,
      "ĠáĬ¥áĬĲáĭļáĪħ": 3921,
      "áĭ°áĮį": 3922,
      "koa": 3923,
      "ĠmÃ¬ÃŃrÃłn": 3924,
      "Ġmad": 3925,
      "áĬĥ": 3926,
      "áī£áĭĬ": 3927,
      "ĠAss": 3928,
      "gÃ¡": 3929,
      "27": 3930,
      "pas": 3931,
      "áį²áį": 3932,
      "tive": 3933,
      "ĠáĪĽáī´áĭİáĪµ": 3934,
      "ĠilÃ©-": 3935,
      "Ġtari": 3936,
      "ĠJami'ar": 3937,
      "Ġpres": 3938,
      "ĠMed": 3939,
      "ĠParty": 3940,
      "´áį": 3941,
      "ĠáĬ¬": 3942,
      "áī½áĭį": 3943,
      "ĠÃ¬gb": 3944,
      "Ġigba": 3945,
      "osti": 3946,
      "ĠáĪµáīµ": 3947,
      "Ġáĭįáĭµ": 3948,
      "áĪ±áĪĿ": 3949,
      "ĠobÃ¬nrin": 3950,
      "hili": 3951,
      "ĠRep": 3952,
      "ikwa": 3953,
      "iyya": 3954,
      "ĪáĪĿ": 3955,
      "Ġáĭ´": 3956,
      "Ġhim": 3957,
      "áĮĭáĪį": 3958,
      "yd": 3959,
      "ander": 3960,
      "Ġoffic": 3961,
      "fÃ©r": 3962,
      "Ġsama": 3963,
      "Ġafter": 3964,
      "ĠIngil": 3965,
      ")áį£": 3966,
      "ĠáĪĺáĬĲ": 3967,
      "ĠViungo": 3968,
      "ĠáĭķáĪĪáī³áīµ": 3969,
      "-C": 3970,
      "alimb": 3971,
      "ĠMad": 3972,
      "ĠáĪĺáĭĿ": 3973,
      "áĪ«áĪīáį¢": 3974,
      "auti": 3975,
      "áĪŃáĭ«áĪĿ": 3976,
      "26": 3977,
      "BC": 3978,
      "par": 3979,
      "Ġd'une": 3980,
      "Ġuh": 3981,
      "alimbali": 3982,
      "'est": 3983,
      "stit": 3984,
      "Ġmaka": 3985,
      "Ġkuna": 3986,
      "áĭ¨áĬł": 3987,
      "Ġá¹£Ãł": 3988,
      "dÃºgbÃ²": 3989,
      "ved": 3990,
      "Ġmbalimbali": 3991,
      "BN": 3992,
      "dá»įÌĢ": 3993,
      "Ġkik": 3994,
      "Ġáį³áį": 3995,
      "áįĵáĬķ": 3996,
      "ĠTa": 3997,
      "ingine": 3998,
      "ansa": 3999,
      "ĠÃ¬l": 4000,
      "ĠipÃ²": 4001,
      "anÃ§ais": 4002,
      "-S": 4003,
      "jáº¹ÌĢ": 4004,
      "áĮĪáĭį": 4005,
      "ĠáĮ¥áĬķáī³áĭĬ": 4006,
      "ĠShe": 4007,
      "aut": 4008,
      "Ġmwandishi": 4009,
      "Ġ(D": 4010,
      "Ġgame": 4011,
      "aribu": 4012,
      "ĠMor": 4013,
      "ĠáīĢáĬĵáīµ": 4014,
      "ambo": 4015,
      "78": 4016,
      "aren": 4017,
      "oloni": 4018,
      "ĠDuniya": 4019,
      "ers,": 4020,
      "90": 4021,
      "Ġtáº¹ÌĢ": 4022,
      "áĮĪáĪª": 4023,
      "Ġáĭ¨áĪĻ": 4024,
      "ĠáĬłáĪģáĬķ": 4025,
      "áĭ®áĪŃ": 4026,
      "ĠAlakoso": 4027,
      "sÃ¬kÃ²": 4028,
      "Ġlá»įÌģwá»įÌģ": 4029,
      "Ġfe": 4030,
      "ĠWak": 4031,
      "phi": 4032,
      "Ġsome": 4033,
      "unci": 4034,
      "Ġáīł18": 4035,
      "áĪĽáī½": 4036,
      "áĭ³áĪĿ": 4037,
      "áĪ©áīµ": 4038,
      "tÃłn": 4039,
      "ĠKem": 4040,
      "agun": 4041,
      "Ġpla": 4042,
      "Ġproduc": 4043,
      "ambar": 4044,
      "ĠAbd": 4045,
      "ĠBank": 4046,
      "ley": 4047,
      "Ġdist": 4048,
      "Ġdomin": 4049,
      "ĠáĭĵáĪĪáĪĿ": 4050,
      "ĠáīłáĬłáĬķáĭµ": 4051,
      "Ġlá»įÌģdÃºn": 4052,
      "ĠSal": 4053,
      "ulation": 4054,
      "Ġkud": 4055,
      "Ġsami": 4056,
      "Ġmost": 4057,
      "eneo": 4058,
      "ĠUg": 4059,
      "áĭ®áĪµ": 4060,
      "áĪ»áĭİáī½": 4061,
      "áī»áĭŃáĬĵ": 4062,
      "ĠáĪŀáīµ": 4063,
      "áĪŃáĪµáī²áĭ«": 4064,
      "ĠáįĵáĪŃáī²": 4065,
      "Ġtab": 4066,
      "ject": 4067,
      "Ġtake": 4068,
      "ount": 4069,
      "ÙĪ": 4070,
      "takatifu": 4071,
      "Ġ(198": 4072,
      "co": 4073,
      "ements": 4074,
      "ĠMil": 4075,
      "ics": 4076,
      "hÃ¹n": 4077,
      "áįĦ": 4078,
      "áĪĽáĪŃ": 4079,
      "Ġ28": 4080,
      "ĠáĭĪáĪ¨": 4081,
      "áĭĪáĪŃ": 4082,
      "áįĪáĪĪ": 4083,
      "Ġtáº¹Ìģláº¹ÌĢ": 4084,
      "ĠAp": 4085,
      "ourn": 4086,
      "Ġmuh": 4087,
      "Ġáīłáīµ": 4088,
      "Ġwacce": 4089,
      "áī³áī¸áĭįáĬķ": 4090,
      "ĠáĬłáĬķáĭ³": 4091,
      "Ġsaboda": 4092,
      "Ã©rÃ©": 4093,
      "Ġhiyo": 4094,
      "min": 4095,
      "áĪĵ": 4096,
      "áĪĪáī¥": 4097,
      "ature": 4098,
      "Ġtwo": 4099,
      "umia": 4100,
      "ĠáĪĺáĬķáĮįáĪµáīµ": 4101,
      "arly": 4102,
      "Ġsak": 4103,
      "www.": 4104,
      "kÃŃ": 4105,
      "ĠÃ¬gbÃ©": 4106,
      "ery": 4107,
      "ĠPet": 4108,
      "Ð°": 4109,
      "áĮ¹": 4110,
      "áī£áĪŃ": 4111,
      "gbegbe": 4112,
      "tÃłkÃ¬": 4113,
      "ĠÃģf": 4114,
      "áĭ¨áĪ±áĪµ": 4115,
      "Ġsign": 4116,
      "oyÃ¨": 4117,
      "Ġkwamba": 4118,
      "isp": 4119,
      "imp": 4120,
      "ĠAlex": 4121,
      "Ġfáº¹Ìģ": 4122,
      "ĠNÃŃ": 4123,
      "ĠáĬ¥áĬķáĪµ": 4124,
      "Ġáī¥áĪĪáĭį": 4125,
      "Ġáĭ°áī¡áī¥": 4126,
      "Ġagbegbe": 4127,
      "-O": 4128,
      "ĠKad": 4129,
      "Ġgen": 4130,
      "Katika": 4131,
      "áĪįáĭ°": 4132,
      "ĠolÃº": 4133,
      "unifÃ¡": 4134,
      "3-": 4135,
      "Ġgroup": 4136,
      "ĠEx": 4137,
      "ĠÎ": 4138,
      "Ġsamar": 4139,
      "enne": 4140,
      "jÃ²": 4141,
      "áį¡áĭ¨": 4142,
      "Ġiá¹£": 4143,
      "ĠAbu": 4144,
      "Ġkuf": 4145,
      "Ġass": 4146,
      "Ġá¹¢": 4147,
      "Ġáĭ¨áĬĲáīłáĪ¨áĭį": 4148,
      "lor": 4149,
      "adan": 4150,
      "anna": 4151,
      "áīº": 4152,
      "áĪĮáĬŃáīµ": 4153,
      "rip": 4154,
      "ansi": 4155,
      "ĠáĭµáĪĿ": 4156,
      "Ġnyingi": 4157,
      "ĠáįĪáĪŃáĭĸ": 4158,
      "ĠÃģfrÃŃkÃł": 4159,
      "||": 4160,
      "iter": 4161,
      "uda": 4162,
      "Ġmá»į": 4163,
      "áĭĭáīµ": 4164,
      "ĠKenya": 4165,
      "score0": 4166,
      "-B": 4167,
      "opo": 4168,
      "gyp": 4169,
      "ĠDem": 4170,
      "Af": 4171,
      "orge": 4172,
      "áī¼": 4173,
      "áĮįáĬķ": 4174,
      "áĮįáĪį": 4175,
      "Ġzina": 4176,
      "Ġá»įÌĢrá»įÌĢ": 4177,
      "ĠáĬķáĮīáĪµ": 4178,
      "Ġ(s": 4179,
      "ĠBah": 4180,
      "Ġmwa": 4181,
      "ĠIm": 4182,
      "áĪĭáĪīáį¢": 4183,
      "ĠáĬłáĬ«áĪį": 4184,
      "ara,": 4185,
      "ĠMarch": 4186,
      "áī¥áĭĻ": 4187,
      "olly": 4188,
      "ĠOctober": 4189,
      "ĠprÃ©s": 4190,
      "Ġkawa": 4191,
      "Ġkafin": 4192,
      "r.": 4193,
      "ĠfranÃ§ais": 4194,
      "thiop": 4195,
      "Ġnuna": 4196,
      "áĬ¨áĪ«": 4197,
      "Ġáĭ¨áĪļáĪį": 4198,
      "Ġá¹£Ã¹gbá»įÌģn": 4199,
      "unge": 4200,
      "ĠáĪĨáĬĲáĭį": 4201,
      "áĮłáīĥáĪĭáĭŃ": 4202,
      "ĠÃ²á¹£erÃ©": 4203,
      "ici": 4204,
      "Ġzin": 4205,
      "Ġacc": 4206,
      "Ġ27": 4207,
      "umba": 4208,
      "áĬĲáīłáĪŃ": 4209,
      "ĠdÃ¡ra": 4210,
      "ĠMusul": 4211,
      "Ġcor": 4212,
      "ital": 4213,
      "uth": 4214,
      "Ab": 4215,
      "pÃ¹": 4216,
      "vers": 4217,
      "Ġhaka": 4218,
      "Ġáĭ¨áĪĿáīµ": 4219,
      "Itokasi": 4220,
      "Ġwengi": 4221,
      "aika": 4222,
      "Ġlong": 4223,
      "Ġbin": 4224,
      "Ġbak": 4225,
      "bÃłdÃłn": 4226,
      "the": 4227,
      "san": 4228,
      "ĠnÃ¬": 4229,
      "Ġ(O": 4230,
      "áī³áĭ°": 4231,
      "entomon": 4232,
      "Ġzili": 4233,
      "ÃŃnÃŃ": 4234,
      "áĬ©áĪį": 4235,
      "áĮłáīĢáĪĿ": 4236,
      "Ġsababu": 4237,
      "Ġbet": 4238,
      "rew": 4239,
      "sÃł": 4240,
      "oliki": 4241,
      "Ad": 4242,
      "áĪįáįį": 4243,
      "Ġáī°áĬĲ": 4244,
      "áĪ©áĬķ": 4245,
      "ĠAdÃ©": 4246,
      "ĠáĪ³áĭŃáĪĨáĬķ": 4247,
      "L'": 4248,
      "Ġirin": 4249,
      "ĠAmurka": 4250,
      "Ġcap": 4251,
      "omen": 4252,
      "afi": 4253,
      "áĪįáį¡áį¡": 4254,
      "áĭ«áĭį": 4255,
      "ÃºsÃ¹": 4256,
      "ĠáĪĺáĮ»": 4257,
      "ĠUla": 4258,
      "ĠÃłgbÃ©lÃ©wÃ²": 4259,
      "Ãªme": 4260,
      "iyyar": 4261,
      "arkon": 4262,
      "Ġáīłáīħ": 4263,
      "ĠáĬłáī£áĪį": 4264,
      "Ġkusini": 4265,
      "Ġ22": 4266,
      "Ġaussi": 4267,
      "ĠIr": 4268,
      "uliwa": 4269,
      "Ġ26": 4270,
      "dá»įÌģ": 4271,
      "ĠáĪĪáĭį": 4272,
      "ĠáĪĽáĪħ": 4273,
      "áĮłáįĭ": 4274,
      "áĪĦáĭµ": 4275,
      "ĠáĬŃáĪįáĪį": 4276,
      "ĠdÃ©c": 4277,
      "wala": 4278,
      "Ġcer": 4279,
      "ĠArewa": 4280,
      "Ġsuch": 4281,
      "áī¬": 4282,
      "áĮ³": 4283,
      "Ġyad": 4284,
      "áĪ«áĪµ": 4285,
      "Ġáĭ¨áī°áĪĪáĭ«áĭ©": 4286,
      "Ġáī³áĪĭáīħ": 4287,
      "ĠAlÃ¡": 4288,
      "ÃłÃłyÃ¨": 4289,
      "ĠSan": 4290,
      "ocr": 4291,
      "ĠáĬĳ": 4292,
      "Ġáĭ¨áĭ°": 4293,
      "áĪįáīµ": 4294,
      "eld": 4295,
      "ĠnÃŃtorÃŃ": 4296,
      "Ġthey": 4297,
      "ĠNaijiria.": 4298,
      "ĠáĪĽáĪµáī³áĭĪ": 4299,
      "Ġkuanz": 4300,
      "Ġmakarantar": 4301,
      "ĠalÃłÃłyÃ¨": 4302,
      "ĠáīłáĬ¥áĬķáĮįáĪĬáĭĿáĬĽ": 4303,
      "gbÃ¡yÃ©": 4304,
      "ritish": 4305,
      "til": 4306,
      "ĠáĭĲ": 4307,
      "inst": 4308,
      "adar": 4309,
      "Ġ2011": 4310,
      "zwa": 4311,
      "µáį": 4312,
      "Ġáĭ¨áĮĪ": 4313,
      "ĠáĬłáĭµ": 4314,
      "ouv": 4315,
      "ĠpÃłtÃłkÃ¬": 4316,
      "Ġtu": 4317,
      "Ġtsa": 4318,
      "ĠCent": 4319,
      "Ġtsoh": 4320,
      "hÃłn": 4321,
      "wá»įÌĢn": 4322,
      "áĪµáī±": 4323,
      "yÃłwÃ³": 4324,
      "Ġmis": 4325,
      "uv": 4326,
      "á»ĮÌĢ": 4327,
      "Ġmore": 4328,
      "ĠDav": 4329,
      "ack": 4330,
      "ĠkÃ¬": 4331,
      "gbáº¹": 4332,
      "oju": 4333,
      "Ġche": 4334,
      "ĠCo": 4335,
      "ĠLi": 4336,
      "Ġvers": 4337,
      "ĠPer": 4338,
      "ÙĲ": 4339,
      "ete": 4340,
      "ĠáĪ©": 4341,
      "Ġáīłáĭļáĭ«": 4342,
      "ĠÃ¬bÃŃláº¹ÌĢ": 4343,
      "áī²áĬķ": 4344,
      "Ġ186": 4345,
      "áĮłáĪį": 4346,
      "ĠáĪĢáĮĪáĪŃ": 4347,
      "Ġsamun": 4348,
      "yr": 4349,
      "Ġover": 4350,
      "iew": 4351,
      "odi": 4352,
      "Ġfilamu": 4353,
      "Äģ": 4354,
      "ĠBer": 4355,
      "45": 4356,
      "áīłáĪĮ": 4357,
      "áĮ¥áĬķáī³áĭĬ": 4358,
      "ft": 4359,
      "wiki": 4360,
      "Bayan": 4361,
      "ĠAmerika.": 4362,
      "Ġret": 4363,
      "Ġáĭ¨áī°áī£áĪĪáĭį": 4364,
      "ĠáĪ²áĪĨáĬķáį£": 4365,
      "ĠáĪĺáĪłáĪ¨áīµ": 4366,
      "Ġsous": 4367,
      "Ġyam": 4368,
      "risti": 4369,
      "uki": 4370,
      "ĠÃ©tÃ©": 4371,
      "káº¹Ìģ": 4372,
      "anzi": 4373,
      "ĠdÃł": 4374,
      "áī°áĭĭáĪįáį¢": 4375,
      "Ġáĭ¨áĪĮ": 4376,
      "ĠGir": 4377,
      "ĠáĭĻáĪªáĭ«": 4378,
      "ĠGab": 4379,
      "áĪŃáĪĭáĬķáĭµ": 4380,
      "áĪĭáĪī": 4381,
      "áī¶áī¹": 4382,
      "ĠáĬ¥áĮħáĮį": 4383,
      "Ġhttp://": 4384,
      "Ġinf": 4385,
      "lack": 4386,
      "ines": 4387,
      "Ã¨me": 4388,
      "áĪŃáĮį": 4389,
      "Ġ(n": 4390,
      "ĠáĮĨ": 4391,
      "áĭŃáĬĲáīµ": 4392,
      "áĪ«áī¸áĭį": 4393,
      "áĬŃáĪĪ": 4394,
      "ĠnÃ¡Ãł,": 4395,
      "Ġá»ĮdÃºn": 4396,
      "-áº¹ÌĢyáº¹": 4397,
      "áī¨áĪŃ": 4398,
      "Ġwe": 4399,
      "ation.": 4400,
      "ĠAgba": 4401,
      "Ġede": 4402,
      "ench": 4403,
      "Ġláº¹Ìģ": 4404,
      "ĠáĬłáĬĲ": 4405,
      "ĠáįĢ": 4406,
      "áįįáĬĵ": 4407,
      "áĭĺáī¥": 4408,
      "áĪ±áĬķ": 4409,
      "ĠEnglish": 4410,
      "Ġmulkin": 4411,
      "ĠFor": 4412,
      "Ġyayin": 4413,
      "Ġ29": 4414,
      "ui": 4415,
      "ĠNi": 4416,
      "ĠWas": 4417,
      "Ġnum": 4418,
      "ĠÃłp": 4419,
      "Ã¨res": 4420,
      "áĬ¨áĪŃ": 4421,
      "áĬ«áī£áī¢": 4422,
      "áĪİáĬķ": 4423,
      "áĪĥáĬķ": 4424,
      "okuwa": 4425,
      "Ġed": 4426,
      "áĬĲáīłáĪ¨": 4427,
      "ĠÃ¬f": 4428,
      "áĪªáī³": 4429,
      "ĠáĬ«áĪį": 4430,
      "ĠolÃ³á¹£Ã¨lÃº": 4431,
      "Ġcommun": 4432,
      "Ġá»įÌĢpá»įÌĢlá»įpá»įÌĢ": 4433,
      "ped": 4434,
      "ets": 4435,
      "iver": 4436,
      "Ġfait": 4437,
      "Ġnew": 4438,
      "Ġno": 4439,
      "ĠdÃº": 4440,
      "atta": 4441,
      "ĠBal": 4442,
      "Ġguda": 4443,
      "ower": 4444,
      "ĠArm": 4445,
      "paka": 4446,
      "esh": 4447,
      "áĬŃáĪŃáĪµáī²áĭ«áĬķ": 4448,
      "áĪīáĪĿ": 4449,
      "ĠáĮį.": 4450,
      "Ġuku": 4451,
      "Ġjam": 4452,
      "ĠDar": 4453,
      "ĠNijeriya.": 4454,
      "Ġdun": 4455,
      "ge,": 4456,
      "wÃ¹": 4457,
      "ĠAwá»įn": 4458,
      "áī½áĪį": 4459,
      "áĮĪáĬĽ": 4460,
      "ĠáĪĺáĪ¨áĮĥ": 4461,
      "áī£áĪįáį¢": 4462,
      "umu": 4463,
      "ĠáĪĽáĮ£": 4464,
      "áī²áĬŃ": 4465,
      "ĠSaint": 4466,
      "ĠáĭŃáī½áĪĭáĪįáį¢": 4467,
      "Ġ(J": 4468,
      "Ġnombre": 4469,
      "ĠApril": 4470,
      "Ġomi": 4471,
      "Ġtas": 4472,
      "Ġder": 4473,
      "ales": 4474,
      "Ø±": 4475,
      "áĭ«áĪµ": 4476,
      "Ġwajen": 4477,
      "ings": 4478,
      "ĠáĭŃáī³áĭĪáīĥáĪįáį¢": 4479,
      "Ã¡Ã¬sÃŃ": 4480,
      "Ġdep": 4481,
      "istory": 4482,
      "ĠDan": 4483,
      "Ġn.": 4484,
      "áĪŃ-": 4485,
      "ĠowÃ³": 4486,
      "áĪ³áī°": 4487,
      "Ġáī°áįĪ": 4488,
      "ĠáĭŃáĭĪ": 4489,
      "ĠáĭŃáī»": 4490,
      "ĠáīłáĪį": 4491,
      "áĪĪáī°áĬĽáĭį": 4492,
      "Ġosere": 4493,
      "ĠGÃ³mÃ¬nÃł": 4494,
      "ango": 4495,
      "uck": 4496,
      "áĬ½": 4497,
      "áĬĭáĪĭ": 4498,
      "ĠáĬ¥áĭµ": 4499,
      "Ġyanzu": 4500,
      "ĠáĬ¥áĬķáĭ°áĪĨáĬĲ": 4501,
      "ĠItalia": 4502,
      "áĪ²áĬķ": 4503,
      "ĠapÃ¡": 4504,
      "dÃŃnlÃ³gÃºn": 4505,
      "Ġnam": 4506,
      "Ġ(G": 4507,
      "ed,": 4508,
      "alu": 4509,
      "ĠáĪĺáĪĪ": 4510,
      "gá»įÌģ": 4511,
      "áĬ¾": 4512,
      "ĠIf": 4513,
      "ĠIjoba": 4514,
      "Ġáĭ¨áĪĨáĬĳ": 4515,
      "Ġáĭ©áĬĴ": 4516,
      "On": 4517,
      "ĠMo": 4518,
      "ĠSc": 4519,
      "Ġlanguage": 4520,
      "Ġbaba": 4521,
      "ĠAll": 4522,
      "áī¥áĪĬáĬŃ": 4523,
      "Ġáĭ«áĪī": 4524,
      "Ġpre": 4525,
      "ĠAcadem": 4526,
      "wahili": 4527,
      "Ġmin": 4528,
      "ange": 4529,
      "ween": 4530,
      "ĠLeg": 4531,
      "áĬķáĮ«": 4532,
      "Ġáĭ¨áĪĭ": 4533,
      "alÃ¡Ã¬sÃŃ": 4534,
      "áīłáĭį": 4535,
      "áīłáĬĽ": 4536,
      "Ġáī°áīĭ": 4537,
      "reat": 4538,
      "áīĥáĪį": 4539,
      "áįĵáĬķáĭ«": 4540,
      "Ġáīłáĭ°áī¡áī¥": 4541,
      "ante": 4542,
      "ananan": 4543,
      "ĠMon": 4544,
      "Ġ0": 4545,
      "áĭ«áĭ«": 4546,
      "orÃŃ": 4547,
      "áĭ¨áĭį": 4548,
      "epend": 4549,
      "endelea": 4550,
      "Ġknown": 4551,
      ".,": 4552,
      "Ġ2006": 4553,
      "Ġ2010": 4554,
      "Ġbayyana": 4555,
      "ĠFilm": 4556,
      "áĬ¡": 4557,
      "ones": 4558,
      "áĪĪáĭ°": 4559,
      "ĠMan": 4560,
      "ĠáĪĺáĭĭ": 4561,
      "ĠáĬ«áĪĮ": 4562,
      "Ġinclud": 4563,
      "ID": 4564,
      "ĠOba": 4565,
      "-Ãºn": 4566,
      "áĬ«áĪį": 4567,
      "ĠUingereza": 4568,
      "áĭĽáĪ¬": 4569,
      "Ġmet": 4570,
      "ĠKir": 4571,
      "ĠIgb": 4572,
      "áĮ¼": 4573,
      "áĬĲáī¶áī½": 4574,
      "ĠáĪĺáī¶": 4575,
      "áĭĪáīħ": 4576,
      "Ġáĭ¨áī°áĬŃáĪī": 4577,
      "áīģáĪŃ": 4578,
      "ado": 4579,
      "Ġmab": 4580,
      "Ġ|-": 4581,
      "jini": 4582,
      "ĠáīłáĬ¨": 4583,
      "Ġyenye": 4584,
      "áĬĲáīµáĬķ": 4585,
      "ĠCollege": 4586,
      "elles": 4587,
      "Ġ2007": 4588,
      "Ġmanyan": 4589,
      "Ġcette": 4590,
      "Ġáĭ¨áįĸ": 4591,
      "iriki": 4592,
      "Ġá»įba": 4593,
      "áĭ¨áĪĺ": 4594,
      "Awon": 4595,
      "Ùı": 4596,
      "darÃŃ": 4597,
      "áī³áī½áĬķ": 4598,
      "ĠÃ¬á¹£": 4599,
      "áĭĺáĬķ": 4600,
      "áĪĬáĭ®áĬķ": 4601,
      "áĭ°áĪ¨áĮī": 4602,
      "ĠIngila.": 4603,
      "uo": 4604,
      "ĠJanuari": 4605,
      "Ġwo": 4606,
      "lec": 4607,
      "Ġambayo": 4608,
      "Ġwadanda": 4609,
      "ĠAnn": 4610,
      "Ġyawa": 4611,
      "ĠáĭŃáĮłáīĢ": 4612,
      "ĠáīłáĪ¨": 4613,
      "áįĪáĬķ": 4614,
      "áĪŀáīµ": 4615,
      "ĠáĮĪáī¥": 4616,
      "ĠáĭĵáĪĺáī±": 4617,
      "á¹£áº¹ÌĢláº¹ÌĢ": 4618,
      "iran": 4619,
      "Ġeff": 4620,
      "Ġprof": 4621,
      "199": 4622,
      "ĠOlÃ³": 4623,
      "áĭµáĪµáīµ": 4624,
      "irÃŃ": 4625,
      "áįįáĪªáĬ«": 4626,
      "áĬĳáĪµ": 4627,
      "áĮłáĪĭ": 4628,
      "This": 4629,
      "Ġyadda": 4630,
      "tical": 4631,
      "Or": 4632,
      "ĠâĢ¢": 4633,
      "Ġ2003": 4634,
      "Awá»įn": 4635,
      "áĭ£": 4636,
      "Ġáĭ±": 4637,
      "ĠkÃł": 4638,
      "Ġgina": 4639,
      "ĠgÃ©n": 4640,
      "áī¢áīµ": 4641,
      "áĬłáĪĿ": 4642,
      "sÃŃtÃ¬": 4643,
      "ĠÉĹaya": 4644,
      "Ġáĭ¨áĪ°áĭį": 4645,
      "35": 4646,
      "âĢ¦": 4647,
      "rÃ©s": 4648,
      "/)": 4649,
      "Ġ(E": 4650,
      "ĠAgosti": 4651,
      "Ġalip": 4652,
      "lamu": 4653,
      "Ġ(p": 4654,
      "ĠáĪĺáĮ¥": 4655,
      "ĠId": 4656,
      "Ġáį«": 4657,
      "ĠáĬłáĪ°": 4658,
      "ĠáīµáĪįáīħ": 4659,
      "áĬ¥áĮįáĭļáĬłáī¥áĪĶáĪŃ": 4660,
      "Ġegbe": 4661,
      "Ġ2015": 4662,
      "ĠáĪľáīµáĪŃ": 4663,
      "hen": 4664,
      "echn": 4665,
      "mer": 4666,
      "Ġtara": 4667,
      "apo": 4668,
      "use": 4669,
      "Ġgar": 4670,
      "ĠEurope": 4671,
      "Ġ(L": 4672,
      "uro": 4673,
      "áĮĪáĬĲ": 4674,
      "áĬłáĪį": 4675,
      "ĠáĪķáĭĿ": 4676,
      "ĠáįķáĪ¬áĭļ": 4677,
      "ollywood": 4678,
      "mes": 4679,
      "ĠAtl": 4680,
      "Ġserikali": 4681,
      "75": 4682,
      "Ġdang": 4683,
      "Ġint": 4684,
      "riv": 4685,
      "ĠÃłÃł": 4686,
      "ĠáĬ¨áĪĽ": 4687,
      "ayÃ©": 4688,
      "ĠáĭįáĮ¤": 4689,
      "Ġkáº¹rin": 4690,
      "Ġman": 4691,
      "ĠKim": 4692,
      "ukar": 4693,
      "ĠÃĮbÃłdÃłn": 4694,
      "ĠáĪ¥áĪĭáĪ´": 4695,
      "ouse": 4696,
      "ĠPeople": 4697,
      "Ġáĭŀ": 4698,
      "ĠlÃ²": 4699,
      "Ġ2.": 4700,
      "áīħáĪµ": 4701,
      "Ġkilom": 4702,
      "overnment": 4703,
      "ĠáīłáĬ©áĪį": 4704,
      "S.": 4705,
      "gen": 4706,
      "ĠAir": 4707,
      "ĠJuly": 4708,
      "FA": 4709,
      "ĠMuhammad": 4710,
      "Ġfito": 4711,
      "itt": 4712,
      "igin": 4713,
      "Ġkaskazini": 4714,
      "áĬķáĭ³áĪŃ": 4715,
      "ĠáĮįáī¥áĮ½": 4716,
      "Ġloc": 4717,
      "mb": 4718,
      "áĭķáĭĿ": 4719,
      "Ġpart": 4720,
      "Ġkum": 4721,
      "Ġocc": 4722,
      "áĪ«áĪĿ": 4723,
      "áĪªáīµ": 4724,
      "áīĢáĪį": 4725,
      "áĬ¨áī°áĪĪáĭį": 4726,
      "k.": 4727,
      "ĠEthiop": 4728,
      "198": 4729,
      "ĠQu": 4730,
      "áĪµáī°áĬĽ": 4731,
      "Ġop": 4732,
      "áĭ³áĮħ": 4733,
      "ĠáĭµáĬķ": 4734,
      "ĠáīģáĮ¥": 4735,
      "ĠáĮ½áĪĳáįį": 4736,
      "jÃ³": 4737,
      "Ġ()": 4738,
      "ĠMak": 4739,
      "ĠDel": 4740,
      "azama": 4741,
      "ĠAwards": 4742,
      "Agbegbe": 4743,
      "tá»įÌģ": 4744,
      "Ġkit": 4745,
      "áī£áĪī": 4746,
      "ĠáĪĪáī°": 4747,
      "ĠáĬ¥áĬķáĭ°áī°": 4748,
      "Ġráº¹ÌĢ,": 4749,
      "ĠáīłáĪĺáĪĨáĬĳ": 4750,
      "ĠSha": 4751,
      "ĠHa": 4752,
      "urch": 4753,
      "tur": 4754,
      "Ġterm": 4755,
      "Ġori": 4756,
      "áĪĪáĪģ": 4757,
      "ĠÃ¬dÃ¡": 4758,
      "aient": 4759,
      "áĬłáĭŃ": 4760,
      "áĪ¥áī±": 4761,
      "papá»įÌĢ": 4762,
      "ĠáĪħáĭĿáī¥": 4763,
      "ĠJamh": 4764,
      "ĠJulai": 4765,
      "áĮİáĪŃáĮİáĪŃ": 4766,
      "Ġnon": 4767,
      "Ġ(U": 4768,
      "anza": 4769,
      "ĠBritish": 4770,
      "Ġconsid": 4771,
      "Ġkuk": 4772,
      "Ġnipa": 4773,
      "áĭ³áĬķáīµ": 4774,
      "ĠáĪµáĪĪáĭļáĪħ": 4775,
      "áº¹ÌĢáº¹ÌģsÃ¬": 4776,
      "ĠilÃ©-iá¹£áº¹Ìģ": 4777,
      "wn": 4778,
      "Wali": 4779,
      "ĠMov": 4780,
      "ĠSec": 4781,
      "rac": 4782,
      "ĠAllah": 4783,
      "awala": 4784,
      "Ġmili": 4785,
      "que.": 4786,
      "Ġont": 4787,
      "ÃºÃºsÃ¹": 4788,
      "ĠáĬłáī£áīµ": 4789,
      "ĠáĭŃáĬĲ": 4790,
      "áĬªáĭ«": 4791,
      "Ġmwana": 4792,
      "ĠáĪĿáĬķáĮŃ": 4793,
      "Ġáĭ¨áĪĺáĮĢáĪĺáĪªáĭ«áĭį": 4794,
      "ĠLes": 4795,
      "Ġakwai": 4796,
      "ĠIbile": 4797,
      "bert": 4798,
      "áī§": 4799,
      "ĠáĬłáĭ¨áĪŃ": 4800,
      "Ġáĭ¨áĬĸ": 4801,
      "áĬłáĬķ": 4802,
      "ĠáĬŃáĪŃáĪµáī¶áĪµ": 4803,
      "ĠáįĬáĭ°áĪį": 4804,
      "ĠáĪ«áĪµ": 4805,
      "ĠáĪĺáĮłáĬķ": 4806,
      "áįĪáĮ¥áĪ®": 4807,
      "br": 4808,
      "ough": 4809,
      "sÃ³": 4810,
      "A.": 4811,
      "Ġdama": 4812,
      "Ġ--": 4813,
      "ashara": 4814,
      "36": 4815,
      "áĮ¾": 4816,
      "áī£áī¥": 4817,
      "ĠáīłáĪĨ": 4818,
      "ĠCr": 4819,
      "ĠáĬ¥áĬķáĬ³": 4820,
      "ĠWá»įÌģn": 4821,
      "áĭĽáĭĿ": 4822,
      "ĠáĬłáĭŃáĭ°áĪĪáĪĿ": 4823,
      "Ma": 4824,
      "c.": 4825,
      "fan": 4826,
      "ica": 4827,
      "Ġgudanar": 4828,
      "Ġsau": 4829,
      "ĠáīłáĪ«": 4830,
      "Ġmaeneo": 4831,
      "Ġwasa": 4832,
      "Ġáº¹ÌĢyáº¹": 4833,
      "ĠIII": 4834,
      "ĠáĬłáĬķáĭ³áĬķáĭµ": 4835,
      "Ġdont": 4836,
      "Ġmoja": 4837,
      "ĠAhm": 4838,
      "ĠYar": 4839,
      "Ġ2012": 4840,
      "iláº¹ÌĢ": 4841,
      "Ġfamil": 4842,
      "áĬĿáĬĲáīµ": 4843,
      "Ġkira": 4844,
      "ĠáĪĺáĪ³": 4845,
      "áĪ«áĬ¤áĪį": 4846,
      "áīłáĪ¬": 4847,
      "áĭĿáĪĽáī½": 4848,
      "ĠáĬłáĪĿáĪĭáĬŃ": 4849,
      "el,": 4850,
      "oo": 4851,
      "sp": 4852,
      "Ġ(;": 4853,
      "Ġsci": 4854,
      "áĪµáī¶": 4855,
      "ĠOpen": 4856,
      "áĭ¨áī°": 4857,
      "ĠáĬ¨áī°áĪĽáĭį": 4858,
      "yáº¹yáº¹": 4859,
      "ĠáīłáĪĻáĪī": 4860,
      "ilo": 4861,
      "Ġ2014": 4862,
      "-K": 4863,
      "aria": 4864,
      "ĠDis": 4865,
      "ĠRoma": 4866,
      "ateur": 4867,
      "olution": 4868,
      "Ġfit": 4869,
      "Ġhali": 4870,
      "Ch": 4871,
      "ĠáĬ¨áĪ°": 4872,
      "ĠtÃŃtÃŃ": 4873,
      "áĬ«áī³": 4874,
      "ĠFiz": 4875,
      "ĠáĬ¥áĬķáĭ°áĮĪáĬĵ": 4876,
      "Ġwhen": 4877,
      "ĠáĪĽáĪŃáīĨáĪµ": 4878,
      "Ġbetween": 4879,
      "48": 4880,
      "Ä«": 4881,
      "ilos": 4882,
      "itz": 4883,
      "tÃ¡": 4884,
      "Ġ(b": 4885,
      "áĭ«áĭĿ": 4886,
      "ĠáīłáĬ¢": 4887,
      "Ġmaji": 4888,
      "ĠlÃ¡báº¹Ìģ": 4889,
      "fuat": 4890,
      "ĠNajeriya,": 4891,
      "ĠÃłká»įÌģlÃ©": 4892,
      "Ġgidan": 4893,
      "ĠáĭµáĪŃáĮħáīµ": 4894,
      "ĠáĬ«áĪĮáĬķáĭ³áĪŃ": 4895,
      "eme": 4896,
      "raz": 4897,
      "fuata": 4898,
      "ollow": 4899,
      "ĠLondon": 4900,
      "ar,": 4901,
      "ince": 4902,
      "Ġlang": 4903,
      "ai,": 4904,
      "Daga": 4905,
      "Ġsanya": 4906,
      "áĪĭáĬķ": 4907,
      "áĪ©áĪĿ": 4908,
      "Ġkuh": 4909,
      "áīĭáĬķáīĭ": 4910,
      "Ġá»įjá»įÌģalÃ¡Ã¬sÃŃ": 4911,
      "ĠArab": 4912,
      "áĬķáĭ³áĬķáĭµ": 4913,
      "áĮİáĪŃáĮİáĪŃáĭ«áĬķ": 4914,
      "ĠsÃ©": 4915,
      "Ġlab": 4916,
      "Yan": 4917,
      "Ġmutum": 4918,
      "ique": 4919,
      "Ġpos": 4920,
      "ĠáĪĺáĮ£": 4921,
      "ĠBel": 4922,
      "áĪŀáĬŃ": 4923,
      "Ġagba": 4924,
      "Ġwá»įn.": 4925,
      "ĠáįķáĪ®": 4926,
      "áĮ£áĪįáĭ«áĬķ": 4927,
      "ĠáīłáĪ½áī³": 4928,
      "ĠáĪĽáĮ£áīĢ": 4929,
      "ĠCor": 4930,
      "ĠJuni": 4931,
      "Ġtemp": 4932,
      "Ġatom": 4933,
      "Ġpeople": 4934,
      "ĠáĬĹ": 4935,
      "áĪŃáĬķ": 4936,
      "áĪįáĮħ": 4937,
      "áī½áĪģ": 4938,
      "Ġwrit": 4939,
      "Ġáī°áĬĵ": 4940,
      "Ġspec": 4941,
      "á»įÌģá»įÌĢlÃ¹": 4942,
      "Ġaga": 4943,
      "ĠdÃ©part": 4944,
      "ĠMis": 4945,
      "Ġ2,": 4946,
      "ĠáĪİ": 4947,
      "áī°áĬĽáĭį": 4948,
      "áĪ«áĪ½": 4949,
      "ĠDi": 4950,
      "ĠgboyÃ¨": 4951,
      "áĪµáīµáĬĵ": 4952,
      "Ġakoko": 4953,
      "Ġfl": 4954,
      "Ġinc": 4955,
      "ĠMachi": 4956,
      "Ġout": 4957,
      "Ġfound": 4958,
      "Ġhivyo": 4959,
      "Ġgabatar": 4960,
      "ĠTiba": 4961,
      "asu": 4962,
      "et,": 4963,
      "ĠyÃłn": 4964,
      "rough": 4965,
      "Ġkoma": 4966,
      "Ġáĭ¨áĮ¥": 4967,
      "Ġáīłáįį": 4968,
      "áĪ³áĪį": 4969,
      "ĠáĪĿáĬĵáĪį": 4970,
      "á»įÌĢkan": 4971,
      "Ġá»Įjá»įÌģ": 4972,
      "áĭ³áĬķáĭ±": 4973,
      "áĭ®áĪŃáĮĬ": 4974,
      "ĠáĪĿáĬĵáĪįáī£áīµ": 4975,
      "ĠJune": 4976,
      "ĠYoruba": 4977,
      "Ġcult": 4978,
      "asihi": 4979,
      "ĠtÃ¬": 4980,
      "áĪįáīģ": 4981,
      "Ġyal": 4982,
      "áĪ¨áį¢": 4983,
      "áĬ¨áī¥": 4984,
      "ayya": 4985,
      "Ġala": 4986,
      "áĭ´áīµ": 4987,
      "Ġmita": 4988,
      "Ġdai": 4989,
      "ĠSw": 4990,
      "ĠEk": 4991,
      "Ġthan": 4992,
      "Ġpartic": 4993,
      "ĠEng": 4994,
      "ºáį": 4995,
      "Ġáīłáī¥áĭĽáīµ": 4996,
      "ayensi": 4997,
      "erre": 4998,
      "Ġlim": 4999,
      "Ġpub": 5000,
      "Ġ2013": 5001,
      "Ġabout": 5002,
      "ĠComp": 5003,
      "osition": 5004,
      "igizaji": 5005,
      "burg": 5006,
      "Ġ(R": 5007,
      "ulu": 5008,
      "aro": 5009,
      "áĪŃáį£": 5010,
      "gbÃ³": 5011,
      "Ġáīµáĭį": 5012,
      "áĮİáĬķ": 5013,
      "Ġ187": 5014,
      "weza": 5015,
      "Ġprov": 5016,
      "ĠwÃ¡yÃ©": 5017,
      "jáº¹s": 5018,
      "Ġáĭ¨áĭĵáĪĪáĪĿ": 5019,
      "sin": 5020,
      "ĠKÃ¡": 5021,
      "ound)": 5022,
      "Ġayy": 5023,
      "ĠOm": 5024,
      "Láº¹ÌģyÃ¬n": 5025,
      "hÃ¬n": 5026,
      "Ġmot": 5027,
      "áī°áį¢": 5028,
      "ĠÃ¬rÃ²yÃ¬n": 5029,
      "Ġáī°áĭĭ": 5030,
      "áīłáĪ°": 5031,
      "Ġgbe": 5032,
      "áĪ¥áĪ«áīħ": 5033,
      "Ġáī£áĪį": 5034,
      "ĠáįĪáĪ¨áĬķ": 5035,
      "Ġibile": 5036,
      "Ġáĭ¨áīĢáĬķ": 5037,
      "Ġká»įÌģká»įÌģ": 5038,
      "Ġgege": 5039,
      "Ð¸": 5040,
      "Ġvita": 5041,
      "ford": 5042,
      "Ġkamm": 5043,
      "ĠÆĻasa": 5044,
      "Ġreg": 5045,
      "ÙĴ": 5046,
      "¹áį": 5047,
      "ĠáĪ¹": 5048,
      "Ġtangu": 5049,
      "Ġnj": 5050,
      "ĠáīłáĪķ": 5051,
      "Ġiwe": 5052,
      "áīłáĪī": 5053,
      "áĮ¡áīµ": 5054,
      "Ð¾": 5055,
      "ĠMtakatifu": 5056,
      "irc": 5057,
      "-o": 5058,
      "sá»į": 5059,
      "ĠáīłáĮİáĪŃáĮİáĪŃáĭ«áĬķ": 5060,
      "ĠGom": 5061,
      "Ġvol": 5062,
      "ĠáĪįáĭ°áīµ": 5063,
      "ĠáĭµáĬķáĮĭ": 5064,
      "Ġ185": 5065,
      "ĠáĬłáĪĪáĪĿ": 5066,
      "Ġlá»į.": 5067,
      "ĠáĬłáĮĪáĪ«áīµ": 5068,
      "áĪıáĪįáį¢": 5069,
      "Ġmahaif": 5070,
      "6-": 5071,
      "Ġmay": 5072,
      "alth": 5073,
      "Ġáĭ¨áī¥": 5074,
      "ĠáĬłáĭ³": 5075,
      "ĠyÃł": 5076,
      "antu": 5077,
      "ĠáĪįáī¥": 5078,
      "Ġfac": 5079,
      "Ġkid": 5080,
      "Ġâ": 5081,
      "Ġáĭ¨áĪŀ": 5082,
      "ina-": 5083,
      "ĠMashariki": 5084,
      "ĠáĪĽáĪµáī³áĭĪáĪ»áĭİáī½": 5085,
      "mÃ²": 5086,
      "Ġmto": 5087,
      "ing.": 5088,
      "Ġma'": 5089,
      "''": 5090,
      "Ġ2005": 5091,
      "Ġgrand": 5092,
      "ison": 5093,
      "áĬĲáī±áĬķ": 5094,
      "Ġáĭ¨áĬ®": 5095,
      "Ġiá¹£áº¹": 5096,
      "196": 5097,
      "áĭ«áĬķáĭ³áĬķáĭ±": 5098,
      "Ġpeke": 5099,
      "ĠáĬŃáįįáĪİáī½": 5100,
      "Ġáĭ¨áĪļáĭ«áĪµ": 5101,
      "Ġtele": 5102,
      "Ġwato": 5103,
      "app": 5104,
      "Ġáī¶": 5105,
      "áĪµáĪĽ": 5106,
      "ĠáĮ«": 5107,
      "ĠMart": 5108,
      "ĠáĬ¥áĬķáĭ²áĭ«": 5109,
      "ĠDesemba": 5110,
      "apa": 5111,
      "Ã¤": 5112,
      "Ġuti": 5113,
      "tÃºn": 5114,
      "uwanci": 5115,
      "Ġmfalme": 5116,
      "Ġkammala": 5117,
      "led": 5118,
      "ĠoyÃ¨": 5119,
      "ĠáĮ³": 5120,
      "ĠáĬłáī¶": 5121,
      "áĮĪáīµ": 5122,
      "áĬłáīµ": 5123,
      "oyal": 5124,
      "Ã¼": 5125,
      "esa": 5126,
      "ifu": 5127,
      "¸áį": 5128,
      "áī¾": 5129,
      "Ġáĭ¨áĪĪáĭį": 5130,
      "un,": 5131,
      "Ġ(áĬ¥áĬķáĮįáĪĬáĭĿáĬĽ": 5132,
      "Ã¬má»įÌĢ": 5133,
      "ĠáĬ¨áĪģ": 5134,
      "Ġáī¥áĭĽáīµ": 5135,
      "áī¦áīµ": 5136,
      "Ġatt": 5137,
      "áĮĪáĪªáī±": 5138,
      "unifÃ¡sÃŃtÃ¬": 5139,
      "Ġkuanzia": 5140,
      "wara": 5141,
      "ĠrÃ©gion": 5142,
      "ibiyar": 5143,
      "ĠjÃ©": 5144,
      "Ġunder": 5145,
      "rent": 5146,
      "áĬķáĪ³áĭĬ": 5147,
      "ato": 5148,
      "áĪ³áĪ³áĭŃ": 5149,
      "Ġtaka": 5150,
      "Ġprot": 5151,
      "ĠáĭĿáĪŃáĭ«": 5152,
      "Ġáī¡áĭµáĬķ": 5153,
      "ĠáĪĪáĪĿáĪ³áĪĮ": 5154,
      "Ġpeut": 5155,
      "esha": 5156,
      "okan": 5157,
      "Ġbirni": 5158,
      "Ġmilli": 5159,
      "ĠAprili": 5160,
      "Ã¯": 5161,
      "Ġonly": 5162,
      "ĠØ§": 5163,
      "fiya": 5164,
      "rÃ¹": 5165,
      "Ġmeng": 5166,
      "Ġhann": 5167,
      "ĠáĭĪáĪįáĭ°": 5168,
      "ĠOlÃº": 5169,
      "Ġ2091": 5170,
      "Ġáĭ³áĪŃ": 5171,
      "El": 5172,
      "ott": 5173,
      "is.": 5174,
      "Ġyak": 5175,
      "urÃº": 5176,
      "ĠKa": 5177,
      "agor": 5178,
      "ĠYa": 5179,
      "Ġ~": 5180,
      "ĠCan": 5181,
      "ific": 5182,
      "ĠAli": 5183,
      "Ġ(áĬ¨1892": 5184,
      "Ġjirgin": 5185,
      "ociation": 5186,
      "vir": 5187,
      "Ġdaban": 5188,
      "Ġhukumar": 5189,
      "gent": 5190,
      "áĬķáĭ¶": 5191,
      "arab": 5192,
      "Ġáĭ¨áĬ¦": 5193,
      "áĭĵáĬķ": 5194,
      "Ġplay": 5195,
      "Ãºpá»įÌĢ": 5196,
      "hard": 5197,
      "Ġduring": 5198,
      "ráº¹Ìģ": 5199,
      "Ġáĭ¨áĭ«": 5200,
      "Ġyayi": 5201,
      "Ġrem": 5202,
      "Ġáĭĺáĭ´": 5203,
      "áĪ©áį¢": 5204,
      "mu": 5205,
      "tan": 5206,
      "Ġsake": 5207,
      "ĠKil": 5208,
      "Ġanti": 5209,
      "Ġá»Įba": 5210,
      "ĠSeptemba": 5211,
      "LÃ¡": 5212,
      "onde": 5213,
      "Ġcall": 5214,
      "Ġmaa": 5215,
      "she": 5216,
      "Ġang": 5217,
      "Ġáĭ¨áīĨ": 5218,
      "ĠAj": 5219,
      "ĠwaÉĹ": 5220,
      "Ġjar": 5221,
      "áīłáīĥ": 5222,
      "Ġáī°áīĥ": 5223,
      "ĠáĮłáīħ": 5224,
      "áī¥áĪ«áĭŃ": 5225,
      "ĠáĬĥáĭŃáĪį": 5226,
      "Ġáĭ¨áĭįáĮŃ": 5227,
      "áĪĮáĬŃáīµáĪªáĬŃ": 5228,
      "ĠMei": 5229,
      "ikana": 5230,
      "CO": 5231,
      "rie": 5232,
      "arabu": 5233,
      "Ġkaribu": 5234,
      "áĪĪáĪĺ": 5235,
      "ĠÃłgbÃ¡yÃ©": 5236,
      "ĠáĪĽáĪŃáĭ«áĪĿ": 5237,
      "Ġvari": 5238,
      "ĠáĮĪáĭ°": 5239,
      "Ġáīłáī°áĮ¨áĪĽáĪª": 5240,
      "áĪĲáįĬ": 5241,
      "-Ã¬wÃ©": 5242,
      "jáº¹sÃ¡ra": 5243,
      "eman": 5244,
      "ĠGer": 5245,
      "berg": 5246,
      "ĠAcademy": 5247,
      "gn": 5248,
      "Ġtiti": 5249,
      "ĠUlaya": 5250,
      "rÃºn": 5251,
      "áĪŃáī±": 5252,
      "Ġ(áĬł": 5253,
      "Ġáĭ¨áĪĢ": 5254,
      "ĠáĪĪáĬ¥": 5255,
      "ographi": 5256,
      "ĠáĭľáĬĵ": 5257,
      "34": 5258,
      "utu": 5259,
      "Ġleur": 5260,
      "ĠáĬĥáĭŃáĪĪ": 5261,
      "Ġlake": 5262,
      "Ġ1999": 5263,
      "gÃ³": 5264,
      "oug": 5265,
      "Ġayáº¹yáº¹": 5266,
      "ĠáĬłáīħ": 5267,
      "áĪ«áĭį": 5268,
      "ĠáĬ¨áĪĮ": 5269,
      "ĠBro": 5270,
      "ĠáĭŃáĪĦ": 5271,
      "Ġáĭ¨áĪļáī³áĭĪ": 5272,
      "ĠáĮįáĭĽ": 5273,
      "Ġonimo": 5274,
      "ĠáĮĪáĬķ": 5275,
      "lá»įÌģgbá»įÌĢn": 5276,
      "Ġ(W": 5277,
      "AN": 5278,
      "ĠPaul": 5279,
      "Ġapa": 5280,
      "ĠChi": 5281,
      "Ġuna": 5282,
      "Ġpoliti": 5283,
      "ĠáĬ¥áĬĶ": 5284,
      "omm": 5285,
      "áĮ¥áĪĿ": 5286,
      "áĬ¨áĭļáĭ«": 5287,
      "ĠNigeria.": 5288,
      "Ġká»įkÃłn": 5289,
      "ĠáĪĺáĮ»áĪķ": 5290,
      "ner": 5291,
      "al.": 5292,
      "oman": 5293,
      "ather": 5294,
      "ĠAwon": 5295,
      "ers.": 5296,
      "Ġmwigizaji": 5297,
      "Ġmutu": 5298,
      "ĠSud": 5299,
      "ipe": 5300,
      "áĬķáī³": 5301,
      "Ġáĭ¨áĬŃ": 5302,
      "Ġbr": 5303,
      "áº¸ÌĢ": 5304,
      "Ġte": 5305,
      "ouver": 5306,
      "Ġbab": 5307,
      "Ġce,": 5308,
      "Ġrais": 5309,
      "áĭµáĬĵ": 5310,
      "áīłáīħ": 5311,
      "atik": 5312,
      "áĭĽáĬĽáĭį": 5313,
      "ĠáĪµáĪĪáĪļ": 5314,
      "ĠáĪĺáĪįáĬŃáĭĵ": 5315,
      "ĠISBN": 5316,
      "ĠKano": 5317,
      "Ġkutokana": 5318,
      "osa": 5319,
      "áĪŃáī£": 5320,
      "áĭµáĪ¨áĪµ": 5321,
      "Ġeyi": 5322,
      "ĠáĪĻáĪī": 5323,
      "-b": 5324,
      "ĠKats": 5325,
      "inrin": 5326,
      "amad": 5327,
      "Ġfannin": 5328,
      "ĠáĬłáĪħ": 5329,
      "Ġinay": 5330,
      "ĠFarans": 5331,
      "ĠáīĢáĭ³": 5332,
      "ifa": 5333,
      "oyi": 5334,
      "áīµáĪĿ": 5335,
      "Ġosu": 5336,
      "áĬĵáĭŃáīµ": 5337,
      "ĠfÃ¬": 5338,
      "tics": 5339,
      "ĠáĬłáĪīáį¢": 5340,
      "AS": 5341,
      "idd": 5342,
      "aru": 5343,
      "ĠBC": 5344,
      "ari,": 5345,
      "lished": 5346,
      "7-": 5347,
      "Ðµ": 5348,
      "Ġtal": 5349,
      "ĠStates": 5350,
      "ĠpÃłÃ¡": 5351,
      "áĮĪáĪ«áīµ": 5352,
      "áīłáĪ³": 5353,
      "Ġá»įÌĢnÃł": 5354,
      "NÃŃgbÃł": 5355,
      "ĠáĬłáĮĪáĪ®áī½": 5356,
      "Ġáī¥áĪĶáĪ«áĭĬ": 5357,
      "asan": 5358,
      "ĠGeorge": 5359,
      "Ġndani": 5360,
      "Ġent": 5361,
      "páº¹ÌĢ": 5362,
      "áĪµáĪĿ": 5363,
      "ĠáĬ¥áĮįáĭļáĬłáī¥áĪĶáĪŃ": 5364,
      "Ġyao": 5365,
      "ĠÃłjá»į": 5366,
      "áĮĪáī¡": 5367,
      "áīĢáĭµáĪŀ": 5368,
      "Ġáī£áĭŃ": 5369,
      "acin": 5370,
      "ká»įÌĢwÃ©": 5371,
      "Ġmusul": 5372,
      "ÃĴun": 5373,
      "ĠáĭĪáĭŃáĬķáĪĿ": 5374,
      "ĠáīĢáĮ¥áĪİ": 5375,
      "Ġname": 5376,
      "Ġimport": 5377,
      "----": 5378,
      "ĠHen": 5379,
      "-R": 5380,
      "tÃº": 5381,
      "ĠRais": 5382,
      "Ġáī°áĮįáī£": 5383,
      "ente": 5384,
      "áīłáĪµ": 5385,
      "Ġáĭ¨áī°áĪĺ": 5386,
      "áĬłáĪĪ": 5387,
      "ĠÃ²á¹£Ã¨lÃº": 5388,
      "ĠNovemba": 5389,
      "Ġutilis": 5390,
      "ĠmÃªme": 5391,
      "ĠCap": 5392,
      "Ġtout": 5393,
      "Î¿": 5394,
      "Ġsuke": 5395,
      "Ġbiyar": 5396,
      "omas": 5397,
      "ĠBabban": 5398,
      "ĠChina": 5399,
      "Ġsystem": 5400,
      "Ã©t": 5401,
      "Ġperm": 5402,
      "Ġidi": 5403,
      "Ġzab": 5404,
      "Î±": 5405,
      "Ġjá»į": 5406,
      "áĪĪáĪĿáĪ³áĪĮ": 5407,
      "amman": 5408,
      "áĪ¸áĬĲ": 5409,
      "ĠáĪĽáĮ£áīĢáĪ»": 5410,
      "ĠRa": 5411,
      "ivil": 5412,
      "ful": 5413,
      "ks": 5414,
      "Ã¶": 5415,
      "ĠAz": 5416,
      "ĠFebruari": 5417,
      "ĠÃª": 5418,
      "ansu": 5419,
      "Ġáīłáį": 5420,
      "Ġáįİ": 5421,
      "ĠáĭŃáĭ©": 5422,
      "Ġáĭ«áĭĺ": 5423,
      "ĠMu": 5424,
      "Ġsoci": 5425,
      "ĠAbdul": 5426,
      "asara": 5427,
      "ĠcrÃ©": 5428,
      "us.": 5429,
      "ush": 5430,
      "ĠItal": 5431,
      "Ġainsi": 5432,
      "ĠRic": 5433,
      "ĠUS": 5434,
      "ologie": 5435,
      "ĠdÃ¬": 5436,
      "áī°áīµ": 5437,
      "Ġja": 5438,
      "áį¡áīł": 5439,
      "wÃ²rÃ¡n": 5440,
      "Ġ(H": 5441,
      "ions": 5442,
      "kÃ©": 5443,
      "cher": 5444,
      "rÃ¨s": 5445,
      "\")": 5446,
      "ĠÃłá¹£Ãł": 5447,
      "ĠáĬ¨áĭĪ": 5448,
      "ĠOrodha": 5449,
      "áīħáĭ«": 5450,
      "rÃŃwÃ¡": 5451,
      "ĠHer": 5452,
      "ĠáĮ¥áĪ©": 5453,
      "áĭįáĬķáīµ": 5454,
      "Ġkaramar": 5455,
      "ĠNÃłÃ¬jÃŃrÃŃÃł,": 5456,
      "ĠPrin": 5457,
      "tait": 5458,
      "Ġmawa": 5459,
      "ĠGl": 5460,
      "ĠIsland": 5461,
      "BÃŃ": 5462,
      "shi": 5463,
      "Ġshe": 5464,
      "Ġáĭ¨áįĪ": 5465,
      "iru": 5466,
      "áĬŃáĬķ": 5467,
      "ĠáīłáĪħ": 5468,
      "ĠâĢĶ": 5469,
      "á»įÌĢnÃ¹": 5470,
      "ĠáĬłáįįáĪªáĬ«": 5471,
      "ĠpÃ¡": 5472,
      "ĠMinist": 5473,
      "opa": 5474,
      "ayyar": 5475,
      "Ġ1960": 5476,
      "Ġmutanen": 5477,
      "titu": 5478,
      "Ġterrit": 5479,
      "ball": 5480,
      "Ġnou": 5481,
      "Ġpays": 5482,
      "Ġhab": 5483,
      "Ġ202": 5484,
      "ĠáĪĺáĪ¬áīµ": 5485,
      "Ġami": 5486,
      "ĠáīłáĪĽáĪĪáīµ": 5487,
      "jÃ¡de": 5488,
      "Ġhuko": 5489,
      "ĠáĬ¥áĬķáĮįáĪĬáĭĿáĬĽ": 5490,
      "kal": 5491,
      "ĠBell": 5492,
      "ours": 5493,
      "Ġuli": 5494,
      "ĠEast": 5495,
      "ji,": 5496,
      "Ġ2008": 5497,
      "-p": 5498,
      "Ġ%": 5499,
      "Ã©d": 5500,
      "Ġwan": 5501,
      "ĠFrench": 5502,
      "áĪŃáī¶": 5503,
      "ilar": 5504,
      "áĬ¨áī³": 5505,
      "asiasa": 5506,
      "áĭ©áĪµ": 5507,
      "áĮ«áĭĪ": 5508,
      "ĠáĪ³áĭŃáĬķáĪ³áĭĬ": 5509,
      "ĠáįĸáĪĪáī²áĬ«": 5510,
      "áī¥áĪ«áĭŃáĪµáĮ¥": 5511,
      "Ã©c": 5512,
      "hidi": 5513,
      "ĠÃ©gal": 5514,
      "sÃ¡": 5515,
      "yen": 5516,
      "Ġsch": 5517,
      "Ġbai": 5518,
      "Ġruwa": 5519,
      "ps": 5520,
      "Ġdiv": 5521,
      "Ġ2009": 5522,
      "já»įÌĢ": 5523,
      "yáº¹ÌĢ": 5524,
      "áĪ³áĬķ": 5525,
      "ictor": 5526,
      "ĠáĮīáĭ³áĭŃ": 5527,
      "ull": 5528,
      "ce,": 5529,
      "Ġconf": 5530,
      "cy": 5531,
      "ĠáĪ¬": 5532,
      "Ġnit": 5533,
      "á¹£irÃŃ": 5534,
      "ĠOá¹£u": 5535,
      "Ġáĭ«áĪ³": 5536,
      "Ġkáº¹ta": 5537,
      "ĠShugaban": 5538,
      "ĠáĬ¥áĬķáĭ³áĭŃ": 5539,
      "ĠáĭĽáĪ¬": 5540,
      "Ġgirma": 5541,
      "áĭ®áĪŃáĮĬáĪµ": 5542,
      "1=": 5543,
      "Waka": 5544,
      "ina-fin": 5545,
      "utt": 5546,
      "ĠRay": 5547,
      "39": 5548,
      "DP": 5549,
      "toliki": 5550,
      "ishin": 5551,
      "ĠAla": 5552,
      "ĠMic": 5553,
      "áĮĪáĪ¨": 5554,
      "Ġjami": 5555,
      "ĠáĬ¨áĪĨáĬĲ": 5556,
      "ĠBib": 5557,
      "ĠHot": 5558,
      "Ġáĭ¨áĪļáĪ°": 5559,
      "Ġsauran": 5560,
      "áīĤáīµ": 5561,
      "Ġwakil": 5562,
      "Ġaká»įrin": 5563,
      "ĠáĪļáĬĴáĪµáīµ": 5564,
      "4-": 5565,
      "tique": 5566,
      "ald": 5567,
      "Ġwilaya": 5568,
      "ĠgÃ©nÃ©r": 5569,
      "Ġsel": 5570,
      "Ġwaje": 5571,
      "Ġrayuwa": 5572,
      "Ġkilomita": 5573,
      "ĠMin": 5574,
      "áĪŃáĬĵ": 5575,
      "Ġáĭ¨áįį": 5576,
      "áĪįáĬķ": 5577,
      "áĪµáī´": 5578,
      "Ġáīłáī£": 5579,
      "áĬĳáĬķ": 5580,
      "jeo": 5581,
      "áĬ®áĬĸ": 5582,
      "ĠáĪļáĪĬáĭ®áĬķ": 5583,
      "ĠáīłáĪµáī°": 5584,
      "áĬĺáīµ": 5585,
      "ĠKh": 5586,
      "Ġwhere": 5587,
      "Â²": 5588,
      "ense": 5589,
      "asha": 5590,
      "Ġtuntun": 5591,
      "oa": 5592,
      "Ġ2016": 5593,
      "ounc": 5594,
      "áīĢáĪ¨": 5595,
      "ĠáīłáĬ®": 5596,
      "kejÃ¬": 5597,
      "áĬłáĪµ": 5598,
      "áĬ®áīµ": 5599,
      "ĠáĬĵáīµáį¢": 5600,
      "Ġáī°áĬ¨áī³": 5601,
      "kÃ¡láº¹ÌĢ": 5602,
      "ĠRepublic": 5603,
      "jÃ¹": 5604,
      "or,": 5605,
      "wana": 5606,
      "ĠÃªtre": 5607,
      "ras": 5608,
      "°áį»áį": 5609,
      "Ġmm": 5610,
      "ties": 5611,
      "Ġfollow": 5612,
      "áĭµáĪĺ": 5613,
      "ĠIk": 5614,
      "ĠBi": 5615,
      "Ġáį»áį": 5616,
      "ĠáĭŃáĮł": 5617,
      "Ġintern": 5618,
      "áĬ«áĪĿ": 5619,
      "ĠáĪµáī¥áĪµ": 5620,
      "Ġáĭ¨áĪļáĮĪáĬĻ": 5621,
      "Ġáĭ¨áī°áī£áĪĪ": 5622,
      "áĪĻáīµ": 5623,
      "Ġáĭ°áĪ«áĪ²": 5624,
      "ĠolÃ¹darÃŃ": 5625,
      "ĠáĮ¸áī£áĭŃ": 5626,
      "Ġáī£áĪħáĪŃ": 5627,
      "Ġsecond": 5628,
      "alement": 5629,
      "ine,": 5630,
      "com/": 5631,
      "arki": 5632,
      "ĠJapan": 5633,
      "áĭµáĪ®": 5634,
      "ĠáĪĺáīħ": 5635,
      "áĪİáĮĤ": 5636,
      "ĠáīħáĪŃáĪµ": 5637,
      "ĠbÃłbÃ¡": 5638,
      "Ġanci": 5639,
      "ÙİÙ": 5640,
      "ĠRober": 5641,
      "Ġ2018": 5642,
      "http://": 5643,
      "ait": 5644,
      "Ġwould": 5645,
      "áĪ«áĪįáį¢": 5646,
      "áĬ¨áĪĭ": 5647,
      "ji.": 5648,
      "áĪľáīµ": 5649,
      "áĬĵáĭŃáīµáĭµ": 5650,
      "2=": 5651,
      "Sh": 5652,
      "Ġsol": 5653,
      "rahim": 5654,
      "ĠVol": 5655,
      "other": 5656,
      "Ak": 5657,
      "Ġ(Â«": 5658,
      "ĠWe": 5659,
      "istan": 5660,
      "Ġcontr": 5661,
      "Ġ(tÃŃ": 5662,
      "ĠáĬ¥áĪĿáĬĲáīµ": 5663,
      "ĠáĬłáĮĭ": 5664,
      "áĪĭáīģ": 5665,
      "áĪĭáĮĬ": 5666,
      "Ġhigh": 5667,
      "Ġnigba": 5668,
      "ĠáĭŃáĪĭáĪįáį¢": 5669,
      "ety": 5670,
      "áĪ°áĪŃ": 5671,
      "ĠáĭįáĮŃ": 5672,
      "Ġasili": 5673,
      "erg": 5674,
      "ĠCharles": 5675,
      "ĠUfaransa": 5676,
      "Ali": 5677,
      "unin": 5678,
      "áī¥áĬķ": 5679,
      "áĪĭáĪµ": 5680,
      "ĠáĪ²áĪĨáĬĳ": 5681,
      "ĠFranc": 5682,
      "áĬŀáī¹": 5683,
      "Ġhukumomin": 5684,
      "ĠdÃ©partement": 5685,
      "lem": 5686,
      "ĠHausa": 5687,
      "Ġkarni": 5688,
      "Ġ50": 5689,
      "Ġbecame": 5690,
      "áĬķáĬŃ": 5691,
      "ĠáĬ¥áĪŃáĪ±": 5692,
      "uman": 5693,
      "áīħáĬĵ": 5694,
      "ĠáīłáĬ¦": 5695,
      "ĠInstit": 5696,
      "ĠáĬķáĮīáĪł": 5697,
      "ĠáĪĺáĪĨáĬĳáĬķ": 5698,
      "'in": 5699,
      "Ġend": 5700,
      "ijin": 5701,
      "ĠÃº": 5702,
      "ĠSup": 5703,
      "ĠDavid": 5704,
      "Ġmam": 5705,
      "ĠKik": 5706,
      "Ġpoint": 5707,
      "ĠØ§ÙĦ": 5708,
      "minist": 5709,
      "Ã©tÃ©": 5710,
      "ĠáĭĪáī³áĭ°": 5711,
      "Ġkuj": 5712,
      "ĠáĪ¥áįįáĪ«": 5713,
      "ĠáĪµáĪĪáĪĨáĬĲ": 5714,
      "Ġtsarin": 5715,
      "attalin": 5716,
      "ĠkÃºrÃ²": 5717,
      "ĠáĪ¦áĪµáīµ": 5718,
      "ĠÃ©galement": 5719,
      "Ġ(\"": 5720,
      "0,000": 5721,
      "Ġ<": 5722,
      "arak": 5723,
      "ert": 5724,
      "Ġlashe": 5725,
      "Ġ180": 5726,
      "Ġjus": 5727,
      "Ġvit": 5728,
      "zaliwa": 5729,
      "áĬķáĭ²": 5730,
      "Ġáĭ¨áīħ": 5731,
      "Ġmáº¹": 5732,
      "Ã¡Ã¡": 5733,
      "áī£áī³": 5734,
      "Ã²fin": 5735,
      "ĠRo": 5736,
      "ĠáĪ²áīĢ": 5737,
      "áĮħáĪĿ": 5738,
      "Ã¡nÃ¬": 5739,
      "áĮŃáĪŃ": 5740,
      "amuziki": 5741,
      "Ġmkubwa": 5742,
      "ĠRD2-": 5743,
      "ĠIngila": 5744,
      "38": 5745,
      "Ġ(t": 5746,
      "lejin": 5747,
      "195": 5748,
      "aja": 5749,
      "ause": 5750,
      "ĠJames": 5751,
      "37": 5752,
      "ament": 5753,
      "yá»įÌģ": 5754,
      "ĠsÃ¬n": 5755,
      "áĭ«áĪį": 5756,
      "Ġá»įÌģ": 5757,
      "ĠáĮįáĬķáĬĻ": 5758,
      "áī¨áĪŃáĪ²": 5759,
      "ĠCO": 5760,
      "afu": 5761,
      "Ġduni": 5762,
      "Ġkudu": 5763,
      "an-": 5764,
      "ĠMy": 5765,
      "ĠSte": 5766,
      "ĠPop": 5767,
      "vu": 5768,
      "vision": 5769,
      "Ġom": 5770,
      "áĬ¨áĪ¨áĪĿ": 5771,
      "áĬ«áĬ¨áĪĪ": 5772,
      "áĪĨáĬĸ": 5773,
      "ĠáĭµáĪį": 5774,
      "ĠáīµáĪŃáĮīáĪĿ": 5775,
      "ĠáĮİáĬķ": 5776,
      "ĠLÃ¡": 5777,
      "ĠTazama": 5778,
      "Ġdevelop": 5779,
      "áĮª": 5780,
      "áĪµáĭ«": 5781,
      "Ġ(áĭĪ": 5782,
      "áĬŃáĪ²": 5783,
      "áĪªáĪµ": 5784,
      "Ġipinle": 5785,
      "ĠLib": 5786,
      "áĬłáĬķáĭµ": 5787,
      "Ġáĭĺáįĭ": 5788,
      "áīĥáĪ´": 5789,
      "struc": 5790,
      "ispania": 5791,
      "31": 5792,
      "illa": 5793,
      "ĠFM": 5794,
      "tes": 5795,
      "ĠCal": 5796,
      "ĠLove": 5797,
      "Ġba.": 5798,
      "ella": 5799,
      "áīĢáĮ¥": 5800,
      "ĠáĪµáĪŀáī½": 5801,
      "áĪĻáĬķ": 5802,
      "Ġeto": 5803,
      "ĠolÃ³rÃŃ": 5804,
      "ĠOrÃŃláº¹ÌĢ-Ã¨dÃ¨": 5805,
      "ĠáĪĿáĪįáĬŃáīµ": 5806,
      "áīħáĪµáīĥáĪ´": 5807,
      "ĠAct": 5808,
      "Ġ2004": 5809,
      "rid": 5810,
      "Ġiko": 5811,
      "ird": 5812,
      "iya,": 5813,
      "Ġpartie": 5814,
      "áĬķáĮİ": 5815,
      "Ġmt": 5816,
      "áĪĽáĪ½": 5817,
      "áĭ³áĪį": 5818,
      "ĠáĭĺáĪĺáĬĵáĭĬ": 5819,
      "Ġáīłáī°áĪĪ": 5820,
      "ĠAmáº¹ÌģrÃŃkÃł.": 5821,
      "Ġkamfanin": 5822,
      "ĠáĪĥáĭŃáĪĽáĬĸáīµ": 5823,
      "-n": 5824,
      "Ġlead": 5825,
      "ĠYe": 5826,
      "wanda": 5827,
      "ania.": 5828,
      "Ġoun": 5829,
      "ĠAsia": 5830,
      "à¤ķ": 5831,
      "ĠÆĺ": 5832,
      "uch": 5833,
      "add": 5834,
      "umm": 5835,
      "áĪĿáī¥": 5836,
      "ĠáĪĿáĭķáĪ«áī¥": 5837,
      "áį¡áĬ¥": 5838,
      "Ġtaim": 5839,
      "áĭ²áĭ®": 5840,
      "ĠáīµáĪŃ": 5841,
      "ĠáīµáĪĿáĪħáĪŃ": 5842,
      "ekana": 5843,
      "ĠáĪĺáĪ°áĪ¨áīµ": 5844,
      "áĪµáĪĪáĭļáĪħ": 5845,
      "ĠÃłÃ¬sÃłn": 5846,
      "ĠáĭŃáĪĨáĬĵáĪįáį¢": 5847,
      "ography": 5848,
      "ar.": 5849,
      "Ġli": 5850,
      "ĠTV": 5851,
      "tion,": 5852,
      "-D": 5853,
      "zation": 5854,
      "ĠPat": 5855,
      "org/": 5856,
      "Ġprincip": 5857,
      "ĠBahari": 5858,
      "wÃłÃ¡": 5859,
      "áº¹n": 5860,
      "áĪĿáįĴ": 5861,
      "áĪĽáĪį": 5862,
      "Ġáĭ¨áĪ®": 5863,
      "ĠGáº¹ÌĢáº¹ÌģsÃ¬": 5864,
      "ĠFar": 5865,
      "ukuu": 5866,
      "ĠáĬĲáĮĪáĪł": 5867,
      "Ġáĭ«áĪĪáĭįáĬķ": 5868,
      "ĠáĭŃáīĢáĪ«áĪīáį¢": 5869,
      "Ġpataki": 5870,
      "Ġdigiri": 5871,
      "col": 5872,
      "ĠSun": 5873,
      "Ġclass": 5874,
      "ĠMk": 5875,
      "estiv": 5876,
      "Ġalors": 5877,
      "Ġkila": 5878,
      "Ġoko": 5879,
      "Ġáĭ¨áĪ´": 5880,
      "áĮĭáīµ": 5881,
      "ĠÃ²kÃ¨": 5882,
      "Ġ1990": 5883,
      "ĠirÃº": 5884,
      "Ġáī°áĪ«áĪ«": 5885,
      "ĠáĭŃáĪĺáĪµáĪĭáĪįáį¢": 5886,
      "por": 5887,
      "Ġsou": 5888,
      "Ġlui": 5889,
      "ĠSci": 5890,
      "abl": 5891,
      "ture": 5892,
      "ĠBBC": 5893,
      "áĭ°áĪµ": 5894,
      "Ġipo": 5895,
      "ĠáĬŃáĪŃáĪµáī²áĭ«": 5896,
      "áĮĢáīµ": 5897,
      "Ġdesc": 5898,
      "ĠáĮĭáĪ«": 5899,
      "Ġarewa": 5900,
      "eder": 5901,
      "unga": 5902,
      "Ã¡lÃŃ": 5903,
      "Ġpublic": 5904,
      "adhi": 5905,
      "ai.": 5906,
      "Ġthrough": 5907,
      "ĠMajalisar": 5908,
      "99": 5909,
      "At": 5910,
      "nÃº": 5911,
      "Ġdid": 5912,
      "Ġáĭ¨áĪĪáĪĿ": 5913,
      "Ġbila": 5914,
      "Ġwá»įÌĢn": 5915,
      "Ġjagor": 5916,
      "Ġáį©": 5917,
      "Ġá»įjá»į": 5918,
      "ĠáĭŃáĭŀ": 5919,
      "áĮ£áĬķ": 5920,
      "ĠÃĮlÃº": 5921,
      "ĠáĮĪáĮ½": 5922,
      "kÃ³so": 5923,
      "ĠáĮ½áĪķ": 5924,
      "Ġuhuru": 5925,
      "ĠáįĪáĪŃáĭĸáĬķ": 5926,
      "bÃ³": 5927,
      "ual": 5928,
      "kashin": 5929,
      "ĠáĬĽ": 5930,
      "ĠAgb": 5931,
      "ĠáīłáĬ«": 5932,
      "ating": 5933,
      "ĠÃłÃ¡": 5934,
      "áĭ³áĭµ": 5935,
      "Ġmaza": 5936,
      "ĠáĭįáĪĢ": 5937,
      "Ġkwall": 5938,
      "acc": 5939,
      "áĪ²áĭ«": 5940,
      "Ġ1980": 5941,
      "ĠáĭķáĪĪáī°": 5942,
      "ĠáįįáĪ¬": 5943,
      "áĬ¥áĬķáĭ²": 5944,
      "Ġutawala": 5945,
      "Ġsiyasa": 5946,
      "Ġ(1": 5947,
      "Ġhut": 5948,
      "akon": 5949,
      "Tare": 5950,
      "ãĥ": 5951,
      "ĠFI": 5952,
      "ĠEs": 5953,
      "A)": 5954,
      "Ġkun": 5955,
      "ĠBl": 5956,
      "Ġ3.": 5957,
      "Â»)": 5958,
      "uchi": 5959,
      "Ġáĭ¨áĬ¨": 5960,
      "áĪĪáį¢": 5961,
      "itÃ¬": 5962,
      "ĠÃłjáº¹sÃ¡ra": 5963,
      "Ġrest": 5964,
      "Ġáĭ¨áĪ±": 5965,
      "ĠáĪµáĪĭ": 5966,
      "ubakar": 5967,
      "áĮłáĪĪ": 5968,
      "aifaf": 5969,
      "ver,": 5970,
      "áĬķáĮĮ": 5971,
      "áī¥áĪŃáĪĥ": 5972,
      "Ġkula": 5973,
      "ĠáĪĿáĬķáĮĬáĭľ": 5974,
      "ĠFizikia": 5975,
      "nam": 5976,
      "dÃ¡n": 5977,
      "itin": 5978,
      "Ġ2015,": 5979,
      "ĠKati": 5980,
      "aniya": 5981,
      "-áº¹": 5982,
      "áĬ£": 5983,
      "Ġláº¹": 5984,
      "Ġlambar": 5985,
      "Ã¬yÃłn": 5986,
      "ire,": 5987,
      "áī³áĬķ": 5988,
      "Ġá»įlá»įÌģ": 5989,
      "áĬ«áĬ¤áĪį": 5990,
      "áĪİáī¹": 5991,
      "ĠáĪįáĮģ": 5992,
      "Ġarm": 5993,
      "Ġáī¢áĭ«": 5994,
      "Ġidadi": 5995,
      "ĠKejÃ¬": 5996,
      "wÃº": 5997,
      "Ġcr": 5998,
      "uku": 5999,
      "Ġhukuma": 6000,
      "Ġpopulation": 6001,
      "Ġbang": 6002,
      "adio": 6003,
      "Ġáĭ¨áīł": 6004,
      "Ġáĭ¨áĮĭ": 6005,
      "ĠA.": 6006,
      "gbá»įÌģ": 6007,
      "ulikana": 6008,
      "ĠáĭįáĪĥ": 6009,
      "odo": 6010,
      "ĠáīłáĪĺáĪĨáĬķ": 6011,
      "Ġkarkashin": 6012,
      "Ġdem": 6013,
      "ĠKib": 6014,
      "76": 6015,
      "á¹¢": 6016,
      "sÃ¡n": 6017,
      "áĬķáīĢ": 6018,
      "ĠáĪĺáĮį": 6019,
      "ĠáĬ¨áĪĿ": 6020,
      "ikan": 6021,
      "ĠáīłáĬ¤": 6022,
      "áĬ¥áĬĲáĭļáĪħ": 6023,
      "Ġ2017": 6024,
      "ÃŃnÃº": 6025,
      "Ġáī£áĪķáĪŃ": 6026,
      "áīłáīµáĬķ": 6027,
      "Ġáĭ¨áĬłáĭ¨áĪŃ": 6028,
      "áīĤáĭ«": 6029,
      "ĠolÃ³gun": 6030,
      "---": 6031,
      "Ġkazi": 6032,
      "ĠKingdom": 6033,
      "Ġrasmi": 6034,
      "áī¨áĪŃáĪ²áī²": 6035,
      "ily": 6036,
      "re,": 6037,
      ".S.": 6038,
      "falme": 6039,
      "Ġdari": 6040,
      "âĢľ": 6041,
      "ara.": 6042,
      "atikana": 6043,
      "volution": 6044,
      "ĠoÃ¹": 6045,
      "Ġvile": 6046,
      "itÃ©s": 6047,
      "Ġtim": 6048,
      "tif": 6049,
      "ask": 6050,
      "ĠáĪĪáĪļ": 6051,
      "ĠEmp": 6052,
      "iya.": 6053,
      "áĬĽáĭįáĪĿ": 6054,
      "amment": 6055,
      "pace": 6056,
      "ocratic": 6057,
      "ĠMto": 6058,
      "Ġáīª": 6059,
      "ĠCong": 6060,
      "ĠTim": 6061,
      "Ġthere": 6062,
      "Ġlabar": 6063,
      "alo": 6064,
      "áĭ«áĪľ": 6065,
      "ĠáĬłáĭĭ": 6066,
      "arkin": 6067,
      "Ġmáº¹Ìģta": 6068,
      "Ġá»ĮÌĢyá»įÌģ": 6069,
      "Ġzaman": 6070,
      "Ġtáº¹li": 6071,
      "Ġ2017,": 6072,
      "ĠDun": 6073,
      "ĠÃºn": 6074,
      "âĢ¹": 6075,
      "áĬķáī¥": 6076,
      "arn": 6077,
      "Ġsayensi": 6078,
      "ĠáĮĥ": 6079,
      "áĭŃáĪģ": 6080,
      "Ġáī°áĮ½": 6081,
      "ĠáīłáĪĭ": 6082,
      "áįįáĬķ": 6083,
      "áĪ°áīµ": 6084,
      "ried": 6085,
      "ĠbÃŃbÃŃ": 6086,
      "Ġ184": 6087,
      "Ġáº¹ÌĢrá»į": 6088,
      "ĠáĬłáĪĪáĭį": 6089,
      "ĠáĬłáĪĪáĭįáį¢": 6090,
      "wÃ¹já»į": 6091,
      "ĠáĭŃáī»áĪĭáĪįáį¢": 6092,
      "Sa": 6093,
      "bÃ©": 6094,
      "le.": 6095,
      "ĠAdam": 6096,
      "Ġaye": 6097,
      "Ġmn": 6098,
      "Ġhank": 6099,
      "ĠChristi": 6100,
      "Ġikan": 6101,
      "ongozi": 6102,
      "Ġmed": 6103,
      "ibi": 6104,
      "ĠáīĦ": 6105,
      "ĠáĬłáĭĺ": 6106,
      "áĪ³áĪ°": 6107,
      "uts": 6108,
      "ĠFasihi": 6109,
      "áĬ¨áī°áĪĽáĭį": 6110,
      "Ġáī¢áĪĨáĬķáĪĿ": 6111,
      "ĠáĪĿáĬķáĮĬáĭľáĪĿ": 6112,
      "32": 6113,
      "ĠGuine": 6114,
      "Ġdisc": 6115,
      "uel": 6116,
      "Ġsim": 6117,
      "Ġcity": 6118,
      "ste": 6119,
      "Ġimp": 6120,
      "aifaffun": 6121,
      "ĠSoci": 6122,
      "yÃ¬ÃŃ": 6123,
      "ĠáĬĲáĮ¥": 6124,
      "Ġáī°áĬŃáĪį": 6125,
      "ĠPÃ³": 6126,
      "áī¡áĬķ": 6127,
      "ĠáĬłáĪįáī°": 6128,
      "ĠRoma,": 6129,
      "ĠáĪłáĪ«áĭĬáīµ": 6130,
      "-H": 6131,
      "ĠÅ": 6132,
      "ĠMer": 6133,
      "pÃ¨": 6134,
      "ĠBay": 6135,
      "iyoyin": 6136,
      "team": 6137,
      "Ġsunan": 6138,
      "Ġqu'il": 6139,
      "Ġsani": 6140,
      "Ġáĭ¨áįĬ": 6141,
      "áĪĺáĮ¥": 6142,
      "ĠÃłdÃºgbÃ²": 6143,
      "Ġred": 6144,
      "ikukuu": 6145,
      "ĠÃ¬á¹£áº¹ÌĢláº¹ÌĢ": 6146,
      "áĪªáīĥ": 6147,
      "ĠáĭĪáĮ¥": 6148,
      "áī¸áĭĭáĪįáį¢": 6149,
      "ĠáĪ°áĬĲ": 6150,
      "ĠáĪĬáīĥ": 6151,
      "ĠáīĨáĭŃ": 6152,
      "áĬķáĮīáĪ¥": 6153,
      "ĠkmÂ²": 6154,
      "ĠáĬłáĪ«áīµ": 6155,
      "áĪįáĪµáįįáĬĵ": 6156,
      "Ġáįªáį»áį": 6157,
      "Ġá¹£ÃŃá¹£e": 6158,
      "ĠdÃºrÃ³": 6159,
      "Ġcalled": 6160,
      "ret": 6161,
      "arci": 6162,
      "Ã©m": 6163,
      "Ġpass": 6164,
      "Ġinv": 6165,
      "Ġces": 6166,
      "ĠVal": 6167,
      "ĠdÃ©velop": 6168,
      "anisha": 6169,
      "Ġkayan": 6170,
      "Ġ(k": 6171,
      "Ġbisa": 6172,
      "ĠáĬ¨áĮį": 6173,
      "Ġnau": 6174,
      "Ġáī°áĮĪ": 6175,
      "áĪªáĬ®áī½": 6176,
      "ĠáĭŃáīĨ": 6177,
      "Ġ2012,": 6178,
      "Ġkwallon": 6179,
      "ĠÃ¬dÃŃlÃ©": 6180,
      "ĠÃ¬dÃŃje": 6181,
      "ĠmÃŃrÃłn": 6182,
      "ĠáĮĮáī³": 6183,
      "ĠáĮĬáĭ®áĪŃáĮĬáĪµ": 6184,
      "Ġkifo": 6185,
      "=\"": 6186,
      "Ġv.": 6187,
      "Ġem": 6188,
      "Ġfut": 6189,
      "ĠTari": 6190,
      "ĠEle": 6191,
      "Ġmusamman": 6192,
      "Ġ2019,": 6193,
      "Ġtime": 6194,
      "ĠMari": 6195,
      "um,": 6196,
      "ĠCha": 6197,
      "Ġila": 6198,
      "Ġyears": 6199,
      "bá»įÌĢ": 6200,
      "áĪĪáīĢ": 6201,
      "ĠKananan": 6202,
      "áĪĽáĭįáĭ«áĬķ": 6203,
      "ĠáįĮ": 6204,
      "ĠÃ¬s": 6205,
      "áĪ°áĪĽ": 6206,
      "ĠLou": 6207,
      "áī¸áĭī": 6208,
      "Ġ2014,": 6209,
      "ĠáĪĬáīĢ": 6210,
      "ĠáĬłáĪĺáī³áīµ": 6211,
      "áī·áĬķ": 6212,
      "::": 6213,
      "view": 6214,
      "ĠFÃ¡": 6215,
      "aman": 6216,
      "71": 6217,
      "Ġ40": 6218,
      "julo": 6219,
      "ler": 6220,
      "áĪµáį£": 6221,
      "ĠáīłáĪĢ": 6222,
      "ĠWat": 6223,
      "áĬ«áĪĦ": 6224,
      "Ġá¹£i": 6225,
      "ĠáĮĪáĭ¥": 6226,
      "ĠáĪĺáĬķáĮįáĪ¥áī³áīµ": 6227,
      "ominira": 6228,
      "áĭŀáī½": 6229,
      "Ġáĭ¨áīĢáĭµáĪŀ": 6230,
      "áĪĨáĬĸáĪĿ": 6231,
      ");": 6232,
      "Ġchar": 6233,
      "Ġ2016,": 6234,
      "ky": 6235,
      "ument": 6236,
      "Ġresp": 6237,
      "ĠGeorg": 6238,
      "Ġtsohon": 6239,
      "Ø¨": 6240,
      "Ġconc": 6241,
      "táº¹ÌĢ": 6242,
      "Åį": 6243,
      "áĭ°áĬķ": 6244,
      "áĪ³áĪįáį¢": 6245,
      "áĬĴáĪįáĬŃ": 6246,
      "áįĬáĭ«": 6247,
      "Ġáĭ¨áĪļáĮĪáĬĿáīłáīµ": 6248,
      "ĠQue": 6249,
      "Ġambao": 6250,
      "Ġkuhusu": 6251,
      "33": 6252,
      "day": 6253,
      "Ge": 6254,
      "-e": 6255,
      "Ġ(The": 6256,
      "ĠKat": 6257,
      "ĠBlack": 6258,
      "ington": 6259,
      "endo": 6260,
      "ĠáĬĥ": 6261,
      "ĠáĬ¥áĬ©áĪį": 6262,
      "ĠáĬłáĬĵ": 6263,
      "ĠáįĴ": 6264,
      "ĠWan": 6265,
      "ĠÃ²bÃŃ": 6266,
      "Ġorigin": 6267,
      "ĠáĪĨáĬĳ": 6268,
      "Ġprogr": 6269,
      "Ġáĭķáĭµ": 6270,
      "ĠáīłáĬłáĪģáĬĳ": 6271,
      "ĠáĭĺáĬķáĭµáį£": 6272,
      "es)": 6273,
      "ĠGold": 6274,
      "ichael": 6275,
      "Ġciki": 6276,
      "Ã¨rÃ¨": 6277,
      "yyun": 6278,
      "Ġnjia": 6279,
      "ando": 6280,
      "ĠTe": 6281,
      "oki": 6282,
      "Ġey": 6283,
      "ĠtrÃ¨s": 6284,
      "áįı": 6285,
      "ĠáīĤ": 6286,
      "Ġkin": 6287,
      "Ġ(in": 6288,
      "Ġbro": 6289,
      "áĪĪáĭĭáĪįáį¢": 6290,
      "ĠMah": 6291,
      "ĠáĬ¨áī£": 6292,
      "Ġáī°áĮ«": 6293,
      "Ġáĭ¨áĪģ": 6294,
      "áĭĿáĪĿ": 6295,
      "ĠáĪ²áĪį": 6296,
      "ĠáĮįáĭµ": 6297,
      "ĠâĢ¹": 6298,
      "áĭ±áį¢": 6299,
      "Ġ2002": 6300,
      "ĠáĪĬáĭ«": 6301,
      "áĭ°áĪ¨áĮĪáĭį": 6302,
      "ĠáĪĺáĮ»áĪķáįįáīµ": 6303,
      "bon": 6304,
      "Ġnada": 6305,
      "ĠUk": 6306,
      "ector": 6307,
      "Ġfam": 6308,
      "ĠDola": 6309,
      "ĠKiswahili": 6310,
      "58": 6311,
      "ant,": 6312,
      "Ġáĭ¨áĮĢáĪŃáĪĺáĬķ": 6313,
      "áī°áĬĵ": 6314,
      "áĪ¨áĪŃ": 6315,
      "ĠS.": 6316,
      "ĠIá¹£áº¹Ìģ": 6317,
      "adaye": 6318,
      "ĠÃ¬bÃ¡": 6319,
      "ĠáīłáĪŀ": 6320,
      "ĠáĬ¥áĬķáīħáĪµáīĥáĪ´": 6321,
      "ĠHistoria": 6322,
      "Ġáī¥áĪĶáĪŃ": 6323,
      "Ġ2011,": 6324,
      "ĠáĬŃáĪĪáī¥": 6325,
      "ĠáīłáĪĺáī£áĪį": 6326,
      "ĠáĮĪáī¥áĪ¨": 6327,
      "áĭ°áĪŃáĮį": 6328,
      "ĠáĬłáīĢáįį": 6329,
      "Ġoluilu": 6330,
      "pasáº¹": 6331,
      "Ã¡lÃŃÃł": 6332,
      "ĠMont": 6333,
      "ĠTun": 6334,
      "ĠRaya": 6335,
      "Ġaliy": 6336,
      "Ġasalin": 6337,
      "ĠÆĻas": 6338,
      "wezi": 6339,
      "Ġ'yar": 6340,
      "Ġlokaci": 6341,
      "âĢĻar": 6342,
      "79": 6343,
      "Ġemp": 6344,
      "áĭ·": 6345,
      "ĠnÃ©": 6346,
      "áĪŃáī³": 6347,
      "ĠáĬ¥áĪĿ": 6348,
      "Ġrap": 6349,
      "Ġáĭ¨áĪļáĪ°áĪ«": 6350,
      "ĠáĪĽáĬħ": 6351,
      "Ġvisiwa": 6352,
      "áĪ¥áĪ«": 6353,
      "Ġá¹£áº¹": 6354,
      "ieurs": 6355,
      "Ġáĭ¨áĭĵáĪĺáī±": 6356,
      "ministr": 6357,
      "-l": 6358,
      "yth": 6359,
      "Â°": 6360,
      "ames": 6361,
      "Ġjerin": 6362,
      "Ġgida": 6363,
      "ectr": 6364,
      "ĠGreek": 6365,
      "Ġpremier": 6366,
      "Ġmemb": 6367,
      "Ġ(,": 6368,
      "ĠMos": 6369,
      "Ã©rie": 6370,
      "74": 6371,
      "fia": 6372,
      "Ġyabo": 6373,
      "ĠáĪĺáĬ®": 6374,
      "ĠáĪĺáĪ£": 6375,
      "Ġhata": 6376,
      "ĠáĬ¨áĮ¥": 6377,
      "Ġnipasáº¹": 6378,
      "ĠÃ¬yÃ¡": 6379,
      "áĬ¨áĬĵ": 6380,
      "ĠWomen": 6381,
      "áĬķáĮįáĪį": 6382,
      "ĠáĬĲáĮĪáĪ¥áīµ": 6383,
      "Ġáĭ¨áĬĲáīłáĪ©áīµ": 6384,
      "áĮĬáĭ«": 6385,
      "áĮĬáĭľáĭį": 6386,
      "ĠáīµáĬķáĪ½": 6387,
      "ĠáĪºáĪħ": 6388,
      "Ġnumber": 6389,
      "zed": 6390,
      "ĠRoman": 6391,
      "Ġ(d.": 6392,
      "-G": 6393,
      "Ġworld": 6394,
      "ederal": 6395,
      "Ġ\"S": 6396,
      "Ġ(196": 6397,
      "ine.": 6398,
      "eland": 6399,
      "ĠáĬ¨áĪµ": 6400,
      "ĠKÃ²": 6401,
      "ĠáĪµáĬķ": 6402,
      "Ġáĭ«áĪĭáī¸áĭį": 6403,
      "agn": 6404,
      "Ġmace": 6405,
      "lav": 6406,
      "Ġ31": 6407,
      "ĠIbadan": 6408,
      "ĠáīĥáĪĭáīµ": 6409,
      "ĠáĬłáĮĪáĪįáĮįáĪİáīµ": 6410,
      "-r": 6411,
      "Ġ\"M": 6412,
      "ĠBenin": 6413,
      "ĠMoh": 6414,
      "asaha": 6415,
      "....": 6416,
      "Ġmajalisar": 6417,
      "kiri": 6418,
      "ĠKya": 6419,
      "Ġstate": 6420,
      "ected": 6421,
      "bit": 6422,
      "áĪįáĮĭ": 6423,
      "ĠhÃłn": 6424,
      "Ġáĭ¨áī°áī£": 6425,
      "angi": 6426,
      "ĠáĬłáĪµáįĪ": 6427,
      "Ġ1970": 6428,
      "ĠáĮĢáĪŃáĪĺáĬķ": 6429,
      "Ġáī°áĪĺáĪ³áĪ³áĭŃ": 6430,
      "ĠáĬłáī£áĪĭáīµ": 6431,
      "áĬ®áĬĸáĪļ": 6432,
      "C)": 6433,
      "ĠPo": 6434,
      "âĢĶ": 6435,
      "ĠMovie": 6436,
      "Ġx": 6437,
      "qu'": 6438,
      "Ġshirin": 6439,
      "dini": 6440,
      "ged": 6441,
      "ym": 6442,
      "ĠÂ»,": 6443,
      "rown": 6444,
      "áĭŃáĪį": 6445,
      "ka.": 6446,
      "ĠáĬłáĮį": 6447,
      "ĠáĬłáĮł": 6448,
      "á»įÌģka": 6449,
      "Ġjul": 6450,
      "Ġá»įwá»įÌģ": 6451,
      "áĭ¨áĪļ": 6452,
      "ĠgbÃ¡": 6453,
      "Ġleyin": 6454,
      "áĪĬáĬķ": 6455,
      "Ġthree": 6456,
      "ĠdÃ©s": 6457,
      "Ġmasana": 6458,
      "ĠáĪĪáĪĽáĪµ": 6459,
      "pá»įlá»į": 6460,
      "ĠMusulunci": 6461,
      "Ġ×": 6462,
      "Ġnu": 6463,
      "ĠBorn": 6464,
      "ra,": 6465,
      "Se": 6466,
      "yá»įÌĢ": 6467,
      "ĠBest": 6468,
      "áĮłáīµ": 6469,
      "ĠKaduna": 6470,
      "VID": 6471,
      "ii": 6472,
      "Ø¯": 6473,
      "ator": 6474,
      "Ġshug": 6475,
      "áĮİáī½": 6476,
      "ĠáĬ¥áĪ«áĪ±": 6477,
      "Ġáĭ¨áĬ¡": 6478,
      "áĪīáĬķ": 6479,
      "ĠáĭĵáĭŃáĬĲáīµ": 6480,
      "Ġáĭ¨áĬłáĭįáĪ®áįĵ": 6481,
      "ĠáĬłáĪĪáį¢": 6482,
      "ĠadarÃŃ": 6483,
      "ĠáĮĢáĪĺáĪ¨": 6484,
      "wÃ²sÃłn": 6485,
      "ĠáĬłáĪĿáī£": 6486,
      "ĠáĬŃáįįáĪĭáĮĪáĪŃ": 6487,
      "á¹£irÃŃá¹£i": 6488,
      "Ġ||": 6489,
      "Ġkara": 6490,
      "ĠWh": 6491,
      "-E": 6492,
      "Ġdini": 6493,
      "Ġká»įÌĢ": 6494,
      "Ġáĭ¨áĪ«áĪ±": 6495,
      "Ġ(He": 6496,
      "áĪ°áĪį": 6497,
      "okeo": 6498,
      "áĭĺáĭį": 6499,
      "ows": 6500,
      "¢áīµáĭ®áĮµáĭ«áĬķ": 6501,
      "Ġkan.": 6502,
      "ĠáĪĺáĪįáĬ©": 6503,
      "Ġáī°áĬ¨áī³áĭŃ": 6504,
      "Ġmbili": 6505,
      "Ç¹kan": 6506,
      "ĠdÃŃáº¹ÌĢ": 6507,
      "yá»įkÃł": 6508,
      "yya": 6509,
      "Ġfina-fin": 6510,
      "ĠAbubakar": 6511,
      "ĠMutane": 6512,
      "osp": 6513,
      "ists": 6514,
      "Ġpap": 6515,
      "Ġ(17": 6516,
      "ĠáĮĦ": 6517,
      "áĪĺáĬĳ": 6518,
      "ĠKáº¹Ìģ": 6519,
      "áĬŃáĪŃáĪµáī¶áĪµ": 6520,
      "Ġáī°áĭ°áĪŃ": 6521,
      "ĠáĪĿáĪħ": 6522,
      "ĠáĪµáĭ«áĪľ": 6523,
      "ĠYunifÃ¡sÃŃtÃ¬": 6524,
      "ĠÃ²fin": 6525,
      "Ġáĭ¨áĪĨáĬĲáĭį": 6526,
      "ĠAssociation": 6527,
      "Ġele": 6528,
      "unic": 6529,
      "ĠAw": 6530,
      "Ġpin": 6531,
      "ĠlÃŃ": 6532,
      "ĠUni": 6533,
      "ĠLegas": 6534,
      "ĠGod": 6535,
      "wali": 6536,
      "Ġmade": 6537,
      "áĬĲáĬĽ": 6538,
      "áĪĭáĪĭ": 6539,
      "Ġnibi": 6540,
      "ĠáĭŃáĪĺ": 6541,
      "áĭ³áĪª": 6542,
      "ĠHaifaffun": 6543,
      "Ġearly": 6544,
      "áĪİáĪµ": 6545,
      "Ġbahari": 6546,
      "Ġprob": 6547,
      "áī£áī¢áĪİáĬķ": 6548,
      "ĠKÃ¡tÃ³": 6549,
      "ayansi": 6550,
      "ĠáīĢáĭŃ": 6551,
      "haa": 6552,
      "Ita": 6553,
      "áĬķáĮ»": 6554,
      "Ġsos": 6555,
      "áĮįáĬĵ": 6556,
      "áīłáī³áĪįáį¢": 6557,
      "ĠSer": 6558,
      "ĠNollywood": 6559,
      "Ã²wÃ²": 6560,
      "áĭ¨áĪ©": 6561,
      "ĠGa": 6562,
      "Ġelle": 6563,
      "ĠáĮ£áĪį": 6564,
      "áĪªáī³áĬķáĭ«": 6565,
      "ĠRoyal": 6566,
      "Ġserv": 6567,
      "fore": 6568,
      "win": 6569,
      "ÉĹa": 6570,
      "Ġbiashara": 6571,
      "Ġ'Yan": 6572,
      "shir": 6573,
      "guzi": 6574,
      "ĠKemia": 6575,
      "Ġbel": 6576,
      "ĠWal": 6577,
      "ĠEgyp": 6578,
      "Ġphilos": 6579,
      "ĠGrand": 6580,
      "fáº¹ÌĢ": 6581,
      "Ġáĭ¨áĪį": 6582,
      "ĠáīłáĭŃ": 6583,
      "áĪĪáī±": 6584,
      "ĠáĮ¤": 6585,
      "Ġfir": 6586,
      "ĠNor": 6587,
      "Ġika": 6588,
      "ides": 6589,
      "ĠáĪ°áĪŃ": 6590,
      "Ġáĭ°áī¥": 6591,
      "áīĭáīĭ": 6592,
      "áīģáīµ": 6593,
      "fihÃłn": 6594,
      "Ġpeu": 6595,
      "áº¹ÌģrÃ¬n": 6596,
      "áĭŃáĪħáĪĿ": 6597,
      "Ġmwanamuziki": 6598,
      "Ġáĭ¨áĪħáĭĿáī¥": 6599,
      "áįĲáī¥áĪĬáĬŃ": 6600,
      "ĠáĬĽáĭį": 6601,
      "gani": 6602,
      "Ġ(l": 6603,
      "Ġcas": 6604,
      "kÃºn": 6605,
      "oba": 6606,
      "Ġnatur": 6607,
      "Ġwote": 6608,
      "arautar": 6609,
      "ĠFin": 6610,
      "Ġ2018,": 6611,
      "ĠwaÉĹanda": 6612,
      "77": 6613,
      "ken": 6614,
      "Ġ\"B": 6615,
      "Ġbeing": 6616,
      "ĠIndia": 6617,
      "rom": 6618,
      "áĭµáĪ¨": 6619,
      "ĠáĪĿáĭķáĪ«": 6620,
      "Ġáī¤áī¶áī½": 6621,
      "seed": 6622,
      "áĮ»áįĪ": 6623,
      "Ġáĭ¨áĬĲáĮĪ": 6624,
      "ĠÃ²á¹£Ã¨rÃ©bÃ¬nrin": 6625,
      "Ġmagharibi": 6626,
      "eriod": 6627,
      "ĠKanisa": 6628,
      "Ġáĭ¨áĪĻáĭļáīĥ": 6629,
      "Ġn.k.": 6630,
      "ĠkÃłwÃ©": 6631,
      "Ġ(c": 6632,
      "ĠBraz": 6633,
      "Ġthem": 6634,
      "Ġ''": 6635,
      "Ġmur": 6636,
      "ĠGen": 6637,
      "Ġilimin": 6638,
      "istori": 6639,
      "Ġenc": 6640,
      "ilip": 6641,
      "Ġidan": 6642,
      "-P": 6643,
      "esse": 6644,
      "ĠWaz": 6645,
      "Ġsuc": 6646,
      "De": 6647,
      "uz": 6648,
      "áĮįáĪĽáĭĬ": 6649,
      "áĮĭáĮĪáĪŃ": 6650,
      "Ġáº¹ran": 6651,
      "áĬķáĮįáĪ¥áīµ": 6652,
      "ĠÃ¨rÃ²": 6653,
      "ĠÃĮjá»į": 6654,
      "áĭ±áīµ": 6655,
      "ĠáĬ¥áĪµáĬ«": 6656,
      "Ġfiimu": 6657,
      "gbÃ¨gbÃ¨": 6658,
      "ĠannÃ©es": 6659,
      "Ġáĭ©áĬĴáī¨áĪŃáĪ²áī²": 6660,
      "ĠáĮįáĬķáĬĻáĬĲáīµ": 6661,
      "Ġwá»įÌĢnyÃŃ": 6662,
      "ĠAth": 6663,
      "ista": 6664,
      "ikwayo": 6665,
      "49": 6666,
      "Ġkip": 6667,
      "Ġmain": 6668,
      "5-": 6669,
      "áĬķáĮĢ": 6670,
      "áĭµáīħ": 6671,
      "áĬŃáĪĿáĬĵ": 6672,
      "ĠáĬ¥áĬķáĭ´áīµ": 6673,
      "Ġzil": 6674,
      "áĮłáī¥": 6675,
      "Ġ2016.": 6676,
      "lÃ©lÃ³gÃºn": 6677,
      "ĠáĭĭáĮĭ": 6678,
      "Ġáī°áĪĺáĪį": 6679,
      "ĠáĪģáĪĪáī°áĬĽ": 6680,
      "46": 6681,
      "ĠOff": 6682,
      "isan": 6683,
      "Ġbl": 6684,
      "Ġfon": 6685,
      "ĠBas": 6686,
      "Ã©.": 6687,
      "Ġ3,": 6688,
      "Iá¹£áº¹Ìģ": 6689,
      "joko": 6690,
      "áĬĵáĮĪáĪŃ": 6691,
      "ĠáīłáĪ¥": 6692,
      "ĠáĬŃáĪŃ": 6693,
      "áĪµáīµáĪª": 6694,
      "Ġáº¹ÌĢka": 6695,
      "áĭ°áī¥áĪ¨": 6696,
      "ĠÃĴgÃ¹n": 6697,
      "áįĸáĪŃáīµ": 6698,
      "ĠáĬ¨áĭļáĭ«áĪĿ": 6699,
      "Ġhaifi": 6700,
      "ges": 6701,
      "ĠtÃº": 6702,
      "Ġpuis": 6703,
      "usin": 6704,
      "áī¢áĭŃ": 6705,
      "ĠAfrika.": 6706,
      "ĠMusic": 6707,
      "lima": 6708,
      "Ġwell": 6709,
      "ĠHukum": 6710,
      "ived": 6711,
      "ountr": 6712,
      "áĭ«áīĦ": 6713,
      "áĪĪáīłáīµ": 6714,
      "ĠáĬłáĬŃ": 6715,
      "ĠáĪĪáĭĪ": 6716,
      "ĠáĮ¥áīłáī¥": 6717,
      "áĪĲáĪ´": 6718,
      "ĠIbrahim": 6719,
      "ĠáĮ¨áĪĿáĪ®": 6720,
      "ĠfÃŃl": 6721,
      "ĠáĬłáĪµáī°áĭ³áĭ°áĮį": 6722,
      "áīħáĭ«áĬĸáĪµ": 6723,
      "ĠRayayyun": 6724,
      "Ġtena": 6725,
      "elf": 6726,
      "ĠHigh": 6727,
      "ivi": 6728,
      "ĠSt.": 6729,
      "ĠGirl": 6730,
      "ilia": 6731,
      "ĠTan": 6732,
      "aract": 6733,
      "tains": 6734,
      "Ġmagana": 6735,
      "Ġhalarci": 6736,
      "Ġbara": 6737,
      "ye-": 6738,
      "ĠáīłáĮĭ": 6739,
      "Ġáīł16": 6740,
      "ĠáĬłáī¡": 6741,
      "ĠáĪĺáī¥": 6742,
      "áĪĽáī¸áĭį": 6743,
      "rian": 6744,
      "Ġgbá»įÌģ": 6745,
      "Ġáĭĺáĭį": 6746,
      "ĠáĪįáĪĽ": 6747,
      "Ġkwaikwayo": 6748,
      "áĮ½áĭĭáīµ": 6749,
      "teur": 6750,
      "ĠáĮĪáĬĵ": 6751,
      "ĠáĪ¥áĮĭ": 6752,
      "Ġile-i": 6753,
      "Ġtradi": 6754,
      "ĠáĬłáĭįáĪ«": 6755,
      "ĠKaskazini": 6756,
      "lÃ¬kÃ¬": 6757,
      "Ġáĭ°áĪ´áīµ": 6758,
      "ĠáįĪáĪ¨áĬķáĪ³áĭŃ": 6759,
      "ribu": 6760,
      "ĠCOVID": 6761,
      "gÃ¬": 6762,
      "les,": 6763,
      "Ġmwenye": 6764,
      "irgin": 6765,
      "ĠKal": 6766,
      "ĠDen": 6767,
      "ĠJoseph": 6768,
      "3=": 6769,
      "pÃłÃ¡": 6770,
      "ªáĭ«": 6771,
      "Ġáī²": 6772,
      "Ġwar": 6773,
      "ĠáĬĲáįĥ": 6774,
      "ĠáĪĺáĪĭ": 6775,
      "ĠáĪĺáĬĸ": 6776,
      "Ġjim": 6777,
      "oloj": 6778,
      "ĠDr": 6779,
      "áįĬáĭİáī½": 6780,
      "ĠáĪļáĬ«áĬ¤áĪį": 6781,
      "ĠÃ¬tÃł": 6782,
      "ĠáĬªáĭ³áĬķ": 6783,
      "Ġáīłáī¥áĭĻ": 6784,
      "ĠdiffÃ©r": 6785,
      "áīĢáĪĺáĮ«": 6786,
      "ĠáĮłáīħáĪĭáĭŃ": 6787,
      "ĠKÃ¡tÃ³lÃ¬kÃ¬": 6788,
      "ĠfÃŃlmÃ¹": 6789,
      "96": 6790,
      "ories": 6791,
      "ĠBook": 6792,
      "amia": 6793,
      "ĠBrit": 6794,
      "Ġilimi": 6795,
      "Ġmen": 6796,
      "un.": 6797,
      "áĪ¦": 6798,
      "Ġfarkon": 6799,
      "ĠMary": 6800,
      "áĭ°áĪŃáĪµ": 6801,
      "ĠáĪĺáĮĢáĪĺáĪªáĭ«": 6802,
      "áĪ«áĭįáĭ«áĬķ": 6803,
      "eda": 6804,
      "áĮ¥áĬĲáīµ": 6805,
      "ĠáĪĿáĬĴáĪįáĬŃ": 6806,
      "áĮĭáī¢áīµ": 6807,
      "otes": 6808,
      "áī¤áī±": 6809,
      "Ġá»Įmá»į": 6810,
      "ES": 6811,
      "oung": 6812,
      "ÑĢ": 6813,
      "Ġvil": 6814,
      "za.": 6815,
      "ĠAkin": 6816,
      "olowo": 6817,
      "Ġoluk": 6818,
      "owever,": 6819,
      "gÃŃ": 6820,
      "ĠPak": 6821,
      "-áĬ¢": 6822,
      "s)": 6823,
      "áĭ«áĪįáį¢": 6824,
      "áĭ«áĭįáĭ«áĬķ": 6825,
      "áĪ³áĭį": 6826,
      "ĠáĭĵáĪĭáĪĽ": 6827,
      "ÃłnÃł": 6828,
      "Ġáº¹bÃŃ": 6829,
      "wararr": 6830,
      "Ġáĭ¨áĪĺáĮ£": 6831,
      "ĠáĪĬáĪĨáĬķ": 6832,
      "Ġáĭķáĭį": 6833,
      "ĠolÃ³Ã²": 6834,
      "ĠáĪľáĭ³": 6835,
      "rÃ¬á¹£Ãł": 6836,
      "binrin": 6837,
      "Ġyamm": 6838,
      "73": 6839,
      "nes": 6840,
      "Î¹": 6841,
      "Ġ+": 6842,
      "atis": 6843,
      "Ġlater": 6844,
      "ĠDemocratic": 6845,
      "mÃł": 6846,
      "asc": 6847,
      "Ġcutar": 6848,
      "ĠNchi": 6849,
      "ĠOly": 6850,
      "Ġvis": 6851,
      "ootball": 6852,
      "Ġtarihi": 6853,
      "88": 6854,
      "Pope": 6855,
      "ware": 6856,
      "unt": 6857,
      "Ùĩ": 6858,
      "áº¹áº¹ráº¹": 6859,
      "onne": 6860,
      "áĪĿáīłáĪŃ": 6861,
      "ĠMkoa": 6862,
      "áī³áĪĿ": 6863,
      "ĠáĭĪáĭĺ": 6864,
      "Ġáĭ«áĭį": 6865,
      "áīłáĪ®": 6866,
      "áĬķáĭµáĪµáĬĵ": 6867,
      "áĬķáĮįáĪµáīµ": 6868,
      "áī¹áĬķ": 6869,
      "áĮĥáĭĿáĪĽáī½": 6870,
      "nÃ¬s": 6871,
      "ĠáĮ¸áĪĲáįĬ": 6872,
      "ĠáīłáĪŃáĬ«áī³": 6873,
      "ĠáĬłáĪµáī°áĭ³áĭ°áĪŃ": 6874,
      "ournal": 6875,
      "ĠGomina": 6876,
      "ĠPÃ³pÃ¹": 6877,
      "BA": 6878,
      "Ġsal": 6879,
      "Ġsans": 6880,
      "Ġmajor": 6881,
      "Ġkisiwa": 6882,
      "ĠMai": 6883,
      "idan": 6884,
      "Ġ2014.": 6885,
      "ĠÃ©tait": 6886,
      "42": 6887,
      "áĬ»": 6888,
      "áĪįáĬĵ": 6889,
      "áĬĲáĮĪ": 6890,
      "áīłáĬłáĪ": 6891,
      "umÃ²": 6892,
      "iction": 6893,
      "Ġdec": 6894,
      "áį¡áĬł": 6895,
      "áĮ»áįį": 6896,
      "ĠáĬ¢áĬķ": 6897,
      "ĠlÃ¡Ãłrin": 6898,
      "TA": 6899,
      "Ġsud": 6900,
      "Ġmasa": 6901,
      "Ġbinc": 6902,
      "ekuwa": 6903,
      "Ġgwamnatin": 6904,
      "ĠLiber": 6905,
      "-c": 6906,
      "isti": 6907,
      "Ġ(2": 6908,
      "ĠCali": 6909,
      "Ġinu": 6910,
      "ĠÂ».": 6911,
      "Ġdiffer": 6912,
      "Tana": 6913,
      "gor": 6914,
      "áĮ©": 6915,
      "áº¹áº¹": 6916,
      "gbá»įn": 6917,
      "áī¥áĬĽ": 6918,
      "áĪ¨áįĪ": 6919,
      "osentomon": 6920,
      "ĠJáº¹Ìģ": 6921,
      "áĭ²áĪ±": 6922,
      "iving": 6923,
      "áĪ¬áĬķ": 6924,
      "Ġkasuwanci": 6925,
      "Ġharshen": 6926,
      "ĠáĬªáĪİ": 6927,
      "Ġcontinu": 6928,
      "ĠáĬłáĭµáĪŃáĮİ": 6929,
      "Ġrubuta": 6930,
      "anzibar": 6931,
      "ĠáĪļáĬĴáĪµáīµáĪŃ": 6932,
      "Ġlors": 6933,
      "ĠSol": 6934,
      "ches": 6935,
      "Ġincluding": 6936,
      "ĠFIFA": 6937,
      "Ġ1994": 6938,
      "OR": 6939,
      "Ġmer": 6940,
      "Ġfur": 6941,
      "ĠgÃ©": 6942,
      "dá»į": 6943,
      "ĠáĬ¦áĪŃ": 6944,
      "ino": 6945,
      "ĠMakar": 6946,
      "áĬĲáĪ£": 6947,
      "Ġáĭ¨áĪļáī£áĪį": 6948,
      "áĪĬáĭ«áĬķ": 6949,
      "ifi": 6950,
      "áĪµáī°áĪŃ": 6951,
      "ĠMarejeo": 6952,
      "Ġuse": 6953,
      "ĠáĪŃáĭķ": 6954,
      "Ġzamani": 6955,
      "ĠáĬłáĪĽáĬ«": 6956,
      "ĠÃ¬gbÃ¬má»įÌĢ": 6957,
      "ĠáĬĹáĪª": 6958,
      "Ġáīłáī°áĪĪáĭŃáĪĿ": 6959,
      "ĠáĮ½áĪķáįĪáīµ": 6960,
      "ural": 6961,
      "veau": 6962,
      "bila": 6963,
      "Ġdeath": 6964,
      "Ġlafiya": 6965,
      "Ġabub": 6966,
      "Ġ(15": 6967,
      "Ġfond": 6968,
      "ĠWaka": 6969,
      "Ġl'h": 6970,
      "áĪĲáĭŃ": 6971,
      "lim": 6972,
      "Ġhark": 6973,
      "ĠáĭĪáĮ£": 6974,
      "áĭ¨áĬłáĪ": 6975,
      "ĠáĬ¥áĬķáĭµ": 6976,
      "ĠJ.": 6977,
      "áĮ£áĪª": 6978,
      "ĠáīłáĪĺáĪµ": 6979,
      "epo": 6980,
      "ĠáĪĻáĭļáīĥ": 6981,
      "ĠáĪĨáĬĸáĪĿ": 6982,
      "ĠáĮĪáĬķáĭĺáī¥": 6983,
      "Ġtáº¹lifÃŃ": 6984,
      "Ġpili": 6985,
      "Ġba,": 6986,
      "ites": 6987,
      "Har": 6988,
      "oye": 6989,
      "was": 6990,
      "Ġnaf": 6991,
      "ulani": 6992,
      "gress": 6993,
      "ĠFestiv": 6994,
      "Ġ2001": 6995,
      "bá»įÌģá»įÌĢlÃ¹": 6996,
      "ĠMex": 6997,
      "áĭ°áĮĪ": 6998,
      "áĮįáĬĺáīµ": 6999,
      "Ġnational": 7000,
      "ague": 7001,
      "Ġáĭ°áĮĭ": 7002,
      "bujoko": 7003,
      "ĠáĪģáĪīáĪĿ": 7004,
      "lá»įÌģwá»įÌģ": 7005,
      "áį²áį±áį»áį¶áį": 7006,
      "áĪĽáĭŃáĪµáĮ¥": 7007,
      "Ġshirya": 7008,
      "ĠáĪļáĬĴáĪµáī´": 7009,
      "ĠáĭµáĬķáĮĭáĭŃ": 7010,
      "Tarehe": 7011,
      "55": 7012,
      "round": 7013,
      "attle": 7014,
      "ĠpremiÃ¨re": 7015,
      "tal": 7016,
      "Ġneman": 7017,
      "Ġpwani": 7018,
      "usta": 7019,
      "ĠBÃŃ": 7020,
      "akan": 7021,
      "Ġalb": 7022,
      "eleke": 7023,
      "ĠKwalejin": 7024,
      "ifuata": 7025,
      "IS": 7026,
      "igne": 7027,
      "istoire": 7028,
      "Ġ2013,": 7029,
      "ĠVer": 7030,
      "Ġext": 7031,
      "ĠkÃ¡Ãł": 7032,
      "áĪĿáĪĮ": 7033,
      "áĪįáĪĿáĬĵ": 7034,
      "ĠpÃŃn": 7035,
      "ĠGwamn": 7036,
      "Ġtof": 7037,
      "ago": 7038,
      "áĮĭáĪª": 7039,
      "ĠÃĮjáº¹ÌĢ": 7040,
      "Ġáº¹ÌĢsÃ¬n": 7041,
      "áī¦áĪŃ": 7042,
      "Ġplusieurs": 7043,
      "Ġtáº¹ÌģnÃ¬s": 7044,
      "xim": 7045,
      "Ġkoy": 7046,
      "ission": 7047,
      "atre": 7048,
      "ĠOf": 7049,
      "Ġ2010,": 7050,
      "Ġanal": 7051,
      "Ġ1993": 7052,
      "ĠRobert": 7053,
      "ĠAlexander": 7054,
      "bÃ¬": 7055,
      "á»įlÃ¡": 7056,
      "Ġ(áĬłáĪ": 7057,
      "áĪĪáĪ°": 7058,
      "áĭ°áĮĭ": 7059,
      "Ġrik": 7060,
      "ĠSing": 7061,
      "áĪ«áĪª": 7062,
      "áī³áĪªáĬŃ": 7063,
      "edi": 7064,
      "áī£áī±": 7065,
      "ĠCa": 7066,
      "áĮ¥áĪ¨áīµ": 7067,
      "áĬ«áĬķ": 7068,
      "áĭĭáĪŃáĭ«": 7069,
      "áĭĿáĬĵ": 7070,
      "áī²áīµ": 7071,
      "Ġkwam": 7072,
      "Ġolud": 7073,
      "Ġthese": 7074,
      "Ġsaur": 7075,
      "ĠáĪķáĭŃáĭĪáīµ": 7076,
      "jÃłkÃ¡láº¹ÌĢ": 7077,
      "dÃŃnlá»įÌģgbá»įÌĢn": 7078,
      "Ġjulá»į": 7079,
      "47": 7080,
      "ined": 7081,
      "ĠOlymp": 7082,
      "Ġport": 7083,
      "riban": 7084,
      "ives": 7085,
      "Ġeng": 7086,
      "ovi": 7087,
      "Ġmashariki": 7088,
      "ĠChurch": 7089,
      "Ġime": 7090,
      "ĠGerman": 7091,
      "Ġ4,": 7092,
      "Ġcompos": 7093,
      ")áį¢": 7094,
      "áĮĲ": 7095,
      "Ġdhidi": 7096,
      "áĭįáĬĵ": 7097,
      "áī½áĪī": 7098,
      "Ġfus": 7099,
      "ĠáĬłáĭĪ": 7100,
      "áĭ°áī¡áī¥": 7101,
      "ĠáĪĺáī¥áīµ": 7102,
      "Ġá»įpá»įlá»į": 7103,
      "ĠáĪµáī´": 7104,
      "áĭļáĭ«áĬķ": 7105,
      "ĠáĬĲáīłáĪŃáį¡áį¡": 7106,
      "áĮ¨áīµ": 7107,
      "ĠáįĬáĪį": 7108,
      "ĠKiingereza": 7109,
      "Ġdisp": 7110,
      "ÃĪyÃŃ": 7111,
      "Ġ(áĭĪáĭŃáĪĿ": 7112,
      "Ġjin": 7113,
      "Ġkm2": 7114,
      "Ġtransl": 7115,
      "98": 7116,
      "Tangu": 7117,
      "Ġlow": 7118,
      "ocin": 7119,
      "Dans": 7120,
      "dÃ¬ÃŃ": 7121,
      "Ġnord": 7122,
      "ĠáĮĵ": 7123,
      "Ġcre": 7124,
      "Ġrashin": 7125,
      "áĪ«áĬĴ": 7126,
      "ans,": 7127,
      "Ġoni": 7128,
      "ĠÆĻungiyar": 7129,
      "Ġáīłáī°áĪĪáĭ«áĭ©": 7130,
      "ĠáīłáĬłáĭ²áĪµ": 7131,
      "ĠáįįáīħáĪŃ": 7132,
      "ĠáĬłáĪįáįĭ": 7133,
      "Ġáĭ¨áĬĲáīłáĪ©": 7134,
      "Ġáī¤áī°áĬŃáĪŃáĪµáī²áĭ«áĬķ": 7135,
      "Ġitace": 7136,
      "Ġáĭ¨áįĸáĪĪáī²áĬ«": 7137,
      "Ġpekee": 7138,
      "ĠRÃ©": 7139,
      "ĠStat": 7140,
      "irefu": 7141,
      "-k": 7142,
      "h,": 7143,
      "ĠÃį": 7144,
      "ĠArt": 7145,
      "ments": 7146,
      "dáº¹Ìģ": 7147,
      "ĠáĬĶ": 7148,
      "ĠsÃ³": 7149,
      "Ġsitu": 7150,
      "Ġáĭ¨áĭķ": 7151,
      "áĭ«áīµ": 7152,
      "ĠáīłáĪ®": 7153,
      "áĬ«áĭµ": 7154,
      "áįĪáĪ«": 7155,
      "ĠilÃ©-Ã¬wÃ©": 7156,
      "ĠáĪķáĮį": 7157,
      "áį²áį±áį»áį·áį": 7158,
      "fÃŃrÃŃkÃł": 7159,
      "Ġkur": 7160,
      "ĠFab": 7161,
      "Ġconn": 7162,
      "anyika": 7163,
      "Ġnotamment": 7164,
      "Ġagainst": 7165,
      "ble": 7166,
      "ĠIbi": 7167,
      "ÆĻin": 7168,
      "Ġ2015.": 7169,
      "Ġdesign": 7170,
      "Ġ1987": 7171,
      "BÃ¡": 7172,
      "Ġtex": 7173,
      "islamu": 7174,
      "ĠAri": 7175,
      "ĠáīłáĭļáĪģ": 7176,
      "Ġni:": 7177,
      "Ġá»įgá»įÌģ": 7178,
      "Ġyote": 7179,
      "áĭĿáī¡": 7180,
      "Ġáº¹gbáº¹": 7181,
      "Ġeni": 7182,
      "Ġ2011.": 7183,
      "ĠáīłáĪĺáĮ¨áĪ¨áĪ»": 7184,
      "ĠáĬłáĬķáĭ°": 7185,
      "tÃłrÃŃ": 7186,
      "ĠáįĬáĭ°": 7187,
      "Ġnyingine": 7188,
      "áĮĪáĪĪáĮį": 7189,
      "ĠParis": 7190,
      "Ġmodern": 7191,
      "ĠáĪªáįĲáī¥áĪĬáĬŃ": 7192,
      "ĠáīłáĭĵáĪĪáĪĿ": 7193,
      "ĠáĮłáĪĭ": 7194,
      "Ã¡Ã¡jÃº": 7195,
      "anth": 7196,
      "Wannan": 7197,
      "assi": 7198,
      "Ġbayar": 7199,
      "umma": 7200,
      "Ġzote": 7201,
      "Ġkaratu": 7202,
      "dinin": 7203,
      "AR": 7204,
      "uve": 7205,
      "val": 7206,
      "Ïģ": 7207,
      "ĠLim": 7208,
      "obo": 7209,
      "Ġlik": 7210,
      "áī°áĬŀáī½": 7211,
      "am,": 7212,
      "andard": 7213,
      "áĪħáĪŃ": 7214,
      "ĠáĮįáĪ«": 7215,
      "Ġáĭ¨áī°áīĢ": 7216,
      "áĪĬáĪµ": 7217,
      "Ġany": 7218,
      "áĭĵáĪĪáĪĿ": 7219,
      "Ġ4.": 7220,
      "ĠáĬ¢áĭ¨áĪ±áĪµ": 7221,
      "ĠelÃ©": 7222,
      "Ġwalio": 7223,
      "Ġplace": 7224,
      "ĠJamhuri": 7225,
      "ling": 7226,
      "yst": 7227,
      "ots": 7228,
      "Ġ1998": 7229,
      "ellement": 7230,
      "Ġyear": 7231,
      "ĠEthiopia": 7232,
      "à¥": 7233,
      "Ġkok": 7234,
      "Ġmjini": 7235,
      "ĠIV": 7236,
      "cho": 7237,
      "Ġkan,": 7238,
      "Ð½": 7239,
      "Ġminist": 7240,
      "áĪĿáĪµ": 7241,
      "isation": 7242,
      "ĠApp": 7243,
      "Ġ(16": 7244,
      "ĠKin": 7245,
      "ĠFl": 7246,
      "ances": 7247,
      "Ġáĭ¨áĮ¦áĪŃ": 7248,
      "ilÃ©": 7249,
      "ĠáīłáĬŃ": 7250,
      "áĪĪáĪį": 7251,
      "áįįáī°áĬĽ": 7252,
      "áĭ³áĭĬ": 7253,
      "ĠáĬĲáĭįáį¤": 7254,
      "ĠWash": 7255,
      "ĠáĮįáĪį": 7256,
      "bihi": 7257,
      "Ġáĭ°áĪŃ": 7258,
      "Ġáĭ°áī¥áĪ¨": 7259,
      "áĬĶáīµ": 7260,
      "Ġrefer": 7261,
      "Ġáĭ¨áĬłáĪŃ": 7262,
      "ĠáĪħáĮį": 7263,
      "ĠáīłáĬłáĪľáĪªáĬ«": 7264,
      "Ġkáº¹Ìģká»įÌĢá»įÌģ": 7265,
      "Ġzaben": 7266,
      "ren": 7267,
      "eria": 7268,
      "ĠPers": 7269,
      "resent": 7270,
      "ĠGuinea": 7271,
      "56": 7272,
      "Ġyaani": 7273,
      "ĠFa": 7274,
      "Ġmulki": 7275,
      "formation": 7276,
      "Ġsour": 7277,
      "Ġgra": 7278,
      "endant": 7279,
      "wÃ¬": 7280,
      "ĠáĮ»": 7281,
      "ĠáĬ¥áĮ½áĭĭáīµ": 7282,
      "ĠáĬłáĭ°áĪ¨áĮĪ": 7283,
      "ĠÃłká»į": 7284,
      "áĬĲáĭĵáĬķ": 7285,
      "áĪ³áī¸áĭįáĬķ": 7286,
      "ĠáīłáĪ±": 7287,
      "Ġáĭ¨áĪ¶": 7288,
      "ĠLugha": 7289,
      "ĠRound)": 7290,
      "áĪ®áĪŀ": 7291,
      "áĭ®áīµ": 7292,
      "ĠáĬ¥áĬķáĭ°áĬĲáīłáĪŃ": 7293,
      "áĬĴáīµ": 7294,
      "ĠáĬłáĪµáī°áĭĭ": 7295,
      "áĪµáī³áĬķ": 7296,
      "ĠáĬ¥áĬķáĬ³áĬķ": 7297,
      "ĠáĭĪáĭĺáī°": 7298,
      "NA": 7299,
      "Ġsm": 7300,
      "Ġ1991": 7301,
      "Ġmiji": 7302,
      "ĠÆ´": 7303,
      "gest": 7304,
      "Ġtur": 7305,
      "jÃ¬n": 7306,
      "Ġ),": 7307,
      "Ġnkan": 7308,
      "áĭįáĪµ": 7309,
      "Ã©lÃ©": 7310,
      "Ġoju": 7311,
      "ure,": 7312,
      "iment": 7313,
      "ĠáīłáĪ³": 7314,
      "áĬ«áĪŃ": 7315,
      "agu": 7316,
      "Ġáĭ¨áī°áĬĲáĪ³": 7317,
      "áīłáīµáį¢": 7318,
      "ĠáĭŃáĮĪáĪĺ": 7319,
      "ĠlÃ¡ÃłrÃŃn": 7320,
      "ton,": 7321,
      "Ġsame": 7322,
      "itary": 7323,
      "ĠRed": 7324,
      "Ġ2007.": 7325,
      "Ġ1996": 7326,
      "rad": 7327,
      "ros": 7328,
      "ville": 7329,
      "Ġdro": 7330,
      "Ġsoj": 7331,
      "ĠSah": 7332,
      "ĠDon": 7333,
      "Ġref": 7334,
      "Ġappe": 7335,
      "Ġ(2005)": 7336,
      "Ġkawaida": 7337,
      "ĠRec": 7338,
      "-N": 7339,
      "-á»į": 7340,
      "Kuna": 7341,
      "fini": 7342,
      "áĮ®": 7343,
      "Ġáĭ¨áįĪáĪ¨áĬķáĪ³áĭŃ": 7344,
      "áĭįáĪį": 7345,
      "ĠMiji": 7346,
      "ĠáĪĺáī³": 7347,
      "ĠSat": 7348,
      "ĠNuwa": 7349,
      "áį¡áī°": 7350,
      "Ġtaf": 7351,
      "ana,": 7352,
      "lie": 7353,
      "Ġstat": 7354,
      "ĠáĮīáĪį": 7355,
      "áĪłáī¥": 7356,
      "áĪĺáĪĪáĪµ": 7357,
      "Ġdunia": 7358,
      "John": 7359,
      "ĠSok": 7360,
      "roduc": 7361,
      "Ġlitta": 7362,
      "ukumbu": 7363,
      "Ġtarihin": 7364,
      "ÏĤ": 7365,
      "Ġur": 7366,
      "Ġsyn": 7367,
      "ency": 7368,
      "P)": 7369,
      "Ġdok": 7370,
      "Ġáĭ¨áįĭ": 7371,
      "áĪµáī²": 7372,
      "ĠSil": 7373,
      "áĪĽáĪįáį¢": 7374,
      "ĠTai": 7375,
      "áĭ¨áĬķ": 7376,
      "amawa": 7377,
      "áĪ´áīµ": 7378,
      "ĠChrist": 7379,
      "ĠyÃ¬ÃŃ.": 7380,
      "ĠáīłáĪ°áĪľáĬķ": 7381,
      "ĠáĭĺáĪĺáī»": 7382,
      "Ġtsawon": 7383,
      "ĠáĪĺáĭĭáĭķáĪį": 7384,
      "lectr": 7385,
      "ĠAnnabi": 7386,
      "ĠKatsina": 7387,
      "C.": 7388,
      "ĠCam": 7389,
      "odes": 7390,
      "Ġthen": 7391,
      "]]": 7392,
      "ayari": 7393,
      "ourt": 7394,
      "arar": 7395,
      "Ġn'": 7396,
      "Ġ(a": 7397,
      "72": 7398,
      "páº¹Ìģ": 7399,
      "áĭ¢": 7400,
      "Ġtattalin": 7401,
      "Ġkung": 7402,
      "Ġsing": 7403,
      "Ġowo": 7404,
      "ility": 7405,
      "ĠáĬłáĪ¥": 7406,
      "áĬ¨áĪ°": 7407,
      "ĠJana": 7408,
      "ĠáĮ¥áĭ«áīĦ": 7409,
      "ney": 7410,
      "kÃ²rÃ²": 7411,
      "ĠMusa": 7412,
      "ĠáīłáĪĮáĪĭ": 7413,
      "ĠUmoja": 7414,
      "ĠUganda": 7415,
      "ĠRichard": 7416,
      "ĠáĪµáī¥áĪµáī¥": 7417,
      "ĠInstitute": 7418,
      "ĠáĪĬáīĥáĭįáĬķáīµ": 7419,
      "Ġtofauti": 7420,
      "</": 7421,
      "itan": 7422,
      "Ġweb": 7423,
      "new": 7424,
      "-g": 7425,
      "Manazarta": 7426,
      "nia": 7427,
      "Ġtir": 7428,
      "Ġmov": 7429,
      "Ġcal": 7430,
      "Ġword": 7431,
      "Ġyara": 7432,
      "ĠJi": 7433,
      "upe": 7434,
      "ĠMaria": 7435,
      "ĠUniversity,": 7436,
      "Wakati": 7437,
      "hol": 7438,
      "let": 7439,
      "vis": 7440,
      "onge": 7441,
      "tist": 7442,
      "esab": 7443,
      "áĭŃáīħ": 7444,
      "ĠwÃ²": 7445,
      "áĭ°áĪŃáĮī": 7446,
      "áĮĪáĭĽ": 7447,
      "umla": 7448,
      "Ġáī°áĪĽáĪª": 7449,
      "ĠPal": 7450,
      "ĠáĮįáĪªáĬŃ": 7451,
      "Ġáĭ¨áī°áĭĪáĪ°": 7452,
      "ĠÅĦlÃ¡": 7453,
      "áī³áĭĪáīħ": 7454,
      "ĠáĪ¥áĪŃáĭĵáīµ": 7455,
      "ĠmÃºláº¹ÌĢ": 7456,
      "Ġdepuis": 7457,
      "umÃ²:": 7458,
      "Ġdubu": 7459,
      "Ġkumb": 7460,
      "uter": 7461,
      "lique": 7462,
      "Ġhawa": 7463,
      "ĠNd": 7464,
      "ia.org/": 7465,
      "Ġbabbar": 7466,
      "ĠMichael": 7467,
      "olic": 7468,
      "Ġlangue": 7469,
      "Ġmillion": 7470,
      "-Ã²": 7471,
      "sa.": 7472,
      "sitÃ¬": 7473,
      "Ġáĭĳ": 7474,
      "áº¹g": 7475,
      "áĪµáĪĬ": 7476,
      "áĪµáī³áīµ": 7477,
      "usa": 7478,
      "ĠLatin": 7479,
      "áĬ«áīµ": 7480,
      "ĠáĪµáī¥": 7481,
      "Ġáĭ¨áĬłáĪĪáĪĿ": 7482,
      "ĠparÃŃ": 7483,
      "gbÃ©sÃŃ": 7484,
      "áįīáīµ": 7485,
      "Ã³nÃł": 7486,
      "Ġáī°áĭĪáĪĪáĭ°": 7487,
      "ĠáĬłáĭįáĪ®áįĵ": 7488,
      "ĠáĪĺáĬĲáĪ»": 7489,
      "Ġtáº¹Ìģláº¹ÌĢ.": 7490,
      "Ġdoc": 7491,
      "ĠGar": 7492,
      "Ġorgan": 7493,
      "Ġ60": 7494,
      "assan": 7495,
      "ĠGo": 7496,
      "ĠRiver": 7497,
      "ĠÉĹa": 7498,
      "Ġsupport": 7499,
      "lia": 7500,
      "Ġng": 7501,
      "unk": 7502,
      "ĠAlf": 7503,
      "ÙİØ": 7504,
      "ĠInternet": 7505,
      "ĠpÃºpá»įÌĢ": 7506,
      "áĭŃáĪŃáĪĭáĬķáĭµ": 7507,
      "gbáº¹ÌĢ": 7508,
      "ĠMungu": 7509,
      "ĠáĪĺáīĢáĪĺáĮ«": 7510,
      "Ġing": 7511,
      "ingia": 7512,
      "ĠgbÃ³": 7513,
      "áĪŀáĬķ": 7514,
      "áī¡áĪŃ": 7515,
      "ĠáīħáĬĿ": 7516,
      "áĪ£áĭŃ": 7517,
      "áĪµáī°áĬĽáĭį": 7518,
      "ĠáĪ½áĪį": 7519,
      "ĠkÃºk": 7520,
      "Ġáĭ¶áĪ®": 7521,
      "ĠáĭŃáĪĨáĬĵáĪį": 7522,
      "yáº¹ÌĢwÃ²": 7523,
      "Ġhankali": 7524,
      "ĠáĪĺáĪ£áĪªáĭ«": 7525,
      "ices": 7526,
      "imba": 7527,
      "-T": 7528,
      "ced": 7529,
      "Ġkaf": 7530,
      "omp": 7531,
      "inga": 7532,
      "ĠDay": 7533,
      "ĠâĢİ": 7534,
      "Ġ1997": 7535,
      "wikiped": 7536,
      "amaduni": 7537,
      "ÏĦ": 7538,
      "ĠThomas": 7539,
      "ĠAá¹£": 7540,
      "áī°áį¡": 7541,
      "áī°áĭ³": 7542,
      "áĭ°áĬķáīµ": 7543,
      "áĪĭáĮħ": 7544,
      "áī£áī£": 7545,
      "ĠGÃºÃºsÃ¹": 7546,
      "áīłáĪ»": 7547,
      "áĪ©áĬŃ": 7548,
      "ÆĻa": 7549,
      "áĭķáīĨ": 7550,
      "áĭ©áīµ": 7551,
      "ĠáĬłáĪįáįİ": 7552,
      "Ġáĭ¨áĬ¥áĬķáĮįáĪĬáĭĿ": 7553,
      "Ġáī°áīĢáĪĿ": 7554,
      "ĠáĮ¨áĭĭ": 7555,
      "Ġmwanasiasa": 7556,
      "ĠAustrÃ¡lÃŃÃł": 7557,
      "Ġinflu": 7558,
      "ĠkÃºkurÃº": 7559,
      "adil": 7560,
      "ĠHol": 7561,
      "Ġmaf": 7562,
      "Ġforme": 7563,
      "500": 7564,
      "ĠÙ": 7565,
      "ĠTechn": 7566,
      "hind": 7567,
      "ĠzaÉĵ": 7568,
      "Ġ1975": 7569,
      "pÃ³": 7570,
      "Ġoper": 7571,
      "ĠL'": 7572,
      "stant": 7573,
      "Par": 7574,
      "Ġ$": 7575,
      "áĬķáĪ°": 7576,
      "áĬķáĬ«": 7577,
      "áĪįáį¤": 7578,
      "áĬĲáĮį": 7579,
      "áīłáĭ«": 7580,
      "ĠBak": 7581,
      "áįįáī°": 7582,
      "áīħáĪį": 7583,
      "Ġval": 7584,
      "Ġorile": 7585,
      "Ġoruko": 7586,
      "obin": 7587,
      "ĠáĬĲáīłáĪŃáį¤": 7588,
      "ĠkarÃ¹n": 7589,
      "ĠáĪµáĪĿáĪĿáĬĲáīµ": 7590,
      "ĠáĪĺáĬķáĮĪ": 7591,
      "ĠáĬ¨áĬłáĬķáĭµ": 7592,
      "áĪŃáĪ±áĪĿ": 7593,
      "ĠáĭŃáī³áĪĺáĬĵ": 7594,
      "Ġ2020,": 7595,
      "Ġland": 7596,
      "ĠMc": 7597,
      "olf": 7598,
      "Ġmaz": 7599,
      "Ġbefore": 7600,
      "ĠaprÃ¨s": 7601,
      "Ġconstitu": 7602,
      "ĠÃīt": 7603,
      "ĠEngland": 7604,
      "ĠSom": 7605,
      "ĠKit": 7606,
      "umwa": 7607,
      "ĠAnamb": 7608,
      "Ġchake": 7609,
      "Ġgwamnati": 7610,
      "ĠBrazil": 7611,
      "ĠShi": 7612,
      "Ġgiga": 7613,
      "ĠdÃ©b": 7614,
      "Ġwhile": 7615,
      "áī¿": 7616,
      "ĠáĭĬ": 7617,
      "Ġáĭ¨áĪ«": 7618,
      "Ġáĭ¨áĮİ": 7619,
      "Ġáĭ¨áĪĺáĬķ": 7620,
      "ti.": 7621,
      "ĠAy": 7622,
      "ĠáĪĺáīĢ": 7623,
      "ĠÃ¬wÃ¡": 7624,
      "Ġáī°áĮĪáĬĿ": 7625,
      "Ġá»įká»įÌĢ": 7626,
      "ĠáīłáĪ¶": 7627,
      "ulus": 7628,
      "ĠáĭĪáĭ²áĭ«": 7629,
      "áīĢáĪĿ": 7630,
      "Ġáĭ«áĭ°áĪŃ": 7631,
      "ĠáĪĽáĪ¨": 7632,
      "áī¶áĭ¶": 7633,
      "ĠÃĢyá»įkÃł": 7634,
      "ĠsÃŃnÃº": 7635,
      "ĠVictor": 7636,
      "ĠAfr": 7637,
      "ĠáĪ¥áĪįáĮ£áĬķ": 7638,
      "áĪķáĪį": 7639,
      "áĪ£áĪ¥": 7640,
      "ĠIslam": 7641,
      "à¤ĺ": 7642,
      "áįİáĪŃ": 7643,
      "ĠonÃŃmá»įÌĢ": 7644,
      "ĠLaw": 7645,
      "áī¥áĪ¨áī°": 7646,
      "ĠÃģfÃŃrÃŃkÃł": 7647,
      "Ġkimanin": 7648,
      "uj": 7649,
      "Ġhili": 7650,
      "gawa": 7651,
      "Ġ1995": 7652,
      "07": 7653,
      "zu": 7654,
      "asil": 7655,
      "Ġ(f": 7656,
      "ĠMs": 7657,
      "imman": 7658,
      "ĠGroup": 7659,
      "off": 7660,
      "ydro": 7661,
      "Mji": 7662,
      "ession": 7663,
      "Ġnigb": 7664,
      "Ġáī£áĪħáĪį": 7665,
      "Ġkasashen": 7666,
      "htm": 7667,
      "ĠáĪĿáĬŃáĪŃ": 7668,
      "Ġnomba": 7669,
      "ĠAngel": 7670,
      "áĪ¨áĮĭáĮĪ": 7671,
      "Ġtenis": 7672,
      "áĬ¥áĬķáĭ²áĪģáĪĿ": 7673,
      "Ġáī°áĮ«áĭĭ": 7674,
      "olojia": 7675,
      "ĠUN": 7676,
      "-20": 7677,
      "68": 7678,
      "wili": 7679,
      "Ġaff": 7680,
      "ere,": 7681,
      "Ġwurin": 7682,
      "ict": 7683,
      "Ġkuu": 7684,
      "áĪŃáīµáĪ«": 7685,
      "Ġcommon": 7686,
      "wiki/": 7687,
      "ĠSi": 7688,
      "ube": 7689,
      "Ġelectr": 7690,
      "64": 7691,
      "GB": 7692,
      "áī®": 7693,
      "Ġtayi": 7694,
      "Ġperiod": 7695,
      "áĪĪáĪµ": 7696,
      "áī½áĬ¹": 7697,
      "áī¥áī»": 7698,
      "imá»į": 7699,
      "áĭ¨áĪµ": 7700,
      "áĭ¨áĬ¢áīµáĭ®áĮµáĭ«": 7701,
      "hairi": 7702,
      "ĠUmar": 7703,
      "Ġáĭ¨áī°áĭĪáĪĪ": 7704,
      "lafa": 7705,
      "ĠYoh": 7706,
      "áĪģáįį": 7707,
      "»áįī": 7708,
      "kÃ²Ã³": 7709,
      "áĭ¥áĬķ": 7710,
      "Ġáī°áĪ«áĪ®áī½": 7711,
      "ĠÃłmÃ¬-áº¹ÌĢyáº¹": 7712,
      "Ġáīłáī³áĪªáĬŃ": 7713,
      "ographie": 7714,
      "ĠáĬłáĪµáįĪáĪĭáĮĬ": 7715,
      "ĠáĭŃáĮĪáĪĺáī³áĪįáį¢": 7716,
      "ement,": 7717,
      "Ġ1989": 7718,
      "Ġaina": 7719,
      "abo": 7720,
      "ĠOmo": 7721,
      "ouncil": 7722,
      "nic": 7723,
      "isc": 7724,
      "ased": 7725,
      "Ġboth": 7726,
      "59": 7727,
      "Wak": 7728,
      "Ġfour": 7729,
      "ĠMul": 7730,
      "ĠKudu": 7731,
      "áĬŃáĬĸ": 7732,
      "áīĢáĮ½": 7733,
      "áĭĪáĪ¨": 7734,
      "ĠáĪ°áĪĽ": 7735,
      "ĠáĭµáĬķáĮįáĪį": 7736,
      "ĠáĬķáĮ¥áĪ¨": 7737,
      "Ġexemp": 7738,
      "áĬķáĮīáĪł": 7739,
      "ĠáĭŃáĮĪáĬĽáĪīáį¢": 7740,
      "áĬĺáĭį": 7741,
      "Ġmilioni": 7742,
      "Ġayyukan": 7743,
      "Ġari": 7744,
      "enz": 7745,
      "dition": 7746,
      "Ġ5,": 7747,
      "itokea": 7748,
      "ĠÆ³": 7749,
      "Ġcentury": 7750,
      "anne": 7751,
      "Ġ1988": 7752,
      "-t": 7753,
      "jet": 7754,
      "Ġkij": 7755,
      "Ġáĭ¨áĭļáĪħ": 7756,
      "Ġáĭ¨áī´": 7757,
      "ĠáīłáĮ¥áĬķáī³áĭĬ": 7758,
      "áĬĲáĪµ": 7759,
      "áī¥áĪĭ": 7760,
      "ĠáĬ¨áĭĺ": 7761,
      "ĠIlu": 7762,
      "ĠÃ¬dÃł": 7763,
      "Ġáī°áī£áĪĪ": 7764,
      "Ã²gÃ¹n": 7765,
      "Ġáĭ«áĪµáī°": 7766,
      "áī±áĪŃáĬŃ": 7767,
      "Ġáĭ¨áĪļáī£áĪĪáĭį": 7768,
      "Ġáĭ¨áĪļáĬĸáĪŃ": 7769,
      "gaj": 7770,
      "á»įÌģnÃł": 7771,
      "Ġáĭįáīħáĭ«áĬĸáĪµ": 7772,
      "Ġeko": 7773,
      "áĪłáĪ©": 7774,
      "Ġmeji": 7775,
      "ĠáĪµáĪŃáĭĵáīµ": 7776,
      "áĪŀáĬŃáĪ«áĪ²": 7777,
      "ye-shir": 7778,
      "cer": 7779,
      "ajo": 7780,
      "ard,": 7781,
      "kar": 7782,
      "wun": 7783,
      "ĠHistory": 7784,
      "Ġ1982": 7785,
      "Ġchak": 7786,
      "ĠChamp": 7787,
      "Ġsakand": 7788,
      "Ġpu": 7789,
      "ĠGood": 7790,
      "ĠZanzibar": 7791,
      "Ġáī«": 7792,
      "Ġáĭ¨Â«": 7793,
      "ilway": 7794,
      "Ġ(ya": 7795,
      "Ġ(áĭĺ": 7796,
      "Ġro": 7797,
      "áĪ«áĪŃ": 7798,
      "Ġá»įká»į": 7799,
      "ĠáīłáĪĪ": 7800,
      "Ġáĭ¨áĪ©": 7801,
      "ĠJami": 7802,
      "áĭ²áīµ": 7803,
      "Ġá¹£áº¹ÌĢ": 7804,
      "ĠáĪ°áįĬ": 7805,
      "ĠÃĮjá»įba": 7806,
      "áĪ»áĪ»": 7807,
      "ieu": 7808,
      "ĠáĭĭáĬķáĮ«": 7809,
      "anzishwa": 7810,
      "ĠáĪļáĪµáīµ": 7811,
      "ĠáĭµáĪ¨áĪµáį£": 7812,
      "áįīáį¢": 7813,
      "ĠáīłáĬ¥áĪµ": 7814,
      "áĬħáĪ£áĪ¥": 7815,
      "ĠáĪĺáĪ°áĪ¨": 7816,
      "Ġkaláº¹ÌĢ": 7817,
      "áĪĺáĪ°áĪ¨": 7818,
      "ĠdÃłgbÃł": 7819,
      "sÃ¨": 7820,
      "ina,": 7821,
      "ater": 7822,
      "ĠWil": 7823,
      "aje": 7824,
      "Ġsasa": 7825,
      "Ġmik": 7826,
      "ĠWatu": 7827,
      "Ġmaana": 7828,
      "ights": 7829,
      "emble": 7830,
      "Ġlilikuwa": 7831,
      "-daban": 7832,
      "Ġkumbukumbu": 7833,
      "Ġdel": 7834,
      "ques,": 7835,
      "Ġ1984": 7836,
      "ological": 7837,
      "fÃº": 7838,
      "vo": 7839,
      "Ġáĭī": 7840,
      "ĠMand": 7841,
      "ĠáĪĺáĪĨáĬķ": 7842,
      "ĠáĭŃáĬĸ": 7843,
      "ĠáĭĪáĮĪ": 7844,
      "ĠáĬĲáĭįáį£": 7845,
      "áįĭáĬķ": 7846,
      "ĠÆĻid": 7847,
      "áĪģáĪĪáīµ": 7848,
      "ĠáĬ¥áĪµáĭ«": 7849,
      "Ġkeje": 7850,
      "Ġkáº¹tÃł": 7851,
      "Ġkáº¹fÃł": 7852,
      "Ġmuhimu": 7853,
      "Ġdaban-daban": 7854,
      "ĠâĢ¹âĢ¹": 7855,
      "Ġpri": 7856,
      "atan": 7857,
      "chuk": 7858,
      "alian": 7859,
      "ĠMuhammadu": 7860,
      "Ġpersonn": 7861,
      "Ġmirefu": 7862,
      "isme": 7863,
      "ĠKur": 7864,
      "ĠKij": 7865,
      "adhim": 7866,
      "Ġleo": 7867,
      "ĠArgent": 7868,
      "Ġwadda": 7869,
      "Ġajili": 7870,
      "Ġnafasi": 7871,
      "ĠCalifor": 7872,
      "Papa": 7873,
      "bÃ¹": 7874,
      "áĬķáī°": 7875,
      "Ġáĭ¨áī»áĭŃáĬĵ": 7876,
      "áĭįáĪ®": 7877,
      "Ġmuda": 7878,
      "Ãłwá»įn": 7879,
      "as.": 7880,
      "áĬĵáį£": 7881,
      "áĪĪáĭµ": 7882,
      "áĭµáĪį": 7883,
      "áĬĽáĭįáĬķ": 7884,
      "Ġáī°áĭĽ": 7885,
      "ĠáĪĿáĮįáī¥": 7886,
      "ĠOd": 7887,
      "áįįáĪ¬": 7888,
      "áīħáĭ±áĪµ": 7889,
      "ĠáĪ°áĭĵáīµ": 7890,
      "ĠáĪįáĬŃ": 7891,
      "ĠáĪĨáĭŃ": 7892,
      "Ġáĭ¨áĬłáĬķáĭµ": 7893,
      "áĮĪáĬĻáīµ": 7894,
      "áīłáī°áĮ¨áĪĽáĪª": 7895,
      "Ġojoibi": 7896,
      "Ġjam'": 7897,
      "ĠáĭįáĮ¤áīµ": 7898,
      "áº¹gáº¹": 7899,
      "Ġregion": 7900,
      "ĠPoland": 7901,
      "08": 7902,
      "inta": 7903,
      "Ġmch": 7904,
      "yam": 7905,
      "Ġ(kwa": 7906,
      "olo": 7907,
      "ught": 7908,
      "-L": 7909,
      "Ġlog": 7910,
      "Ġstruc": 7911,
      "Ġpossib": 7912,
      "hab": 7913,
      "x,": 7914,
      "yáº¹Ìģ": 7915,
      "Ġáī¬": 7916,
      "áĪµáĮ¡": 7917,
      "ale,": 7918,
      "Ġáīł17": 7919,
      "Ġ(Y": 7920,
      "ĠÃłsÃ¬kÃ²": 7921,
      "áīłáīł": 7922,
      "ĠÃ¬yÃłwÃ³": 7923,
      "ĠáĭŃáĪĪ": 7924,
      "á¹£ep": 7925,
      "ĠáĭĪáĪ°": 7926,
      "Ġáĭ¨áī°áĮĪáĬĺ": 7927,
      "ĠáĬ¥áĬĵáīµ": 7928,
      "Ġáī¥áĪĭ": 7929,
      "áĬķáĮįáĭµ": 7930,
      "áĭ©áĬĵáĭŃáīµáĭµ": 7931,
      "Ġ1967": 7932,
      "kÃ¬tÃ¬": 7933,
      "Ġwalikuwa": 7934,
      "Ġaá¹£ojÃº": 7935,
      "ĠÃłkÃ³kÃ²": 7936,
      "ĠáĭįáĭµáĭµáĪŃ": 7937,
      "Ġimportant": 7938,
      "ĠTanbihi": 7939,
      "ĠÃ¬tÃłgÃ©": 7940,
      "ĠáĬłáĪįáįĭáī¤áīµ": 7941,
      "54": 7942,
      "far": 7943,
      "anj": 7944,
      "ams": 7945,
      "idar": 7946,
      "Ġuntil": 7947,
      "Ġdirect": 7948,
      "ountry": 7949,
      "Ġcika": 7950,
      "ĠTer": 7951,
      "ĠEr": 7952,
      "ci,": 7953,
      "Ġanim": 7954,
      "bogbo": 7955,
      "Ġhizi": 7956,
      "ĠreprÃ©s": 7957,
      "Ġrayuwar": 7958,
      "Ġ(10": 7959,
      "ithi": 7960,
      "ĠSab": 7961,
      "haji": 7962,
      "ologi": 7963,
      "17)": 7964,
      "dÃ¹n": 7965,
      "áĮ§": 7966,
      "á»įwá»įÌģ": 7967,
      "Ġdest": 7968,
      "Ġ(13": 7969,
      "áĮįáĭµáĪĿ": 7970,
      "áį¡áĭŃ": 7971,
      "ĠilÃ¨": 7972,
      "áįĪáĮ¸": 7973,
      "áĪ³áĪĮáĪĿ": 7974,
      "ĠáĪ°áī¥": 7975,
      "áĪĬáīµ": 7976,
      "nie": 7977,
      "áĭ°áĪ¨áĮį": 7978,
      "ĠáĬªáĬķáĮį": 7979,
      "Ġhuo": 7980,
      "ĠTarayyar": 7981,
      "Ġmapokeo": 7982,
      "ĠáįĵáĪŃáī²áĭİáī½": 7983,
      "unda": 7984,
      "Ġmass": 7985,
      "Ġlitt": 7986,
      "52": 7987,
      "wos": 7988,
      "z,": 7989,
      "Ġhuu": 7990,
      "ĠKongo": 7991,
      "owÃ³": 7992,
      "ĠNews": 7993,
      "Ġmilima": 7994,
      "ĠJapani": 7995,
      "fuatana": 7996,
      "ria": 7997,
      "asile": 7998,
      "Ġbien": 7999,
      "ĠIsra": 8000,
      "AC": 8001,
      "cter": 8002,
      "Äĵ": 8003,
      "Ã¡ÃŃ": 8004,
      "kad": 8005,
      "áĪĽáĪ¨": 8006,
      "áĪ³áĪ°áī¥": 8007,
      "Ã²Ã³": 8008,
      "áĭ³áīµ": 8009,
      "ĠFaransa": 8010,
      "Ġáĭ«áĪĭ": 8011,
      "Ġáĭ«áĪīáīµ": 8012,
      "áįĪáĪ¨": 8013,
      "áīĥáīµ": 8014,
      "obe": 8015,
      "Ġáī£áĪĪáĭį": 8016,
      "áĮłáĪī": 8017,
      "ĠFrÃ¡n": 8018,
      "áĪ«áĭĬáīµ": 8019,
      "ĠáĬ¢áīµáĭ®áĮµáĭ«áĭĬ": 8020,
      "ĠáĬŃáįįáĪĭáĮĪáĪ«áīµ": 8021,
      "ĠáĬ¥áĬķáĪµáĪ³": 8022,
      "áĭ«áĭ«áĭ£": 8023,
      "ĠáĭŀáĬķ": 8024,
      "-oÃ²rÃ¹n": 8025,
      "ĠChristian": 8026,
      "ia.org/wiki/": 8027,
      "Å«": 8028,
      "arth": 8029,
      "ĠSin": 8030,
      "ĠJama": 8031,
      "Ġ1974": 8032,
      "astern": 8033,
      "ivy": 8034,
      "Ġ1976": 8035,
      "Ġ5.": 8036,
      "Ġtrois": 8037,
      "ĠSala": 8038,
      "ohann": 8039,
      "ĠFrank": 8040,
      "ĠSchool,": 8041,
      "Ġtalla": 8042,
      "Ġáĭ¨áĮįáī¥áĮ½": 8043,
      "á»įÌģlÃ¡": 8044,
      "áĪĭáĪĽáĭĬ": 8045,
      "Ġjeshi": 8046,
      "ĠÃ¬pÃŃn": 8047,
      "ĠÃ¬wá»įÌĢ": 8048,
      "Ġáī°áĪ¸": 8049,
      "áīĢáĪµ": 8050,
      "áīħáĪ¨áī¥": 8051,
      "ĠáĪĪáĬłáĪ": 8052,
      "ĠáĪµáĪľáĬķ": 8053,
      "agne": 8054,
      "áĮłáį¢": 8055,
      "áĮĭáĬķ": 8056,
      "Ġshida": 8057,
      "ĠOlÃ¹": 8058,
      "ĠmÃ¡rÃ¹n": 8059,
      "Ġdonn": 8060,
      "Ġ(2004)": 8061,
      "ĠáīłáĪļáĪį": 8062,
      "ĠáįĬáīµ": 8063,
      "ĠÃ²á¹£Ã¨rÃ©kÃ¹nrin": 8064,
      "Ġmáº¹Ìģrin": 8065,
      "ĠáĪĥáĭŃáĪĽáĬĸ": 8066,
      "ĠBauchi": 8067,
      "ĠáĪ²áīĢáĪ©": 8068,
      "Vi": 8069,
      "cÃ©": 8070,
      "Ġstud": 8071,
      "%)": 8072,
      ".O": 8073,
      "áĬĢ": 8074,
      "Ġset": 8075,
      "ari.": 8076,
      "Ġ2006.": 8077,
      "kofu": 8078,
      "Ġmiliyan": 8079,
      "comp": 8080,
      "Ġzinaz": 8081,
      "usiness": 8082,
      "de.": 8083,
      "Ġ1986": 8084,
      "ence,": 8085,
      "http://www.": 8086,
      "ĠnÇ¹kan": 8087,
      "á»įrÃŃ": 8088,
      "Ġáīł15": 8089,
      "áĪĺáį¢": 8090,
      "ĠáĪĺáĭ°": 8091,
      "Ġgoma": 8092,
      "ĠOsu": 8093,
      "Ġiwa": 8094,
      "ĠáĬŃáī¥": 8095,
      "Ġolori": 8096,
      "áī¤áĪį": 8097,
      "ĠáĮĭáĭľ": 8098,
      "ankin": 8099,
      "áĮ¡áį¢": 8100,
      "ĠáĪĢáī¥": 8101,
      "ĠáīłáĬłáĪĽáĪŃáĬĽ": 8102,
      "âĢĵ19": 8103,
      "áº¹Ìģráº¹Ìģ": 8104,
      "ĠlÃ³rÃŃláº¹ÌĢ": 8105,
      "efef": 8106,
      "Ġáī»áĭŃáĬĵ": 8107,
      "ĠfÃ¬dÃŃ": 8108,
      "wikipedia.org/wiki/": 8109,
      "lov": 8110,
      "till": 8111,
      "ĠAba": 8112,
      "Ġban": 8113,
      "ĠMod": 8114,
      "ĠGerm": 8115,
      "Ġ2009,": 8116,
      "Lakini": 8117,
      "gÃł": 8118,
      "Ġkofin": 8119,
      "Ġkundi": 8120,
      "urop": 8121,
      "ĠáĪĪáĭĺ": 8122,
      "anguage": 8123,
      "ray": 8124,
      "ues": 8125,
      "Ġband": 8126,
      "Ġcould": 8127,
      "mon": 8128,
      "inter": 8129,
      "Ġkis": 8130,
      "Ġ(áĬ¥": 8131,
      "ĠbÃ³": 8132,
      "ĠáĪĺáĪªáĭİáī½": 8133,
      "Ġáį³": 8134,
      "atif": 8135,
      "atique": 8136,
      "imary": 8137,
      "ĠáĭŃáĪįáīħ": 8138,
      "Ġáĭ¨áĪļáĮł": 8139,
      "Ġáīµáĭķ": 8140,
      "ĠáĬ¥áĬķáĭ°áĪļáĭ«": 8141,
      "ĠlÃ¡tÃłrÃŃ": 8142,
      "Ġsune": 8143,
      "Ġáĭ¨áĬ¥áĮįáĪŃ": 8144,
      "tÃ²já»į": 8145,
      "áĮ½áĪĲáįĪ": 8146,
      "ĠagbÃ¡bá»įÌģá»įÌĢlÃ¹": 8147,
      "âĢºâĢº": 8148,
      "ĠáĭĪáĪ¨áĪ«": 8149,
      "ĠáĪĪáĭįáĮ¥": 8150,
      "áĭķáīĨáī¥": 8151,
      "ĠFrÃ¡nsÃ¬": 8152,
      "Ġprodu": 8153,
      "04": 8154,
      "Ġnasara": 8155,
      "Ġ(3": 8156,
      "ĠWam": 8157,
      "ided": 8158,
      "upi": 8159,
      "Ġoffici": 8160,
      "Ġhttp://www.": 8161,
      "ĠMiss": 8162,
      "ĠLab": 8163,
      "ester": 8164,
      "Ġ2006,": 8165,
      "OrÃŃ": 8166,
      "jÃ¨": 8167,
      "Ġsá»įÌĢrá»įÌĢ": 8168,
      "Ġmkoa": 8169,
      "Ġmáº¹ÌģrÃ¬n": 8170,
      "Ġok": 8171,
      "Ġpáº¹Ìģ": 8172,
      "áĭ«áī°": 8173,
      "ataifa": 8174,
      "áĬĲáĪ±": 8175,
      "áĪ¨áĮ¥": 8176,
      "ĠjÃŃ": 8177,
      "áĪ«áĭŃ": 8178,
      "ĠáĬ¨19": 8179,
      "áį¡áĬ¨": 8180,
      "áĮ£áĪįáį¢": 8181,
      "ĠáĪĽáĬŃ": 8182,
      "ĠáīĢáĭ°áĪĿ": 8183,
      "ikiwa": 8184,
      "ĠáĪĪáĪĺáĮĢáĪĺáĪªáĭ«": 8185,
      "áĭ°áĪ¨áĪ°": 8186,
      "ĠyÃ¬ÃŃ,": 8187,
      "ĠáĬłáĪīáīµáį¢": 8188,
      "ĠÃĪkÃ³.": 8189,
      "Ġrecord": 8190,
      "ĠáĪĺáĬ®áĬķáĬķ": 8191,
      "Ġtáº¹lifÃŃá¹£": 8192,
      "ĠÆ³an": 8193,
      "ilin": 8194,
      "cul": 8195,
      "ĠHal": 8196,
      "soci": 8197,
      "Ã¨sÃ¨": 8198,
      "Ðº": 8199,
      "ĠFederal": 8200,
      "Ġback": 8201,
      "ĠpÃ©ri": 8202,
      "ĠrÃ©s": 8203,
      "ĠCongress": 8204,
      "ĠáĪ£": 8205,
      "Ġkina": 8206,
      "Ġkale": 8207,
      "áĪĿáĬķáīµ": 8208,
      "áĪĺáĪĿ": 8209,
      "ĠIbujoko": 8210,
      "ĠáĪµáī³": 8211,
      "áĪ®áĬķ": 8212,
      "áįĪáĮłáĪ¨": 8213,
      "ĠáīĢáĪŃ": 8214,
      "ĠáĮĪáĭĽ": 8215,
      "áĮĥáĪĿ": 8216,
      "ĠáĬĲáĮĪáĪ¥áī±": 8217,
      "ĠáĪĽáĪĪáīµáĪĿ": 8218,
      "ĠáĬłáĪĿáĪµáīµ": 8219,
      "ĠolÃ¹dÃ¡": 8220,
      "áį²áį°áį»áį": 8221,
      "ĠáĪļáĬĴáĪµáī´áĪŃ": 8222,
      "áī¶áĭ¶áĬŃáĪµ": 8223,
      "áĬŃáĬĸáĪİáĮĤ": 8224,
      "-cent": 8225,
      "pha": 8226,
      "ĠlÃł": 8227,
      "Ã©ric": 8228,
      "ĠCons": 8229,
      "ĠFound": 8230,
      "Elle": 8231,
      "ĠHenry": 8232,
      "Ġ(An": 8233,
      "Ġcla": 8234,
      "ĠMw": 8235,
      "ĠMaka": 8236,
      "ĠFas": 8237,
      "ĠKiarabu": 8238,
      "Ġtabb": 8239,
      "-J": 8240,
      "eg": 8241,
      "ĠSir": 8242,
      "ĠNg": 8243,
      "ÃŃÃł": 8244,
      "áĪŃáīħ": 8245,
      "Ġáĭ¨áĪĪ": 8246,
      "Ġáĭ¨áĮ¥áĬķ": 8247,
      "ĠoÃ²rÃ¹n": 8248,
      "Ġáīł20": 8249,
      "amma": 8250,
      "ĠÃ¬á¹£e": 8251,
      "imfuata": 8252,
      "Ġáĭ¨áĪļáĭĪ": 8253,
      "ÃłnÃŃ": 8254,
      "áĪļáĬķ": 8255,
      "ĠáĮ¥áĪŃ": 8256,
      "Ġagbara": 8257,
      "ĠáīłáĪĽáĪµ": 8258,
      "Ana": 8259,
      "Ġ(2016": 8260,
      "Ġambako": 8261,
      "Ġáī´áĪĮ": 8262,
      "ĠMagharibi": 8263,
      "ĠáĪĺáĪ³áĪªáĭ«": 8264,
      "á»": 8265,
      "wal": 8266,
      "Ġins": 8267,
      "ĠJon": 8268,
      "bi,": 8269,
      "-f": 8270,
      "ĠSpa": 8271,
      "ican": 8272,
      "Ġmwisho": 8273,
      "Ġarea": 8274,
      "Ġsocial": 8275,
      "à¤ļ": 8276,
      "âĢİâĢİ": 8277,
      "k,": 8278,
      "áĥ": 8279,
      "opp": 8280,
      "ĠAtlanti": 8281,
      "fáº¹": 8282,
      "hali": 8283,
      "Ð»": 8284,
      "ĠáĪ¾": 8285,
      "áīµáĪµ": 8286,
      "ĠdarÃŃ": 8287,
      "Ġkill": 8288,
      "Ġáĭ¨áī³áĭĪ": 8289,
      "áĪµáī¶áī½": 8290,
      "ÃºlÃ©": 8291,
      "Ġfáº¹": 8292,
      "ĠMb": 8293,
      "ĠÃłwÃ¹já»į": 8294,
      "áĭµáĪ®áĪµ": 8295,
      "Ġáī°áĮ¨áĪĽáĪª": 8296,
      "ĠOt": 8297,
      "ĠEc": 8298,
      "Ġáĭ¨áĪļáī³": 8299,
      "Ġáĭ¨áĪļáĮĪáĬĺáĭį": 8300,
      "Ġasali": 8301,
      "ĠáīłáĪĺáīĢ": 8302,
      "over": 8303,
      "ĠáįĪáĪĭ": 8304,
      "ĠonÃŃá¹£": 8305,
      "ografia": 8306,
      "Ġkabila": 8307,
      "vient": 8308,
      "en.wikipedia.org/wiki/": 8309,
      "Ġáĭ¨áĬ¥áĪµáįĵáĬķáĭ«": 8310,
      "ĠáĬłáĪ¸áĬĲ": 8311,
      "esabiwa": 8312,
      "ĠMur": 8313,
      "abab": 8314,
      "inguis": 8315,
      "Ġ2010.": 8316,
      "Ġ2017.": 8317,
      "Ġ...": 8318,
      "ishe": 8319,
      "ĠStr": 8320,
      "ĠBad": 8321,
      "uto": 8322,
      "os,": 8323,
      "ojin": 8324,
      "ovuti": 8325,
      "Ġmpya": 8326,
      "44": 8327,
      "ca": 8328,
      "Ġopo": 8329,
      "Ġwu": 8330,
      "Ġ1978": 8331,
      "veral": 8332,
      "Ġáĭ¨áī¤áī°": 8333,
      "áĬĵáī±": 8334,
      "Ġyau": 8335,
      "ĠSikukuu": 8336,
      "ĠáĬ¨áĭį": 8337,
      "áĪĽáĪµ": 8338,
      "ĠÃ¬wÃł": 8339,
      "ĠáĭŃáĬ¨": 8340,
      "Ġáĭ¨áĪĲ": 8341,
      "ĠP.": 8342,
      "Ġlaarin": 8343,
      "ĠEli": 8344,
      "ĠgbÃŃ": 8345,
      "ĠáīµáĬŃ": 8346,
      "Ġáĭ¨áī°áĪĪ": 8347,
      "ĠáĮĪáī£": 8348,
      "ĠAnti": 8349,
      "Ġáĭ¨áĪĺáĪµ": 8350,
      "áįķáĪ¬": 8351,
      "ĠolÃ¹gbÃ©": 8352,
      "áĪłáĪ¨áī°": 8353,
      "Ġgbajumo": 8354,
      "Ġshirye-shir": 8355,
      "áĬĵáī¸áĭįáĪĿ": 8356,
      "ĠáįķáĪ¬áĭļáĭ³áĬķáīµ": 8357,
      "ĠáĬ¥áĪµáĬ«áĪģáĬķ": 8358,
      "ĠáĭŃáī³áĪĺáĬĵáĪįáį¢": 8359,
      "She": 8360,
      "ĠKong": 8361,
      "ance,": 8362,
      "Cette": 8363,
      "Ġwao": 8364,
      "Ġran": 8365,
      "Ġjo": 8366,
      "Ġgaban": 8367,
      "Ġtour": 8368,
      "Ġaliye": 8369,
      "ĠYou": 8370,
      "Ġhuadhim": 8371,
      "ĠTrans": 8372,
      "Ġmnamo": 8373,
      "esp": 8374,
      "ĠBoy": 8375,
      "odun": 8376,
      "-z": 8377,
      "-Ã¡n": 8378,
      "86": 8379,
      "td": 8380,
      "Ġáĭ¨áĮ£áĪįáĭ«áĬķ": 8381,
      "Ġcaract": 8382,
      "at,": 8383,
      "ĠÃłpapá»įÌĢ": 8384,
      "á»įÌģpá»įÌĢ": 8385,
      "áĭ¨áĪģ": 8386,
      "áĪīáį£": 8387,
      "áĮłáĬķ": 8388,
      "áĮĭáĭŃ": 8389,
      "Ġ\"m": 8390,
      "ÃŃnÃł": 8391,
      "ĠáĪģáĪĪáī°áĬĽáĭį": 8392,
      "ĠShug": 8393,
      "Ġáī¤áī°áĪ°áī¥": 8394,
      "ĠkÃ©de": 8395,
      "áĮĮáī³": 8396,
      "ĠáĬłáī¥áĭĽ": 8397,
      "ĠáĭµáĪŃáĮĬ": 8398,
      "ĠáĪŃáīĢáīµ": 8399,
      "Ġmahali": 8400,
      "áīłáĪ«áĭĬ": 8401,
      "Ġaká»įká»į": 8402,
      "Ġáĭ¨áĬ¤áĪĮáĬŃáīµáĪªáĬŃ": 8403,
      "ĠáĪµáīµáĪĨáĬķ": 8404,
      "ĠHukumar": 8405,
      "xt": 8406,
      "Ġ{": 8407,
      "Ġren": 8408,
      "Ġgovernment": 8409,
      "Ġville": 8410,
      "tion.": 8411,
      "Ġ2018.": 8412,
      "Ġ1983": 8413,
      "Ġ2019.": 8414,
      "ĠCentral": 8415,
      "ĠCOVID-19": 8416,
      "mark": 8417,
      "Ġtyp": 8418,
      "Ġáī°áĪµáįĭ": 8419,
      "aisari": 8420,
      "ulture": 8421,
      "Ġautres": 8422,
      "Ġkadhaa": 8423,
      "Ġgargaj": 8424,
      "ĠÆĻidayar": 8425,
      "'i": 8426,
      ":-": 8427,
      "ĠB.": 8428,
      "agen": 8429,
      "Ġlarge": 8430,
      "-áĪ²áĬķ": 8431,
      "Jina": 8432,
      "ey": 8433,
      "áĮ»áįī": 8434,
      "áįģ": 8435,
      "Ġbikin": 8436,
      "áĭ«áī¸áĭį": 8437,
      "Ã¬lÃº": 8438,
      "ĠÃłá¹£áº¹": 8439,
      "ĠáĪĺáĪĿ": 8440,
      "ĠÃ¬á¹£Ã¨": 8441,
      "ĠCibiyar": 8442,
      "áĬ«áĭĬ": 8443,
      "quent": 8444,
      "áĮ£áĮ«": 8445,
      "áĭĽáĪĿ": 8446,
      "ĠáĪįáĭĳ": 8447,
      "ĠáĮ¥áīģáĪŃ": 8448,
      "áĪ®áī½áĬķ": 8449,
      "ĠÃ¡n": 8450,
      "Ġ(2015": 8451,
      "Ġwengi,": 8452,
      "ĠáĭĽáįį": 8453,
      "Ġmasana'": 8454,
      "ĠYohane": 8455,
      "Ġdal": 8456,
      "Ġmor": 8457,
      "aju": 8458,
      "ipo": 8459,
      "mÃ¡": 8460,
      "Ñģ": 8461,
      "Ġawo": 8462,
      "Ġkare": 8463,
      "Ġmta": 8464,
      "áīłáĭ°": 8465,
      "uses": 8466,
      "ady": 8467,
      "ĠHispania": 8468,
      "neo": 8469,
      "Ġd'aut": 8470,
      "ĠJean": 8471,
      "ĠhaÉĹa": 8472,
      "Waliozaliwa": 8473,
      "ĠMakarantar": 8474,
      "ĠNuwamba": 8475,
      "bÃ¡n": 8476,
      "hor": 8477,
      "ype": 8478,
      "Ġappro": 8479,
      "áĬķáĮłáĪ¨": 8480,
      "áīµáĪį": 8481,
      "ĠmÃ³": 8482,
      "ĠáīłáĮİ": 8483,
      "ĠáīłáĭĭáĬĵ": 8484,
      "ĠáĮĤ": 8485,
      "ĠáĬłáĮłáīĥáĪĭáĭŃ": 8486,
      "áĮįáĭ³": 8487,
      "áĮįáĪªáĬŃ": 8488,
      "Ġjimbo": 8489,
      "ĠÃ¬dÃ¬": 8490,
      "ĠÃ¬lÃł": 8491,
      "áĮłáĬĿ": 8492,
      "áĪŀáĪµ": 8493,
      "Ġáī¥áĪĦ": 8494,
      "ĠorÃŃá¹£irÃŃá¹£i": 8495,
      "ĠáĬłáĪµáīĢáĭµáĪŀ": 8496,
      "Ġáĭ¨áĪĺáĪ¬áīµ": 8497,
      "áĬŃáĪįáīµ": 8498,
      "engo": 8499,
      "ĠáĪĢáĭŃ": 8500,
      "áįķáĪ®": 8501,
      "ically": 8502,
      "áĭĭáĪįáį¡áį¡": 8503,
      "ĠáĪ¶áĪµáīµ": 8504,
      "ĠáĪĽáĭķáĬ¨áĪį": 8505,
      "Ġáī¥áĪŃáĪĥáĬķ": 8506,
      "Ġáīłáī³áī½": 8507,
      "ierre": 8508,
      "ĠhaÉĹin": 8509,
      "áĬ«áī£áī¢áĭį": 8510,
      "já»įÌĢgbá»įÌģn": 8511,
      "áĬ«áĬ¨áĪĪáĬĽáĭį": 8512,
      "áĬķáĮĮáĪį": 8513,
      "ĠáĪĿáĪħáĬķáĭµáĪµáĬĵ": 8514,
      "Ġáº¹ranko": 8515,
      "sy": 8516,
      "oku": 8517,
      "ĠIndi": 8518,
      "Ġ1966": 8519,
      "ĠSecond": 8520,
      "ning": 8521,
      "ĠAbi": 8522,
      "ason": 8523,
      "Ġsaka": 8524,
      "Ġuch": 8525,
      "Ġmoins": 8526,
      "Ġtaken": 8527,
      "tps": 8528,
      "ĠHotuna": 8529,
      "M)": 8530,
      "site": 8531,
      "à¸": 8532,
      "Ġkirk": 8533,
      "viron": 8534,
      "Ohun": 8535,
      "wá»įÌģn": 8536,
      "yÃ¬": 8537,
      "áĪŃáĮħ": 8538,
      "Ġsar": 8539,
      "Ġáĭ¨áīłáĪĪ": 8540,
      "áĪĿáĪ©": 8541,
      "áĬĵáį¢": 8542,
      "Ġpor": 8543,
      "ĠáĬ¥áĪŃáĪµ": 8544,
      "áĭ°áĮįáĪŀ": 8545,
      "áĬŃáī¶": 8546,
      "ĠáĬłáĪĽáĪŃáĬĽ": 8547,
      "emu": 8548,
      "Ġdev": 8549,
      "ĠáĪµáĬĲ": 8550,
      "Ġáº¹Ìģ": 8551,
      "ĠáīµáĬ©": 8552,
      "ĠáīĢáīłáĪĮ": 8553,
      "Ġáĭ¨áĬłáĪ¦áĪŃ": 8554,
      "Ġ2008,": 8555,
      "woorun": 8556,
      "ĠáĭµáĪ¨áĪµ)": 8557,
      "ĠáĬłáĪµáī°áĪ³áĪ°áī¥": 8558,
      "Ġáī°áĪĺáĪ«": 8559,
      "ĠáĪĽáĭķáĪ¨áĮį": 8560,
      "Ġáī¥áĪĶáĪ®áī½": 8561,
      "ĠáĬķáĮįáĪ¥áīµ": 8562,
      "ĠWilliams": 8563,
      "ĠáĬ¥áĭįáĬĲáīµ": 8564,
      "ĠáĬłáĮįáĬĿ": 8565,
      "05": 8566,
      "hara": 8567,
      "una,": 8568,
      "Ġhom": 8569,
      "ĠKid": 8570,
      "Ġ1977": 8571,
      "Ġappel": 8572,
      "ire.": 8573,
      "Ġ(2006)": 8574,
      "Ġcertain": 8575,
      "ĠLouis": 8576,
      "97": 8577,
      "pond": 8578,
      "ĠáĬ¥áĪ³áīµ": 8579,
      "atini": 8580,
      "ĠBern": 8581,
      "-áĪĿ": 8582,
      "Ġáĭ¨áįĢ": 8583,
      "ilim": 8584,
      "ĠáĬ¥áĭ«áĬķáĭ³áĬķáĭ±": 8585,
      "ĠáĬĲáĮŃ": 8586,
      "ĠáĬĲáĭī": 8587,
      "el.": 8588,
      "ĠáĬĲáīłáĪŃáį£": 8589,
      "rich": 8590,
      "Ġ1979": 8591,
      "Ġkowa": 8592,
      "ĠáīłáĪĽáĭµáĪ¨áĮį": 8593,
      "Ġkáº¹rÃ¬n": 8594,
      "ĠáĪĺáĬķáįĪáĪµ": 8595,
      "ĠáīĨáĭ¨": 8596,
      "áĪĪáĭ«áĭ¨": 8597,
      "ĠBrasil": 8598,
      "Ġinternational": 8599,
      "ĠáĬłáĭįáĪ«áĮĥ": 8600,
      "ra.": 8601,
      "esearch": 8602,
      "pÃł": 8603,
      "erland": 8604,
      "Ġdat": 8605,
      "abaki": 8606,
      "osh": 8607,
      "ubali": 8608,
      "ĠMaur": 8609,
      "imbab": 8610,
      "ĠUnion": 8611,
      "Ġsosai": 8612,
      "um)": 8613,
      "Ġ1920": 8614,
      "Ġatta": 8615,
      "Ġresult": 8616,
      ".áĪľ": 8617,
      "Ce": 8618,
      "jan": 8619,
      "xi": 8620,
      "ÃłbÃ¡": 8621,
      "Ġáīłáĭķ": 8622,
      "Ã¬á¹£áº¹Ìģ": 8623,
      "ĠÃłrÃŃwÃ¡": 8624,
      "ĠáĬĲáĮĭ": 8625,
      "Ġjinsi": 8626,
      "ĠSm": 8627,
      "Ġáĭ¨áĪ²": 8628,
      "ĠáĭĵáįĦ": 8629,
      "ĠÃĢgbÃł": 8630,
      "áĭ±áĬķ": 8631,
      "Ġyii": 8632,
      "ĠáĭĿáĬĵ": 8633,
      "Ġseries": 8634,
      "ĠGuusu": 8635,
      "ĠTurk": 8636,
      "ĠáĬĲáĮ»áĬĲáīµ": 8637,
      "ĠÃ¬lÃłnÃł": 8638,
      "Ġziliz": 8639,
      "Ġderni": 8640,
      "ĠPopu": 8641,
      "html": 8642,
      "Da": 8643,
      "Ġgo": 8644,
      "ĠCup": 8645,
      "ri.": 8646,
      "Ġ2007,": 8647,
      "ĠPeter": 8648,
      "ĠMartin": 8649,
      "ram": 8650,
      "amakon": 8651,
      "hiyar": 8652,
      "ĠLife": 8653,
      "ĠU.S.": 8654,
      "Ġ1950": 8655,
      "ĠBello": 8656,
      "Ġtaimaka": 8657,
      "AL": 8658,
      "ÉĻ": 8659,
      "iland": 8660,
      "ĠPi": 8661,
      "Ãģ": 8662,
      "Ġlarin": 8663,
      "ĠAsh": 8664,
      "Ġáīł200": 8665,
      "Ġ(áĬ¥áĪµ": 8666,
      "áĪĪáĪħ": 8667,
      "Ġcirc": 8668,
      "gbaj": 8669,
      "áĭµáī¥": 8670,
      "áº¹Ìģká»įÌĢá»įÌģ": 8671,
      "ĠáĪĺáīĥ": 8672,
      "ĠáĬ¨áĪĭáĭŃ": 8673,
      "ĠáĬ¨áĬĲáĭļáĪħ": 8674,
      "ĠNic": 8675,
      "ia)": 8676,
      "Ġgwa": 8677,
      "Ġáįħ": 8678,
      "ĠáĭŃáĬĵ": 8679,
      "ĠTal": 8680,
      "ĠOjÃº": 8681,
      "áīłáĪ½": 8682,
      "áįĪáį¢": 8683,
      "Ġmaisha": 8684,
      "ĠáīµáĪįáīģ": 8685,
      "ody": 8686,
      "Ġáĭ°áĪĿ": 8687,
      "ĠsÃŃwÃ¡jÃº": 8688,
      "Ġologun": 8689,
      "ĠorÃŃlÃ¨": 8690,
      "áĮłáĪªáĭ«": 8691,
      "Ġáī¡áĭµ": 8692,
      "ĠÃĪkÃ³,": 8693,
      "Ġschool": 8694,
      "Ġnitori": 8695,
      "Ġcur": 8696,
      "Ġeach": 8697,
      "ĠAD": 8698,
      "Ġhistori": 8699,
      "age,": 8700,
      "ĠEmpire": 8701,
      "95": 8702,
      "araka": 8703,
      "ĠMohamm": 8704,
      "cle": 8705,
      "dáº¹": 8706,
      "ĠáĬ¥áĮį": 8707,
      "ĠáĬĲáįį": 8708,
      "ĠáĪĺáĪĥ": 8709,
      "ĠÃ¬jÃł": 8710,
      "Ġáī°áĭĭáĬĵ": 8711,
      "ĠáīłáĪ¬": 8712,
      "áĬ¨áĪĿ": 8713,
      "ĠáĭĺáĭŃ": 8714,
      "áĬ¥áĬĶ": 8715,
      "ĠYamm": 8716,
      "ĠthÃ©": 8717,
      "ĠáĪ²áĪĨáĬķáį¤": 8718,
      "ĠáįįáĪįáĪµáįįáĬĵ": 8719,
      "ĠáĪķáĮĪ": 8720,
      "ĠKaramar": 8721,
      "ĠÃ¨yÃŃ,": 8722,
      "ĠOrile-ede": 8723,
      "ĠáĬ¥áĪŃáĮį": 8724,
      "Ġgirm": 8725,
      "Ġwá»įlÃ©": 8726,
      "ĠÃĮjáº¹ÌĢbÃº": 8727,
      "NN": 8728,
      "St": 8729,
      "Ġaz": 8730,
      "udo": 8731,
      "ĠAnt": 8732,
      "Ġ1992": 8733,
      "less": 8734,
      "Ġjusqu'": 8735,
      "mÃ³": 8736,
      "ãĤ": 8737,
      "imakin": 8738,
      "ĠRef": 8739,
      "undun": 8740,
      "Ġ1973": 8741,
      "ĠEnugu": 8742,
      "Ġactiv": 8743,
      "Ġwatakatifu": 8744,
      "Ġhaih": 8745,
      "85": 8746,
      "B.": 8747,
      "amani": 8748,
      "ĠPri": 8749,
      "ĠArts": 8750,
      "100": 8751,
      "táº¹": 8752,
      "Ġndi": 8753,
      "Ġkoloni": 8754,
      "onekana": 8755,
      "time": 8756,
      "Ġoro": 8757,
      "áĪ³áĪµ": 8758,
      "ĠTra": 8759,
      "ce.": 8760,
      "Ġáĭ¨áĪļáĪĺ": 8761,
      "Ġá¹£Ã¨": 8762,
      "áįĭáĪį": 8763,
      "ĠáĪįáĮĨ": 8764,
      "Ġl'E": 8765,
      "ĠStudi": 8766,
      "ĠáįįáĪĭ": 8767,
      "ĠáĭĿáĪĿ": 8768,
      "ĠalÃ¡Ã¬": 8769,
      "áīħáĪŃáī¥": 8770,
      "Ġáĭ¨áĮįáĪªáĬŃ": 8771,
      "Ġrawar": 8772,
      "áĭĺáĮĭáĮĢ": 8773,
      "ĠáĪģáĪĪáī±": 8774,
      "ĠáĭµáĪĿáĮ½": 8775,
      "Ġáī°áīĭáĪĿ": 8776,
      "ĠKejÃ¬lÃ¡": 8777,
      "ĠáīłáĭŃáįĭ": 8778,
      "ti,": 8779,
      "akh": 8780,
      "Ġ1965": 8781,
      "Ġpartir": 8782,
      "Ġsouvent": 8783,
      "Bi": 8784,
      "For": 8785,
      "tÃ¹": 8786,
      "esu": 8787,
      "Ġwur": 8788,
      "ĠWais": 8789,
      "ĠUp": 8790,
      "ote.": 8791,
      "âĢĻs": 8792,
      "Ġbakwai": 8793,
      "ĠáīĢáĭ³áĪĽáĭĬ": 8794,
      "ality": 8795,
      "Ġhistoria": 8796,
      "elo": 8797,
      "ĠCivil": 8798,
      "ĠWaf": 8799,
      "Ġmach": 8800,
      "ova": 8801,
      "Ġ1971": 8802,
      "41": 8803,
      "ráº¹ÌĢ": 8804,
      "Ġec": 8805,
      "ĠáĭĮ": 8806,
      "Ġnasar": 8807,
      "Ġmanu": 8808,
      "Ġokun": 8809,
      "ils": 8810,
      "Ġbere": 8811,
      "ĠáĬ¥áĪ±": 8812,
      "ĠáĪĺáĭį": 8813,
      "ĠáĬ¨1892": 8814,
      "Ġáī°áĮĪáĭ°": 8815,
      "ĠáĪµáĮĭ": 8816,
      "ĠáĪµáįįáĪ«": 8817,
      "áĮ£áĮ£": 8818,
      "ama,": 8819,
      "ĠÃĮdÃŃ": 8820,
      "ĠÃ²nÃŃ": 8821,
      "ĠáĬłáĬķáĮ»": 8822,
      "Ġmash": 8823,
      "ĠáĬĵáīµ": 8824,
      "áĮ»áįĪáĭį": 8825,
      "ÃĮbáº¹ÌĢráº¹ÌĢ": 8826,
      "Ġkáº¹já»į": 8827,
      "ustri": 8828,
      "Ġkawo": 8829,
      "ĠáĬ¥áĭ«áĪĪ": 8830,
      "áįĲáĪŃ": 8831,
      "Ġáĭ¨áĪļáĪĪáĭįáĬķ": 8832,
      "ĠPresident": 8833,
      "ĠáĬłáĭ°áĮĭ": 8834,
      "ĠáīłáĪģáĪĪáīµ": 8835,
      "ĠÃ¬lera": 8836,
      "Ġáī°áĮįáī£áĪŃ": 8837,
      "ĠM.": 8838,
      "ĠGra": 8839,
      "Ġ2013.": 8840,
      "ineer": 8841,
      "Ġdawo": 8842,
      "anag": 8843,
      "ĠUb": 8844,
      "Ġ1985": 8845,
      "Ġkusan": 8846,
      "Ġcommer": 8847,
      "Ġmuziki": 8848,
      "Ġcheo": 8849,
      "-century": 8850,
      "we,": 8851,
      "well": 8852,
      "yle": 8853,
      "Îµ": 8854,
      "ĠSar": 8855,
      "reg": 8856,
      "rot": 8857,
      "áĬĭ": 8858,
      "Ġáĭ¨áĬķ": 8859,
      "áĪĪáĬĽ": 8860,
      "áĪ¨áĬ«": 8861,
      "áĮįáĪª": 8862,
      "ĠáĪĺáĮ½": 8863,
      "ĠáĬ¨áī³": 8864,
      "ĠKif": 8865,
      "áĪĽáĭį": 8866,
      "Ġgáº¹gáº¹": 8867,
      "icin": 8868,
      "Ġáī°áĪĪ": 8869,
      "ĠáĭŃáįĭ": 8870,
      "á¹£á»įÌĢ": 8871,
      "Ġáĭ¨áĬ¬": 8872,
      "áĭĪáĮ¥": 8873,
      "ĠGovernment": 8874,
      "áĪīáį¡áį¡": 8875,
      "áĭļáĪį": 8876,
      "áĭĺáĪŃ": 8877,
      "ĠáĪ°áĪľáĬķ": 8878,
      "áĪĻáį¢": 8879,
      "Ġáī³áĪªáĬ®áī½": 8880,
      "ĠáīłáĪĺáĬķ": 8881,
      "Ġá»ĮlÃ¡": 8882,
      "Ġaddinin": 8883,
      "áĬķáĮĤ": 8884,
      "áīªáĭ¥áĬķ": 8885,
      "áĮ£áĪįáĭ«": 8886,
      "Ġperson": 8887,
      "ĠáĬłáĬĲáĮĭáĮĪáĪŃ": 8888,
      "áĭĽáĪ¬áĭį": 8889,
      "Ġhannu": 8890,
      "áĭµáĪ¨áĪµ)": 8891,
      "Ġlabarai": 8892,
      "tps://": 8893,
      "pad": 8894,
      "Î½": 8895,
      "Ġ(v": 8896,
      "ba,": 8897,
      "essor": 8898,
      "ĠKol": 8899,
      "ĠKog": 8900,
      "lahi": 8901,
      "Ġcours": 8902,
      "ĠDelta": 8903,
      "Ġmengine": 8904,
      "lad": 8905,
      "work": 8906,
      "ĠPan": 8907,
      "ston": 8908,
      "apon": 8909,
      "Ġexamp": 8910,
      "echni": 8911,
      "cept": 8912,
      "66": 8913,
      "ģáĬķáĪĿ": 8914,
      "áĭª": 8915,
      "áĪµáĪ«áīħ": 8916,
      "áĬĵáĭį": 8917,
      "áīłáĬŀáī½": 8918,
      "ĠKud": 8919,
      "ĠáįĶ": 8920,
      "Ġida": 8921,
      "Ġlaw": 8922,
      "áĪ©áĪµ": 8923,
      "ĠlÃ¡ÃłÃ¡": 8924,
      "oft": 8925,
      "Ġá»įÌĢdá»įÌĢ": 8926,
      "Ġmarub": 8927,
      "ĠáĮ£áī¢áĭ«": 8928,
      "ĠáĭŃáī½áĪĭáĪį": 8929,
      "ĠAustralia": 8930,
      "Ġáĭ¨áī³áĪªáĬŃ": 8931,
      "ĠRD1-score": 8932,
      "ĠRD1-score0": 8933,
      "Ġáī±áĪŃáĬŃ": 8934,
      "ĠáīłáĪĨáĬĲ": 8935,
      "Is": 8936,
      "Ġking": 8937,
      "Ġown": 8938,
      "rec": 8939,
      "Ġ\"The": 8940,
      "ĠEurop": 8941,
      "Au": 8942,
      "we.": 8943,
      "Ġfili": 8944,
      "Ġduniya.": 8945,
      "Ġl'ex": 8946,
      "elui": 8947,
      "Ġfollowing": 8948,
      "43": 8949,
      "son,": 8950,
      "Ø©": 8951,
      "Ø³": 8952,
      "ĠtÃ¡n": 8953,
      "Ġnde": 8954,
      "Ġáĭ¨áīĭáĬķáīĭ": 8955,
      "áĪĿáį¤": 8956,
      "ĠáĬ¥áĭļáĪħ": 8957,
      "itect": 8958,
      "áī³áĪŃ": 8959,
      "ĠáĬ¨áĪ¥": 8960,
      "ĠKig": 8961,
      "Ġipin": 8962,
      "ĠLand": 8963,
      "ĠHai": 8964,
      "áĭĬáĭį": 8965,
      "ĠáĪ²áĭĪ": 8966,
      "ĠáĮįáĪŃ": 8967,
      "áĬ¥áĬķáĮį": 8968,
      "ĠÃ²rÃ¬á¹£Ãł": 8969,
      "Ġoriláº¹": 8970,
      "ĠáįĪáīĥ": 8971,
      "ĠáĪĪáĪĺáĮį": 8972,
      "ĠáĪħáĭĿ": 8973,
      "ĠáĬ¤áĬķ": 8974,
      "Ġmáº¹ÌģfÃł": 8975,
      "Ġáī°áĭĪáĪĪ": 8976,
      "Ġáī´áĭİ": 8977,
      "ĠáĭĪáĪŃáīħ": 8978,
      "Ġáī½áĮįáĪŃ": 8979,
      "ĠáįķáĪ¬áĭĿ": 8980,
      "ĠáĪĿáĪŃáĮ«": 8981,
      "ĠUsman": 8982,
      "áī¾áī½": 8983,
      "ĠáĬ¨áĪĮáĪİáī½": 8984,
      "ĠáĬ¥áĬķáĮįáĪĬáĭĿáĬĽ:": 8985,
      "BÃ¡kan": 8986,
      "it,": 8987,
      "Ġ1918": 8988,
      "xford": 8989,
      "ĠJuli": 8990,
      "ensis": 8991,
      "Ġ(2003)": 8992,
      "Ġgwamnan": 8993,
      "ness": 8994,
      "Ġ0.": 8995,
      "Ġchi": 8996,
      "Ġgur": 8997,
      "ent,": 8998,
      "Ġoff": 8999,
      "And": 9000,
      "ĠTanzania.": 9001,
      "Ġsmall": 9002,
      "89": 9003,
      "Lá»įÌģ": 9004,
      "rement": 9005,
      "s:": 9006,
      "áĪ¼": 9007,
      "áĭĶ": 9008,
      "áĪĭáįĬ": 9009,
      "áĪ«áĬŃ": 9010,
      "áį¡áĪĺ": 9011,
      "áĭ³áī¤": 9012,
      "Ġyá»į": 9013,
      "áīĢáį¢": 9014,
      "áĪ°áī£": 9015,
      "ĠWilaya": 9016,
      "áĪĮáīµ": 9017,
      "ĠJo": 9018,
      "ĠáĪµáĪį": 9019,
      "ĠáĪ²áĪī": 9020,
      "áĬĸáĪ¨áĭį": 9021,
      "ression": 9022,
      "áĪ¶áĪµ": 9023,
      "ĠkÃ²kÃ²rÃ²": 9024,
      "ĠáĬ¥áĬķáĭ³áĪį": 9025,
      "Ġobinrin": 9026,
      "Ġlangues": 9027,
      "Ġáī½áĪİ": 9028,
      "ĠáĬ¥áĬķáĪµáĪ³áīµ": 9029,
      "ĠáįķáĪ¬áĭļáĭ°áĬķáīµ": 9030,
      "Ġá¹£áº¹láº¹ÌĢ": 9031,
      "ĠkÃ¡Ãłkiri": 9032,
      "63": 9033,
      "wari": 9034,
      "Ġtatu": 9035,
      "Ġmit": 9036,
      "iaf": 9037,
      "19)": 9038,
      "velopment": 9039,
      "Lugha": 9040,
      "Mah": 9041,
      "ja,": 9042,
      "las": 9043,
      "ĠWata": 9044,
      "ivid": 9045,
      "Ġaround": 9046,
      "warar": 9047,
      "Ġchild": 9048,
      "Ġavant": 9049,
      "Ġkabisa": 9050,
      "Ġambapo": 9051,
      "ĠKijerumani": 9052,
      "by": 9053,
      "ĠMali": 9054,
      "Ġ6.": 9055,
      "III": 9056,
      "Ġnouvel": 9057,
      "03": 9058,
      "NÃŃnÃº": 9059,
      "gÃ²": 9060,
      "áĮ´": 9061,
      "Ġáĭļ": 9062,
      "Ġsen": 9063,
      "Ġáīł2": 9064,
      "uring": 9065,
      "áĪ«áī½": 9066,
      "umiwa": 9067,
      "áĬĽáį£": 9068,
      "Ġáī°áĮ¨": 9069,
      "áĮ¥áī³": 9070,
      "áĭ¨áĪį": 9071,
      "ĠWah": 9072,
      "ĠEko": 9073,
      "áī±áį¢": 9074,
      "áī¶áĬķ": 9075,
      "áĬĲáīµáĬĵ": 9076,
      "ĠÃ¨we": 9077,
      "though": 9078,
      "Ġbaadaye": 9079,
      "áīłáĪ¨áĭį": 9080,
      "ĠáīłáĬłáĬķáĭ³áĬķáĭµ": 9081,
      "Ġ1969": 9082,
      "ĠáįĪáĪĪ": 9083,
      "ĠáīłáĬĭáĪĭáĪĿ": 9084,
      ".áĬł.áĬł.": 9085,
      "ĠáĪĺáĪµáĪĺáĪŃ": 9086,
      "ĠAmerica": 9087,
      "Ġwengine": 9088,
      "ĠáĬłáĭµáĪŃáĮĪáĭį": 9089,
      "áĪĪáĬķáį¢": 9090,
      "Ã®t": 9091,
      "Ġáĭ°áĪ´áī¶áī½": 9092,
      "ĠyÃłtá»įÌĢ": 9093,
      "ĠMkuu": 9094,
      "Ġáī°áĭ°áĪŃáĮİ": 9095,
      "ĠáĮ¨áĭĭáī³": 9096,
      "Ð²": 9097,
      "Ġdab": 9098,
      "ĠKore": 9099,
      "Ġarch": 9100,
      "fanya": 9101,
      "waju": 9102,
      "ithin": 9103,
      "ĠSult": 9104,
      "Ġta,": 9105,
      "ansu.": 9106,
      "ording": 9107,
      "ĠAustria": 9108,
      "ĠEdward": 9109,
      "ĠAbuja": 9110,
      "69": 9111,
      "van": 9112,
      "ËĪ": 9113,
      "Ġtan": 9114,
      "Ã¡,": 9115,
      "ĠMt": 9116,
      "ĠCouncil": 9117,
      "asiti": 9118,
      "Ġexist": 9119,
      "Ġscienti": 9120,
      "ĠGermany": 9121,
      "de,": 9122,
      "ĭáĪħ": 9123,
      "Ġn;": 9124,
      "áĪŃáĪ³": 9125,
      "Ġáĭ¨áĮī": 9126,
      "Ġlib": 9127,
      "ĠAv": 9128,
      "ĠMpaka": 9129,
      "áĬ¨áĪ¨": 9130,
      "ay,": 9131,
      "ĠRuss": 9132,
      "Ġáĭ°áĪ¨áĪ°": 9133,
      "Ġáĭ¨áĬłáĪĿ": 9134,
      "áĮİáīµ": 9135,
      "áīĨáī½": 9136,
      "ĠVirgin": 9137,
      "ĠáĮĢáĪĺáĪŃ": 9138,
      "ĠáĮ¸áĪĵ": 9139,
      "Ġformer": 9140,
      "Ġgrande": 9141,
      "Ġkyautar": 9142,
      "ĠBiranen": 9143,
      "ĠáĭĺáĪŃáįį": 9144,
      "ĠáĪĺáĮĢáĪĺáĪŃáĭ«áĭį": 9145,
      "ĠsÃ¡bÃł": 9146,
      "AM": 9147,
      "mÃ©": 9148,
      "oran": 9149,
      "ĠDist": 9150,
      "Ġalum": 9151,
      "ateurs": 9152,
      "Ġ70": 9153,
      "Ġphilosoph": 9154,
      "65": 9155,
      "ĠÉĵ": 9156,
      "Ġkow": 9157,
      "ĠSel": 9158,
      "Ġ2009.": 9159,
      "ieux": 9160,
      "engene": 9161,
      "Ġwakifuata": 9162,
      "Ray": 9163,
      "Ġáī¸": 9164,
      "Ġtechn": 9165,
      "ĠAcc": 9166,
      "áĪĺáĪ©": 9167,
      "umar": 9168,
      "ĠFlor": 9169,
      "-áĬ¤": 9170,
      "Ġsaf": 9171,
      "Ġáĭ¨áī¡": 9172,
      "Ġáīłáĭ³": 9173,
      "Ġru": 9174,
      "ĠKasa": 9175,
      "Ġáī°áĬ¨áī°áĪĪáĭį": 9176,
      "ĠáĭŃáĪĭáĪį": 9177,
      "áīħáĬķ": 9178,
      "ĠDani": 9179,
      "áī±áīµ": 9180,
      "áįĪáĪ©": 9181,
      "Ġarziki": 9182,
      "ĠáĪĨáĬĹ": 9183,
      "ĠáĬ¥áĬķáĭ²áĪĨáĬķ": 9184,
      "Ġuishe": 9185,
      "ĠÃĴgÃºn": 9186,
      "ĠáĪĺáĪįáĭķ": 9187,
      "ĠáīłáĮįáĪªáĬŃ": 9188,
      "ĠDisamba": 9189,
      "áĬŃáĬķáĭ®": 9190,
      "ĠáĪĨáĬĳáį¢": 9191,
      "Ġ''(": 9192,
      "Ġhuadhimisha": 9193,
      "áĬķáĮłáĪ¨áĭ¥": 9194,
      "87": 9195,
      "arl": 9196,
      "Ġcamp": 9197,
      "ĠDam": 9198,
      "ĠkÃ¹": 9199,
      "Ġmort": 9200,
      "itta": 9201,
      "abin": 9202,
      "ador": 9203,
      "ch,": 9204,
      "Ġshari": 9205,
      "Ġdonc": 9206,
      "enegal": 9207,
      "Ġtakriban": 9208,
      "ĠWakristo": 9209,
      "Ġduniani": 9210,
      "Ġmirefu).": 9211,
      "Ki": 9212,
      "Ã£": 9213,
      "enia": 9214,
      "Ġlist": 9215,
      "ĠKeb": 9216,
      "Ġseveral": 9217,
      "Ġbecause": 9218,
      "ĠCross": 9219,
      "gÃ¨": 9220,
      "káº¹": 9221,
      "áĬķáĬ©": 9222,
      "áĪĿáīµ": 9223,
      "ĠogÃºn": 9224,
      "áī°áĪ¨áīµáĬĵ": 9225,
      "irun": 9226,
      "ĠIláº¹ÌĢ": 9227,
      "Ġij": 9228,
      "áĪĮáĪµ": 9229,
      "áĮ£áĭĬ": 9230,
      "ĠáĭµáĪ¨": 9231,
      "áĭķáīµ": 9232,
      "sÃŃwÃ¡jÃº": 9233,
      "ĠIbn": 9234,
      "ĠlÃ³rÃŃláº¹ÌĢ-Ã¨dÃ¨": 9235,
      "Ġyanayin": 9236,
      "ĠáĬłáī¥áĭ«áī°": 9237,
      "ĠáĪŃáĭĿ": 9238,
      "Ġmfano": 9239,
      "Ġáĭ¨áĪķáĭĿáī¥": 9240,
      "ĠáĭŃáĪĺáĪµáĪĭáĪį": 9241,
      "ĠáĪĽáī´áĭİáĪµáį£": 9242,
      "Ġzinabaki": 9243,
      "ĠArewacin": 9244,
      "ĠáĬĳáĪ®": 9245,
      "Ġká»įkÃłnlÃ¡": 9246,
      "ĠáĪĿáĭķáĪ«áįį": 9247,
      "Ġkoyar": 9248,
      "ĠâĢİâĢİ": 9249,
      "bÃ¨": 9250,
      "pec": 9251,
      "ving": 9252,
      "Ġlife": 9253,
      "Ġequ": 9254,
      "ticle": 9255,
      "ĠWestern": 9256,
      "Ġsite": 9257,
      "ativ": 9258,
      "okun": 9259,
      "Ġ\"A": 9260,
      "Ġkwenda": 9261,
      "Ġ(),": 9262,
      "Ġ(14": 9263,
      "ur,": 9264,
      "ablished": 9265,
      "ĠGal": 9266,
      "Ġ\"N": 9267,
      "ateg": 9268,
      "ambia": 9269,
      "man,": 9270,
      "ĠProf": 9271,
      "ĠFestival": 9272,
      "-áĪĺ": 9273,
      "bá»į": 9274,
      "wiwa": 9275,
      "yte": 9276,
      "Ġans": 9277,
      "ÃºlÃ¡": 9278,
      "Ġrangi": 9279,
      "áĪĭáīĢ": 9280,
      "ĠÃ¬wá»įÌĢn": 9281,
      "áĬ¨áĭį": 9282,
      "entulus": 9283,
      "Ġoften": 9284,
      "ĠOdÃ¹": 9285,
      "áĬ«áĪ¬": 9286,
      "osed": 9287,
      "ĠJu": 9288,
      "igawa": 9289,
      "ĠáĪ°áĪĭáĪĿ": 9290,
      "Ġáī¥áĪ«": 9291,
      "ĠáĬŃáī¥áĪŃ": 9292,
      "áī¦áī½áĬķ": 9293,
      "Ġáīłáī°áĪ°": 9294,
      "áĪ¸áīµ": 9295,
      "Ġáĭ¨áĪļáĭ«áĪ³áĭŃ": 9296,
      "ĠRD2-score0": 9297,
      "Ġáĭ¨áĬłáĭ¨áĪŃáĪĭáĬķáĭµ": 9298,
      "ĠSociety": 9299,
      "Ġsuccess": 9300,
      "Ġyammacin": 9301,
      "je,": 9302,
      "ĠSection": 9303,
      "ĠBu": 9304,
      "ĠOy": 9305,
      "ref": 9306,
      "ĠPremi": 9307,
      "83": 9308,
      "Id": 9309,
      "historia": 9310,
      "wer": 9311,
      "Ġmuk": 9312,
      "iriwa": 9313,
      "Ġdeg": 9314,
      "ĠJar": 9315,
      "ĠHouse": 9316,
      "âĢĻa": 9317,
      "ofu": 9318,
      "Ġkusa": 9319,
      "Ġtalab": 9320,
      "ĠQueen": 9321,
      "Ġgreat": 9322,
      "rict": 9323,
      "Ġphys": 9324,
      "ĠCompany": 9325,
[...]
