{
  "version": "1.0",
  "truncation": null,
  "padding": null,
  "added_tokens": [],
  "normalizer": null,
  "pre_tokenizer": {
    "type": "ByteLevel",
    "add_prefix_space": false,
    "trim_offsets": true,
    "use_regex": true
  },
  "post_processor": null,
  "decoder": {
    "type": "ByteLevel",
    "add_prefix_space": true,
    "trim_offsets": true,
    "use_regex": true
  },
  "model": {
    "type": "BPE",
    "dropout": null,
    "unk_token": null,
    "continuing_subword_prefix": null,
    "end_of_word_suffix": null,
    "fuse_unk": false,
    "byte_fallback": false,
    "ignore_merges": false,
    "vocab": {
      "!": 0,
      "\"": 1,
      "#": 2,
      "$": 3,
      "%": 4,
      "&": 5,
      "'": 6,
      "(": 7,
      ")": 8,
      "*": 9,
      "+": 10,
      ",": 11,
      "-": 12,
      ".": 13,
      "/": 14,
      "0": 15,
      "1": 16,
      "2": 17,
      "3": 18,
      "4": 19,
      "5": 20,
      "6": 21,
      "7": 22,
      "8": 23,
      "9": 24,
      ":": 25,
      ";": 26,
      "<": 27,
      "=": 28,
      ">": 29,
      "?": 30,
      "@": 31,
      "A": 32,
      "B": 33,
      "C": 34,
      "D": 35,
      "E": 36,
      "F": 37,
      "G": 38,
      "H": 39,
      "I": 40,
      "J": 41,
      "K": 42,
      "L": 43,
      "M": 44,
      "N": 45,
      "O": 46,
      "P": 47,
      "Q": 48,
      "R": 49,
      "S": 50,
      "T": 51,
      "U": 52,
      "V": 53,
      "W": 54,
      "X": 55,
      "Y": 56,
      "Z": 57,
      "[": 58,
      "\\": 59,
      "]": 60,
      "^": 61,
      "_": 62,
      "`": 63,
      "a": 64,
      "b": 65,
      "c": 66,
      "d": 67,
      "e": 68,
      "f": 69,
      "g": 70,
      "h": 71,
      "i": 72,
      "j": 73,
      "k": 74,
      "l": 75,
      "m": 76,
      "n": 77,
      "o": 78,
      "p": 79,
      "q": 80,
      "r": 81,
      "s": 82,
      "t": 83,
      "u": 84,
      "v": 85,
      "w": 86,
      "x": 87,
      "y": 88,
      "z": 89,
      "{": 90,
      "|": 91,
      "}": 92,
      "~": 93,
      "¡": 94,
      "¢": 95,
      "£": 96,
      "¤": 97,
      "¥": 98,
      "¦": 99,
      "§": 100,
      "¨": 101,
      "©": 102,
      "ª": 103,
      "«": 104,
      "¬": 105,
      "®": 106,
      "¯": 107,
      "°": 108,
      "±": 109,
      "²": 110,
      "³": 111,
      "´": 112,
      "µ": 113,
      "¶": 114,
      "·": 115,
      "¸": 116,
      "¹": 117,
      "º": 118,
      "»": 119,
      "¼": 120,
      "½": 121,
      "¾": 122,
      "¿": 123,
      "À": 124,
      "Á": 125,
      "Â": 126,
      "Ã": 127,
      "Ä": 128,
      "Å": 129,
      "Æ": 130,
      "Ç": 131,
      "È": 132,
      "É": 133,
      "Ê": 134,
      "Ë": 135,
      "Ì": 136,
      "Í": 137,
      "Î": 138,
      "Ï": 139,
      "Ð": 140,
      "Ñ": 141,
      "Ò": 142,
      "Ó": 143,
      "Ô": 144,
      "Õ": 145,
      "Ö": 146,
      "×": 147,
      "Ø": 148,
      "Ù": 149,
      "Ú": 150,
      "Û": 151,
      "Ü": 152,
      "Ý": 153,
      "Þ": 154,
      "ß": 155,
      "à": 156,
      "á": 157,
      "â": 158,
      "ã": 159,
      "ä": 160,
      "å": 161,
      "æ": 162,
      "ç": 163,
      "è": 164,
      "é": 165,
      "ê": 166,
      "ë": 167,
      "ì": 168,
      "í": 169,
      "î": 170,
      "ï": 171,
      "ð": 172,
      "ñ": 173,
      "ò": 174,
      "ó": 175,
      "ô": 176,
      "õ": 177,
      "ö": 178,
      "÷": 179,
      "ø": 180,
      "ù": 181,
      "ú": 182,
      "û": 183,
      "ü": 184,
      "ý": 185,
      "þ": 186,
      "ÿ": 187,
      "Ā": 188,
      "ā": 189,
      "Ă": 190,
      "ă": 191,
      "Ą": 192,
      "ą": 193,
      "Ć": 194,
      "ć": 195,
      "Ĉ": 196,
      "ĉ": 197,
      "Ċ": 198,
      "ċ": 199,
      "Č": 200,
      "č": 201,
      "Ď": 202,
      "ď": 203,
      "Đ": 204,
      "đ": 205,
      "Ē": 206,
      "ē": 207,
      "Ĕ": 208,
      "ĕ": 209,
      "Ė": 210,
      "ė": 211,
      "Ę": 212,
      "ę": 213,
      "Ě": 214,
      "ě": 215,
      "Ĝ": 216,
      "ĝ": 217,
      "Ğ": 218,
      "ğ": 219,
      "Ġ": 220,
      "ġ": 221,
      "Ģ": 222,
      "ģ": 223,
      "Ĥ": 224,
      "ĥ": 225,
      "Ħ": 226,
      "ħ": 227,
      "Ĩ": 228,
      "ĩ": 229,
      "Ī": 230,
      "ī": 231,
      "Ĭ": 232,
      "ĭ": 233,
      "Į": 234,
      "į": 235,
      "İ": 236,
      "ı": 237,
      "Ĳ": 238,
      "ĳ": 239,
      "Ĵ": 240,
      "ĵ": 241,
      "Ķ": 242,
      "ķ": 243,
      "ĸ": 244,
      "Ĺ": 245,
      "ĺ": 246,
      "Ļ": 247,
      "ļ": 248,
      "Ľ": 249,
      "ľ": 250,
      "Ŀ": 251,
      "ŀ": 252,
      "Ł": 253,
      "ł": 254,
      "Ń": 255,
      "áĪ": 256,
      "Ġá": 257,
      "áī": 258,
      "áĬ": 259,
      "áĭ": 260,
      "an": 261,
      "ar": 262,
      "in": 263,
      "áĮ": 264,
      "Ġáĭ": 265,
      "ĠáĬ": 266,
      "Ġt": 267,
      "ĠáĪ": 268,
      "wa": 269,
      "Ġk": 270,
      "áį": 271,
      "Ġd": 272,
      "Ġa": 273,
      "Ġn": 274,
      "áĬķ": 275,
      "Ġáī": 276,
      "Ġm": 277,
      "Ġs": 278,
      "ya": 279,
      "»į": 280,
      "ÃŃ": 281,
      "ĠÃ": 282,
      "on": 283,
      "er": 284,
      "áīµ": 285,
      "en": 286,
      "á»į": 287,
      "at": 288,
      "li": 289,
      "áĪŃ": 290,
      "º¹": 291,
      "un": 292,
      "Ġl": 293,
      "es": 294,
      "áº¹": 295,
      "Ġáĭ¨": 296,
      "ka": 297,
      "áĭį": 298,
      "Ġya": 299,
      "Ġda": 300,
      "is": 301,
      "Ã©": 302,
      "am": 303,
      "łáĪ": 304,
      "ĠA": 305,
      "Ġwa": 306,
      "or": 307,
      "as": 308,
      "áĪĿ": 309,
      "he": 310,
      "áĪį": 311,
      "Ġb": 312,
      "áĪµ": 313,
      "Ìģ": 314,
      "Ġc": 315,
      "Ġ(": 316,
      "ĠM": 317,
      "ÌĢ": 318,
      "Ãł": 319,
      "Ġp": 320,
      "Ġ1": 321,
      "it": 322,
      "Ġo": 323,
      "Ã¡": 324,
      "al": 325,
      "Ġf": 326,
      "Ġh": 327,
      "Ġna": 328,
      "ur": 329,
      "áį¢": 330,
      "il": 331,
      "ir": 332,
      "Ġg": 333,
      "áĬĵ": 334,
      "Ġáīł": 335,
      "áī°": 336,
      "Ġw": 337,
      "áĭ«": 338,
      "áĪĪ": 339,
      "ĠK": 340,
      "Ãº": 341,
      "ĠáĮ": 342,
      "ti": 343,
      "Ġr": 344,
      "Ġku": 345,
      "áĭŃ": 346,
      "áĪĺ": 347,
      "ĠS": 348,
      "ab": 349,
      "Ã¬": 350,
      "ĠáĬ¥": 351,
      "ik": 352,
      "áī½": 353,
      "us": 354,
      "ad": 355,
      "Ġj": 356,
      "hi": 357,
      "and": 358,
      "Ġta": 359,
      "le": 360,
      "ĠN": 361,
      "om": 362,
      "ĠÃł": 363,
      "ĠáĬł": 364,
      "ia": 365,
      "ati": 366,
      "ĠB": 367,
      "áĭ°": 368,
      "áĬĲ": 369,
      "ĠI": 370,
      "ta": 371,
      "áī¥": 372,
      "áĪ¨": 373,
      "áĮĪ": 374,
      "áĭµ": 375,
      "Ġ2": 376,
      "ba": 377,
      "ma": 378,
      "Ġ19": 379,
      "ĠT": 380,
      "áĪĭ": 381,
      "ĠáĬĲ": 382,
      "áĮį": 383,
      "Ġni": 384,
      "Ã¨": 385,
      "ed": 386,
      "ĠáĪĺ": 387,
      "ha": 388,
      "Ġthe": 389,
      "áīł": 390,
      "ĠC": 391,
      "el": 392,
      "to": 393,
      "Ġma": 394,
      "¹£": 395,
      "áĪ«": 396,
      "ana": 397,
      "Ã³": 398,
      "Ġi": 399,
      "áī³": 400,
      "ĠáĬ¨": 401,
      "Ġz": 402,
      "gb": 403,
      "ara": 404,
      "Ġin": 405,
      "áĬŃ": 406,
      "ĠnÃŃ": 407,
      "á»įn": 408,
      "Ġy": 409,
      "ay": 410,
      "ĠW": 411,
      "Ġde": 412,
      "ĠP": 413,
      "ent": 414,
      "et": 415,
      "áĪĽ": 416,
      "ic": 417,
      "Ġof": 418,
      "em": 419,
      "áĪ³": 420,
      "um": 421,
      "áī£": 422,
      "ol": 423,
      "ing": 424,
      "Ġla": 425,
      "ut": 426,
      "Ġáį": 427,
      "Ġ20": 428,
      "ĠÃ¬": 429,
      "ani": 430,
      "ĠO": 431,
      "wá»įn": 432,
      "ĠG": 433,
      "ĠD": 434,
      "Ã¹": 435,
      "ĠL": 436,
      "ai": 437,
      "âĢ": 438,
      "ĠJ": 439,
      "áĬĽ": 440,
      "Ġáī°": 441,
      "Ġá»į": 442,
      "áĪª": 443,
      "ĠáĭŃ": 444,
      "ga": 445,
      "ĠF": 446,
      "Ã²": 447,
      "ĠáīłáĪ": 448,
      "Ġáĭ¨áĪ": 449,
      "ke": 450,
      "á¹£": 451,
      "ĠáĬłáĪ": 452,
      "ul": 453,
      "ĠR": 454,
      "áĪħ": 455,
      "si": 456,
      "áĮ¥": 457,
      "áĬ¨": 458,
      "ĠH": 459,
      "áį£": 460,
      "ĠáĪĿ": 461,
      "ro": 462,
      "ali": 463,
      "ch": 464,
      "Ġáĭ¨áĬ": 465,
      "re": 466,
      "ce": 467,
      "uk": 468,
      "ari": 469,
      "ĠáĭĪ": 470,
      "áį¡": 471,
      "qu": 472,
      "Ãºn": 473,
      "Ġ-": 474,
      "la": 475,
      "os": 476,
      "di": 477,
      "ĠtÃŃ": 478,
      "áįį": 479,
      "áĭ³": 480,
      "ĠáĬĲáĭį": 481,
      "áīĢ": 482,
      "ĠU": 483,
      "im": 484,
      "ĠE": 485,
      "áĭ¨": 486,
      "ak": 487,
      "ĠáĬ¥áĬķ": 488,
      "áĭĪ": 489,
      "iya": 490,
      "Ġv": 491,
      "da": 492,
      "ri": 493,
      "are": 494,
      "Ġto": 495,
      "áĪ°": 496,
      "áīħ": 497,
      "iy": 498,
      "áĪĮ": 499,
      "áĬ«": 500,
      "uwa": 501,
      "ÆĻ": 502,
      "ĠáĪĪ": 503,
      "ji": 504,
      "ci": 505,
      "Ġti": 506,
      "ra": 507,
      "Ġand": 508,
      "áĬł": 509,
      "ama": 510,
      "ko": 511,
      "sa": 512,
      "00": 513,
      "ĠáĪµ": 514,
      "áī¸": 515,
      "Ġáĭ«": 516,
      "ig": 517,
      "ĠÃ³": 518,
      "áĪī": 519,
      "Ġkuma": 520,
      "ation": 521,
      "Ġáĭĵ": 522,
      "Ġkwa": 523,
      "ini": 524,
      "te": 525,
      "Ġor": 526,
      "hek": 527,
      "de": 528,
      "láº¹": 529,
      "áīłáĪ": 530,
      "áĭĬ": 531,
      "áĭĭ": 532,
      "ye": 533,
      "áĪ®": 534,
      "áī±": 535,
      "İáī½": 536,
      "Ġne": 537,
      "ug": 538,
      "Ġshek": 539,
      "áī¸áĭį": 540,
      "19": 541,
      "áįĪ": 542,
      "iki": 543,
      "Ġáĭ¨áĪļ": 544,
      "ang": 545,
      "áĭĿ": 546,
      "ĠÆĻ": 547,
      "pa": 548,
      "áĮ£": 549,
      "bi": 550,
      "fa": 551,
      "Ġe": 552,
      "áĪĨ": 553,
      "za": 554,
      "ĠáĪĽ": 555,
      "ant": 556,
      "ikin": 557,
      "rÃŃ": 558,
      "áĭļ": 559,
      "áī¶": 560,
      "Ġil": 561,
      "Ġle": 562,
      "est": 563,
      "ina": 564,
      "áĪ³áĪĮ": 565,
      "op": 566,
      "áĮł": 567,
      "Ġsu": 568,
      "áĮī": 569,
      "zi": 570,
      "ann": 571,
      "ĠÃĢ": 572,
      "ĠY": 573,
      "Ġal": 574,
      "áĮĭ": 575,
      "ec": 576,
      "ag": 577,
      "ĠáīłáĬ": 578,
      "áĭ®": 579,
      "toka": 580,
      "Ġ201": 581,
      "ata": 582,
      "og": 583,
      "Ãłn": 584,
      "Ġu": 585,
      "Ġza": 586,
      "hin": 587,
      "Ġ\"": 588,
      "ili": 589,
      "ĠáĪĿáĪ³áĪĮ": 590,
      "ĠÃłwá»įn": 591,
      "ká»į": 592,
      "st": 593,
      "wan": 594,
      "ot": 595,
      "Ġba": 596,
      "Ġen": 597,
      "Ġkas": 598,
      "har": 599,
      "ĠáĪ²": 600,
      "ers": 601,
      "ung": 602,
      "áĭ²": 603,
      "Ġkati": 604,
      "áĬķáĭµ": 605,
      "bo": 606,
      "Ġáº¹": 607,
      "ĠáĮį": 608,
      ").": 609,
      "Ġun": 610,
      "Ġáīµ": 611,
      "jer": 612,
      "Ġwas": 613,
      "id": 614,
      "war": 615,
      "áĭİáī½": 616,
      "Ġet": 617,
      "Ġáĭĺ": 618,
      "ist": 619,
      "ub": 620,
      "áĪ¥": 621,
      "ĠâĢ": 622,
      "áīĥ": 623,
      "Ġjáº¹": 624,
      "já»į": 625,
      "anda": 626,
      "áĬĸ": 627,
      "áĪŀ": 628,
      "fu": 629,
      "Ġcikin": 630,
      "áĭĺ": 631,
      "me": 632,
      "ans": 633,
      "Ġá¹£": 634,
      "waka": 635,
      "Ġáĭ¨áī°": 636,
      "iv": 637,
      "ĠáĬ¥áĬĵ": 638,
      "Ġali": 639,
      "we": 640,
      "yo": 641,
      "áĬĲáīµ": 642,
      "ĠáĪ°": 643,
      "Ġam": 644,
      "ki": 645,
      "Ġáī¥": 646,
      "áĬ¥": 647,
      "ere": 648,
      "ne": 649,
      "áĪĬ": 650,
      "),": 651,
      "áĪ©": 652,
      "má»į": 653,
      "Ġdaga": 654,
      "Ġáĭį": 655,
      "áĪĻ": 656,
      "una": 657,
      "fi": 658,
      "Ġshi": 659,
      "th": 660,
      "ja": 661,
      "ĠV": 662,
      "áĬķáĮį": 663,
      "ĠÃ¨": 664,
      "Ġ200": 665,
      "ud": 666,
      "ita": 667,
      "ĠÃłti": 668,
      "ter": 669,
      "ĠAf": 670,
      "ada": 671,
      "ine": 672,
      "ĠáīĢ": 673,
      "Ġkatika": 674,
      "Ġce": 675,
      "Ġon": 676,
      "áīłáĪŃ": 677,
      "ĭáĭŃ": 678,
      "Ġáĭ°": 679,
      "ĠÃĮ": 680,
      "asa": 681,
      "ĠáĬ¥áĬķáĭ°": 682,
      "que": 683,
      "Ġkar": 684,
      "Ġráº¹": 685,
      "dÃºn": 686,
      "cin": 687,
      "áĭĽ": 688,
      "Ġmat": 689,
      "Ġáĭ¨áĬłáĪ": 690,
      "ge": 691,
      "Ġan": 692,
      "Ġkan": 693,
      "ĠÂ": 694,
      "jeriya": 695,
      "zo": 696,
      "od": 697,
      "áĪļ": 698,
      "Ã¬n": 699,
      "lÃº": 700,
      "ĠÃĢwá»įn": 701,
      "our": 702,
      "Ġmwaka": 703,
      "ÉĹ": 704,
      "Ġsa": 705,
      "Ġdes": 706,
      "ĠáĬŃ": 707,
      "ĠAm": 708,
      "ĠsÃŃ": 709,
      "ÅĦ": 710,
      "po": 711,
      "Ġas": 712,
      "áĪİ": 713,
      "ob": 714,
      "Ġre": 715,
      "Ġga": 716,
      "ĠlÃ¡": 717,
      "chi": 718,
      "fin": 719,
      "ĠNa": 720,
      "áĮħ": 721,
      "áī²": 722,
      "Ġshekar": 723,
      "áī¢": 724,
      "ov": 725,
      "kin": 726,
      "Ġis": 727,
      "ĠIn": 728,
      "ĠÃ²": 729,
      "je": 730,
      "Ġ18": 731,
      "áĬĳ": 732,
      "iyar": 733,
      "Ã¹n": 734,
      "Ġar": 735,
      "rin": 736,
      "Ġcon": 737,
      "ow": 738,
      "Ġth": 739,
      "ion": 740,
      "áįĭ": 741,
      "ĠáĪį": 742,
      "Ġka": 743,
      "ĠAl": 744,
      "ile": 745,
      "tion": 746,
      "Ġli": 747,
      "ly": 748,
      "Ġpar": 749,
      "Ġko": 750,
      "Ġje": 751,
      "ĠAn": 752,
      "áĬĿ": 753,
      "áĪ±": 754,
      "Ġmas": 755,
      "áį¤": 756,
      "rÃ©": 757,
      "Ġ3": 758,
      "Ġse": 759,
      "áĪĨáĬķ": 760,
      "âĢĻ": 761,
      "Ġ.": 762,
      "Ġfor": 763,
      "áĪ½": 764,
      "ÃŃn": 765,
      "ĠMa": 766,
      "Ġwá»į": 767,
      "kuwa": 768,
      "áĮİ": 769,
      "Ġha": 770,
      "Ġol": 771,
      "20": 772,
      "ĠáĪĭáĭŃ": 773,
      "Ġili": 774,
      "áĭ«áĬķ": 775,
      "ĠÅĦ": 776,
      "ho": 777,
      "aba": 778,
      "res": 779,
      "áĪĪáĭį": 780,
      "Ġáī³": 781,
      "Ġáĭµ": 782,
      "ika": 783,
      "ance": 784,
      "áĪŃáĬĽ": 785,
      "Ġdu": 786,
      "Ġá»įdÃºn": 787,
      "á¹£áº¹": 788,
      "áĭ±": 789,
      "Ġsh": 790,
      "áĪģ": 791,
      "Ġáī£": 792,
      "kan": 793,
      "alio": 794,
      "Ġke": 795,
      "ila": 796,
      "won": 797,
      "Ġau": 798,
      "ni": 799,
      "ber": 800,
      "Ġwat": 801,
      "Ġ199": 802,
      "dÃ¨": 803,
      "áĭļáĪħ": 804,
      "¢áīµ": 805,
      "ap": 806,
      "lÃ©": 807,
      "Ġles": 808,
      "bu": 809,
      "amu": 810,
      "Ġcom": 811,
      "ĽáĪŃáĬĽ": 812,
      "¢áīµáĭ®": 813,
      "ris": 814,
      "áĮµ": 815,
      "áĬĴ": 816,
      "áĭķ": 817,
      "Ġati": 818,
      "Ġyi": 819,
      "gbÃł": 820,
      "ou": 821,
      "áīĨ": 822,
      "áĮĢ": 823,
      "yar": 824,
      "ve": 825,
      "ami": 826,
      "ĠáīłáĪĺ": 827,
      "¢áīµáĭ®áĮµ": 828,
      "anz": 829,
      "Ġcha": 830,
      "Ġshekara": 831,
      "ku": 832,
      "far": 833,
      "áĪĪáīµ": 834,
      "bÃŃ": 835,
      "Ġshekarar": 836,
      "áĮ½": 837,
      "áĮĪáĪŃ": 838,
      "áĪ¬": 839,
      "Ġaka": 840,
      "ĠÂ«": 841,
      "Ġlo": 842,
      "ong": 843,
      "se": 844,
      "ate": 845,
      "ĠbÃŃ": 846,
      "Ġmai": 847,
      "áī¡": 848,
      "tokasi": 849,
      "áĪµáĮ¥": 850,
      "¢áīµáĭ®áĮµáĭ«": 851,
      "jo": 852,
      "ĠWalio": 853,
      "Ġáĭ¨áĬłáĪĽáĪŃáĬĽ": 854,
      "ĠNajeriya": 855,
      "áĪ¨áīµ": 856,
      "Ġ:": 857,
      "Ġsi": 858,
      "asar": 859,
      "Ġts": 860,
      "ban": 861,
      "ie": 862,
      "áīłáīµ": 863,
      "ĠáĬĲáīłáĪŃ": 864,
      "ah": 865,
      "áĭľ": 866,
      "Ġpro": 867,
      "ĠáĮ¥": 868,
      "enye": 869,
      "Ã¡Ãł": 870,
      "ire": 871,
      "áĪĺáĬķ": 872,
      "adi": 873,
      "fe": 874,
      "Ġki": 875,
      "pe": 876,
      "Ġkutoka": 877,
      "áĪ»": 878,
      "und": 879,
      "ct": 880,
      "ĠáĭĪáĭ°": 881,
      "oma": 882,
      "ĠáĪĨ": 883,
      "ĠItokasi": 884,
      "ĠáĮĪ": 885,
      "wo": 886,
      "áĪµáīµ": 887,
      "ĠáĬ¨áī°": 888,
      "ĠÃ©": 889,
      "arin": 890,
      "»Į": 891,
      "18": 892,
      "áī»": 893,
      "iri": 894,
      "ĠáĬķ": 895,
      "ric": 896,
      "oni": 897,
      "ement": 898,
      "ane": 899,
      "Ġ198": 900,
      "áĭ©": 901,
      "Ġá¹£e": 902,
      "Ġqu": 903,
      "ĠfÃºn": 904,
      "anar": 905,
      "ihar": 906,
      "Ġ|": 907,
      "ĠZ": 908,
      "ano": 909,
      "áĭĵ": 910,
      "áįĬ": 911,
      "áĭįáĬķ": 912,
      "sh": 913,
      "Ġfi": 914,
      "áī¶áī½": 915,
      "Ġwanda": 916,
      "ayan": 917,
      "ĠtÃ³": 918,
      "Ġdi": 919,
      "end": 920,
      "ĠCh": 921,
      "oh": 922,
      "ĠnÃŃn": 923,
      "ĠáĬ¥áĪµ": 924,
      "yi": 925,
      "Â»": 926,
      "Ã¡n": 927,
      "ĠorÃŃ": 928,
      "sÃŃ": 929,
      "mu": 930,
      "ĠáĭįáĪµáĮ¥": 931,
      "yan": 932,
      "ĠáĬłáĭŃ": 933,
      "mo": 934,
      "eng": 935,
      "man": 936,
      "áĪŃáĮī": 937,
      "Ġ197": 938,
      "ity": 939,
      "ure": 940,
      "Ġest": 941,
      "Ġ'": 942,
      "au": 943,
      "Ĭáĭľ": 944,
      "ort": 945,
      "ĠdÃ©": 946,
      "ff": 947,
      "mi": 948,
      "Ġ196": 949,
      "du": 950,
      "áĮłáĪ": 951,
      "be": 952,
      "Ġsun": 953,
      "Ġso": 954,
      "áĪªáĭ«": 955,
      "áĬĶ": 956,
      "amar": 957,
      "les": 958,
      "Ġpl": 959,
      "ĠâĢĵ": 960,
      "jÃº": 961,
      "Ġ4": 962,
      "áīĭ": 963,
      "ĠáĪģ": 964,
      "áĭ¶": 965,
      "Ġbi": 966,
      "ĠThe": 967,
      "tr": 968,
      "ment": 969,
      "ayin": 970,
      "The": 971,
      "áĪ²": 972,
      "ith": 973,
      "áĬĽáĭį": 974,
      "yin": 975,
      "ala": 976,
      "áĬłáĪ": 977,
      "art": 978,
      "ale": 979,
      "ĠnÃ¡Ãł": 980,
      "áī¦": 981,
      "asi": 982,
      "áĭŃáĪĿ": 983,
      "ep": 984,
      "Ġwali": 985,
      "Ġat": 986,
      "lo": 987,
      "Ġbe": 988,
      "Ġhai": 989,
      "uni": 990,
      "Ġlá»į": 991,
      "An": 992,
      "annan": 993,
      "áĪŃáĪµ": 994,
      "áĬ¤": 995,
      "Ġmw": 996,
      "áĪľ": 997,
      "Ġch": 998,
      "ond": 999,
      "ĠAr": 1000,
      "Ġáīłáī°": 1001,
      "ary": 1002,
      "áĪĲ": 1003,
      "áĭĻ": 1004,
      "Ġdon": 1005,
      "Ġhi": 1006,
      "ÃĢ": 1007,
      "áĬ®": 1008,
      "isi": 1009,
      "isha": 1010,
      "Ġmats": 1011,
      "so": 1012,
      "zali": 1013,
      "ori": 1014,
      "'s": 1015,
      "ran": 1016,
      "usu": 1017,
      "áī¤": 1018,
      "Ġáīħ": 1019,
      "jÃŃ": 1020,
      "ĠnÃŃnÃº": 1021,
      "Ġ5": 1022,
      "anin": 1023,
      "Ġgb": 1024,
      "erÃ©": 1025,
      "áĪĭáĪį": 1026,
      "ĠáĬłáĪµ": 1027,
      "Ġzuwa": 1028,
      "ĠáĪ¥": 1029,
      "ĠKi": 1030,
      "Ġáī¤": 1031,
      "ĠáĬ«": 1032,
      "ĠáīµáĪŃáĮī": 1033,
      "Ġáĭ¨áĪĺ": 1034,
      "Ġfar": 1035,
      "áĬ©": 1036,
      "pá»į": 1037,
      "wá»į": 1038,
      "Ġtare": 1039,
      "ĠáĮįáĬķ": 1040,
      "áĪªáĬŃ": 1041,
      "Ġkama": 1042,
      "ĠSt": 1043,
      "ira": 1044,
      "Ġá»įmá»į": 1045,
      "ĠáĬ¥áĬķáĭ²": 1046,
      "Ġhu": 1047,
      "ish": 1048,
      "obel": 1049,
      "rom": 1050,
      "200": 1051,
      "Ma": 1052,
      "ĠWa": 1053,
      "zaliwa": 1054,
      "ĠáĮĭ": 1055,
      "ĠNobel": 1056,
      "kar": 1057,
      "Ġáĭ¨áĬł": 1058,
      "Ġá»Į": 1059,
      "áīģ": 1060,
      "abu": 1061,
      "áĮ¨": 1062,
      "ania": 1063,
      "Ġmut": 1064,
      "ĠlÃ¡ti": 1065,
      "ue": 1066,
      "ráº¹": 1067,
      "áī¹": 1068,
      "Ġby": 1069,
      "Ġpe": 1070,
      "rÃŃÃł": 1071,
      "lá»į": 1072,
      "Ġyan": 1073,
      "áīłáĪ¨": 1074,
      "ĠáĪ²áĪĨáĬķ": 1075,
      "shin": 1076,
      "áį¡áį¡": 1077,
      "ĠUn": 1078,
      "ĭáĪĭ": 1079,
      "ll": 1080,
      "ÃłÃ¬": 1081,
      "ck": 1082,
      "rit": 1083,
      "áĮĥ": 1084,
      "Ġgba": 1085,
      "ĠlÃ³": 1086,
      "áĬŃáĪį": 1087,
      "ĠMat": 1088,
      "áĪĥ": 1089,
      "»áį": 1090,
      "ĠÉĹ": 1091,
      "uli": 1092,
      "ĠáīµáĪŃáĮīáĪĻ": 1093,
      "io": 1094,
      "ts": 1095,
      "amo": 1096,
      "Ġmatsayin": 1097,
      "ĠáīłáĬł": 1098,
      "ĠáĬłáĬķ": 1099,
      "Ġad": 1100,
      "ver": 1101,
      "ĠLe": 1102,
      "áĪ´": 1103,
      "Ã¬ÃŃ": 1104,
      "tic": 1105,
      "pp": 1106,
      "Ġnchi": 1107,
      "jÃŃrÃŃÃł": 1108,
      "Ġkuwa": 1109,
      "ĠsÃ¬": 1110,
      "ua": 1111,
      "ĠNÃłÃ¬": 1112,
      "ord": 1113,
      "ĠáĪ³": 1114,
      "²áį": 1115,
      "Ġmo": 1116,
      "áī´": 1117,
      "Ġab": 1118,
      "Ġmu": 1119,
      "ore": 1120,
      "áĮŃ": 1121,
      "ĠáĪĺáĬķáĮį": 1122,
      "Ġwatan": 1123,
      "ces": 1124,
      "ĠNÃłÃ¬jÃŃrÃŃÃł": 1125,
      "ĠáĮĬáĭľ": 1126,
      "Ġhar": 1127,
      "Ġit": 1128,
      "abi": 1129,
      "ĠáīĢáĬķ": 1130,
      "ĠáĭĪáĭŃáĪĿ": 1131,
      "Ġáĭĭ": 1132,
      "ÌĢ-": 1133,
      "Ġsuka": 1134,
      "Ġ6": 1135,
      "Ġyake": 1136,
      "Ġá»įjá»į": 1137,
      "áī³áīµ": 1138,
      "ĠPa": 1139,
      "oli": 1140,
      "ash": 1141,
      "Ġex": 1142,
      "risto": 1143,
      "arta": 1144,
      "gbe": 1145,
      "uri": 1146,
      "iti": 1147,
      "Ġyana": 1148,
      "Ġ195": 1149,
      "ĠAd": 1150,
      "ru": 1151,
      "rika": 1152,
      "áĪªáĬ«": 1153,
      "iger": 1154,
      "ĠMare": 1155,
      "Ġbir": 1156,
      "ene": 1157,
      "Ġson": 1158,
      "ame": 1159,
      "ĠTu": 1160,
      "ĠáĪµáĪĪ": 1161,
      "kani": 1162,
      "ĠáĬĵ": 1163,
      "ĠáĬłáĪĪ": 1164,
      "kÃł": 1165,
      "áĪ¨áīµáĬĵ": 1166,
      "ĠáĪĬ": 1167,
      "áĮ»": 1168,
      "su": 1169,
      "ede": 1170,
      "aban": 1171,
      "Ġáī¢": 1172,
      "ĠáįĪ": 1173,
      "gba": 1174,
      "ola": 1175,
      "ĠáĬ¥áĪµáĬ¨": 1176,
      "á¹£Ã¹": 1177,
      "Ġhuk": 1178,
      "Ã¨dÃ¨": 1179,
      "áĪĪáĪĿ": 1180,
      "Ġwasan": 1181,
      "ele": 1182,
      "Ã©e": 1183,
      "fariki": 1184,
      "ĠáĬķáĮī": 1185,
      "ĠMar": 1186,
      "ĠáīłáĬĭáĪĭ": 1187,
      "ĠorÃŃláº¹": 1188,
      "ĠÆĻasar": 1189,
      "Ġvya": 1190,
      "Ġawon": 1191,
      "ais": 1192,
      "Ġsha": 1193,
      "Ġ9": 1194,
      "Ġkw": 1195,
      "áĪ¥áīµ": 1196,
      "Ġwith": 1197,
      "áį»áį": 1198,
      "Ġst": 1199,
      "ĠáĭŃáĪħ": 1200,
      "ok": 1201,
      "Ba": 1202,
      "rá»į": 1203,
      "lÃ¡": 1204,
      "ĠáĭĺáĪĺáĬķ": 1205,
      "ard": 1206,
      "áĪ¨áĪµ": 1207,
      "ĠNi": 1208,
      "áĬķáĪĿ": 1209,
      "á¹£Ã¨": 1210,
      "kwa": 1211,
      "Ãĵ": 1212,
      "tá»į": 1213,
      "ĠilÃ©": 1214,
      "lu": 1215,
      "Ġ17": 1216,
      "yÃłn": 1217,
      "che": 1218,
      "pÃŃn": 1219,
      "ĠáĬŃáįį": 1220,
      "áĪ®áī½": 1221,
      "áĭĭáĪį": 1222,
      "uu": 1223,
      "Ġáī°áĪ¨áīµáĬĵ": 1224,
      "áĪķ": 1225,
      "ham": 1226,
      "ern": 1227,
      "áĮ«": 1228,
      "Ġwá»įn": 1229,
      "ĠáĬ¨áī°áĪĽ": 1230,
      "pin": 1231,
      "jÃ¬": 1232,
      "ib": 1233,
      "angu": 1234,
      "anaz": 1235,
      "Ġ7": 1236,
      "all": 1237,
      "ĠTuzo": 1238,
      "ĠSh": 1239,
      "ens": 1240,
      "cc": 1241,
      "Ġhe": 1242,
      "jáº¹": 1243,
      "uma": 1244,
      "inu": 1245,
      "Ġfrom": 1246,
      "Ġdans": 1247,
      "ĠNe": 1248,
      "áĮĪáĬ": 1249,
      "ht": 1250,
      "áĭİ": 1251,
      "ĠNiger": 1252,
      "anazarta": 1253,
      "Ġfa": 1254,
      "gun": 1255,
      "ence": 1256,
      "Ġjihar": 1257,
      "na": 1258,
      "ph": 1259,
      "emi": 1260,
      "ĠáĭĵáĪĺ": 1261,
      "bali": 1262,
      "tÃ©": 1263,
      "Ta": 1264,
      "wam": 1265,
      "ĠÃ¬lÃº": 1266,
      "Ġ,": 1267,
      "ugha": 1268,
      "amb": 1269,
      "ĠMarekani": 1270,
      "Ġloka": 1271,
      "áĪŃáĭ«": 1272,
      "ishi": 1273,
      "ĠáĪĪáĪĺ": 1274,
      "Ġ8": 1275,
      "uniya": 1276,
      "áįĵ": 1277,
      "Ġáĭķ": 1278,
      "áĮĢáĪĺ": 1279,
      "ĠKar": 1280,
      "kÃ³": 1281,
      "Ġhii": 1282,
      "áī°áĬĽ": 1283,
      "gbo": 1284,
      "ĠWaliozaliwa": 1285,
      "Ġare": 1286,
      "Ġkasance": 1287,
      "Ġune": 1288,
      "bÃ¡": 1289,
      "ĠAfrika": 1290,
      "isa": 1291,
      "Ġamba": 1292,
      "Ġfun": 1293,
      "dun": 1294,
      "áĭ´": 1295,
      "Ġay": 1296,
      "ast": 1297,
      "..": 1298,
      "000": 1299,
      "ction": 1300,
      "Ġ194": 1301,
      "ĠWaliofariki": 1302,
      "up": 1303,
      "Ġawá»įn": 1304,
      "áĮįáĪŀ": 1305,
      "nin": 1306,
      "ivers": 1307,
      "eb": 1308,
      "wÃ©": 1309,
      "nÃ¬": 1310,
      "16": 1311,
      "ĠrÃ©": 1312,
      "ass": 1313,
      "Ġpia": 1314,
      "pÃŃnláº¹": 1315,
      "15": 1316,
      "áį¦": 1317,
      "Ġáĭ«áĪį": 1318,
      "Ġthat": 1319,
      "kati": 1320,
      "mp": 1321,
      "Ġkáº¹": 1322,
      "ite": 1323,
      "áĭµáĪŃ": 1324,
      "ĠarÃ¡": 1325,
      "ell": 1326,
      "ĠáĮĢ": 1327,
      "anya": 1328,
      "áĪ¶": 1329,
      "jin": 1330,
      "ĠáĬĲáĮĪ": 1331,
      "abban": 1332,
      "Ġáįį": 1333,
      "ĠáĬ¢": 1334,
      "áī³áĭĪ": 1335,
      "ill": 1336,
      "yÃŃ": 1337,
      "áī£áĪį": 1338,
      "Ġáīģ": 1339,
      "Ġfarko": 1340,
      "Ġpáº¹": 1341,
      "shindi": 1342,
      "áīµáĬķ": 1343,
      "uka": 1344,
      "ĠáĪķ": 1345,
      "Ġlati": 1346,
      "Ġkam": 1347,
      "ura": 1348,
      "ĠáĮĭáĪŃ": 1349,
      "ĠAb": 1350,
      "ux": 1351,
      "ĠáīłáĪĽ": 1352,
      "olog": 1353,
      "Ġ15": 1354,
      "Ġara": 1355,
      "anan": 1356,
      "Ġwani": 1357,
      "emba": 1358,
      "17": 1359,
      "In": 1360,
      "áĬŃáĪįáīł": 1361,
      "Ġáį¡": 1362,
      "Ġbiy": 1363,
      "ĠSo": 1364,
      "lis": 1365,
      "lia": 1366,
      "gbáº¹": 1367,
      "Ġ16": 1368,
      "Ġiláº¹": 1369,
      "Ġdan": 1370,
      "ins": 1371,
      "áīĤ": 1372,
      "ĠAmer": 1373,
      "ĠáĭĵáĬŃáĪįáīł": 1374,
      "ĠpÃ©": 1375,
      "ito": 1376,
      "áĪİáī½": 1377,
      "áĮ¡": 1378,
      "omin": 1379,
      "áĭ°áĪ¨": 1380,
      "uru": 1381,
      "rÃ¹n": 1382,
      "Ġus": 1383,
      "ida": 1384,
      "anu": 1385,
      "ust": 1386,
      "gbÃ©": 1387,
      "ubu": 1388,
      "ĠáĪļ": 1389,
      "ĠManazarta": 1390,
      "anta": 1391,
      "¦áĪŃ": 1392,
      "Ġáĭ°áĮįáĪŀ": 1393,
      "Ġqui": 1394,
      "ĠEn": 1395,
      "ĠerÃ©": 1396,
      "Ġranar": 1397,
      "Ġile": 1398,
      "Ġká»į": 1399,
      "Ġsab": 1400,
      "ĠáĬłáĬķáĭµ": 1401,
      "ĠwÃł": 1402,
      "ÃĮ": 1403,
      "mar": 1404,
      "áĭ°áĪŃ": 1405,
      "Baada": 1406,
      "ĠáĬłáĪį": 1407,
      "áī°áĪ¨": 1408,
      "irin": 1409,
      "áĪĺáĬĲ": 1410,
      "Ġhaife": 1411,
      "land": 1412,
      "iko": 1413,
      "10": 1414,
      "áĮĪáĬĿ": 1415,
      "anzania": 1416,
      "Ġny": 1417,
      "Ġav": 1418,
      "áĪŃáīµ": 1419,
      "yÃ¬n": 1420,
      "llon": 1421,
      "ition": 1422,
      "Ġ10": 1423,
      "Ġmshindi": 1424,
      "elle": 1425,
      "Ġtana": 1426,
      "Ġpour": 1427,
      "ĠYor": 1428,
      "min": 1429,
      "âĢĵ": 1430,
      "Ġsur": 1431,
      "ational": 1432,
      "áĬķáīµ": 1433,
      "istor": 1434,
      "ungiyar": 1435,
      "Ġcomp": 1436,
      "ade": 1437,
      "ult": 1438,
      "Ġhis": 1439,
      "14": 1440,
      "ansa": 1441,
      "une": 1442,
      "ukio": 1443,
      "kana": 1444,
      "Ġáĭ¨áĬ¢áīµáĭ®áĮµáĭ«": 1445,
      "ĠáĪĺáĬķáĮįáĪ¥áīµ": 1446,
      "áĬķáĪµ": 1447,
      "ry": 1448,
      "ote": 1449,
      "áĪĶ": 1450,
      "atu": 1451,
      "ĠAs": 1452,
      "kun": 1453,
      "rÃ²": 1454,
      "Ġfil": 1455,
      "ations": 1456,
      "wÃ²": 1457,
      "Ġlokacin": 1458,
      "ĠáĪĪáĪĽ": 1459,
      "tÃł": 1460,
      "Ġtun": 1461,
      "hu": 1462,
      "yáº¹": 1463,
      "av": 1464,
      "ĠMus": 1465,
      "Ġbayan": 1466,
      "áīłáĪ©": 1467,
      "Ġmasu": 1468,
      "áĬķáīĭ": 1469,
      "Ġmi": 1470,
      "áī½áĬķ": 1471,
      "ĠÃ¨dÃ¨": 1472,
      "gbÃ¨": 1473,
      "tern": 1474,
      "ect": 1475,
      "sion": 1476,
      "áĬª": 1477,
      "Ġbiyu": 1478,
      "ĠáĪĨáĬĲ": 1479,
      "Ġáĭ¨áĬĲ": 1480,
      "rÃŃkÃł": 1481,
      "áĬĵáīµ": 1482,
      "Ġita": 1483,
      "ĠAg": 1484,
      "ĠkÃŃ": 1485,
      "eri": 1486,
      "Ġkasar": 1487,
      "kuu": 1488,
      "ĠáĪįáĮħ": 1489,
      "one": 1490,
      "oc": 1491,
      "age": 1492,
      "Ġsuna": 1493,
      "ember": 1494,
      "Ġmata": 1495,
      "gáº¹": 1496,
      "uth": 1497,
      "ĠbÃ¡": 1498,
      "Ġ193": 1499,
      "int": 1500,
      "aye": 1501,
      "ĠHa": 1502,
      "iyo": 1503,
      "lic": 1504,
      "ju": 1505,
      "gbÃ¡": 1506,
      "ĠáĭµáĪ¨áĪµ": 1507,
      "ĠolÃ³": 1508,
      "kala": 1509,
      "rÃ¨": 1510,
      "ors": 1511,
      "ĠáĭĿ": 1512,
      "Ġmá»į": 1513,
      "ĠMatukio": 1514,
      "âĢĿ": 1515,
      "Ġzama": 1516,
      "áĭļáĭ«": 1517,
      "ĠTanzania": 1518,
      "ĠPapa": 1519,
      "Ġ=": 1520,
      "Ġuk": 1521,
      "Ġ/": 1522,
      "áįī": 1523,
      "NÃŃ": 1524,
      "ande": 1525,
      "Ġáĭ«áĪįáī°": 1526,
      "aki": 1527,
      "Ġfara": 1528,
      "ĠmÃ¡": 1529,
      "Ġbirnin": 1530,
      "do": 1531,
      "emp": 1532,
      "tÃ¬": 1533,
      "hari": 1534,
      "Ġalikuwa": 1535,
      "ĠIs": 1536,
      "áĭ°áī¥": 1537,
      "cho": 1538,
      "Ġra": 1539,
      "áī°áĪ¨áĮİ": 1540,
      "ome": 1541,
      "ÃĢwá»įn": 1542,
      "ques": 1543,
      "12": 1544,
      "ĠIb": 1545,
      "Ġoá¹£Ã¹": 1546,
      "oro": 1547,
      "ĠyÃ¬ÃŃ": 1548,
      "ĠáĪħ": 1549,
      "ĠÃĴ": 1550,
      "ward": 1551,
      "áĮĬ": 1552,
      "ĠkÃ³": 1553,
      "era": 1554,
      "urs": 1555,
      "ĠáĬ¤": 1556,
      "Ġáĭ¨áĬ¥": 1557,
      "Ġáīĭ": 1558,
      "Ã©r": 1559,
      "ĠáĪµáĪĿ": 1560,
      "uwar": 1561,
      "ĠáĪĮ": 1562,
      "lÃ³": 1563,
      "ingi": 1564,
      "báº¹": 1565,
      "áĪ£": 1566,
      "áĪĨáĬĳ": 1567,
      "áĪ¸": 1568,
      "ĠáĬłáĮĪ": 1569,
      "áī³áĪį": 1570,
      "ĠáīłáĬ¥": 1571,
      "ĠáĪĢ": 1572,
      "nÃ¬yÃłn": 1573,
      "fic": 1574,
      "Ġman": 1575,
      "antar": 1576,
      "Ġhan": 1577,
      "ze": 1578,
      "iku": 1579,
      "utar": 1580,
      "²áį±": 1581,
      "ugaban": 1582,
      "ereza": 1583,
      "Ġyawan": 1584,
      "fo": 1585,
      "usi": 1586,
      "yÃ¨": 1587,
      "áĬķáĭ«": 1588,
      "ogo": 1589,
      "Ġhadi": 1590,
      "ĠáĪĽáĪĪáīµ": 1591,
      "irka": 1592,
      "cha": 1593,
      "Ġiya": 1594,
      "ingereza": 1595,
      "ĠâĢľ": 1596,
      "áĬĵáĪį": 1597,
      "Ġplus": 1598,
      "ĠLa": 1599,
      "hun": 1600,
      "Ġmji": 1601,
      "áĪĬáĭĿ": 1602,
      "Ġwon": 1603,
      "Ġbáº¹": 1604,
      "º¸": 1605,
      "áĪłáĪ": 1606,
      "ĠáĪĥ": 1607,
      "áī¸áĭįáĬķ": 1608,
      "13": 1609,
      "Ġkwenye": 1610,
      "ĠÆĻwa": 1611,
      "ĠtÃºn": 1612,
      "ĠáĬķáĮīáĪ¥": 1613,
      "itu": 1614,
      "áĬ¨áī°": 1615,
      "Ġmag": 1616,
      "áī±áĬķ": 1617,
      "kÃ²": 1618,
      "Ġ14": 1619,
      "sÃ¬": 1620,
      "áĪµáī°": 1621,
      "gbá»į": 1622,
      "ats": 1623,
      "áĭįáĭ«áĬķ": 1624,
      "Ġque": 1625,
      "ĠÃ¨nÃ¬yÃłn": 1626,
      "áįķ": 1627,
      "Ġninu": 1628,
      "Ġorile": 1629,
      "Ġiá¹£áº¹": 1630,
      "áī°áĪ¨áĮİáĪĺ": 1631,
      "ĠMas": 1632,
      "Ġáĭ¨áĪļáĭ«": 1633,
      "ĠNijeriya": 1634,
      "ĠNew": 1635,
      "Ã©s": 1636,
      "ĠAfric": 1637,
      "ĠKristo": 1638,
      "\".": 1639,
      "áĪĢ": 1640,
      "ron": 1641,
      "áī£áī¢": 1642,
      "ars": 1643,
      "ise": 1644,
      "ĠáĬłáĪĺ": 1645,
      "anci": 1646,
      "him": 1647,
      "Ġme": 1648,
      "alis": 1649,
      "Ġáī³áĪªáĬŃ": 1650,
      "Ġlugha": 1651,
      "Ġinah": 1652,
      "áĬķáĮ": 1653,
      "Ġzai": 1654,
      "ĠMu": 1655,
      "ĠáīłáĬłáĪ": 1656,
      "Ġáĭ«áĪįáī°áī°áĪ¨áĮİáĪĺ": 1657,
      "²áį±áį»áį": 1658,
      "ĠJam": 1659,
      "Ġ12": 1660,
      "199": 1661,
      "Le": 1662,
      "att": 1663,
      "ated": 1664,
      "áĪĦ": 1665,
      "ath": 1666,
      "mad": 1667,
      "ĠáĮī": 1668,
      "ĠáĪ°áĭį": 1669,
      "ĠmÃ©": 1670,
      "dÃŃ": 1671,
      "for": 1672,
      "ous": 1673,
      "der": 1674,
      "Ġmar": 1675,
      "áĭĽáīµ": 1676,
      "ĠáīĭáĬķáīĭ": 1677,
      "ĠkÃ²": 1678,
      "Ġaiki": 1679,
      "Makala": 1680,
      "atar": 1681,
      "ese": 1682,
      "Ġup": 1683,
      "Ġbu": 1684,
      "wamn": 1685,
      "Ġinahusu": 1686,
      "Ġmili": 1687,
      "alin": 1688,
      "ĠSa": 1689,
      "áĪŀáī½": 1690,
      "oun": 1691,
      "Ġgáº¹": 1692,
      "vel": 1693,
      "áĮ¥áĪŃ": 1694,
      "gu": 1695,
      "Ġkasa": 1696,
      "áĪ«áīµ": 1697,
      "iversity": 1698,
      "Ġáĭ³": 1699,
      "dÃ©": 1700,
      "Ġáį£": 1701,
      "kazi": 1702,
      "áī£áīµ": 1703,
      "áī¥áĪŃ": 1704,
      "ĠáĬłáĬ«": 1705,
      "áĪł": 1706,
      "ĠTa": 1707,
      "Ġana": 1708,
      "amba": 1709,
      "Ġmaj": 1710,
      "Ġci": 1711,
      "alla": 1712,
      "áĪįáĬŃ": 1713,
      "jen": 1714,
      "Ġáĭ¨áĪĽ": 1715,
      "jÃ¡": 1716,
      "ĠáĬĵáī¸áĭį": 1717,
      "Ġáī¥áĭĻ": 1718,
      "tÃ²": 1719,
      "kon": 1720,
      "hemu": 1721,
      "ongo": 1722,
      "ĠMe": 1723,
      "ĠNigeria": 1724,
      "wÃ¡": 1725,
      "aya": 1726,
      "Ġwana": 1727,
      "gi": 1728,
      "ĠÃ¬gbÃł": 1729,
      "Ġwata": 1730,
      "áĪĭáīµ": 1731,
      "áĬ¨áĪį": 1732,
      "ĠCom": 1733,
      "ost": 1734,
      "Ġinda": 1735,
      "ĠáĭŃáĮĪ": 1736,
      "ĠAfirka": 1737,
      "áĪĿáĪ®": 1738,
      "Ġbay": 1739,
      "ĠII": 1740,
      "uti": 1741,
      "bar": 1742,
      "Ġou": 1743,
      "Ġgbo": 1744,
      "ĠÃ¡": 1745,
      "anga": 1746,
      "illi": 1747,
      "ess": 1748,
      "Ġcomm": 1749,
      "go": 1750,
      "fal": 1751,
      "ĠGu": 1752,
      "ille": 1753,
      "ĠáĪŀ": 1754,
      "Ġtr": 1755,
      "Ġkus": 1756,
      "Ġtáº¹": 1757,
      "ĠáĮł": 1758,
      "áĪ³áĭŃ": 1759,
      "wi": 1760,
      "Ġkafa": 1761,
      "dÃ¡": 1762,
      "ÌĢ.": 1763,
      "uwan": 1764,
      "Ġdo": 1765,
      "umi": 1766,
      "tÃŃ": 1767,
      "Ġuli": 1768,
      "ĠÃ²á¹£Ã¨": 1769,
      "ĠáĪĻ": 1770,
      "Ġmáº¹": 1771,
      "ĠdÃ¡": 1772,
      "ĠAp": 1773,
      "Ġid": 1774,
      "áī³áĭĬ": 1775,
      "áĪĿáĪħ": 1776,
      "Ġina": 1777,
      "ĠRe": 1778,
      "ren": 1779,
      "Ġcewa": 1780,
      "Ã¨re": 1781,
      "elu": 1782,
      "ld": 1783,
      "ĠáĬłáĪµáī°": 1784,
      "ĠÆĻa": 1785,
      "ĠVi": 1786,
      "áĮĤ": 1787,
      "ĠáĮ½": 1788,
      "ress": 1789,
      "fáº¹": 1790,
      "ĠÆĻwallon": 1791,
      "Ġmus": 1792,
      "ĠáĮİ": 1793,
      "ĠUniversity": 1794,
      "dÃ¬": 1795,
      "Ġ;": 1796,
      "Ġ13": 1797,
      "ty": 1798,
      "ungu": 1799,
      "bin": 1800,
      "ľáĪªáĬ«": 1801,
      "áĪĺáĪŃ": 1802,
      "ĠáĪ³áĭŃ": 1803,
      "son": 1804,
      "Ġap": 1805,
      "Ġkim": 1806,
      "ĠáĬ¥áĬķáĭ³": 1807,
      "umani": 1808,
      "áĬķáĭ³": 1809,
      "iz": 1810,
      "ĠáĭĭáĬĵ": 1811,
      "ĠáĬ®": 1812,
      "gin": 1813,
      "áĮĨ": 1814,
      "ohn": 1815,
      "ĠáīłáĪļ": 1816,
      "áĭ²áĪµ": 1817,
      "ĠÂ»": 1818,
      "Ġpr": 1819,
      "ical": 1820,
      "yÃ©": 1821,
      "Ġ192": 1822,
      "jerumani": 1823,
      "amoja": 1824,
      "aifa": 1825,
      "ĠáĪĺáĬķ": 1826,
      "áĮįáĪŃ": 1827,
      "Ġduniya": 1828,
      "ĠáĪĺáĪµ": 1829,
      "ose": 1830,
      "isiwa": 1831,
      "áī·": 1832,
      "usa": 1833,
      "Ġdake": 1834,
      "Ġwad": 1835,
      "pÃ©": 1836,
      "ĠÃĮpÃŃnláº¹": 1837,
      "á¹£e": 1838,
      "áĮłáĪŃ": 1839,
      "Ãª": 1840,
      "Ġweng": 1841,
      "Ġáī¤áī°": 1842,
      "Ġáį¢": 1843,
      "ĠOk": 1844,
      "Ġmwan": 1845,
      "áĭĿáī¥": 1846,
      "enti": 1847,
      "Ġnot": 1848,
      "Éĵ": 1849,
      "áĪĭáĭŃ": 1850,
      "áĮĪáĬĺ": 1851,
      "kini": 1852,
      "ĠÆ": 1853,
      "Ġdaya": 1854,
      "Ġib": 1855,
      "Ġmul": 1856,
      "ĠJihar": 1857,
      "áįĸ": 1858,
      "Ġgu": 1859,
      "wanza": 1860,
      "já»įba": 1861,
      "lin": 1862,
      "jÃł": 1863,
      "tawa": 1864,
      "ĠCol": 1865,
      "ĠáĪģáĪī": 1866,
      "Ġbabban": 1867,
      "ĠBK": 1868,
      "ĠIng": 1869,
      "à¤": 1870,
      "Ġzam": 1871,
      "ons": 1872,
      "Ġwannan": 1873,
      "Ġake": 1874,
      "Ġáĭ¨áĪĨ": 1875,
      "Ġhad": 1876,
      "Ġwake": 1877,
      "áĭī": 1878,
      "Ġyar": 1879,
      "iaka": 1880,
      "ound": 1881,
      "atun": 1882,
      "Ġwatu": 1883,
      "per": 1884,
      "Ã³n": 1885,
      "ope": 1886,
      "ĠáįĬ": 1887,
      "Ġsai": 1888,
      "--": 1889,
      "áĬŀ": 1890,
      "falme": 1891,
      "ited": 1892,
      "ice": 1893,
      "din": 1894,
      "yÃł": 1895,
      "ike": 1896,
      "Ġvi": 1897,
      "ian": 1898,
      "Ġhukum": 1899,
      "ĠtÃł": 1900,
      "ĠÃĪ": 1901,
      "ĠKarne": 1902,
      "ĠáĬłáĪĿ": 1903,
      "ime": 1904,
      "áĮĢáĪĺáĪªáĭ«": 1905,
      "Ġáĭ¨áĪĿ": 1906,
      "hich": 1907,
      "Ġser": 1908,
      "hine": 1909,
      "áĪŃáĪµáī²": 1910,
      "Ġyankin": 1911,
      "Ġjama": 1912,
      "áĪĨáĬĲ": 1913,
      "ziki": 1914,
      "amp": 1915,
      "ĠAmáº¹": 1916,
      "ashin": 1917,
      "ĠFar": 1918,
      "Ġwh": 1919,
      "Ġsehemu": 1920,
      "ĠáĪĺáĭ°áī¥": 1921,
      "áĪ«áĭĬ": 1922,
      "rÃłn": 1923,
      "Ġkab": 1924,
      "ubwa": 1925,
      "Ġte": 1926,
      "eo": 1927,
      "ĠIta": 1928,
      "ĠáĪ°áĭİáī½": 1929,
      "kasÃŃ": 1930,
      "ĠwÃ¡": 1931,
      "any": 1932,
      "ĠlÃ³rÃŃ": 1933,
      "Ġgab": 1934,
      "ton": 1935,
      "Ġibi": 1936,
      "Ã©es": 1937,
      "ende": 1938,
      "Ġmkuu": 1939,
      "11": 1940,
      "ula": 1941,
      "ugh": 1942,
      "Ġnom": 1943,
      "annin": 1944,
      "ustr": 1945,
      "Ġáīłáĭĺ": 1946,
      "Ġwhich": 1947,
      "cl": 1948,
      "ĠØ": 1949,
      "Al": 1950,
      "ĠBen": 1951,
      "Ġlakini": 1952,
      "ĠÆĻafa": 1953,
      "Ġkamar": 1954,
      "Ya": 1955,
      "Ġáī¦": 1956,
      "Ġpamoja": 1957,
      "ĠáĬĲáĮĪáĪŃ": 1958,
      "eshi": 1959,
      "co": 1960,
      "áįİ": 1961,
      "áĪ«áĪį": 1962,
      "gÃºn": 1963,
      "Ġsá»į": 1964,
      "Ġmiaka": 1965,
      "ute": 1966,
      "ree": 1967,
      "ont": 1968,
      "ĠTh": 1969,
      "áĬķáĮįáĪĬáĭĿ": 1970,
      "ena": 1971,
      "shi": 1972,
      "Ġnje": 1973,
      "Ġsamu": 1974,
      "áĪĪáī½": 1975,
      "tt": 1976,
      "ĠáĭĵáĪĿ": 1977,
      "udu": 1978,
      "áī°áĭį": 1979,
      "Ġáī°áĪĺ": 1980,
      "áī¦áī½": 1981,
      "orn": 1982,
      "Ġfir": 1983,
      "198": 1984,
      "mba": 1985,
      "áĮ¸": 1986,
      "Ġtsak": 1987,
      "Ġmutane": 1988,
      "istoria": 1989,
      "ase": 1990,
      "wÃ³": 1991,
      "ĠáĭĵáĪĺáīµ": 1992,
      "ogra": 1993,
      "áį¥": 1994,
      "áĮłáīĢ": 1995,
      "kea": 1996,
      "ept": 1997,
      "Ġkub": 1998,
      "emb": 1999,
      "jir": 2000,
      "ĠPro": 2001,
      "áĪĽáĪª": 2002,
      "Ġsam": 2003,
      "ĠJami": 2004,
      "Ġwasu": 2005,
      "ĠáīĨ": 2006,
      "iá¹£áº¹": 2007,
      "ikia": 2008,
      "ĠÃ²á¹£Ã¨rÃ©": 2009,
      "fani": 2010,
      "Ġáĭ¨áĪļáĮĪáĬĿ": 2011,
      "ĠmÃ¡a": 2012,
      "Ġavec": 2013,
      "Ġduk": 2014,
      "ĠIngila": 2015,
      "anen": 2016,
      "Ġsont": 2017,
      "able": 2018,
      "kÃ¬": 2019,
      "ther": 2020,
      "fuata": 2021,
      "ÌĢ,": 2022,
      "áīħáĪĿ": 2023,
      "áĪ¨áĭį": 2024,
      "ates": 2025,
      "Ġac": 2026,
      "ume": 2027,
      "Ġ190": 2028,
      "ĠQ": 2029,
      "ĠyÃŃ": 2030,
      "ĠtÃłbÃŃ": 2031,
      "ĠkÃ©": 2032,
      "Ġyin": 2033,
      "Ġasi": 2034,
      "Ġ2015": 2035,
      "hai": 2036,
      "ĠJanu": 2037,
      "áĮĵ": 2038,
      "ĠalÃ¡": 2039,
      "áĭŀ": 2040,
      "ĠáĬª": 2041,
      "Ġgir": 2042,
      "Ġtele": 2043,
      "áįĬáīµ": 2044,
      "uba": 2045,
      "áĮįáī¥": 2046,
      "ĠÃ¨yÃŃ": 2047,
      "ĠDe": 2048,
      "Ġkwanza": 2049,
      "ys": 2050,
      "ĠBo": 2051,
      "ĠáĪĿáĬŃ": 2052,
      "iss": 2053,
      "áĬ¢": 2054,
      "Ġter": 2055,
      "áĭ±áĪµ": 2056,
      "áĪģáĪĿ": 2057,
      "ÃłÃ¡": 2058,
      "ona": 2059,
      "ĠáĬ¥áĭ¨": 2060,
      "ĠOl": 2061,
      "Ġdin": 2062,
      "Ali": 2063,
      "áĬĸáī½": 2064,
      "ally": 2065,
      "ĠAmerika": 2066,
      "ora": 2067,
      "áĪĭáĬķáĭµ": 2068,
      "áĭ³áĬķ": 2069,
      "zini": 2070,
      "Ġláº¹": 2071,
      "Ġapp": 2072,
      "áįĴ": 2073,
      "ĠÃłká»į": 2074,
      "Ġáº¹gbáº¹": 2075,
      "itÃ©": 2076,
      "chool": 2077,
      "atin": 2078,
      "hana": 2079,
      "ĠáĪĭ": 2080,
      "Ġob": 2081,
      "Ġsiku": 2082,
      "andishi": 2083,
      "Ġáī¤áīµ": 2084,
      "ĠJohn": 2085,
      "áĮĮ": 2086,
      "ĠonÃŃ": 2087,
      "áĬ¥áĬķ": 2088,
      "áĮ¨áĪ¨": 2089,
      "Ġ2011": 2090,
      "Ġáīĥ": 2091,
      "ĠRoma": 2092,
      "Ġohun": 2093,
      "áī³áī¸áĭį": 2094,
      "Ġik": 2095,
      "Ġgarin": 2096,
      "Ã§": 2097,
      "áĬłáī¥": 2098,
      "ÙĦ": 2099,
      "ory": 2100,
      "En": 2101,
      "cy": 2102,
      "Ġsy": 2103,
      "áĭŃáĪħ": 2104,
      "áĪ¨áĬķ": 2105,
      "Ġkai": 2106,
      "ĠSe": 2107,
      "ign": 2108,
      "ĠáĪĺáĬ«": 2109,
      "Ġzili": 2110,
      "Ġpa": 2111,
      "ungo": 2112,
      "Ġaikin": 2113,
      "Ġcan": 2114,
      "Ġshugaban": 2115,
      "Ġeneo": 2116,
      "eno": 2117,
      "Ġshir": 2118,
      "áĮ¦": 2119,
      "áĪ¨áĮĥ": 2120,
      "ww": 2121,
      "lÃ¨": 2122,
      "Ġmakar": 2123,
      "ĠáĪĲ": 2124,
      "ĠPar": 2125,
      "com": 2126,
      "katifu": 2127,
      "vi": 2128,
      "ayo": 2129,
      "Ġ2014": 2130,
      "yá»į": 2131,
      "Ġro": 2132,
      "ĠHar": 2133,
      "ĠáĬłáī¥": 2134,
      "Ġhasa": 2135,
      "ĠolÃ¹": 2136,
      "ĠFr": 2137,
      "ĠNov": 2138,
      "chini": 2139,
      "Ġdis": 2140,
      "eni": 2141,
      "Ġomo": 2142,
      "Ġji": 2143,
      "ĠáĬ¨áĬł": 2144,
      "Ġres": 2145,
      "áĪĪáĭ«": 2146,
      "ĠÉĹan": 2147,
      "La": 2148,
      "áī°áĪŃ": 2149,
      "Ġáī°áīĢ": 2150,
      "ĠMay": 2151,
      "ĠáĬĲáīłáĪ¨": 2152,
      "kazini": 2153,
      "ĠSept": 2154,
      "Ġwakazi": 2155,
      "áĮĪáĭµ": 2156,
      "áīĨáĮ£": 2157,
      "\",": 2158,
      "Ġgwamn": 2159,
      "Ġform": 2160,
      "ĠáĪĨáĬĸ": 2161,
      "ule": 2162,
      "Ã©n": 2163,
      "ĠOr": 2164,
      "hili": 2165,
      "Th": 2166,
      "Ġcont": 2167,
      "ĠBa": 2168,
      "áĪ°áĭį": 2169,
      "21": 2170,
      "ĠjÃ¹": 2171,
      "ĠáĬłáĮĪáĪŃ": 2172,
      "ĠáīłáĪµ": 2173,
      "Ġbin": 2174,
      "lÃł": 2175,
      "Ġgbogbo": 2176,
      "Ġ2016": 2177,
      "Ġwengi": 2178,
      "orld": 2179,
      "Ġáº¸": 2180,
      "áĪ¨áĭ³": 2181,
      "ĠRo": 2182,
      "áĪīáīµ": 2183,
      "hariki": 2184,
      "ĠáĬłáī£": 2185,
      "ĠlÃ¨": 2186,
      "mÃ¹": 2187,
      "ĠáīłáĬ¢áīµáĭ®áĮµáĭ«": 2188,
      "pt": 2189,
      "Ġkya": 2190,
      "áĬĲáĭļáĪħ": 2191,
      "áĭµáĬķ": 2192,
      "ram": 2193,
      "áĪĶáĪŃ": 2194,
      "áĪĺáĪµ": 2195,
      "áĪĽáĭĬ": 2196,
      "ishwa": 2197,
      "ĠKen": 2198,
      "áĪ°áī¥": 2199,
      "ĠáĪ´": 2200,
      "Ġsana": 2201,
      "Ġgaba": 2202,
      "Ġáįķ": 2203,
      "Ġwere": 2204,
      "ashe": 2205,
      "50": 2206,
      "áīª": 2207,
      "ĠJul": 2208,
      "oth": 2209,
      "ĠNai": 2210,
      "ĠáĭĺáĬķáĭµ": 2211,
      "ĠTur": 2212,
      "ĠKan": 2213,
      "áīµáĬĵ": 2214,
      "áįħ": 2215,
      "Ġáĭ¨áĪ°": 2216,
      "áĮĪáĬĻ": 2217,
      "ĠáĮ¨": 2218,
      "uis": 2219,
      "ebru": 2220,
      "ĠnÃŃgbÃł": 2221,
      "faransa": 2222,
      "ĠáĮĢáĪĿáĪ®": 2223,
      "lan": 2224,
      "Ġjina": 2225,
      "áĪĭáī¸áĭį": 2226,
      "Ġzaidi": 2227,
      "ks": 2228,
      "mÃŃ": 2229,
      "bÃł": 2230,
      "ĠgbÃ©": 2231,
      "Ġhak": 2232,
      "org": 2233,
      "áĭ¥": 2234,
      "ĠáĪ«": 2235,
      "Ġkubwa": 2236,
      "Ġáī£áĪĪ": 2237,
      "áĮ½áĪĲ": 2238,
      "Ġnchini": 2239,
      "ambo": 2240,
      "ĠprÃ©": 2241,
      "zaji": 2242,
      "Ùİ": 2243,
      "Ġaf": 2244,
      "áĪŃáĪ±": 2245,
      "Ġ2019": 2246,
      "Ġ11": 2247,
      "Ġáįĵ": 2248,
      "Ġele": 2249,
      "Ġshine": 2250,
      "va": 2251,
      "uran": 2252,
      "Ni": 2253,
      "ĠáĬ¢áīµáĭ®áĮµáĭ«": 2254,
      "ven": 2255,
      "ĠDa": 2256,
      "iro": 2257,
      "ĠáĮ¦áĪŃ": 2258,
      "Ġ2012": 2259,
      "Ġco": 2260,
      "ĠAward": 2261,
      "Ġnd": 2262,
      "á»Į": 2263,
      "eth": 2264,
      "Ġent": 2265,
      "ĠGe": 2266,
      "áĭ¨áĪŃ": 2267,
      "Ġáĭ«áĪĪáĭį": 2268,
      "áī¡áī¥": 2269,
      "ĠáĮ¸": 2270,
      "kÃłn": 2271,
      "Ġlab": 2272,
      "Â«": 2273,
      "áĬ¤áĪį": 2274,
      "use": 2275,
      "á¹£Ãł": 2276,
      "Ġáī¥áī»": 2277,
      "Ġgud": 2278,
      "ĠOn": 2279,
      "ĠGhana": 2280,
      "hammad": 2281,
      "enda": 2282,
      "anzu": 2283,
      "áĬķáĬķ": 2284,
      "Ġkungiyar": 2285,
      "Ġbaya": 2286,
      "Ġcl": 2287,
      "Ġray": 2288,
      "kÃ¹n": 2289,
      "Ġáī°áĭĪ": 2290,
      "áĮ£áĪį": 2291,
      "ashen": 2292,
      "igh": 2293,
      "ĠAbu": 2294,
      "áĭµáĪĿ": 2295,
      "Ġá»įdun": 2296,
      "Ġlili": 2297,
      "Ġjir": 2298,
      "áĪłáĪ¨": 2299,
      "Ġorin": 2300,
      "ĥáĭŃ": 2301,
      "ĠáĬ¨áįį": 2302,
      "ato": 2303,
      "ĠáĪĺáĪį": 2304,
      "Ġamfani": 2305,
      "Ġph": 2306,
      "Ġper": 2307,
      "Ġáĭ«áĪĪ": 2308,
      "ĠáĭĺáĪĺ": 2309,
      "Ġáĭ¨áĭĪ": 2310,
      "akar": 2311,
      "oda": 2312,
      "áĪĿáĬĵ": 2313,
      "Ã¬bÃŃ": 2314,
      "ĠOkto": 2315,
      "Ġtara": 2316,
      "Ġhaka": 2317,
      "orth": 2318,
      "ukan": 2319,
      "ĠáĬłáĭį": 2320,
      "idan": 2321,
      "lÃ¹": 2322,
      "vent": 2323,
      "áĪįáĮ£": 2324,
      "jiria": 2325,
      "sc": 2326,
      "30": 2327,
      "ĠWar": 2328,
      "old": 2329,
      "Ġhali": 2330,
      "Ġ2006": 2331,
      "Ã¹bÃ¡": 2332,
      "Ġtu": 2333,
      "Ġgasar": 2334,
      "Ġmafi": 2335,
      "ĠáĬ¦": 2336,
      "ĠfÃŃ": 2337,
      "áĬĵáĭĬ": 2338,
      "Ġshiga": 2339,
      "gion": 2340,
      "gn": 2341,
      "Ġfim": 2342,
      "197": 2343,
      "jia": 2344,
      "Ġáī°áĬ¨": 2345,
      "ĠAustr": 2346,
      "ĠFebru": 2347,
      "Ġ2018": 2348,
      "endele": 2349,
      "Ġcin": 2350,
      "196": 2351,
      "af": 2352,
      "yana": 2353,
      "dá»į": 2354,
      "Ã¬nrin": 2355,
      "own": 2356,
      "áį²áį±áį»áį": 2357,
      "ĠAmur": 2358,
      "form": 2359,
      "ĠNaijiria": 2360,
      "yya": 2361,
      "Ġ2017": 2362,
      "Ġum": 2363,
      "Ġ2010": 2364,
      "Mwaka": 2365,
      "Ġhiv": 2366,
      "alisar": 2367,
      "áĬħ": 2368,
      "Ġmbali": 2369,
      "ashi": 2370,
      "Il": 2371,
      "Ġsiya": 2372,
      "Ġkup": 2373,
      "ĠCon": 2374,
      "Ġsin": 2375,
      "Ġbo": 2376,
      "áĪļáĭ«": 2377,
      "ilaya": 2378,
      "tÃłn": 2379,
      "Ġes": 2380,
      "ĠáīģáĮ¥áĪŃ": 2381,
      "ugu": 2382,
      "ĠTe": 2383,
      "udi": 2384,
      "uko": 2385,
      "Ġ2007": 2386,
      "Ġtarehe": 2387,
      "cce": 2388,
      "omi": 2389,
      "iyan": 2390,
      "Ġwak": 2391,
      "ikwa": 2392,
      "Ġjami": 2393,
      "ĠáĪ¥áĪŃ": 2394,
      "ĠáĪī": 2395,
      "rÃ¬": 2396,
      "joba": 2397,
      "mÃ¬": 2398,
      "Ġ)": 2399,
      "ony": 2400,
      "ulo": 2401,
      "gar": 2402,
      "ĠâĢĺ": 2403,
      "ĠSchool": 2404,
      "ĠFran": 2405,
      "Ġri": 2406,
      "sáº¹": 2407,
      "Ġsannan": 2408,
      "ĠBe": 2409,
      "iláº¹": 2410,
      "ĠÆĻar": 2411,
      "lah": 2412,
      "Ġ[": 2413,
      "pinle": 2414,
      "istan": 2415,
      "Ġkm": 2416,
      "Ġak": 2417,
      "ĠAfrica": 2418,
      "Kati": 2419,
      "ĠJap": 2420,
      "lex": 2421,
      "Ġalso": 2422,
      "Ġáĭ¨áīĢ": 2423,
      "owo": 2424,
      "Ãºká»į": 2425,
      "Ġáĭ¨áĪĨáĬĲ": 2426,
      "ĠOktoba": 2427,
      "tain": 2428,
      "ingine": 2429,
      "22": 2430,
      "Ġáĭ®": 2431,
      "ĠáĬłáīł": 2432,
      "tawala": 2433,
      "Ġmaka": 2434,
      "//": 2435,
      "Ġ2013": 2436,
      "Ġmara": 2437,
      "áĪ¥áī³áīµ": 2438,
      "Ġwakati": 2439,
      "Ġjuu": 2440,
      "áĪŃáĬŃ": 2441,
      "ĠáĭĪáĬķ": 2442,
      "shen": 2443,
      "ĠWak": 2444,
      "ici": 2445,
      "Ġkir": 2446,
      "ĠáĮ£": 2447,
      "Ġkuto": 2448,
      "ft": 2449,
      "uta": 2450,
      "ĠáīłáĪĿ": 2451,
      "áī¢áĭ«": 2452,
      "ĠBar": 2453,
      "ĠAre": 2454,
      "Da": 2455,
      "tor": 2456,
      "ero": 2457,
      "ĠAmeric": 2458,
      "ind": 2459,
      "ette": 2460,
      "://": 2461,
      "erin": 2462,
      "pÃ²": 2463,
      "áĬ¦": 2464,
      "ĠAt": 2465,
      "haribi": 2466,
      "isho": 2467,
      "Ġhas": 2468,
      "ĠwÃŃ": 2469,
      "ril": 2470,
      "ĠRD": 2471,
      "ĠHe": 2472,
      "itwa": 2473,
      "enn": 2474,
      "lim": 2475,
      "iyya": 2476,
      "áĮ¨áĪ¨áĪ»": 2477,
      "oloni": 2478,
      "wani": 2479,
      "Ġamma": 2480,
      "áĮłáĪ«": 2481,
      "Ġpo": 2482,
      "ĠLag": 2483,
      "mes": 2484,
      "áĮ¤": 2485,
      "áīĥáĪį": 2486,
      "ĠBir": 2487,
      "ĠáĪľ": 2488,
      "ĠáīłáĭļáĪħ": 2489,
      "ĠáĭµáĪŃ": 2490,
      "Ġmon": 2491,
      "ĠnÃŃpa": 2492,
      "kÃ¨": 2493,
      "áĪ³áīµ": 2494,
      "áĪľáĬķ": 2495,
      "kwai": 2496,
      "Ġkut": 2497,
      "fun": 2498,
      "ĠpÃ¨": 2499,
      "ants": 2500,
      "ĠMo": 2501,
      "ular": 2502,
      "ela": 2503,
      "ĠYorÃ¹bÃ¡": 2504,
      "ves": 2505,
      "ĠÃłrÃ¹n": 2506,
      "Ġáĭ¨áī°áī£": 2507,
      "Ġshekaru": 2508,
      "ĠáĪĺáĬ«áĬ¨áĪį": 2509,
      "Ġáī¡": 2510,
      "Ġhiyo": 2511,
      "Ġras": 2512,
      "ĠáĬ¨áĪĺ": 2513,
      "Ġkal": 2514,
      "ĠáīłáĪĭáĭŃ": 2515,
      "rÃ¨s": 2516,
      "ĠItalia": 2517,
      "áĭİáī¹": 2518,
      "ĠMuhammad": 2519,
      "zama": 2520,
      "ĠáīłáĭĺáĪĺáĬĲ": 2521,
      "yen": 2522,
      "áĮįáĭļ": 2523,
      "ikali": 2524,
      "wu": 2525,
      "áĬķáĮī": 2526,
      "hali": 2527,
      "áĬ³": 2528,
      "ĠrÃŃ": 2529,
      "ĠMata": 2530,
      "Ġrep": 2531,
      "lish": 2532,
      "wai": 2533,
      "zwa": 2534,
      "ĠX": 2535,
      "ert": 2536,
      "ĠKing": 2537,
      "fan": 2538,
      "Ġye": 2539,
      "ĠáīłáĪ°": 2540,
      "He": 2541,
      "usini": 2542,
      "Ġsan": 2543,
      "Ġ30": 2544,
      "ac": 2545,
      "ĠjÃ¡": 2546,
      "áīħáĪŃ": 2547,
      "Ġkaratun": 2548,
      "ĠAmurka": 2549,
      "Ġnan": 2550,
      "ĠUjerumani": 2551,
      "ĠáĬŃáįįáĪĪ": 2552,
      "els": 2553,
      "áī¥áĪ¨": 2554,
      "áĪĽáĭŃ": 2555,
      "áĪħáĪį": 2556,
      "Ġann": 2557,
      "ĠMut": 2558,
      "Ġgr": 2559,
      "tar": 2560,
      "tre": 2561,
      "ĠKas": 2562,
      "ima": 2563,
      "Ġodun": 2564,
      "Ġhanyar": 2565,
      "urin": 2566,
      "ĠáĬłáĪŃ": 2567,
      "ukum": 2568,
      "Ġyawa": 2569,
      "áĪĺáĪĪ": 2570,
      "ĠUingereza": 2571,
      "yn": 2572,
      "áĪĿáĪħáĪŃáīµ": 2573,
      "ayi": 2574,
      "umb": 2575,
      "ĠDes": 2576,
      "omo": 2577,
      "rod": 2578,
      "ternational": 2579,
      "Ġ189": 2580,
      "ents": 2581,
      "sha": 2582,
      "ople": 2583,
      "Ġtra": 2584,
      "Ġabo": 2585,
      "áĭŃáĭĪ": 2586,
      "ĠBur": 2587,
      "anza": 2588,
      "áįĥ": 2589,
      "Ġbuga": 2590,
      "Ġcent": 2591,
      "áīĦ": 2592,
      "ĠbÃŃi": 2593,
      "velop": 2594,
      "áĬķáĮįáĪĬáĭĿáĬĽ": 2595,
      "Ġfirst": 2596,
      "ĠTi": 2597,
      "imbo": 2598,
      "á¹£á»į": 2599,
      "Ġabin": 2600,
      "Ã´": 2601,
      "Ġir": 2602,
      "Ġilikuwa": 2603,
      "Ġdig": 2604,
      "Ġlangu": 2605,
      "Ġzina": 2606,
      "gbÃ²": 2607,
      "áĬķáĬĵ": 2608,
      "ĠKenya": 2609,
      "ĠáĬ¥áĬķáĭ²áĪģáĪĿ": 2610,
      "Ġuku": 2611,
      "wn": 2612,
      "ires": 2613,
      "ures": 2614,
      "Ġupande": 2615,
      "dar": 2616,
      "ĠáĪ½": 2617,
      "áīĨáĮ£áĮłáĪŃ": 2618,
      "ĠAng": 2619,
      "ĠÃ¬tá»į": 2620,
      "Ġits": 2621,
      "Ġwenye": 2622,
      "olo": 2623,
      "Ġáĭ¨áĮį": 2624,
      "nÃł": 2625,
      "uc": 2626,
      "ĠmÃº": 2627,
      "ublic": 2628,
      "Ġ&": 2629,
      "Ġmoja": 2630,
      "ĠkÃº": 2631,
      "ĠÃ¬já»įba": 2632,
      "Kwa": 2633,
      "ansu": 2634,
      "Ġáī¦áī³": 2635,
      "dÃŃn": 2636,
      "Ġnyingi": 2637,
      "áĮįáĭļáĬłáī¥": 2638,
      "ĠÃ¨tÃ²": 2639,
      "atoli": 2640,
      "Ġhada": 2641,
      "Ġilu": 2642,
      "ĠLi": 2643,
      "áĮģ": 2644,
      "ĠÃĵ": 2645,
      "oll": 2646,
      "áĭ°áīµ": 2647,
      "olu": 2648,
      "Ġ25": 2649,
      "als": 2650,
      "Ġmaso": 2651,
      "Ġakan": 2652,
      "ĠKa": 2653,
      "ken": 2654,
      "yy": 2655,
      "Ġyali": 2656,
      "Ġbaada": 2657,
      "abar": 2658,
      "rie": 2659,
      "atic": 2660,
      "koa": 2661,
      "Ġbar": 2662,
      "23": 2663,
      "ĠKusini": 2664,
      "Ġcomme": 2665,
      "áĭįáĪĿ": 2666,
      "áĪµáī³": 2667,
      "ury": 2668,
      "ĠBr": 2669,
      "áĮĪáĬķ": 2670,
      "ich": 2671,
      "Ġrec": 2672,
      "ĠáīłáīĢ": 2673,
      "áĬŀáī½": 2674,
      "ative": 2675,
      "ps": 2676,
      "ĠPe": 2677,
      "Ġkarne": 2678,
      "Ġtsakanin": 2679,
      "fer": 2680,
      "mbali": 2681,
      "ĠáĬĲáīłáĪ©": 2682,
      "ĠKis": 2683,
      "bre": 2684,
      "ision": 2685,
      "ĠayÃ©": 2686,
      "han": 2687,
      "med": 2688,
      "Am": 2689,
      "áĭ¬": 2690,
      "Ġsp": 2691,
      "Ġhal": 2692,
      "Ġimp": 2693,
      "áĮĨáī½": 2694,
      "Ġexp": 2695,
      "Ġju": 2696,
      "áī¤áīµ": 2697,
      "ĠCo": 2698,
      "kÃ¡": 2699,
      "wÃł": 2700,
      "ĠPr": 2701,
      "ĠEng": 2702,
      "Ġáī°áī¥": 2703,
      "vo": 2704,
      "ĠAli": 2705,
      "áĪŃáĪµáī²áĭ«áĬķ": 2706,
      "unia": 2707,
      "fiya": 2708,
      "ĠlÃ©": 2709,
      "áĮ¥áĬķ": 2710,
      "fanin": 2711,
      "alle": 2712,
      "Ġtrans": 2713,
      "Ġáīħáĭ±áĪµ": 2714,
      "Ġkum": 2715,
      "con": 2716,
      "áĭķáĪ«": 2717,
      "ĠHausa": 2718,
      "dia": 2719,
      "ĠhaÉĹ": 2720,
      "Ġpas": 2721,
      "Ġalif": 2722,
      "Ġchini": 2723,
      "Ġim": 2724,
      "³áĪµ": 2725,
      "189": 2726,
      "áĮįáĭļáĬłáī¥áĪĶáĪŃ": 2727,
      "anni": 2728,
      "Les": 2729,
      "ĠáĭŃáĮĪáĬĽ": 2730,
      "Ġbut": 2731,
      "thi": 2732,
      "Ġaká»į": 2733,
      "Ġmin": 2734,
      "Ġáĭ¨áĪµ": 2735,
      "umo": 2736,
      "Ġáº¹láº¹": 2737,
      "ger": 2738,
      "áĪµáĬĵ": 2739,
      "áĬŃáīµ": 2740,
      "mÃ¬n": 2741,
      "iwa": 2742,
      "ĠáĪ¨": 2743,
      "ĠáĪĿáĬŃáĬķáĭ«": 2744,
      "áĭ¶áī½": 2745,
      "Ġkad": 2746,
      "Ġ24": 2747,
      "Ġyanzu": 2748,
      "pen": 2749,
      "emia": 2750,
      "undi": 2751,
      "páº¹": 2752,
      "áĪº": 2753,
      "áī¥áĪ«": 2754,
      "Ġmk": 2755,
      "unci": 2756,
      "ĠLagos": 2757,
      "Ġ2009": 2758,
      "25": 2759,
      "ĠArewa": 2760,
      "ĠKwa": 2761,
      "ancin": 2762,
      "ĠMag": 2763,
      "ĠáĬłáĪī": 2764,
      "Ġall": 2765,
      "Ġ21": 2766,
      "ĠáĪĿáĬķ": 2767,
      "ĠkÃ©k": 2768,
      "Ġkuna": 2769,
      "ays": 2770,
      "vu": 2771,
      "Ġtari": 2772,
      "Ġ2020": 2773,
      "Ġsama": 2774,
      "ĠViungo": 2775,
      "tique": 2776,
      "ĠÃ¬pÃŃnláº¹": 2777,
      "imo": 2778,
      "Ġpos": 2779,
      "eme": 2780,
      "ibi": 2781,
      "Ġwato": 2782,
      "aribu": 2783,
      "Ġmbalimbali": 2784,
      "sÃłn": 2785,
      "ĠMal": 2786,
      "Ø§": 2787,
      "ĠáĭŃáī£": 2788,
      "eneo": 2789,
      "par": 2790,
      "ĠKáº¹": 2791,
      "tu": 2792,
      "ten": 2793,
      "áĮĪáĬĵ": 2794,
      "Ġhave": 2795,
      "phi": 2796,
      "II": 2797,
      "ced": 2798,
      "ĠkÃ©kerÃ©": 2799,
      "takatifu": 2800,
      "Ġmwandishi": 2801,
      "ĠAla": 2802,
      "Ġmad": 2803,
      "áĭŃáĬķ": 2804,
      "Ġime": 2805,
      "dÃº": 2806,
      "urg": 2807,
      "ĠUnited": 2808,
      "ĠÃ¬wÃ©": 2809,
      "Ġmp": 2810,
      "ĠDuniya": 2811,
      "gbÃ¨gbÃ¨": 2812,
      "ĠáĬŃáįįáĪį": 2813,
      "Ġáĭ¨áĬĲáīłáĪ¨": 2814,
      "áīĢáīµ": 2815,
      "ĠAug": 2816,
      "áĬĴáĭ«": 2817,
      "gal": 2818,
      "ĠMin": 2819,
      "gbegbe": 2820,
      "insi": 2821,
      "unge": 2822,
      "áī±áĪĿ": 2823,
      "áĬĸáĪŃ": 2824,
      "Ã³Ã²": 2825,
      "ambar": 2826,
      "ology": 2827,
      "onn": 2828,
      "Ġ188": 2829,
      "illiam": 2830,
      "uki": 2831,
      "Ġáĭ²": 2832,
      "adin": 2833,
      "its": 2834,
      "aren": 2835,
      "ĠáĪŃ": 2836,
      "Ġsami": 2837,
      "áĭ°áĪ¨áĮĪ": 2838,
      "Ġ2008": 2839,
      "Ġ23": 2840,
      "Ġwacce": 2841,
      "Ġsaboda": 2842,
      "Ġguda": 2843,
      "Ġtsa": 2844,
      "umia": 2845,
      "Ġ2005": 2846,
      "yp": 2847,
      "ank": 2848,
      "eral": 2849,
      "Ġwo": 2850,
      "Ç¹": 2851,
      "áĪĪáī°": 2852,
      "ĠáĬłáĬ«áī£áī¢": 2853,
      "ĠKano": 2854,
      "ĠáĬ¥áĬķáĮį": 2855,
      "áĮ½áĪĲáįį": 2856,
      "Ġsamar": 2857,
      "áĭ¨áīµ": 2858,
      "rodha": 2859,
      "Ġche": 2860,
      "isl": 2861,
      "Ġáįĸ": 2862,
      "ett": 2863,
      "Ġala": 2864,
      "Ġkwamba": 2865,
      "laya": 2866,
      "ĠáĬłáīĨáĮ£áĮłáĪŃ": 2867,
      "Katika": 2868,
      "Ġgame": 2869,
      "ĠComm": 2870,
      "Ġfáº¹": 2871,
      "cent": 2872,
      "Ġnuna": 2873,
      "Ġtro": 2874,
      "abe": 2875,
      "áĭ®áĬķ": 2876,
      "orin": 2877,
      "kÃº": 2878,
      "stáº¹": 2879,
      "Ġpremi": 2880,
      "ĠKe": 2881,
      "Ġmal": 2882,
      "Ã¬dÃ¬": 2883,
      "Ġsec": 2884,
      "ĠYork": 2885,
      "ĠáīłáĮį": 2886,
      "áĪ¨áĮį": 2887,
      "ĠáĬłáĬķáĭ±": 2888,
      "nÃŃ": 2889,
      "ach": 2890,
      "bá»į": 2891,
      "ĠkÃ³pa": 2892,
      "Ġmwa": 2893,
      "áĪįáīħ": 2894,
      "áĬķáĮĭ": 2895,
      "áĪŃáĭĿ": 2896,
      "ĠáĮįáĭĽáīµ": 2897,
      "Ġfin": 2898,
      "ĠáĬ¥áĭ«": 2899,
      "umba": 2900,
      "áįĪáĪŃ": 2901,
      "Ġkafin": 2902,
      "rÃ³": 2903,
      "Ġbak": 2904,
      "áĪĿáĬķ": 2905,
      "Ġja": 2906,
      "ĠKam": 2907,
      "Ġsababu": 2908,
      "red": 2909,
      "áĭµáĪŀ": 2910,
      "esi": 2911,
      "Ġtake": 2912,
      "oso": 2913,
      "ĠUs": 2914,
      "Ġáīłáī¥": 2915,
      "Ġbas": 2916,
      "Ġáīłáĭ°": 2917,
      "áĮİáĪŃ": 2918,
      "ĠáĬ¨áī°áĪŀáī½": 2919,
      "tiv": 2920,
      "Ġmto": 2921,
      "áĮĪáī£": 2922,
      "ĠáĬłáĪĭ": 2923,
      "ĠMaj": 2924,
      "áįĢ": 2925,
      "áĭŃáĬĵ": 2926,
      "áīĢáĭį": 2927,
      "ĠáĬ¥áĬķáĭ°áĪļ": 2928,
      "isp": 2929,
      "ĠÃģ": 2930,
      "Ar": 2931,
      "ble": 2932,
      "tun": 2933,
      "dda": 2934,
      "tÃ³": 2935,
      "amin": 2936,
      "áĮĪáĪĪ": 2937,
      "ĠáĬĥáĭŃ": 2938,
      "ĠáĪ¶": 2939,
      "oman": 2940,
      "ĠAnd": 2941,
      "ĠlÃ¡ra": 2942,
      "Ġdiff": 2943,
      "ĠÃ¡stáº¹": 2944,
      "Ġpad": 2945,
      "ĠáīłáįĬáīµ": 2946,
      "bili": 2947,
      "lege": 2948,
      "ĠJe": 2949,
      "áĬĺ": 2950,
      "ĠáĭŃáī½": 2951,
      "Ġiliyo": 2952,
      "Ġkusini": 2953,
      "ater": 2954,
      "Ġgro": 2955,
      "ĠUlaya": 2956,
      "Ġmulkin": 2957,
      "ĠpÃł": 2958,
      "Ġfito": 2959,
      "gan": 2960,
      "Ġtaka": 2961,
      "ayar": 2962,
      "áĪĽáĬĸ": 2963,
      "iyyar": 2964,
      "bÃ¹n": 2965,
      "Ġkil": 2966,
      "áīµáĪŃ": 2967,
      "áĪĭáĪī": 2968,
      "Ġmakarantar": 2969,
      "pÃ¡": 2970,
      "umu": 2971,
      "Ġ2003": 2972,
      "ĠÆĻasa": 2973,
      "ango": 2974,
      "ork": 2975,
      "áīħáīµ": 2976,
      "áĮ£áĪĿ": 2977,
      "Ġfam": 2978,
      "ĠáĪĽáĪŃ": 2979,
      "anzia": 2980,
      "ĠáĪģáĪĪáīµ": 2981,
      "áĪĪáĭ«áĭ©": 2982,
      "aro": 2983,
      "Ġbec": 2984,
      "ĠTs": 2985,
      "ĠáĭŃáī³": 2986,
      "ondon": 2987,
      "áĪı": 2988,
      "áĪĳ": 2989,
      "Ġprodu": 2990,
      "Ġdomin": 2991,
      "unan": 2992,
      "Wá»į": 2993,
      "jini": 2994,
      "áī¥áĪµ": 2995,
      "Ġaux": 2996,
      "ĠMusul": 2997,
      "kali": 2998,
      "gas": 2999,
      "ĠáĪ¸": 3000,
      "run": 3001,
      "áĬ¬": 3002,
      "ĠSp": 3003,
      "áĬŃáĪµ": 3004,
      "ĠGo": 3005,
      "osti": 3006,
      "Ġtsoh": 3007,
      "moja": 3008,
      "Wak": 3009,
      "Ġmwana": 3010,
      "Ġhivyo": 3011,
      "Ġel": 3012,
      "ĠAc": 3013,
      "Ġ27": 3014,
      "ĠáĪĿáĬķáĮ": 3015,
      "Ġsamun": 3016,
      "atoliki": 3017,
      "áĭĸ": 3018,
      "Ġáī´": 3019,
      "áĪĪáĬķ": 3020,
      "Ġuh": 3021,
      "Ġfilamu": 3022,
      "ms": 3023,
      "fanya": 3024,
      "Ġáĭ©": 3025,
      "Ùħ": 3026,
      "Ġgida": 3027,
      "kokin": 3028,
      "ĠÃĪkÃ³": 3029,
      "ĠáĬłáīłáī£": 3030,
      "24": 3031,
      "Un": 3032,
      "ĠBel": 3033,
      "ĠUr": 3034,
      "aniya": 3035,
      "Ġ28": 3036,
      "igi": 3037,
      "Bayan": 3038,
      "áĪĪáĭŃ": 3039,
      "áĪ«áīħ": 3040,
      "cip": 3041,
      "ĠGre": 3042,
      "ĠTr": 3043,
      "Ġwasa": 3044,
      "ĠáĪĮáĪĭ": 3045,
      "áī£áĭŃ": 3046,
      "ex": 3047,
      "áĪ°áĪ«": 3048,
      "ild": 3049,
      "ĠAfrican": 3050,
      "Ġtabi": 3051,
      "Ġdara": 3052,
      "Ġyayin": 3053,
      "ĠáĭĺáĪĺáĬĲ": 3054,
      "endelea": 3055,
      "ved": 3056,
      "Ġmak": 3057,
      "Ġtheir": 3058,
      "Ġpart": 3059,
      "194": 3060,
      "atik": 3061,
      "fuat": 3062,
      "mma": 3063,
      "³áį": 3064,
      "áĪįáĮį": 3065,
      "ĠCar": 3066,
      "anzi": 3067,
      "ĠKik": 3068,
      "ley": 3069,
      "áĪ®áįĵ": 3070,
      "Ã¡náº¹": 3071,
      "ĠáĭĵáĪĺáī³áīµ": 3072,
      "Ġthis": 3073,
      "paka": 3074,
      "Ġwajen": 3075,
      "áĪĿáĪŃ": 3076,
      "áĪĺáīµ": 3077,
      "ĠáĮ¦áĪŃáĬĲáīµ": 3078,
      "ales": 3079,
      "áĪĺáĪ¨": 3080,
      "alia": 3081,
      "warar": 3082,
      "ĠáĪĥáĭŃ": 3083,
      "ussi": 3084,
      "áĪŃáĪĺáĬķ": 3085,
      "Ġpoli": 3086,
      "Ġipa": 3087,
      "ĠBrit": 3088,
      "ĠJos": 3089,
      "iga": 3090,
      "ĠáĪµáĪ«": 3091,
      "áĪªáĬ«áĭĬ": 3092,
      "ĠEb": 3093,
      "Ġ0": 3094,
      "Ġáĭ¨áĭį": 3095,
      "Ġáĭ¨áĭĵ": 3096,
      "ĠáĬ¨áĪļ": 3097,
      "ĠáĪµáĪŃ": 3098,
      "Ġáĭ¨áĪĺáĮĢáĪĺáĪªáĭ«": 3099,
      "edia": 3100,
      "Ġmod": 3101,
      "Ġyao": 3102,
      "Ġjam": 3103,
      "icha": 3104,
      "huri": 3105,
      "ight": 3106,
      "ĠáĪ²áĭ«": 3107,
      "ĠjÃ¹lá»į": 3108,
      "ĠMad": 3109,
      "urope": 3110,
      "husu": 3111,
      "ĠWorld": 3112,
      "ĠÃ¬dÃŃ": 3113,
      "joibi": 3114,
      "ĠáĬłáĭŃáĬĲáīµ": 3115,
      "iji": 3116,
      "arabu": 3117,
      "Ġkoma": 3118,
      "Ġ22": 3119,
      "ĠáĬłáĪ¨": 3120,
      "áĪĲáĬķáĪµ": 3121,
      "ĠgbÃł": 3122,
      "áī·áĪį": 3123,
      "Ġ2000": 3124,
      "Ġkili": 3125,
      "ĠKo": 3126,
      "áĮłáīĥ": 3127,
      "áĮłáĪ¨": 3128,
      "Ġ100": 3129,
      "ĠShe": 3130,
      "áĪįáĪĿ": 3131,
      "áĪįáĭµ": 3132,
      "Ġconst": 3133,
      "uld": 3134,
      "weza": 3135,
      "cess": 3136,
      "adar": 3137,
      "Ġkik": 3138,
      "atta": 3139,
      "ĠáĭĽ": 3140,
      "ĠIpinle": 3141,
      "áīłáī¥": 3142,
      "uo": 3143,
      "áĪŃáĭµ": 3144,
      "áĪĭáĪĿ": 3145,
      "ĠEd": 3146,
      "lÃŃ": 3147,
      "áī£áī¸áĭį": 3148,
      "ananan": 3149,
      "áĪ¬áīµ": 3150,
      "ĠáĬ¨áĭļáĭ«": 3151,
      "ĠUfaransa": 3152,
      "Ġbayyana": 3153,
      "Af": 3154,
      "Ġ2002": 3155,
      "Ġmab": 3156,
      "ĠAk": 3157,
      "Ġos": 3158,
      "áĭ°áĪį": 3159,
      "áĬĲáĮĪáĪŃ": 3160,
      "áĮįáĪ«": 3161,
      "Ġáį²áį±áį»áį": 3162,
      "ĠÃ¬gbÃłjÃ¡": 3163,
      "Ġcar": 3164,
      "Ġ26": 3165,
      "ĠÃ¬má»į": 3166,
      "ĠáĬ¨áįįáī°áĬĽ": 3167,
      "Ã®": 3168,
      "28": 3169,
      "áįįáĪ«": 3170,
      "ĠplÃ¡náº¹": 3171,
      "ĠState": 3172,
      "ĠáĬ¥áĪŃ": 3173,
      "áī£áĪŃ": 3174,
      "Ġmanyan": 3175,
      "ĠSan": 3176,
      "rÃ¬n": 3177,
      "ĠáĬłáĭ²áĪµ": 3178,
      "ĠáĭĪáĪŃ": 3179,
      "27": 3180,
      "Ġcol": 3181,
      "ĠáĬ³áĪµ": 3182,
      "wood": 3183,
      "antu": 3184,
      "fÃł": 3185,
      "gÃ¹n": 3186,
      "Ġyenye": 3187,
      "ĠáĬĲáĮĪáĪ¥áī³áīµ": 3188,
      "Ġone": 3189,
      "ashara": 3190,
      "nu": 3191,
      "ĠáĪłáĪ": 3192,
      "áĮĢáĪĺáĪŃáĭ«": 3193,
      "ĠáĪĮáĪİáī½": 3194,
      "Ġdama": 3195,
      "ences": 3196,
      "ĠáĬ¥áĮħ": 3197,
      "ges": 3198,
      "iriki": 3199,
      "áĬĲáĭį": 3200,
      "Ġinter": 3201,
      "Ġnaa": 3202,
      "Ġwalio": 3203,
      "ĠJanuari": 3204,
      "ily": 3205,
      "ĠáĪĽáĪµ": 3206,
      "Ġambayo": 3207,
      "Ġwadanda": 3208,
      "Ġact": 3209,
      "gÃ©": 3210,
      "ĠWest": 3211,
      "Ġ1960": 3212,
      "ĠáĪĺáĮł": 3213,
      "ĠPart": 3214,
      "Ã¢": 3215,
      "wahili": 3216,
      "overn": 3217,
      "ÃĴ": 3218,
      "ĠáĬ©": 3219,
      "Ġgina": 3220,
      "áĭİáī½áĬķ": 3221,
      "adan": 3222,
      "áĭĮ": 3223,
      "Ġtas": 3224,
      "Ġyadda": 3225,
      "ĠAugust": 3226,
      "dÃł": 3227,
      "Ġvita": 3228,
      "ogun": 3229,
      "ĠáĬłáįį": 3230,
      "ĠÉĹaya": 3231,
      "san": 3232,
      "ĠSha": 3233,
      "ĠSouth": 3234,
      "ĠAgosti": 3235,
      "ĠáĭŃáī£áĪĭáĪį": 3236,
      "ĠdÃŃ": 3237,
      "Ġpop": 3238,
      "Ġ29": 3239,
      "ĠLondon": 3240,
      "Ġcour": 3241,
      "Ġlit": 3242,
      "®áī½": 3243,
      "ĠRa": 3244,
      "áĭ°áĭį": 3245,
      "ĠáĭĪáīħáīµ": 3246,
      "áĭĵáīµ": 3247,
      "pos": 3248,
      "Ġother": 3249,
      "ĠáĪĺáĪ°": 3250,
      "ĠáĪĿáĭµáĪŃ": 3251,
      "ĠmÃ©jÃ¬": 3252,
      "195": 3253,
      "Ġ2004": 3254,
      "Ġgar": 3255,
      "ĠSer": 3256,
      "adu": 3257,
      "áīłáĪĭ": 3258,
      "ĠáĪįáĭ©": 3259,
      "Ġserikali": 3260,
      "29": 3261,
      "ĠBah": 3262,
      "ukar": 3263,
      "fÃ¡": 3264,
      "ĠAh": 3265,
      "áįĪáĪ¨áĬķ": 3266,
      "chn": 3267,
      "Ġkira": 3268,
      "Ġmf": 3269,
      "Ġparti": 3270,
      "Ġ1999": 3271,
      "ĠAbd": 3272,
      "BC": 3273,
      "ature": 3274,
      "Ġlar": 3275,
      "ĠDan": 3276,
      "ĠKad": 3277,
      "ĠOs": 3278,
      "Ġkaskazini": 3279,
      "Yan": 3280,
      "orun": 3281,
      "ros": 3282,
      "áī³áĭŃ": 3283,
      "áįįáīµ": 3284,
      "áī¶áĪµ": 3285,
      "60": 3286,
      "Ġuna": 3287,
      "Ġwho": 3288,
      "ois": 3289,
      "áĬ¥áĪµ": 3290,
      "hed": 3291,
      "áī£áĪĪ": 3292,
      "ĠáĭķáĪĪáīµ": 3293,
      "Ġtab": 3294,
      "imb": 3295,
      "ĠChar": 3296,
      "áº¸": 3297,
      "Ġáĭľ": 3298,
      "ĠNational": 3299,
      "ĠorÃºká»į": 3300,
      "ĠkejÃ¬": 3301,
      "Ġsar": 3302,
      "ĠáĭĻ": 3303,
      "áĬ¨áĭļáĪħ": 3304,
      "áįĭáīµ": 3305,
      "Ġ1990": 3306,
      "ÙĬ": 3307,
      "Ġakwai": 3308,
      "Ġno": 3309,
      "áĪµáĪĪ": 3310,
      "Ìģ,": 3311,
      "áī²áĬ«": 3312,
      "áĮ¨áĪĽáĪª": 3313,
      "ĠJulai": 3314,
      "ip": 3315,
      "rÃł": 3316,
      "Ġjag": 3317,
      "ely": 3318,
      "yoyin": 3319,
      "urn": 3320,
      "ĠInternational": 3321,
      "ĠAmerican": 3322,
      "Ġzin": 3323,
      "ĠUg": 3324,
      "áįĪáĭį": 3325,
      "ĠÃĮtá»į": 3326,
      "áĭİáĪµ": 3327,
      "Ġmaji": 3328,
      "ilo": 3329,
      "ĠWas": 3330,
      "Ġmaeneo": 3331,
      "ĠChi": 3332,
      "pend": 3333,
      "ĠáīłáĪŃ": 3334,
      "Wa": 3335,
      "áĪĭáīħ": 3336,
      "ulu": 3337,
      "Ġdai": 3338,
      "cri": 3339,
      "áĮ¢": 3340,
      "ĠáĬłáĭµáĪŃ": 3341,
      "ĠIlÃ©": 3342,
      "ĠEl": 3343,
      "ĠgbajÃº": 3344,
      "Ġmais": 3345,
      "Ġdeux": 3346,
      "ĠWilliam": 3347,
      "ĠáĪĽáĭķ": 3348,
      "Ġgudanar": 3349,
      "islamu": 3350,
      "Ġdur": 3351,
      "Ġdang": 3352,
      "áĪ¹": 3353,
      "Ġgidan": 3354,
      "ayen": 3355,
      "rÃŃn": 3356,
      "áĪĽáīµ": 3357,
      "Ġáĭ«áĪµ": 3358,
      "ĠCollege": 3359,
      "ings": 3360,
      "Ġfran": 3361,
      "ado": 3362,
      "izikia": 3363,
      "ispania": 3364,
      "ive": 3365,
      "áĬ¨áĪĪ": 3366,
      "ĠáīĥáĪį": 3367,
      "ģáĬķ": 3368,
      "áĭ²áĭ«": 3369,
      "ĠAllah": 3370,
      "áĪĭáĭĬ": 3371,
      "Ġáī¥áĪİ": 3372,
      "Ġsiyasa": 3373,
      "Ġsak": 3374,
      "ĠYa": 3375,
      "Ġirin": 3376,
      "enne": 3377,
      "ĠáĬłáĪµáī°áĭ³": 3378,
      "esa": 3379,
      "áīłáĪį": 3380,
      "soci": 3381,
      "¹¢": 3382,
      "26": 3383,
      "áĬ¢áīµáĭ®áĮµáĭ«": 3384,
      "áĪĭáĬŃ": 3385,
      "ĠnÃŃbi": 3386,
      "áĪªáĭİáī½": 3387,
      "ĠFizikia": 3388,
      "áĪ½áĬķ": 3389,
      "lÃ³gÃºn": 3390,
      "Daga": 3391,
      "ĠjÃ¡de": 3392,
      "alo": 3393,
      "ĠPet": 3394,
      "ĠOb": 3395,
      "ĠJuni": 3396,
      "Ġtar": 3397,
      "táº¹": 3398,
      "áī«": 3399,
      "ĠOá¹£Ã¹": 3400,
      "Ġsanya": 3401,
      "ĠGab": 3402,
      "ĠTiba": 3403,
      "Ġkit": 3404,
      "ĠMachi": 3405,
      "áī¨": 3406,
      "ĠáīµáĪĿáĪħáĪŃáīµ": 3407,
      "áĪĬáĭ«": 3408,
      "Ġmutum": 3409,
      "lá»įpá»į": 3410,
      "ĠwÃŃpÃ©": 3411,
      "áīłáĭļáĪħ": 3412,
      "káº¹": 3413,
      "ĠáĬ¨áĬĲ": 3414,
      "ĠáĬłáĪ«": 3415,
      "Ġher": 3416,
      "iru": 3417,
      "áĪ«áĬķ": 3418,
      "ĠYuni": 3419,
      "Ġlake": 3420,
      "Ġsub": 3421,
      "áīĢáĪĺ": 3422,
      "Ġáī£áĪħ": 3423,
      "Ġses": 3424,
      "áī³áĭį": 3425,
      "Ġáį²áį": 3426,
      "Ġáī°áĪ«": 3427,
      "ism": 3428,
      "rili": 3429,
      "As": 3430,
      "Ġáĭ¨áī³": 3431,
      "Ġmahai": 3432,
      "Ġgabatar": 3433,
      "mala": 3434,
      "yl": 3435,
      "ander": 3436,
      "SB": 3437,
      "áĭ®áī½": 3438,
      "ics": 3439,
      "áįĮ": 3440,
      "Ġmfalme": 3441,
      "ĠTara": 3442,
      "itin": 3443,
      "erre": 3444,
      "áĪ³áĪį": 3445,
      "asihi": 3446,
      "ĠBu": 3447,
      "lig": 3448,
      "ĠáĬ¨áĭļáĪħ": 3449,
      "áīĢáĪŃ": 3450,
      "ĠáĪĿáĬŃáĬķáĭ«áīµ": 3451,
      "Ġ*": 3452,
      "ĠPort": 3453,
      "Ã¡ra": 3454,
      "áĭŃáĭĪáīµ": 3455,
      "ange": 3456,
      "amman": 3457,
      "áĭŃáīµ": 3458,
      "áĭ°áĪĿ": 3459,
      "igizaji": 3460,
      "oka": 3461,
      "ĠFil": 3462,
      "ĠáĪĦ": 3463,
      "Ġáĭ®áĪĲáĬķáĪµ": 3464,
      "Ġstr": 3465,
      "Ġge": 3466,
      "ines": 3467,
      "Ġwaki": 3468,
      "sá»į": 3469,
      "Ġayy": 3470,
      "40": 3471,
      "ĠAare": 3472,
      "Ġacc": 3473,
      "ĠáĬ¨áĬłáĪ": 3474,
      "cto": 3475,
      "Ġtangu": 3476,
      "ĠDec": 3477,
      "áīłáĪ«": 3478,
      "ĠáĭŃáĮĪáĬĽáĪį": 3479,
      "lie": 3480,
      "col": 3481,
      "Ìģ.": 3482,
      "ĠMtakatifu": 3483,
      "ĠáīłáĭĪ": 3484,
      "ĠKaduna": 3485,
      "Ġbeen": 3486,
      "ete": 3487,
      "ĠIndi": 3488,
      "ĠáīłáĮ£áĪĿ": 3489,
      "uss": 3490,
      "Ġmita": 3491,
      "ÃĪ": 3492,
      "ĠKim": 3493,
      "áĮĬáĭľ": 3494,
      "Ãłráº¹": 3495,
      "ĠPl": 3496,
      "ĠáĭŃáī³áĭĪ": 3497,
      "ĠMei": 3498,
      "ĠáĬłáĪĽ": 3499,
      "Ġáī¥áĪŃ": 3500,
      "Ġmutu": 3501,
      "kama": 3502,
      "Ġkammala": 3503,
      "Ġáį¡áį¡": 3504,
      "ĠMashariki": 3505,
      "ĠMan": 3506,
      "ĠCl": 3507,
      "80": 3508,
      "bÃ²": 3509,
      "ÙĨ": 3510,
      "ĠChina": 3511,
      "áīłáī°": 3512,
      "áĪ³áĭĬ": 3513,
      "Ġpeke": 3514,
      "men": 3515,
      "Ġfe": 3516,
      "uf": 3517,
      "áĪµáĬķ": 3518,
      "Ġndani": 3519,
      "ĠWat": 3520,
      "ĠDesemba": 3521,
      "Ġut": 3522,
      "Ġyayi": 3523,
      "orge": 3524,
      "Ġlori": 3525,
      "70": 3526,
      "ery": 3527,
      "Ġkaribu": 3528,
      "ĠCity": 3529,
      "uwanci": 3530,
      "wara": 3531,
      "Ġaut": 3532,
      "áĪ«áĪ±": 3533,
      "lÃ²": 3534,
      "ĠáĬ£": 3535,
      "Ġwaje": 3536,
      "Ġrubu": 3537,
      "Ġkuanzia": 3538,
      "Ġjirgin": 3539,
      "fÃŃ": 3540,
      "Ġpers": 3541,
      "ĠParty": 3542,
      "áĪ³áī¥": 3543,
      "ĠAnn": 3544,
      "ĠagbÃ¨gbÃ¨": 3545,
      "ĠKir": 3546,
      "áĮĪáĪ©": 3547,
      "á¹£Ã¨lÃº": 3548,
      "ibiyar": 3549,
      "Ġsyst": 3550,
      "zer": 3551,
      "ĠáĪ¥áĪ«": 3552,
      "ĠNigerian": 3553,
      "Ġkilom": 3554,
      "esha": 3555,
      "Ġyamma": 3556,
      "áĭĪáĭ°": 3557,
      "ĠLegas": 3558,
      "Ġbirni": 3559,
      "ĠAprili": 3560,
      "Ġhukumar": 3561,
      "Ġentre": 3562,
      "Ġhann": 3563,
      "imu": 3564,
      "áĮĭáĪį": 3565,
      "ages": 3566,
      "áĮĪáĬĺáĭį": 3567,
      "ĠGer": 3568,
      ".,": 3569,
      "Sa": 3570,
      "she": 3571,
      "Ġ1980": 3572,
      "yyar": 3573,
      "Ġmeng": 3574,
      "Ġaliye": 3575,
      "Ġgirma": 3576,
      "istory": 3577,
      "ĠDo": 3578,
      "atsina": 3579,
      "ĠmÃŃ": 3580,
      "ĠáĪ±": 3581,
      "Ġdaban": 3582,
      "áī¥áīµ": 3583,
      "ĠPer": 3584,
      "Ġchake": 3585,
      "way": 3586,
      "lam": 3587,
      "utu": 3588,
      "oph": 3589,
      "ĠdÃ©p": 3590,
      "ĠGr": 3591,
      "Ġsake": 3592,
      "Ġkwaikwa": 3593,
      "Ġhuko": 3594,
      "ĠAde": 3595,
      "Ġáĭ¶": 3596,
      "áĬķáī²": 3597,
      "ĠáĬłáīĢ": 3598,
      "ĠáĪĺáĪłáĪ¨": 3599,
      "ĠáĪĺáĮ½áĪĲáįį": 3600,
      "áĪ«áĪī": 3601,
      "áĮ£áīµ": 3602,
      "Ġáº¹ni": 3603,
      "Ġed": 3604,
      "ĠÃłmÃ¬": 3605,
      "ĠCent": 3606,
      "Ġused": 3607,
      "ĠSeptemba": 3608,
      "my": 3609,
      "ĠBab": 3610,
      "rÃº": 3611,
      "áĭĲ": 3612,
      "Ġag": 3613,
      "ĠwaÉĹ": 3614,
      "Ġkula": 3615,
      "Ġsuke": 3616,
      "Ã¨s": 3617,
      "vyo": 3618,
      "ĠáĬłáīµ": 3619,
      "ĠáĬłáĪľáĪªáĬ«": 3620,
      "ĠáĭĪáĬķáĭµ": 3621,
      "ĠáĪĪáĬł": 3622,
      "áĬĸáĪ©": 3623,
      "ĠáĮ¥áīħáĪĿ": 3624,
      "Ãī": 3625,
      "opo": 3626,
      "amma": 3627,
      "Ġtak": 3628,
      "ombe": 3629,
      "dÃ³": 3630,
      "ĠáĪª": 3631,
      "Ġako": 3632,
      "Ġkud": 3633,
      "áĪįáĮ£áĬķ": 3634,
      "ĠFor": 3635,
      "Ġáī½": 3636,
      "Ġáĭ°áĪ¨áĮĥ": 3637,
      "ĠagbÃ¡": 3638,
      "Ġáĭ¨áĪħ": 3639,
      "iste": 3640,
      "áĪįáĪµ": 3641,
      "SBN": 3642,
      "lima": 3643,
      "Ġfina": 3644,
      "ĠSec": 3645,
      "fia": 3646,
      "fiyar": 3647,
      "mer": 3648,
      "ĠáĬłáĭ«": 3649,
      "...": 3650,
      "ĠAwards": 3651,
      "sÃ¹": 3652,
      "Ġkudu": 3653,
      "âĢİ": 3654,
      "ĠáīĭáĬķáīĭáĭİáī½": 3655,
      "ral": 3656,
      "tions": 3657,
      "asara": 3658,
      "gne": 3659,
      "arch": 3660,
      "áĭĪáĪ°": 3661,
      "Ġmwigizaji": 3662,
      "tan": 3663,
      "ĠÃŃ": 3664,
      "jar": 3665,
      "aux": 3666,
      "áįĲ": 3667,
      "Ã¬mÃ¹": 3668,
      "ĠáĬ¥áĮįáĪŃ": 3669,
      "ĠáĪĿáĪµ": 3670,
      "Ġáĭ¨áĬ¤": 3671,
      "193": 3672,
      "ĠáĪ¥áĬĲ": 3673,
      "Ġuhuru": 3674,
      "ĠPol": 3675,
      "score": 3676,
      "78": 3677,
      "áĬĵáī¸áĭį": 3678,
      "ĠOgun": 3679,
      "áĬ¨áīµ": 3680,
      "ĠáĪĽáĬķ": 3681,
      "áĪĬáĬŃ": 3682,
      "port": 3683,
      "áĪ¨áĪĿ": 3684,
      "áīĥáĪµ": 3685,
      "Ġpá»į": 3686,
      "áĪĽáĬķ": 3687,
      "Ġkutokana": 3688,
      "Walio": 3689,
      "áĬĻ": 3690,
      "Ġfannin": 3691,
      "áĪŃáĪµáī¶áĪµ": 3692,
      "ĠFrance": 3693,
      "ĠáĭĪáĬķáĭĿ": 3694,
      "ĠDi": 3695,
      "risti": 3696,
      "áĪĿáĬĲáīµ": 3697,
      "Ġáīłáī³": 3698,
      "Ġkn": 3699,
      "ĠMai": 3700,
      "Ġ1991": 3701,
      "ser": 3702,
      "áĬĸáĪµ": 3703,
      "rÃ¡": 3704,
      "ĠÃī": 3705,
      "Ġlin": 3706,
      "adili": 3707,
      "ĠFebruari": 3708,
      "aut": 3709,
      "ĠÐ": 3710,
      "Ġáī°áī¥áĪİ": 3711,
      "Ġms": 3712,
      "Ch": 3713,
      "áĭĭáīĤ": 3714,
      "ĠáĪįáĮĨáī½": 3715,
      "yÃ¡": 3716,
      "hel": 3717,
      "Ġprin": 3718,
      "Ġmis": 3719,
      "thiop": 3720,
      "Ġwan": 3721,
      "arai": 3722,
      "Ġinto": 3723,
      "Ġmutanen": 3724,
      "ĠáĭĿáĪŃáĭĿ": 3725,
      "ĠNovemba": 3726,
      "Ġbiyar": 3727,
      "Ġpla": 3728,
      "Ã²rÃ¹n": 3729,
      "yd": 3730,
      "ĠEle": 3731,
      "wanda": 3732,
      "áĬĵáĬķ": 3733,
      "ĠáĮŃ": 3734,
      "ĠÃłwon": 3735,
      "ĠPh": 3736,
      "ĠRais": 3737,
      "ĠBabban": 3738,
      "pele": 3739,
      "Ã§ais": 3740,
      "ĠEurope": 3741,
      "ĠSar": 3742,
      "ĠDis": 3743,
      "áīŃ": 3744,
      "ĠáĬłáįĪ": 3745,
      "ĠAsia": 3746,
      "uro": 3747,
      "Ġndi": 3748,
      "ĠMis": 3749,
      "anna": 3750,
      "ulation": 3751,
      "ĠáĮįáī¥": 3752,
      "Ġarewa": 3753,
      "Ġsome": 3754,
      "ĠBer": 3755,
      "ĠIle": 3756,
      "Ġdir": 3757,
      "áĪĺáĭį": 3758,
      "áĪĭáĭį": 3759,
      "rew": 3760,
      "áĭĭáĬķ": 3761,
      "kawa": 3762,
      "ĠJanuary": 3763,
      "dom": 3764,
      "Ãªme": 3765,
      "FA": 3766,
      "ĠOrodha": 3767,
      "Ġkaramar": 3768,
      "Ġsau": 3769,
      "ĠáĪĺáĬķáĮĪáĭµ": 3770,
      "Ġpelu": 3771,
      "ĠyÃ³Ã²": 3772,
      "asiasa": 3773,
      "ones": 3774,
      "áĪĪáī²áĬ«": 3775,
      "Ġmawa": 3776,
      "Ġáĭ¨áĬ¢": 3777,
      "áĭĬáīµ": 3778,
      "áįĪáĪį": 3779,
      "Ġáī¥áĪĶ": 3780,
      "jan": 3781,
      "Äģ": 3782,
      "rid": 3783,
      "ĠáĮ¥áĬĵáīµ": 3784,
      "itt": 3785,
      "ĠDar": 3786,
      "It": 3787,
      "ĠJa": 3788,
      "unin": 3789,
      "áĭĪáī½": 3790,
      "ove": 3791,
      "ĠáĮ¥áĬķ": 3792,
      "www": 3793,
      "Ġwilaya": 3794,
      "ĠKemia": 3795,
      "ĠáĪĺáĪŃ": 3796,
      "áĭĪáĪĪ": 3797,
      "áĮłáīħ": 3798,
      "áĪµáįĭ": 3799,
      "ĠsÃŃláº¹": 3800,
      "ca": 3801,
      "Ġhim": 3802,
      "Ġruwa": 3803,
      "áĬĶáī³": 3804,
      "Ġkilomita": 3805,
      "illa": 3806,
      "Ġá¹£iá¹£áº¹": 3807,
      "ĠÃ²á¹£": 3808,
      "Ġpekee": 3809,
      "pi": 3810,
      "ĠáĪ®": 3811,
      "ĠáĪĪáĪĿ": 3812,
      "áĭĺáĮĭ": 3813,
      "ĠMak": 3814,
      "hidi": 3815,
      "Ġiko": 3816,
      "áĪŁ": 3817,
      "Ġsauran": 3818,
      "ĠShugaban": 3819,
      "hen": 3820,
      "ante": 3821,
      "áĭ«áĪį": 3822,
      "iye": 3823,
      "ĠáĪīáīĥáĪµ": 3824,
      "yon": 3825,
      "omb": 3826,
      "Ġáī°áĪ°": 3827,
      "91": 3828,
      "ĠAlex": 3829,
      "áĪ¾": 3830,
      "Ġmam": 3831,
      "Ã¹gbá»į": 3832,
      "jeo": 3833,
      "Ġrayuwa": 3834,
      "Ġrasmi": 3835,
      "iter": 3836,
      "ĠSal": 3837,
      "asu": 3838,
      "Ġáīłáĭ¨": 3839,
      "Ġwote": 3840,
      "Ġáĭ¨áĪķ": 3841,
      "áĮłáĭį": 3842,
      "wana": 3843,
      "Ġbai": 3844,
      "Ġwe": 3845,
      "Ġ2001": 3846,
      "Ġoffic": 3847,
      "Ġtena": 3848,
      "imÃ¡": 3849,
      "ĠYar": 3850,
      "áĭķáĪ«áī¥": 3851,
      "ĠBro": 3852,
      "Ġaá¹£": 3853,
      "cial": 3854,
      "ĠÃłgbÃ©": 3855,
      "Ġmaza": 3856,
      "ui": 3857,
      "Ġmusul": 3858,
      "Ġpres": 3859,
      "ojoibi": 3860,
      "Ġáĭ¨áĬłáĪľáĪªáĬ«": 3861,
      "juli": 3862,
      "Ita": 3863,
      "gen": 3864,
      "Ġáīłáĭĵ": 3865,
      "áĮ¥áĪ®": 3866,
      "ĠáīħáĪŃ": 3867,
      "Ġsim": 3868,
      "ower": 3869,
      "Ġ1970": 3870,
      "rop": 3871,
      "áįİáī½": 3872,
      "ĠRob": 3873,
      "ĠáĬ¥áĬķáĮĤ": 3874,
      "ick": 3875,
      "Ġrel": 3876,
      "ĠRep": 3877,
      "Ġáĭ¨áĪļáĪĪáĭį": 3878,
      "omon": 3879,
      "pas": 3880,
      "ĠáĬ¨áĬ¥": 3881,
      "Ġafter": 3882,
      "ĠNorth": 3883,
      "Ġ1993": 3884,
      "Ġdist": 3885,
      "aima": 3886,
      "Ku": 3887,
      "Ġtwo": 3888,
      "ĠáĮīáĭ³": 3889,
      "Ġhukumomin": 3890,
      "indi": 3891,
      "áĪİáīµ": 3892,
      "aben": 3893,
      "ĠáĭĪáĭŃ": 3894,
      "ĠáĬŃáĪį": 3895,
      "uliwa": 3896,
      "Ġzamani": 3897,
      "Ġasili": 3898,
      "omen": 3899,
      "kashin": 3900,
      "ĠgÃŃ": 3901,
      "áī°áĬķ": 3902,
      "ĠáĬķáĮį": 3903,
      "aru": 3904,
      "Ha": 3905,
      "Ġáĭ¨áīµ": 3906,
      "ĠnÃŃnu": 3907,
      "sÃ¬n": 3908,
      "Ġduni": 3909,
      "ilar": 3910,
      "ĠáĮĮ": 3911,
      "fauti": 3912,
      "Ġkarni": 3913,
      "ĠáĬ¥áĬķáĭ²áĪħ": 3914,
      "ÙĪ": 3915,
      "Ki": 3916,
      "Ġmost": 3917,
      "eman": 3918,
      "Ab": 3919,
      "Pa": 3920,
      "Ġyau": 3921,
      "ica": 3922,
      "ĠáĭŃáīĢ": 3923,
      "ĠáīµáĬķ": 3924,
      "Ġilimi": 3925,
      "attalin": 3926,
      "clud": 3927,
      "lejin": 3928,
      "áī¥áĪ¨áīµ": 3929,
      "iver": 3930,
      "ĠÃ²un": 3931,
      "Ġtsarin": 3932,
      "ĠáĪģáĪĪ": 3933,
      "ĠáįķáĪ¬": 3934,
      "lor": 3935,
      "Ġlashe": 3936,
      "ĠAgba": 3937,
      "Ġogun": 3938,
      "ĠáĪķáĭĿáī¥": 3939,
      "Ġkid": 3940,
      "wezi": 3941,
      "ctions": 3942,
      "ĠSeptember": 3943,
      "ĠÃłkÃ³": 3944,
      "áĬŃáĪī": 3945,
      "ĠâĢ¢": 3946,
      "Ġáī³áĪªáĬ«áĭĬ": 3947,
      "amuziki": 3948,
      "Ġdigiri": 3949,
      "Ġmkubwa": 3950,
      "Ġtal": 3951,
      "ĠSte": 3952,
      "haa": 3953,
      "Ġvile": 3954,
      "dÃ¹": 3955,
      "adaye": 3956,
      "umma": 3957,
      "ĠáĪĺáĮ¨áĪ¨áĪ»": 3958,
      "Ġ186": 3959,
      "áīłáĪ©áīµ": 3960,
      "ilu": 3961,
      "ĠEx": 3962,
      "bert": 3963,
      "áĬĲáī±": 3964,
      "Ġinc": 3965,
      "ĠáīłáĬĲ": 3966,
      "ĠBal": 3967,
      "áĪ¨áĪ°": 3968,
      "olly": 3969,
      "ĠfranÃ§ais": 3970,
      "Ġkuli": 3971,
      "gbÃ³": 3972,
      "ĠTazama": 3973,
      "Ġkul": 3974,
      "áĪŃáī²": 3975,
      "ĠEm": 3976,
      "ĠTo": 3977,
      "Ġ1994": 3978,
      "ĠIII": 3979,
      "the": 3980,
      "Ġaki": 3981,
      "áĪĺáĪį": 3982,
      "ĠSi": 3983,
      "onde": 3984,
      "ĠDecember": 3985,
      "gbon": 3986,
      "áĭįáĪ®áįĵ": 3987,
      "á¹£u": 3988,
      "ĠáĭĿáĪŃáĭĿáĪŃ": 3989,
      ")áį£": 3990,
      "kÃ¹nrin": 3991,
      "Ġsc": 3992,
      "sent": 3993,
      "¶áį": 3994,
      "Ġkamfanin": 3995,
      "áĬ¨áī°áĪĽ": 3996,
      "Ġwakil": 3997,
      "ws": 3998,
      "adem": 3999,
      "Ġ1998": 4000,
      "áĪĺáĭµ": 4001,
      "ĠÆĺ": 4002,
      "áī°áĭĭáĪį": 4003,
      "ets": 4004,
      "áĪħáĬķ": 4005,
      "ukuu": 4006,
      "ĠáīłáĬ©": 4007,
      "ĠáĮįáĭµáĪĿ": 4008,
      "Ġmusamman": 4009,
      "ĠgbajÃºmá»į": 4010,
      "Ġkwaikwayo": 4011,
      "angi": 4012,
      "Ġ1996": 4013,
      "ĠBahari": 4014,
      "ĠáĮĬ": 4015,
      "áīłáĬł": 4016,
      "Ġáįĭ": 4017,
      "Ġvari": 4018,
      "ĠáĪģáĬĶáī³": 4019,
      "rÃ²yÃ¬n": 4020,
      "ĠáĬłáĪĺáīµ": 4021,
      "ĠáĭŃáī½áĪĭáĪį": 4022,
      "ĠDem": 4023,
      "bÃº": 4024,
      "Ġcor": 4025,
      "Ã¨me": 4026,
      "áī¤áī°": 4027,
      "ĠsinimÃ¡": 4028,
      "Ġaussi": 4029,
      "ĠKatsina": 4030,
      "áĪ«áĪ²": 4031,
      "Ġá¹£áº¹": 4032,
      "áī»áī¸áĭį": 4033,
      "Ġáĭ¨áĬ¥áĪµ": 4034,
      "elles": 4035,
      "áĮĦ": 4036,
      "Ġáī»": 4037,
      "áĬĲáĪ³": 4038,
      "áĭ¨áĪĿ": 4039,
      "Ġpáº¹lu": 4040,
      "ĠsÃ©": 4041,
      "ouv": 4042,
      "45": 4043,
      "Ġkila": 4044,
      "Ġgen": 4045,
      "Ġtaima": 4046,
      "ĠáĬĲáĮ»": 4047,
      "Ġinayo": 4048,
      "ulani": 4049,
      "ĠfÃŃÃ¬mÃ¹": 4050,
      "ĠpadÃł": 4051,
      "Ġder": 4052,
      "ĠBra": 4053,
      "ĠParis": 4054,
      "90": 4055,
      "Ġáī±": 4056,
      "ĠojÃº": 4057,
      "adhi": 4058,
      "áĪģáĬķ": 4059,
      "ctober": 4060,
      "Ġ1995": 4061,
      "On": 4062,
      "arly": 4063,
      "Ġmore": 4064,
      "Ġlong": 4065,
      "Ġbila": 4066,
      "áĭ«áĭĬ": 4067,
      "ĠáĪĺáĪįáĬŃ": 4068,
      "oselu": 4069,
      "ĠYamma": 4070,
      "áĪ¶áī½": 4071,
      "ĠMajalisar": 4072,
      "Ġcer": 4073,
      "tics": 4074,
      "áĪĪáĪĽ": 4075,
      "ĠáĪļáĬĴ": 4076,
      "Ġcap": 4077,
      "Ġmap": 4078,
      "ĠMto": 4079,
      "áĮįáĬķ": 4080,
      "ĠáįĪáĪŃ": 4081,
      "wÃ¡jÃº": 4082,
      "ĠEthiop": 4083,
      "ments": 4084,
      "Tare": 4085,
      "Ġbab": 4086,
      "áĭļáīĥ": 4087,
      "Ġutawala": 4088,
      "Ġzaman": 4089,
      "liwa": 4090,
      "Ġijoba": 4091,
      "ĠáĬŃáĪŃáĪµáī²áĭ«áĬķ": 4092,
      "anti": 4093,
      "hem": 4094,
      "eld": 4095,
      "ĠDav": 4096,
      "eries": 4097,
      "Ġhtt": 4098,
      "ĠlÃ¡Ãł": 4099,
      "gozi": 4100,
      "lack": 4101,
      "AN": 4102,
      "ĠÃ¬tÃłn": 4103,
      "áĭĪáĮ£": 4104,
      "áĭĭáĬĵ": 4105,
      "Ġidadi": 4106,
      "uku": 4107,
      "amad": 4108,
      "Ġlambar": 4109,
      "ĠáĬĲáĮĪáĪ®áī½": 4110,
      "ĠFaransa": 4111,
      "Ġjagor": 4112,
      "Ġduniani": 4113,
      "190": 4114,
      "sid": 4115,
      "ÃłÃł": 4116,
      "ĠwÃ³n": 4117,
      "áĭ¨áĬł": 4118,
      "ĠKiingereza": 4119,
      "áī´áĭİáĪµ": 4120,
      "Ġhukuma": 4121,
      "ler": 4122,
      "Ø±": 4123,
      "asha": 4124,
      "Ġsuch": 4125,
      "koso": 4126,
      "upe": 4127,
      "áĬ¸": 4128,
      "Ġáīłáĭį": 4129,
      "ĠCor": 4130,
      "ilia": 4131,
      "Ġkarkashin": 4132,
      "Ġáī¢áĪĨáĬķ": 4133,
      "phy": 4134,
      "aifaff": 4135,
      "ital": 4136,
      "ĠÃ©tÃ©": 4137,
      "Ġdunia": 4138,
      "ĠÃłÃ¬": 4139,
      "Ġthey": 4140,
      "Ġigba": 4141,
      "ĠáĭĺáĪŃ": 4142,
      "julikana": 4143,
      "ince": 4144,
      "Ġrais": 4145,
      "keo": 4146,
      "Ġsani": 4147,
      "áĪ«áī¸áĭį": 4148,
      "ĠáĭŃáĪĺáĪµ": 4149,
      "Ġkazi": 4150,
      "Ġáĭ¨áĪĽáĭŃ": 4151,
      "áĪĽáĬĸáīµ": 4152,
      "atikana": 4153,
      "Ġbara": 4154,
      "Ġbet": 4155,
      "htt": 4156,
      "Ġjari": 4157,
      "ĠOlÃ³": 4158,
      "fs": 4159,
      "ĠIli": 4160,
      "AS": 4161,
      "ĠKati": 4162,
      "Ġsous": 4163,
      "eli": 4164,
      "atur": 4165,
      "Ġáĭ«áĪħáĪį": 4166,
      "ÉĹa": 4167,
      "Ġsunan": 4168,
      "ĠáĭŃáĪħáĪĿ": 4169,
      "ather": 4170,
      "Sh": 4171,
      "Ġover": 4172,
      "Ġban": 4173,
      "Ġere": 4174,
      "áĪĤ": 4175,
      "áĮĪáĭ°": 4176,
      "áĪĽáĪį": 4177,
      "Ġáįª": 4178,
      "Ġbang": 4179,
      "ĠáĪ¦": 4180,
      "ĠáĭŃáĪĨ": 4181,
      "ĠáīłáĪĻ": 4182,
      "Ġleo": 4183,
      "Ġkifo": 4184,
      "ĠáĭµáĪŃáĮħ": 4185,
      "vid": 4186,
      "bÃŃláº¹": 4187,
      "oto": 4188,
      "ide": 4189,
      "xt": 4190,
      "ĠHot": 4191,
      "Ġtemp": 4192,
      "áįĶ": 4193,
      "Ġasalin": 4194,
      "ĠáĬłáĪĪáĭį": 4195,
      "ando": 4196,
      "Ġdali": 4197,
      "ĠFasihi": 4198,
      "áĮĢáĪŃáĪĺáĬķ": 4199,
      "ras": 4200,
      "Ġnum": 4201,
      "Láº¹": 4202,
      "ĠáĬ¡": 4203,
      "Ġpat": 4204,
      "ĠáĬ¥áĬĲ": 4205,
      "Ġiye": 4206,
      "áĪīáĪĿ": 4207,
      "áĬ¥áĬķáĮįáĪĬáĭĿáĬĽ": 4208,
      "Ġ1997": 4209,
      "aifaffun": 4210,
      "ĠMon": 4211,
      "ĠRay": 4212,
      "Ġnombre": 4213,
      "Ġmalla": 4214,
      "isto": 4215,
      "ĠrÃ¨": 4216,
      "ĠáĪĺáĮĢáĪĺáĪŃáĭ«": 4217,
      "Ġ1976": 4218,
      "Ġmn": 4219,
      "Ġfait": 4220,
      "Ġkayan": 4221,
      "áĮĪáĪį": 4222,
      "Ġmace": 4223,
      "ĠáĭŃáĭĺ": 4224,
      "osa": 4225,
      "ulture": 4226,
      "Ġbisa": 4227,
      "ikukuu": 4228,
      "ĠáĪĿáĬķáĪĿ": 4229,
      "Ġkwallon": 4230,
      "ĠáĪĿáĬķáĮ®áī½": 4231,
      "ĠMed": 4232,
      "Ġagba": 4233,
      "Ġpre": 4234,
      "tive": 4235,
      "ĠTari": 4236,
      "tokea": 4237,
      "ĠáīłáĪ½": 4238,
      "Ġkawa": 4239,
      "arci": 4240,
      "Ġbaba": 4241,
      "lÃ¬": 4242,
      "anisha": 4243,
      "Ġáĭ¨áī£": 4244,
      "Ġnau": 4245,
      "hur": 4246,
      "ĠEnglish": 4247,
      "cid": 4248,
      "ria": 4249,
      "áĪ·": 4250,
      "áĪĺáĪ°": 4251,
      "áĪĭáĪ´": 4252,
      "ĠáĪĿáĪŃ": 4253,
      "ots": 4254,
      "Ġáĭĭáī¢": 4255,
      "Ġnyingine": 4256,
      "Ġnam": 4257,
      "ĠCoun": 4258,
      "Ġadd": 4259,
      "ĠKananan": 4260,
      "áī£áĪĪáĭį": 4261,
      "Ġáī°áįĪ": 4262,
      "áĭ¨áĪ±": 4263,
      "ambu": 4264,
      "ĠWan": 4265,
      "ĠáĪł": 4266,
      "Ġnada": 4267,
      "Ã¡Ã¬": 4268,
      "ington": 4269,
      "ĠáĭŃáĪ°": 4270,
      "Ġáĭ¨áĬ«": 4271,
      "Ġáĭ¨áī°áĪ°": 4272,
      "ayansi": 4273,
      "ĠáĭŃáĪħáĬķ": 4274,
      "Ġambao": 4275,
      "áĬ¥áĬķáĭ°": 4276,
      "ĠgÃ©n": 4277,
      "Ġfilm": 4278,
      "burg": 4279,
      "Ġuti": 4280,
      "ourn": 4281,
      "Ġlanguage": 4282,
      "Ad": 4283,
      "Ġshirin": 4284,
      "Ġbiashara": 4285,
      "35": 4286,
      "ĠHer": 4287,
      "aik": 4288,
      "ĠSaint": 4289,
      "áĬķáĭ°": 4290,
      "áĬŃáĪŃ": 4291,
      "ĠDola": 4292,
      "chumi": 4293,
      "áīłáĪĪ": 4294,
      "Ġtsohon": 4295,
      "ĠAir": 4296,
      "1892": 4297,
      "Ġkara": 4298,
      "Ġnjia": 4299,
      "Ġkuhusu": 4300,
      "ĠáĪĺáĪĨáĬĳ": 4301,
      "ĠOrÃŃ": 4302,
      "Ġoloselu": 4303,
      "gy": 4304,
      "ĠAsi": 4305,
      "ements": 4306,
      "ĠinÃº": 4307,
      "·áį": 4308,
      "áĬķáĭ±": 4309,
      "ĠsÃ¡": 4310,
      "Ġyabo": 4311,
      "ista": 4312,
      "ĠKudu": 4313,
      "áīłáĪĺ": 4314,
      "endo": 4315,
      "ĠÃ©t": 4316,
      "bÃ¬nrin": 4317,
      "áĪĭáĪĪ": 4318,
      "Ġyote": 4319,
      "utt": 4320,
      "ĠáĮ½áĪĳ": 4321,
      "ĠáĪĽáĪŃáīĨ": 4322,
      "Ġtime": 4323,
      "ĠAbdul": 4324,
      "idi": 4325,
      "Ã¨res": 4326,
      "Ġvo": 4327,
      "Ġciki": 4328,
      "fika": 4329,
      "Ġolu": 4330,
      "ĠKanisa": 4331,
      "yyun": 4332,
      "overnment": 4333,
      "Ġ1992": 4334,
      "gá»į": 4335,
      "rÃ¡n": 4336,
      "ino": 4337,
      "himu": 4338,
      "ĠáĪ¥áĪŃáĭĪ": 4339,
      "ĠIbadan": 4340,
      "Ġinf": 4341,
      "Ġcommun": 4342,
      "dÃ²": 4343,
      "Ġgo": 4344,
      "á¹£i": 4345,
      "ĠáĪµáĪĻ": 4346,
      "onge": 4347,
      "zu": 4348,
      "asan": 4349,
      "ween": 4350,
      "Ġdari": 4351,
      "Ġhata": 4352,
      "ĠáĮłáĪ": 4353,
      "Ġjerin": 4354,
      "ĠáĪĺáĭµ": 4355,
      "ĠáĪĺáĪª": 4356,
      "áĭ³áĪŃ": 4357,
      "ĠKiswahili": 4358,
      "mÃ¬nÃł": 4359,
      "ĠáĪłáĪ«": 4360,
      "por": 4361,
      "Ġcette": 4362,
      "ĠNovember": 4363,
      "cer": 4364,
      "ner": 4365,
      "ĠáĬħ": 4366,
      "ĠÃĢÃłráº¹": 4367,
      "Ġlokaci": 4368,
      "ographi": 4369,
      "ĠRaya": 4370,
      "iran": 4371,
      "Ġvisiwa": 4372,
      "Ġáĭ°áĪ´": 4373,
      "ĠFebruary": 4374,
      "rig": 4375,
      "ĠáĪĤ": 4376,
      "ĠáĬłáĪ³": 4377,
      "Ġprof": 4378,
      "áī¶áī½áĬķ": 4379,
      "ĠBenin": 4380,
      "Ġspe": 4381,
      "ĠDel": 4382,
      "ĠHistoria": 4383,
      "Ġnon": 4384,
      "unga": 4385,
      "áĪĭáĪĽ": 4386,
      "Ġáĭ¨áĪ¥": 4387,
      "ĠáĪĿáĪįáĬŃ": 4388,
      "Ġeniyan": 4389,
      "sÃŃláº¹": 4390,
      "ĠGeorge": 4391,
      "ford": 4392,
      "inst": 4393,
      "ĠdÃ©c": 4394,
      "75": 4395,
      "Ġáį¤": 4396,
      "áĪ°áĬķ": 4397,
      "áĭļáĪģ": 4398,
      "Ġá¹£ÃŃ": 4399,
      "áįĪáĪ¨áĬķáĪ³áĭŃ": 4400,
      "31": 4401,
      "hindi": 4402,
      "ĠÃłgbÃł": 4403,
      "áĭķáĪį": 4404,
      "ĠEbun": 4405,
      "áĪ¡": 4406,
      "Ġpwani": 4407,
      "asaha": 4408,
      "Ġmajalisar": 4409,
      "Ġmulki": 4410,
      "torÃŃ": 4411,
      "Ġinclud": 4412,
      "ique": 4413,
      "áĪ¯": 4414,
      "ĠáĬĴ": 4415,
      "ĠáĬĸ": 4416,
      "áĪĺáĮ£": 4417,
      "ĠáĭĪáĪ¨áĭ³": 4418,
      "ĠáĭĪáĮĪáĬķ": 4419,
      "ĠáĬłáĪĪáīĥ": 4420,
      "abo": 4421,
      "ĠMungu": 4422,
      "áī½áĭį": 4423,
      "Ġmasana": 4424,
      "áĪłáĪ«": 4425,
      "mon": 4426,
      "vers": 4427,
      "ĠKya": 4428,
      "Ġ1967": 4429,
      "jiya": 4430,
      "aria": 4431,
      "ĠáĮħ": 4432,
      "iyoyin": 4433,
      "ĠMusulunci": 4434,
      "Ġtit": 4435,
      "ĠØ§": 4436,
      "ĠUganda": 4437,
      "ollywood": 4438,
      "Ã³mÃ¬nÃł": 4439,
      "Ġise": 4440,
      "Ġ|-": 4441,
      "ĠStates": 4442,
      "ouse": 4443,
      "Ġshug": 4444,
      "Ġ1987": 4445,
      "atan": 4446,
      "kad": 4447,
      "ĠMil": 4448,
      "ĠáĬłáĪ¸": 4449,
      "áĮ¥áĪ¨": 4450,
      "áĪ®áĪµ": 4451,
      "Ġ50": 4452,
      "ĠáĪ´áīµ": 4453,
      "Ġknown": 4454,
      "Ġkawaida": 4455,
      "ĠÎ": 4456,
      "osai": 4457,
      "ĠQu": 4458,
      "ush": 4459,
      "Ġ185": 4460,
      "ole": 4461,
      "áĬ«áĪį": 4462,
      "ĠáĭķáĪĪ": 4463,
      "ĠMutane": 4464,
      "Ã¼": 4465,
      "akin": 4466,
      "Ġeff": 4467,
      "gram": 4468,
      "áĭĳ": 4469,
      "Ġdini": 4470,
      "Ġkaratu": 4471,
      "ĠAll": 4472,
      "Ġmbili": 4473,
      "Ġáĭ¨áĭĺ": 4474,
      "áĪ³áī¸áĭį": 4475,
      "lÃ©wÃ²": 4476,
      "áĮįáī¥áĮ½": 4477,
      "ĠáĬłáĮ¥": 4478,
      "áĮĪáī¥": 4479,
      "Ġáī³áĭĭáīĤ": 4480,
      "Ġáīłáī°áĪĪáĭŃ": 4481,
      "áĬ®áī½": 4482,
      "sin": 4483,
      "Ð°": 4484,
      "Ġvol": 4485,
      "ĠáĪº": 4486,
      "ĠáĬ¥áĭį": 4487,
      "áĮĪáīł": 4488,
      "Ġzote": 4489,
      "Ġyara": 4490,
      "ĠLes": 4491,
      "ÆĻa": 4492,
      "áĭ²áĪħ": 4493,
      "2005": 4494,
      "Ġaga": 4495,
      "Ġmasa": 4496,
      "inga": 4497,
      "Ġ1989": 4498,
      "ĠGerman": 4499,
      "kÃ¹": 4500,
      "áĮ¦áĪŃ": 4501,
      "ĠOctober": 4502,
      "ĠáīłáĪĮ": 4503,
      "ĠHaifaffun": 4504,
      "Ġbahari": 4505,
      "ĠáĬŃáįįáĪĭ": 4506,
      "Ġ1975": 4507,
      "CO": 4508,
      "iew": 4509,
      "ret": 4510,
      "áĪ©áīµ": 4511,
      "áĪ±áĪĿ": 4512,
      "ĠáĬłáĭŃáĭ°": 4513,
      "áĪıáĪį": 4514,
      "Ġloc": 4515,
      "uv": 4516,
      "urch": 4517,
      "ologie": 4518,
      "ĠJames": 4519,
      "This": 4520,
      "ĠáĭŃáĪĨáĬĵáĪį": 4521,
      "Ġret": 4522,
      "ĠBritish": 4523,
      "Ġsou": 4524,
      "ĠIt": 4525,
      "guzi": 4526,
      "Ä«": 4527,
      "áĬ¹": 4528,
      "ĠáīłáĮ¥": 4529,
      "ĠáĬłáĭ°": 4530,
      "arautar": 4531,
      "áĭ³áĪĿ": 4532,
      "Ġilimin": 4533,
      "ĠMart": 4534,
      "Ġunder": 4535,
      "arÃŃ": 4536,
      "Ġmwanamuziki": 4537,
      "Ġshirya": 4538,
      "ĠwaÉĹanda": 4539,
      "ĠgÃŃga": 4540,
      "Har": 4541,
      "Ġont": 4542,
      "ain": 4543,
      "ĠkÃ¡": 4544,
      "ĠbÃł": 4545,
      "ĠCan": 4546,
      "áįĪáīµ": 4547,
      "yal": 4548,
      "ĠKil": 4549,
      "ĠKongo": 4550,
      "mÃº": 4551,
      "nÃ¹": 4552,
      "ĠáīłáĪģ": 4553,
      "áĪķáĪŃ": 4554,
      "Ġmagharibi": 4555,
      "ef": 4556,
      "Ġabout": 4557,
      "ĠGir": 4558,
      "bila": 4559,
      "áįĳ": 4560,
      "áĪĺáī±": 4561,
      "áĬĲáĮĪ": 4562,
      "áĪ¨áī¥": 4563,
      "ĠáīĢáĮ¥": 4564,
      "Ġdont": 4565,
      "Ġrubuta": 4566,
      "usta": 4567,
      "34": 4568,
      "76": 4569,
      "ption": 4570,
      "ĠMarch": 4571,
      "pata": 4572,
      "áĭµáĪ¨áĮį": 4573,
      "Ġyo": 4574,
      "ĠPress": 4575,
      "áįĪáĪµ": 4576,
      "áĪŃáĭ«áĪĿ": 4577,
      "eph": 4578,
      "ĠáĪ»": 4579,
      "ĠSud": 4580,
      "áĪĿáĪħáĪŃ": 4581,
      "ĠáĬ¥áĬķáĮįáĪĬáĭĿ": 4582,
      "Ġkis": 4583,
      "Ġatt": 4584,
      "ģáĬĳ": 4585,
      "Ġpri": 4586,
      "Ġout": 4587,
      "reat": 4588,
      "áĭ³áĪį": 4589,
      "áĮłáĪ©": 4590,
      "ĠáĬĵáīµ": 4591,
      "ĠáĬłáĮĪáĪįáĮį": 4592,
      "ĠAcadem": 4593,
      "Ġkun": 4594,
      "Ġfit": 4595,
      "Ġhttp": 4596,
      "ĠmÃ¬ÃŃ": 4597,
      "Ġwork": 4598,
      "finai": 4599,
      "Ġ31": 4600,
      "Ġhuo": 4601,
      "ĠáĬ¥áĭ¨áī°": 4602,
      "ĠáĭŃáī³áĭĪáīĥáĪį": 4603,
      "ĠáĪĺáĪłáĪ¨áīµ": 4604,
      "esh": 4605,
      "Ġaji": 4606,
      "chuk": 4607,
      "Ġvit": 4608,
      "Ġhaifi": 4609,
      "kunan": 4610,
      "ĠolÃ³rin": 4611,
      "rahim": 4612,
      "Ġshe": 4613,
      "dÃłn": 4614,
      "ĠISBN": 4615,
      "áĮłáĬĵ": 4616,
      "ĠBBC": 4617,
      "ĠHukum": 4618,
      "hard": 4619,
      "shir": 4620,
      "/)": 4621,
      "ject": 4622,
      "áĬĹ": 4623,
      "Ġsupp": 4624,
      "Ġfarkon": 4625,
      "ĠRayayyun": 4626,
      "if": 4627,
      "ĠBib": 4628,
      "gÃ¡": 4629,
      "zung": 4630,
      "bai": 4631,
      "ott": 4632,
      "ĠHen": 4633,
      "Ġmagana": 4634,
      "Ġhalarci": 4635,
      "Ġten": 4636,
      "Ã©t": 4637,
      "Ġhab": 4638,
      "âĢº": 4639,
      "alu": 4640,
      "ĠKaskazini": 4641,
      "ety": 4642,
      "ĠáĬ¥áĬĲáĭļáĪħ": 4643,
      "áĪ¨áĮĭ": 4644,
      "Ġmwenye": 4645,
      "áįĵáĬķ": 4646,
      "ĠmÃ¬ÃŃrÃłn": 4647,
      "áĬĥ": 4648,
      "omas": 4649,
      "ĠdÃ©part": 4650,
      "aj": 4651,
      "ĪáĪĿ": 4652,
      "áī£áĭĬ": 4653,
      "Ġver": 4654,
      "wala": 4655,
      "Ġ1982": 4656,
      "Ġ1988": 4657,
      "bakar": 4658,
      "áĭ°áĮį": 4659,
      "umwa": 4660,
      "ĠáĪĽáī´áĭİáĪµ": 4661,
      "ĠJapan": 4662,
      "Ġsci": 4663,
      "Ġca": 4664,
      "Ġ1984": 4665,
      "Ġbetween": 4666,
      "Ġpays": 4667,
      "´áį": 4668,
      "ĠáĬ¬": 4669,
      "áį²áį": 4670,
      "Ġcoun": 4671,
      "ĠáĪµáīµ": 4672,
      "Ġáĭįáĭµ": 4673,
      "Ġharshen": 4674,
      "ĠobÃ¬nrin": 4675,
      "ky": 4676,
      "Ã©ri": 4677,
      "Ġ1979": 4678,
      "Ġáĭ´": 4679,
      "Ġgwamnatin": 4680,
      "yu": 4681,
      "Ġorig": 4682,
      "Ġ1983": 4683,
      "ÙĲ": 4684,
      "ĠNchi": 4685,
      "ĠáĪĺáĬĲ": 4686,
      "olojia": 4687,
      "ĠáĭķáĪĪáī³áīµ": 4688,
      "mani": 4689,
      "DP": 4690,
      "rÃºn": 4691,
      "Ġcutar": 4692,
      "led": 4693,
      "ĠáĪĺáĭĿ": 4694,
      "olution": 4695,
      "Ġtarihi": 4696,
      "ĠÃ©ta": 4697,
      "36": 4698,
      "taniya": 4699,
      "ĠTan": 4700,
      "Ġint": 4701,
      "Tana": 4702,
      "ĠMkoa": 4703,
      "ĠId": 4704,
      "Ġzaben": 4705,
      "ĠPi": 4706,
      "Ġá¹£Ãł": 4707,
      "Ġatom": 4708,
      "ĠKiarabu": 4709,
      "dÃºgbÃ²": 4710,
      "Ġang": 4711,
      "ĠEs": 4712,
      "amawa": 4713,
      "ID": 4714,
      "hal": 4715,
      "Ġkisiwa": 4716,
      "Ġsosai": 4717,
      "ĠSc": 4718,
      "Ġáį³áį": 4719,
      "ĠÃ¬á¹£áº¹": 4720,
      "oham": 4721,
      "Or": 4722,
      "tim": 4723,
      "cher": 4724,
      "ĠIndia": 4725,
      "Ġomi": 4726,
      "Ġjim": 4727,
      "ĠipÃ²": 4728,
      "Ġthan": 4729,
      "Ġpub": 4730,
      "Ġfound": 4731,
      "Ġcons": 4732,
      "Ġwhen": 4733,
      "ataifa": 4734,
      "áĮĪáĭį": 4735,
      "Ġbinc": 4736,
      "ĠAlakoso": 4737,
      "ĠáĮ¥áĬķáī³áĭĬ": 4738,
      "Ġ1986": 4739,
      "tical": 4740,
      "vir": 4741,
      "Ġmet": 4742,
      "48": 4743,
      "Ne": 4744,
      "hÃ¹n": 4745,
      "Ġagbegbe": 4746,
      "lem": 4747,
      "Ġkasuwanci": 4748,
      "Ġshida": 4749,
      "Ġ1985": 4750,
      "Ġitace": 4751,
      "uke": 4752,
      "ode": 4753,
      "Ġfo": 4754,
      "ĠIr": 4755,
      "eda": 4756,
      "ĠGa": 4757,
      "ĠáĬłáĪģáĬķ": 4758,
      "áĭ¨áī°": 4759,
      "ÆĻin": 4760,
      "ĠáīĢáĬĵáīµ": 4761,
      "ĠáĪŀáīµ": 4762,
      "Ġname": 4763,
      "ĠHispania": 4764,
      "ĠEthiopia": 4765,
      "ĠWaz": 4766,
      "ĠAcademy": 4767,
      "ĠSun": 4768,
      "áĮĪáĪª": 4769,
      "ĠáĭŃáĪĭáĪį": 4770,
      "Ġáĭ¨áĪĻ": 4771,
      "áĭ®áĪŃ": 4772,
      "ĠMarejeo": 4773,
      "sÃ¬kÃ²": 4774,
      "Ã¯": 4775,
      "ĠSw": 4776,
      "ours": 4777,
      "dáº¹": 4778,
      "áĪĽáī½": 4779,
      "Ġlafiya": 4780,
      "ĠFo": 4781,
      "Ġamb": 4782,
      "Ġ40": 4783,
      "rent": 4784,
      "Ġpartic": 4785,
      "Ġpili": 4786,
      "Ġ1966": 4787,
      "ĠComp": 4788,
      "ĠOba": 4789,
      "ĠáĭĵáĪĪáĪĿ": 4790,
      "ĠáīłáĬłáĬķáĭµ": 4791,
      "gawa": 4792,
      "ollow": 4793,
      "ĠKib": 4794,
      "dinin": 4795,
      "áĪŃáĪµáī²áĭ«": 4796,
      "ĠáįĵáĪŃáī²": 4797,
      "met": 4798,
      "Ġaj": 4799,
      "ilos": 4800,
      "ago": 4801,
      "Se": 4802,
      "ĠPeople": 4803,
      "gent": 4804,
      "ĠFI": 4805,
      "áĭĪáĪŃ": 4806,
      "Ġgrand": 4807,
      "Tarehe": 4808,
      "\")": 4809,
      "ĠMusa": 4810,
      "Ġcentury": 4811,
      "áįĦ": 4812,
      "Ġneman": 4813,
      "ĠMakar": 4814,
      "alth": 4815,
      "áĪĽáĪŃ": 4816,
      "ĠáĭĪáĪ¨": 4817,
      "áįĪáĪĪ": 4818,
      "áĭ®áĪµ": 4819,
      "inea": 4820,
      "áĪ»áĭİáī½": 4821,
      "ĠKwalejin": 4822,
      "ĠPaul": 4823,
      "ĠrÃ©gion": 4824,
      "kÃŃ": 4825,
      "Ġáīłáīµ": 4826,
      "Ġwrit": 4827,
      "áī³áī¸áĭįáĬķ": 4828,
      "ĠáĬłáĬķáĭ³": 4829,
      "Ġmiji": 4830,
      "zing": 4831,
      "Ġnu": 4832,
      "ister": 4833,
      "but": 4834,
      "áĪĵ": 4835,
      "áĪĪáī¥": 4836,
      "ĠNor": 4837,
      "áĭĭáīµ": 4838,
      "Ġpeut": 4839,
      "nia": 4840,
      "eria": 4841,
      "tiki": 4842,
      "riban": 4843,
      "Ġkwam": 4844,
      "ĠáĪĺáĬķáĮįáĪµáīµ": 4845,
      "ĠNijar": 4846,
      "ĠáĬłáĬ«áĪį": 4847,
      "37": 4848,
      "Ġmay": 4849,
      "ĠApril": 4850,
      "ĠJuly": 4851,
      "ĠÃ¬gbÃ©": 4852,
      "Ġmashariki": 4853,
      "ĠØ§ÙĦ": 4854,
      "ĠCap": 4855,
      "uman": 4856,
      "áĮ¹": 4857,
      "Ġdhidi": 4858,
      "áĮįáĪį": 4859,
      "áĮįáī£": 4860,
      "adio": 4861,
      "tÃłkÃ¬": 4862,
      "ĠÃģf": 4863,
      "cis": 4864,
      "||": 4865,
      "ĠYan": 4866,
      "2004": 4867,
      "Ġing": 4868,
      "Tangu": 4869,
      "ĠNÃŃ": 4870,
      "ĠHan": 4871,
      "ĠáĬ¥áĬķáĪµ": 4872,
      "Ġáī¥áĪĪáĭį": 4873,
      "Ġáĭ°áī¡áī¥": 4874,
      "ĠAdam": 4875,
      "áĬĵáĪįáī£áīµ": 4876,
      "áĮłáīĢáĪĿ": 4877,
      "Ġemp": 4878,
      "fen": 4879,
      "Ġmur": 4880,
      "other": 4881,
      "pÃ¨": 4882,
      "Ã¶": 4883,
      "Ġwao": 4884,
      "ĠolÃº": 4885,
      "ĠÆĻungiyar": 4886,
      "Ġkadhaa": 4887,
      "Ġáĭ¨áĬĲáīłáĪ¨áĭį": 4888,
      "amaduni": 4889,
      "let": 4890,
      "stit": 4891,
      "jÃ²": 4892,
      "Ġsasa": 4893,
      "Ġyaani": 4894,
      "Ġrashin": 4895,
      "áĪ«áĭį": 4896,
      "iongozi": 4897,
      "irefu": 4898,
      "áī»áĭŃáĬĵ": 4899,
      "ĠAnnabi": 4900,
      "ĠáĭŃáĪĺáĪµáĪĭáĪį": 4901,
      "zil": 4902,
      "2006": 4903,
      "Ġá¹¢": 4904,
      "ĠGwamn": 4905,
      "Ġá¹£Ã¹gbá»į": 4906,
      "áĪ©áĬķ": 4907,
      "áĭ¨áĪ±áĪµ": 4908,
      "ĠBay": 4909,
      "bia": 4910,
      "day": 4911,
      "ĠCharles": 4912,
      "áīº": 4913,
      "ĠmÃªme": 4914,
      "aso": 4915,
      "ĠIl": 4916,
      "áĪĮáĬŃáīµ": 4917,
      "ĠáĭµáĪĿ": 4918,
      "ĠáĬŃáĪįáĪį": 4919,
      "ĠáįĪáĪŃáĭĸ": 4920,
      "ĠÃģfrÃŃkÃł": 4921,
      "ĠMov": 4922,
      "ĠRic": 4923,
      "ĠJapani": 4924,
      "Ġpeople": 4925,
      "ĠJamhuri": 4926,
      "Ġdep": 4927,
      "Ġyears": 4928,
      "wiki": 4929,
      "Ġonly": 4930,
      "berg": 4931,
      "Wannan": 4932,
      "Ùı": 4933,
      "áī¼": 4934,
      "arab": 4935,
      "anzishwa": 4936,
      "ĠáĬķáĮīáĪµ": 4937,
      "Ġbayar": 4938,
      "assi": 4939,
      "owe": 4940,
      "ĠMor": 4941,
      "áĪįáĭ°": 4942,
      "ĠUk": 4943,
      "Ġosere": 4944,
      "pl": 4945,
      "Ġleur": 4946,
      "cia": 4947,
      "sÃł": 4948,
      "Ġmjini": 4949,
      "ĠSara": 4950,
      "áī¥áĭĻ": 4951,
      "Ġáĭ¨áĪļáĪį": 4952,
      "ĠáĪĨáĬĲáĭį": 4953,
      "Ġ1974": 4954,
      "Ġagb": 4955,
      "bihi": 4956,
      "Ġsoci": 4957,
      "ĠArab": 4958,
      "áĬ©áĪį": 4959,
      "áĮłáīĥáĪĭáĭŃ": 4960,
      "ĠÃ²á¹£erÃ©": 4961,
      "bit": 4962,
      "Ġmb": 4963,
      "ĠVol": 4964,
      "Â²": 4965,
      "ĠBorn": 4966,
      "Ġmilli": 4967,
      "Ġkuj": 4968,
      "áĬĲáīłáĪŃ": 4969,
      "ĠWe": 4970,
      "ĠYe": 4971,
      "ĠdÃ¡ra": 4972,
      "rench": 4973,
      "Ġmpya": 4974,
      "aman": 4975,
      "Ġreg": 4976,
      "Itokasi": 4977,
      "fara": 4978,
      "pÃ¹": 4979,
      "Ã©c": 4980,
      "gbÃ¬": 4981,
      "ĠLib": 4982,
      "ĠLugha": 4983,
      "Ġhawa": 4984,
      "Éĵa": 4985,
      "Ġáĭ¨áĪĿáīµ": 4986,
      "bÃłdÃłn": 4987,
      "ĠKu": 4988,
      "ĠGl": 4989,
      "anzibar": 4990,
      "ĠnÃ¬": 4991,
      "Ġ()": 4992,
      "irc": 4993,
      "áī³áĭ°": 4994,
      "entomon": 4995,
      "ÃŃnÃŃ": 4996,
      "ĠÆ´": 4997,
      "ography": 4998,
      "ross": 4999,
      "Ġ1978": 5000,
      "Ġ1965": 5001,
      "Ġwaka": 5002,
      "áĪįáīµ": 5003,
      "ĠáĪ³áĭŃáĪĨáĬķ": 5004,
      "Ġoffici": 5005,
      "cÃ©": 5006,
      "hes": 5007,
      "Ġdiv": 5008,
      "áĭ«áĭį": 5009,
      "ÃºsÃ¹": 5010,
      "Ġrap": 5011,
      "ĠáĬłáī£áĪį": 5012,
      "ĠáĪĺáĮ»": 5013,
      "áĪ«áĪµ": 5014,
      "ĠFM": 5015,
      "áī²áĬķ": 5016,
      "ĠÃłgbÃ©lÃ©wÃ²": 5017,
      "mai": 5018,
      "Ġind": 5019,
      "Ġconf": 5020,
      "ateur": 5021,
      "Kuna": 5022,
      "ãĥ": 5023,
      "ĠMiji": 5024,
      "Ġnaf": 5025,
      "Ġáīłáīħ": 5026,
      "ĠNuwa": 5027,
      "ĠAdÃ©": 5028,
      "hara": 5029,
      "Ġ%": 5030,
      "Ġdubu": 5031,
      "Ġbro": 5032,
      "Ġsaur": 5033,
      "ĠKit": 5034,
      "ĠSat": 5035,
      "abab": 5036,
      "ĠáĪĽáĪħ": 5037,
      "Ġkáº¹ta": 5038,
      "Ġtarihin": 5039,
      "Ġlitta": 5040,
      "Ġduring": 5041,
      "ĠSch": 5042,
      "over": 5043,
      "Ġop": 5044,
      "Ġrik": 5045,
      "Ġrub": 5046,
      "2003": 5047,
      "ĠAbubakar": 5048,
      "áī¬": 5049,
      "Ġtakar": 5050,
      "ĠCal": 5051,
      "ĠáĪĪáĭį": 5052,
      "áĮłáįĭ": 5053,
      "Ġáĭ¨áī°áĪĪáĭ«áĭ©": 5054,
      "ĠAlÃ¡": 5055,
      "Ġáī³áĪĭáīħ": 5056,
      "ctor": 5057,
      "Ġá»Įjá»į": 5058,
      "Ġtsawon": 5059,
      "vision": 5060,
      "âĢ¦": 5061,
      "ĠEmp": 5062,
      "lymp": 5063,
      "Ġ1950": 5064,
      "Ġutilis": 5065,
      "Manazarta": 5066,
      "via": 5067,
      "áĮ³": 5068,
      "ĠáĬĳ": 5069,
      "Ġtattalin": 5070,
      "Ġkina": 5071,
      "unda": 5072,
      "Ġáĭ¨áĭ°": 5073,
      "Ġgoma": 5074,
      "ĠnÃŃtorÃŃ": 5075,
      "Ġáī°áĬĲ": 5076,
      "ĠUmoja": 5077,
      "Ġ1981": 5078,
      "áĪĦáĭµ": 5079,
      "ĠáĪĽáĪµáī³áĭĪ": 5080,
      "ÃłÃłyÃ¨": 5081,
      "ĠMic": 5082,
      "ĠShi": 5083,
      "ĠBC": 5084,
      "ĠáĭĲ": 5085,
      "ĠJana": 5086,
      "Ġede": 5087,
      "limu": 5088,
      "Ġáĭ¨áĮĪ": 5089,
      "Ġojo": 5090,
      "Ġwurin": 5091,
      "ĠÃ¬wá»į": 5092,
      "Ġtofauti": 5093,
      "ĠalÃłÃłyÃ¨": 5094,
      "Ġconsi": 5095,
      "áĪĥáĬķ": 5096,
      "gbÃ¡yÃ©": 5097,
      "ĠáīłáĬ¥áĬķáĮįáĪĬáĭĿáĬĽ": 5098,
      "Ġlabarai": 5099,
      "ĠAtlan": 5100,
      "Ġimport": 5101,
      "01": 5102,
      "ĠÃª": 5103,
      "ĠPrin": 5104,
      "µáį": 5105,
      "ĠáĬłáĭµ": 5106,
      "ĠBank": 5107,
      "ĠÃ¬bÃŃláº¹": 5108,
      "áĪİáĬķ": 5109,
      "Ġkabisa": 5110,
      "Ġshirye": 5111,
      "Ġbakwai": 5112,
      "ĠpÃłtÃłkÃ¬": 5113,
      "Wakati": 5114,
      "ĠJi": 5115,
      "anyika": 5116,
      "hÃłn": 5117,
      "Ã¤": 5118,
      "ĠcrÃ©": 5119,
      "add": 5120,
      "umla": 5121,
      "ĠGáº¹": 5122,
      "lafa": 5123,
      "lished": 5124,
      "ĠIsland": 5125,
      "chaguzi": 5126,
      "yÃłwÃ³": 5127,
      "Ġbabbar": 5128,
      "39": 5129,
      "Ġainsi": 5130,
      "ĠEast": 5131,
      "nam": 5132,
      "ĠMk": 5133,
      "ĠkÃ¬": 5134,
      "áĪµáī±": 5135,
      "ingia": 5136,
      "áĭ¨áĭį": 5137,
      "ĠJune": 5138,
      "ĠFa": 5139,
      "ful": 5140,
      "ware": 5141,
      "Ġkumb": 5142,
      "ĠAhmad": 5143,
      "rÃ¹": 5144,
      "arr": 5145,
      "ĠáĪ©": 5146,
      "Ġkung": 5147,
      "Ġáīłáĭļáĭ«": 5148,
      "Ġnew": 5149,
      "ĠMaka": 5150,
      "áĮłáĪį": 5151,
      "ĠáĪĢáĮĪáĪŃ": 5152,
      "ukumbu": 5153,
      "win": 5154,
      "ches": 5155,
      "Mji": 5156,
      "áįįáĬĵ": 5157,
      "áīłáĪĮ": 5158,
      "papá»į": 5159,
      "ĠAbuja": 5160,
      "áĮ¥áĬķáī³áĭĬ": 5161,
      "tum": 5162,
      "ĠCha": 5163,
      "Ġ1971": 5164,
      "Ġkale": 5165,
      "Ã©tÃ©": 5166,
      "Ġtayi": 5167,
      "akini": 5168,
      "áĪ±áĬķ": 5169,
      "Ġmuda": 5170,
      "Ġmuhimu": 5171,
      "Ġhankali": 5172,
      "Ġmwanasiasa": 5173,
      "Ġáĭ¨áī°áī£áĪĪáĭį": 5174,
      ");": 5175,
      "ĠdÃł": 5176,
      "Ġ(\"": 5177,
      "ĠáĭŃáĭĪ": 5178,
      "Ġáĭ¨áĪĮ": 5179,
      "ariya": 5180,
      "áĬĲáīµáĬķ": 5181,
      "ĠáĭĻáĪªáĭ«": 5182,
      "Ġsystem": 5183,
      "ĠFir": 5184,
      "sÃ¨": 5185,
      "áĪŃáĪĭáĬķáĭµ": 5186,
      "áī¶áī¹": 5187,
      "Ġkasashen": 5188,
      "áĪ²áĬķ": 5189,
      "ĠáĬ¥áĮħáĮį": 5190,
      "Ġayyukan": 5191,
      "log": 5192,
      "ict": 5193,
      "istr": 5194,
      "Ġmik": 5195,
      "ĠPat": 5196,
      "Ġila": 5197,
      "Ġaina": 5198,
      "áĪŃáĮį": 5199,
      "ĠáĮĨ": 5200,
      "áīłáĭį": 5201,
      "áĬŃáĪĪ": 5202,
      "áĭ¨áĪĺ": 5203,
      "Ġá»ĮdÃºn": 5204,
      "áī¨áĪŃ": 5205,
      "pasáº¹": 5206,
      "cen": 5207,
      "http": 5208,
      "ĠáįĢ": 5209,
      "sÃ³": 5210,
      "áĭŃáĬĲáīµ": 5211,
      "Ġá»įká»į": 5212,
      "áĭĺáī¥": 5213,
      "ĠWakristo": 5214,
      "ating": 5215,
      "ĠGuinea": 5216,
      "Ġlui": 5217,
      "julo": 5218,
      "ojÃº": 5219,
      "áĬĲáīłáĪ¨": 5220,
      "ĠOpen": 5221,
      "áĬ¨áĪŃ": 5222,
      "áĬ«áī£áī¢": 5223,
      "ĠMayu": 5224,
      "Ġgwamnati": 5225,
      "ough": 5226,
      "ĠHo": 5227,
      "Ġcika": 5228,
      "Ġigb": 5229,
      "Ġinst": 5230,
      "áĪªáī³": 5231,
      "ĠáĬ«áĪį": 5232,
      "ĠolÃ³á¹£Ã¨lÃº": 5233,
      "Ġmilima": 5234,
      "Ġkimanin": 5235,
      "sib": 5236,
      "odo": 5237,
      "sociation": 5238,
      "ĠgÃ©nÃ©r": 5239,
      "oir": 5240,
      "galement": 5241,
      "ĠdÃº": 5242,
      "futa": 5243,
      "Ġ1977": 5244,
      "Ġmwisho": 5245,
      "ged": 5246,
      "Ġocc": 5247,
      "ella": 5248,
      "Ġred": 5249,
      "ĠDemoc": 5250,
      "Ġnasara": 5251,
      "Ġhili": 5252,
      "ĠSy": 5253,
      "tokana": 5254,
      "áĬŃáĪŃáĪµáī²áĭ«áĬķ": 5255,
      "ĠÃ¬l": 5256,
      "himman": 5257,
      "Ġmilioni": 5258,
      "ists": 5259,
      "85": 5260,
      "El": 5261,
      "wÃ¹": 5262,
      "wili": 5263,
      "ĠAwá»įn": 5264,
      "áĮĪáĬĽ": 5265,
      "ĠáĪĺáĪ¨áĮĥ": 5266,
      "ĠLou": 5267,
      "ĠLove": 5268,
      "ĠáĪĽáĮ£": 5269,
      "áī²áĬŃ": 5270,
      "ĠTurai": 5271,
      "Na": 5272,
      "ĠÃªtre": 5273,
      "lique": 5274,
      "Ġkirk": 5275,
      "daban": 5276,
      "binrin": 5277,
      "fuatana": 5278,
      "ient": 5279,
      "Ġ1973": 5280,
      "77": 5281,
      "Ġng": 5282,
      "''": 5283,
      "ĠáĬłáĬĲ": 5284,
      "áĭĺáĬķ": 5285,
      "ĠVer": 5286,
      "pokeo": 5287,
      "Ġ1964": 5288,
      "oko": 5289,
      "ĠGro": 5290,
      "Ġfus": 5291,
      "Ġ1962": 5292,
      "sp": 5293,
      "ĠowÃ³": 5294,
      "áĪ³áī°": 5295,
      "ĠGÃ³mÃ¬nÃł": 5296,
      "ĠáĭŃáī»": 5297,
      "ĠáīłáĪį": 5298,
      "ĠMaris": 5299,
      "áĪĪáī°áĬĽáĭį": 5300,
      "ĠáīłáĬ©áĪį": 5301,
      "Ã¡Ã¬sÃŃ": 5302,
      "46": 5303,
      "Ġmil": 5304,
      "itions": 5305,
      "áĬ½": 5306,
      "áĬĭáĪĭ": 5307,
      "áīµáĪĿ": 5308,
      "Ġbá»į": 5309,
      "áĭ«áĪµ": 5310,
      "Ġkuu": 5311,
      "ĠáĬ¥áĭµ": 5312,
      "ĠáĪĺáĪĪ": 5313,
      "Ġiá¹£": 5314,
      "ĠáĬ¥áĬķáĭ°áĪĨáĬĲ": 5315,
      "ĠapÃ¡": 5316,
      "ĠÆ³": 5317,
      "dÃŃnlÃ³gÃºn": 5318,
      "Â°": 5319,
      "49": 5320,
      "De": 5321,
      "Ġwhere": 5322,
      "ĠDavid": 5323,
      "áĬ¾": 5324,
      "ĠIjoba": 5325,
      "Ġmaana": 5326,
      "áī¸áĭĭáĪį": 5327,
      "ĠYoh": 5328,
      "Ġidan": 5329,
      "Ġáĭ¨áĪĨáĬĳ": 5330,
      "Ġterrit": 5331,
      "Ġáĭ©áĬĴ": 5332,
      "unis": 5333,
      "ondo": 5334,
      "Ġpartie": 5335,
      "Ġkusa": 5336,
      "ĠEk": 5337,
      "ught": 5338,
      "Ġanci": 5339,
      "aly": 5340,
      "adhim": 5341,
      "áī¥áĪĬáĬŃ": 5342,
      "ĠWatu": 5343,
      "Ġáĭ«áĪī": 5344,
      "Ġsakand": 5345,
      "Ġkumbukumbu": 5346,
      "lect": 5347,
      "Ġart": 5348,
      "71": 5349,
      "At": 5350,
      "Ġpu": 5351,
      "ĠChristi": 5352,
      "ĠIbrahim": 5353,
      "alled": 5354,
      "áĬķáĮ«": 5355,
      "Ġáĭ¨áĪĭ": 5356,
      "Ġdawo": 5357,
      "áīłáĬĽ": 5358,
      "áĪ«áĪĿ": 5359,
      "ĠGree": 5360,
      "Ġáī°áīĭ": 5361,
      "oss": 5362,
      "Ġthere": 5363,
      "áįĵáĬķáĭ«": 5364,
      "Ġáīłáĭ°áī¡áī¥": 5365,
      "Ð¸": 5366,
      "orÃŃ": 5367,
      "ikan": 5368,
      "ĠTV": 5369,
      "Ana": 5370,
      "79": 5371,
      "Ø¨": 5372,
      "alÃ¡Ã¬sÃŃ": 5373,
      "áĭ«áĭ«": 5374,
      "sive": 5375,
      "áīģáĪŃ": 5376,
      "Ġlilikuwa": 5377,
      "ĠFilm": 5378,
      "zation": 5379,
      "ried": 5380,
      "32": 5381,
      "Ġâ": 5382,
      "Ġlat": 5383,
      "velopment": 5384,
      "Ġwould": 5385,
      "dhi": 5386,
      "ving": 5387,
      "áĬ¡": 5388,
      "áĪĪáĭ°": 5389,
      "ĠáĪĺáĭĭ": 5390,
      "ĠÃ©galement": 5391,
      "Ġsune": 5392,
      "ĠáĬ«áĪĮ": 5393,
      "onekana": 5394,
      "Ġgroup": 5395,
      "gon": 5396,
      "ties": 5397,
      "imes": 5398,
      "Ġcontr": 5399,
      "araka": 5400,
      "ĠGar": 5401,
      "Awon": 5402,
      "Ġmirefu": 5403,
      "áĭĽáĪ¬": 5404,
      "abijin": 5405,
      "Ġwadda": 5406,
      "Ġsecond": 5407,
      "Ġnafasi": 5408,
      "Ġkin": 5409,
      "Ġjin": 5410,
      "Ġjus": 5411,
      "Ġ1963": 5412,
      "ek": 5413,
      "áĮ¼": 5414,
      "Ġwar": 5415,
      "áĬĲáī¶áī½": 5416,
      "ĠáĪĺáī¶": 5417,
      "áĮ¥áĪĿ": 5418,
      "ÆĻi": 5419,
      "áįĪáĬķ": 5420,
      "Ġáĭ¨áī°áĬŃáĪī": 5421,
      "áĪ©áĪĿ": 5422,
      "áī¢áīµ": 5423,
      "Ġ1969": 5424,
      "Ġhuu": 5425,
      "darÃŃ": 5426,
      "ĠIndiya": 5427,
      "Ġajili": 5428,
      "Ġ180": 5429,
      "Ġ1972": 5430,
      "ĠáīłáĬ¨": 5431,
      "áīĢáĪį": 5432,
      "ĠRepublic": 5433,
      "fore": 5434,
      "jÃ³": 5435,
      "Ġif": 5436,
      "abin": 5437,
      "ĠDr": 5438,
      "bele": 5439,
      "ÙĴ": 5440,
      "Ġer": 5441,
      "Ġmkoa": 5442,
      "esu": 5443,
      "Ġáĭ¨áįĸ": 5444,
      "Ġmapokeo": 5445,
      "Ġá»įba": 5446,
      "áĬłáĭŃ": 5447,
      "Ġthro": 5448,
      "Ġwalikuwa": 5449,
      "Ġmengine": 5450,
      "ĠTanbihi": 5451,
      "Ġtá»į": 5452,
      "áī³áī½áĬķ": 5453,
      "áĪĬáĭ®áĬķ": 5454,
      "Ġhizi": 5455,
      "áĭ°áĪ¨áĮī": 5456,
      "Ġrayuwar": 5457,
      "Ġmahaifin": 5458,
      "rad": 5459,
      "ĠFrench": 5460,
      "ĠUS": 5461,
      "Ġass": 5462,
      "Papa": 5463,
      "ĠdÃ©partement": 5464,
      "TA": 5465,
      "ĠBan": 5466,
      "ĠáĭŃáĮłáīĢ": 5467,
      "ĠáīłáĪ¨": 5468,
      "Ġiliy": 5469,
      "kuta": 5470,
      "ĠáĮĪáī¥": 5471,
      "ĠáĭĵáĪĺáī±": 5472,
      "Ġmiliyan": 5473,
      "ĠTarayyar": 5474,
      "Ð¾": 5475,
      "Ġalors": 5476,
      "conom": 5477,
      "=\"": 5478,
      "mÃ²": 5479,
      "Ġmch": 5480,
      "irÃŃ": 5481,
      "áĭµáĪµáīµ": 5482,
      "eder": 5483,
      "á¹£Ã²": 5484,
      "áįįáĪªáĬ«": 5485,
      "Ġegbe": 5486,
      "Ġbaadaye": 5487,
      "idayar": 5488,
      "áĬĳáĪµ": 5489,
      "áĮłáĪĭ": 5490,
      "ografia": 5491,
      "ĠMari": 5492,
      "ague": 5493,
      "ouver": 5494,
      "engo": 5495,
      "ĠFab": 5496,
      "Awá»įn": 5497,
      "áĭ£": 5498,
      "Ġáĭ±": 5499,
      "ĠkÃł": 5500,
      "ĠMer": 5501,
      "áĪĪáĭĭáĪį": 5502,
      "áĭ¨áĬłáĪ": 5503,
      "áīħáĪµ": 5504,
      "sÃŃtÃ¬": 5505,
      "Ġáĭ¨áĪ°áĭį": 5506,
      "ĠFIFA": 5507,
      "Ġtout": 5508,
      "Ġ1961": 5509,
      "Ġiki": 5510,
      "wal": 5511,
      "uniyar": 5512,
      "Ġáį«": 5513,
      "áĪªáīµ": 5514,
      "ĠáĬłáĪ°": 5515,
      "áĬ¨áĪ«": 5516,
      "ĠáīµáĪįáīħ": 5517,
      "áĬ¥áĮįáĭļáĬłáī¥áĪĶáĪŃ": 5518,
      "Ġkij": 5519,
      "Ġmarubu": 5520,
      "ĠáĪľáīµáĪŃ": 5521,
      "Ġfollow": 5522,
      "Ġhigh": 5523,
      "Ġtalla": 5524,
      "asashen": 5525,
      "ites": 5526,
      "Ġjeshi": 5527,
      "áĮĪáĬĲ": 5528,
      "ĠWá»į": 5529,
      "ĠÃ¬dÃ¡": 5530,
      "ĠáĪķáĭĿ": 5531,
      "Ġmany": 5532,
      "ĠáĪĺáĮłáĬķ": 5533,
      "Ġakoko": 5534,
      "ĠáįķáĪ¬áĭļ": 5535,
      "ald": 5536,
      "Ġbecame": 5537,
      "ĠâĢĶ": 5538,
      "assan": 5539,
      "Ġiwe": 5540,
      "kofu": 5541,
      "ĠáĭįáĮ¤": 5542,
      "ĠÃĮbÃłdÃłn": 5543,
      "Ġplay": 5544,
      "ĠáĪ¥áĪĭáĪ´": 5545,
      "Ġkáº¹rin": 5546,
      "ubuwan": 5547,
      "Ġpublic": 5548,
      "Ġgas": 5549,
      "ĠDen": 5550,
      "yota": 5551,
      "2007": 5552,
      "Ġáĭŀ": 5553,
      "ĠlÃ²": 5554,
      "ĠSin": 5555,
      "áī£áĪī": 5556,
      "gajiya": 5557,
      "áĪŀáīµ": 5558,
      "Ġanti": 5559,
      "Ġkofin": 5560,
      "Ġwengine": 5561,
      "86": 5562,
      "cle": 5563,
      "ĠZanzibar": 5564,
      "pindi": 5565,
      "Lakini": 5566,
      "Vi": 5567,
      "of": 5568,
      "Ġkundi": 5569,
      "ĠÃłÃł": 5570,
      "ĠlÃ¡báº¹": 5571,
      "2015": 5572,
      "áĬķáĭ³áĪŃ": 5573,
      "ĠáĮįáī¥áĮ½": 5574,
      "ĠáĭŃáī»áĪĭáĪį": 5575,
      "inal": 5576,
      "pace": 5577,
      "47": 5578,
      "ball": 5579,
      "mÃ©": 5580,
      "Åį": 5581,
      "unt": 5582,
      "Ġhilo": 5583,
      "ĠPak": 5584,
      "ĠJuli": 5585,
      "anne": 5586,
      "neo": 5587,
      "áĭķáĭĿ": 5588,
      "ĠSala": 5589,
      "áĬ¨áī°áĪĪáĭį": 5590,
      "ĠhaÉĹa": 5591,
      "Ġprincip": 5592,
      "ies": 5593,
      "Ġidi": 5594,
      "rodu": 5595,
      "hoto": 5596,
      "ĠAustralia": 5597,
      "ichael": 5598,
      "áĪµáī°áĬĽ": 5599,
      "Ġ(;": 5600,
      "ĠáĬ¨áĪĽ": 5601,
      "áĭ³áĮħ": 5602,
      "áĬłáĬķ": 5603,
      "ĠáĭµáĬķ": 5604,
      "kubali": 5605,
      "ities": 5606,
      "Ġayáº¹": 5607,
      "Ġelect": 5608,
      "ĠáĮ½áĪĳáįį": 5609,
      "wali": 5610,
      "Ġ--": 5611,
      "ple": 5612,
      "tali": 5613,
      "Ġend": 5614,
      "Ġlis": 5615,
      "Agbegbe": 5616,
      "ĠMy": 5617,
      "Ġgbe": 5618,
      "Ġgaban": 5619,
      "Ġip": 5620,
      "ayÃ©": 5621,
      "Ġvili": 5622,
      "ĠáĪĪáī°": 5623,
      "ĠáĬ¥áĬķáĭ°áī°": 5624,
      "ĠáīłáĪĺáĪĨáĬĳ": 5625,
      "ĠÆ³an": 5626,
      "Ġtatu": 5627,
      "zz": 5628,
      "esse": 5629,
      "ils": 5630,
      "áĪĪáĪģ": 5631,
      "elf": 5632,
      "Ġzake": 5633,
      "áĪ¥áī±": 5634,
      "ĠáĪħáĭĿáī¥": 5635,
      "Ġkabila": 5636,
      "áĮİáĪŃáĮİáĪŃ": 5637,
      "ĠUrusi": 5638,
      "89": 5639,
      "sim": 5640,
      "ĠMoham": 5641,
      "33": 5642,
      "ling": 5643,
      "ĠAj": 5644,
      "Ġhudu": 5645,
      "Ġhistoria": 5646,
      "áī½áĪį": 5647,
      "Ġnipa": 5648,
      "áĭ³áĬķáīµ": 5649,
      "áĬłáĪį": 5650,
      "ĠáĪµáĪĪáĭļáĪħ": 5651,
      "ĠYohane": 5652,
      "ĠMos": 5653,
      "ĠYoruba": 5654,
      "Ġpopulation": 5655,
      "hol": 5656,
      "ĠNo": 5657,
      "cul": 5658,
      "Ø¯": 5659,
      "ĠKasa": 5660,
      "ÃºÃºsÃ¹": 5661,
      "ĠSah": 5662,
      "ĠáĬłáī£áīµ": 5663,
      "Ġambako": 5664,
      "ĠIbile": 5665,
      "Ġzilizo": 5666,
      "Ġhakan": 5667,
      "áĬ³áĬķ": 5668,
      "ĠáĪĿáĬķáĮŃ": 5669,
      "Ġáĭ¨áĪĺáĮĢáĪĺáĪªáĭ«áĭį": 5670,
      "Ġmfano": 5671,
      "Ġtabb": 5672,
      "ĠáĭµáĪŃáĮħáīµ": 5673,
      "Mar": 5674,
      "Ġwu": 5675,
      "ĠSu": 5676,
      "Ġmaa": 5677,
      "ĠKai": 5678,
      "ĠUmar": 5679,
      "ourt": 5680,
      "áī§": 5681,
      "Ġcity": 5682,
      "alement": 5683,
      "ĠKin": 5684,
      "ĠáĬłáĭ¨áĪŃ": 5685,
      "áī£áī¥": 5686,
      "ĠJo": 5687,
      "Ġáĭ¨áĬĸ": 5688,
      "ĠáĬŃáĪŃáĪµáī¶áĪµ": 5689,
      "abiwa": 5690,
      "ĠáįĬáĭ°áĪį": 5691,
      "ĠáĪ«áĪµ": 5692,
      "ĠMagharibi": 5693,
      "ĠSci": 5694,
      "ĠBi": 5695,
      "Ġinv": 5696,
      "ĠWomen": 5697,
      "Ġlik": 5698,
      "Ġ1957": 5699,
      "onne": 5700,
      "áĮ¾": 5701,
      "ĠMkuu": 5702,
      "Ġjimbo": 5703,
      "áĪĭáĬķ": 5704,
      "ĠLu": 5705,
      "ĠáīłáĪĨ": 5706,
      "áĬ¨áī¥": 5707,
      "ako": 5708,
      "áĭĽáĭĿ": 5709,
      "ĠáĬłáĭŃáĭ°áĪĪáĪĿ": 5710,
      "ĠHukumar": 5711,
      "Ġlater": 5712,
      "ĠÃ©c": 5713,
      "Ġsig": 5714,
      "NA": 5715,
      "gra": 5716,
      "irgin": 5717,
      "ĠTar": 5718,
      "ĠáīłáĪ«": 5719,
      "Ġasali": 5720,
      "anzisha": 5721,
      "áĮ¡áīµ": 5722,
      "ĠEnugu": 5723,
      "hudi": 5724,
      "ĠáĬłáĬķáĭ³áĬķáĭµ": 5725,
      "tÃ¡": 5726,
      "Ã©rÃ©": 5727,
      "Ġpi": 5728,
      "ĠoÃ¹": 5729,
      "ĠBello": 5730,
      "BA": 5731,
      "nes": 5732,
      "Ġkare": 5733,
      "ames": 5734,
      "Ġjá»į": 5735,
      "áĬĿáĬĲáīµ": 5736,
      "ĠáīģáĮ¥": 5737,
      "amment": 5738,
      "ĠBas": 5739,
      "Ġ1968": 5740,
      "sions": 5741,
      "áĪįáĬķ": 5742,
      "ĠSikukuu": 5743,
      "áĪ«áĬ¤áĪį": 5744,
      "áīłáĪ¬": 5745,
      "áĭĿáĪĽáī½": 5746,
      "Ġkowa": 5747,
      "try": 5748,
      "ĠáĬłáĪĿáĪĭáĬŃ": 5749,
      "Ġmot": 5750,
      "ney": 5751,
      "Jina": 5752,
      "áĪŃáĬķ": 5753,
      "áĪµáī¶": 5754,
      "ombo": 5755,
      "ĠÃłjá»į": 5756,
      "Ġmahali": 5757,
      "ĠPo": 5758,
      "Ġgbá»į": 5759,
      "Ġhuadhim": 5760,
      "ĠáĬ¨áī°áĪĽáĭį": 5761,
      "ĠáīłáĪĻáĪī": 5762,
      "Ġmnamo": 5763,
      "van": 5764,
      "isme": 5765,
      "ii": 5766,
      "Ġcompos": 5767,
      "fiki": 5768,
      "wun": 5769,
      "ĠKale": 5770,
      "ĠáĪĺáĪ³": 5771,
      "ĠáĪĺáĮ¥": 5772,
      "áīłáī³áĪį": 5773,
      "ĠáĬ¨áĪ°": 5774,
      "ĠGold": 5775,
      "ĠtÃŃtÃŃ": 5776,
      "áĬ«áī³": 5777,
      "ĠáĬ¥áĬķáĭ°áĮĪáĬĵ": 5778,
      "Ġabinci": 5779,
      "Ġhannu": 5780,
      "ĠáĪĽáĪŃáīĨáĪµ": 5781,
      "ĠLab": 5782,
      "ĠInd": 5783,
      "42": 5784,
      "Ġlead": 5785,
      "mb": 5786,
      "Ġsáº¹": 5787,
      "áĭ«áĭĿ": 5788,
      "ĠÆĻidayar": 5789,
      "ĠáīłáĬ¢": 5790,
      "ĠShug": 5791,
      "Ġtrad": 5792,
      "ĠáĬ«áĪĮáĬķáĭ³áĪŃ": 5793,
      "ES": 5794,
      "ictor": 5795,
      "Ġstate": 5796,
      "line": 5797,
      "Ġkoloni": 5798,
      "Ġbikin": 5799,
      "ĠCibiyar": 5800,
      "ĠRiver": 5801,
      "áīĭáĬķáīĭ": 5802,
      "áĬķáĭ³áĬķáĭµ": 5803,
      "fÃ¡sÃŃtÃ¬": 5804,
      "áĮİáĪŃáĮİáĪŃáĭ«áĬķ": 5805,
      "volution": 5806,
      "zarin": 5807,
      "amia": 5808,
      "Ġ1959": 5809,
      "ĠSoci": 5810,
      "rian": 5811,
      "ĠáĪĺáĮ£": 5812,
      "áĪŀáĬŃ": 5813,
      "2016": 5814,
      "ĠáįķáĪ®": 5815,
      "áĮ£áĪįáĭ«áĬķ": 5816,
      "Waliozaliwa": 5817,
      "ĠHotuna": 5818,
      "ĠáīłáĪ½áī³": 5819,
      "ĠMakarantar": 5820,
      "ĠNuwamba": 5821,
      "ĠáĪĽáĮ£áīĢ": 5822,
      "ishin": 5823,
      "Ġ1945": 5824,
      "abaki": 5825,
      "ĠáĬĹ": 5826,
      "Ġlina": 5827,
      "áĪįáĮħ": 5828,
      "Ġoko": 5829,
      "Ã¬wÃ©": 5830,
      "Ġáī°áĬĵ": 5831,
      "ĠdÃ©velop": 5832,
      "Ġ1952": 5833,
      "ĠhaÉĹin": 5834,
      "Ġdisc": 5835,
      "zed": 5836,
      "Î±": 5837,
      "ĠNews": 5838,
      "74": 5839,
      "ĠáĪİ": 5840,
      "áĪįáįį": 5841,
      "áī°áĬĽáĭį": 5842,
      "áĪĺáĪ«": 5843,
      "áĪ«áĪ½": 5844,
      "ĠAfril": 5845,
      "áĪµáīµáĬĵ": 5846,
      "ĠgboyÃ¨": 5847,
      "Ġibile": 5848,
      "Î¿": 5849,
      "ĠMali": 5850,
      "Ġfut": 5851,
      "Ġsara": 5852,
      "ishe": 5853,
      "ĠAbi": 5854,
      "Ġindi": 5855,
      "ĠyÃłn": 5856,
      "iction": 5857,
      "ĠMuhammadu": 5858,
      "Ġmt": 5859,
      "Ġáīłáįį": 5860,
      "Ġkuk": 5861,
      "ĠRoman": 5862,
      "ĠáĪĿáĬĵáĪįáī£áīµ": 5863,
      "áĮİáĬķ": 5864,
      "áĬłáĪĿ": 5865,
      "ĠáĬłáĪĪáĪĿ": 5866,
      "ambia": 5867,
      "jÃ¡de": 5868,
      "áĭ³áĬķáĭ±": 5869,
      "Ġpremier": 5870,
      "ĠOrÃŃláº¹": 5871,
      "áĭ®áĪŃáĮĬ": 5872,
      "estiv": 5873,
      "ĠMt": 5874,
      "ords": 5875,
      "Ðµ": 5876,
      "Ġalb": 5877,
      "ĠtÃ¬": 5878,
      "akati": 5879,
      "ident": 5880,
      "áĭ´áīµ": 5881,
      "ĠBorno": 5882,
      "55": 5883,
      "ĠAba": 5884,
      "ural": 5885,
      "ĠOlymp": 5886,
      "ĠJoseph": 5887,
      "ratic": 5888,
      "tes": 5889,
      "áĪįáīģ": 5890,
      "áĪµáĪĿ": 5891,
      "Ġchi": 5892,
      "omina": 5893,
      "ious": 5894,
      "Ġaddinin": 5895,
      "Ġáīłáī¥áĭĽáīµ": 5896,
      "ayensi": 5897,
      "kamakon": 5898,
      "kur": 5899,
      "sance": 5900,
      "ĠIV": 5901,
      "app": 5902,
      "maji": 5903,
      "áī½áĪģ": 5904,
      "ĠWam": 5905,
      "Ġáīµáĭį": 5906,
      "ĠáĪįáĭ°áīµ": 5907,
      "ĠwÃ¡yÃ©": 5908,
      "Ġáĭ¨áīĢáĬķ": 5909,
      "Ġáĭ¨áĭĵáĪĪáĪĿ": 5910,
      "Ge": 5911,
      "To": 5912,
      "ĠKÃ¡": 5913,
      "tains": 5914,
      "ĠQue": 5915,
      "hÃ¬n": 5916,
      "Ġ<": 5917,
      "irika": 5918,
      "Ġjinsi": 5919,
      "áĮĪáīµ": 5920,
      "ĠÃ¬rÃ²yÃ¬n": 5921,
      "ĠDunia": 5922,
      "Ġáī°áĭĭ": 5923,
      "áīłáĪ°": 5924,
      "áĪ¥áĪ«áīħ": 5925,
      "obe": 5926,
      "ĠáįĪáĪ¨áĬķ": 5927,
      "áĬªáĭ«": 5928,
      "ĠlÃ³rÃŃláº¹": 5929,
      "ĠAustria": 5930,
      "Ġgege": 5931,
      "akatifu": 5932,
      "CC": 5933,
      "ĠMaria": 5934,
      "ĠBlack": 5935,
      "oly": 5936,
      "stitute": 5937,
      "38": 5938,
      "vice": 5939,
      "¹áį": 5940,
      "ºáį": 5941,
      "Ġtiti": 5942,
      "ĠáĪ¹": 5943,
      "ĠMw": 5944,
      "hiyar": 5945,
      "âĢľ": 5946,
      "ĠáīłáĪķ": 5947,
      "áīłáĪī": 5948,
      "Ġkanta": 5949,
      "jáº¹s": 5950,
      "ĠannÃ©es": 5951,
      "aimakin": 5952,
      "ĠnÃ©": 5953,
      "agen": 5954,
      "ĠDelta": 5955,
      "ĠtrÃ¨s": 5956,
      "jwa": 5957,
      "Ġchar": 5958,
      "ĠáīłáĮİáĪŃáĮİáĪŃáĭ«áĬķ": 5959,
      "ĠIsa": 5960,
      "Ġmaisha": 5961,
      "ĠáĭµáĬķáĮĭ": 5962,
      "ĠáĬłáĮĪáĪ«áīµ": 5963,
      "Ka": 5964,
      "kta": 5965,
      "ieurs": 5966,
      "formation": 5967,
      "vis": 5968,
      "Ġáĭ¨áī¥": 5969,
      "Ġgwa": 5970,
      "ĠSak": 5971,
      "eland": 5972,
      "ĠyÃł": 5973,
      "ĠGen": 5974,
      "áĭĪáĪ¨": 5975,
      "Ġeyi": 5976,
      "ĠáĪįáī¥": 5977,
      "ĠÉĹa": 5978,
      "ĠJean": 5979,
      "Ġcalled": 5980,
      "ual": 5981,
      "amani": 5982,
      "illes": 5983,
      "ird": 5984,
      "ĠKais": 5985,
      "atique": 5986,
      "Ġ1958": 5987,
      "Ġ~": 5988,
      "Ġáĭ¨áĪŀ": 5989,
      "áĭĺáĪĺ": 5990,
      "ĠArt": 5991,
      "ĠKaramar": 5992,
      "ĠáĪĽáĪµáī³áĭĪáĪ»áĭİáī½": 5993,
      "ĠRobert": 5994,
      "ĠOff": 5995,
      "geme": 5996,
      "áĬĲáī±áĬķ": 5997,
      "ĠPop": 5998,
      "áĪ³áĬķ": 5999,
      "Ġá»įlá»į": 6000,
      "Ġáĭ¨áĬ®": 6001,
      "Ġalipo": 6002,
      "áĭ«áĬķáĭ³áĬķáĭ±": 6003,
      "ĠáĬŃáįįáĪİáī½": 6004,
      "Ġáĭ¨áĪļáĭ«áĪµ": 6005,
      "Ġwatakatifu": 6006,
      "umiwa": 6007,
      "Ġkimataifa": 6008,
      "Mu": 6009,
      "sar": 6010,
      "sÃ¡": 6011,
      "kam": 6012,
      "andan": 6013,
      "Ġresp": 6014,
      "Ġces": 6015,
      "Ġáī¶": 6016,
      "Ġáĭ¨áĮ¥": 6017,
      "ĠáĮ«": 6018,
      "ĠjÃ©": 6019,
      "ĠBest": 6020,
      "Ġkawo": 6021,
      "áĭĵáĬķ": 6022,
      "ories": 6023,
      "Ġrawar": 6024,
      "Ġáĭ³áĪŃ": 6025,
      "Ġcheo": 6026,
      "Ġelle": 6027,
      "row": 6028,
      "Ġada": 6029,
      "Ġwit": 6030,
      "taka": 6031,
      "ayya": 6032,
      "Ġreli": 6033,
      "ĠoyÃ¨": 6034,
      "ĠáĮ³": 6035,
      "ĠáĬłáī¶": 6036,
      "ĠáĪĽáĪŃáĭ«áĪĿ": 6037,
      "ester": 6038,
      "áī¦áīµ": 6039,
      "tÃº": 6040,
      "Åĵ": 6041,
      "ĠCat": 6042,
      "ĠAlexander": 6043,
      "¸áį": 6044,
      "áī¾": 6045,
      "Ġnasar": 6046,
      "Ġáĭ¨áĪĪáĭį": 6047,
      "ĠáĬ¨áĪģ": 6048,
      "angue": 6049,
      "Ġáī¥áĭĽáīµ": 6050,
      "Ġthree": 6051,
      "Ġkusan": 6052,
      "---": 6053,
      "áĮĪáĪªáī±": 6054,
      "Ko": 6055,
      "Ùĩ": 6056,
      "odes": 6057,
      "Ġ60": 6058,
      "sen": 6059,
      "ĠIsra": 6060,
      "attle": 6061,
      "owever": 6062,
      "Ġmmoja": 6063,
      "áĪĪáĪĺ": 6064,
      "áĪ³áĪ³áĭŃ": 6065,
      "áĬłáīµ": 6066,
      "Ġkawai": 6067,
      "Ġmuziki": 6068,
      "ĠáĭĿáĪŃáĭ«": 6069,
      "Ġjamii": 6070,
      "Ġáī¡áĭµáĬķ": 6071,
      "Ġzinazo": 6072,
      "Ġgargajiya": 6073,
      "ĠáĪĪáĪĿáĪ³áĪĮ": 6074,
      "ĠIlimi": 6075,
      "zon": 6076,
      "ined": 6077,
      "ente": 6078,
      "ĠÂ»,": 6079,
      "ĠKingdom": 6080,
      "áĬķáĪ³áĭĬ": 6081,
      "ĠPres": 6082,
      "Ġ2091": 6083,
      "ĠOlÃº": 6084,
      "ĠáĭĪáĪįáĭ°": 6085,
      "safa": 6086,
      "ĠzaÉĵ": 6087,
      "Ġonimo": 6088,
      "ĠáĬ¥áĬķáĭ²áĭ«": 6089,
      "AC": 6090,
      "ribu": 6091,
      "Ġuse": 6092,
      "by": 6093,
      "tÃºn": 6094,
      "ville": 6095,
      "ĠMs": 6096,
      "Ãºpá»į": 6097,
      "Ġkuf": 6098,
      "lewa": 6099,
      "angwa": 6100,
      "tÃłgÃ©": 6101,
      "Ġgwamnan": 6102,
      "Ġáī¢áĪĨáĬķáĪĿ": 6103,
      "72": 6104,
      "ĠBook": 6105,
      "88": 6106,
      "ĠAth": 6107,
      "ĠWal": 6108,
      "ects": 6109,
      "historia": 6110,
      "arar": 6111,
      "áĬķáĭ¶": 6112,
      "Ġworld": 6113,
      "Ġrangi": 6114,
      "Ġáĭ¨áĬ¦": 6115,
      "Ġpeu": 6116,
      "LÃ¡": 6117,
      "Par": 6118,
      "ĠCong": 6119,
      "hip": 6120,
      "Ġast": 6121,
      "Ġáĭ¨áĭ«": 6122,
      "ĠOf": 6123,
      "Ġáĭĺáĭ´": 6124,
      "Ġá»Įba": 6125,
      "Ġwenyewe": 6126,
      "usin": 6127,
      "emo": 6128,
      "ĠJama": 6129,
      "gyp": 6130,
      "Ġfur": 6131,
      "ĠRed": 6132,
      "):": 6133,
      "Ġnde": 6134,
      "Ġáĭ¨áīĨ": 6135,
      "áĪµáĪĽ": 6136,
      "ikisho": 6137,
      "ĠWilaya": 6138,
      "Ġáī°áīĥ": 6139,
      "abawa": 6140,
      "Ġyanki": 6141,
      "ĠMex": 6142,
      "ĠáĮłáīħ": 6143,
      "ĠRoyal": 6144,
      "áī¥áĪ«áĭŃ": 6145,
      "Ġáĭ¨áĭįáĮŃ": 6146,
      "Ġdirect": 6147,
      "áĪĮáĬŃáīµáĪªáĬŃ": 6148,
      "estival": 6149,
      "view": 6150,
      "Ġfon": 6151,
      "ĠBrazil": 6152,
      "gÃ³": 6153,
      "Ġapa": 6154,
      "ĠÃłgbÃ¡yÃ©": 6155,
      "elon": 6156,
      "Ġipo": 6157,
      "olowo": 6158,
      "ĠUt": 6159,
      "Ġáīłáī°áĮ¨áĪĽáĪª": 6160,
      "áĪĲáįĬ": 6161,
      "Ġambapo": 6162,
      "áĪŃáĪ±áĪĿ": 6163,
      "jáº¹sÃ¡ra": 6164,
      "99": 6165,
      "186": 6166,
      "ĠKal": 6167,
      "Ġtaken": 6168,
      "Ġsans": 6169,
      "áĪŃáī±": 6170,
      "ament": 6171,
      "Ġáĭ¨áĪĢ": 6172,
      "ĠáĪĪáĬ¥": 6173,
      "áĪĻáīµ": 6174,
      "ĠáĮĪáĭ°": 6175,
      "ĠáĬĥáĭŃáĪĪ": 6176,
      "ĠáĭľáĬĵ": 6177,
      "rist": 6178,
      "Ġani": 6179,
      "Ġfili": 6180,
      "ning": 6181,
      "ĠFin": 6182,
      "Ġnumber": 6183,
      "Lugha": 6184,
      "xim": 6185,
      "áĪŃáī£": 6186,
      "ĠAkin": 6187,
      "ĠAwon": 6188,
      "Ġgari": 6189,
      "ĠáĬłáīħ": 6190,
      "ĠáĪĺáĪ¬áīµ": 6191,
      "ĠCO": 6192,
      "ĠáĬ¨áĪĮ": 6193,
      "Ġinay": 6194,
      "ĠáĭŃáĪĦ": 6195,
      "áĬ¨áĭļáĭ«": 6196,
      "Ġáĭ¨áĪļáī³áĭĪ": 6197,
      "ĠáĮįáĭĽ": 6198,
      "ĠáĮĪáĬķ": 6199,
      "ĠKijerumani": 6200,
      "Ġayáº¹yáº¹": 6201,
      "73": 6202,
      "2014": 6203,
      "56": 6204,
      "sy": 6205,
      "Ġ(Â«": 6206,
      "uct": 6207,
      "Ġmtu": 6208,
      "ĠMont": 6209,
      "ĠáĬ¥áĬĶ": 6210,
      "Ġjo": 6211,
      "ĠNollywood": 6212,
      "imba": 6213,
      "2009": 6214,
      "kwas": 6215,
      "pindu": 6216,
      "Ġká»įkÃłn": 6217,
      "ridge": 6218,
      "ĠáĪĺáĮ»áĪķ": 6219,
      "Ġru": 6220,
      "uses": 6221,
      "ĠBau": 6222,
      "endant": 6223,
      "Ġ1956": 6224,
      "Ġren": 6225,
      "Ġáĭ¨áĬŃ": 6226,
      "áĬ«áĪĿ": 6227,
      "Ġáī£áĪį": 6228,
      "Ġimani": 6229,
      "ĠáĬ¥áĬķáĮįáĪĬáĭĿáĬĽ": 6230,
      "gbÃ¬má»į": 6231,
      "hesabiwa": 6232,
      "eu": 6233,
      "Ġaure": 6234,
      "Ġsal": 6235,
      "assa": 6236,
      "ĠTai": 6237,
      "John": 6238,
      "Ray": 6239,
      "fá»į": 6240,
      "uel": 6241,
      "vin": 6242,
      "ĠMpaka": 6243,
      "Ġosu": 6244,
      "Ġgur": 6245,
      "áīłáīħ": 6246,
      "áĭ¨áĪļ": 6247,
      "áĭĺáĭį": 6248,
      "áĭĽáĬĽáĭį": 6249,
      "ĠáĪµáĪĪáĪļ": 6250,
      "Ġkyautar": 6251,
      "ĠBiranen": 6252,
      "ĠáĪĺáĪįáĬŃáĭĵ": 6253,
      "ker": 6254,
      "Ġmade": 6255,
      "Ġ2021": 6256,
      "âĢĶ": 6257,
      "gani": 6258,
      "Ġmambo": 6259,
      "Ġband": 6260,
      "2010": 6261,
      "PC": 6262,
      "kw": 6263,
      "kiya": 6264,
      "Ġmen": 6265,
      "irun": 6266,
      "áĬĵáĭŃáīµ": 6267,
      "áī°áīµ": 6268,
      "áĭµáĪ¨áĪµ": 6269,
      "Ġmain": 6270,
      "ĠPal": 6271,
      "ĠáĬłáĪħ": 6272,
      "harar": 6273,
      "Ġáĭ¨áī°áĪĺ": 6274,
      "ĠáīĢáĭ³": 6275,
      "engene": 6276,
      "ĠáĪĻáĪī": 6277,
      "Ġwakifuata": 6278,
      "ĠSalaam": 6279,
      "%)": 6280,
      "cil": 6281,
      "Ġsay": 6282,
      "aika": 6283,
      "depend": 6284,
      "Ġearly": 6285,
      "ministr": 6286,
      "cal": 6287,
      "áĭµáĬĵ": 6288,
      "chungu": 6289,
      "Ġuishe": 6290,
      "Ġarziki": 6291,
      "Ġshari": 6292,
      "Ġabáº¹": 6293,
      "Ġphilos": 6294,
      "ĠáĬĥáĭŃáĪį": 6295,
      "fuatwa": 6296,
      "ĠDisamba": 6297,
      "Ġhuadhimisha": 6298,
      "ĠWh": 6299,
      "tein": 6300,
      "ĠCa": 6301,
      "Ġprop": 6302,
      "jÃ¹": 6303,
      "ĠpÃłÃ¡": 6304,
      "ĠfÃ¬": 6305,
      "ĠSing": 6306,
      "ushe": 6307,
      "ĠIá¹£áº¹": 6308,
      "ĠÃ¬p": 6309,
      "áĬ¨áī³": 6310,
      "áīłáĪ³": 6311,
      "fawa": 6312,
      "Ġami": 6313,
      "áĬĳáĬķ": 6314,
      "áįĭáĪį": 6315,
      "áĭįáĬķáīµ": 6316,
      "alafu": 6317,
      "ĠSoko": 6318,
      "NÃŃgbÃł": 6319,
      "ĠáĬłáĮĪáĪ®áī½": 6320,
      "Ġtakriban": 6321,
      "Ġáī¥áĪĶáĪ«áĭĬ": 6322,
      "ababisha": 6323,
      "kÃ©": 6324,
      "Ġpuis": 6325,
      "Ġenc": 6326,
      "kiyar": 6327,
      "urt": 6328,
      "ĠáĬ¥áĮįáĭļáĬłáī¥áĪĶáĪŃ": 6329,
      "áĮĪáī¡": 6330,
      "uter": 6331,
      "ĠOmo": 6332,
      "áīĢáĭµáĪŀ": 6333,
      "ĠYo": 6334,
      "Ġzao": 6335,
      "Ġáĭ¨áī°áįĪ": 6336,
      "Ġkoyar": 6337,
      "Ġáī£áĭŃ": 6338,
      "Ġyanayin": 6339,
      "fofin": 6340,
      "ĠArewacin": 6341,
      "áĭ°áĪ¨áĮĪáĭį": 6342,
      "ÃĴun": 6343,
      "Ġzinabaki": 6344,
      "ĠáĭĪáĭŃáĬķáĪĿ": 6345,
      "ĠáīĢáĮ¥áĪİ": 6346,
      "ator": 6347,
      "ĠCali": 6348,
      "ĠHigh": 6349,
      "otes": 6350,
      "mark": 6351,
      "ĠPakistan": 6352,
      "Ġtri": 6353,
      "amban": 6354,
      "omp": 6355,
      "áī¥áĬķ": 6356,
      "áīłáīĥ": 6357,
      "ices": 6358,
      "ĠGod": 6359,
      "ĠLo": 6360,
      "áĭĪáīħ": 6361,
      "teur": 6362,
      "áīłáĪµ": 6363,
      "Ġkwenda": 6364,
      "ĠÃ²á¹£Ã¨lÃº": 6365,
      "Ġyammacin": 6366,
      "Ġbeing": 6367,
      "pedia": 6368,
      "rim": 6369,
      "ĠNg": 6370,
      "Ġprogram": 6371,
      "ĠGeorg": 6372,
      "Ġur": 6373,
      "ĠAct": 6374,
      "Ġham": 6375,
      "áĮĪáĪ«áīµ": 6376,
      "áĬŃáĬķ": 6377,
      "ĠLim": 6378,
      "ĠHistory": 6379,
      "iriwa": 6380,
      "áĪĪáĪĿáĪ³áĪĮ": 6381,
      "áĪ¸áĬĲ": 6382,
      "Ġndogo": 6383,
      "Ġtaron": 6384,
      "ĠáĪĽáĮ£áīĢáĪ»": 6385,
      "Ġsign": 6386,
      "atini": 6387,
      "Ġport": 6388,
      "Ġwell": 6389,
      "ĠLiber": 6390,
      "ederal": 6391,
      "ĠdiffÃ©r": 6392,
      "nÃº": 6393,
      "Ġmsha": 6394,
      "Ġlors": 6395,
      "Ġmakuu": 6396,
      "aract": 6397,
      "Ġáįİ": 6398,
      "ĠáĭŃáĭ©": 6399,
      "dÃŃnlá»į": 6400,
      "ĠKaisari": 6401,
      "43": 6402,
      "cs": 6403,
      "istori": 6404,
      "ĠWil": 6405,
      "ogin": 6406,
      "ĠStudi": 6407,
      "ĠdÃ¬": 6408,
      "áĬķáī³": 6409,
      "ĠpÃ¡": 6410,
      "ĠTer": 6411,
      "Ġkashe": 6412,
      "wÃ²rÃ¡n": 6413,
      "ĠFabra": 6414,
      "96": 6415,
      "can": 6416,
      "ĠMary": 6417,
      "Ġsuc": 6418,
      "ĠMusic": 6419,
      "TV": 6420,
      "gine": 6421,
      "ube": 6422,
      "ifa": 6423,
      "Ġmpaka": 6424,
      "Ġáĭ¨áįĪ": 6425,
      "ĠÃłá¹£Ãł": 6426,
      "áīħáĭ«": 6427,
      "áĬłáĬķáĭµ": 6428,
      "rÃŃwÃ¡": 6429,
      "ĠáĮ¥áĪ©": 6430,
      "áĬĺáīµ": 6431,
      "Ġáī£áĪħáĪŃ": 6432,
      "Ġtalabijin": 6433,
      "kia": 6434,
      "llo": 6435,
      "Ġsen": 6436,
      "BÃŃ": 6437,
      "bon": 6438,
      "bÃ©": 6439,
      "áĬĵáĮĪ": 6440,
      "áĮįáī£áĪŃ": 6441,
      "ĠáīłáĪħ": 6442,
      "ivyo": 6443,
      "Ġkabla": 6444,
      "ĠáĬłáįįáĪªáĬ«": 6445,
      "Ġsamo": 6446,
      "antes": 6447,
      "03": 6448,
      "las": 6449,
      "haji": 6450,
      "zim": 6451,
      "Ġneno": 6452,
      "ĠSom": 6453,
      "Ġtakwas": 6454,
      "ĠDu": 6455,
      "áĪªáĪµ": 6456,
      "akana": 6457,
      "Ġkarshe": 6458,
      "ĠInstitute": 6459,
      "rise": 6460,
      "áĬ®áīµ": 6461,
      "ĠáīłáĪĽáĪĪáīµ": 6462,
      "wiwa": 6463,
      "Ġmakabila": 6464,
      "41": 6465,
      "mis": 6466,
      "atre": 6467,
      "ĠGirl": 6468,
      "ĠSudan": 6469,
      "huwa": 6470,
      "Ġdro": 6471,
      "icin": 6472,
      "undu": 6473,
      "Ġ1940": 6474,
      "ĠPoland": 6475,
      "Ġmemba": 6476,
      "áĪŃáī¶": 6477,
      "Ġdamar": 6478,
      "Ġnigba": 6479,
      "Ġeto": 6480,
      "Ġkashi": 6481,
      "áĭ©áĪµ": 6482,
      "áĮ«áĭĪ": 6483,
      "ĠáĪ³áĭŃáĬķáĪ³áĭĬ": 6484,
      "kÃ¡láº¹": 6485,
      "ĠáįĸáĪĪáī²áĬ«": 6486,
      "Wakristo": 6487,
      "ĠÃ©tait": 6488,
      "áī¥áĪ«áĭŃáĪµáĮ¥": 6489,
      "ico": 6490,
      "atia": 6491,
      "anai": 6492,
      "Ġlim": 6493,
      "Ġtura": 6494,
      "Ġnit": 6495,
      "itÃ©s": 6496,
      "ĠáĬłáĭ³": 6497,
      "áĭµáĪ®": 6498,
      "áĬłáĪĪ": 6499,
      "ĠÂ».": 6500,
      "Ġacikin": 6501,
      "ĠáĮīáĭ³áĭŃ": 6502,
      "ĠTarihi": 6503,
      "AR": 6504,
      "isan": 6505,
      "ĠMichael": 6506,
      "Ġsud": 6507,
      "ĠIslam": 6508,
      "Ġdab": 6509,
      "ĠKK": 6510,
      "baki": 6511,
      "ull": 6512,
      "Ġfilin": 6513,
      "uve": 6514,
      "ĠáĪ¬": 6515,
      "kai": 6516,
      "ĠNd": 6517,
      "áī³áĬķ": 6518,
      "ĠOá¹£u": 6519,
      "á¹£irÃŃ": 6520,
      "koki": 6521,
      "ĠÉĹin": 6522,
      "áīĤáīµ": 6523,
      "ĠáĬ¥áĬķáĭ³áĭŃ": 6524,
      "ĠáĭĽáĪ¬": 6525,
      "ĠRichard": 6526,
      "áĭ®áĪŃáĮĬáĪµ": 6527,
      "kn": 6528,
      "ĠDon": 6529,
      "aient": 6530,
      "Ġvers": 6531,
      "Ġany": 6532,
      "Far": 6533,
      "mah": 6534,
      "umar": 6535,
      "emple": 6536,
      "Ġmajor": 6537,
      "irs": 6538,
      "ĠáĬ¨áĪĨáĬĲ": 6539,
      "áĪ°áĪŃ": 6540,
      "ĠAssociation": 6541,
      "Ġtuntun": 6542,
      "áĪłáĪ¨áī°": 6543,
      "Ġaká»įrin": 6544,
      "ĠáĪļáĬĴáĪµáīµ": 6545,
      "Ġá¹£ÃŃá¹£e": 6546,
      "Ġsauransu": 6547,
      "Ġsaba": 6548,
      "ĠLatin": 6549,
      "Å«": 6550,
      "Ġaye": 6551,
      "Ġngu": 6552,
      "Ġáĭ¨áįį": 6553,
      "asayansi": 6554,
      "Ġhut": 6555,
      "Ġáīłáī£": 6556,
      "Ġá»įwá»į": 6557,
      "áĪľáīµ": 6558,
      "áĬ®áĬĸ": 6559,
      "Ġ1951": 6560,
      "ĠáĪļáĪĬáĭ®áĬķ": 6561,
      "ĠáīłáĪµáī°": 6562,
      "07": 6563,
      "PP": 6564,
      "Ġx": 6565,
      "ĠApp": 6566,
      "Ġcas": 6567,
      "stan": 6568,
      "Ġthese": 6569,
      "veau": 6570,
      "Ġdiffer": 6571,
      "Ġincluding": 6572,
      "áĪµáī´": 6573,
      "Ã¬lÃº": 6574,
      "kejÃ¬": 6575,
      "ĠáīłáĬ®": 6576,
      "ÉĹu": 6577,
      "Ġ1930": 6578,
      "ĠIbn": 6579,
      "Ġplusieurs": 6580,
      "Ġáī°áĬ¨áī³": 6581,
      "ĠBauchi": 6582,
      "atis": 6583,
      "Ġgra": 6584,
      "ĠThomas": 6585,
      "Duk": 6586,
      "Ġdest": 6587,
      "ĠWah": 6588,
      "Ġplace": 6589,
      "nyÃŃ": 6590,
      "°áį»áį": 6591,
      "áĭµáĪĺ": 6592,
      "ĠPoli": 6593,
      "ututt": 6594,
      "Ġáį»áį": 6595,
      "ĠáĭŃáĮł": 6596,
      "áĬ¨áĪĭ": 6597,
      "imi": 6598,
      "ĠáĪµáī¥áĪµ": 6599,
      "Ġáĭ«áĪ³": 6600,
      "Ġáĭ¨áĪļáĪ°": 6601,
      "Ġáĭ¨áĪļáĮĪáĬĻ": 6602,
      "Ġáĭ°áĪ«áĪ²": 6603,
      "áĮŃáĪŃ": 6604,
      "hamia": 6605,
      "jenga": 6606,
      "Ġibn": 6607,
      "ĠolÃ¹darÃŃ": 6608,
      "ĠáĮ¸áī£áĭŃ": 6609,
      "ĠpremiÃ¨re": 6610,
      "iken": 6611,
      "ĠUN": 6612,
      "emu": 6613,
      "eriod": 6614,
      "ĠOyo": 6615,
      "Ġwasannin": 6616,
      "áĪİáĮĤ": 6617,
      "ĠChurch": 6618,
      "ĠáīħáĪŃáĪµ": 6619,
      "ĠáīµáĪŃáĮīáĪĿ": 6620,
      "ĠolÃ¹ká»į": 6621,
      "Ġmakubwa": 6622,
      "ĠbÃłbÃ¡": 6623,
      "Ġmshairi": 6624,
      "ivil": 6625,
      "Ġ1954": 6626,
      "gres": 6627,
      "Ġlangue": 6628,
      "abba": 6629,
      "utan": 6630,
      "2017": 6631,
      "ij": 6632,
      "Ìģ-": 6633,
      "ĠáĪĺáīħ": 6634,
      "sible": 6635,
      "áĮħáĪĿ": 6636,
      "Ġshekarun": 6637,
      "Ġ||": 6638,
      "Ġabubuwan": 6639,
      "Ġ1948": 6640,
      "ĠáĪĥáĭŃáĪĽáĬĸáīµ": 6641,
      "Ġconstru": 6642,
      "Ġpataki": 6643,
      "áĬĵáĭŃáīµáĭµ": 6644,
      "Ġfond": 6645,
      "ĠUnion": 6646,
      "Ġpap": 6647,
      "taire": 6648,
      "ĠRÃ©": 6649,
      "istry": 6650,
      "ithi": 6651,
      "ĠáĬ¥áĪĿáĬĲáīµ": 6652,
      "ĠáĬłáĮĭ": 6653,
      "áĪĭáīģ": 6654,
      "áĪĭáĮĬ": 6655,
      "cept": 6656,
      "ĠáĭįáĮŃ": 6657,
      "áĪĻáĬķ": 6658,
      "ĠJamus": 6659,
      "emble": 6660,
      "ĠGabas": 6661,
      "ĠMovie": 6662,
      "ĠCongress": 6663,
      "Ġ),": 6664,
      "Ġsame": 6665,
      "alitÃ©": 6666,
      "ĠUb": 6667,
      "wane": 6668,
      "ĠEli": 6669,
      "undin": 6670,
      "Ġmuka": 6671,
      "Dans": 6672,
      "Ġnatur": 6673,
      "ĠLin": 6674,
      "áĬ«áĪŃ": 6675,
      "ĠáĪ²áīĢ": 6676,
      "ĠáĪ²áĪĨáĬĳ": 6677,
      "áī¹áĬķ": 6678,
      "ĠJamhur": 6679,
      "ĠáĮİáĬķ": 6680,
      "ĠáĪĺáĪĨáĬĳáĬķ": 6681,
      "05": 6682,
      "Ġmemb": 6683,
      "aid": 6684,
      "ĠAlf": 6685,
      "Ġnord": 6686,
      "Ġsitu": 6687,
      "ĠÃº": 6688,
      "Ġ1947": 6689,
      "ussia": 6690,
      "pro": 6691,
      "áĬķáĬŃ": 6692,
      "Ġmwezi": 6693,
      "ison": 6694,
      "Ġcal": 6695,
      "Ġhalafu": 6696,
      "adamu": 6697,
      "ĠIk": 6698,
      "áĪĭáĪµ": 6699,
      "elli": 6700,
      "áĪ°áĪį": 6701,
      "ĠáīłáĬ¦": 6702,
      "ovuti": 6703,
      "pewa": 6704,
      "ĠáĬķáĮīáĪł": 6705,
      "ĠFarans": 6706,
      "ĠDemocratic": 6707,
      "Ġsakandare": 6708,
      "Ġcig": 6709,
      "ĠIm": 6710,
      "ĠRom": 6711,
      "ĠGrand": 6712,
      "ĠGreek": 6713,
      "She": 6714,
      "ĠDut": 6715,
      "2011": 6716,
      "ĠSab": 6717,
      "ĠWash": 6718,
      "ĠáĭĪáī³áĭ°": 6719,
      "áīħáĬĵ": 6720,
      "áĮ£áĬķ": 6721,
      "rict": 6722,
      "Ġsojo": 6723,
      "ĠáĪ¥áįįáĪ«": 6724,
      "ĠáĪµáĪĪáĪĨáĬĲ": 6725,
      "ternet": 6726,
      "ĠkÃºrÃ²": 6727,
      "ĠáĪ¦áĪµáīµ": 6728,
      "abwe": 6729,
      "Ġnotamment": 6730,
      "Ġmit": 6731,
      "Ġconc": 6732,
      "ray": 6733,
      "áĬķáĭ²": 6734,
      "Ġáĭ¨áīħ": 6735,
      "ĠKig": 6736,
      "Ġjiki": 6737,
      "áĬ¨áĪ¨áĪĿ": 6738,
      "anth": 6739,
      "nie": 6740,
      "Ã¡nÃ¬": 6741,
      "Ġhaifar": 6742,
      "Ġhizo": 6743,
      "ĠUsman": 6744,
      "Ġtsohuwar": 6745,
      "ĠáĪĿáĪįáĬŃáīµ": 6746,
      "gemea": 6747,
      "á¹£irÃŃá¹£i": 6748,
      "02": 6749,
      "zani": 6750,
      "ĠSup": 6751,
      "Ġrefer": 6752,
      "Ġlime": 6753,
      "áĪĺáĪ©": 6754,
      "Ġthen": 6755,
      "2008": 6756,
      "tsu": 6757,
      "Ġ1953": 6758,
      "ĠChristian": 6759,
      "ĠsÃ¬n": 6760,
      "ĠAw": 6761,
      "Ġdeath": 6762,
      "olf": 6763,
      "ĠLÃ¡": 6764,
      "ĠáĮįáĬķáĬĻ": 6765,
      "Ġhannun": 6766,
      "lafazi": 6767,
      "áī¨áĪŃáĪ²": 6768,
      "Ø©": 6769,
      "Ġcou": 6770,
      "ument": 6771,
      "ĠEmpire": 6772,
      "ĠRu": 6773,
      "Ġconn": 6774,
      "ĠBak": 6775,
      "Ġipinle": 6776,
      "áī£áī³": 6777,
      "áĬ«áĬ¨áĪĪ": 6778,
      "Ġkwall": 6779,
      "áĪĨáĬĸ": 6780,
      "áĮĭáīµ": 6781,
      "Ġkansa": 6782,
      "ĠáĭµáĪį": 6783,
      "áĮĢáīµ": 6784,
      "rica": 6785,
      "ellement": 6786,
      "Ġiyaka": 6787,
      "adarwa": 6788,
      "Hak": 6789,
      "til": 6790,
      "yer": 6791,
      "etu": 6792,
      "ĠDay": 6793,
      "44": 6794,
      "áĮª": 6795,
      "Ġabu": 6796,
      "Ã©lÃ©": 6797,
      "áĪµáĭ«": 6798,
      "Ġoun": 6799,
      "Ġganin": 6800,
      "Ġwur": 6801,
      "Ġkuji": 6802,
      "áĬŃáĪ²": 6803,
      "umika": 6804,
      "áĭĪáĭŃáĪĿ": 6805,
      "Ġáĭĺáįĭ": 6806,
      "áīĥáĪ´": 6807,
      "ources": 6808,
      "áĬłáĪµ": 6809,
      "Ġharkokin": 6810,
      "kÃ³so": 6811,
      "Ġambazo": 6812,
      "Ġdukkan": 6813,
      "ĠáĭĺáĪĺáĬĵáĭĬ": 6814,
      "ĠáĭŃáīĢáĪ«áĪī": 6815,
      "Ġkuliko": 6816,
      "Ġfitar": 6817,
      "ĠLouis": 6818,
      "Ġwi": 6819,
      "ĠEr": 6820,
      "ection": 6821,
      "ĠArts": 6822,
      "tal": 6823,
      "Ġlife": 6824,
      "à¤ķ": 6825,
      "ĠÉĵ": 6826,
      "Ã¡jÃº": 6827,
      "andika": 6828,
      "áīĢáĪ¨": 6829,
      "jiji": 6830,
      "ĠáĪµáĪŀáī½": 6831,
      "Ġdesign": 6832,
      "áīłáīµáĬķ": 6833,
      "ĠolÃ³rÃŃ": 6834,
      "ĠKamusi": 6835,
      "ĠGreg": 6836,
      "áīħáĪµáīĥáĪ´": 6837,
      "mÃ¡": 6838,
      "yr": 6839,
      "Ġweb": 6840,
      "umm": 6841,
      "Ġori": 6842,
      "mfuata": 6843,
      "site": 6844,
      "val": 6845,
      "Ġ+": 6846,
      "áĬķáĮİ": 6847,
      "Ã©d": 6848,
      "ĠáĬ¨áĭĪ": 6849,
      "áīĢáĮ¥": 6850,
      "ĠAnamb": 6851,
      "Ġáīłáī°áĪĪ": 6852,
      "Ġáĭ«áĪĪáĭįáĬķ": 6853,
      "Ġtransl": 6854,
      "Ġkudancin": 6855,
      "Ġnufin": 6856,
      "ĠMb": 6857,
      "htm": 6858,
      "wari": 6859,
      "onia": 6860,
      "Ġkaya": 6861,
      "ĠZa": 6862,
      "ĠKanada": 6863,
      "imbabwe": 6864,
      "istoire": 6865,
      "95": 6866,
      "bes": 6867,
      "Ġnou": 6868,
      "áĪĿáī¥": 6869,
      "áĭ°áĬķ": 6870,
      "áĮĪáĪ«": 6871,
      "sili": 6872,
      "ĠáĪĿáĭķáĪ«áī¥": 6873,
      "áĭ²áĭ®": 6874,
      "ĠáīµáĪŃ": 6875,
      "ĠáīµáĪĿáĪħáĪŃ": 6876,
      "Ġwatumwa": 6877,
      "ĠWaislamu": 6878,
      "iyoyi": 6879,
      "angaza": 6880,
      "Ġhivi": 6881,
      "Ġkutumia": 6882,
      "ĠáĪĺáĪ°áĪ¨áīµ": 6883,
      "áĪµáĪĪáĭļáĪħ": 6884,
      "ĠÃłÃ¬sÃłn": 6885,
      "Ġtur": 6886,
      "Ap": 6887,
      "pha": 6888,
      "andard": 6889,
      "Ġkok": 6890,
      "duc": 6891,
      "ultani": 6892,
      "Ġpoint": 6893,
      "</": 6894,
      "tra": 6895,
      "wÃłÃ¡": 6896,
      "áĪĿáįĴ": 6897,
      "ĠMwaka": 6898,
      "Ġika": 6899,
      "áĪĽáĪ½": 6900,
      "Ġáĭ¨áĪ®": 6901,
      "Ġwatsa": 6902,
      "ĠhuÉĹu": 6903,
      "2002": 6904,
      "ĠáĬĲáĮĪáĪł": 6905,
      "Ġsaman": 6906,
      "arufu": 6907,
      "inin": 6908,
      "abili": 6909,
      "rich": 6910,
      "ohann": 6911,
      "bÃ³": 6912,
      "ĠSil": 6913,
      "papa": 6914,
      "ount": 6915,
      "Ġthrough": 6916,
      "Ġmanu": 6917,
      "áº¹ráº¹": 6918,
      "Ġhayo": 6919,
      "Ġnahiyar": 6920,
      "Ġkuta": 6921,
      "Ġjumla": 6922,
      "Ġáĭ¨áĪ´": 6923,
      "áĪ°áīµ": 6924,
      "áĬ¥áĬĲáĭļáĪħ": 6925,
      "ĠAmani": 6926,
      "ĠÃ²kÃ¨": 6927,
      "ominira": 6928,
      "ĠBurtaniya": 6929,
      "ĠirÃº": 6930,
      "Ġáī°áĪ«áĪ«": 6931,
      "otball": 6932,
      "ĠHouse": 6933,
      "Yana": 6934,
      "Ġtafi": 6935,
      "ĠGasar": 6936,
      "ĠáĬŃáĪŃáĪµáī²áĭ«": 6937,
      "Ġaskofu": 6938,
      "ĠáĮĭáĪ«": 6939,
      "anguage": 6940,
      "Ġmengi": 6941,
      "ket": 6942,
      "ĠAma": 6943,
      "ĠPri": 6944,
      "Ġforme": 6945,
      "Ġclass": 6946,
      "ĠHam": 6947,
      "Ġ36": 6948,
      "ĠAmerica": 6949,
      "limia": 6950,
      "ĠPeter": 6951,
      "Iá¹£áº¹": 6952,
      "Re": 6953,
      "pande": 6954,
      "Ġáĭ¨áĪĪáĪĿ": 6955,
      "Ġwame": 6956,
      "Ġrana": 6957,
      "adun": 6958,
      "Ġáį©": 6959,
      "ĠáĭŃáĭŀ": 6960,
      "ĠÃĮlÃº": 6961,
      "ĠáĮĪáĮ½": 6962,
      "ĠÉĹari": 6963,
      "áĪķáįĪáīµ": 6964,
      "Ġsabon": 6965,
      "ĠáįĪáĪŃáĭĸáĬķ": 6966,
      "Ġtaba": 6967,
      "Ġarea": 6968,
      "ĠaprÃ¨s": 6969,
      "Ġmov": 6970,
      "Ġdescri": 6971,
      "04": 6972,
      "gest": 6973,
      "ĠáĬĽ": 6974,
      "Ġrem": 6975,
      "lement": 6976,
      "ĠÃłÃ¡": 6977,
      "áĭ°áĪµ": 6978,
      "ĠCam": 6979,
      "áĭ³áĭµ": 6980,
      "ĠáĪµáĪĭ": 6981,
      "team": 6982,
      "ĠáĭįáĪĢ": 6983,
      "jejen": 6984,
      "2018": 6985,
      "ĠáĭķáĪĪáī°": 6986,
      "ĠáįįáĪ¬": 6987,
      "áĬ¥áĬķáĭ²": 6988,
      "ĠMisri": 6989,
      "Ġagainst": 6990,
      "chukua": 6991,
      "Ġdepuis": 6992,
      "Ġmer": 6993,
      "ĠGi": 6994,
      "ides": 6995,
      "Â»)": 6996,
      "Ġfamilia": 6997,
      "jet": 6998,
      "ãĤ": 6999,
      "face": 7000,
      "Ġhaya": 7001,
      "2013": 7002,
      "Babban": 7003,
      "Jihar": 7004,
      "vy": 7005,
      "yth": 7006,
      "Ġáĭ¨áĬ¨": 7007,
      "ĠÃłjáº¹sÃ¡ra": 7008,
      "Ġáĭ¨áĪ±": 7009,
      "áĭĿáĪĿ": 7010,
      "ĬáĭľáĪĿ": 7011,
      "áĮłáĪĪ": 7012,
      "fication": 7013,
      "áĬķáĮĮ": 7014,
      "áī¥áĪŃáĪĥ": 7015,
      "ĠáĬłáĪīáīµ": 7016,
      "ĠSokoto": 7017,
      "87": 7018,
      "Ġcre": 7019,
      "osp": 7020,
      "ennes": 7021,
      "á¹¢": 7022,
      "Ġmillion": 7023,
      "Nchi": 7024,
      "So": 7025,
      "sÃ¡n": 7026,
      "áĬ£": 7027,
      "wahi": 7028,
      "Ġkur": 7029,
      "Ġmd": 7030,
      "Ġyaki": 7031,
      "Ġcibiyar": 7032,
      "áĪĺáĬĵ": 7033,
      "ador": 7034,
      "áīłáĬĭáĪĭ": 7035,
      "ulin": 7036,
      "áĬ«áĬ¤áĪį": 7037,
      "ĠVictor": 7038,
      "Ġref": 7039,
      "ows": 7040,
      "ĠáĪįáĮģ": 7041,
      "áĬĽáĭįáĪĿ": 7042,
      "Ġáī¢áĭ«": 7043,
      "Ġgabas": 7044,
      "onyesha": 7045,
      "ĠKejÃ¬": 7046,
      "ĠGood": 7047,
      "Ġtabbatar": 7048,
      "ands": 7049,
      "ĠRec": 7050,
      "ĠVal": 7051,
      "ĠMac": 7052,
      "Ġappe": 7053,
      "Ġhuwa": 7054,
      "ĠOli": 7055,
      "Ġ1946": 7056,
      "Ġáĭ¨áīł": 7057,
      "Ġáĭ¨áĮĭ": 7058,
      "ĠáĭŃáĪĺ": 7059,
      "ĠYesu": 7060,
      "otun": 7061,
      "ĠáĭįáĪĥ": 7062,
      "Ġsakamakon": 7063,
      "ĠáīłáĪĺáĪĨáĬķ": 7064,
      "áĪ²áĭ«": 7065,
      "Ġbefore": 7066,
      "illar": 7067,
      "chag": 7068,
      "Ġmeji": 7069,
      "Ġmallaka": 7070,
      "ased": 7071,
      "ĠSol": 7072,
      "Ġ35": 7073,
      "Ġpet": 7074,
      "ĠPhili": 7075,
      "ĠFestival": 7076,
      "Ġsyn": 7077,
      "Hivyo": 7078,
      "Kar": 7079,
      "onin": 7080,
      "Ġ(,": 7081,
      "itÃ¬": 7082,
      "Ã¡lÃŃ": 7083,
      "uruki": 7084,
      "ĠKur": 7085,
      "ĠáĪĺáĮį": 7086,
      "ĠáĬ¨áĪĿ": 7087,
      "Ġáī°áĮĪ": 7088,
      "Ġáĭ«áĭĺ": 7089,
      "áĮłáīµ": 7090,
      "ĠáīłáĬ¤": 7091,
      "Ġzaune": 7092,
      "ÃŃnÃº": 7093,
      "Ġáī£áĪķáĪŃ": 7094,
      "Ġáĭ¨áĬłáĭ¨áĪŃ": 7095,
      "áīĤáĭ«": 7096,
      "ĠolÃ³gun": 7097,
      "Ġgirm": 7098,
      "Ġikan": 7099,
      "ĠHausawa": 7100,
      "áī¨áĪŃáĪ²áī²": 7101,
      "ait": 7102,
      "oshi": 7103,
      "ĠFrank": 7104,
      "Ġyear": 7105,
      "100": 7106,
      "Au": 7107,
      "Ġdid": 7108,
      "Ġgi": 7109,
      "rey": 7110,
      "Ġsigni": 7111,
      "gro": 7112,
      "Ġ×": 7113,
      "ĠMand": 7114,
      "ĠKwam": 7115,
      "áįįáĬķ": 7116,
      "ĠáĪĪáĪļ": 7117,
      "Ġorgan": 7118,
      "Ġyanayi": 7119,
      "Ġcommon": 7120,
      "áĬŀáī¹": 7121,
      "Ġconstitu": 7122,
      "shiryen": 7123,
      "Ġlittafin": 7124,
      "gr": 7125,
      "ĠSir": 7126,
      "Ġ''": 7127,
      "Ġ1939": 7128,
      "AF": 7129,
      "Ġáīª": 7130,
      "ĠLeague": 7131,
      "III": 7132,
      "Ġsupport": 7133,
      "Ġfulani": 7134,
      "áĭ«áĪľ": 7135,
      "Ġzane": 7136,
      "2019": 7137,
      "resent": 7138,
      "Ġtáº¹li": 7139,
      "wÃ¹já»į": 7140,
      "Id": 7141,
      "uthor": 7142,
      "ĠAngel": 7143,
      "ĠÃīt": 7144,
      "SO": 7145,
      "kiri": 7146,
      "enta": 7147,
      "ĠMc": 7148,
      "âĢ¹": 7149,
      "Ġvis": 7150,
      "ogi": 7151,
      "Ġinflu": 7152,
      "ĠHenry": 7153,
      "Ġtradition": 7154,
      "wer": 7155,
      "wÃº": 7156,
      "Ġsayensi": 7157,
      "ĠáĮĥ": 7158,
      "Ġtaifa": 7159,
      "ĠáĬłáĭĭ": 7160,
      "Ġáī°áĮ½": 7161,
      "ĠáīłáĪĭ": 7162,
      "ĠáĪ²áĪį": 7163,
      "yoyi": 7164,
      "ÉĹin": 7165,
      "ovu": 7166,
      "ĠbÃŃbÃŃ": 7167,
      "Ġmakao": 7168,
      "ĠáĪĿáĬķáĮĬáĭľáĪĿ": 7169,
      "ĠáĬłáĪ«áīµ": 7170,
      "ĠBiblia": 7171,
      "ĠÃºn": 7172,
      "Ġdog": 7173,
      "enza": 7174,
      "2012": 7175,
      "ensis": 7176,
      "Ġ1949": 7177,
      "VID": 7178,
      "unar": 7179,
      "Ġhana": 7180,
      "idd": 7181,
      "chnology": 7182,
      "Orodha": 7183,
      "Tari": 7184,
      "waju": 7185,
      "ĠáīĦ": 7186,
      "Ġmv": 7187,
      "yam": 7188,
      "amare": 7189,
      "ĠMala": 7190,
      "ĠMoro": 7191,
      "ĠMiss": 7192,
      "áĭŃáĪģ": 7193,
      "Ġá»įgá»į": 7194,
      "áĪīáĬķ": 7195,
      "áī¡áĬķ": 7196,
      "ĠItali": 7197,
      "Ġjiho": 7198,
      "Ġkyau": 7199,
      "ĠÃ¬dÃŃje": 7200,
      "áĬ¨áī°áĪĽáĭį": 7201,
      "Ġoluilu": 7202,
      "ĠáĪłáĪ«áĭĬáīµ": 7203,
      "mall": 7204,
      "Ġsing": 7205,
      "rÃ©sent": 7206,
      "enegal": 7207,
      "Ġ1955": 7208,
      "Ib": 7209,
      "nÃ©": 7210,
      "patikana": 7211,
      "yÃ¬ÃŃ": 7212,
      "Ġfadin": 7213,
      "áī¥áĬĽ": 7214,
      "áīłáĬłáĪ": 7215,
      "ĠPÃ³": 7216,
      "Ġáī°áĬŃáĪį": 7217,
      "Ġshafi": 7218,
      "ĠáĬłáĪįáī°": 7219,
      "ĠáĪĺáĮ»áĪķáįįáīµ": 7220,
      "ĠAsh": 7221,
      "ĠGra": 7222,
      "ĠMartin": 7223,
      "Ġjusqu": 7224,
      "gor": 7225,
      "Ġbuk": 7226,
      "ĠgÃ©": 7227,
      "ĠChin": 7228,
      "ĠAgusta": 7229,
      "98": 7230,
      "yle": 7231,
      "Ġkitu": 7232,
      "áĬķáī¥": 7233,
      "Ġáĭ¨áįĬ": 7234,
      "urar": 7235,
      "Ġrike": 7236,
      "Ġkufuatana": 7237,
      "ĠÃłdÃºgbÃ²": 7238,
      "ĠTal": 7239,
      "áĪªáīĥ": 7240,
      "ĠáĭĪáĮ¥": 7241,
      "ĠáĪ°áĬĲ": 7242,
      "ateurs": 7243,
      "Ġkiasi": 7244,
      "ĠáĪĬáīĥ": 7245,
      "ĠáīĨáĭŃ": 7246,
      "irobi": 7247,
      "áĬķáĮīáĪ¥": 7248,
      "áĪįáĪµáįįáĬĵ": 7249,
      "Ġáįªáį»áį": 7250,
      "ĠdÃºrÃ³": 7251,
      "ĠSahara": 7252,
      "áĪĨáĬĸáĪĿ": 7253,
      "Hasa": 7254,
      "Ġseries": 7255,
      "fÃ©r": 7256,
      "ÑĢ": 7257,
      "Ġans": 7258,
      "Ġnational": 7259,
      "lit": 7260,
      "isation": 7261,
      "Ġzo": 7262,
      "bio": 7263,
      "....": 7264,
      "ĠJohnson": 7265,
      "áĬķáīĢ": 7266,
      "irar": 7267,
      "Ġjar": 7268,
      "áĪªáĬ®áī½": 7269,
      "ĠáĭŃáīĨ": 7270,
      "Ġwhile": 7271,
      "ĠÃ¬dÃŃlÃ©": 7272,
      "ĠmÃŃrÃłn": 7273,
      "Waliofariki": 7274,
      "ĠáĮĮáī³": 7275,
      "ĠáĮĬáĭ®áĪŃáĮĬáĪµ": 7276,
      "ĠKibantu": 7277,
      "ĠAnambra": 7278,
      "lov": 7279,
      "oja": 7280,
      "ster": 7281,
      "anyama": 7282,
      "Ġfl": 7283,
      "ĠKid": 7284,
      "ĠFÃ¡": 7285,
      "rican": 7286,
      "Ġboth": 7287,
      "áĪĪáīĢ": 7288,
      "ĠáĬĲáĮ¥": 7289,
      "áĪĽáĭįáĭ«áĬķ": 7290,
      "ĠáįĮ": 7291,
      "Ġá»įpá»į": 7292,
      "áī¸áĭī": 7293,
      "ÉĹi": 7294,
      "Ġfiimu": 7295,
      "ĠKifaransa": 7296,
      "áīģáīµ": 7297,
      "ĠáĪĬáīĢ": 7298,
      "Ġuko": 7299,
      "Ġyawancin": 7300,
      "ĠáĬłáĪĺáī³áīµ": 7301,
      "áī·áĬķ": 7302,
      "áĭŀáī½": 7303,
      "ĠáĭŃáĮĪáĬĽáĪī": 7304,
      "mÃ¬nira": 7305,
      "ĠAtlantiki": 7306,
      "ĠAnti": 7307,
      "::": 7308,
      "enga": 7309,
      "amini": 7310,
      "ĠTra": 7311,
      "hab": 7312,
      "kaa": 7313,
      "Ġyakin": 7314,
      "Ġdashi": 7315,
      "áĪĺáĮ¥": 7316,
      "áĪ¨áĪŃ": 7317,
      "ĠáīłáĪĢ": 7318,
      "áĬ«áĪĦ": 7319,
      "áĪĬáĬķ": 7320,
      "áĬķáĮįáĪį": 7321,
      "ĠáĮĪáĭ¥": 7322,
      "ĠáĪĺáĬķáĮįáĪ¥áī³áīµ": 7323,
      "Ġwadannan": 7324,
      "Ġáĭ¨áīĢáĭµáĪŀ": 7325,
      "yyuka": 7326,
      "Ġbangaren": 7327,
      "Ġaz": 7328,
      "Ã©m": 7329,
      "light": 7330,
      "ĠWag": 7331,
      "ĠHindi": 7332,
      "----": 7333,
      "ĠFrancis": 7334,
      "92": 7335,
      "cter": 7336,
      "iaf": 7337,
      "ĠFulani": 7338,
      "qui": 7339,
      "Ġáº¹ran": 7340,
      "hout": 7341,
      "áĬĴáĪįáĬŃ": 7342,
      "áįĬáĭ«": 7343,
      "endera": 7344,
      "engwa": 7345,
      "Ġáĭ¨áĪļáĮĪáĬĿáīłáīµ": 7346,
      "áĭŃáĪħáĪĿ": 7347,
      "serv": 7348,
      "Ġakiwa": 7349,
      "ession": 7350,
      "Ġpin": 7351,
      "ĠArgent": 7352,
      "icial": 7353,
      "ĠWashington": 7354,
      "Ø³": 7355,
      "ovi": 7356,
      "artar": 7357,
      "1998": 7358,
      "ĠLife": 7359,
      "usiness": 7360,
      "ĠCalifor": 7361,
      "ĠáĬĥ": 7362,
      "ĠáĬ¥áĬ©áĪį": 7363,
      "ĠáĬłáĭĺ": 7364,
      "ĠPan": 7365,
      "olin": 7366,
      "ĠáįĴ": 7367,
      "ĠJáº¹": 7368,
      "lahi": 7369,
      "ĠÃ²bÃŃ": 7370,
      "ĠáĪĨáĬĳ": 7371,
      "Ġyanke": 7372,
      "Ġáĭķáĭµ": 7373,
      "atsayin": 7374,
      "ĠáīłáĬłáĪģáĬĳ": 7375,
      "tary": 7376,
      "ues": 7377,
      "Is": 7378,
      "Î¹": 7379,
      "tice": 7380,
      "ampion": 7381,
      "Kuma": 7382,
      "áįı": 7383,
      "ĠáīĤ": 7384,
      "ency": 7385,
      "ĠBern": 7386,
      "áĬĲáĮį": 7387,
      "ĠáĬ¨áī£": 7388,
      "Ġzabe": 7389,
      "ĠÃ¬bÃ¡": 7390,
      "Ġáī°áĮ«": 7391,
      "Ġáĭ¨áĪģ": 7392,
      "Ġule": 7393,
      "ĠâĢ¹": 7394,
      "ĠáīłáĪĺáī£áĪį": 7395,
      "joko": 7396,
      "Ġchama": 7397,
      "ĠLaw": 7398,
      "ĠWatakatifu": 7399,
      "Ġspeci": 7400,
      "ey": 7401,
      "uring": 7402,
      "ĠKari": 7403,
      "ĠTang": 7404,
      "yote": 7405,
      "inc": 7406,
      "Ġwal": 7407,
      "ĠKab": 7408,
      "ĠWo": 7409,
      "ĠTrans": 7410,
      ")áį¢": 7411,
      "Ġáĭ¨áĮĢáĪŃáĪĺáĬķ": 7412,
      "ĠAri": 7413,
      "Ġpass": 7414,
      "ĠáĬ¨áĮį": 7415,
      "Ġyáº¹": 7416,
      "áĪĽáī¸áĭį": 7417,
      "ĠáīłáĪŀ": 7418,
      "áĭ¨áĪ©": 7419,
      "ĠáĬ¥áĬķáīħáĪµáīĥáĪ´": 7420,
      "Ġáī¥áĪĶáĪŃ": 7421,
      "ĠáĬŃáĪĪáī¥": 7422,
      "ĠáĮĪáī¥áĪ¨": 7423,
      "Ġbien": 7424,
      "ological": 7425,
      "áĭ°áĪŃáĮį": 7426,
      "Ġáĭ¨áī°áī£áĪĪ": 7427,
      "ĠAngola": 7428,
      "Ġmodern": 7429,
      "okacin": 7430,
      "ĠáĬłáīĢáįį": 7431,
      "06": 7432,
      "AM": 7433,
      "Ġ$": 7434,
      "udo": 7435,
      "Ce": 7436,
      "kula": 7437,
      "Ġthem": 7438,
      "For": 7439,
      "áĭ·": 7440,
      "Ġsanar": 7441,
      "ĠáĬ¥áĪĿ": 7442,
      "Ġlau": 7443,
      "ĠUm": 7444,
      "Ġáĭ¨áĪļáĪ°áĪ«": 7445,
      "ĠáĪĽáĬħ": 7446,
      "áĭ±áīµ": 7447,
      "shinda": 7448,
      "Ġáĭ¨áĬĲáĮĪ": 7449,
      "Ġáĭ¨áĬĲáīłáĪ©áīµ": 7450,
      "Ġfamily": 7451,
      "Ġáĭ¨áĭĵáĪĺáī±": 7452,
      "Ġlarge": 7453,
      "Ġinganta": 7454,
      "58": 7455,
      "br": 7456,
      "pia": 7457,
      "ason": 7458,
      "Ġlitt": 7459,
      "tiques": 7460,
      "ĠFl": 7461,
      "rea": 7462,
      "ived": 7463,
      "Niger": 7464,
      "ause": 7465,
      "Ġcat": 7466,
      "Ġkuzaliwa": 7467,
      "ĠáĬłáĬĵ": 7468,
      "ĠáĬłáĮł": 7469,
      "Ġnipasáº¹": 7470,
      "ĠáĪĺáĬ®": 7471,
      "ĠáĪĺáĪ£": 7472,
      "ĠáĬ¨áĮ¥": 7473,
      "ĠWab": 7474,
      "embe": 7475,
      "ĠÃ¬yÃ¡": 7476,
      "áĬ¨áĬĵ": 7477,
      "Ġregion": 7478,
      "ĠáĪĬáĭ«": 7479,
      "ĠáĬĲáĮĪáĪ¥áīµ": 7480,
      "áĮĬáĭ«": 7481,
      "Ġsiyasan": 7482,
      "Ġyaliyo": 7483,
      "ĠdÃŃáº¹": 7484,
      "ĠWilliams": 7485,
      "áĮĬáĭľáĭį": 7486,
      "ĠáīµáĬķáĪ½": 7487,
      "ĠáĪºáĪħ": 7488,
      "ĠáĬłáĮĪáĪįáĮįáĪİáīµ": 7489,
      "Ġmed": 7490,
      "ĠEngland": 7491,
      "Ġfour": 7492,
      "ĠZe": 7493,
      "Ġtrois": 7494,
      "Ġyasa": 7495,
      "Ġcult": 7496,
      "áĬĵáĮĪáĪŃ": 7497,
      "ĠKÃ²": 7498,
      "áĭŃáĪį": 7499,
      "ĠáĬ¨áĪµ": 7500,
      "áĪ³áĪ°": 7501,
      "ries": 7502,
      "ĠáĪµáĬķ": 7503,
      "Ġáĭ«áĪĭáī¸áĭį": 7504,
      "áĪ¥áĪ«": 7505,
      "ĠZimbabwe": 7506,
      "ĠáīĥáĪĭáīµ": 7507,
      "ĠSociety": 7508,
      "ints": 7509,
      "ĠCommun": 7510,
      "Ġstruct": 7511,
      "ĠFound": 7512,
      "erson": 7513,
      "voir": 7514,
      "ĠGroup": 7515,
      "gÃŃ": 7516,
      "mas": 7517,
      "ĠÙ": 7518,
      "ĠhÃłn": 7519,
      "ĠáĬłáĪµáįĪ": 7520,
      "ĠáĮĢáĪŃáĪĺáĬķ": 7521,
      "Ġáī°áĪĺáĪ³áĪ³áĭŃ": 7522,
      "ĠáĬłáī£áĪĭáīµ": 7523,
      "Ġáĭ¨áĪĨáĬĲáĭį": 7524,
      "ydro": 7525,
      "ĠSarkin": 7526,
      "ĠAfrilu": 7527,
      "áĬ®áĬĸáĪļ": 7528,
      "83": 7529,
      "kuna": 7530,
      "ophi": 7531,
      "ights": 7532,
      "ĠCOVID": 7533,
      "mw": 7534,
      "ĠMul": 7535,
      "máº¹": 7536,
      "áĪįáĮĭ": 7537,
      "ĠMji": 7538,
      "Ġruk": 7539,
      "ĠáĬłáĮį": 7540,
      "umbe": 7541,
      "ĠJina": 7542,
      "Ġleyin": 7543,
      "haria": 7544,
      "ĠáĪĪáĪĽáĪµ": 7545,
      "áī£áī¢áĪİáĬķ": 7546,
      "Ġtsakiyar": 7547,
      "ĠJanairu": 7548,
      "Ġnasarar": 7549,
      "chunguza": 7550,
      "Ã¡lÃŃÃł": 7551,
      "ĠBad": 7552,
      "500": 7553,
      "ĠAz": 7554,
      "ĠIya": 7555,
      "Ġ80": 7556,
      "html": 7557,
      "Mat": 7558,
      "OR": 7559,
      "pond": 7560,
      "áĮİáī½": 7561,
      "Ġcho": 7562,
      "Ġrá»į": 7563,
      "Ġruwan": 7564,
      "ĠáĬ¥áĪ«áĪ±": 7565,
      "Ġáĭ¨áĬ¡": 7566,
      "ĠáĭĵáĭŃáĬĲáīµ": 7567,
      "Ġkananan": 7568,
      "Ġáĭ¨áĬłáĭįáĪ®áįĵ": 7569,
      "ĠadarÃŃ": 7570,
      "ĠáĮĢáĪĺáĪ¨": 7571,
      "wÃ²sÃłn": 7572,
      "Ġulikuwa": 7573,
      "ĠáĬłáĪĿáī£": 7574,
      "ether": 7575,
      "ĠáĬŃáįįáĪĭáĮĪáĪŃ": 7576,
      "Ġtan": 7577,
      "Ġsite": 7578,
      "Ġ1918": 7579,
      "Ġzar": 7580,
      "dio": 7581,
      "ĠChuo": 7582,
      "test": 7583,
      "Ġkiongozi": 7584,
      "Ġáĭ¨áĪ«áĪ±": 7585,
      "Ġhalin": 7586,
      "ĠáīłáĬ«": 7587,
      "áĬĲáĬĽ": 7588,
      "áĭ³áĪª": 7589,
      "ĠáĮįáĭµ": 7590,
      "¢áīµáĭ®áĮµáĭ«áĬķ": 7591,
      "Ġtsara": 7592,
      "elekea": 7593,
      "wamna": 7594,
      "ĠpÃ©ri": 7595,
      "ughuli": 7596,
      "yá»įkÃł": 7597,
      "ĠáĪĺáĪįáĬ©": 7598,
      "Ġáī°áĬ¨áī³áĭŃ": 7599,
      "Ç¹kan": 7600,
      "Ġáĭ°áĪ´áīµ": 7601,
      "Ġprom": 7602,
      "ĠRound": 7603,
      "ĠAnt": 7604,
      "lands": 7605,
      "Ġmonde": 7606,
      "Ġperiod": 7607,
      "Ġvie": 7608,
      "2000": 7609,
      "ĠAsiya": 7610,
      "Mas": 7611,
      "Ġaff": 7612,
      "áĪŃáĬĵ": 7613,
      "ĠlÃŃ": 7614,
      "ĠáĮĦ": 7615,
      "áĬĲáĪ£": 7616,
      "ĠIgb": 7617,
      "áĪĭáĪĭ": 7618,
      "Ã¨rÃ¨": 7619,
      "áĬŃáĪŃáĪµáī¶áĪµ": 7620,
      "Ġáī°áĭ°áĪŃ": 7621,
      "ĠáĪĿáĪħ": 7622,
      "rique": 7623,
      "ĠáĪµáĭ«áĪľ": 7624,
      "ungano": 7625,
      "ĠáĪ°áĪŃ": 7626,
      "Ġoni": 7627,
      "ĠÃ²fin": 7628,
      "Ġsoja": 7629,
      "Ġá»Įmá»į": 7630,
      "ector": 7631,
      "Ġterm": 7632,
      "ĠTuranci": 7633,
      "ĠreprÃ©sent": 7634,
      "ĠYunifÃ¡sÃŃtÃ¬": 7635,
      "áĪ¯áĪį": 7636,
      "embo": 7637,
      "ĠOm": 7638,
      "ĠHars": 7639,
      "ÏĤ": 7640,
      "astern": 7641,
      "ĠDin": 7642,
      "ality": 7643,
      "pain": 7644,
      "seed": 7645,
      "Ġkuv": 7646,
      "Ġtawa": 7647,
      "ĠJu": 7648,
      "Ġuwan": 7649,
      "str": 7650,
      "ĠáīĢáĭŃ": 7651,
      "áĪİáĪµ": 7652,
      "Ġkeje": 7653,
      "Ġatta": 7654,
      "Ġshawara": 7655,
      "ĠKikatoliki": 7656,
      "ĠKÃ¡tÃ³": 7657,
      "Ġsayari": 7658,
      "Ð½": 7659,
      "Ġdie": 7660,
      "ĠFal": 7661,
      "orts": 7662,
      "Ġ70": 7663,
      "omme": 7664,
      "ĠImo": 7665,
      "Ġuntil": 7666,
      "New": 7667,
      "Elle": 7668,
      "Akwai": 7669,
      "kÃºn": 7670,
      "áĬķáĮ»": 7671,
      "Ġfasaha": 7672,
      "Ġgani": 7673,
      "Ġgre": 7674,
      "usha": 7675,
      "Ġ1920": 7676,
      "áĮįáĬĵ": 7677,
      "áī³áĪĿ": 7678,
      "ĠDuba": 7679,
      "ĠJon": 7680,
      "ĠÆĻwarar": 7681,
      "Ġkasuwa": 7682,
      "Ġamince": 7683,
      "less": 7684,
      "Alimfuata": 7685,
      "ĠáĮ£áĪį": 7686,
      "rasia": 7687,
      "áĪªáī³áĬķáĭ«": 7688,
      "Viungo": 7689,
      "Ïģ": 7690,
      "ĠIbi": 7691,
      "ĠDara": 7692,
      "arth": 7693,
      "inent": 7694,
      "Ġlog": 7695,
      "ĠDam": 7696,
      "Ġlangues": 7697,
      "ness": 7698,
      "xford": 7699,
      "Ġmes": 7700,
      "Ġáĭ¨áĪį": 7701,
      "ĠáīłáĭŃ": 7702,
      "áĪĪáī±": 7703,
      "ĠáĮ¤": 7704,
      "Ġmach": 7705,
      "utes": 7706,
      "áĪ°áĪĽ": 7707,
      "fihÃłn": 7708,
      "Ġáĭ°áī¥": 7709,
      "ĠÃĮjá»į": 7710,
      "Ġmasarautar": 7711,
      "Ġshule": 7712,
      "áīĭáīĭ": 7713,
      "ĠPaulo": 7714,
      "Ġmahaifiyar": 7715,
      "Ġáĭ¨áĪħáĭĿáī¥": 7716,
      "áįĲáī¥áĪĬáĬŃ": 7717,
      "ĠKilatini": 7718,
      "viron": 7719,
      "ĠáĬĽáĭį": 7720,
      "66": 7721,
      "inter": 7722,
      "ĠKol": 7723,
      "fied": 7724,
      "lad": 7725,
      "Ġauri": 7726,
      "eter": 7727,
      "hind": 7728,
      "ulit": 7729,
      "veral": 7730,
      "ĠMohammed": 7731,
      "Pia": 7732,
      "dÃ¡n": 7733,
      "Ġfal": 7734,
      "Ġkufanya": 7735,
      "áĭµáĪ¨": 7736,
      "ĠáĪĿáĭķáĪ«": 7737,
      "imary": 7738,
      "ĠáĬŃáĪŃ": 7739,
      "Ġáī¤áī¶áī½": 7740,
      "athan": 7741,
      "ĠÃ²á¹£Ã¨rÃ©bÃ¬nrin": 7742,
      "Ġcould": 7743,
      "Ġarewacin": 7744,
      "Ġáĭ¨áĪĻáĭļáīĥ": 7745,
      "ĠkÃłwÃ©": 7746,
      "Ġ90": 7747,
      "vient": 7748,
      "St": 7749,
      "gari": 7750,
      "alamu": 7751,
      "Ġgano": 7752,
      "uts": 7753,
      "jumo": 7754,
      "Ġfiye": 7755,
      "áĮįáĪĽáĭĬ": 7756,
      "ĠPasi": 7757,
      "inguis": 7758,
      "ĠFer": 7759,
      "imá»į": 7760,
      "áĮĭáĮĪáĪŃ": 7761,
      "ĠVita": 7762,
      "áĬķáĮįáĪ¥áīµ": 7763,
      "ĠÃ¨rÃ²": 7764,
      "Ġmatan": 7765,
      "áĪİáī¹": 7766,
      "áĪµáīµáĪª": 7767,
      "ĠáĬ¥áĪµáĬ«": 7768,
      "ĠSecond": 7769,
      "ĠHanyoyin": 7770,
      "Ġcikak": 7771,
      "Ġáĭ©áĬĴáī¨áĪŃáĪ²áī²": 7772,
      "ĠáĮįáĬķáĬĻáĬĲáīµ": 7773,
      "ĠAcc": 7774,
      "lav": 7775,
      "ido": 7776,
      "ording": 7777,
      "ĠConst": 7778,
      "]]": 7779,
      "ix": 7780,
      "ilÃ©": 7781,
      "ĠHai": 7782,
      "chni": 7783,
      "ĠEdo": 7784,
      "ugal": 7785,
      "ĠYou": 7786,
      "unawa": 7787,
      "Shi": 7788,
      "Ġdim": 7789,
      "ĠTri": 7790,
      "áĬŃáĪĿáĬĵ": 7791,
      "kewa": 7792,
      "ĠáĬ¥áĬķáĭ´áīµ": 7793,
      "Ġvon": 7794,
      "faa": 7795,
      "lÃ©lÃ³gÃºn": 7796,
      "ĠáĭĭáĮĭ": 7797,
      "Ġáī°áĪĺáĪį": 7798,
      "ĠáĬ¨áĭļáĭ«áĪĿ": 7799,
      "Ã®t": 7800,
      "Ġmfumo": 7801,
      "ĠáĪģáĪĪáī°áĬĽ": 7802,
      "pinduzi": 7803,
      "Cette": 7804,
      "ense": 7805,
      "ĠAD": 7806,
      "ady": 7807,
      "poli": 7808,
      "finan": 7809,
      "ĠInternet": 7810,
      "kua": 7811,
      "1997": 7812,
      "Mo": 7813,
      "Wh": 7814,
      "pÃ³": 7815,
      "ÉĻ": 7816,
      "Ġdec": 7817,
      "fois": 7818,
      "ĠEdward": 7819,
      "59": 7820,
      "pÃłÃ¡": 7821,
      "zari": 7822,
      "ĠtÃº": 7823,
      "Ġking": 7824,
      "Ġnoma": 7825,
      "Ġcaract": 7826,
      "ĠKuu": 7827,
      "ĠSenegal": 7828,
      "Ã¬yÃłn": 7829,
      "Ġinap": 7830,
      "ĠáīłáĪ¥": 7831,
      "ĠRadio": 7832,
      "Ġville": 7833,
      "ÆĻo": 7834,
      "áĮłáī¥": 7835,
      "áī¢áĭŃ": 7836,
      "Ġmoins": 7837,
      "áĮ»áįĪ": 7838,
      "áĭ°áī¥áĪ¨": 7839,
      "ĠÃĴgÃ¹n": 7840,
      "áįĸáĪŃáīµ": 7841,
      "Ġbincike": 7842,
      "Kam": 7843,
      "itia": 7844,
      "Ã¨ne": 7845,
      "pole": 7846,
      "Ã£": 7847,
      "Ġari": 7848,
      "ĠAle": 7849,
      "ikuu": 7850,
      "geria": 7851,
      "ĠCentral": 7852,
      "81": 7853,
      "ype": 7854,
      "zikin": 7855,
      "áĭ«áīĦ": 7856,
      "ĠáĬłáĬŃ": 7857,
      "ĠOko": 7858,
      "ĠGomina": 7859,
      "ĠFasaha": 7860,
      "Ġwase": 7861,
      "Ġwasanni": 7862,
      "Ġkarshen": 7863,
      "áĮ½áĭĭáīµ": 7864,
      "ĠáĮ¥áīłáī¥": 7865,
      "áĪĲáĪ´": 7866,
      "Ġukoloni": 7867,
      "ĠáĮ¨áĪĿáĪ®": 7868,
      "ĠfÃŃl": 7869,
      "ĠáĬłáĪµáī°áĭ³áĭ°áĮį": 7870,
      "Ġautres": 7871,
      "ĠYammacin": 7872,
      "arabci": 7873,
      "ĠStr": 7874,
      "ikh": 7875,
      "Ġdevelop": 7876,
      "Ġ400": 7877,
      "orea": 7878,
      "ĠprÃ©sent": 7879,
      "autres": 7880,
      "ĠSim": 7881,
      "Pope": 7882,
      "gÃ¬": 7883,
      "wango": 7884,
      "Ġkisi": 7885,
      "Ġame": 7886,
      "urop": 7887,
      "ĠáīłáĮĭ": 7888,
      "ĠáĬłáī¡": 7889,
      "áĭµáīħ": 7890,
      "ĠGovernment": 7891,
      "ĠJari": 7892,
      "ulá»į": 7893,
      "ĠáĪĪáĭĪ": 7894,
      "áĮĭáī¢áīµ": 7895,
      "Ġáĭĺáĭį": 7896,
      "ĠNairobi": 7897,
      "áĪ¬áĬķ": 7898,
      "ĠáĮĪáĬĵ": 7899,
      "ĠáĪ¥áĮĭ": 7900,
      "ĠáĬłáĭįáĪ«": 7901,
      "Ġlanguages": 7902,
      "ĠShehu": 7903,
      "lÃ¬kÃ¬": 7904,
      "ographie": 7905,
      "Ġjimillar": 7906,
      "ĠáįĪáĪ¨áĬķáĪ³áĭŃ": 7907,
      "her": 7908,
      "eric": 7909,
      "ace": 7910,
      "don": 7911,
      "Ġmor": 7912,
      "iles": 7913,
      "ĠShek": 7914,
      "umbi": 7915,
      "Bi": 7916,
      "IC": 7917,
      "Pro": 7918,
      "kata": 7919,
      "ªáĭ«": 7920,
      "Ġáī²": 7921,
      "Ġlenye": 7922,
      "Ġbaki": 7923,
      "áĪĪáīłáīµ": 7924,
      "ĠKuma": 7925,
      "ĠáĬĲáįĥ": 7926,
      "ĠáĪĺáĪĭ": 7927,
      "ĠáĪĺáĬĸ": 7928,
      "Ġhapo": 7929,
      "áĬĴáīµ": 7930,
      "áįĬáĭİáī½": 7931,
      "Ġshaharar": 7932,
      "ĠáĪļáĬ«áĬ¤áĪį": 7933,
      "ĠáĮ½áĪķáįĪáīµ": 7934,
      "ĠáĬªáĭ³áĬķ": 7935,
      "ĠDevelopment": 7936,
      "Ġcontinu": 7937,
      "Ġáīłáī¥áĭĻ": 7938,
      "áīĢáĪĺáĮ«": 7939,
      "ĠáĮłáīħáĪĭáĭŃ": 7940,
      "ĠáĪļáĬĴáĪµáīµáĪŃ": 7941,
      "ĠKÃ¡tÃ³lÃ¬kÃ¬": 7942,
      "ĠfÃŃlmÃ¹": 7943,
      "car": 7944,
      "Ġnation": 7945,
      "ĠKon": 7946,
      "ables": 7947,
      "Historia": 7948,
      "mÃł": 7949,
      "usal": 7950,
      "Ġ1942": 7951,
      "Ġpersonn": 7952,
      "áĪ¦": 7953,
      "amá»į": 7954,
      "Ġgovernment": 7955,
      "ĠNations": 7956,
      "áĭ°áĪŃáĪµ": 7957,
      "ĠáĪĺáī¥": 7958,
      "ĠáĪĺáĮĢáĪĺáĪªáĭ«": 7959,
      "Ġmah": 7960,
      "áĪ«áĭįáĭ«áĬķ": 7961,
      "ĠáĪĿáĬĴáĪįáĬŃ": 7962,
      "ĠáĪįáĪĽ": 7963,
      "ĠAlhaji": 7964,
      "ĠMaur": 7965,
      "ĠZiwa": 7966,
      "áī¤áī±": 7967,
      "nÃ¬s": 7968,
      "Ġasilimia": 7969,
      "Ġappel": 7970,
      "Ġwatoto": 7971,
      "zungum": 7972,
      "Ġmbunge": 7973,
      "Ġwasemaji": 7974,
      "deo": 7975,
      "ston": 7976,
      "1999": 7977,
      "UN": 7978,
      "Ġpor": 7979,
      "dered": 7980,
      "52": 7981,
      "gement": 7982,
      "áĪŃáī³": 7983,
      "áī°áĬĵ": 7984,
      "áĭ«áĭįáĭ«áĬķ": 7985,
      "áĪĪáĪį": 7986,
      "etnam": 7987,
      "áĪ³áĭį": 7988,
      "áĮ¥áĬĲáīµ": 7989,
      "ĠáĭĵáĪĭáĪĽ": 7990,
      "ÃłnÃł": 7991,
      "Ġáº¹bÃŃ": 7992,
      "Ġestab": 7993,
      "ĠgbÃ¡": 7994,
      "Ġáĭ¨áĪĺáĮ£": 7995,
      "ĠáĪĬáĪĨáĬķ": 7996,
      "Ġáĭķáĭį": 7997,
      "Ġ1944": 7998,
      "ĠolÃ³Ã²": 7999,
      "áĪµáī°áĪŃ": 8000,
      "Ġulio": 8001,
      "rÃ¬á¹£Ãł": 8002,
      "ĠáĪľáĭ³": 8003,
      "Ġwenyeji": 8004,
      "ĠTarayya": 8005,
      "Ġtenis": 8006,
      "Ġran": 8007,
      "Ġrest": 8008,
      "lection": 8009,
      "ĠPulit": 8010,
      "ĠDist": 8011,
      "ecti": 8012,
      "ource": 8013,
      "ĠPulitzer": 8014,
      "Ġlow": 8015,
      "Ġgiga": 8016,
      "ĠJac": 8017,
      "ront": 8018,
      "ĠColumb": 8019,
      "gwa": 8020,
      "mond": 8021,
      "rans": 8022,
      "Ġnyota": 8023,
      "áĪĿáīłáĪŃ": 8024,
      "áĪĺáĬĵáĭĬ": 8025,
      "omm": 8026,
      "ĠJohann": 8027,
      "ĠRes": 8028,
      "ĠáĭĪáĭĺ": 8029,
      "quent": 8030,
      "ĠEko": 8031,
      "Ġáĭ«áĭį": 8032,
      "igo": 8033,
      "áīłáĪ®": 8034,
      "áĬķáĭµáĪµáĬĵ": 8035,
      "áĬķáĮįáĪµáīµ": 8036,
      "ĠÃĮjáº¹": 8037,
      "Ġsaka": 8038,
      "amua": 8039,
      "áĮĥáĭĿáĪĽáī½": 8040,
      "ĠáĮ¸áĪĲáįĬ": 8041,
      "ĠBirnin": 8042,
      "áĪµáī³áĬķ": 8043,
      "ĠáīłáĪŃáĬ«áī³": 8044,
      "ĠáĬłáĪµáī°áĭ³áĭ°áĪŃ": 8045,
      "Ġshugabar": 8046,
      "ĠSatumba": 8047,
      "ĠPÃ³pÃ¹": 8048,
      "Ġmito": 8049,
      "taf": 8050,
      "Ġtour": 8051,
      "utun": 8052,
      "Ġrema": 8053,
      "áĬ»": 8054,
      "yahudi": 8055,
      "Ġdasu": 8056,
      "Ġdauke": 8057,
      "ĠSpain": 8058,
      "gbá»įn": 8059,
      "Ġinu": 8060,
      "ĠÃ¬gbÃ¬má»į": 8061,
      "áĮ»áįį": 8062,
      "ĠáĬ¢áĬķ": 8063,
      "Ġderni": 8064,
      "ĠlÃ¡Ãłrin": 8065,
      "holanzi": 8066,
      "Ġndege": 8067,
      "ĠPasifiki": 8068,
      "82": 8069,
      "Mut": 8070,
      "dis": 8071,
      "Ġdar": 8072,
      "ĠAbe": 8073,
      "Ġcro": 8074,
      "esearch": 8075,
      "ĠPremi": 8076,
      "right": 8077,
      "kere": 8078,
      "zak": 8079,
      "ĠKh": 8080,
      "ĠBunge": 8081,
      "ĠthÃ©": 8082,
      "áĮ©": 8083,
      "Ġkakar": 8084,
      "Ġnye": 8085,
      "áĪ¨áįĪ": 8086,
      "áĮįáĬĺáīµ": 8087,
      "ĠGal": 8088,
      "osentomon": 8089,
      "áĭ¨áĪµ": 8090,
      "áĬ«áĬķ": 8091,
      "áĮ£áĪª": 8092,
      "Ġcewar": 8093,
      "Ġmatakin": 8094,
      "Ġsheria": 8095,
      "Ġkipindi": 8096,
      "Ġ1943": 8097,
      "uwancin": 8098,
      "Ġgabashin": 8099,
      "ĠáĬªáĪİ": 8100,
      "ĠáĪĨáĬĸáĪĿ": 8101,
      "ĠOrile": 8102,
      "ĠáĬłáĭµáĪŃáĮİ": 8103,
      "Ġmamaye": 8104,
      "ĠÆ´ar": 8105,
      "Ġtakarar": 8106,
      "ĠáĬĹáĪª": 8107,
      "Ġmvua": 8108,
      "Ġhor": 8109,
      "ĠGud": 8110,
      "ĠVirgin": 8111,
      "ĠBened": 8112,
      "pub": 8113,
      "ĠNic": 8114,
      "ĠIran": 8115,
      "ĠOsun": 8116,
      "Bisa": 8117,
      "ĠáĬ¦áĪŃ": 8118,
      "Ġtir": 8119,
      "adiyya": 8120,
      "ĠJer": 8121,
      "ĠáĭŃáįĪ": 8122,
      "ukuma": 8123,
      "Ġáĭ¨áĪļáī£áĪį": 8124,
      "Ġsuiv": 8125,
      "Ġuchumi": 8126,
      "áĭ²áĪ±": 8127,
      "áĪĬáĭ«áĬķ": 8128,
      "Ġakafuatwa": 8129,
      "áī¦áĪŃ": 8130,
      "áįīáīµ": 8131,
      "ĠáĪŃáĭķ": 8132,
      "ĠáĬłáĪĽáĬ«": 8133,
      "Ġmsingi": 8134,
      "ĠElezo": 8135,
      "Ġáīłáī°áĪĪáĭŃáĪĿ": 8136,
      "NN": 8137,
      "ËĪ": 8138,
      "rick": 8139,
      "Ġpermet": 8140,
      "Ġtyp": 8141,
      "Ġima": 8142,
      "áĪĲáĭŃ": 8143,
      "td": 8144,
      "à¥": 8145,
      "Ġbata": 8146,
      "ĠFederal": 8147,
      "ĠáĭĪáĮ£": 8148,
      "ĠáĬ¥áĬķáĭµ": 8149,
      "rac": 8150,
      "bujoko": 8151,
      "ĠáīłáĪĺáĪµ": 8152,
      "áĮ¨áīµ": 8153,
      "Ġmaneno": 8154,
      "ĠáĪĻáĭļáīĥ": 8155,
      "jÃłkÃ¡láº¹": 8156,
      "Ġasilia": 8157,
      "ĠáĮĪáĬķáĭĺáī¥": 8158,
      "Rayuwar": 8159,
      "áīħáĭ«áĬĸáĪµ": 8160,
      "Ġtáº¹lifÃŃ": 8161,
      "ĠCalifornia": 8162,
      "AL": 8163,
      "GB": 8164,
      "umin": 8165,
      "Ġpartir": 8166,
      "ĠCross": 8167,
      "ĠArgentina": 8168,
      "pal": 8169,
      "Ġdauki": 8170,
      "áĭ«áīµ": 8171,
      "Ġjulá»į": 8172,
      "ĠBÃŃ": 8173,
      "Ġmaarufu": 8174,
      "áĪ«áĪª": 8175,
      "áīĥáĪī": 8176,
      "Ġáĭ°áĮĭ": 8177,
      "Ġanal": 8178,
      "ellow": 8179,
      "ĠáĪģáĪīáĪĿ": 8180,
      "Ġappro": 8181,
      "áį²áį±áį»áį¶áį": 8182,
      "Ġkalenda": 8183,
      "áĪĽáĭŃáĪµáĮ¥": 8184,
      "Ġcertain": 8185,
      "ĠáĪļáĬĴáĪµáī´": 8186,
      "Ġaddini": 8187,
      "Ġsouvent": 8188,
      "Ġlissa": 8189,
      "ĠáĭµáĬķáĮĭáĭŃ": 8190,
      "Ġhistori": 8191,
      "hah": 8192,
      "elo": 8193,
      "Ġtemps": 8194,
      "gypti": 8195,
      "pya": 8196,
      "ĠCup": 8197,
      "Ġey": 8198,
      "odun": 8199,
      "Ġprob": 8200,
      "ĠBuhari": 8201,
      "des": 8202,
      "ym": 8203,
      "ÏĦ": 8204,
      "Ġem": 8205,
      "anzo": 8206,
      "ĠkÃ¡Ãł": 8207,
      "Ġdare": 8208,
      "áĪĿáĪĮ": 8209,
      "áĪįáĪĿáĬĵ": 8210,
      "ĠpÃŃn": 8211,
      "Ġowo": 8212,
      "ĠáĬ¥áĪŃáĪ±": 8213,
      "áĭ°áĮĪ": 8214,
      "ĠáĪĺáī¥áīµ": 8215,
      "áĮĭáĪª": 8216,
      "thers": 8217,
      "áī²áīµ": 8218,
      "ĠAlbert": 8219,
      "Ġkowane": 8220,
      "áĬĶáīµ": 8221,
      "ĠáĪķáĭŃáĭĪáīµ": 8222,
      "Ġwanao": 8223,
      "ĠKikuu": 8224,
      "ĠBag": 8225,
      "ĠLar": 8226,
      "84": 8227,
      "xi": 8228,
      "2001": 8229,
      "Ġexemple": 8230,
      "54": 8231,
      "64": 8232,
      "Eneo": 8233,
      "IN": 8234,
      "kundu": 8235,
      "áĪĪáĪ°": 8236,
      "ĠSpe": 8237,
      "áī³áĪªáĬŃ": 8238,
      "áī£áī±": 8239,
      "áĮ¥áĪ¨áīµ": 8240,
      "áĭĭáĪŃáĭ«": 8241,
      "áĭĿáĬĵ": 8242,
      "agun": 8243,
      "oton": 8244,
      "fupi": 8245,
      "ĠWaarabu": 8246,
      "Ġyarjejen": 8247,
      "Ġlililo": 8248,
      "Ã´te": 8249,
      "Ġutamaduni": 8250,
      "Ġnguvu": 8251,
      "fano": 8252,
      "ĠMana": 8253,
      "ĠDani": 8254,
      "ulus": 8255,
      "Ili": 8256,
      "bal": 8257,
      "Ġperson": 8258,
      "bÃ¬": 8259,
      "fl": 8260,
      "áĮĲ": 8261,
      "eren": 8262,
      "ering": 8263,
      "Ġfá»į": 8264,
      "áĭ°áī¡áī¥": 8265,
      "ingana": 8266,
      "laka": 8267,
      "ÆĻe": 8268,
      "ĠáĪµáī´": 8269,
      "áĭļáĭ«áĬķ": 8270,
      "áĮłáĬķ": 8271,
      "Ġeni": 8272,
      "Ġkamfan": 8273,
      "attun": 8274,
      "Ġcommer": 8275,
      "ample": 8276,
      "ÃĪyÃŃ": 8277,
      "Ġhabari": 8278,
      "57": 8279,
      "AD": 8280,
      "adini": 8281,
      "Ġins": 8282,
      "ĠHab": 8283,
      "udd": 8284,
      "Maj": 8285,
      "ĠDenmark": 8286,
      "ĠOlu": 8287,
      "poque": 8288,
      "ĠProf": 8289,
      "cus": 8290,
      "dÃ¬ÃŃ": 8291,
      "ĠÃį": 8292,
      "ĠAkwa": 8293,
      "Ġbado": 8294,
      "Ġoju": 8295,
      "ĠáĮĵ": 8296,
      "Ġ1914": 8297,
      "ĠChe": 8298,
      "áĪ«áĬĴ": 8299,
      "ĠGombe": 8300,
      "refu": 8301,
      "ĠamÃ©": 8302,
      "áĪĬáĪµ": 8303,
      "Ġáīłáī°áĪĪáĭ«áĭ©": 8304,
      "ĠWaingereza": 8305,
      "ĠáīłáĬłáĭ²áĪµ": 8306,
      "ticle": 8307,
      "ccen": 8308,
      "wamba": 8309,
      "ĠáįįáīħáĪŃ": 8310,
      "ĠáĬłáĪįáįĭ": 8311,
      "Ġáī¤áī°áĬŃáĪŃáĪµáī²áĭ«áĬķ": 8312,
      "Ġakáº¹": 8313,
      "Ġkiran": 8314,
      "Ġrubutu": 8315,
      "Ġáĭ¨áįĸáĪĪáī²áĬ«": 8316,
      "vant": 8317,
      "ĠTele": 8318,
      "saka": 8319,
      "ody": 8320,
      "Ġkak": 8321,
      "ĠAss": 8322,
      "elui": 8323,
      "Ġ1922": 8324,
      "Ġalbum": 8325,
      "BÃ¡": 8326,
      "ĠáĬĶ": 8327,
      "Ġnamba": 8328,
      "áĬķáĮĢ": 8329,
      "ĠsÃ³": 8330,
      "Ġset": 8331,
      "Ġáĭ¨áĭķ": 8332,
      "áĭįáĬĵ": 8333,
      "ĠKeb": 8334,
      "áĬĲáĪµ": 8335,
      "ĠáīłáĪ®": 8336,
      "áĭ¨áĬķ": 8337,
      "áĭ¨áĬ¢áīµáĭ®áĮµáĭ«": 8338,
      "áĬ«áĭµ": 8339,
      "raft": 8340,
      "Ġmatasa": 8341,
      "rison": 8342,
      "Ġpropos": 8343,
      "Ġyankunan": 8344,
      "ĠáĪķáĮį": 8345,
      "Ġáĭ¨áĬĲáīłáĪ©": 8346,
      "Ġ1937": 8347,
      "áį²áį±áį»áį·áį": 8348,
      "ĠáĭŃáī½áĪĭáĪī": 8349,
      "Ġcours": 8350,
      "fÃŃrÃŃkÃł": 8351,
      "tumÃ²": 8352,
      "ĠFoundation": 8353,
      "Ġdel": 8354,
      "onso": 8355,
      "Ġland": 8356,
      "Ġgiv": 8357,
      "tari": 8358,
      "Ġschool": 8359,
      "áĪĿáĪµ": 8360,
      "hawa": 8361,
      "holic": 8362,
      "Ġavant": 8363,
      "wÃ¬": 8364,
      "Ġnor": 8365,
      "Ã¡Ã¡jÃº": 8366,
      "ĠáīłáĭļáĪģ": 8367,
      "Ġwanyama": 8368,
      "áĬĲáĭĵáĬķ": 8369,
      "Ġibáº¹": 8370,
      "áĪħáĪŃ": 8371,
      "áīĢáĪĿ": 8372,
      "ĠÆĻir": 8373,
      "Ġeach": 8374,
      "áĭ®áīµ": 8375,
      "Ġuwe": 8376,
      "ilishi": 8377,
      "ĠVisiwa": 8378,
      "pokea": 8379,
      "ĠáīłáĪĺáĮ¨áĪ¨áĪ»": 8380,
      "áī¡áĪŃ": 8381,
      "ĠáĬłáĬķáĭ°": 8382,
      "tÃłrÃŃ": 8383,
      "Ġ1933": 8384,
      "ĠáįĬáĭ°": 8385,
      "áĪĺáĪĪáĪµ": 8386,
      "áĮĪáĪĪáĮį": 8387,
      "ĠáĪªáįĲáī¥áĪĬáĬŃ": 8388,
      "ĠáīłáĭĵáĪĪáĪĿ": 8389,
      "ĠáĮłáĪĭ": 8390,
      "fai": 8391,
      "ny": 8392,
      "Ġsol": 8393,
      "orks": 8394,
      "ods": 8395,
      "ring": 8396,
      "Ġure": 8397,
      "dian": 8398,
      "Ġ1936": 8399,
      "Ts": 8400,
      "Ġcur": 8401,
      "Ġown": 8402,
      "Ġhuru": 8403,
      "áī°áĬŀáī½": 8404,
      "Ġvina": 8405,
      "áĪŀáĬķ": 8406,
      "Ġáĭ¨áī°áīĢ": 8407,
      "pokuwa": 8408,
      "Ġardhi": 8409,
      "áĭĵáĪĪáĪĿ": 8410,
      "ĠáĬ¢áĭ¨áĪ±áĪµ": 8411,
      "áĬ¨áī°áĪį": 8412,
      "ĠelÃ©": 8413,
      "Ġkilimo": 8414,
      "ĠWanasayansi": 8415,
      "Ġáĭ¨áĪĪáĭįáĪĿ": 8416,
      "Ġcigaba": 8417,
      "ilway": 8418,
      "ĠBl": 8419,
      "chang": 8420,
      "And": 8421,
      "Ġmoto": 8422,
      "ĠSwed": 8423,
      "bra": 8424,
      "kari": 8425,
      "lar": 8426,
      "ĠSau": 8427,
      "abara": 8428,
      "omes": 8429,
      "key": 8430,
      "ova": 8431,
      "ournal": 8432,
      "nement": 8433,
      "Ġáĭ¨áĮ¦áĪŃ": 8434,
      "áĭįáĪµ": 8435,
      "ĠáīłáĬŃ": 8436,
      "ĠáĬ¥áĮ½áĭĭáīµ": 8437,
      "ĠNje": 8438,
      "Ġ1917": 8439,
      "ĠJanar": 8440,
      "Ã²fin": 8441,
      "áįįáī°áĬĽ": 8442,
      "áĭ³áĭĬ": 8443,
      "Ġvid": 8444,
      "áĬ«áīµ": 8445,
      "áĭĿáī¡": 8446,
      "Ġelimu": 8447,
      "ĠáĮįáĪį": 8448,
      "ĠáĮįáĪ«": 8449,
      "Ġáĭ°áĪŃ": 8450,
      "Ġáĭ°áī¥áĪ¨": 8451,
      "áĭĽáĪį": 8452,
      "Ġáĭ¨áĬłáĪŃ": 8453,
      "ĠáĪħáĮį": 8454,
      "ĠáīłáĬłáĪľáĪªáĬ«": 8455,
      "Ġkaláº¹": 8456,
      "ĠáĬłáĪĭáī¸áĭį": 8457,
      "áįĵáĬķáĬĽ": 8458,
      "ĠáĪĬáīĥáĭįáĬķáīµ": 8459,
      "ĠáĭĪáĭĺáī°": 8460,
      "Don": 8461,
      "tin": 8462,
      "zza": 8463,
      "ĠMili": 8464,
      "ĠMod": 8465,
      "ĠprÃ©sid": 8466,
      "Ġgrande": 8467,
      "itude": 8468,
      "igawa": 8469,
      "ĠdÃ©velopp": 8470,
      "53": 8471,
      "SA": 8472,
      "tta": 8473,
      "anc": 8474,
      "Ġtashi": 8475,
      "Ġmama": 8476,
      "Ġmche": 8477,
      "uncin": 8478,
      "ĠáĮ»": 8479,
      "áĪĺáĬĵáĪį": 8480,
      "áĭ°áĮĭ": 8481,
      "áĪ³áī¸áĭįáĬķ": 8482,
      "ĠáīłáĪ±": 8483,
      "Ġáĭ¨áĪ¶": 8484,
      "ĠHon": 8485,
      "ĠHali": 8486,
      "diyo": 8487,
      "ĠáĬ¥áĬķáĬ³áĬķ": 8488,
      "áīħáĪį": 8489,
      "ĠáĬ¥áĬķáĭ°áĬĲáīłáĪŃ": 8490,
      "pinzani": 8491,
      "ikoa": 8492,
      "ĠáĬłáĪµáī°áĭĭ": 8493,
      "ĠáįĬáĪį": 8494,
      "Ġdigirin": 8495,
      "Ġtashar": 8496,
      "Ġmusulunci": 8497,
      "ĠCouncil": 8498,
      "gypt": 8499,
      "ĠScience": 8500,
      "Ġkwallaye": 8501,
      "kya": 8502,
      "mann": 8503,
      "Ġtype": 8504,
      "Ġdat": 8505,
      "Ġsmall": 8506,
      "rag": 8507,
      "ĠCoast": 8508,
      "pu": 8509,
      "Ġopp": 8510,
      "aland": 8511,
      "Ġ1931": 8512,
      "jÃ¬n": 8513,
      "Ġnkan": 8514,
      "Ġwaya": 8515,
      "oran": 8516,
      "ĠTown": 8517,
      "ĠáīłáĪ³": 8518,
      "sign": 8519,
      "ĠUchaguzi": 8520,
      "ÆĻar": 8521,
      "igba": 8522,
      "ops": 8523,
      "Ġáĭ¨áī°áĬĲáĪ³": 8524,
      "kiwa": 8525,
      "Ġarch": 8526,
      "Ġseveral": 8527,
      "ishaji": 8528,
      "ĠLeo": 8529,
      "ĠáĭŃáĮĪáĪĺ": 8530,
      "ĠáĪ¥áĪŃáĭĵáīµ": 8531,
      "Ġdangin": 8532,
      "ĠlÃ¡ÃłrÃŃn": 8533,
      "Ġjagoranci": 8534,
      "ĠáĪĺáĭĭáĭķáĪį": 8535,
      "97": 8536,
      "mir": 8537,
      "Ø¹": 8538,
      "ĠFe": 8539,
      "atus": 8540,
      "atif": 8541,
      "Ġ1925": 8542,
      "Ġimportant": 8543,
      "68": 8544,
      "oÃ²rÃ¹n": 8545,
      "áĮ®": 8546,
      "Ġkansu": 8547,
      "Ġáĭ¨áįĪáĪ¨áĬķáĪ³áĭŃ": 8548,
      "ĠOxford": 8549,
      "agas": 8550,
      "Ġback": 8551,
      "ĠâĢİ": 8552,
      "Ġsiasa": 8553,
      "áĭ©áīµ": 8554,
      "Ġdonc": 8555,
      "abuwar": 8556,
      "áĪ´áīµ": 8557,
      "uawa": 8558,
      "Ġstudi": 8559,
      "ananchi": 8560,
      "ĠáĮīáĪį": 8561,
      "áĪłáī¥": 8562,
      "Ġzamanta": 8563,
      "Ġfiramare": 8564,
      "Ġambalo": 8565,
      "Äĵ": 8566,
      "Ġmana": 8567,
      "ĠWad": 8568,
      "gali": 8569,
      "undwa": 8570,
      "Ùĳ": 8571,
      "Ġmic": 8572,
      "Ġkudi": 8573,
      "leta": 8574,
      "chie": 8575,
      "ĠInter": 8576,
      "Ġaround": 8577,
      "Ġorigin": 8578,
      "ĠWaziri": 8579,
      "wáº¹": 8580,
      "Ġmlima": 8581,
      "isko": 8582,
      "amai": 8583,
      "Ġbabu": 8584,
      "Ġpou": 8585,
      "ĠáĬĲáī½": 8586,
      "ĠGida": 8587,
      "though": 8588,
      "Ġolud": 8589,
      "Ġhars": 8590,
      "Ġactiv": 8591,
      "ĠáĭĺáĪĺáī»": 8592,
      "Ġriga": 8593,
      "ĠáīłáĪ°áĪľáĬķ": 8594,
      "ĠmÃºláº¹": 8595,
      "wikipedia": 8596,
      "ĠJamhuriyar": 8597,
      "uropÃ©": 8598,
      "Ðº": 8599,
      "Ġq": 8600,
      "Ġcrit": 8601,
      "abeth": 8602,
      "51": 8603,
      "ked": 8604,
      "ted": 8605,
      "well": 8606,
      "Ġsanda": 8607,
      "Ġbada": 8608,
      "ĠOsu": 8609,
      "Mal": 8610,
      "Sab": 8611,
      "ØŃ": 8612,
      "áĭ¢": 8613,
      "Ġtatta": 8614,
      "Ġáĭ¨áįĭ": 8615,
      "iso": 8616,
      "Ġbun": 8617,
      "Ġcr": 8618,
      "ĠpÃºpá»į": 8619,
      "ĠwÃ²": 8620,
      "tage": 8621,
      "ĠÃ¬f": 8622,
      "ĠÃ¬á¹£": 8623,
      "ĠáĬłáĪ¥": 8624,
      "áĬ¨áĪ°": 8625,
      "áĪ®áĪŀ": 8626,
      "ungwa": 8627,
      "ĠáĮ¥áĭ«áīĦ": 8628,
      "áĪķáĪį": 8629,
      "kÃ²rÃ²": 8630,
      "Ġbecause": 8631,
      "ĠáīłáĪĮáĪĭ": 8632,
      "ĠáĪµáī¥áĪµáī¥": 8633,
      "Ġfai": 8634,
      "ĠPap": 8635,
      "iyi": 8636,
      "itan": 8637,
      "ĠVietnam": 8638,
      "Ġproduction": 8639,
      "Ġencore": 8640,
      "ĠÃītats": 8641,
      "bro": 8642,
      "kina": 8643,
      "work": 8644,
      "Ġume": 8645,
      "Ġsashen": 8646,
      "onais": 8647,
      "áĭįáĪį": 8648,
      "Ġwasi": 8649,
      "Ġwala": 8650,
      "áĭŃáĪŃáĪĭáĬķáĭµ": 8651,
      "áĭ°áĪŃáĮī": 8652,
      "ĠáĪĺáī³": 8653,
      "Ġoften": 8654,
      "ingo": 8655,
      "Ġ2022": 8656,
      "Ġáī°áĪĽáĪª": 8657,
      "aridi": 8658,
      "Ġoruko": 8659,
      "Ġeko": 8660,
      "ĠáĮįáĪªáĬŃ": 8661,
      "Ġáĭ¨áī°áĭĪáĪ°": 8662,
      "weka": 8663,
      "ĠMapapa": 8664,
      "ĠÅĦlÃ¡": 8665,
      "Ġprocess": 8666,
      "Ġhewa": 8667,
      "Ġambaye": 8668,
      "ĠonÃŃmá»į": 8669,
      "ĠáĬĲáīłáĪ¨áī½": 8670,
      "Ġkalmar": 8671,
      "aikatar": 8672,
      "ajemi": 8673,
      "zingira": 8674,
      "Ġanim": 8675,
      "ĠáĭŃáĮĪáĪĺáī³áĪį": 8676,
      "63": 8677,
      "His": 8678,
      "oire": 8679,
      "ĠDat": 8680,
      "gaz": 8681,
      "ĠRome": 8682,
      "ched": 8683,
      "Ùĥ": 8684,
      "áĥ": 8685,
      "Ġtam": 8686,
      "Ġfois": 8687,
      "ĠCast": 8688,
      "Ġrece": 8689,
      "ng": 8690,
      "sitÃ¬": 8691,
      "zikia": 8692,
      "Ġáĭĳ": 8693,
      "ÃŃÃł": 8694,
      "áĪµáī³áīµ": 8695,
      "ĠKatoliki": 8696,
      "áĭŃáīħ": 8697,
      "ĠIlu": 8698,
      "ĠTovuti": 8699,
      "Ġimo": 8700,
      "Ġdefin": 8701,
      "ĠáĪµáī¥": 8702,
      "Ġáĭ¨áĪļáĪĺ": 8703,
      "Ġamatsayin": 8704,
      "Ġáĭ¨áĬłáĪĪáĪĿ": 8705,
      "ĠparÃŃ": 8706,
      "Ġyii": 8707,
      "ouest": 8708,
      "Ġsoit": 8709,
      "ĠáĪ¥áĪįáĮ£áĬķ": 8710,
      "Ġhuitwa": 8711,
      "Ġitá»į": 8712,
      "gbÃ©sÃŃ": 8713,
      "Ġbude": 8714,
      "Ġikon": 8715,
      "Ġáī°áĭĪáĪĪáĭ°": 8716,
      "ĠáĬłáĭįáĪ®áįĵ": 8717,
      "áĬĹáĪį": 8718,
      "ĠáĪĺáĬĲáĪ»": 8719,
      "Ġfollowing": 8720,
      "Ġnitori": 8721,
      "Ġhistory": 8722,
      "thur": 8723,
      "ĠAlgeria": 8724,
      "Ãªte": 8725,
      "ĠPortugal": 8726,
      "Ñģ": 8727,
      "aron": 8728,
      "enu": 8729,
      "ĠTun": 8730,
      "side": 8731,
      "Ġlist": 8732,
      "IA": 8733,
      "ĠAy": 8734,
      "áĪµáī²": 8735,
      "Ġcirc": 8736,
      "Ġfata": 8737,
      "uren": 8738,
      "Ġgan": 8739,
      "ĠBara": 8740,
      "ĠáĪĺáīĢáĪĺáĮ«": 8741,
      "áĪĽáĪ¨": 8742,
      "ĠGram": 8743,
      "áīħáĭ±áĪµ": 8744,
      "áįĪáĪ«": 8745,
      "antun": 8746,
      "ĠáīħáĬĿ": 8747,
      "ĠgbÃ³": 8748,
      "áĪ£áĭŃ": 8749,
      "áĪµáī°áĬĽáĭį": 8750,
      "Ã³nÃł": 8751,
      "ĠáĪĿáĬŃáĪŃ": 8752,
      "Ġtarayya": 8753,
      "ĠáĪ½áĪį": 8754,
      "ĠBras": 8755,
      "ĠTsak": 8756,
      "Ġáĭ¶áĪ®": 8757,
      "ĠCompany": 8758,
      "ĠáĪĺáĪ£áĪªáĭ«": 8759,
      "61": 8760,
      "93": 8761,
      "ghan": 8762,
      "kasa": 8763,
      "Ġculture": 8764,
      "ĠRivers": 8765,
      "Ġquel": 8766,
      "Ġchild": 8767,
      "Tun": 8768,
      "ĠÙħ": 8769,
      "ĠAust": 8770,
      "Ġround": 8771,
      "Ġinternational": 8772,
      "ĠHad": 8773,
      "Ġ1929": 8774,
      "vention": 8775,
      "Ġphys": 8776,
      "Hata": 8777,
      "no": 8778,
      "pÃł": 8779,
      "Ġkiya": 8780,
      "Ġdaular": 8781,
      "áĪµáĪĬ": 8782,
      "Ġfas": 8783,
      "áī°áĭ³": 8784,
      "áĭ°áĬķáīµ": 8785,
      "áĪ¨áī°": 8786,
      "áĮĪáĭĽ": 8787,
      "áĪĭáĮħ": 8788,
      "Ġingawa": 8789,
      "Ġyá»į": 8790,
      "ĠWap": 8791,
      "ĠGÃºÃºsÃ¹": 8792,
      "áīłáĪ»": 8793,
      "unganisha": 8794,
      "áĭķáīĨ": 8795,
      "Ġmuhimman": 8796,
      "jinta": 8797,
      "ĠáĬłáĪįáįİ": 8798,
      "Ġáĭ¨áĬ¥áĬķáĮįáĪĬáĭĿ": 8799,
      "Ġáī°áīĢáĪĿ": 8800,
      "Ġcontre": 8801,
      "ĠáĮ¨áĭĭ": 8802,
      "ĠAustrÃ¡lÃŃÃł": 8803,
      "ĠkÃºkur": 8804,
      "Ġkidogo": 8805,
      "ĠkÃºkurÃº": 8806,
      "ght": 8807,
      "Ð»": 8808,
      "Ġgund": 8809,
      "ĠRam": 8810,
      "Ġbook": 8811,
      "ono": 8812,
      "ules": 8813,
      "undo": 8814,
      "Ġformer": 8815,
      "ĠGregori": 8816,
      "Fran": 8817,
      "Sc": 8818,
      "Ġtsib": 8819,
      "Ġbunge": 8820,
      "ĠMr": 8821,
      "ĠBul": 8822,
      "áīłáĭ«": 8823,
      "etter": 8824,
      "áīĢáĪµ": 8825,
      "zima": 8826,
      "ĠYuli": 8827,
      "áĪ©áĬŃ": 8828,
      "ĠkarÃ¹n": 8829,
      "Ġ500": 8830,
      "huwar": 8831,
      "ĠáĪµáĪĿáĪĿáĬĲáīµ": 8832,
      "kÃ²Ã³": 8833,
      "reno": 8834,
      "ĠáĪĺáĬķáĮĪ": 8835,
      "Ġyarda": 8836,
      "áįİáĪŃ": 8837,
      "ĠáĬ¨áĬłáĬķáĭµ": 8838,
      "áĭ¥áĬķ": 8839,
      "ĠáĭŃáī³áĪĺáĬĵáĪį": 8840,
      "Ġpolitique": 8841,
      "Ġsarra": 8842,
      "However": 8843,
      "rement": 8844,
      "vement": 8845,
      "Ġhus": 8846,
      "Ġalka": 8847,
      "Ġ...": 8848,
      "xes": 8849,
      "uge": 8850,
      "ĠAna": 8851,
      "Ġstud": 8852,
      "à¤ķà¤": 8853,
      "ciya": 8854,
      "áī¿": 8855,
      "ĠáĭĬ": 8856,
      "áĬķáĪ°": 8857,
      "Ġáĭ¨áĪ«": 8858,
      "Ġáĭ¨áĮİ": 8859,
      "Ġáĭ¨áĪĺáĬķ": 8860,
      "itect": 8861,
      "áĪĪáĪµ": 8862,
      "áĪĪáĭ±": 8863,
      "atibu": 8864,
      "ĠIgbo": 8865,
      "áī¥áĪĭ": 8866,
      "áĮĪáĪ¨": 8867,
      "áī£áī£": 8868,
      "ĠÃ¬wÃ¡": 8869,
      "ĠDir": 8870,
      "Ġáī°áĮĪáĬĿ": 8871,
      "ĠáīłáĪ¶": 8872,
      "ĠHel": 8873,
      "ĠáĭĪáĭ²áĭ«": 8874,
      "ĠUislamu": 8875,
      "Ġáĭ«áĭ°áĪŃ": 8876,
      "ĠáĪĽáĪ¨": 8877,
      "áī¶áĭ¶": 8878,
      "ĠÃĢyá»įkÃł": 8879,
      "Ġalichunguza": 8880,
      "ĠsÃŃnÃº": 8881,
      "Ġkwana": 8882,
      "áĪ£áĪ¥": 8883,
      "Ġmean": 8884,
      "essor": 8885,
      "ĠTurk": 8886,
      "áī¥áĪ¨áī°": 8887,
      "ĠÃģfÃŃrÃŃkÃł": 8888,
      "Ġkikubwa": 8889,
      "Ġtaimaka": 8890,
      "ĠÃ¬lera": 8891,
      "awar": 8892,
      "unta": 8893,
      "ission": 8894,
      "Ġbase": 8895,
      "quement": 8896,
      "century": 8897,
      "Fil": 8898,
      "atives": 8899,
      "Abd": 8900,
      "ĠLibr": 8901,
      "fesa": 8902,
      "gh": 8903,
      "Ġ{": 8904,
      "ĠlÃł": 8905,
      "Ġfather": 8906,
      "Ġwenza": 8907,
      "time": 8908,
      "ĠJigawa": 8909,
      "Ġoluko": 8910,
      "Ġáī£áĪħáĪį": 8911,
      "epá»į": 8912,
      "ardin": 8913,
      "áĪŃáīµáĪ«": 8914,
      "widi": 8915,
      "Ġnomba": 8916,
      "exp": 8917,
      "ĠáĪµáĪŃáĭĵáīµ": 8918,
      "áĪ¨áĮĭáĮĪ": 8919,
      "Ġbandari": 8920,
      "áĬ¥áĬķáĭ²áĪģáĪĿ": 8921,
      "Ġáī°áĮ«áĭĭ": 8922,
      "Ġmani": 8923,
      "Ġpower": 8924,
      "Ġjan": 8925,
      "ĠNik": 8926,
      "Ġassoci": 8927,
      "Ġcond": 8928,
      "ĠZam": 8929,
      "very": 8930,
      "orig": 8931,
      "ĠVI": 8932,
      "ĠMah": 8933,
      "Ġprote": 8934,
      "They": 8935,
      "Ġsince": 8936,
      "badili": 8937,
      "fÃº": 8938,
      "áī®": 8939,
      "Ġwaye": 8940,
      "Ġgidi": 8941,
      "áĪĺáĪĿ": 8942,
      "áī½áĬ¹": 8943,
      "áī¥áī»": 8944,
      "gaji": 8945,
      "ĠRasha": 8946,
      "áĭĭáī¸áĭį": 8947,
      "ĠÆĻasashen": 8948,
      "áĪ³áĪĮáĪĿ": 8949,
      "Ġáĭ¨áī°áĭĪáĪĪ": 8950,
      "ĠáĭµáĬķáĮįáĪį": 8951,
      "áĪģáįį": 8952,
      "ĠMatan": 8953,
      "»áįī": 8954,
      "Ġ1941": 8955,
      "Ġaikinta": 8956,
      "halifa": 8957,
      "Ġáī°áĪ«áĪ®áī½": 8958,
      "Ġáīłáī³áĪªáĬŃ": 8959,
      "áī§áĪį": 8960,
      "ĠáĬłáĪµáįĪáĪĭáĮĬ": 8961,
      "ĠHarsunan": 8962,
      "kara": 8963,
      "Ġhat": 8964,
      "ĠBaba": 8965,
      "ĠOd": 8966,
      "Ġvy": 8967,
      "Ġhapa": 8968,
      "issa": 8969,
      "ĠBill": 8970,
      "Ġida": 8971,
      "ĠShir": 8972,
      "ĠOlympics": 8973,
      "Be": 8974,
      "uda": 8975,
      "ĠáĬłáĭĪ": 8976,
      "eds": 8977,
      "áĬŃáĬĸ": 8978,
      "áĭ³áīµ": 8979,
      "áīĢáĮ½": 8980,
      "bobi": 8981,
      "ĠáĬ¥áĬĵáīµ": 8982,
      "ĠáĪ°áĪĽ": 8983,
      "Ġsawa": 8984,
      "áįĭáĬķ": 8985,
      "ĠáĬķáĮ¥áĪ¨": 8986,
      "Mahai": 8987,
      "áĭ°áĪ¨áĮį": 8988,
      "Ġshirika": 8989,
      "áĮĪáĬĻáīµ": 8990,
      "áĬķáĮīáĪł": 8991,
      "áĬĺáĭį": 8992,
      "Ġndio": 8993,
      "Ġkulob": 8994,
      "ĠSur": 8995,
      "ĠPas": 8996,
      "istes": 8997,
      "ended": 8998,
      "Ġmulti": 8999,
      "ĠMediter": 9000,
      "uer": 9001,
      "Ġgun": 9002,
      "Ġwill": 9003,
      "Ġval": 9004,
      "ĠfranÃ§aise": 9005,
      "ducation": 9006,
      "ataba": 9007,
      "Ġáĭ¨áĭļáĪħ": 9008,
      "Ġáĭ¨áī´": 9009,
      "Ġoper": 9010,
      "ĠáīłáĮ¥áĬķáī³áĭĬ": 9011,
      "áīłáĬ¥": 9012,
      "áĪ«áĪŃ": 9013,
      "ĠÃ¬dÃł": 9014,
      "ĠáĭĪáĮĪ": 9015,
      "áįįáī°": 9016,
      "Ġáĭ«áĪµáī°": 9017,
      "áī±áĪŃáĬŃ": 9018,
      "Ġáĭ¨áĪļáĬĸáĪŃ": 9019,
      "Ġáĭ¨áĪļáī£áĪĪáĭį": 9020,
      "áĭ²áīµ": 9021,
      "áĪłáĪ©": 9022,
      "Ġmusic": 9023,
      "Ġmwanzo": 9024,
      "páº¹áº¹ráº¹": 9025,
      "ĠPoly": 9026,
      "áĪŁáĪį": 9027,
      "áĪŀáĬŃáĪ«áĪ²": 9028,
      "ĠMun": 9029,
      "ired": 9030,
      "ĠBos": 9031,
      "ĠRh": 9032,
      "Ġequ": 9033,
      "CB": 9034,
      "Fir": 9035,
      "Ġnorth": 9036,
      "oron": 9037,
      "ĠZambia": 9038,
      "cks": 9039,
      "voire": 9040,
      "cident": 9041,
      "ĠIndones": 9042,
      "Con": 9043,
      "mat": 9044,
      "Ġkando": 9045,
      "Ġáī«": 9046,
      "yama": 9047,
      "kas": 9048,
      "Ġfer": 9049,
      "Ġhiki": 9050,
      "Ã¬á¹£áº¹": 9051,
      "áĭµáĪį": 9052,
      "ĠáīłáĪĪ": 9053,
      "Ġáĭ¨áĪ©": 9054,
      "aries": 9055,
      "arekani": 9056,
      "áĬłáĪŃ": 9057,
      "áįĪáĪ¨": 9058,
      "áīĥáīµ": 9059,
      "ĠáĪ°áįĬ": 9060,
      "ĠáĪ°áĭĵáīµ": 9061,
      "ĠÃĮjá»įba": 9062,
      "ÉĹe": 9063,
      "hou": 9064,
      "áĪ»áĪ»": 9065,
      "ĠáĭĭáĬķáĮ«": 9066,
      "ĠáĪļáĪµáīµ": 9067,
      "ĠáīłáĬ¥áĪµ": 9068,
      "Ġjiragen": 9069,
      "áĬħáĪ£áĪ¥": 9070,
      "ĠdÃłgbÃł": 9071,
      "ĠáĭįáĮ¤áīµ": 9072,
      "ĠÉĵang": 9073,
      "ĠáĬłáĪįáįĭáī¤áīµ": 9074,
      "EC": 9075,
      "pad": 9076,
      "omba": 9077,
      "ĠDep": 9078,
      "ĠHung": 9079,
      "reg": 9080,
      "ĠÃ©le": 9081,
      "ĠdÃ©but": 9082,
      "ĠrÃ©fÃ©r": 9083,
      "acc": 9084,
      "cr": 9085,
      "fund": 9086,
      "iwe": 9087,
      "asion": 9088,
      "town": 9089,
      "ĠVo": 9090,
      "ophy": 9091,
      "Ġinclu": 9092,
      "hematic": 9093,
      "Lá»į": 9094,
      "fas": 9095,
      "mshindi": 9096,
      "pakana": 9097,
      "wos": 9098,
      "Ì£": 9099,
      "Ġáĭī": 9100,
      "Ġmrefu": 9101,
      "ĠáĪĺáĪĨáĬķ": 9102,
      "Ġdeg": 9103,
      "ĠáĭŃáĬĸ": 9104,
      "Ã²gÃ¹n": 9105,
      "áĮĭáĬķ": 9106,
      "áĪģáĪĪáīµ": 9107,
      "ĠáĬ¥áĪµáĭ«": 9108,
      "Ġmwingine": 9109,
      "Ġshawarar": 9110,
      "Ġkáº¹tÃł": 9111,
      "Ġkáº¹fÃł": 9112,
      "ronom": 9113,
      "Ġhukumomi": 9114,
      "ĠGreat": 9115,
      "asanjo": 9116,
      "Ġparticuli": 9117,
      "ĠCape": 9118,
      "Ġagbara": 9119,
      "ĠAhmadu": 9120,
      "Ġkijeshi": 9121,
      "ĠáĭŀáĬķ": 9122,
      "ĠMalawi": 9123,
      "ĠâĢ¹âĢ¹": 9124,
      "ĠKebbi": 9125,
      "zerbai": 9126,
      "ĠGermany": 9127,
      "zuri": 9128,
      "Ġleurs": 9129,
      "usuf": 9130,
      "Ġrecord": 9131,
      "ĠJack": 9132,
      "ĠYear": 9133,
      "',": 9134,
      "act": 9135,
      "gÃł": 9136,
      "keno": 9137,
      "áĬķáī°": 9138,
      "Ġáĭ¨áī»áĭŃáĬĵ": 9139,
      "kaláº¹": 9140,
      "áĭįáĪ®": 9141,
      "áĪµáĮ¡": 9142,
      "Ġojoibi": 9143,
      "áĪĪáĭµ": 9144,
      "ĠTom": 9145,
      "ĠáĪĺáīĢ": 9146,
      "ĠÃ¬á¹£e": 9147,
      "áĬĽáĭįáĬķ": 9148,
      "Ġáī°áĭĽ": 9149,
      "ĠáĪĿáĮįáī¥": 9150,
      "áįįáĪ¬": 9151,
      "áĬ«áĪ«": 9152,
      "áĭĺáĪŃ": 9153,
      "fiadini": 9154,
      "ĠáĪįáĬŃ": 9155,
      "kuma": 9156,
      "ateau": 9157,
      "ĠáĪĨáĭŃ": 9158,
      "ĠChampion": 9159,
      "ĠorÃŃá¹£irÃŃá¹£i": 9160,
      "Ġáĭ¨áĬłáĬķáĭµ": 9161,
      "okrasia": 9162,
      "usiano": 9163,
      "ĠÆĬ": 9164,
      "áĮłáĪ«áĪį": 9165,
      "áīłáī°áĮ¨áĪĽáĪª": 9166,
      "ĠagbÃ¡bá»į": 9167,
      "Ġvitabu": 9168,
      "lier": 9169,
      "Ġcelui": 9170,
      ":-": 9171,
      "vices": 9172,
      "ĠKorea": 9173,
      "atima": 9174,
      "Ġtous": 9175,
      "erial": 9176,
      "Ġtechni": 9177,
      "ĠCommon": 9178,
      "ĠTanganyika": 9179,
      "Ed": 9180,
      "dÃ¹n": 9181,
      "fik": 9182,
      "Ġáī¬": 9183,
      "Ġfem": 9184,
      "ĠÃłsÃ¬kÃ²": 9185,
      "áĮįáĭµáĪĿ": 9186,
      "ĠCr": 9187,
      "utano": 9188,
      "ĠÃ¬yÃłwÃ³": 9189,
      "ĠÃ¬tÃłgÃ©": 9190,
      "keji": 9191,
      "áĬ¨áĪĿ": 9192,
      "bogbo": 9193,
      "Ġáī¥áĪĭ": 9194,
      "áĪĬáīµ": 9195,
      "áĬķáĮįáĭµ": 9196,
      "ĠÂ°": 9197,
      "Ġarzikin": 9198,
      "áĭ©áĬĵáĭŃáīµáĭµ": 9199,
      "engine": 9200,
      "Ġchang": 9201,
      "ĠArmen": 9202,
      "áĮĥáĪĿ": 9203,
      "Ġ978": 9204,
      "Ġayá»į": 9205,
      "umizi": 9206,
      "endeleo": 9207,
      "Ġaá¹£ojÃº": 9208,
      "ĠÃłkÃ³kÃ²": 9209,
      "Ġwakiltar": 9210,
      "ĠRayuwar": 9211,
      "ĠáĭįáĭµáĭµáĪŃ": 9212,
      "ĠShugaba": 9213,
      "Ġfonction": 9214,
      "ĠFabrairu": 9215,
      "Ġdifferent": 9216,
      "Ġmukamin": 9217,
      "tolog": 9218,
      "Ġrequ": 9219,
      "Ġbegan": 9220,
      "Ġexist": 9221,
      "ential": 9222,
      "Ġdisp": 9223,
      "ĠGeorgia": 9224,
      "cago": 9225,
      "ered": 9226,
      "ĠAv": 9227,
      "antin": 9228,
      "rice": 9229,
      "áĮ§": 9230,
      "Ġawo": 9231,
      "Ġawali": 9232,
      "Ġmie": 9233,
      "itta": 9234,
      "Ġnibi": 9235,
      "áīłáīł": 9236,
      "ollo": 9237,
      "ĠilÃ¨": 9238,
      "Ġuchaguzi": 9239,
      "ĠáĪ°áī¥": 9240,
      "ĠáīĢáĪ¨": 9241,
      "Ġmasara": 9242,
      "yancin": 9243,
      "ĠShari": 9244,
      "ĠIbom": 9245,
      "ĠáįĬáīµ": 9246,
      "áĪ«áĭĬáīµ": 9247,
      "kÃ¬tÃ¬": 9248,
      "ĠáĬªáĬķáĮį": 9249,
      "Ġatomu": 9250,
      "ĠáįĵáĪŃáī²áĭİáī½": 9251,
      "atures": 9252,
      "Ġjap": 9253,
      "idar": 9254,
      "rÃ©s": 9255,
      "ĠQueen": 9256,
      "á»": 9257,
      "Ġselon": 9258,
      "enna": 9259,
      "tour": 9260,
      "ĠChad": 9261,
      "ĠIssa": 9262,
      "Ġbased": 9263,
      "Lokacin": 9264,
      "now": 9265,
      "¹áĪŃ": 9266,
      "Ġkundin": 9267,
      "Ġdam": 9268,
      "ĠAso": 9269,
      "Ġjoto": 9270,
      "Ġtaf": 9271,
      "tak": 9272,
      "Ġnigb": 9273,
      "Ġyanar": 9274,
      "áĪ³áĪ°áī¥": 9275,
      "á¹£epá»į": 9276,
      "Ġáĭ«áĪĭ": 9277,
      "Ġáĭ«áĪīáīµ": 9278,
      "Ġáĭ¨áī°áĮĪáĬĺ": 9279,
      "Ġáī£áĪĪáĭį": 9280,
      "áĮłáĪī": 9281,
      "Ġsouth": 9282,
      "áī¤áĪį": 9283,
      "ongoza": 9284,
      "ĠáīłáĪļáĪį": 9285,
      "Ġzamanin": 9286,
      "Ġgirman": 9287,
      "ĠFrÃ¡n": 9288,
      "ĠáĬ¢áīµáĭ®áĮµáĭ«áĭĬ": 9289,
      "Ġzinaz": 9290,
      "Ġsarkin": 9291,
      "Ġgudanarwa": 9292,
      "Ġgener": 9293,
      "Ġjarida": 9294,
      "ĠáĬŃáįįáĪĭáĮĪáĪ«áīµ": 9295,
      "Ġkwamitin": 9296,
      "ĠáĬ¥áĬķáĪµáĪ³": 9297,
      "áĭ«áĭ«áĭ£": 9298,
      "ĠáĪ²áīĢáĪ©": 9299,
      "Ġgizo": 9300,
      "ĠJonathan": 9301,
      "Ġurefu": 9302,
      "Øª": 9303,
      "Ġled": 9304,
      "elgi": 9305,
      "Ġzi": 9306,
      "Ġlaw": 9307,
      "lÃ©e": 9308,
      "Ġchem": 9309,
      "ĠCanada": 9310,
      "Ina": 9311,
      "ared": 9312,
      "osh": 9313,
      "ĠEgypt": 9314,
      "ĠYin": 9315,
      "orial": 9316,
      "ultan": 9317,
      "vely": 9318,
      "Ġ1928": 9319,
      "tainment": 9320,
      "ĠWestern": 9321,
      "ĠFirst": 9322,
      "OrÃŃ": 9323,
      "Ġáĭ¨áĮįáī¥áĮ½": 9324,
      "asisi": 9325,
      "ĠMara": 9326,
      "ÃºlÃ©": 9327,
      "abannin": 9328,
      "ĠNk": 9329,
      "ĠTim": 9330,
      "áĪĭáĪĽáĭĬ": 9331,
      "áĬĽáĪį": 9332,
      "Ġáī°áĪ¸": 9333,
      "Ã²Ã³": 9334,
      "ception": 9335,
      "ĠáĭĪáĪ°": 9336,
      "áīħáĪ¨áī¥": 9337,
      "ĠáĪĪáĬłáĪ": 9338,
      "ĠáĪµáĪľáĬķ": 9339,
      "opita": 9340,
      "Ġsuite": 9341,
      "fuasi": 9342,
      "Ġalit": 9343,
      "ĠNazarin": 9344,
      "ĠMataifa": 9345,
      "ĠmÃ¡rÃ¹n": 9346,
      "tÃ²já»į": 9347,
      "ĠÃ²á¹£Ã¨rÃ©kÃ¹nrin": 9348,
      "ĠOlÃ¹": 9349,
      "Ġáī¥áĪŃáĪĥáĬķ": 9350,
      "Ġgurbin": 9351,
      "Ġáº¹ranko": 9352,
      "Ivoire": 9353,
      "áĬĢ": 9354,
      "oris": 9355,
      "Ġ(),": 9356,
      "ĠOne": 9357,
      "Ġexample": 9358,
      "Ġ1934": 9359,
      "Ġterme": 9360,
      "Ġcountry": 9361,
      "08": 9362,
      "Gu": 9363,
      "nÃ©es": 9364,
      "Î½": 9365,
      "Ġdak": 9366,
      "ĠTour": 9367,
      "imar": 9368,
      "agi": 9369,
      "Ġtext": 9370,
      "ĠLimited": 9371,
      "Ġsuccess": 9372,
      "jÃ¨": 9373,
      "sta": 9374,
      "Ġkanda": 9375,
      "ĠnÇ¹kan": 9376,
      "Ġmtun": 9377,
      "Ġdaukar": 9378,
      "áī½áĪī": 9379,
      "ĠáĪĺáĭ°": 9380,
      "arifa": 9381,
      "ÆĻashin": 9382,
      "fafa": 9383,
      "ĠáĬŃáī¥": 9384,
      "Ġolori": 9385,
      "Ġtseren": 9386,
      "ĠáĮĭáĭľ": 9387,
      "Ġ1938": 9388,
      "ĠáīłáĬłáĪĽáĪŃáĬĽ": 9389,
      "ĠBenue": 9390,
      "Ġjiha": 9391,
      "Ġbinciken": 9392,
      "ĠPresident": 9393,
      "ĠfÃ¬dÃŃ": 9394,
      "Ġwebsite": 9395,
      "Ġlauya": 9396,
      "ier": 9397,
      "isc": 9398,
      "Ġgali": 9399,
      "ĠBayan": 9400,
      "Ġ1919": 9401,
      "chan": 9402,
      "cole": 9403,
      "ĠEuropean": 9404,
      "Ġversion": 9405,
      "ĠÃ©crit": 9406,
      "ĠApple": 9407,
      "ĠMi": 9408,
      "ĠCivil": 9409,
      "gbara": 9410,
      "reed": 9411,
      "Ġadministr": 9412,
      "Ġgroupe": 9413,
      "tÃ¹": 9414,
      "Æĺ": 9415,
      "ĠbÃ³": 9416,
      "Ã¡ÃŃ": 9417,
      "Ġjua": 9418,
      "áĬĲáĪ±": 9419,
      "ĠIláº¹": 9420,
      "Ġdem": 9421,
      "ichi": 9422,
      "Ġáį³": 9423,
      "ĠáĭŃáĪįáīħ": 9424,
      "ĠáĭŃáĬĲáĮĪ": 9425,
      "chen": 9426,
      "Ġáĭ¨áĪļáĮł": 9427,
      "Ġáīµáĭķ": 9428,
      "Ġáĭįáīħáĭ«áĬĸáĪµ": 9429,
      "ĠáĬ¥áĬķáĭ°áĪļáĭ«": 9430,
      "ĠlÃ¡tÃłrÃŃ": 9431,
      "owÃ³": 9432,
[...]
