{
  "version": "1.0",
  "truncation": null,
  "padding": null,
  "added_tokens": [
    {
      "id": 0,
      "content": "[UNK]",
      "single_word": false,
      "lstrip": false,
      "rstrip": false,
      "normalized": false,
      "special": true
    }
  ],
  "normalizer": {
    "type": "Sequence",
    "normalizers": [
      {
        "type": "NFC"
      },
      {
        "type": "Lowercase"
      }
    ]
  },
  "pre_tokenizer": {
    "type": "WhitespaceSplit"
  },
  "post_processor": null,
  "decoder": {
    "type": "ByteFallback"
  },
  "model": {
    "type": "BPE",
    "dropout": null,
    "unk_token": "[UNK]",
    "continuing_subword_prefix": null,
    "end_of_word_suffix": null,
    "fuse_unk": false,
    "byte_fallback": true,
    "ignore_merges": false,
    "vocab": {
      "[UNK]": 0,
      "<0x00>": 1,
      "<0x01>": 2,
      "<0x02>": 3,
      "<0x03>": 4,
      "<0x04>": 5,
      "<0x05>": 6,
      "<0x06>": 7,
      "<0x07>": 8,
      "<0x08>": 9,
      "<0x09>": 10,
      "<0x0A>": 11,
      "<0x0B>": 12,
      "<0x0C>": 13,
      "<0x0D>": 14,
      "<0x0E>": 15,
      "<0x0F>": 16,
      "<0x10>": 17,
      "<0x11>": 18,
      "<0x12>": 19,
      "<0x13>": 20,
      "<0x14>": 21,
      "<0x15>": 22,
      "<0x16>": 23,
      "<0x17>": 24,
      "<0x18>": 25,
      "<0x19>": 26,
      "<0x1A>": 27,
      "<0x1B>": 28,
      "<0x1C>": 29,
      "<0x1D>": 30,
      "<0x1E>": 31,
      "<0x1F>": 32,
      "<0x20>": 33,
      "<0x21>": 34,
      "<0x22>": 35,
      "<0x23>": 36,
      "<0x24>": 37,
      "<0x25>": 38,
      "<0x26>": 39,
      "<0x27>": 40,
      "<0x28>": 41,
      "<0x29>": 42,
      "<0x2A>": 43,
      "<0x2B>": 44,
      "<0x2C>": 45,
      "<0x2D>": 46,
      "<0x2E>": 47,
      "<0x2F>": 48,
      "<0x30>": 49,
      "<0x31>": 50,
      "<0x32>": 51,
      "<0x33>": 52,
      "<0x34>": 53,
      "<0x35>": 54,
      "<0x36>": 55,
      "<0x37>": 56,
      "<0x38>": 57,
      "<0x39>": 58,
      "<0x3A>": 59,
      "<0x3B>": 60,
      "<0x3C>": 61,
      "<0x3D>": 62,
      "<0x3E>": 63,
      "<0x3F>": 64,
      "<0x40>": 65,
      "<0x41>": 66,
      "<0x42>": 67,
      "<0x43>": 68,
      "<0x44>": 69,
      "<0x45>": 70,
      "<0x46>": 71,
      "<0x47>": 72,
      "<0x48>": 73,
      "<0x49>": 74,
      "<0x4A>": 75,
      "<0x4B>": 76,
      "<0x4C>": 77,
      "<0x4D>": 78,
      "<0x4E>": 79,
      "<0x4F>": 80,
      "<0x50>": 81,
      "<0x51>": 82,
      "<0x52>": 83,
      "<0x53>": 84,
      "<0x54>": 85,
      "<0x55>": 86,
      "<0x56>": 87,
      "<0x57>": 88,
      "<0x58>": 89,
      "<0x59>": 90,
      "<0x5A>": 91,
      "<0x5B>": 92,
      "<0x5C>": 93,
      "<0x5D>": 94,
      "<0x5E>": 95,
      "<0x5F>": 96,
      "<0x60>": 97,
      "<0x61>": 98,
      "<0x62>": 99,
      "<0x63>": 100,
      "<0x64>": 101,
      "<0x65>": 102,
      "<0x66>": 103,
      "<0x67>": 104,
      "<0x68>": 105,
      "<0x69>": 106,
      "<0x6A>": 107,
      "<0x6B>": 108,
      "<0x6C>": 109,
      "<0x6D>": 110,
      "<0x6E>": 111,
      "<0x6F>": 112,
      "<0x70>": 113,
      "<0x71>": 114,
      "<0x72>": 115,
      "<0x73>": 116,
      "<0x74>": 117,
      "<0x75>": 118,
      "<0x76>": 119,
      "<0x77>": 120,
      "<0x78>": 121,
      "<0x79>": 122,
      "<0x7A>": 123,
      "<0x7B>": 124,
      "<0x7C>": 125,
      "<0x7D>": 126,
      "<0x7E>": 127,
      "<0x7F>": 128,
      "<0x80>": 129,
      "<0x81>": 130,
      "<0x82>": 131,
      "<0x83>": 132,
      "<0x84>": 133,
      "<0x85>": 134,
      "<0x86>": 135,
      "<0x87>": 136,
      "<0x88>": 137,
      "<0x89>": 138,
      "<0x8A>": 139,
      "<0x8B>": 140,
      "<0x8C>": 141,
      "<0x8D>": 142,
      "<0x8E>": 143,
      "<0x8F>": 144,
      "<0x90>": 145,
      "<0x91>": 146,
      "<0x92>": 147,
      "<0x93>": 148,
      "<0x94>": 149,
      "<0x95>": 150,
      "<0x96>": 151,
      "<0x97>": 152,
      "<0x98>": 153,
      "<0x99>": 154,
      "<0x9A>": 155,
      "<0x9B>": 156,
      "<0x9C>": 157,
      "<0x9D>": 158,
      "<0x9E>": 159,
      "<0x9F>": 160,
      "<0xA0>": 161,
      "<0xA1>": 162,
      "<0xA2>": 163,
      "<0xA3>": 164,
      "<0xA4>": 165,
      "<0xA5>": 166,
      "<0xA6>": 167,
      "<0xA7>": 168,
      "<0xA8>": 169,
      "<0xA9>": 170,
      "<0xAA>": 171,
      "<0xAB>": 172,
      "<0xAC>": 173,
      "<0xAD>": 174,
      "<0xAE>": 175,
      "<0xAF>": 176,
      "<0xB0>": 177,
      "<0xB1>": 178,
      "<0xB2>": 179,
      "<0xB3>": 180,
      "<0xB4>": 181,
      "<0xB5>": 182,
      "<0xB6>": 183,
      "<0xB7>": 184,
      "<0xB8>": 185,
      "<0xB9>": 186,
      "<0xBA>": 187,
      "<0xBB>": 188,
      "<0xBC>": 189,
      "<0xBD>": 190,
      "<0xBE>": 191,
      "<0xBF>": 192,
      "<0xC0>": 193,
      "<0xC1>": 194,
      "<0xC2>": 195,
      "<0xC3>": 196,
      "<0xC4>": 197,
      "<0xC5>": 198,
      "<0xC6>": 199,
      "<0xC7>": 200,
      "<0xC8>": 201,
      "<0xC9>": 202,
      "<0xCA>": 203,
      "<0xCB>": 204,
      "<0xCC>": 205,
      "<0xCD>": 206,
      "<0xCE>": 207,
      "<0xCF>": 208,
      "<0xD0>": 209,
      "<0xD1>": 210,
      "<0xD2>": 211,
      "<0xD3>": 212,
      "<0xD4>": 213,
      "<0xD5>": 214,
      "<0xD6>": 215,
      "<0xD7>": 216,
      "<0xD8>": 217,
      "<0xD9>": 218,
      "<0xDA>": 219,
      "<0xDB>": 220,
      "<0xDC>": 221,
      "<0xDD>": 222,
      "<0xDE>": 223,
      "<0xDF>": 224,
      "<0xE0>": 225,
      "<0xE1>": 226,
      "<0xE2>": 227,
      "<0xE3>": 228,
      "<0xE4>": 229,
      "<0xE5>": 230,
      "<0xE6>": 231,
      "<0xE7>": 232,
      "<0xE8>": 233,
      "<0xE9>": 234,
      "<0xEA>": 235,
      "<0xEB>": 236,
      "<0xEC>": 237,
      "<0xED>": 238,
      "<0xEE>": 239,
      "<0xEF>": 240,
      "<0xF0>": 241,
      "<0xF1>": 242,
      "<0xF2>": 243,
      "<0xF3>": 244,
      "<0xF4>": 245,
      "<0xF5>": 246,
      "<0xF6>": 247,
      "<0xF7>": 248,
      "<0xF8>": 249,
      "<0xF9>": 250,
      "<0xFA>": 251,
      "<0xFB>": 252,
      "<0xFC>": 253,
      "<0xFD>": 254,
      "<0xFE>": 255,
      "<0xFF>": 256,
      "!": 257,
      "\"": 258,
      "#": 259,
      "$": 260,
      "%": 261,
      "&": 262,
      "'": 263,
      "(": 264,
      ")": 265,
      "*": 266,
      "+": 267,
      ",": 268,
      "-": 269,
      ".": 270,
      "/": 271,
      "0": 272,
      "1": 273,
      "2": 274,
      "3": 275,
      "4": 276,
      "5": 277,
      "6": 278,
      "7": 279,
      "8": 280,
      "9": 281,
      ":": 282,
      ";": 283,
      "<": 284,
      "=": 285,
      ">": 286,
      "?": 287,
      "[": 288,
      "]": 289,
      "^": 290,
      "_": 291,
      "`": 292,
      "a": 293,
      "b": 294,
      "c": 295,
      "d": 296,
      "e": 297,
      "f": 298,
      "g": 299,
      "h": 300,
      "i": 301,
      "j": 302,
      "k": 303,
      "l": 304,
      "m": 305,
      "n": 306,
      "o": 307,
      "p": 308,
      "q": 309,
      "r": 310,
      "s": 311,
      "t": 312,
      "u": 313,
      "v": 314,
      "w": 315,
      "x": 316,
      "y": 317,
      "z": 318,
      "{": 319,
      "|": 320,
      "}": 321,
      "~": 322,
      "«": 323,
      "°": 324,
      "²": 325,
      "·": 326,
      "»": 327,
      "×": 328,
      "à": 329,
      "á": 330,
      "â": 331,
      "ã": 332,
      "ä": 333,
      "å": 334,
      "æ": 335,
      "ç": 336,
      "è": 337,
      "é": 338,
      "ê": 339,
      "ë": 340,
      "ì": 341,
      "í": 342,
      "î": 343,
      "ï": 344,
      "ñ": 345,
      "ò": 346,
      "ó": 347,
      "ô": 348,
      "ö": 349,
      "ø": 350,
      "ù": 351,
      "ú": 352,
      "û": 353,
      "ü": 354,
      "ā": 355,
      "ć": 356,
      "ē": 357,
      "ī": 358,
      "ı": 359,
      "ń": 360,
      "ō": 361,
      "œ": 362,
      "ş": 363,
      "š": 364,
      "ū": 365,
      "ƙ": 366,
      "ƴ": 367,
      "ǹ": 368,
      "ɓ": 369,
      "ɗ": 370,
      "ə": 371,
      "ɪ": 372,
      "ˈ": 373,
      "ː": 374,
      "̀": 375,
      "́": 376,
      "̣": 377,
      "̩": 378,
      "ά": 379,
      "ί": 380,
      "α": 381,
      "β": 382,
      "γ": 383,
      "δ": 384,
      "ε": 385,
      "θ": 386,
      "ι": 387,
      "κ": 388,
      "λ": 389,
      "μ": 390,
      "ν": 391,
      "ο": 392,
      "π": 393,
      "ρ": 394,
      "ς": 395,
      "σ": 396,
      "τ": 397,
      "υ": 398,
      "ό": 399,
      "а": 400,
      "б": 401,
      "в": 402,
      "г": 403,
      "д": 404,
      "е": 405,
      "з": 406,
      "и": 407,
      "к": 408,
      "л": 409,
      "м": 410,
      "н": 411,
      "о": 412,
      "п": 413,
      "р": 414,
      "с": 415,
      "т": 416,
      "у": 417,
      "ו": 418,
      "י": 419,
      "ל": 420,
      "ר": 421,
      "ת": 422,
      "أ": 423,
      "إ": 424,
      "ا": 425,
      "ب": 426,
      "ة": 427,
      "ت": 428,
      "ج": 429,
      "ح": 430,
      "خ": 431,
      "د": 432,
      "ر": 433,
      "ز": 434,
      "س": 435,
      "ش": 436,
      "ط": 437,
      "ع": 438,
      "ف": 439,
      "ق": 440,
      "ك": 441,
      "ل": 442,
      "م": 443,
      "ن": 444,
      "ه": 445,
      "و": 446,
      "ى": 447,
      "ي": 448,
      "َ": 449,
      "ُ": 450,
      "ِ": 451,
      "ّ": 452,
      "ْ": 453,
      "ٰ": 454,
      "ٱ": 455,
      "अ": 456,
      "क": 457,
      "ग": 458,
      "घ": 459,
      "च": 460,
      "ट": 461,
      "ढ": 462,
      "ण": 463,
      "ु": 464,
      "ሀ": 465,
      "ሁ": 466,
      "ሂ": 467,
      "ሃ": 468,
      "ሄ": 469,
      "ህ": 470,
      "ሆ": 471,
      "ለ": 472,
      "ሉ": 473,
      "ሊ": 474,
      "ላ": 475,
      "ሌ": 476,
      "ል": 477,
      "ሎ": 478,
      "ሏ": 479,
      "ሐ": 480,
      "ሑ": 481,
      "ሒ": 482,
      "ሓ": 483,
      "ሔ": 484,
      "ሕ": 485,
      "ሖ": 486,
      "መ": 487,
      "ሙ": 488,
      "ሚ": 489,
      "ማ": 490,
      "ሜ": 491,
      "ም": 492,
      "ሞ": 493,
      "ሟ": 494,
      "ሠ": 495,
      "ሡ": 496,
      "ሢ": 497,
      "ሣ": 498,
      "ሤ": 499,
      "ሥ": 500,
      "ሦ": 501,
      "ረ": 502,
      "ሩ": 503,
      "ሪ": 504,
      "ራ": 505,
      "ሬ": 506,
      "ር": 507,
      "ሮ": 508,
      "ሯ": 509,
      "ሰ": 510,
      "ሱ": 511,
      "ሲ": 512,
      "ሳ": 513,
      "ሴ": 514,
      "ስ": 515,
      "ሶ": 516,
      "ሷ": 517,
      "ሸ": 518,
      "ሹ": 519,
      "ሺ": 520,
      "ሻ": 521,
      "ሼ": 522,
      "ሽ": 523,
      "ሾ": 524,
      "ቀ": 525,
      "ቁ": 526,
      "ቂ": 527,
      "ቃ": 528,
      "ቄ": 529,
      "ቅ": 530,
      "ቆ": 531,
      "ቋ": 532,
      "በ": 533,
      "ቡ": 534,
      "ቢ": 535,
      "ባ": 536,
      "ቤ": 537,
      "ብ": 538,
      "ቦ": 539,
      "ቧ": 540,
      "ቨ": 541,
      "ቪ": 542,
      "ቫ": 543,
      "ቬ": 544,
      "ቭ": 545,
      "ቮ": 546,
      "ተ": 547,
      "ቱ": 548,
      "ቲ": 549,
      "ታ": 550,
      "ቴ": 551,
      "ት": 552,
      "ቶ": 553,
      "ቷ": 554,
      "ቸ": 555,
      "ቹ": 556,
      "ቺ": 557,
      "ቻ": 558,
      "ቼ": 559,
      "ች": 560,
      "ቾ": 561,
      "ቿ": 562,
      "ኀ": 563,
      "ኃ": 564,
      "ኅ": 565,
      "ኋ": 566,
      "ነ": 567,
      "ኑ": 568,
      "ኒ": 569,
      "ና": 570,
      "ኔ": 571,
      "ን": 572,
      "ኖ": 573,
      "ኗ": 574,
      "ኘ": 575,
      "ኙ": 576,
      "ኚ": 577,
      "ኛ": 578,
      "ኝ": 579,
      "ኞ": 580,
      "አ": 581,
      "ኡ": 582,
      "ኢ": 583,
      "ኣ": 584,
      "ኤ": 585,
      "እ": 586,
      "ኦ": 587,
      "ከ": 588,
      "ኩ": 589,
      "ኪ": 590,
      "ካ": 591,
      "ኬ": 592,
      "ክ": 593,
      "ኮ": 594,
      "ኰ": 595,
      "ኲ": 596,
      "ኳ": 597,
      "ኸ": 598,
      "ኹ": 599,
      "ኻ": 600,
      "ኼ": 601,
      "ኽ": 602,
      "ኾ": 603,
      "ዅ": 604,
      "ወ": 605,
      "ዉ": 606,
      "ዊ": 607,
      "ዋ": 608,
      "ዌ": 609,
      "ው": 610,
      "ዎ": 611,
      "ዐ": 612,
      "ዑ": 613,
      "ዒ": 614,
      "ዓ": 615,
      "ዔ": 616,
      "ዕ": 617,
      "ዖ": 618,
      "ዘ": 619,
      "ዙ": 620,
      "ዚ": 621,
      "ዛ": 622,
      "ዜ": 623,
      "ዝ": 624,
      "ዞ": 625,
      "ዟ": 626,
      "ዠ": 627,
      "ዢ": 628,
      "ዣ": 629,
      "ዥ": 630,
      "ዦ": 631,
      "የ": 632,
      "ዩ": 633,
      "ዪ": 634,
      "ያ": 635,
      "ዬ": 636,
      "ይ": 637,
      "ዮ": 638,
      "ደ": 639,
      "ዱ": 640,
      "ዲ": 641,
      "ዳ": 642,
      "ዴ": 643,
      "ድ": 644,
      "ዶ": 645,
      "ዷ": 646,
      "ጀ": 647,
      "ጁ": 648,
      "ጂ": 649,
      "ጃ": 650,
      "ጄ": 651,
      "ጅ": 652,
      "ጆ": 653,
      "ጇ": 654,
      "ገ": 655,
      "ጉ": 656,
      "ጊ": 657,
      "ጋ": 658,
      "ጌ": 659,
      "ግ": 660,
      "ጎ": 661,
      "ጐ": 662,
      "ጓ": 663,
      "ጝ": 664,
      "ጠ": 665,
      "ጡ": 666,
      "ጢ": 667,
      "ጣ": 668,
      "ጤ": 669,
      "ጥ": 670,
      "ጦ": 671,
      "ጧ": 672,
      "ጨ": 673,
      "ጩ": 674,
      "ጪ": 675,
      "ጫ": 676,
      "ጭ": 677,
      "ጮ": 678,
      "ጲ": 679,
      "ጳ": 680,
      "ጴ": 681,
      "ጵ": 682,
      "ጸ": 683,
      "ጹ": 684,
      "ጻ": 685,
      "ጼ": 686,
      "ጽ": 687,
      "ጾ": 688,
      "ፀ": 689,
      "ፁ": 690,
      "ፃ": 691,
      "ፄ": 692,
      "ፅ": 693,
      "ፆ": 694,
      "ፈ": 695,
      "ፉ": 696,
      "ፊ": 697,
      "ፋ": 698,
      "ፌ": 699,
      "ፍ": 700,
      "ፎ": 701,
      "ፏ": 702,
      "ፐ": 703,
      "ፑ": 704,
      "ፒ": 705,
      "ፓ": 706,
      "ፔ": 707,
      "ፕ": 708,
      "ፖ": 709,
      "፡": 710,
      "።": 711,
      "፣": 712,
      "፤": 713,
      "፥": 714,
      "፦": 715,
      "፧": 716,
      "፩": 717,
      "፪": 718,
      "፫": 719,
      "፬": 720,
      "፭": 721,
      "፮": 722,
      "፯": 723,
      "፰": 724,
      "፱": 725,
      "፲": 726,
      "፳": 727,
      "፴": 728,
      "፵": 729,
      "፶": 730,
      "፷": 731,
      "፸": 732,
      "፹": 733,
      "፺": 734,
      "፻": 735,
      "ḥ": 736,
      "ṣ": 737,
      "ẹ": 738,
      "ị": 739,
      "ọ": 740,
      "​": 741,
      "‎": 742,
      "–": 743,
      "—": 744,
      "‘": 745,
      "’": 746,
      "“": 747,
      "”": 748,
      "†": 749,
      "•": 750,
      "…": 751,
      "‹": 752,
      "›": 753,
      "−": 754,
      "路": 755,
      "￼": 756,
      "an": 757,
      "ar": 758,
      "in": 759,
      "wa": 760,
      "ka": 761,
      "ma": 762,
      "ya": 763,
      "da": 764,
      "ta": 765,
      "on": 766,
      "ti": 767,
      "er": 768,
      "en": 769,
      "li": 770,
      "un": 771,
      "la": 772,
      "es": 773,
      "ba": 774,
      "na": 775,
      "is": 776,
      "or": 777,
      "ku": 778,
      "ha": 779,
      "he": 780,
      "sa": 781,
      "le": 782,
      "ki": 783,
      "hi": 784,
      "to": 785,
      "de": 786,
      "si": 787,
      "ur": 788,
      "ni": 789,
      "ga": 790,
      "19": 791,
      "di": 792,
      "ra": 793,
      "mi": 794,
      "al": 795,
      "re": 796,
      "ri": 797,
      "te": 798,
      "bi": 799,
      "the": 800,
      "ẹ̀": 801,
      "za": 802,
      "wọ": 803,
      "ara": 804,
      "ci": 805,
      "ana": 806,
      "of": 807,
      "ẹ́": 808,
      "gb": 809,
      "ce": 810,
      "20": 811,
      "us": 812,
      "fi": 813,
      "ke": 814,
      "ní": 815,
      "ro": 816,
      "ko": 817,
      "pa": 818,
      "ji": 819,
      "lo": 820,
      "me": 821,
      "mu": 822,
      "ch": 823,
      "ani": 824,
      "ne": 825,
      "and": 826,
      "tu": 827,
      "su": 828,
      "se": 829,
      "wọn": 830,
      "th": 831,
      "ing": 832,
      "mo": 833,
      "ari": 834,
      "ọ́": 835,
      "co": 836,
      "fa": 837,
      "am": 838,
      "sh": 839,
      "kin": 840,
      "ent": 841,
      "tion": 842,
      "kan": 843,
      "du": 844,
      "po": 845,
      "ọ̀": 846,
      "gi": 847,
      "kar": 848,
      "bu": 849,
      "il": 850,
      "እን": 851,
      "ja": 852,
      "tí": 853,
      "so": 854,
      "tan": 855,
      "kwa": 856,
      "àwọn": 857,
      "qu": 858,
      "zi": 859,
      "ነው": 860,
      "ina": 861,
      "be": 862,
      "eri": 863,
      "wan": 864,
      "ún": 865,
      "ye": 866,
      "vi": 867,
      "mar": 868,
      "gu": 869,
      "go": 870,
      "she": 871,
      "as": 872,
      "pe": 873,
      "yan": 874,
      "lu": 875,
      "do": 876,
      "ge": 877,
      "je": 878,
      "yar": 879,
      "bo": 880,
      "shi": 881,
      "yo": 882,
      "no": 883,
      "san": 884,
      "kati": 885,
      "kuma": 886,
      "tar": 887,
      "hu": 888,
      "dan": 889,
      "ter": 890,
      "man": 891,
      "ነው።": 892,
      "ve": 893,
      "ini": 894,
      "ali": 895,
      "et": 896,
      "uni": 897,
      "pi": 898,
      "au": 899,
      "201": 900,
      "yi": 901,
      "les": 902,
      "ts": 903,
      "ol": 904,
      "ca": 905,
      "የሚ": 906,
      "ቸው": 907,
      "200": 908,
      "rí": 909,
      "ran": 910,
      "we": 911,
      "st": 912,
      "ban": 913,
      "የአ": 914,
      "ል።": 915,
      "lá": 916,
      "sí": 917,
      "fu": 918,
      "war": 919,
      "con": 920,
      "18": 921,
      "ሳሌ": 922,
      "bí": 923,
      "har": 924,
      "lẹ̀": 925,
      "ምሳሌ": 926,
      "cha": 927,
      "waka": 928,
      "wi": 929,
      "des": 930,
      "መን": 931,
      "toka": 932,
      "par": 933,
      "jo": 934,
      "wali": 935,
      "for": 936,
      "ነበ": 937,
      "ju": 938,
      "àn": 939,
      "ru": 940,
      "ori": 941,
      "ine": 942,
      "ll": 943,
      "mba": 944,
      "kara": 945,
      "ver": 946,
      "kuwa": 947,
      "chi": 948,
      "yin": 949,
      "ho": 950,
      "የተ": 951,
      "una": 952,
      "ንድ": 953,
      "fe": 954,
      ").": 955,
      "af": 956,
      "wo": 957,
      "ad": 958,
      "res": 959,
      "ment": 960,
      "00": 961,
      "cikin": 962,
      "ዎች": 963,
      "daga": 964,
      "ere": 965,
      "ré": 966,
      "እና": 967,
      "rin": 968,
      "ላይ": 969,
      "at": 970,
      "mb": 971,
      "cin": 972,
      "katika": 973,
      "jẹ́": 974,
      "est": 975,
      "ai": 976,
      "que": 977,
      "zo": 978,
      "mwaka": 979,
      "com": 980,
      "ነት": 981,
      "ly": 982,
      "ọd": 983,
      "wọ́": 984,
      "),": 985,
      "tsa": 986,
      "won": 987,
      "gba": 988,
      "እንደ": 989,
      "àti": 990,
      "l'": 991,
      "yu": 992,
      "ty": 993,
      "rẹ̀": 994,
      "ማር": 995,
      "far": 996,
      "aka": 997,
      "199": 998,
      "are": 999,
      "mai": 1000,
      "sar": 1001,
      "jeri": 1002,
      "it": 1003,
      "s,": 1004,
      "ili": 1005,
      "jeriya": 1006,
      "pro": 1007,
      "hai": 1008,
      "oni": 1009,
      "gh": 1010,
      "ለው": 1011,
      "ul": 1012,
      "dé": 1013,
      "shekar": 1014,
      "lé": 1015,
      "ati": 1016,
      "min": 1017,
      "ìn": 1018,
      "son": 1019,
      "zu": 1020,
      "tur": 1021,
      "ùn": 1022,
      "ከተ": 1023,
      "kun": 1024,
      "wen": 1025,
      "tun": 1026,
      "a.": 1027,
      "his": 1028,
      "wọ́n": 1029,
      "ṣe": 1030,
      "lú": 1031,
      "ada": 1032,
      "ris": 1033,
      "sha": 1034,
      "ọdún": 1035,
      "ያን": 1036,
      "el": 1037,
      "gbà": 1038,
      "um": 1039,
      "don": 1040,
      "ሆን": 1041,
      "nan": 1042,
      "ab": 1043,
      "ìj": 1044,
      "nin": 1045,
      "dè": 1046,
      "በአ": 1047,
      "isi": 1048,
      "mata": 1049,
      "s.": 1050,
      "lan": 1051,
      "kọ́": 1052,
      "198": 1053,
      "እስ": 1054,
      "orí": 1055,
      "fin": 1056,
      "sun": 1057,
      "ted": 1058,
      "pu": 1059,
      "ct": 1060,
      "ed": 1061,
      "shekara": 1062,
      "afri": 1063,
      "indi": 1064,
      "ዚህ": 1065,
      "ትዮ": 1066,
      "ማርኛ": 1067,
      "በመ": 1068,
      "ወደ": 1069,
      "ረት": 1070,
      "ኢትዮ": 1071,
      "ለት": 1072,
      "od": 1073,
      "በት": 1074,
      "d'": 1075,
      "ነበር": 1076,
      "wana": 1077,
      "ap": 1078,
      "mp": 1079,
      "lin": 1080,
      "ነገ": 1081,
      "shekarar": 1082,
      "gan": 1083,
      "ኢትዮጵ": 1084,
      "han": 1085,
      "ita": 1086,
      "té": 1087,
      "tó": 1088,
      "197": 1089,
      "mọ": 1090,
      "èdè": 1091,
      "wanda": 1092,
      "itoka": 1093,
      "196": 1094,
      "sì": 1095,
      "itokasi": 1096,
      "ውስ": 1097,
      "bar": 1098,
      "najeriya": 1099,
      "ትር": 1100,
      "bel": 1101,
      "ኢትዮጵያ": 1102,
      "የአማርኛ": 1103,
      "bá": 1104,
      "ín": 1105,
      "a,": 1106,
      "fun": 1107,
      "can": 1108,
      "per": 1109,
      "ló": 1110,
      "kọ": 1111,
      "yana": 1112,
      "gun": 1113,
      "kutoka": 1114,
      "ene": 1115,
      "17": 1116,
      "gar": 1117,
      "une": 1118,
      "áà": 1119,
      "fan": 1120,
      "liwa": 1121,
      "gbo": 1122,
      "fún": 1123,
      "fo": 1124,
      "nà": 1125,
      "kó": 1126,
      "mon": 1127,
      "አይ": 1128,
      "che": 1129,
      "lọ": 1130,
      "ስት": 1131,
      "kama": 1132,
      "ten": 1133,
      "nín": 1134,
      "pé": 1135,
      "ex": 1136,
      "tare": 1137,
      "ኛው": 1138,
      "በተ": 1139,
      "16": 1140,
      "15": 1141,
      "tin": 1142,
      "din": 1143,
      "jihar": 1144,
      "ግን": 1145,
      "ቶች": 1146,
      "ውስጥ": 1147,
      "ሪያ": 1148,
      "ir": 1149,
      "duni": 1150,
      "by": 1151,
      "ስተ": 1152,
      "sta": 1153,
      "iṣ": 1154,
      "ber": 1155,
      "was": 1156,
      "ወይ": 1157,
      "ces": 1158,
      "jọ́": 1159,
      "matsa": 1160,
      "jú": 1161,
      "ek": 1162,
      "men": 1163,
      "ጊዜ": 1164,
      "mis": 1165,
      "der": 1166,
      "tes": 1167,
      "ariki": 1168,
      "ck": 1169,
      "አን": 1170,
      "ou": 1171,
      "ይህ": 1172,
      "tra": 1173,
      "uri": 1174,
      "10": 1175,
      "lla": 1176,
      "፡፡": 1177,
      "asa": 1178,
      "tic": 1179,
      "up": 1180,
      "shu": 1181,
      "maka": 1182,
      "እንዲ": 1183,
      "nchi": 1184,
      "náà": 1185,
      "dis": 1186,
      "kuu": 1187,
      "ingi": 1188,
      "ọmọ": 1189,
      "የመ": 1190,
      "asi": 1191,
      "ac": 1192,
      "kò": 1193,
      "ውን": 1194,
      "eré": 1195,
      "nínú": 1196,
      "ክል": 1197,
      "ምን": 1198,
      "walio": 1199,
      "bir": 1200,
      "ንጉ": 1201,
      "ርስ": 1202,
      "ay": 1203,
      "195": 1204,
      "ph": 1205,
      "zuwa": 1206,
      "zar": 1207,
      "gra": 1208,
      "wasan": 1209,
      "ስለ": 1210,
      "ትርጉ": 1211,
      "ቀን": 1212,
      "baada": 1213,
      "ሆነ": 1214,
      "መንግ": 1215,
      "ilé": 1216,
      "ala": 1217,
      "nu": 1218,
      "láti": 1219,
      "dá": 1220,
      "por": 1221,
      "ዘመ": 1222,
      "usu": 1223,
      "mma": 1224,
      "írí": 1225,
      "yí": 1226,
      "wani": 1227,
      "14": 1228,
      "bab": 1229,
      "'a": 1230,
      "gwa": 1231,
      "ሪክ": 1232,
      "kon": 1233,
      "gbe": 1234,
      "tà": 1235,
      "ther": 1236,
      "awon": 1237,
      "matsayin": 1238,
      "አገ": 1239,
      "nobel": 1240,
      "zaliwa": 1241,
      "gaba": 1242,
      "ile": 1243,
      "wenye": 1244,
      "tri": 1245,
      "pọ̀": 1246,
      "ለም": 1247,
      "'s": 1248,
      "ድር": 1249,
      "kà": 1250,
      "ሲሆን": 1251,
      "12": 1252,
      "moja": 1253,
      "cor": 1254,
      "watan": 1255,
      "ዓ.": 1256,
      "ṣù": 1257,
      "wà": 1258,
      "pia": 1259,
      "gbé": 1260,
      "amba": 1261,
      "lia": 1262,
      "ሰው": 1263,
      "ወይም": 1264,
      "vo": 1265,
      "ọjọ́": 1266,
      "mọ̀": 1267,
      "with": 1268,
      "ትርጉሙ": 1269,
      "tha": 1270,
      "ነበር።": 1271,
      "ኋላ": 1272,
      "ìí": 1273,
      "pen": 1274,
      "gẹ́": 1275,
      "yake": 1276,
      "ሳይ": 1277,
      "orílẹ̀": 1278,
      "cho": 1279,
      "ከተማ": 1280,
      "land": 1281,
      "ድረ": 1282,
      "mana": 1283,
      "ለመ": 1284,
      "fir": 1285,
      "cal": 1286,
      "ìlú": 1287,
      "íríà": 1288,
      "nì": 1289,
      "ibi": 1290,
      "ìp": 1291,
      "nàìj": 1292,
      "194": 1293,
      "awọn": 1294,
      "bin": 1295,
      "tt": 1296,
      "ደረ": 1297,
      "e,": 1298,
      "ዓ.ም": 1299,
      "ren": 1300,
      "suka": 1301,
      "dar": 1302,
      "wá": 1303,
      "nàìjíríà": 1304,
      "lle": 1305,
      "ire": 1306,
      "tana": 1307,
      "ታት": 1308,
      "13": 1309,
      "rom": 1310,
      "yàn": 1311,
      "bayan": 1312,
      "mas": 1313,
      "lọ́": 1314,
      "በኋላ": 1315,
      "má": 1316,
      "lar": 1317,
      "ጀመ": 1318,
      "jan": 1319,
      "ዓመ": 1320,
      "sur": 1321,
      "ሪካ": 1322,
      "sance": 1323,
      "kana": 1324,
      "risto": 1325,
      "ction": 1326,
      "jin": 1327,
      "ok": 1328,
      "asar": 1329,
      "gen": 1330,
      "isa": 1331,
      "ìt": 1332,
      "nig": 1333,
      "zama": 1334,
      "mé": 1335,
      "kasa": 1336,
      "qui": 1337,
      "dans": 1338,
      "isha": 1339,
      "ያል": 1340,
      "እስከ": 1341,
      "shin": 1342,
      "ዘመን": 1343,
      "ken": 1344,
      "gha": 1345,
      "ii": 1346,
      "ረትና": 1347,
      "ƙasar": 1348,
      "ደግ": 1349,
      "ṣè": 1350,
      "mbo": 1351,
      "ania": 1352,
      "afrika": 1353,
      "ትን": 1354,
      "jọ": 1355,
      "lon": 1356,
      "loka": 1357,
      "jam": 1358,
      "ለማ": 1359,
      "lẹ́": 1360,
      "ተረትና": 1361,
      "iṣẹ́": 1362,
      "den": 1363,
      "wor": 1364,
      "ክፍ": 1365,
      "y,": 1366,
      "ሮች": 1367,
      "waliozaliwa": 1368,
      "cu": 1369,
      "..": 1370,
      "fran": 1371,
      "olo": 1372,
      "lati": 1373,
      "mber": 1374,
      "vya": 1375,
      "jer": 1376,
      "ser": 1377,
      "from": 1378,
      "ሥት": 1379,
      "va": 1380,
      "ton": 1381,
      "-èdè": 1382,
      "-e": 1383,
      "nation": 1384,
      "pin": 1385,
      "sai": 1386,
      "ekani": 1387,
      "kristo": 1388,
      "waliof": 1389,
      "አንድ": 1390,
      "tuzo": 1391,
      "marekani": 1392,
      "1,": 1393,
      "ìd": 1394,
      "kí": 1395,
      "ele": 1396,
      "kasance": 1397,
      "papa": 1398,
      "new": 1399,
      "mor": 1400,
      "waliofariki": 1401,
      "iya": 1402,
      "ንግ": 1403,
      "mia": 1404,
      "193": 1405,
      "tro": 1406,
      "hii": 1407,
      "ben": 1408,
      "ìpín": 1409,
      "tr": 1410,
      "jẹ": 1411,
      "kẹ": 1412,
      "rẹ": 1413,
      "ደር": 1414,
      "oṣù": 1415,
      "ዓ.ም.": 1416,
      "yen": 1417,
      "zarta": 1418,
      "cent": 1419,
      "mutan": 1420,
      "ሉ።": 1421,
      "oló": 1422,
      "kub": 1423,
      "manazarta": 1424,
      "uru": 1425,
      "ld": 1426,
      "gaban": 1427,
      "fara": 1428,
      "በር": 1429,
      "mes": 1430,
      "jami": 1431,
      "pan": 1432,
      "tre": 1433,
      "gin": 1434,
      "መስ": 1435,
      "tta": 1436,
      "mun": 1437,
      "kis": 1438,
      "mili": 1439,
      "nigeri": 1440,
      "mji": 1441,
      "t,": 1442,
      "ida": 1443,
      "ነበረ": 1444,
      "sini": 1445,
      "lugha": 1446,
      "sti": 1447,
      "car": 1448,
      "hun": 1449,
      "inter": 1450,
      "ste": 1451,
      "መል": 1452,
      "ሆኑ": 1453,
      "ará": 1454,
      "bli": 1455,
      "matu": 1456,
      "አብ": 1457,
      "kubwa": 1458,
      "ameri": 1459,
      "yor": 1460,
      "ishi": 1461,
      "sy": 1462,
      "tori": 1463,
      "that": 1464,
      "mer": 1465,
      "wé": 1466,
      "ጋር": 1467,
      "1.": 1468,
      "ger": 1469,
      "አል": 1470,
      "000": 1471,
      "husu": 1472,
      "né": 1473,
      "ilẹ̀": 1474,
      "já": 1475,
      "lè": 1476,
      "vu": 1477,
      "farko": 1478,
      "suna": 1479,
      "e.": 1480,
      "ናት": 1481,
      "ìpínlẹ̀": 1482,
      "jì": 1483,
      "ልጅ": 1484,
      "ƙa": 1485,
      "ችን": 1486,
      "hadi": 1487,
      "ታወ": 1488,
      "ናቸው": 1489,
      "እንግ": 1490,
      "orílẹ̀-èdè": 1491,
      "shindi": 1492,
      "án": 1493,
      "ya.": 1494,
      "ib": 1495,
      "mani": 1496,
      "ደግሞ": 1497,
      "ms": 1498,
      "ven": 1499,
      "በማ": 1500,
      "ranar": 1501,
      "ስም": 1502,
      "ziki": 1503,
      "es,": 1504,
      "ደብ": 1505,
      "sion": 1506,
      "llon": 1507,
      "mus": 1508,
      "hali": 1509,
      "abu": 1510,
      "karne": 1511,
      "jen": 1512,
      "eneo": 1513,
      "watu": 1514,
      "pre": 1515,
      "pour": 1516,
      "ተረ": 1517,
      "ብዙ": 1518,
      "mshindi": 1519,
      "masu": 1520,
      "lokacin": 1521,
      "babban": 1522,
      "የኢትዮጵያ": 1523,
      "ታሪክ": 1524,
      "ant": 1525,
      "አባ": 1526,
      "ክልበ": 1527,
      "wò": 1528,
      "bur": 1529,
      "ya,": 1530,
      "ድረስ": 1531,
      "nor": 1532,
      "kio": 1533,
      "tì": 1534,
      "ዓክልበ": 1535,
      "ut": 1536,
      "አስ": 1537,
      "birnin": 1538,
      "lus": 1539,
      "fal": 1540,
      "gbá": 1541,
      "ny": 1542,
      "መንግሥት": 1543,
      "rùn": 1544,
      "pla": 1545,
      "wata": 1546,
      "sé": 1547,
      "kasar": 1548,
      "gre": 1549,
      "uta": 1550,
      "und": 1551,
      "tions": 1552,
      "kai": 1553,
      "os": 1554,
      "uli": 1555,
      "mbi": 1556,
      "rò": 1557,
      "ɗan": 1558,
      "ple": 1559,
      "ዓክልበ.": 1560,
      "bri": 1561,
      "haife": 1562,
      "tanz": 1563,
      "2,": 1564,
      "rè": 1565,
      "hin": 1566,
      "yawan": 1567,
      "shen": 1568,
      "tún": 1569,
      "yìn": 1570,
      "gbè": 1571,
      "ብር": 1572,
      "የሚገ": 1573,
      "ron": 1574,
      "(200": 1575,
      "ራት": 1576,
      "yìí": 1577,
      "giyar": 1578,
      "ary": 1579,
      "biyu": 1580,
      "25": 1581,
      "wó": 1582,
      "phi": 1583,
      "ux": 1584,
      "ሎች": 1585,
      "alá": 1586,
      "ቤት": 1587,
      "ተኛ": 1588,
      "pres": 1589,
      "ze": 1590,
      "chini": 1591,
      "tara": 1592,
      "tari": 1593,
      "ርት": 1594,
      "ባለ": 1595,
      "ላል።": 1596,
      "ቋን": 1597,
      "kwai": 1598,
      "ise": 1599,
      "-ede": 1600,
      "orile": 1601,
      "mna": 1602,
      "ọba": 1603,
      "urs": 1604,
      "o,": 1605,
      "kọ̀": 1606,
      "እግ": 1607,
      "one": 1608,
      "whi": 1609,
      "tor": 1610,
      "መር": 1611,
      "univer": 1612,
      "ነገር": 1613,
      "mbali": 1614,
      "alikuwa": 1615,
      "matukio": 1616,
      "tai": 1617,
      "huku": 1618,
      "ንጉሥ": 1619,
      "አለ": 1620,
      "shugaban": 1621,
      "ትም": 1622,
      "pas": 1623,
      "ዋና": 1624,
      "0,": 1625,
      "kini": 1626,
      "karan": 1627,
      "ርያ": 1628,
      "ቤተ": 1629,
      "ቋንቋ": 1630,
      "faran": 1631,
      "ẹ̀kọ́": 1632,
      "siku": 1633,
      "jina": 1634,
      "hari": 1635,
      "aus": 1636,
      "idi": 1637,
      "orin": 1638,
      "ይገ": 1639,
      "chu": 1640,
      "ag": 1641,
      "bor": 1642,
      "ble": 1643,
      "ìgbà": 1644,
      "ያልተ": 1645,
      "wa,": 1646,
      "ዚያ": 1647,
      "kú": 1648,
      "ንም": 1649,
      "ራዊ": 1650,
      "mw": 1651,
      "national": 1652,
      "2.": 1653,
      "ማለት": 1654,
      "aiki": 1655,
      "fer": 1656,
      "wannan": 1657,
      "23": 1658,
      "ta,": 1659,
      "king": 1660,
      "ds": 1661,
      "mí": 1662,
      "inda": 1663,
      "mwana": 1664,
      "እንግሊ": 1665,
      "omo": 1666,
      "nìyàn": 1667,
      "mul": 1668,
      "yè": 1669,
      "wn": 1670,
      "ላት": 1671,
      "bara": 1672,
      "ተረጎ": 1673,
      "usa": 1674,
      "makala": 1675,
      "sen": 1676,
      "kwenye": 1677,
      "vyo": 1678,
      "my": 1679,
      "ale": 1680,
      "mọ́": 1681,
      "pẹ̀": 1682,
      "ሁሉ": 1683,
      "wu": 1684,
      "kali": 1685,
      "gé": 1686,
      "ጥር": 1687,
      "ƙwa": 1688,
      "ዳን": 1689,
      "ninu": 1690,
      "bra": 1691,
      "አካ": 1692,
      "ክርስ": 1693,
      "kwan": 1694,
      "ɗa": 1695,
      "d,": 1696,
      "gir": 1697,
      "ዘመነ": 1698,
      "mutu": 1699,
      "orile-ede": 1700,
      "universi": 1701,
      "kya": 1702,
      "ባቢ": 1703,
      "kuna": 1704,
      "yya": 1705,
      "mara": 1706,
      "፲፱": 1707,
      "ereza": 1708,
      "\".": 1709,
      "bon": 1710,
      "ènìyàn": 1711,
      "ግብ": 1712,
      "ata": 1713,
      "ጥን": 1714,
      "o.": 1715,
      "visi": 1716,
      "የማ": 1717,
      "waki": 1718,
      "ingereza": 1719,
      "የም": 1720,
      "11": 1721,
      "olu": 1722,
      "bẹ̀": 1723,
      "ድን": 1724,
      "ባል": 1725,
      "ገር": 1726,
      "ques": 1727,
      "ure": 1728,
      "(an": 1729,
      "የሚያ": 1730,
      "4,": 1731,
      "--": 1732,
      "ríkà": 1733,
      "ቱን": 1734,
      "nijeriya": 1735,
      "sou": 1736,
      "òṣè": 1737,
      "kari": 1738,
      "ንያ": 1739,
      "ውያን": 1740,
      "kafa": 1741,
      "189": 1742,
      "jama": 1743,
      "mbu": 1744,
      "ንስ": 1745,
      "0.": 1746,
      "yẹ": 1747,
      "chan": 1748,
      "histori": 1749,
      "አም": 1750,
      "ké": 1751,
      "tal": 1752,
      "tò": 1753,
      "ተረጎመ": 1754,
      "ère": 1755,
      "ከል": 1756,
      "lai": 1757,
      "ation": 1758,
      "6,": 1759,
      "yà": 1760,
      "ce,": 1761,
      "እንግሊዝ": 1762,
      "፲፱፻": 1763,
      "len": 1764,
      "ሞች": 1765,
      "5,": 1766,
      "ses": 1767,
      "le.": 1768,
      "soci": 1769,
      "190": 1770,
      "ìbí": 1771,
      "6.": 1772,
      "pri": 1773,
      "bun": 1774,
      "ያልተተረጎመ": 1775,
      "'yan": 1776,
      "ers": 1777,
      "oc": 1778,
      "7,": 1779,
      "lakini": 1780,
      "hen": 1781,
      "sin": 1782,
      "mutane": 1783,
      "sis": 1784,
      "ká": 1785,
      "mwa": 1786,
      "አመ": 1787,
      "laya": 1788,
      "m,": 1789,
      "4.": 1790,
      "inahusu": 1791,
      "8,": 1792,
      "gine": 1793,
      "kusini": 1794,
      "bà": 1795,
      "duniya": 1796,
      "ዛት": 1797,
      "mkuu": 1798,
      "cewa": 1799,
      "ላል": 1800,
      "d.": 1801,
      "tanzania": 1802,
      "hn": 1803,
      "publi": 1804,
      "ቸውን": 1805,
      "lor": 1806,
      "sana": 1807,
      "cri": 1808,
      "ilé-": 1809,
      "sara": 1810,
      "uti": 1811,
      "afir": 1812,
      "faransa": 1813,
      "university": 1814,
      "wọ̀": 1815,
      "afirka": 1816,
      "zan": 1817,
      "wala": 1818,
      "21": 1819,
      "use": 1820,
      "ዋል።": 1821,
      "3,": 1822,
      "/ም": 1823,
      "plus": 1824,
      "አስተ": 1825,
      "7.": 1826,
      "hemu": 1827,
      "gy": 1828,
      "yankin": 1829,
      "ምሮ": 1830,
      "ṣà": 1831,
      "(baada": 1832,
      "samu": 1833,
      "rayu": 1834,
      "kristo).": 1835,
      "ዓ/ም": 1836,
      "በሚ": 1837,
      "fí": 1838,
      "àà": 1839,
      "dara": 1840,
      "val": 1841,
      "t.": 1842,
      "wake": 1843,
      "mbe": 1844,
      "ry": 1845,
      "maji": 1846,
      "5.": 1847,
      "her": 1848,
      "በዚህ": 1849,
      "ፈረ": 1850,
      "kamar": 1851,
      "lamu": 1852,
      "lli": 1853,
      "makaran": 1854,
      "sehemu": 1855,
      "ነበሩ": 1856,
      "yé": 1857,
      "nai": 1858,
      "langu": 1859,
      "እንዳ": 1860,
      "pré": 1861,
      "gẹ́gẹ́": 1862,
      "3.": 1863,
      "dà": 1864,
      "arin": 1865,
      "nje": 1866,
      "ታዊ": 1867,
      "cy": 1868,
      "wa.": 1869,
      "ƙwallon": 1870,
      "29": 1871,
      "እር": 1872,
      "ish": 1873,
      "ወረ": 1874,
      "wasu": 1875,
      "m.": 1876,
      "sep": 1877,
      "duk": 1878,
      "wil": 1879,
      "èyí": 1880,
      "ungu": 1881,
      "ìtọ́": 1882,
      "ma,": 1883,
      "(201": 1884,
      "ard": 1885,
      "ura": 1886,
      "gro": 1887,
      "ወን": 1888,
      "nes": 1889,
      "ake": 1890,
      "ሜሪካ": 1891,
      "gor": 1892,
      "30": 1893,
      "hasa": 1894,
      "ጠር": 1895,
      "xi": 1896,
      "8.": 1897,
      "ጦር": 1898,
      "cul": 1899,
      "ting": 1900,
      "dake": 1901,
      "umani": 1902,
      "22": 1903,
      "mala": 1904,
      "mfan": 1905,
      "dda": 1906,
      "tho": 1907,
      "eni": 1908,
      "mita": 1909,
      "መለ": 1910,
      "ture": 1911,
      "ድም": 1912,
      "jerumani": 1913,
      "ob": 1914,
      "john": 1915,
      "ሰዎች": 1916,
      "ሌላ": 1917,
      "pamoja": 1918,
      "him": 1919,
      "ilu": 1920,
      ".አ": 1921,
      "falme": 1922,
      "mẹ́": 1923,
      "katifu": 1924,
      "cer": 1925,
      "ska": 1926,
      "poli": 1927,
      "jami'": 1928,
      "ምና": 1929,
      "ቅር": 1930,
      "jù": 1931,
      "ዝብ": 1932,
      "ዲስ": 1933,
      "ins": 1934,
      "ges": 1935,
      "uran": 1936,
      "bia": 1937,
      "uro": 1938,
      "mto": 1939,
      "nígbà": 1940,
      "wakazi": 1941,
      "24": 1942,
      "ave": 1943,
      "bk": 1944,
      "ig": 1945,
      "là": 1946,
      "pà": 1947,
      "ሉት": 1948,
      "ከፍ": 1949,
      "gbẹ́": 1950,
      "tarehe": 1951,
      "mta": 1952,
      "pẹ̀lú": 1953,
      "ሥራ": 1954,
      "ràn": 1955,
      "al-": 1956,
      "yyar": 1957,
      "ያለ": 1958,
      "mpi": 1959,
      "this": 1960,
      "ohun": 1961,
      "zina": 1962,
      "ሰብ": 1963,
      "1-": 1964,
      "tive": 1965,
      "anci": 1966,
      "ጨረ": 1967,
      "aikin": 1968,
      "እነ": 1969,
      "oní": 1970,
      "ence": 1971,
      "wakati": 1972,
      "ሆኖ": 1973,
      "ስራ": 1974,
      "gbogbo": 1975,
      "i,": 1976,
      "minis": 1977,
      "fil": 1978,
      "ne,": 1979,
      "መደብ": 1980,
      "aux": 1981,
      "fina": 1982,
      "mú": 1983,
      "miaka": 1984,
      "sọ": 1985,
      "òṣèré": 1986,
      "gún": 1987,
      "ak": 1988,
      "bila": 1989,
      "mafi": 1990,
      "rd": 1991,
      "ona": 1992,
      "daya": 1993,
      "ጀመሪያ": 1994,
      "saba": 1995,
      "5)": 1996,
      "lórí": 1997,
      "dí": 1998,
      "ተው": 1999,
      "ዓመት": 2000,
      "ta.": 2001,
      "which": 2002,
      "olù": 2003,
      "sau": 2004,
      "seri": 2005,
      "fani": 2006,
      "med": 2007,
      "ብሎ": 2008,
      "gbọ́": 2009,
      "bru": 2010,
      "tran": 2011,
      "ìtọ́ka": 2012,
      "kwanza": 2013,
      "ፊት": 2014,
      "28": 2015,
      "c.": 2016,
      "ረው": 2017,
      "ka.": 2018,
      "cre": 2019,
      "lea": 2020,
      "ምክ": 2021,
      "kì": 2022,
      "van": 2023,
      "ዓም": 2024,
      "le,": 2025,
      "gwamna": 2026,
      "las": 2027,
      "avec": 2028,
      "pr": 2029,
      "ጠቀ": 2030,
      "rọ̀": 2031,
      "ይወ": 2032,
      "ding": 2033,
      "ማሪ": 2034,
      "jà": 2035,
      "ìwé": 2036,
      "ƙafa": 2037,
      "27": 2038,
      "ogun": 2039,
      "muha": 2040,
      "ቅዱ": 2041,
      "amẹ́": 2042,
      "ka,": 2043,
      "ች።": 2044,
      "kasu": 2045,
      "janu": 2046,
      "amẹ́ríkà": 2047,
      "2019": 2048,
      "መካ": 2049,
      "6)": 2050,
      "garin": 2051,
      "ojo": 2052,
      "ላቸው": 2053,
      "zili": 2054,
      "pè": 2055,
      "ff": 2056,
      "ght": 2057,
      "ያስ": 2058,
      "mari": 2059,
      "tte": 2060,
      "shir": 2061,
      "ወር": 2062,
      "vita": 2063,
      "gasar": 2064,
      "kungiyar": 2065,
      "sá": 2066,
      "ዝር": 2067,
      "vil": 2068,
      "bẹ́": 2069,
      "ቦች": 2070,
      "ingila": 2071,
      "ves": 2072,
      "eshi": 2073,
      "thi": 2074,
      "dia": 2075,
      "አበ": 2076,
      "arewa": 2077,
      "ayé": 2078,
      "bro": 2079,
      "maja": 2080,
      "ፈር": 2081,
      "musul": 2082,
      "lement": 2083,
      "awar": 2084,
      "k.": 2085,
      "ከዚህ": 2086,
      "nove": 2087,
      "tàbí": 2088,
      "máa": 2089,
      "ded": 2090,
      "mag": 2091,
      "hon": 2092,
      "ƙasa": 2093,
      "age": 2094,
      "abo": 2095,
      "oro": 2096,
      "mù": 2097,
      "የሚገኝ": 2098,
      "mì": 2099,
      "anan": 2100,
      "mash": 2101,
      "ባህ": 2102,
      "ምር": 2103,
      "4)": 2104,
      "kad": 2105,
      "fẹ́": 2106,
      "ተቀ": 2107,
      "siya": 2108,
      "ብቻ": 2109,
      "ወለ": 2110,
      "ክርስቲ": 2111,
      "kea": 2112,
      "hara": 2113,
      "sont": 2114,
      "ሁለ": 2115,
      "ደቡ": 2116,
      "ም።": 2117,
      "its": 2118,
      "loni": 2119,
      "ተር": 2120,
      "scho": 2121,
      "bay": 2122,
      "ኤል": 2123,
      "tani": 2124,
      "ww": 2125,
      "3)": 2126,
      "7)": 2127,
      "ese": 2128,
      "jiri": 2129,
      "liki": 2130,
      "nigeria": 2131,
      "bẹ̀rẹ̀": 2132,
      "historia": 2133,
      "were": 2134,
      "ባት": 2135,
      "ctor": 2136,
      "ang": 2137,
      "ሥር": 2138,
      "first": 2139,
      "26": 2140,
      "kawa": 2141,
      "ola": 2142,
      "ሁም": 2143,
      "ìtọ́kasí": 2144,
      "int": 2145,
      "ክት": 2146,
      "er,": 2147,
      "dani": 2148,
      "septe": 2149,
      "andishi": 2150,
      "1)": 2151,
      "ሁን": 2152,
      "አር": 2153,
      "sannan": 2154,
      "ቢያ": 2155,
      "ዘንድ": 2156,
      "kof": 2157,
      "ላንድ": 2158,
      "'i": 2159,
      "በብ": 2160,
      "omi": 2161,
      "zini": 2162,
      "dai": 2163,
      "ìṣ": 2164,
      "ማን": 2165,
      "matai": 2166,
      "tangu": 2167,
      "አገር": 2168,
      "ipin": 2169,
      "በኢትዮጵያ": 2170,
      "cro": 2171,
      "dau": 2172,
      "school": 2173,
      "aki": 2174,
      ".ኤ": 2175,
      "low": 2176,
      "9.": 2177,
      "9,": 2178,
      "biyar": 2179,
      "may": 2180,
      "lili": 2181,
      "ገድ": 2182,
      "gus": 2183,
      "ኖች": 2184,
      "ታቸው": 2185,
      "shine": 2186,
      "cra": 2187,
      "እንግሊዝኛ": 2188,
      "agba": 2189,
      "wengi": 2190,
      "dur": 2191,
      "kẹ́": 2192,
      "fasi": 2193,
      "cen": 2194,
      "ሁለት": 2195,
      "dogo": 2196,
      "has": 2197,
      "188": 2198,
      "ገን": 2199,
      "ተመ": 2200,
      "ወቅ": 2201,
      "\",": 2202,
      "char": 2203,
      "ጀምሮ": 2204,
      "upan": 2205,
      "amma": 2206,
      "y.": 2207,
      "kàn": 2208,
      "kudu": 2209,
      "l’": 2210,
      "i.": 2211,
      "majali": 2212,
      "cas": 2213,
      "tique": 2214,
      "ne.": 2215,
      "አው": 2216,
      "musi": 2217,
      "dú": 2218,
      "zaidi": 2219,
      "ìdí": 2220,
      "ቅም": 2221,
      "kaska": 2222,
      "lẹ": 2223,
      "ቃል": 2224,
      "ቆጣ": 2225,
      "የር": 2226,
      ".አ.": 2227,
      "እ.ኤ": 2228,
      "pata": 2229,
      "2)": 2230,
      "abi": 2231,
      "musa": 2232,
      "vie": 2233,
      "state": 2234,
      "pon": 2235,
      "ọdun": 2236,
      "ቅዱስ": 2237,
      "cation": 2238,
      "del": 2239,
      "yoyin": 2240,
      "kuto": 2241,
      "rais": 2242,
      "gida": 2243,
      "rubu": 2244,
      "መሰ": 2245,
      "id": 2246,
      "uis": 2247,
      "ah": 2248,
      "spe": 2249,
      "kaskazini": 2250,
      "የት": 2251,
      "jami'ar": 2252,
      "fuata": 2253,
      "ìjọba": 2254,
      "ናቸው።": 2255,
      "ለያ": 2256,
      "ሔር": 2257,
      "mashariki": 2258,
      "parti": 2259,
      "oba": 2260,
      "uku": 2261,
      "pò": 2262,
      "hada": 2263,
      "akan": 2264,
      "city": 2265,
      "coun": 2266,
      "fre": 2267,
      "yamma": 2268,
      "huri": 2269,
      "ungo": 2270,
      "riki": 2271,
      "ትና": 2272,
      "run": 2273,
      "had": 2274,
      "maso": 2275,
      "toba": 2276,
      "nchini": 2277,
      "mpa": 2278,
      "ƙar": 2279,
      "ys": 2280,
      "clu": 2281,
      "fon": 2282,
      "es.": 2283,
      "febru": 2284,
      "ghana": 2285,
      "upande": 2286,
      "hili": 2287,
      "ተከ": 2288,
      "50": 2289,
      "ንዳ": 2290,
      "ዋል": 2291,
      "ጽሐ": 2292,
      "ትምህ": 2293,
      "but": 2294,
      "other": 2295,
      "በረ": 2296,
      "ያለው": 2297,
      "op": 2298,
      "ua": 2299,
      "kuan": 2300,
      "ende": 2301,
      "makarantar": 2302,
      "àrùn": 2303,
      "ይል": 2304,
      "africa": 2305,
      "ée": 2306,
      "bla": 2307,
      "ገብ": 2308,
      "prin": 2309,
      "jama'a": 2310,
      "ade": 2311,
      "odun": 2312,
      "bai": 2313,
      "zaji": 2314,
      "ግራ": 2315,
      "amfani": 2316,
      "dio": 2317,
      "kanin": 2318,
      "wí": 2319,
      "ልጣ": 2320,
      "ቁጥር": 2321,
      "ró": 2322,
      "ገኘ": 2323,
      "jini": 2324,
      "lù": 2325,
      "lí": 2326,
      "ሌሎች": 2327,
      "apri": 2328,
      "wadan": 2329,
      "በላይ": 2330,
      "እንዲሁም": 2331,
      "leo": 2332,
      "fim": 2333,
      "viungo": 2334,
      "8)": 2335,
      "world": 2336,
      "ጀር": 2337,
      "mawa": 2338,
      "gr": 2339,
      "kejì": 2340,
      "àkọ́": 2341,
      "kula": 2342,
      "ስን": 2343,
      "bahari": 2344,
      "ደቡብ": 2345,
      "pá": 2346,
      "anti": 2347,
      "ime": 2348,
      "muhamma": 2349,
      "ንን": 2350,
      "gbò": 2351,
      "baba": 2352,
      "also": 2353,
      "km": 2354,
      "baya": 2355,
      "utar": 2356,
      "ዓለም": 2357,
      "ls": 2358,
      "shiga": 2359,
      "ler": 2360,
      "koa": 2361,
      "eng": 2362,
      "ወጣ": 2363,
      "kafin": 2364,
      "ìmọ̀": 2365,
      "tant": 2366,
      "not": 2367,
      "uko": 2368,
      "ማዊ": 2369,
      "መረ": 2370,
      "በቀ": 2371,
      "መጠ": 2372,
      "ባይ": 2373,
      "ally": 2374,
      "amur": 2375,
      "dy": 2376,
      "ታል።": 2377,
      "shekaru": 2378,
      "ùbá": 2379,
      "ètò": 2380,
      "naijiri": 2381,
      "ከአ": 2382,
      "bíi": 2383,
      "juu": 2384,
      "ለይ": 2385,
      "sunan": 2386,
      "ስታ": 2387,
      "ናዊ": 2388,
      "take": 2389,
      "ear": 2390,
      "hausa": 2391,
      "ሜን": 2392,
      "dini": 2393,
      "bre": 2394,
      "gion": 2395,
      "jir": 2396,
      "የው": 2397,
      "vol": 2398,
      "ling": 2399,
      "ሲያ": 2400,
      "ìnrin": 2401,
      "joba": 2402,
      "trans": 2403,
      "yorùbá": 2404,
      "qu'": 2405,
      "kè": 2406,
      "በሰ": 2407,
      "gidan": 2408,
      "all": 2409,
      "premi": 2410,
      "//": 2411,
      "majalisar": 2412,
      "ሳት": 2413,
      "sauran": 2414,
      "oktoba": 2415,
      "ቦታ": 2416,
      "ttp": 2417,
      "agbe": 2418,
      "ojú": 2419,
      "éta": 2420,
      "http": 2421,
      "zaman": 2422,
      "kili": 2423,
      "ገና": 2424,
      "ጣል": 2425,
      "phy": 2426,
      "gon": 2427,
      "mal": 2428,
      "ባለው": 2429,
      "ef": 2430,
      "eli": 2431,
      "sama": 2432,
      "ved": 2433,
      "kamfan": 2434,
      "ọjọ́ìbí": 2435,
      "jar": 2436,
      "hiyo": 2437,
      "sílẹ̀": 2438,
      "uh": 2439,
      "kata": 2440,
      "rì": 2441,
      "fá": 2442,
      "ayyu": 2443,
      "jari": 2444,
      "n.": 2445,
      "ogra": 2446,
      "sho": 2447,
      "bisa": 2448,
      "hivyo": 2449,
      "asili": 2450,
      "ፈረን": 2451,
      "cce": 2452,
      "kùn": 2453,
      "ẹgbẹ́": 2454,
      "nípa": 2455,
      "iliyo": 2456,
      "sed": 2457,
      "በስ": 2458,
      "ብራ": 2459,
      "wilaya": 2460,
      "u,": 2461,
      "roma": 2462,
      "ዘር": 2463,
      "ago": 2464,
      "colle": 2465,
      "miji": 2466,
      "w.": 2467,
      "stitu": 2468,
      "digi": 2469,
      "ሚያ": 2470,
      "ከዚያ": 2471,
      "comme": 2472,
      "port": 2473,
      "lago": 2474,
      "ሥታት": 2475,
      "መካከል": 2476,
      "elle": 2477,
      "year": 2478,
      "ዎቹ": 2479,
      "esi": 2480,
      "lára": 2481,
      "karatun": 2482,
      "yanzu": 2483,
      "yun": 2484,
      "ipinle": 2485,
      "ጠራ": 2486,
      "led": 2487,
      "abin": 2488,
      "vent": 2489,
      "pọ": 2490,
      "ይታ": 2491,
      "እ.ኤ.አ.": 2492,
      "ujerumani": 2493,
      "://": 2494,
      "who": 2495,
      "ako": 2496,
      "úkọ": 2497,
      "eno": 2498,
      "2020": 2499,
      "ments": 2500,
      "rọ́": 2501,
      "hukumar": 2502,
      "uingereza": 2503,
      "ታላ": 2504,
      "jia": 2505,
      "ጨረሻ": 2506,
      "oko": 2507,
      "al'": 2508,
      "fici": 2509,
      "ilikuwa": 2510,
      "hanyar": 2511,
      "tain": 2512,
      "buga": 2513,
      "produ": 2514,
      "ከመ": 2515,
      "ከነ": 2516,
      "0)": 2517,
      "lò": 2518,
      "sig": 2519,
      "100": 2520,
      "akwai": 2521,
      "pẹ": 2522,
      "ሰራ": 2523,
      "9)": 2524,
      "daban": 2525,
      "african": 2526,
      "ሴት": 2527,
      "በዘመነ": 2528,
      "kira": 2529,
      "sabo": 2530,
      "yali": 2531,
      "stru": 2532,
      "ሃይ": 2533,
      "non": 2534,
      "game": 2535,
      "najeriya.": 2536,
      "jáde": 2537,
      "ingine": 2538,
      "lation": 2539,
      "aṣ": 2540,
      "sa,": 2541,
      "ous": 2542,
      "jamhuri": 2543,
      "velo": 2544,
      "ìdì": 2545,
      "wato": 2546,
      "is,": 2547,
      "haka": 2548,
      "l,": 2549,
      "orod": 2550,
      "united": 2551,
      "euro": 2552,
      "ot": 2553,
      "ሥነ": 2554,
      "tso": 2555,
      "ኖር": 2556,
      "stu": 2557,
      "የቀ": 2558,
      "karamar": 2559,
      "nàìjíríà.": 2560,
      "tsakanin": 2561,
      "gari": 2562,
      "iba": 2563,
      "rus": 2564,
      "lima": 2565,
      "te,": 2566,
      "ss": 2567,
      "zwa": 2568,
      "r.": 2569,
      "magh": 2570,
      "sa.": 2571,
      "ipa": 2572,
      "sami": 2573,
      "visiwa": 2574,
      "itwa": 2575,
      "ሰማ": 2576,
      "kila": 2577,
      "òun": 2578,
      "geor": 2579,
      "pal": 2580,
      "imp": 2581,
      "gas": 2582,
      "aji": 2583,
      "ስና": 2584,
      "ትል": 2585,
      "እግዚ": 2586,
      "augus": 2587,
      "saboda": 2588,
      "dun": 2589,
      "ba,": 2590,
      "baki": 2591,
      "cs": 2592,
      "dhi": 2593,
      "ast": 2594,
      "juli": 2595,
      "ongo": 2596,
      "ክፍለ": 2597,
      "ople": 2598,
      "international": 2599,
      "mahai": 2600,
      "186": 2601,
      "cam": 2602,
      "187": 2603,
      "ful": 2604,
      "ምክንያ": 2605,
      "ọ̀rọ̀": 2606,
      "ደን": 2607,
      "àgbà": 2608,
      "mur": 2609,
      "ቆጣጠር": 2610,
      "dari": 2611,
      "kno": 2612,
      "alla": 2613,
      "ግዛት": 2614,
      "liam": 2615,
      "sàn": 2616,
      "ስብ": 2617,
      "ታይ": 2618,
      "gbọ́n": 2619,
      "teur": 2620,
      "cour": 2621,
      "nyingi": 2622,
      "iko": 2623,
      "(199": 2624,
      "taka": 2625,
      "ፍራ": 2626,
      "ore": 2627,
      "time": 2628,
      "ምዕ": 2629,
      "ይና": 2630,
      "sci": 2631,
      "ያው": 2632,
      "እግዚአብ": 2633,
      "ẹlẹ́": 2634,
      "ምድር": 2635,
      "d-": 2636,
      "lis": 2637,
      "girma": 2638,
      "ẹni": 2639,
      "orodha": 2640,
      "pp": 2641,
      "lori": 2642,
      "ራሱ": 2643,
      "day": 2644,
      "ƙun": 2645,
      "አት": 2646,
      "እጅ": 2647,
      "ደት": 2648,
      "wacce": 2649,
      "fà": 2650,
      "mini": 2651,
      "ner": 2652,
      "ba.": 2653,
      "kasuwan": 2654,
      "yá": 2655,
      "ወሰ": 2656,
      "ይባ": 2657,
      "muziki": 2658,
      "አካባቢ": 2659,
      "2-": 2660,
      "tabi": 2661,
      "ijoba": 2662,
      "gbó": 2663,
      "mbar": 2664,
      "ጆች": 2665,
      "anna": 2666,
      "tech": 2667,
      "zia": 2668,
      "ስር": 2669,
      "ሽን": 2670,
      "ከፍተኛ": 2671,
      "uve": 2672,
      "ኞች": 2673,
      "yayin": 2674,
      "kisi": 2675,
      "ሆነው": 2676,
      "kópa": 2677,
      "gina": 2678,
      "da,": 2679,
      "mali": 2680,
      "ilimi": 2681,
      "ሊያ": 2682,
      "ገለ": 2683,
      "ጎር": 2684,
      "dire": 2685,
      "መሠ": 2686,
      "ገደ": 2687,
      "fami": 2688,
      "wood": 2689,
      "aribi": 2690,
      "ma'": 2691,
      "eu": 2692,
      "emp": 2693,
      "alif": 2694,
      "magharibi": 2695,
      "ɗin": 2696,
      "ግር": 2697,
      "samar": 2698,
      "dola": 2699,
      "በል": 2700,
      "ce.": 2701,
      "have": 2702,
      "temp": 2703,
      "bert": 2704,
      "ክር": 2705,
      "ክርስቲያን": 2706,
      "ይገኛ": 2707,
      "mwi": 2708,
      "dì": 2709,
      "kia": 2710,
      "china": 2711,
      "ገባ": 2712,
      "gudan": 2713,
      "40": 2714,
      "para": 2715,
      "እግዚአብሔር": 2716,
      "people": 2717,
      "mfalme": 2718,
      "ወንድ": 2719,
      "ዶች": 2720,
      "አንዱ": 2721,
      "ማስ": 2722,
      "mwandishi": 2723,
      "orúkọ": 2724,
      "yawa": 2725,
      "dro": 2726,
      "dra": 2727,
      "mare": 2728,
      "ክፍል": 2729,
      "serikali": 2730,
      "wasa": 2731,
      "ato": 2732,
      "some": 2733,
      "mkoa": 2734,
      "été": 2735,
      "ጠቅ": 2736,
      "manyan": 2737,
      "ጦርነት": 2738,
      "ሩት": 2739,
      "ግል": 2740,
      "lẹ́yìn": 2741,
      "sala": 2742,
      "core": 2743,
      "gudanar": 2744,
      "ይስ": 2745,
      "ọ̀n": 2746,
      "sababu": 2747,
      "llo": 2748,
      "እግር": 2749,
      "tele": 2750,
      "sor": 2751,
      "èkó": 2752,
      "hol": 2753,
      "amerika": 2754,
      "tẹ́": 2755,
      "us,": 2756,
      "እንደሚ": 2757,
      "jùlọ": 2758,
      "በላ": 2759,
      "tatta": 2760,
      "fiziki": 2761,
      "mbalimbali": 2762,
      "ትምህርት": 2763,
      "pani": 2764,
      "yọ": 2765,
      "የነበረ": 2766,
      "ath": 2767,
      "mman": 2768,
      "kék": 2769,
      "ሞት": 2770,
      "ይች": 2771,
      "u.": 2772,
      "tis": 2773,
      "kékeré": 2774,
      "tter": 2775,
      "olú": 2776,
      "tarihi": 2777,
      "dre": 2778,
      "ker": 2779,
      "ኒያ": 2780,
      "mulkin": 2781,
      "italia": 2782,
      "tsi": 2783,
      "ባር": 2784,
      "ham": 2785,
      "መድ": 2786,
      "መጣ": 2787,
      "የስ": 2788,
      "gbègbè": 2789,
      "nuna": 2790,
      "ṣi": 2791,
      "kumbu": 2792,
      "american": 2793,
      "s'": 2794,
      "lán": 2795,
      "secon": 2796,
      "hukumo": 2797,
      "aga": 2798,
      "br": 2799,
      "air": 2800,
      "arabu": 2801,
      "ቀር": 2802,
      "ፍት": 2803,
      "l'é": 2804,
      "ለን": 2805,
      "ደም": 2806,
      "c,": 2807,
      "ልክ": 2808,
      "ano": 2809,
      "gí": 2810,
      "mais": 2811,
      "ደረገ": 2812,
      "mtakatifu": 2813,
      "agbegbe": 2814,
      "||": 2815,
      "dition": 2816,
      "william": 2817,
      "dín": 2818,
      "vis": 2819,
      "መጽሐ": 2820,
      "mina": 2821,
      "comm": 2822,
      "sẹ̀": 2823,
      "ተራ": 2824,
      "ቱም": 2825,
      "አረ": 2826,
      "kilo": 2827,
      "ìtàn": 2828,
      "tele.": 2829,
      "láà": 2830,
      "part": 2831,
      "አዲስ": 2832,
      "kwamba": 2833,
      "ቀት": 2834,
      "siasa": 2835,
      "prof": 2836,
      "ዕለ": 2837,
      "lake": 2838,
      "pati": 2839,
      "ge,": 2840,
      "ethi": 2841,
      "if": 2842,
      "yuni": 2843,
      "guda": 2844,
      "lf": 2845,
      "ዮን": 2846,
      "የመጀመሪያ": 2847,
      "kuta": 2848,
      "anza": 2849,
      "filamu": 2850,
      "kenya": 2851,
      "aba": 2852,
      "ong": 2853,
      "ራል": 2854,
      "አቆጣጠር": 2855,
      "በተለይ": 2856,
      "lara": 2857,
      "fito": 2858,
      "ዋን": 2859,
      "in,": 2860,
      "domin": 2861,
      "sìn": 2862,
      "አፍ": 2863,
      "http://": 2864,
      "ታል": 2865,
      "ከተሞች": 2866,
      "rú": 2867,
      "ክስ": 2868,
      "kir": 2869,
      "bis": 2870,
      "ans": 2871,
      "samun": 2872,
      "lish": 2873,
      "ras": 2874,
      "film": 2875,
      "በጣ": 2876,
      "stẹ́": 2877,
      "ጥንታዊ": 2878,
      "demo": 2879,
      "bari": 2880,
      "gó": 2881,
      "ሕዝብ": 2882,
      "ጠቃ": 2883,
      "ግብጽ": 2884,
      "irin": 2885,
      "l.": 2886,
      "ami": 2887,
      "maeneo": 2888,
      "kokin": 2889,
      "south": 2890,
      "aye": 2891,
      "sani": 2892,
      "ድሞ": 2893,
      "gue": 2894,
      "tala": 2895,
      "yes": 2896,
      "their": 2897,
      "su.": 2898,
      "dún": 2899,
      "shiri": 2900,
      "ምዕራ": 2901,
      "cé": 2902,
      "te.": 2903,
      "after": 2904,
      "ኩል": 2905,
      "ቀው": 2906,
      "ዳር": 2907,
      "iso": 2908,
      "hy": 2909,
      "rìn": 2910,
      "ራስ": 2911,
      "ክለ": 2912,
      "tẹ": 2913,
      "በው": 2914,
      "entre": 2915,
      "rọ́ìdì": 2916,
      "አበባ": 2917,
      "dama": 2918,
      "igba": 2919,
      "ástẹ́": 2920,
      "ástẹ́rọ́ìdì": 2921,
      "ume": 2922,
      "mwan": 2923,
      "ማኖ": 2924,
      "ọ̀kan": 2925,
      "aliye": 2926,
      "yenye": 2927,
      "sù": 2928,
      "ልዩ": 2929,
      "የሱ": 2930,
      "mutanen": 2931,
      "vin": 2932,
      "ila": 2933,
      "በፊት": 2934,
      "ከሚ": 2935,
      "fé": 2936,
      "maza": 2937,
      "bùn": 2938,
      "jeshi": 2939,
      "ጥቅም": 2940,
      "tres": 2941,
      "tazama": 2942,
      "forma": 2943,
      "rọ": 2944,
      "ለያዩ": 2945,
      "ki,": 2946,
      "popu": 2947,
      "velop": 2948,
      "mama": 2949,
      "tumia": 2950,
      "ia": 2951,
      "wajen": 2952,
      "kamfanin": 2953,
      "gùn": 2954,
      "ልድ": 2955,
      "rou": 2956,
      "than": 2957,
      "tour": 2958,
      "logi": 2959,
      "london": 2960,
      "av": 2961,
      "fasa": 2962,
      "yayi": 2963,
      "ach": 2964,
      "ታው": 2965,
      "on,": 2966,
      "ẹ̀yẹ": 2967,
      "tsarin": 2968,
      "dha": 2969,
      "k,": 2970,
      "mbre": 2971,
      "gano": 2972,
      "wara": 2973,
      "ላም": 2974,
      "ካል": 2975,
      "pra": 2976,
      "toliki": 2977,
      "d’": 2978,
      "kiya": 2979,
      "masa": 2980,
      "most": 2981,
      "እነዚህ": 2982,
      "unci": 2983,
      "west": 2984,
      "bẹ́ẹ̀": 2985,
      "wur": 2986,
      "ks": 2987,
      "bn": 2988,
      "ዓመታት": 2989,
      "kh": 2990,
      "ìgbé": 2991,
      "lly": 2992,
      "main": 2993,
      "pha": 2994,
      "shara": 2995,
      "óò": 2996,
      "ህል": 2997,
      "የሰ": 2998,
      "ተኛው": 2999,
      "litta": 3000,
      "níbi": 3001,
      "iṣẹ": 3002,
      "ወቅት": 3003,
      "(a": 3004,
      "gani": 3005,
      "sanya": 3006,
      "warar": 3007,
      "agbègbè": 3008,
      "ue": 3009,
      "ሱም": 3010,
      "inayo": 3011,
      "ነገሥታት": 3012,
      "mataifa": 3013,
      "used": 3014,
      "መጥ": 3015,
      "ቀጥ": 3016,
      "farkon": 3017,
      "zai": 3018,
      "posi": 3019,
      "rán": 3020,
      "jus": 3021,
      "win": 3022,
      "ዮሐ": 3023,
      "line": 3024,
      "ufaransa": 3025,
      "aro": 3026,
      "ሮፓ": 3027,
      "nijeriya.": 3028,
      "ens": 3029,
      "de,": 3030,
      "dó": 3031,
      "yadda": 3032,
      "tuna": 3033,
      "ገኝ": 3034,
      "ፈል": 3035,
      "ተወ": 3036,
      "ይህም": 3037,
      "bayyana": 3038,
      "language": 3039,
      "allah": 3040,
      "eria": 3041,
      "party": 3042,
      "rayuwar": 3043,
      "medi": 3044,
      "kananan": 3045,
      "ሪካዊ": 3046,
      "-o": 3047,
      "àmì": 3048,
      "deux": 3049,
      "ishwa": 3050,
      "éri": 3051,
      "wadanda": 3052,
      "tation": 3053,
      "አይነት": 3054,
      "bus": 3055,
      "im": 3056,
      "በግ": 3057,
      "ethio": 3058,
      "ረተ": 3059,
      "kuanzia": 3060,
      "rà": 3061,
      "lafi": 3062,
      "ojoibi": 3063,
      "weza": 3064,
      "koma": 3065,
      "dent": 3066,
      "vile": 3067,
      "rayuwa": 3068,
      "lánẹ́": 3069,
      "tz": 3070,
      "machi": 3071,
      "ንና": 3072,
      "ነበረ።": 3073,
      "ጀርመን": 3074,
      "ts,": 3075,
      "kand": 3076,
      "ሬት": 3077,
      "inclu": 3078,
      "cette": 3079,
      "ማዕ": 3080,
      "ኳስ": 3081,
      "sia": 3082,
      ",000": 3083,
      "òṣ": 3084,
      "kutokana": 3085,
      "puis": 3086,
      "60": 3087,
      "ባቸው": 3088,
      "3-": 3089,
      "mad": 3090,
      "ዮሐንስ": 3091,
      "vers": 3092,
      "nigerian": 3093,
      "p.": 3094,
      "ambayo": 3095,
      "ìgbàjá": 3096,
      "lánẹ́tì": 3097,
      "ስፋ": 3098,
      "ዕለት": 3099,
      "way": 3100,
      "chris": 3101,
      "kazi": 3102,
      "they": 3103,
      "ከለ": 3104,
      "ጠረ": 3105,
      "ced": 3106,
      "franç": 3107,
      "wri": 3108,
      "sub": 3109,
      "jirgin": 3110,
      "ṣẹ": 3111,
      "agosti": 3112,
      "januari": 3113,
      "የግ": 3114,
      "chagu": 3115,
      "leur": 3116,
      "ander": 3117,
      "wiki": 3118,
      "tory": 3119,
      "plánẹ́tì": 3120,
      "àwon": 3121,
      "ያም": 3122,
      "ጀመርያ": 3123,
      "lagos": 3124,
      "ving": 3125,
      "አድር": 3126,
      "ọ̀pọ̀": 3127,
      "ingila.": 3128,
      "àkó": 3129,
      "plan": 3130,
      "ያዘ": 3131,
      "akọ": 3132,
      "ሙሉ": 3133,
      "biashara": 3134,
      "ters": 3135,
      "hes": 3136,
      "ሠራ": 3137,
      "ግድም": 3138,
      "wer": 3139,
      "wahili": 3140,
      "gover": 3141,
      "ተን": 3142,
      "ፕሬ": 3143,
      "hata": 3144,
      "zamani": 3145,
      "fes": 3146,
      "tus": 3147,
      "mò": 3148,
      "grand": 3149,
      "mwe": 3150,
      "stan": 3151,
      "ṣẹ́": 3152,
      "ብት": 3153,
      "ውድ": 3154,
      "fanya": 3155,
      "kaduna": 3156,
      "ástẹ́rọ́ìdì.": 3157,
      "ይን": 3158,
      "gbajú": 3159,
      "bò": 3160,
      "agbá": 3161,
      "rá": 3162,
      "ሪዎች": 3163,
      "birni": 3164,
      "karibu": 3165,
      "aare": 3166,
      "itali": 3167,
      "pli": 3168,
      "ገበ": 3169,
      "orun": 3170,
      "europe": 3171,
      "jé": 3172,
      "uld": 3173,
      "bc": 3174,
      "yara": 3175,
      "አስተዳ": 3176,
      "g,": 3177,
      "juni": 3178,
      "mei": 3179,
      "-i": 3180,
      "ዓት": 3181,
      "የሆነ": 3182,
      "ይለ": 3183,
      "jour": 3184,
      "fizikia": 3185,
      "ndani": 3186,
      "cle": 3187,
      "la,": 3188,
      "ናል።": 3189,
      "ደው": 3190,
      "yon": 3191,
      "tak": 3192,
      "ብሔ": 3193,
      "ቴዎ": 3194,
      "ፈው": 3195,
      "julai": 3196,
      "ors": 3197,
      "እም": 3198,
      "ፈረንሳይ": 3199,
      "185": 3200,
      "ሰን": 3201,
      "méjì": 3202,
      "cur": 3203,
      "ofin": 3204,
      "iru": 3205,
      "iye": 3206,
      "ular": 3207,
      "endelea": 3208,
      "book": 3209,
      "apa": 3210,
      "ምንም": 3211,
      "80": 3212,
      "áf": 3213,
      "waɗan": 3214,
      "ላክ": 3215,
      "waje": 3216,
      "tex": 3217,
      "መት": 3218,
      "እው": 3219,
      "lógún": 3220,
      "b.": 3221,
      "under": 3222,
      "ህዝብ": 3223,
      "ታሪካዊ": 3224,
      "ጨማሪ": 3225,
      "high": 3226,
      "suke": 3227,
      "gaji": 3228,
      "musulunci": 3229,
      "emba": 3230,
      "só": 3231,
      "ቲካ": 3232,
      "huko": 3233,
      "...": 3234,
      "àkọ́kọ́": 3235,
      "alex": 3236,
      "ki.": 3237,
      "amin": 3238,
      "tou": 3239,
      "31": 3240,
      "አቀ": 3241,
      "rent": 3242,
      "bet": 3243,
      "ናል": 3244,
      "ገኙ": 3245,
      "ima": 3246,
      "ons": 3247,
      "sake": 3248,
      "cep": 3249,
      "kano": 3250,
      "ama": 3251,
      "reli": 3252,
      "ልም": 3253,
      "clas": 3254,
      "aika": 3255,
      "uhuru": 3256,
      "gabatar": 3257,
      "tarihin": 3258,
      "yao": 3259,
      "bú": 3260,
      "ርክ": 3261,
      "maru": 3262,
      "idadi": 3263,
      "tofa": 3264,
      "more": 3265,
      "ላለ": 3266,
      "ኢን": 3267,
      "ጥናት": 3268,
      "rín": 3269,
      "ላዊ": 3270,
      "አማ": 3271,
      "ይታወ": 3272,
      "nis": 3273,
      "sul": 3274,
      "abdu": 3275,
      "አሜሪካ": 3276,
      "በጣም": 3277,
      "over": 3278,
      "kuli": 3279,
      "ès": 3280,
      "ani.": 3281,
      "gres": 3282,
      "rich": 3283,
      "35": 3284,
      "tafi": 3285,
      "jagor": 3286,
      "ምክንያት": 3287,
      "gal": 3288,
      "centur": 3289,
      "gizaji": 3290,
      "najeriya,": 3291,
      "ral": 3292,
      "ራቸው": 3293,
      "ይት": 3294,
      "wakristo": 3295,
      "peke": 3296,
      "wípé": 3297,
      "dou": 3298,
      "kemia": 3299,
      "bé": 3300,
      "kimi": 3301,
      "sing": 3302,
      "kwale": 3303,
      "vari": 3304,
      "ibile": 3305,
      "184": 3306,
      "ganda": 3307,
      "ህን": 3308,
      "kale": 3309,
      "lau": 3310,
      "appe": 3311,
      "refu": 3312,
      "haifa": 3313,
      "ሰር": 3314,
      "lọ́wọ́": 3315,
      "utawala": 3316,
      "kina": 3317,
      "ባሕ": 3318,
      "ዎችን": 3319,
      "ደረጃ": 3320,
      "offici": 3321,
      "award": 3322,
      "ልማ": 3323,
      "kundi": 3324,
      "act": 3325,
      "siyasa": 3326,
      "ayyukan": 3327,
      "ሳብ": 3328,
      "august": 3329,
      "kù": 3330,
      "መነ": 3331,
      "fuat": 3332,
      "dunia": 3333,
      "gwamnatin": 3334,
      "two": 3335,
      "zari": 3336,
      "የኤ": 3337,
      "fannin": 3338,
      "tch": 3339,
      "gener": 3340,
      "muhammad": 3341,
      "ulaya": 3342,
      "ደል": 3343,
      "ዓመቱ": 3344,
      "tv": 3345,
      "tẹ̀": 3346,
      "መንገድ": 3347,
      "dif": 3348,
      "ሮማ": 3349,
      "ais": 3350,
      "pele": 3351,
      "adhi": 3352,
      "dára": 3353,
      "oṣ": 3354,
      "zin": 3355,
      "ዮች": 3356,
      "sent": 3357,
      "àgbé": 3358,
      "ɗaya": 3359,
      "jana": 3360,
      "ወንዝ": 3361,
      "been": 3362,
      "ልጆች": 3363,
      "kamma": 3364,
      "ite": 3365,
      "try": 3366,
      "plu": 3367,
      "life": 3368,
      "fasihi": 3369,
      "37": 3370,
      "ate": 3371,
      "ምህ": 3372,
      "ዛሬ": 3373,
      "dece": 3374,
      "fíì": 3375,
      "rd1-": 3376,
      "aca": 3377,
      "bba": 3378,
      "ira": 3379,
      "የካ": 3380,
      "net": 3381,
      "nom": 3382,
      "ይወት": 3383,
      "2011": 3384,
      "star": 3385,
      "zungu": 3386,
      "ም፣": 3387,
      "ነጻ": 3388,
      "kammala": 3389,
      "uba": 3390,
      "group": 3391,
      "ምስ": 3392,
      "mìn": 3393,
      "spa": 3394,
      "enti": 3395,
      "ሙዚ": 3396,
      "የበ": 3397,
      "tish": 3398,
      "desemba": 3399,
      "ilé-ẹ̀kọ́": 3400,
      "hukuma": 3401,
      "tọ̀": 3402,
      "ቶስ": 3403,
      "ley": 3404,
      "ሃይማኖ": 3405,
      "cus": 3406,
      "associ": 3407,
      "ሳዊ": 3408,
      "ከት": 3409,
      "chake": 3410,
      "aprili": 3411,
      "kika": 3412,
      "padà": 3413,
      "ይህን": 3414,
      "www.": 3415,
      "score": 3416,
      "kiri": 3417,
      "alo": 3418,
      "sch": 3419,
      "march": 3420,
      "መው": 3421,
      "እንዲህ": 3422,
      "roman": 3423,
      "selu": 3424,
      "rès": 3425,
      "dali": 3426,
      "january": 3427,
      "ልብ": 3428,
      "ኛ፦": 3429,
      "ààrẹ": 3430,
      "koloni": 3431,
      "tumi": 3432,
      "lambar": 3433,
      "cibiyar": 3434,
      "naijiria": 3435,
      "2015": 3436,
      "well": 3437,
      "kwaikwa": 3438,
      "septemba": 3439,
      "hukumomin": 3440,
      "kats": 3441,
      "open": 3442,
      "ps": 3443,
      "ma.": 3444,
      "bal": 3445,
      "ndi": 3446,
      "hàn": 3447,
      "roya": 3448,
      "mpaka": 3449,
      "ain": 3450,
      "mla": 3451,
      "ርድ": 3452,
      "kanisa": 3453,
      "wọ̀n": 3454,
      "ተብሎ": 3455,
      "kuba": 3456,
      "tanga": 3457,
      "ንቲ": 3458,
      "አፈ": 3459,
      "asalin": 3460,
      "መልክ": 3461,
      "ero": 3462,
      "90": 3463,
      "ጎን": 3464,
      "here": 3465,
      "december": 3466,
      "በቅ": 3467,
      "ብረት": 3468,
      "2007": 3469,
      "gram": 3470,
      "katsina": 3471,
      "states": 3472,
      "york": 3473,
      "clo": 3474,
      "ሉቃ": 3475,
      "የአሜሪካ": 3476,
      "adé": 3477,
      "saint": 3478,
      "ውም": 3479,
      "kuhusu": 3480,
      "ilimin": 3481,
      "ሆነ።": 3482,
      "ቋንቋዎች": 3483,
      "amurka": 3484,
      "digiri": 3485,
      "gur": 3486,
      "jí": 3487,
      "ፓር": 3488,
      "''": 3489,
      "d'un": 3490,
      "english": 3491,
      "fen": 3492,
      "maa": 3493,
      "ል፣": 3494,
      "bili": 3495,
      "2010": 3496,
      "(198": 3497,
      "መንግስት": 3498,
      "tofauti": 3499,
      "austra": 3500,
      "tá": 3501,
      "uwa": 3502,
      "september": 3503,
      "(ከ": 3504,
      "ሚኒ": 3505,
      "እየ": 3506,
      "kal": 3507,
      "kasuwanci": 3508,
      "kua": 3509,
      "rẹ́": 3510,
      "ይቀ": 3511,
      "ልጣን": 3512,
      "alth": 3513,
      "pelu": 3514,
      "fina-": 3515,
      "ait": 3516,
      "masara": 3517,
      "isbn": 3518,
      "ስለዚህ": 3519,
      "70": 3520,
      "iv": 3521,
      "8-": 3522,
      "ሊክ": 3523,
      "ደጋ": 3524,
      "ለምሳሌ": 3525,
      "ṣí": 3526,
      "art": 3527,
      "bas": 3528,
      "halar": 3529,
      "jerin": 3530,
      "usi": 3531,
      "lui": 3532,
      "òrùn": 3533,
      "ሀገ": 3534,
      "masana": 3535,
      "kọ̀ọ́": 3536,
      "ወረዳ": 3537,
      "mwigizaji": 3538,
      "ልግ": 3539,
      "እያ": 3540,
      "እንጂ": 3541,
      "musamman": 3542,
      "fíìmù": 3543,
      "hor": 3544,
      "2012": 3545,
      "ng": 3546,
      "zon": 3547,
      "ፖለ": 3548,
      "februari": 3549,
      "person": 3550,
      "an,": 3551,
      "anz": 3552,
      "kilomita": 3553,
      "ረብ": 3554,
      "ጉዳ": 3555,
      "ፈለ": 3556,
      "into": 3557,
      "cc": 3558,
      "s)": 3559,
      "uk": 3560,
      "mil": 3561,
      "malla": 3562,
      "beca": 3563,
      "ሉቃስ": 3564,
      "mary": 3565,
      "ning": 3566,
      "yóò": 3567,
      "àì": 3568,
      "አዳ": 3569,
      "mwenye": 3570,
      "ême": 3571,
      "ብለው": 3572,
      "ጽሑ": 3573,
      "binci": 3574,
      "novemba": 3575,
      "2006": 3576,
      "wón": 3577,
      "mtu": 3578,
      "36": 3579,
      "annabi": 3580,
      "2014": 3581,
      "ado": 3582,
      "utu": 3583,
      "በሽ": 3584,
      "ዋቂ": 3585,
      "kiyar": 3586,
      "sous": 3587,
      "náà.": 3588,
      "ነበሩ።": 3589,
      "when": 3590,
      "ibn": 3591,
      "pita": 3592,
      "karatu": 3593,
      "koso": 3594,
      "()": 3595,
      "north": 3596,
      "ኖሩ": 3597,
      "naa": 3598,
      "gbon": 3599,
      "ስሙ": 3600,
      "tovu": 3601,
      "sie": 3602,
      "d'une": 3603,
      "mbia": 3604,
      "jeo": 3605,
      "ይዘ": 3606,
      "mace": 3607,
      "pili": 3608,
      "ologi": 3609,
      "አለቃ": 3610,
      "lina": 3611,
      "ft": 3612,
      "ከተማው": 3613,
      "there": 3614,
      "ኖስ": 3615,
      "lowo": 3616,
      "red": 3617,
      "public": 3618,
      "yay": 3619,
      "name": 3620,
      "ተፈ": 3621,
      "tokea": 3622,
      "fol": 3623,
      "sup": 3624,
      "utili": 3625,
      "አሁን": 3626,
      "james": 3627,
      "octo": 3628,
      "ont": 3629,
      "asia": 3630,
      "archi": 3631,
      "ተና": 3632,
      "ጥሩ": 3633,
      "ይባላል።": 3634,
      "em": 3635,
      "iran": 3636,
      "jose": 3637,
      "kashin": 3638,
      "gwam": 3639,
      "ƙungiyar": 3640,
      "tiba": 3641,
      "atlan": 3642,
      "የእስ": 3643,
      "gawa": 3644,
      "ṣèlú": 3645,
      "bọ́": 3646,
      "pwani": 3647,
      "ቻይና": 3648,
      "ጮች": 3649,
      "ነገሮች": 3650,
      "መዝ": 3651,
      "ኔታ": 3652,
      "karni": 3653,
      "cis": 3654,
      "rasmi": 3655,
      "መጨረሻ": 3656,
      "ላማ": 3657,
      "ወች": 3658,
      "kayan": 3659,
      "mungu": 3660,
      "rie": 3661,
      "'est": 3662,
      "ky": 3663,
      "upe": 3664,
      "nigba": 3665,
      "many": 3666,
      "ines": 3667,
      "princi": 3668,
      "ረዳ": 3669,
      "ሮስ": 3670,
      "tsohon": 3671,
      "kongo": 3672,
      "pes": 3673,
      "እንስ": 3674,
      "ruwa": 3675,
      "nínu": 3676,
      "ፖለቲካ": 3677,
      "fini": 3678,
      "በም": 3679,
      "ፍል": 3680,
      "የሚለው": 3681,
      "que,": 3682,
      "mutum": 3683,
      "cti": 3684,
      "mkubwa": 3685,
      "hala": 3686,
      "toire": 3687,
      "known": 3688,
      "such": 3689,
      "tern": 3690,
      "ሶች": 3691,
      "ድል": 3692,
      "hakan": 3693,
      "labar": 3694,
      "ined": 3695,
      "tical": 3696,
      "gis": 3697,
      "saka": 3698,
      "fore": 3699,
      "dri": 3700,
      "sinimá": 3701,
      "watakatifu": 3702,
      "marejeo": 3703,
      "180": 3704,
      "voir": 3705,
      "(ojoibi": 3706,
      "ዋቢ": 3707,
      "law": 3708,
      "shirin": 3709,
      "ዝርዝር": 3710,
      "vision": 3711,
      "45": 3712,
      "ated": 3713,
      "unda": 3714,
      "'yar": 3715,
      "ziwa": 3716,
      "hindi": 3717,
      "cher": 3718,
      "sil": 3719,
      "ድርጅ": 3720,
      "dus": 3721,
      "sà": 3722,
      "shari": 3723,
      "4-": 3724,
      "eyi": 3725,
      "መጀመርያ": 3726,
      "cré": 3727,
      "inde": 3728,
      "nau": 3729,
      "የኢ": 3730,
      "ደራ": 3731,
      "kiingereza": 3732,
      "tion,": 3733,
      "kwallon": 3734,
      "harshen": 3735,
      "kisiwa": 3736,
      "site": 3737,
      "george": 3738,
      "cted": 3739,
      "ti,": 3740,
      "2003": 3741,
      "ረም": 3742,
      "ይሆ": 3743,
      "gali": 3744,
      "pẹlu": 3745,
      "fri": 3746,
      "(19": 3747,
      "òfin": 3748,
      "ት፣": 3749,
      "isho": 3750,
      "aláì": 3751,
      "tattalin": 3752,
      "መጽሐፍ": 3753,
      "manin": 3754,
      "volu": 3755,
      "ሕዝ": 3756,
      "tam": 3757,
      "lokaci": 3758,
      "november": 3759,
      "fur": 3760,
      "tú": 3761,
      "lashe": 3762,
      "aussi": 3763,
      "97": 3764,
      "2000": 3765,
      "web": 3766,
      "gẹ": 3767,
      "ን፡": 3768,
      "ክሉ": 3769,
      "1892": 3770,
      "biran": 3771,
      "ẹ̀ẹ́": 3772,
      "college": 3773,
      "n,": 3774,
      "ነው፡፡": 3775,
      "kita": 3776,
      "dom": 3777,
      "during": 3778,
      "ule": 3779,
      "ƴan": 3780,
      "ነሳ": 3781,
      "lie": 3782,
      "to,": 3783,
      "ክርስቶስ": 3784,
      "di,": 3785,
      "'in": 3786,
      "አንዳ": 3787,
      "ሎት": 3788,
      "tement": 3789,
      "shirye": 3790,
      "february": 3791,
      "kwalejin": 3792,
      "g.": 3793,
      "'an": 3794,
      "6-": 3795,
      "ede": 3796,
      "pris": 3797,
      "ame": 3798,
      "ties": 3799,
      "say": 3800,
      "pos": 3801,
      "gbajúmọ̀": 3802,
      "glo": 3803,
      "àdú": 3804,
      "2005": 3805,
      "rẹ̀.": 3806,
      "hawa": 3807,
      "ነቱ": 3808,
      "osu": 3809,
      "ibadan": 3810,
      "gene": 3811,
      "vé": 3812,
      "inú": 3813,
      "እኔ": 3814,
      "taba": 3815,
      "haifaf": 3816,
      "kwaikwayo": 3817,
      "kuji": 3818,
      "ከሰ": 3819,
      "haihu": 3820,
      "institu": 3821,
      "mfu": 3822,
      "ani,": 3823,
      "tọ́": 3824,
      "davi": 3825,
      "baadaye": 3826,
      "ẹlẹ́bùn": 3827,
      "dili": 3828,
      "pania": 3829,
      "ለች": 3830,
      "ẹ̀yà": 3831,
      "semb": 3832,
      "ròyìn": 3833,
      "bìnrin": 3834,
      "ሁኔታ": 3835,
      "erre": 3836,
      "darí": 3837,
      "common": 3838,
      "hispania": 3839,
      "talla": 3840,
      "die": 3841,
      "julo": 3842,
      "yammacin": 3843,
      "ال": 3844,
      "ቢሆን": 3845,
      "kiwa": 3846,
      "pó": 3847,
      "nada": 3848,
      "2013": 3849,
      "shar": 3850,
      "taifa": 3851,
      "torí": 3852,
      "ሁኑ": 3853,
      "ካር": 3854,
      "ጠው": 3855,
      "ware": 3856,
      "misha": 3857,
      "obìnrin": 3858,
      "pàá": 3859,
      "arewacin": 3860,
      "acade": 3861,
      "ሀገር": 3862,
      "karkashin": 3863,
      "october": 3864,
      "gran": 3865,
      "kiswahili": 3866,
      "umoja": 3867,
      "ème": 3868,
      "ከር": 3869,
      "nasara": 3870,
      "yoyi": 3871,
      "lọ́dún": 3872,
      "anné": 3873,
      "ቆስ": 3874,
      "ፈን": 3875,
      "ፋት": 3876,
      "kifo": 3877,
      "አመት": 3878,
      "fait": 3879,
      "hudu": 3880,
      "les,": 3881,
      "out": 3882,
      "island": 3883,
      "paul": 3884,
      "መንፈ": 3885,
      "kofin": 3886,
      "sco": 3887,
      "mjini": 3888,
      "ነጋ": 3889,
      "ዲያ": 3890,
      "pti": 3891,
      "pho": 3892,
      "wal": 3893,
      "njia": 3894,
      "àgbá": 3895,
      "ቅድ": 3896,
      "wájú": 3897,
      "yote": 3898,
      "ts.": 3899,
      "tés": 3900,
      "eniyan": 3901,
      "magana": 3902,
      "ship": 3903,
      "34": 3904,
      "አይደ": 3905,
      "ፍጥ": 3906,
      "abubu": 3907,
      "al'um": 3908,
      "être": 3909,
      "iii": 3910,
      "oli": 3911,
      "peri": 3912,
      "ences": 3913,
      "1960": 3914,
      "ራን": 3915,
      "ተሰ": 3916,
      "tano": 3917,
      "tia": 3918,
      "ned": 3919,
      "መሆኑ": 3920,
      "british": 3921,
      "አያ": 3922,
      "አለው": 3923,
      "ያህል": 3924,
      "kabi": 3925,
      "town": 3926,
      "history": 3927,
      "mahaifin": 3928,
      "idan": 3929,
      "gbẹ": 3930,
      "ሙዚቃ": 3931,
      "e-": 3932,
      "même": 3933,
      "da.": 3934,
      "sal": 3935,
      "nombre": 3936,
      "syste": 3937,
      "ቀበ": 3938,
      "ቁር": 3939,
      "ebun": 3940,
      "መራ": 3941,
      "ቻቸው": 3942,
      "géné": 3943,
      "julikana": 3944,
      "keo": 3945,
      "goma": 3946,
      "ṣiṣẹ́": 3947,
      "lam": 3948,
      "sir": 3949,
      "bakar": 3950,
      "ፈላ": 3951,
      "list": 3952,
      "gbọ̀n": 3953,
      "በአንድ": 3954,
      "ይስጥ": 3955,
      "sas": 3956,
      "gent": 3957,
      "hwa": 3958,
      "kusa": 3959,
      "2018": 3960,
      "ንጉስ": 3961,
      "patikana": 3962,
      "ቴዎስ": 3963,
      "ዘጋ": 3964,
      "mission": 3965,
      "ምንጮች": 3966,
      "dor": 3967,
      "andi": 3968,
      "japan": 3969,
      "work": 3970,
      "lead": 3971,
      "1999": 3972,
      "ገዛ": 3973,
      "ጌታ": 3974,
      "yansi": 3975,
      "ራዊት": 3976,
      "ይገኛል።": 3977,
      "roma,": 3978,
      "ም፡": 3979,
      "ስላ": 3980,
      "ታዋቂ": 3981,
      "refer": 3982,
      "gá": 3983,
      "muhi": 3984,
      "women": 3985,
      "uchu": 3986,
      "የላ": 3987,
      "takar": 3988,
      "islamu": 3989,
      "kyautar": 3990,
      "govern": 3991,
      "2016": 3992,
      "flu": 3993,
      "lì": 3994,
      "az": 3995,
      "llar": 3996,
      "nyingine": 3997,
      "ምዕራብ": 3998,
      "haifaffun": 3999,
      "love": 4000,
      "opo": 4001,
      "ቷል።": 4002,
      "ẹyẹ": 4003,
      "sive": 4004,
      "gú": 4005,
      "ange": 4006,
      "filin": 4007,
      "july": 4008,
      "ìdá": 4009,
      "ጋራ": 4010,
      "keji": 4011,
      "mbili": 4012,
      "mulki": 4013,
      "ሥርወ": 4014,
      "ongozi": 4015,
      "v.": 4016,
      "contin": 4017,
      "91": 4018,
      "ondo": 4019,
      "charles": 4020,
      "black": 4021,
      "tsu": 4022,
      "ማረ": 4023,
      "adam": 4024,
      "lọpọ̀": 4025,
      "ṣùgbọ́n": 4026,
      "oloselu": 4027,
      "ches": 4028,
      "oper": 4029,
      "owo": 4030,
      "ወል": 4031,
      "bata": 4032,
      "የተሰ": 4033,
      "yabo": 4034,
      "bunge": 4035,
      "blo": 4036,
      "መሪ": 4037,
      "መሳ": 4038,
      "ፕሮ": 4039,
      "ìbílẹ̀": 4040,
      "ga,": 4041,
      "se,": 4042,
      "chama": 4043,
      "premier": 4044,
      "techni": 4045,
      "sikukuu": 4046,
      "best": 4047,
      "’ar": 4048,
      "en,": 4049,
      "terri": 4050,
      "about": 4051,
      "ወገን": 4052,
      "mataima": 4053,
      "mic": 4054,
      "mito": 4055,
      "tura": 4056,
      "http://www.": 4057,
      "egbe": 4058,
      "wote": 4059,
      "ambao": 4060,
      "milima": 4061,
      "ፈርዖ": 4062,
      "ባህር": 4063,
      "kùnrin": 4064,
      "river": 4065,
      "tena": 4066,
      "ንት": 4067,
      "አሸ": 4068,
      "ይመስ": 4069,
      "ball": 4070,
      "2009": 4071,
      "ብርሃ": 4072,
      "ìṣẹ̀": 4073,
      "òṣeré": 4074,
      "bó": 4075,
      "yika": 4076,
      "ufu": 4077,
      "ችው": 4078,
      "babbar": 4079,
      "|-": 4080,
      "dont": 4081,
      "binrin": 4082,
      "waya": 4083,
      "ward": 4084,
      "ስቴ": 4085,
      "ክፍላ": 4086,
      "uchumi": 4087,
      "play": 4088,
      "band": 4089,
      "gne": 4090,
      "manu": 4091,
      "ford": 4092,
      "tribu": 4093,
      "ጋል": 4094,
      "ፓን": 4095,
      "ory": 4096,
      "በተጨማሪ": 4097,
      "rubuta": 4098,
      "radi": 4099,
      "ልት": 4100,
      "ፎች": 4101,
      "als": 4102,
      "tarayyar": 4103,
      "om": 4104,
      "òkè": 4105,
      "እየተ": 4106,
      "አገልግ": 4107,
      "speci": 4108,
      "ታላቅ": 4109,
      "mah": 4110,
      "bes": 4111,
      "june": 4112,
      "kunan": 4113,
      "yayyun": 4114,
      "re,": 4115,
      "maj": 4116,
      "long": 4117,
      "2008": 4118,
      "በዚያ": 4119,
      "ወታ": 4120,
      "enne": 4121,
      "betwe": 4122,
      "mìnà": 4123,
      "si,": 4124,
      "zake": 4125,
      "ked": 4126,
      "ሩን": 4127,
      "feder": 4128,
      "sp": 4129,
      "ères": 4130,
      "milli": 4131,
      "kawaida": 4132,
      "between": 4133,
      "imo": 4134,
      "cou": 4135,
      "government": 4136,
      "hùn": 4137,
      "uka": 4138,
      "ance": 4139,
      "cutar": 4140,
      "ጣት": 4141,
      "waɗanda": 4142,
      "gwamnan": 4143,
      "wazi": 4144,
      "firi": 4145,
      "nyu": 4146,
      "bẹ": 4147,
      "ሳን": 4148,
      "ብሪ": 4149,
      "አላ": 4150,
      "ento": 4151,
      "rayayyun": 4152,
      "consi": 4153,
      "alakoso": 4154,
      "mnamo": 4155,
      "century": 4156,
      "communi": 4157,
      "ብላ": 4158,
      "ዚሁ": 4159,
      "የታ": 4160,
      "ጋይ": 4161,
      "met": 4162,
      "ቶችን": 4163,
      "ign": 4164,
      "ይታወቃ": 4165,
      "where": 4166,
      "és": 4167,
      "tini": 4168,
      "ille": 4169,
      "(በ": 4170,
      "ግባ": 4171,
      "ዘመናዊ": 4172,
      "መሠረት": 4173,
      "tẹ́lẹ̀": 4174,
      "muhimu": 4175,
      "ctions": 4176,
      "matan": 4177,
      "ci,": 4178,
      "-ì": 4179,
      "ጥሮ": 4180,
      "fira": 4181,
      "nítorí": 4182,
      "osere": 4183,
      "awards": 4184,
      "mìí": 4185,
      "àṣà": 4186,
      "ሜትር": 4187,
      "rashin": 4188,
      "sarkin": 4189,
      "2004": 4190,
      "pendan": 4191,
      "tanzani": 4192,
      "ìbà": 4193,
      "ሳቸው": 4194,
      "ፍሬ": 4195,
      "ጣልያን": 4196,
      "fasaha": 4197,
      "2017": 4198,
      "sè": 4199,
      "times": 4200,
      "iwe": 4201,
      "oju": 4202,
      "ሲን": 4203,
      "kusan": 4204,
      "sasa": 4205,
      "olórin": 4206,
      "gómìnà": 4207,
      "umar": 4208,
      "partic": 4209,
      "léwò": 4210,
      "servi": 4211,
      "nal": 4212,
      "kur": 4213,
      "shing": 4214,
      "joseph": 4215,
      "ìgb": 4216,
      "ገል": 4217,
      "ipo": 4218,
      "kẹrin": 4219,
      "cla": 4220,
      "very": 4221,
      "tics": 4222,
      "c)": 4223,
      "ሳል": 4224,
      "ባን": 4225,
      "ናን": 4226,
      "kiarabu": 4227,
      "neman": 4228,
      "cess": 4229,
      "round": 4230,
      "april": 4231,
      "cultur": 4232,
      "ለች።": 4233,
      "ማቴዎስ": 4234,
      "ኮች": 4235,
      "thé": 4236,
      "moder": 4237,
      "autres": 4238,
      "stra": 4239,
      "n.k.": 4240,
      "eko": 4241,
      "muda": 4242,
      "ipò": 4243,
      "ሎን": 4244,
      "ራሉ።": 4245,
      "four": 4246,
      "second": 4247,
      "nun": 4248,
      "enu": 4249,
      "fia": 4250,
      "maisha": 4251,
      "labara": 4252,
      "alim": 4253,
      "ንጉሠ": 4254,
      "mwanamuziki": 4255,
      "ile-": 4256,
      "ibra": 4257,
      "sto": 4258,
      "fai": 4259,
      "ered": 4260,
      "itace": 4261,
      "marubu": 4262,
      "lles": 4263,
      "spi": 4264,
      "male": 4265,
      "lib": 4266,
      "kiran": 4267,
      "huo": 4268,
      "ማህ": 4269,
      "mwisho": 4270,
      "ọ̀pọ̀lọpọ̀": 4271,
      "wari": 4272,
      "nouve": 4273,
      "tsar": 4274,
      "ttle": 4275,
      "mlima": 4276,
      "son,": 4277,
      "ሆኖም": 4278,
      "ወለደ": 4279,
      "edu": 4280,
      "ough": 4281,
      "ctur": 4282,
      "yaani": 4283,
      "zabe": 4284,
      "haifi": 4285,
      "hanyoyin": 4286,
      "ፓርቲ": 4287,
      "empi": 4288,
      "ce-": 4289,
      "number": 4290,
      "impor": 4291,
      "«የ": 4292,
      "anga": 4293,
      "only": 4294,
      "japani": 4295,
      "kún": 4296,
      "ተነ": 4297,
      "ዙሪያ": 4298,
      "ዝም": 4299,
      "gíga": 4300,
      "ora": 4301,
      "commun": 4302,
      "mi,": 4303,
      "ika": 4304,
      "addin": 4305,
      "àgbéléwò": 4306,
      "ttu": 4307,
      "ògùn": 4308,
      "መቀ": 4309,
      "raba": 4310,
      "zaben": 4311,
      "thre": 4312,
      "ነገሠ": 4313,
      "kasashen": 4314,
      "union": 4315,
      "arti": 4316,
      "dàn": 4317,
      "j.": 4318,
      "ዩኒ": 4319,
      "’a": 4320,
      "limi": 4321,
      "finai": 4322,
      "lafiya": 4323,
      "ngu": 4324,
      "zote": 4325,
      "75": 4326,
      "ung": 4327,
      "ethiopia": 4328,
      "የነበሩ": 4329,
      "ይሰ": 4330,
      "apá": 4331,
      "bàbá": 4332,
      "takri": 4333,
      "/)": 4334,
      "kiti": 4335,
      "h.": 4336,
      "damu": 4337,
      "de.": 4338,
      "philo": 4339,
      "39": 4340,
      "develop": 4341,
      "owó": 4342,
      "ቀረ": 4343,
      "anta": 4344,
      "ድረግ": 4345,
      "ዕለታት": 4346,
      "vili": 4347,
      "région": 4348,
      "après": 4349,
      "cali": 4350,
      "ዮር": 4351,
      "ọwọ́": 4352,
      "mìíràn": 4353,
      "m)": 4354,
      "elect": 4355,
      "zil": 4356,
      "aina": 4357,
      "ፈት": 4358,
      "1980": 4359,
      "halarci": 4360,
      "አንዳንድ": 4361,
      "dina": 4362,
      "fili": 4363,
      "f.": 4364,
      "mand": 4365,
      "chuo": 4366,
      "dọ́": 4367,
      "ሩ።": 4368,
      "ባዊ": 4369,
      "ይጠ": 4370,
      "ilẹ": 4371,
      "form": 4372,
      "jó": 4373,
      "meji": 4374,
      "ከበ": 4375,
      "bakwai": 4376,
      "era": 4377,
      "tion.": 4378,
      "constitu": 4379,
      "population": 4380,
      "east": 4381,
      "jean": 4382,
      "በየ": 4383,
      "ዘን": 4384,
      "ገዳ": 4385,
      "ciki": 4386,
      "sosai": 4387,
      "ገኘው": 4388,
      "ine,": 4389,
      "ከራ": 4390,
      "ààyè": 4391,
      "si.": 4392,
      "poly": 4393,
      "via": 4394,
      "ville": 4395,
      "abubakar": 4396,
      "rún": 4397,
      "ቀናት": 4398,
      "ባሉ": 4399,
      "ግጥ": 4400,
      "tayi": 4401,
      "jimbo": 4402,
      "'adu": 4403,
      "latin": 4404,
      ")፣": 4405,
      "ክራ": 4406,
      "kungi": 4407,
      "austri": 4408,
      "meta": 4409,
      "guine": 4410,
      "diri": 4411,
      "wes": 4412,
      "ሥላ": 4413,
      "አጥ": 4414,
      "dangan": 4415,
      "jam'i": 4416,
      "oun": 4417,
      "uganda": 4418,
      "maana": 4419,
      "አካል": 4420,
      "kadha": 4421,
      "mak": 4422,
      "hel": 4423,
      "stand": 4424,
      "dépar": 4425,
      "1990": 4426,
      "ጠና": 4427,
      "ekana": 4428,
      "ክልል": 4429,
      "zinazo": 4430,
      "ባሕር": 4431,
      "h,": 4432,
      "sifi": 4433,
      "view": 4434,
      "ልደት": 4435,
      "ስያ": 4436,
      "informa": 4437,
      "titi": 4438,
      "zaɓ": 4439,
      "jiji": 4440,
      "bour": 4441,
      "zilizo": 4442,
      "የሱስ": 4443,
      "early": 4444,
      "bbc": 4445,
      "bayar": 4446,
      "chur": 4447,
      "(የ": 4448,
      "py": 4449,
      "ቀል": 4450,
      "ገው": 4451,
      "lewa": 4452,
      "pekee": 4453,
      "ጽሑፍ": 4454,
      "hairi": 4455,
      "(197": 4456,
      "st.": 4457,
      "መጻ": 4458,
      "ሦስት": 4459,
      "ቀዳ": 4460,
      "ያሉ": 4461,
      "sayansi": 4462,
      "\")": 4463,
      "ety": 4464,
      "kudan": 4465,
      "soko": 4466,
      "ode": 4467,
      "later": 4468,
      "thern": 4469,
      "france": 4470,
      "sus": 4471,
      "teurs": 4472,
      "sìkò": 4473,
      "logy": 4474,
      "you": 4475,
      "tima": 4476,
      "2002": 4477,
      "ዕል": 4478,
      "arziki": 4479,
      "dubu": 4480,
      "ደብረ": 4481,
      "ƙin": 4482,
      "ከብ": 4483,
      "ወዳ": 4484,
      "ወጥ": 4485,
      "cika": 4486,
      "wed": 4487,
      "paris": 4488,
      "መቶ": 4489,
      "ማይ": 4490,
      "ቨር": 4491,
      "ọlá": 4492,
      "isra": 4493,
      "nijar": 4494,
      "comple": 4495,
      "ማርያም": 4496,
      "abuja": 4497,
      "ሁሉም": 4498,
      "akoko": 4499,
      "tawa": 4500,
      "recor": 4501,
      "ghu": 4502,
      "ton,": 4503,
      "nú": 4504,
      "mea": 4505,
      "sanin": 4506,
      "የተለያዩ": 4507,
      "ምናል": 4508,
      "dhidi": 4509,
      "ፕሬዚ": 4510,
      "jira": 4511,
      "kare": 4512,
      "oly": 4513,
      "hau": 4514,
      "7-": 4515,
      "gori": 4516,
      "ƙi": 4517,
      "ሻዎች": 4518,
      "በእ": 4519,
      "ጥረ": 4520,
      "end": 4521,
      "alipo": 4522,
      "christi": 4523,
      "33": 4524,
      "eto": 4525,
      "kra": 4526,
      "kistan": 4527,
      "ማች": 4528,
      "ቲን": 4529,
      "የህ": 4530,
      "nuwa": 4531,
      "tron": 4532,
      "500": 4533,
      "benin": 4534,
      "peut": 4535,
      "(እንግሊዝኛ": 4536,
      "ተዋ": 4537,
      "አራ": 4538,
      "onge": 4539,
      "bank": 4540,
      "conomi": 4541,
      "turai": 4542,
      "pàtà": 4543,
      "gwamnati": 4544,
      "ክርስቲያ": 4545,
      "democra": 4546,
      "aláìsí": 4547,
      "addinin": 4548,
      "ep": 4549,
      "profes": 4550,
      "lt": 4551,
      "husi": 4552,
      "(m": 4553,
      "5-": 4554,
      "cts": 4555,
      "yau": 4556,
      "ማጣ": 4557,
      "ካም": 4558,
      "ውሮፓ": 4559,
      "takriban": 4560,
      "physi": 4561,
      "tru": 4562,
      "rù": 4563,
      "bihi": 4564,
      "የሚል": 4565,
      "የምት": 4566,
      "yunifá": 4567,
      "aja": 4568,
      "mó": 4569,
      "unga": 4570,
      "siri": 4571,
      "these": 4572,
      "ìyá": 4573,
      "mizi": 4574,
      "jimi": 4575,
      "እርሱ": 4576,
      "የነበረው": 4577,
      "ሥላሴ": 4578,
      "plo": 4579,
      "ik": 4580,
      "maduni": 4581,
      "mahali": 4582,
      "harkokin": 4583,
      "miliyan": 4584,
      "kọ̀wé": 4585,
      "áfríkà": 4586,
      "masana'an": 4587,
      "academy": 4588,
      "fren": 4589,
      "wù": 4590,
      "éle": 4591,
      "ሄድ": 4592,
      "የሰው": 4593,
      "gabar": 4594,
      "proje": 4595,
      "pàtàkì": 4596,
      "comp": 4597,
      "tatu": 4598,
      "tit": 4599,
      "kimataifa": 4600,
      "bijin": 4601,
      "jami’ar": 4602,
      "fus": 4603,
      "chin": 4604,
      "dù": 4605,
      "ላን": 4606,
      "አምላክ": 4607,
      "ማስታወ": 4608,
      "dge": 4609,
      "samo": 4610,
      "natur": 4611,
      "team": 4612,
      "ታቸውን": 4613,
      "እድ": 4614,
      "wengine": 4615,
      "ገንዘ": 4616,
      "ጠቃላይ": 4617,
      "score0": 4618,
      "esta": 4619,
      "zanzi": 4620,
      "nde": 4621,
      "region": 4622,
      "duba": 4623,
      "ils": 4624,
      "ሌክት": 4625,
      "mpya": 4626,
      "1970": 4627,
      "kẹta": 4628,
      "mwanasiasa": 4629,
      "እጅግ": 4630,
      "wurin": 4631,
      "ibrahim": 4632,
      "hus": 4633,
      "pú": 4634,
      "ስቱ": 4635,
      "ጠን": 4636,
      "me,": 4637,
      "mwezi": 4638,
      "royal": 4639,
      "jò": 4640,
      "kta": 4641,
      "ọlọ́": 4642,
      "tsawon": 4643,
      "amerika.": 4644,
      "ilé-iṣẹ́": 4645,
      "philoso": 4646,
      "mwen": 4647,
      "kabla": 4648,
      "viet": 4649,
      "zanzibar": 4650,
      "cture": 4651,
      "kabila": 4652,
      "alu": 4653,
      "fẹ": 4654,
      "ox": 4655,
      "pù": 4656,
      "ዮስ": 4657,
      "kimanin": 4658,
      "tanbihi": 4659,
      "milioni": 4660,
      "shirya": 4661,
      "99": 4662,
      "throu": 4663,
      "exis": 4664,
      "official": 4665,
      "c'est": 4666,
      "ላው": 4667,
      "ይቻ": 4668,
      "ደስ": 4669,
      "ግ.": 4670,
      "habi": 4671,
      "እንቅ": 4672,
      "0,000": 4673,
      "ጠቀም": 4674,
      "ሃይማኖት": 4675,
      "fifa": 4676,
      "origin": 4677,
      "iden": 4678,
      "mayu": 4679,
      "tabba": 4680,
      "makabila": 4681,
      "fred": 4682,
      "chaguzi": 4683,
      "di.": 4684,
      "place": 4685,
      "mati": 4686,
      "ላሉ።": 4687,
      "በእንግሊዝኛ": 4688,
      "wasi": 4689,
      "ሳይሆን": 4690,
      "biranen": 4691,
      "french": 4692,
      "nel": 4693,
      "sour": 4694,
      "akin": 4695,
      "pt": 4696,
      "éga": 4697,
      "ainsi": 4698,
      "ሴቶች": 4699,
      "በደቡብ": 4700,
      "ዓይ": 4701,
      "የሩ": 4702,
      "ዳግ": 4703,
      "ገነ": 4704,
      "dawo": 4705,
      "giriki": 4706,
      "abẹ́": 4707,
      "kọ́kọ́": 4708,
      "oyè": 4709,
      "zed": 4710,
      "àjọ": 4711,
      "ƙara": 4712,
      "ቀድሞ": 4713,
      "sakand": 4714,
      "micha": 4715,
      "fiyar": 4716,
      "masarautar": 4717,
      "mada": 4718,
      "français": 4719,
      "(kwa": 4720,
      "shed": 4721,
      "náà,": 4722,
      "àdúgbò": 4723,
      "(\"": 4724,
      "iwo": 4725,
      "face": 4726,
      "ll,": 4727,
      "gundu": 4728,
      "naijiria.": 4729,
      "ክርስት": 4730,
      "our": 4731,
      "tàn": 4732,
      "kwen": 4733,
      "ባብ": 4734,
      "አሳ": 4735,
      "alààyè": 4736,
      "tovuti": 4737,
      "rana": 4738,
      "see": 4739,
      "48": 4740,
      "gọ́": 4741,
      "በታ": 4742,
      "በኩል": 4743,
      "pays": 4744,
      "yàwó": 4745,
      "ወርቅ": 4746,
      "organ": 4747,
      "apo": 4748,
      "cana": 4749,
      "38": 4750,
      "ፖሊ": 4751,
      "alors": 4752,
      "vir": 4753,
      "hankali": 4754,
      "graphi": 4755,
      "አባል": 4756,
      "wakil": 4757,
      "position": 4758,
      "kudancin": 4759,
      "fra": 4760,
      "masha": 4761,
      "fiel": 4762,
      "muka": 4763,
      "super": 4764,
      "awo": 4765,
      "uchaguzi": 4766,
      "ፍና": 4767,
      "haɗin": 4768,
      "ọ̀nà": 4769,
      "kọkàn": 4770,
      "ሲሆን፣": 4771,
      "ሁለተኛው": 4772,
      "ango": 4773,
      "yama": 4774,
      "damar": 4775,
      "igb": 4776,
      "imani": 4777,
      "ክብ": 4778,
      "የነ": 4779,
      "nafasi": 4780,
      "kura": 4781,
      "2015,": 4782,
      "ነትን": 4783,
      "ጀመረ": 4784,
      "olóṣèlú": 4785,
      "fulani": 4786,
      "bada": 4787,
      "ተቋ": 4788,
      "ዋት": 4789,
      "mapo": 4790,
      "hizi": 4791,
      "የተባለው": 4792,
      "lors": 4793,
      "መረጃ": 4794,
      "0-": 4795,
      "onimo": 4796,
      "ìbẹ̀rẹ̀": 4797,
      "አቶ": 4798,
      "ወለዱ": 4799,
      "የመጀመሪያው": 4800,
      "oma": 4801,
      "david": 4802,
      "ller": 4803,
      "አድ": 4804,
      "radio": 4805,
      "kumbukumbu": 4806,
      "situ": 4807,
      "gege": 4808,
      "sune": 4809,
      "-ẹ̀yẹ": 4810,
      "dọ̀": 4811,
      "uwan": 4812,
      "ተዋል።": 4813,
      "ኮን": 4814,
      "inte": 4815,
      "mitin": 4816,
      "olympi": 4817,
      "menti": 4818,
      "ዕዝ": 4819,
      "en.": 4820,
      "t-": 4821,
      "ሕግ": 4822,
      "መዋ": 4823,
      "ትው": 4824,
      "ያዊ": 4825,
      "daular": 4826,
      "gbẹ̀": 4827,
      "mengine": 4828,
      "ìbàdàn": 4829,
      "bles": 4830,
      "fli": 4831,
      "inu": 4832,
      "org": 4833,
      "ingia": 4834,
      "ላሉ": 4835,
      "የን": 4836,
      "ይሄ": 4837,
      "ግሪክ": 4838,
      "wadda": 4839,
      "የተክሉ": 4840,
      "ganin": 4841,
      "alexander": 4842,
      "mark": 4843,
      "ሪቱ": 4844,
      "ጠፋ": 4845,
      "bawa": 4846,
      "nasar": 4847,
      "nipa": 4848,
      "በመሆኑ": 4849,
      "wasannin": 4850,
      "haki": 4851,
      "neno": 4852,
      "1998": 4853,
      "ሚካ": 4854,
      "ቲክ": 4855,
      "ቶቹ": 4856,
      "የኦ": 4857,
      "ጥያ": 4858,
      "aren": 4859,
      "sakama": 4860,
      "legas": 4861,
      "papọ̀": 4862,
      "kanta": 4863,
      "tary": 4864,
      "rẹ̀,": 4865,
      "asali": 4866,
      "association": 4867,
      "kuru": 4868,
      "robert": 4869,
      "compo": 4870,
      "edi": 4871,
      "lega": 4872,
      "gbara": 4873,
      "martin": 4874,
      "studi": 4875,
      "wun": 4876,
      "ሦር": 4877,
      "አየር": 4878,
      "ገኛ": 4879,
      "kais": 4880,
      "bikin": 4881,
      "shida": 4882,
      "taron": 4883,
      "ìjọ": 4884,
      "arch": 4885,
      "kere": 4886,
      "ṣẹ̀": 4887,
      "sel": 4888,
      "እንኳ": 4889,
      "duniya.": 4890,
      "ምንጭ": 4891,
      "oṣu": 4892,
      "go,": 4893,
      "ctive": 4894,
      "bọ̀": 4895,
      "ስማ": 4896,
      "ቢት": 4897,
      "ካሌ": 4898,
      "ግለ": 4899,
      "wao": 4900,
      "bau": 4901,
      "kufi": 4902,
      "diff": 4903,
      "mie": 4904,
      "great": 4905,
      "mfano": 4906,
      "himman": 4907,
      "መጠን": 4908,
      "ትልቅ": 4909,
      "littafin": 4910,
      "voi": 4911,
      "ing,": 4912,
      "muhammadu": 4913,
      "ባል።": 4914,
      "ዲህ": 4915,
      "ፊደል": 4916,
      "yohan": 4917,
      "hotuna": 4918,
      "ያንዳን": 4919,
      "ይችላል።": 4920,
      "general": 4921,
      "où": 4922,
      "tent": 4923,
      "like": 4924,
      "ws": 4925,
      "rangi": 4926,
      "ፖር": 4927,
      "2014,": 4928,
      "jumla": 4929,
      "km²": 4930,
      "again": 4931,
      "labarai": 4932,
      "tout": 4933,
      "ver,": 4934,
      "haji": 4935,
      "nement": 4936,
      "forme": 4937,
      "ኃይል": 4938,
      "ኘው": 4939,
      "ጡት": 4940,
      "made": 4941,
      "biya": 4942,
      "títí": 4943,
      "lilikuwa": 4944,
      "àgbáyé": 4945,
      "ይታወቃል።": 4946,
      "ምናልባት": 4947,
      "également": 4948,
      "bs": 4949,
      "2016,": 4950,
      "nigeria.": 4951,
      "-daban": 4952,
      "aur": 4953,
      "uki": 4954,
      "ታን": 4955,
      "የሆኑ": 4956,
      "walikuwa": 4957,
      "ስለሆነ": 4958,
      "familia": 4959,
      "shirye-": 4960,
      "አይደለም": 4961,
      "abe": 4962,
      "istan": 4963,
      "ko,": 4964,
      "2011,": 4965,
      "fois": 4966,
      "kum": 4967,
      "good": 4968,
      "ife": 4969,
      "ዜና": 4970,
      "ይዩ": 4971,
      "ግዛ": 4972,
      "haɗa": 4973,
      "member": 4974,
      "2012,": 4975,
      "በትን": 4976,
      "ìdíje": 4977,
      "mapokeo": 4978,
      "would": 4979,
      "1994": 4980,
      "68": 4981,
      "cara": 4982,
      "(the": 4983,
      "wú": 4984,
      "ር-": 4985,
      "ዝና": 4986,
      "2017,": 4987,
      "አባት": 4988,
      "science": 4989,
      "400": 4990,
      "fla": 4991,
      "péri": 4992,
      "nar": 4993,
      "haya": 4994,
      "(la": 4995,
      "ብሊክ": 4996,
      "ከማ": 4997,
      "kashi": 4998,
      "col": 4999,
      "child": 5000,
      "ሐይ": 5001,
      "mba,": 5002,
      "ይር": 5003,
      "ፓንያ": 5004,
      "kikuu": 5005,
      "peter": 5006,
      "እንደሆነ": 5007,
      "bene": 5008,
      "bina": 5009,
      "dd": 5010,
      "ide": 5011,
      "ná": 5012,
      "house": 5013,
      "mban": 5014,
      "pẹ́": 5015,
      "ƙida": 5016,
      "በሌላ": 5017,
      "fuatana": 5018,
      "dp": 5019,
      "zuri": 5020,
      "elé": 5021,
      "portu": 5022,
      "አለም": 5023,
      "mexi": 5024,
      "wili": 5025,
      "jua": 5026,
      "....": 5027,
      "daban-daban": 5028,
      "ajili": 5029,
      "entomon": 5030,
      "empire": 5031,
      "development": 5032,
      "mambo": 5033,
      "church": 5034,
      "-ún": 5035,
      "በቃ": 5036,
      "ይጠቀ": 5037,
      "ገቡ": 5038,
      "mirefu": 5039,
      "fice": 5040,
      "sojo": 5041,
      "man,": 5042,
      "míràn": 5043,
      "2019,": 5044,
      "talabijin": 5045,
      "hak": 5046,
      "karin": 5047,
      "com/": 5048,
      "ase": 5049,
      "imu": 5050,
      "ሊዮን": 5051,
      "ምል": 5052,
      "በዓ": 5053,
      "kamusi": 5054,
      "onekana": 5055,
      "isla": 5056,
      "እንደገና": 5057,
      "ማርቆስ": 5058,
      "kaya": 5059,
      "shor": 5060,
      "partie": 5061,
      "pindi": 5062,
      "nia": 5063,
      "sẹ́": 5064,
      "katoliki": 5065,
      "hilo": 5066,
      "patri": 5067,
      "2001": 5068,
      "gargaji": 5069,
      "jamii": 5070,
      "music": 5071,
      "kwenda": 5072,
      "’i": 5073,
      "los": 5074,
      "ራል።": 5075,
      "ውጤ": 5076,
      "ዛኛው": 5077,
      "የእ": 5078,
      "ዳዊ": 5079,
      "hat": 5080,
      "viron": 5081,
      "bangar": 5082,
      "pope": 5083,
      "ane": 5084,
      "andre": 5085,
      "bantu": 5086,
      "l'in": 5087,
      "ɗau": 5088,
      "ነቶች": 5089,
      "ደረጉ": 5090,
      "yoruba": 5091,
      "yawancin": 5092,
      "abinci": 5093,
      "ጎርጎር": 5094,
      "enugu": 5095,
      "(n": 5096,
      "rai": 5097,
      "1987": 5098,
      "በነ": 5099,
      "ብን": 5100,
      "ጠል": 5101,
      "order": 5102,
      "gabashin": 5103,
      "table": 5104,
      "=\"": 5105,
      "bio": 5106,
      "yi,": 5107,
      "constru": 5108,
      "bello": 5109,
      "land,": 5110,
      "ችል": 5111,
      "sítì": 5112,
      "afrika.": 5113,
      "llywood": 5114,
      "9-": 5115,
      "fron": 5116,
      "hana": 5117,
      "louis": 5118,
      "foot": 5119,
      "(c": 5120,
      "nye": 5121,
      "argent": 5122,
      "ìròyìn": 5123,
      "በብዛት": 5124,
      "techno": 5125,
      "በሽታ": 5126,
      "ìṣẹ̀lẹ̀": 5127,
      "64": 5128,
      "ji,": 5129,
      "center": 5130,
      "multi": 5131,
      "gẹ̀ẹ́": 5132,
      "àrí": 5133,
      "በጥ": 5134,
      "bi,": 5135,
      "su,": 5136,
      "tif": 5137,
      "babu": 5138,
      "became": 5139,
      "fle": 5140,
      "መቅ": 5141,
      "፲፰": 5142,
      "artic": 5143,
      "sabon": 5144,
      "lábẹ́": 5145,
      "ሳይን": 5146,
      "called": 5147,
      "መንፈስ": 5148,
      "yer": 5149,
      "cir": 5150,
      "mbun": 5151,
      "ሲል": 5152,
      "ብዛት": 5153,
      "kupi": 5154,
      "kufuatana": 5155,
      "wọn.": 5156,
      "askof": 5157,
      "1993": 5158,
      "እስያ": 5159,
      "abubuwan": 5160,
      "la.": 5161,
      "maria": 5162,
      "ident": 5163,
      "michael": 5164,
      "(;": 5165,
      "መም": 5166,
      "መና": 5167,
      "ውቅ": 5168,
      "safa": 5169,
      "ciyar": 5170,
      "turanci": 5171,
      "ማጣቀ": 5172,
      "vre": 5173,
      "maga": 5174,
      "32": 5175,
      "satu": 5176,
      "respon": 5177,
      "mẹ": 5178,
      "ረግ": 5179,
      "ኑስ": 5180,
      "environ": 5181,
      "ƙidayar": 5182,
      "kan.": 5183,
      "ter,": 5184,
      "death": 5185,
      "mme": 5186,
      "ɗu": 5187,
      "ኒው": 5188,
      "ከተለው": 5189,
      "yanayin": 5190,
      "ንዳር": 5191,
      "zation": 5192,
      "atta": 5193,
      "agus": 5194,
      "2016.": 5195,
      "t)": 5196,
      "ọjọ": 5197,
      "keje": 5198,
      "òṣèlú": 5199,
      "years": 5200,
      "ሚስት": 5201,
      "ኃይለ": 5202,
      "ከታ": 5203,
      "ዕብራ": 5204,
      "የሞ": 5205,
      "1991": 5206,
      "በአሁኑ": 5207,
      "hannu": 5208,
      "utamaduni": 5209,
      "anzishwa": 5210,
      "\"the": 5211,
      "lip": 5212,
      "1997": 5213,
      "culture": 5214,
      "moni": 5215,
      "three": 5216,
      "guinea": 5217,
      "vina": 5218,
      "ሥቱ": 5219,
      "ግድ": 5220,
      "large": 5221,
      "ጥንት": 5222,
      "wadannan": 5223,
      "hesabi": 5224,
      "gúú": 5225,
      "compan": 5226,
      "58": 5227,
      "ei": 5228,
      "በኛ": 5229,
      "ገዥ": 5230,
      "ፊል": 5231,
      "ọn": 5232,
      "leyin": 5233,
      "lọ.": 5234,
      "ambako": 5235,
      "central": 5236,
      "---": 5237,
      "ayyuka": 5238,
      "አፍሪካ": 5239,
      "département": 5240,
      "gẹ̀ẹ́sì": 5241,
      "askofu": 5242,
      "us.": 5243,
      "while": 5244,
      "biri": 5245,
      "auth": 5246,
      "german": 5247,
      "ውጭ": 5248,
      "ያደር": 5249,
      "kalen": 5250,
      "mat": 5251,
      "sadar": 5252,
      "covi": 5253,
      "taimaka": 5254,
      "mahaifiyar": 5255,
      "kitabu": 5256,
      "kaisari": 5257,
      "(196": 5258,
      "-a": 5259,
      "kor": 5260,
      "peu": 5261,
      "able": 5262,
      "ማል": 5263,
      "ሪት": 5264,
      "በሙሉ": 5265,
      "አሉ": 5266,
      "ክን": 5267,
      "organi": 5268,
      "alka": 5269,
      "news": 5270,
      "borno": 5271,
      "እምነት": 5272,
      "ibu": 5273,
      "alli": 5274,
      "cap": 5275,
      "ip": 5276,
      "»)": 5277,
      "hiri": 5278,
      "court": 5279,
      "ሕይወት": 5280,
      "ይፋ": 5281,
      "ገጽ": 5282,
      "sayen": 5283,
      "gboyè": 5284,
      "gúúsù": 5285,
      "kemi": 5286,
      "nazar": 5287,
      "series": 5288,
      "a)": 5289,
      "cô": 5290,
      "ቡድን": 5291,
      "ብል": 5292,
      "ቱርክ": 5293,
      "አህ": 5294,
      "ካታ": 5295,
      "ged": 5296,
      "ስተኛ": 5297,
      "àkọ́lé": 5298,
      "family": 5299,
      "ወታደ": 5300,
      "yohane": 5301,
      "cheo": 5302,
      "hop": 5303,
      "ሕንድ": 5304,
      "ሳሰ": 5305,
      "ኝነት": 5306,
      "አና": 5307,
      "የዓለም": 5308,
      "taire": 5309,
      "sanan": 5310,
      "jọba": 5311,
      "ስራቅ": 5312,
      "eas": 5313,
      "2018,": 5314,
      "150": 5315,
      "twa": 5316,
      "brazil": 5317,
      "thomas": 5318,
      "acikin": 5319,
      "ን፣": 5320,
      "ዝማች": 5321,
      "koyar": 5322,
      "ọ́n": 5323,
      "que.": 5324,
      "olórí": 5325,
      "yaliyo": 5326,
      "ብሔራዊ": 5327,
      "log": 5328,
      "aure": 5329,
      "emi": 5330,
      "tm": 5331,
      "to.": 5332,
      "power": 5333,
      "bù": 5334,
      "mmoja": 5335,
      "ሙት": 5336,
      "ውሃ": 5337,
      "ዘዴ": 5338,
      "ጥበብ": 5339,
      "ፍቅር": 5340,
      "masi": 5341,
      "huadhi": 5342,
      "ayẹyẹ": 5343,
      "wengi,": 5344,
      "የውጭ": 5345,
      "fina-finai": 5346,
      "ፍልስ": 5347,
      "hapo": 5348,
      "adar": 5349,
      "adminis": 5350,
      "ndogo": 5351,
      "ées": 5352,
      "ማት": 5353,
      "ist": 5354,
      "did": 5355,
      "memba": 5356,
      "፲፱፻፶": 5357,
      "sára": 5358,
      "était": 5359,
      "ma'aika": 5360,
      "salaam": 5361,
      "hesabiwa": 5362,
      "mila": 5363,
      "obje": 5364,
      "follow": 5365,
      "yẹ̀": 5366,
      "ስቶ": 5367,
      "ያሳ": 5368,
      "ይዞ": 5369,
      "kálẹ̀": 5370,
      "kadhaa": 5371,
      "ካሌንዳር": 5372,
      "ጎርጎርያን": 5373,
      "covid-": 5374,
      "(s": 5375,
      "dévelop": 5376,
      "arabi": 5377,
      "kowa": 5378,
      "sans": 5379,
      "très": 5380,
      "greek": 5381,
      "ìbá": 5382,
      "ሥልጣን": 5383,
      "ራኤል": 5384,
      "ስል": 5385,
      "በኦ": 5386,
      "off": 5387,
      "jiho": 5388,
      "ọ̀lù": 5389,
      "pewa": 5390,
      "sarki": 5391,
      "gabas": 5392,
      "ọjọ́aláìsí": 5393,
      "jinsi": 5394,
      "ሁለተኛ": 5395,
      "ድርጅት": 5396,
      "ወልደ": 5397,
      "alimfuata": 5398,
      "ሳይንሳዊ": 5399,
      "an.": 5400,
      "pl": 5401,
      "ችሁ": 5402,
      "ከላ": 5403,
      "የቆ": 5404,
      "የቀን": 5405,
      "kalẹ̀": 5406,
      "sile": 5407,
      "nollywood": 5408,
      "bákan": 5409,
      "ዳንት": 5410,
      "47": 5411,
      "alle": 5412,
      "tobi": 5413,
      "shi.": 5414,
      "መሬት": 5415,
      "ስድ": 5416,
      "በኢ": 5417,
      "waye": 5418,
      "kawo": 5419,
      "late": 5420,
      "ቸው።": 5421,
      "1996": 5422,
      "wáyé": 5423,
      "55": 5424,
      "kha": 5425,
      "tu.": 5426,
      "then": 5427,
      "ographi": 5428,
      "fú": 5429,
      "ሥጋ": 5430,
      "nahi": 5431,
      "rama": 5432,
      "kowan": 5433,
      "kwamitin": 5434,
      "shugaba": 5435,
      "born": 5436,
      "tiques": 5437,
      "suc": 5438,
      "belgi": 5439,
      "178": 5440,
      "okun": 5441,
      "ረጋ": 5442,
      "ርቶ": 5443,
      "ጊዮር": 5444,
      "any": 5445,
      "rawar": 5446,
      "fic": 5447,
      "ministan": 5448,
      "ከዚያም": 5449,
      "ከነዓ": 5450,
      "minira": 5451,
      "ጊዮርጊ": 5452,
      "sever": 5453,
      "1995": 5454,
      "uishe": 5455,
      "back": 5456,
      "movie": 5457,
      "bang": 5458,
      "waziri": 5459,
      "አቅ": 5460,
      "ዴት": 5461,
      "taken": 5462,
      "tawala": 5463,
      "fas": 5464,
      "huu": 5465,
      "makao": 5466,
      "አገራት": 5467,
      "የማይ": 5468,
      "lórílẹ̀": 5469,
      "ቀጥሎ": 5470,
      "kalenda": 5471,
      "lun": 5472,
      "festi": 5473,
      "mà": 5474,
      "delta": 5475,
      "ለሁ": 5476,
      "ሰጥ": 5477,
      "ስቃ": 5478,
      "ቦት": 5479,
      "ያያ": 5480,
      "ጽሕ": 5481,
      "fafa": 5482,
      "síwájú": 5483,
      "sakamakon": 5484,
      "nazarin": 5485,
      "media": 5486,
      "misi": 5487,
      "tradition": 5488,
      "z,": 5489,
      "ተቃ": 5490,
      "ጠብ": 5491,
      "takwa": 5492,
      "2091": 5493,
      "chungu": 5494,
      "irú": 5495,
      "bọ́ọ̀lù": 5496,
      "dik": 5497,
      "micro": 5498,
      "buil": 5499,
      "2015.": 5500,
      "(ya": 5501,
      "300": 5502,
      "sili": 5503,
      "hìn": 5504,
      "ufalme": 5505,
      "écri": 5506,
      "ƙir": 5507,
      "ኪያ": 5508,
      "ካን": 5509,
      "ዛዝ": 5510,
      "ደጃ": 5511,
      "daida": 5512,
      "oruko": 5513,
      "kijerumani": 5514,
      "yota": 5515,
      "ምንት": 5516,
      "ulio": 5517,
      "፲፱፻፷": 5518,
      "ሥራቅ": 5519,
      "àìsàn": 5520,
      "années": 5521,
      "anth": 5522,
      "depuis": 5523,
      "%)": 5524,
      "zen": 5525,
      "ures": 5526,
      "mua": 5527,
      "ped": 5528,
      "festival": 5529,
      "ido": 5530,
      "ois": 5531,
      "ል፡፡": 5532,
      "በጎርጎርያን": 5533,
      "ዝርያ": 5534,
      "የለ": 5535,
      "የኮ": 5536,
      "fita": 5537,
      "pau": 5538,
      "ጊዜም": 5539,
      "ስለሚ": 5540,
      "ደረሰ": 5541,
      "niger": 5542,
      "ደራሲ": 5543,
      "mataimakin": 5544,
      "sof": 5545,
      "odo": 5546,
      "àjẹ": 5547,
      "ሏል።": 5548,
      "የሆነው": 5549,
      "ድሮ": 5550,
      "ጠላ": 5551,
      "‎‎": 5552,
      "ẹ̀rọ": 5553,
      "th,": 5554,
      "being": 5555,
      "ትርጉም": 5556,
      "ológun": 5557,
      "kẹ́kọ̀ọ́": 5558,
      "shirikis": 5559,
      "round)": 5560,
      "(in": 5561,
      "ix": 5562,
      "von": 5563,
      "plusie": 5564,
      "fari": 5565,
      "»,": 5566,
      "tifi": 5567,
      "quel": 5568,
      "የለው": 5569,
      "ṣá": 5570,
      "shugabar": 5571,
      "ድረስ)": 5572,
      "የሚያስ": 5573,
      "ተከታ": 5574,
      "première": 5575,
      "ማስታወሻዎች": 5576,
      "ገንዘብ": 5577,
      "uses": 5578,
      "ment,": 5579,
      "rap": 5580,
      "mbra": 5581,
      "kk": 5582,
      "àjà": 5583,
      "ጋሪ": 5584,
      "tege": 5585,
      "moun": 5586,
      "guusu": 5587,
      "wasanni": 5588,
      "tiki": 5589,
      "li,": 5590,
      "plusieurs": 5591,
      "cup": 5592,
      "rar": 5593,
      "tè": 5594,
      "ìwò": 5595,
      "ነቱን": 5596,
      "ገሩ": 5597,
      "same": 5598,
      "key": 5599,
      "shi,": 5600,
      "tarayya": 5601,
      "መጻሕ": 5602,
      "ያንዳንዱ": 5603,
      "howe": 5604,
      "through": 5605,
      "pakistan": 5606,
      "ji.": 5607,
      "kan,": 5608,
      "vide": 5609,
      "gwar": 5610,
      "ሙን": 5611,
      "ሱን": 5612,
      "ቤቱ": 5613,
      "ዋጋ": 5614,
      "ገት": 5615,
      "ጥቅ": 5616,
      "president": 5617,
      "ace": 5618,
      "liter": 5619,
      "self": 5620,
      "bou": 5621,
      "we,": 5622,
      "hand": 5623,
      "home": 5624,
      "ለ።": 5625,
      "ስ፣": 5626,
      "በራ": 5627,
      "ጠሩ": 5628,
      "bien": 5629,
      "irun": 5630,
      "duniani": 5631,
      "yunifásítì": 5632,
      "-à": 5633,
      "maha": 5634,
      "chen": 5635,
      "ty,": 5636,
      "généra": 5637,
      "ose": 5638,
      "ናይት": 5639,
      "ክሲ": 5640,
      "tokana": 5641,
      "bul": 5642,
      "oríṣi": 5643,
      "appli": 5644,
      "action": 5645,
      "tsohu": 5646,
      "eth": 5647,
      "zara": 5648,
      "sty": 5649,
      "histoire": 5650,
      "1975": 5651,
      "taniya": 5652,
      "yakin": 5653,
      "gomina": 5654,
      "ambapo": 5655,
      "albu": 5656,
      "kanda": 5657,
      "itan": 5658,
      "waju": 5659,
      "point": 5660,
      "gombe": 5661,
      "2014.": 5662,
      "ውል": 5663,
      "ዲዮ": 5664,
      "kashe": 5665,
      "tàgé": 5666,
      "አውሮፓ": 5667,
      "56": 5668,
      "roni": 5669,
      "nam": 5670,
      "tu,": 5671,
      "shan": 5672,
      "differ": 5673,
      "».": 5674,
      "ለጠ": 5675,
      "ነፍ": 5676,
      "onyes": 5677,
      "mu,": 5678,
      "ƙasashen": 5679,
      "richard": 5680,
      "congres": 5681,
      "1989": 5682,
      "free": 5683,
      "including": 5684,
      "oyo": 5685,
      "exemp": 5686,
      "abdulla": 5687,
      "(tí": 5688,
      "ቀይ": 5689,
      "beau": 5690,
      "yanki": 5691,
      "የሚታወ": 5692,
      "mont": 5693,
      "ወይንም": 5694,
      "olùdarí": 5695,
      "qu'il": 5696,
      "ዕለተ": 5697,
      "(ከ1892": 5698,
      "maz": 5699,
      "mako": 5700,
      "(1": 5701,
      "sla": 5702,
      "èrè": 5703,
      "ዘው": 5704,
      "influ": 5705,
      "leon": 5706,
      "améri": 5707,
      "god": 5708,
      "version": 5709,
      "tuntun": 5710,
      "shafi": 5711,
      "elles": 5712,
      "larab": 5713,
      "ማጣቀሻ": 5714,
      "gini": 5715,
      "iki": 5716,
      "finan": 5717,
      "oye": 5718,
      "wase": 5719,
      "head": 5720,
      "prote": 5721,
      "jẹ̀": 5722,
      "mvu": 5723,
      "ልጁ": 5724,
      "ማሽ": 5725,
      "፡በ": 5726,
      "anal": 5727,
      "habari": 5728,
      "compu": 5729,
      "disamba": 5730,
      "elezo": 5731,
      "ሌክትሪክ": 5732,
      "'ar": 5733,
      "egy": 5734,
      "gia": 5735,
      "dera": 5736,
      "(d.": 5737,
      "swe": 5738,
      "unti": 5739,
      "agri": 5740,
      "ሜዳ": 5741,
      "አሉ።": 5742,
      "watsa": 5743,
      "የአፍ": 5744,
      "found": 5745,
      "crip": 5746,
      "dúró": 5747,
      "ṣíṣe": 5748,
      "ፈርዖን": 5749,
      "sakandare": 5750,
      "àjẹsára": 5751,
      "shirikisho": 5752,
      "ring": 5753,
      "lic": 5754,
      "accor": 5755,
      "àá": 5756,
      "ìtu": 5757,
      "ሊን": 5758,
      "ሥፍራ": 5759,
      "በስተ": 5760,
      "ቴሌ": 5761,
      "sudan": 5762,
      "የተፈ": 5763,
      "pindu": 5764,
      "በማለት": 5765,
      "ራሱን": 5766,
      "shirika": 5767,
      "kubali": 5768,
      "sayensi": 5769,
      "set": 5770,
      "colu": 5771,
      "maris": 5772,
      "langue": 5773,
      "::": 5774,
      "republic": 5775,
      "1982": 5776,
      "tanzania.": 5777,
      "gwi": 5778,
      "làn": 5779,
      "መላ": 5780,
      "kabisa": 5781,
      "jiogra": 5782,
      "</": 5783,
      "lling": 5784,
      "type": 5785,
      "akwa": 5786,
      "sc": 5787,
      "kaka": 5788,
      "ke,": 5789,
      "color": 5790,
      "mande": 5791,
      "ውሀ": 5792,
      "alum": 5793,
      "before": 5794,
      "progres": 5795,
      "languag": 5796,
      "መሰረት": 5797,
      "ti.": 5798,
      "2013,": 5799,
      "old": 5800,
      "diffé": 5801,
      "jwa": 5802,
      "anda": 5803,
      "tọ": 5804,
      "òwò": 5805,
      "ሆይ": 5806,
      "ድና": 5807,
      "makuu": 5808,
      "lime": 5809,
      "rasu": 5810,
      "2010,": 5811,
      "አገሮች": 5812,
      "púpọ̀": 5813,
      "actor": 5814,
      "kes": 5815,
      "1966": 5816,
      ");": 5817,
      "46": 5818,
      "49": 5819,
      "1976": 5820,
      "western": 5821,
      "ሜት": 5822,
      "ከም": 5823,
      "177": 5824,
      "misri": 5825,
      "ክፍሎች": 5826,
      "በርካታ": 5827,
      "tsohuwar": 5828,
      "conne": 5829,
      "pop": 5830,
      "democratic": 5831,
      "ዶሮ": 5832,
      "ፈራ": 5833,
      "ẹrẹ": 5834,
      "in.": 5835,
      "fabra": 5836,
      "wenyewe": 5837,
      "ትንሽ": 5838,
      "wakifuata": 5839,
      "rd2-": 5840,
      "መልክዓ": 5841,
      "bauchi": 5842,
      "teau": 5843,
      "jeni": 5844,
      "kore": 5845,
      "ቴክ": 5846,
      "ጸሐ": 5847,
      "fada": 5848,
      "shehu": 5849,
      "huadhimisha": 5850,
      "nahiyar": 5851,
      "ash": 5852,
      "ksi": 5853,
      "n'": 5854,
      "obi": 5855,
      "on.": 5856,
      "kìí": 5857,
      "ለቀ": 5858,
      "አራት": 5859,
      "ጉል": 5860,
      "arts": 5861,
      "ency": 5862,
      "hamia": 5863,
      "inganta": 5864,
      "babisha": 5865,
      "zinabaki": 5866,
      "mirefu).": 5867,
      "administra": 5868,
      "57": 5869,
      "taji": 5870,
      "mu.": 5871,
      "wikipe": 5872,
      "madu": 5873,
      "1918": 5874,
      "1992": 5875,
      "kani": 5876,
      "yof": 5877,
      "ቡር": 5878,
      "ካባቢ": 5879,
      "ኮት": 5880,
      "ወራ": 5881,
      "tains": 5882,
      "sation": 5883,
      "lọ́gbọ̀n": 5884,
      "ደረገው": 5885,
      "halafu": 5886,
      "gri": 5887,
      "walla": 5888,
      "ጥብ": 5889,
      "civil": 5890,
      "karshe": 5891,
      "harsunan": 5892,
      "ባቢሎን": 5893,
      "ጉዳይ": 5894,
      "mbunge": 5895,
      "now": 5896,
      "ly,": 5897,
      "soma": 5898,
      "ye,": 5899,
      "jọ̀": 5900,
      "nya": 5901,
      "ለሚ": 5902,
      "ታችን": 5903,
      "አጋ": 5904,
      "ክብር": 5905,
      "dec": 5906,
      "cewar": 5907,
      "cours": 5908,
      "notam": 5909,
      "shekarun": 5910,
      "1988": 5911,
      "ìdílé": 5912,
      "(«": 5913,
      "contra": 5914,
      "indepen": 5915,
      "1=": 5916,
      "67": 5917,
      "amani": 5918,
      "1950": 5919,
      "modern": 5920,
      "ibo": 5921,
      "ሞን": 5922,
      "ዕድ": 5923,
      "ፍን": 5924,
      "indus": 5925,
      "saman": 5926,
      "wanao": 5927,
      "ግንኙ": 5928,
      "nàìjíríà,": 5929,
      "sayari": 5930,
      "mac": 5931,
      "francis": 5932,
      "ism": 5933,
      "simp": 5934,
      "202": 5935,
      "ed.": 5936,
      "ice": 5937,
      "ቅርስ": 5938,
      "ት።": 5939,
      "dab": 5940,
      "kitu": 5941,
      "harar": 5942,
      "mẹ́ta": 5943,
      "ሁለቱ": 5944,
      "ትምህር": 5945,
      "ተራራ": 5946,
      "አቀፍ": 5947,
      "(he": 5948,
      "pou": 5949,
      "berg": 5950,
      "hé": 5951,
      "federal": 5952,
      "ɗi": 5953,
      "ɗari": 5954,
      "መደ": 5955,
      "ቁጥ": 5956,
      "ተት": 5957,
      "waislamu": 5958,
      "odò": 5959,
      "ውንት": 5960,
      "ሳይንስ": 5961,
      "wòrán": 5962,
      "falsafa": 5963,
      "kúrò": 5964,
      "ìgbìmọ̀": 5965,
      "ምልክት": 5966,
      "jiografia": 5967,
      "tto": 5968,
      "come": 5969,
      "india": 5970,
      "1967": 5971,
      "notamment": 5972,
      "kw": 5973,
      "ƙo": 5974,
      "ኑን": 5975,
      "የሌ": 5976,
      "ግባር": 5977,
      "nifi": 5978,
      "diyo": 5979,
      "fazi": 5980,
      "tengene": 5981,
      "yake.": 5982,
      "fuatwa": 5983,
      "nd": 5984,
      "base": 5985,
      "jiha": 5986,
      "futa": 5987,
      "johan": 5988,
      "htm": 5989,
      "hudi": 5990,
      "ology": 5991,
      "present": 5992,
      "against": 5993,
      "ለተ": 5994,
      "engine": 5995,
      "kifaransa": 5996,
      "alpha": 5997,
      "tel": 5998,
      "cell": 5999,
      "exam": 6000,
      "production": 6001,
      "oke": 6002,
      "2011.": 6003,
      "1984": 6004,
      "ungan": 6005,
      "rike": 6006,
      "ሚሊዮን": 6007,
      "ሲቲ": 6008,
      "ወጡ": 6009,
      "hivi": 6010,
      "juma": 6011,
      "ruwan": 6012,
      "akọrin": 6013,
      "volution": 6014,
      "dwa": 6015,
      "dare": 6016,
      "re.": 6017,
      "both": 6018,
      "org/": 6019,
      "huru": 6020,
      "mc": 6021,
      "በዚሁ": 6022,
      "anzi": 6023,
      "badili": 6024,
      "haka,": 6025,
      "mi.": 6026,
      "ing.": 6027,
      "do,": 6028,
      "1979": 6029,
      "ናት።": 6030,
      "እንስሳ": 6031,
      "(i": 6032,
      "pur": 6033,
      "area": 6034,
      "america": 6035,
      "présent": 6036,
      "wako": 6037,
      "bali": 6038,
      "1983": 6039,
      "98": 6040,
      "heshi": 6041,
      "ቃላት": 6042,
      "አቡ": 6043,
      "lais": 6044,
      "matasa": 6045,
      "duniya,": 6046,
      "oluilu": 6047,
      "ድንጋይ": 6048,
      "tẹli": 6049,
      "jam'iyyar": 6050,
      "2=": 6051,
      "abdul": 6052,
      "jal": 6053,
      "lika": 6054,
      "devi": 6055,
      "nira": 6056,
      "1986": 6057,
      "however,": 6058,
      "òrì": 6059,
      "ቂት": 6060,
      "ኘት": 6061,
      "ጥና": 6062,
      "ጨዋ": 6063,
      "sashen": 6064,
      "ci.": 6065,
      "sea": 6066,
      "vement": 6067,
      "የተባለ": 6068,
      "janar": 6069,
      "ከነዓን": 6070,
      "vel": 6071,
      "cape": 6072,
      "appro": 6073,
      "1974": 6074,
      "oòrùn": 6075,
      "wis": 6076,
      "ሎጂ": 6077,
      "መጫ": 6078,
      "ርን": 6079,
      "ቀስ": 6080,
      "ኮኖ": 6081,
      "ይላል።": 6082,
      "makubwa": 6083,
      "program": 6084,
      "hannun": 6085,
      "የሚገኙ": 6086,
      "ọ̀nù": 6087,
      "jagoran": 6088,
      "96": 6089,
      "fitar": 6090,
      "hizo": 6091,
      "ration": 6092,
      "ney": 6093,
      "sum": 6094,
      "kansa": 6095,
      "possi": 6096,
      "system": 6097,
      "igbo": 6098,
      "yọ́": 6099,
      "ራም": 6100,
      "ሺህ": 6101,
      "ክሮ": 6102,
      "ዩናይት": 6103,
      "ጸባይ": 6104,
      "na,": 6105,
      "dian": 6106,
      "usman": 6107,
      "human": 6108,
      "pataki": 6109,
      "safi": 6110,
      "syst": 6111,
      "avi": 6112,
      "lations": 6113,
      "1977": 6114,
      "አሰ": 6115,
      "ዩስ": 6116,
      "maya": 6117,
      "sheria": 6118,
      "marekani.": 6119,
      "ንግድ": 6120,
      "msingi": 6121,
      "akiwa": 6122,
      "covid-19": 6123,
      "ጊዮርጊስ": 6124,
      "(,": 6125,
      "frank": 6126,
      "kaa": 6127,
      "mathe": 6128,
      "ouest": 6129,
      "pín": 6130,
      "uf": 6131,
      "ምኒ": 6132,
      "ጭር": 6133,
      "er.": 6134,
      "kogin": 6135,
      "parí": 6136,
      "yanayi": 6137,
      "wàá": 6138,
      "mshairi": 6139,
      "sée": 6140,
      "ብርሃን": 6141,
      "ando": 6142,
      "austria": 6143,
      "x,": 6144,
      "code": 6145,
      "ston": 6146,
      "km2": 6147,
      "ethiopi": 6148,
      "kuliko": 6149,
      "'ya": 6150,
      "bọ": 6151,
      "dẹ́": 6152,
      "በሬ": 6153,
      "ald": 6154,
      "fiimu": 6155,
      "pakana": 6156,
      "sui": 6157,
      "jenga": 6158,
      "የቀድሞ": 6159,
      "ዩናይትድ": 6160,
      "data": 6161,
      "noma": 6162,
      "henry": 6163,
      "washing": 6164,
      "rasha": 6165,
      "cations": 6166,
      "2006.": 6167,
      "dence": 6168,
      "certain": 6169,
      "christian": 6170,
      "ሊቃ": 6171,
      "ሲቀ": 6172,
      "ቤቶች": 6173,
      "ታሪ": 6174,
      "አዋ": 6175,
      "ዘፋ": 6176,
      "የለም": 6177,
      "ገረ": 6178,
      "ma’": 6179,
      "sahara": 6180,
      "mir": 6181,
      "የአየር": 6182,
      "addini": 6183,
      "በመጨረሻ": 6184,
      "ገብረ": 6185,
      "tumiwa": 6186,
      "(18": 6187,
      "sol": 6188,
      "tes,": 6189,
      "1945": 6190,
      "bì": 6191,
      "gn": 6192,
      "1920": 6193,
      "seed": 6194,
      "ሲሆኑ": 6195,
      "ሳተ": 6196,
      "ኞቹ": 6197,
      "የኖ": 6198,
      "ጅም": 6199,
      "ፊዎች": 6200,
      "wahi": 6201,
      "ẹ̀ka": 6202,
      "ariwa": 6203,
      "soja": 6204,
      "gudu": 6205,
      "chukua": 6206,
      "kejìlá": 6207,
      "ጠቅላይ": 6208,
      "tumika": 6209,
      "education": 6210,
      "gargajiya": 6211,
      "àríwá": 6212,
      "pren": 6213,
      "1978": 6214,
      "syn": 6215,
      "présen": 6216,
      "grande": 6217,
      "cli": 6218,
      "kusu": 6219,
      "2007.": 6220,
      "ative": 6221,
      "million": 6222,
      "nkan": 6223,
      "መታ": 6224,
      "ሰነ": 6225,
      "ባታ": 6226,
      "ከስ": 6227,
      "ወድ": 6228,
      "wame": 6229,
      "taur": 6230,
      "hayo": 6231,
      "kiongozi": 6232,
      "ni:": 6233,
      "dokar": 6234,
      "commer": 6235,
      "1971": 6236,
      "dínlógún": 6237,
      "ifẹ̀": 6238,
      "kimiyya": 6239,
      "kalmar": 6240,
      "መሆኑን": 6241,
      "ክርስትና": 6242,
      "፲፰፻": 6243,
      "sene": 6244,
      "letter": 6245,
      "catho": 6246,
      "acti": 6247,
      "(2005)": 6248,
      "maar": 6249,
      "auto": 6250,
      "establi": 6251,
      "ብሔር": 6252,
      "ከረም": 6253,
      "ዕው": 6254,
      "ጻፈ": 6255,
      "tas": 6256,
      "muun": 6257,
      "sanar": 6258,
      "haifar": 6259,
      "1973": 6260,
      "ነበረው": 6261,
      "ብሪታ": 6262,
      "adi": 6263,
      "muni": 6264,
      "wing": 6265,
      "makon": 6266,
      "cole": 6267,
      "father": 6268,
      "actres": 6269,
      "change": 6270,
      "gs": 6271,
      "ስሞች": 6272,
      "ኢየሱስ": 6273,
      "ግም": 6274,
      "last": 6275,
      "bado": 6276,
      "tude": 6277,
      "since": 6278,
      "spishi": 6279,
      "44": 6280,
      "bwe": 6281,
      "term": 6282,
      "ine.": 6283,
      "social": 6284,
      "school,": 6285,
      "ሎቹ": 6286,
      "፪፻": 6287,
      "kam": 6288,
      "moham": 6289,
      "jack": 6290,
      "sant": 6291,
      "initi": 6292,
      "ríṣi": 6293,
      "iyaka": 6294,
      "ታላቁ": 6295,
      "cikak": 6296,
      "òn": 6297,
      "arzi": 6298,
      "kuku": 6299,
      "selon": 6300,
      "ሊቀ": 6301,
      "ነግ": 6302,
      "ከና": 6303,
      "ጋን": 6304,
      "kutumia": 6305,
      "kiasi": 6306,
      "ጊዜው": 6307,
      "nufin": 6308,
      "ambazo": 6309,
      "trois": 6310,
      "gree": 6311,
      "díẹ̀": 6312,
      "shiryen": 6313,
      "ያለውን": 6314,
      "institute": 6315,
      "gana": 6316,
      "albert": 6317,
      "jade": 6318,
      "num": 6319,
      "contro": 6320,
      "ikan": 6321,
      "ikú": 6322,
      "uwar": 6323,
      "èrò": 6324,
      "መጡ": 6325,
      "uniyar": 6326,
      "cated": 6327,
      "former": 6328,
      "mengi": 6329,
      "ባህል": 6330,
      "ìgbésí": 6331,
      "mfumo": 6332,
      "ስቃሴ": 6333,
      "95": 6334,
      "sán": 6335,
      "dida": 6336,
      "them": 6337,
      "zao": 6338,
      "land.": 6339,
      "burg": 6340,
      "awa": 6341,
      "ìwọ̀": 6342,
      "ሪስ": 6343,
      "በሳ": 6344,
      "በኮ": 6345,
      "አሉት": 6346,
      "ይቆ": 6347,
      "ፋርስ": 6348,
      "anisha": 6349,
      "tage": 6350,
      "fihàn": 6351,
      "champi": 6352,
      "tsakiyar": 6353,
      "shawara": 6354,
      "watumwa": 6355,
      "òṣèrébìnrin": 6356,
      "ቢሆንም": 6357,
      "gni": 6358,
      "espa": 6359,
      "sian": 6360,
      "zimba": 6361,
      "gold": 6362,
      "huwa": 6363,
      "ck,": 6364,
      "signifi": 6365,
      "ማግ": 6366,
      "ከረ": 6367,
      "ዓላማ": 6368,
      "rage": 6369,
      "gol": 6370,
      "lled": 6371,
      "አምባ": 6372,
      "amẹ́ríkà.": 6373,
      "ይሆናል።": 6374,
      "ndege": 6375,
      "tabbatar": 6376,
      "iro": 6377,
      "ming": 6378,
      "ye.": 6379,
      "gbi": 6380,
      "astron": 6381,
      "2017.": 6382,
      "1985": 6383,
      "linguis": 6384,
      "መጋ": 6385,
      "kadiri": 6386,
      "ga.": 6387,
      "alhaji": 6388,
      "ዩኒቨር": 6389,
      "እንቅስቃሴ": 6390,
      "even": 6391,
      "osun": 6392,
      "simi": 6393,
      "sma": 6394,
      "zani": 6395,
      "ምፒ": 6396,
      "ቅል": 6397,
      "ቅን": 6398,
      "ተጽ": 6399,
      "ታም": 6400,
      "ጀት": 6401,
      "እንዴት": 6402,
      "kyauta": 6403,
      "dukkan": 6404,
      "ክለብ": 6405,
      "ይቀራሉ።": 6406,
      "milki": 6407,
      "አገልግሎት": 6408,
      "water": 6409,
      "kwe": 6410,
      "gua": 6411,
      "tsun": 6412,
      "(p": 6413,
      "በኤ": 6414,
      "ፉት": 6415,
      "ẹran": 6416,
      "miche": 6417,
      "ofis": 6418,
      "enter": 6419,
      "በአን": 6420,
      "ንግል": 6421,
      "musulmai": 6422,
      "ምርጫ": 6423,
      "bincike": 6424,
      "ይመስላል።": 6425,
      "nuwamba": 6426,
      "ዕብራይስጥ": 6427,
      "maarufu": 6428,
      "top": 6429,
      "pendant": 6430,
      "football": 6431,
      "basi": 6432,
      "ra,": 6433,
      "ography": 6434,
      "ሠራዊት": 6435,
      "ሪፐ": 6436,
      "ሰባ": 6437,
      "አክ": 6438,
      "ከሆነ": 6439,
      "ጥም": 6440,
      "halin": 6441,
      "1914": 6442,
      "yanar": 6443,
      "yarje": 6444,
      "joto": 6445,
      "shaharar": 6446,
      "majimbo": 6447,
      "ከነዚህ": 6448,
      "nasarar": 6449,
      "larabci": 6450,
      "kau": 6451,
      "koko": 6452,
      "gie": 6453,
      "2018.": 6454,
      "prési": 6455,
      "(16": 6456,
      "በብዙ": 6457,
      "ወገ": 6458,
      "ጋት": 6459,
      "dawa": 6460,
      "chanzo": 6461,
      "kawai": 6462,
      "አለው።": 6463,
      "nas": 6464,
      "2006,": 6465,
      "1969": 6466,
      "brother": 6467,
      "cn": 6468,
      "based": 6469,
      "1930": 6470,
      "care": 6471,
      "yì": 6472,
      "ńlá": 6473,
      "የኡ": 6474,
      "tashar": 6475,
      "fadin": 6476,
      "ቤተክርስቲያን": 6477,
      "ukoloni": 6478,
      "asilimia": 6479,
      "australi": 6480,
      "company": 6481,
      "መጻሕፍት": 6482,
      "hapa": 6483,
      "dia.": 6484,
      "picha": 6485,
      "less": 6486,
      "ud": 6487,
      "mous": 6488,
      "ctori": 6489,
      "42": 6490,
      "ingawa": 6491,
      "baadhi": 6492,
      "miwa": 6493,
      "pay": 6494,
      "ọ̀yọ́": 6495,
      "quar": 6496,
      "joko": 6497,
      "የተባ": 6498,
      "shule": 6499,
      "ports": 6500,
      "እውነት": 6501,
      "califor": 6502,
      "gè": 6503,
      "bib": 6504,
      "1981": 6505,
      "1965": 6506,
      "counci": 6507,
      "be,": 6508,
      "els": 6509,
      "85": 6510,
      "àpapọ̀": 6511,
      "òbí": 6512,
      "ማኅ": 6513,
      "ቀሳ": 6514,
      "mayar": 6515,
      "dam": 6516,
      "yanke": 6517,
      "ìjà": 6518,
      "በመሆን": 6519,
      "wanasayansi": 6520,
      "ምንጊዜም": 6521,
      "kẹfà": 6522,
      "መልኩ": 6523,
      "ìṣẹ́": 6524,
      "ተመሳ": 6525,
      "bangaren": 6526,
      "mapa": 6527,
      "domini": 6528,
      "distri": 6529,
      "yaki": 6530,
      "taf": 6531,
      "kudi": 6532,
      "centre": 6533,
      "australia": 6534,
      "ìlà": 6535,
      "ሙያ": 6536,
      "በሱ": 6537,
      "ተክል": 6538,
      "ጣን": 6539,
      "make": 6540,
      "cia": 6541,
      "peti": 6542,
      "et,": 6543,
      "té,": 6544,
      "1952": 6545,
      "adarí": 6546,
      "eti": 6547,
      "sab": 6548,
      "usha": 6549,
      "ch,": 6550,
      "hydro": 6551,
      "llen": 6552,
      "geni": 6553,
      "féren": 6554,
      "fofin": 6555,
      "ር፣": 6556,
      "kipindi": 6557,
      "ẹ̀sìn": 6558,
      "zaune": 6559,
      "bíbí": 6560,
      "kundin": 6561,
      "መንግሥታት": 6562,
      "ዘመኑ": 6563,
      "olóò": 6564,
      "williams": 6565,
      "moins": 6566,
      "atre": 6567,
      "1972": 6568,
      "director": 6569,
      "tzer": 6570,
      "yasa": 6571,
      "gou": 6572,
      "chief": 6573,
      "álí": 6574,
      "ሞክራ": 6575,
      "ቂያ": 6576,
      "በ16": 6577,
      "ዝን": 6578,
      "ẹbí": 6579,
      "anambra": 6580,
      "የአር": 6581,
      "puli": 6582,
      "10.": 6583,
      "ልማት": 6584,
      "bandari": 6585,
      "ተመሳሳይ": 6586,
      "iri": 6587,
      "effe": 6588,
      "fm": 6589,
      "contre": 6590,
      "ƴar": 6591,
      "ይሁን": 6592,
      "ግሪ": 6593,
      "ፍር": 6594,
      "ፎር": 6595,
      "tsara": 6596,
      "1962": 6597,
      "founda": 6598,
      "kóso": 6599,
      "ኛውም": 6600,
      "née": 6601,
      "biyu,": 6602,
      "በተለይም": 6603,
      "ይቻላል።": 6604,
      "pana": 6605,
      "unes": 6606,
      "me.": 6607,
      "co.": 6608,
      "gui": 6609,
      "petro": 6610,
      "dò": 6611,
      "ike": 6612,
      "liber": 6613,
      "66": 6614,
      "aso": 6615,
      "tina": 6616,
      "ሀብ": 6617,
      "ሉን": 6618,
      "ሩም": 6619,
      "ሰም": 6620,
      "ሳር": 6621,
      "ተካ": 6622,
      "የራ": 6623,
      "የጀርመን": 6624,
      "ዳም": 6625,
      "kakar": 6626,
      "hadin": 6627,
      "hewa": 6628,
      "guerre": 6629,
      "jumo": 6630,
      "provin": 6631,
      "shinda": 6632,
      "አመታት": 6633,
      "2019.": 6634,
      "siyasan": 6635,
      "ጥቅምት": 6636,
      "classi": 6637,
      "wùjọ": 6638,
      "iku": 6639,
      "html": 6640,
      "ents": 6641,
      "sanda": 6642,
      "analy": 6643,
      "khali": 6644,
      "ster": 6645,
      "ula": 6646,
      "በካ": 6647,
      "ተጫ": 6648,
      "ከባ": 6649,
      "የዚህ": 6650,
      "ፖርት": 6651,
      "kuzaliwa": 6652,
      "gizo": 6653,
      "urusi": 6654,
      "janairu": 6655,
      "d)": 6656,
      "kasi": 6657,
      "suite": 6658,
      "ghts": 6659,
      "2020,": 6660,
      "aci": 6661,
      "afi": 6662,
      "ሶስት": 6663,
      "የል": 6664,
      "ደገ": 6665,
      "ፊያ": 6666,
      "ọkọ̀": 6667,
      "ọpọ": 6668,
      "injini": 6669,
      "kibantu": 6670,
      "suf": 6671,
      "የአውሮፓ": 6672,
      "adun": 6673,
      "ìjẹ̀": 6674,
      "cross": 6675,
      "lililo": 6676,
      "hausawa": 6677,
      "ሕዝቡ": 6678,
      "continu": 6679,
      "shirye-shiryen": 6680,
      "kro": 6681,
      "rail": 6682,
      "se.": 6683,
      "edward": 6684,
      "kingdom": 6685,
      "languages": 6686,
      "192": 6687,
      "1929": 6688,
      "go.": 6689,
      "(15": 6690,
      "መሣ": 6691,
      "ሪቃ": 6692,
      "ቆይ": 6693,
      "ቸዋል።": 6694,
      "አጠ": 6695,
      "እኩል": 6696,
      "nairo": 6697,
      "mwanzo": 6698,
      "wọ̀nyí": 6699,
      "ሚካኤል": 6700,
      "slo": 6701,
      "allo": 6702,
      "trodu": 6703,
      "philip": 6704,
      "wol": 6705,
      "semi": 6706,
      "tance": 6707,
      "pí": 6708,
      "በሩ": 6709,
      "riga": 6710,
      "sey": 6711,
      "እስካ": 6712,
      "kàwé": 6713,
      "እንግዲህ": 6714,
      "mìnira": 6715,
      "binciken": 6716,
      "stre": 6717,
      "television": 6718,
      "kui": 6719,
      "mit": 6720,
      "jiki": 6721,
      "near": 6722,
      "poin": 6723,
      "1964": 6724,
      "ìṣe": 6725,
      "በደ": 6726,
      "ቷን": 6727,
      "ቸዉ": 6728,
      "ነፃ": 6729,
      "ኤን": 6730,
      "ẹgbẹ": 6731,
      "enta": 6732,
      "hukun": 6733,
      "ደርግ": 6734,
      "pasẹ": 6735,
      "vitabu": 6736,
      "የሚገኝበት": 6737,
      "kilatini": 6738,
      "period": 6739,
      "onyesha": 6740,
      "ዩኒቨርሲቲ": 6741,
      "1917": 6742,
      "bibli": 6743,
      "society": 6744,
      "third": 6745,
      "short": 6746,
      "88": 6747,
      "amo": 6748,
      "dad": 6749,
      "tay": 6750,
      "10,": 6751,
      "----": 6752,
      "demokra": 6753,
      "ህግ": 6754,
      "ርሱ": 6755,
      "ሸን": 6756,
      "ነሣ": 6757,
      "ወስ": 6758,
      "ዳሪ": 6759,
      "nibi": 6760,
      "gau": 6761,
      "ko.": 6762,
      "jumu": 6763,
      "mpuni": 6764,
      "(13": 6765,
      "2009,": 6766,
      "internet": 6767,
      "country": 6768,
      "ታር": 6769,
      "ዓፄ": 6770,
      "ዞች": 6771,
      "nitori": 6772,
      "chor": 6773,
      "ነገሥት": 6774,
      "አለ።": 6775,
      "ዘንድ፣": 6776,
      "ፈላጊ": 6777,
      "ዓይነት": 6778,
      "ፍልስፍና": 6779,
      "ጽሕፈት": 6780,
      "wasemaji": 6781,
      "aya": 6782,
      "vant": 6783,
      "armen": 6784,
      "(193": 6785,
      "ques,": 6786,
      "les.": 6787,
      "broad": 6788,
      "busines": 6789,
      "kisha": 6790,
      "zz": 6791,
      "àkọ": 6792,
      "àlà": 6793,
      "ájú": 6794,
      "በዛ": 6795,
      "ቦር": 6796,
      "የፈ": 6797,
      "ያስተ": 6798,
      "wale": 6799,
      "liste": 6800,
      "baha": 6801,
      "elimu": 6802,
      "avant": 6803,
      "masalla": 6804,
      "following": 6805,
      "tegemea": 6806,
      "ግንኙነት": 6807,
      "zimbabwe": 6808,
      "1959": 6809,
      "indon": 6810,
      "oru": 6811,
      "information": 6812,
      "until": 6813,
      "77": 6814,
      "nne": 6815,
      "ረቱ": 6816,
      "ተመል": 6817,
      "አዘ": 6818,
      "hed": 6819,
      "nipasẹ": 6820,
      "moto": 6821,
      "afrilu": 6822,
      "በመባል": 6823,
      "alamu": 6824,
      "wenyeji": 6825,
      "መለስ": 6826,
      "johnson": 6827,
      "daukar": 6828,
      "ተከታይ": 6829,
      "kilimo": 6830,
      "ስብስብ": 6831,
      "gwe": 6832,
      "date": 6833,
      "apple": 6834,
      "adu": 6835,
      "tti": 6836,
      "will": 6837,
      "congress": 6838,
      "(17": 6839,
      "each": 6840,
      "ìwá": 6841,
      "ሚና": 6842,
      "ምነት": 6843,
      "ሳል።": 6844,
      "ስትር": 6845,
      "ኗሪ": 6846,
      "ኪሎ": 6847,
      "የዓመቱ": 6848,
      "ደሴት": 6849,
      "ድንግል": 6850,
      "wapo": 6851,
      "1925": 6852,
      "autre": 6853,
      "yi.": 6854,
      "የሚሰራ": 6855,
      "lée": 6856,
      "olojia": 6857,
      "biblia": 6858,
      "sema": 6859,
      "cate": 6860,
      "senti": 6861,
      "website": 6862,
      "aris": 6863,
      "wei": 6864,
      "league": 6865,
      "caract": 6866,
      "gì": 6867,
      "pun": 6868,
      "èè": 6869,
      "ለዚህ": 6870,
      "በሻ": 6871,
      "mapindu": 6872,
      "leta": 6873,
      "cigaba": 6874,
      "እንደተ": 6875,
      "lélógún": 6876,
      "ulikuwa": 6877,
      "ilé-ìwé": 6878,
      "italia.": 6879,
      "ጎንደር": 6880,
      "ክፍላገር": 6881,
      "የነበሩት": 6882,
      "mapinduzi": 6883,
      "argentina": 6884,
      "karun": 6885,
      "(2004)": 6886,
      "mohammed": 6887,
      "ƙwarar": 6888,
      "መጀመሪያ": 6889,
      "ቢይ": 6890,
      "እያንዳንዱ": 6891,
      "ያላቸው": 6892,
      "ግኝ": 6893,
      "sabu": 6894,
      "yankunan": 6895,
      "pierre": 6896,
      "mò:": 6897,
      "kikatoliki": 6898,
      "ስያሜ": 6899,
      "chunguza": 6900,
      "gara": 6901,
      "uwe": 6902,
      "w,": 6903,
      "ንጉሡ": 6904,
      "jon": 6905,
      "kwara": 6906,
      "coup": 6907,
      "notes": 6908,
      "ለስ": 6909,
      "ሸዋ": 6910,
      "የፊ": 6911,
      "የሙዚቃ": 6912,
      "ያዝ": 6913,
      "ጫወ": 6914,
      "ẹkọ": 6915,
      "moyen": 6916,
      "matakin": 6917,
      "አንደ": 6918,
      "íríkà": 6919,
      "bendera": 6920,
      "አውራ": 6921,
      "54": 6922,
      "hab": 6923,
      "limited": 6924,
      "edo": 6925,
      "lated": 6926,
      "sec": 6927,
      "groupe": 6928,
      "paulo": 6929,
      "achi": 6930,
      "መኖ": 6931,
      "ወዘ": 6932,
      "ዳል": 6933,
      "ጨምሮ": 6934,
      "um,": 6935,
      "expres": 6936,
      "ii,": 6937,
      "ለማስ": 6938,
      "kẹ́mí": 6939,
      "jamhuriyar": 6940,
      "አስተዳደግ": 6941,
      "kowane": 6942,
      "auri": 6943,
      "cover": 6944,
      "de-": 6945,
      "six": 6946,
      "section": 6947,
      "buka": 6948,
      "because": 6949,
      "leader": 6950,
      "59": 6951,
      "kán": 6952,
      "àyọ": 6953,
      "ተደር": 6954,
      "ትራ": 6955,
      "የህዝብ": 6956,
      "ጠት": 6957,
      "anchi": 6958,
      "introdu": 6959,
      "waingereza": 6960,
      "ortho": 6961,
      "sex": 6962,
      "karshen": 6963,
      "femi": 6964,
      "dangane": 6965,
      "álíà": 6966,
      "ket": 6967,
      "pada": 6968,
      "ja,": 6969,
      "1961": 6970,
      "tle": 6971,
      "libr": 6972,
      "lazi": 6973,
      "ria": 6974,
      "could": 6975,
      "force": 6976,
      "saint-": 6977,
      "agbara": 6978,
      "ኪንግ": 6979,
      "ነው፤": 6980,
      "gement": 6981,
      "turn": 6982,
      "በአዲስ": 6983,
      "indiya": 6984,
      "ግንቦት": 6985,
      "ìtì": 6986,
      "መስከረም": 6987,
      "ቅርብ": 6988,
      "around": 6989,
      "nais": 6990,
      "nami": 6991,
      "ni.": 6992,
      "temps": 6993,
      "og": 6994,
      "bii": 6995,
      "1963": 6996,
      "field": 6997,
      "nyota": 6998,
      "ሀይ": 6999,
      "ሚን": 7000,
      "kuja": 7001,
      "ray": 7002,
      "bi.": 7003,
      "kele": 7004,
      "fair": 7005,
      "due": 7006,
      "fupi": 7007,
      "ኢትዮጵያን": 7008,
      "actu": 7009,
      "military": 7010,
      "northern": 7011,
      "jaridar": 7012,
      "tangaza": 7013,
      "ሚኒስትር": 7014,
      "fr": 7015,
      "hr": 7016,
      "hip": 7017,
      "permet": 7018,
      "primary": 7019,
      "(e": 7020,
      "pose": 7021,
      "fut": 7022,
      "final": 7023,
      "fẹ̀": 7024,
      "ላላ": 7025,
      "ልፍ": 7026,
      "መብ": 7027,
      "ኪዳን": 7028,
      "ጊያ": 7029,
      "fiye": 7030,
      "kotun": 7031,
      "lou": 7032,
      "ọ̀gá": 7033,
      "እንድ": 7034,
      "ardhi": 7035,
      "sojojin": 7036,
      "tẹlifí": 7037,
      "àyọkà": 7038,
      "zza": 7039,
      "2007,": 7040,
      "bonde": 7041,
      "jusqu'": 7042,
      "dered": 7043,
      "diction": 7044,
      "diale": 7045,
      "thur": 7046,
      "feat": 7047,
      "(10": 7048,
      "ሆድ": 7049,
      "ቤን": 7050,
      "ተል": 7051,
      "ዙፋ": 7052,
      "kida": 7053,
      "raho": 7054,
      "pasifi": 7055,
      "logun": 7056,
      "ስተር": 7057,
      "አባላት": 7058,
      "kátó": 7059,
      "ወንጌ": 7060,
      "láàrin": 7061,
      "zungum": 7062,
      "ምኒልክ": 7063,
      "toa": 7064,
      "réali": 7065,
      "voire": 7066,
      "mche": 7067,
      "sina": 7068,
      "laire": 7069,
      "kufa": 7070,
      "dic": 7071,
      "b,": 7072,
      "llow": 7073,
      "በታል።": 7074,
      "ነኛ": 7075,
      "ኔት": 7076,
      "ካሬ": 7077,
      "ጳጳ": 7078,
      "‘yan": 7079,
      "madara": 7080,
      "battle": 7081,
      "alama": 7082,
      "ዘመቻ": 7083,
      "chake.": 7084,
      "ttun": 7085,
      "lizi": 7086,
      "semble": 7087,
      "major": 7088,
      "service": 7089,
      "jara": 7090,
      "rafa": 7091,
      "amini": 7092,
      "word": 7093,
      "langues": 7094,
      "ǹkan": 7095,
      "ማራ": 7096,
      "ረጃ": 7097,
      "ርዕ": 7098,
      "የወ": 7099,
      "ይሁ": 7100,
      "ይፈ": 7101,
      "lit": 7102,
      "kufanya": 7103,
      "thing": 7104,
      "post": 7105,
      "derni": 7106,
      "አንቀ": 7107,
      "llaye": 7108,
      "mbobin": 7109,
      "elekea": 7110,
      "yìí.": 7111,
      "tẹ́nì": 7112,
      "labarin": 7113,
      "takwas": 7114,
      "flor": 7115,
      "kie": 7116,
      "bere": 7117,
      "army": 7118,
      "simu": 7119,
      "2008,": 7120,
      "d'é": 7121,
      "kirki": 7122,
      "ሎስ": 7123,
      "ከፈ": 7124,
      "ጥቁር": 7125,
      "waarabu": 7126,
      "alg": 7127,
      "bankin": 7128,
      "እናት": 7129,
      "fundis": 7130,
      "1958": 7131,
      "yàtọ̀": 7132,
      "kusini.": 7133,
      "ንዳንድ": 7134,
      "otto": 7135,
      "jimillar": 7136,
      "jes": 7137,
      "ov": 7138,
      "lob": 7139,
      "clai": 7140,
      "iti": 7141,
      "gala": 7142,
      "1948": 7143,
      "ikon": 7144,
      "ìler": 7145,
      "ሰቡ": 7146,
      "ቋቋ": 7147,
      "የዘ": 7148,
      "ጋዜ": 7149,
      "al'adu": 7150,
      "karùn": 7151,
      "2010.": 7152,
      "tenis": 7153,
      "የመጣ": 7154,
      "project": 7155,
      "ዳግማዊ": 7156,
      "ìwòsàn": 7157,
      "sele": 7158,
      "1940": 7159,
      "several": 7160,
      "]]": 7161,
      "fis": 7162,
      "kwu": 7163,
      "map": 7164,
      "3=": 7165,
      "kwana": 7166,
      "o-": 7167,
      "ሰሜን": 7168,
      "ቁት": 7169,
      "ቤል": 7170,
      "ọgọ́": 7171,
      "quent": 7172,
      "olori": 7173,
      "concep": 7174,
      "waliwa": 7175,
      "በአሜሪካ": 7176,
      "1968": 7177,
      "chaguliwa": 7178,
      "አድርጎ": 7179,
      "pópù": 7180,
      "lìkì": 7181,
      "ውቅያ": 7182,
      "district": 7183,
      "buni": 7184,
      "economi": 7185,
      "jim": 7186,
      "queen": 7187,
      "trou": 7188,
      "(2": 7189,
      "86": 7190,
      "tten": 7191,
      "mach": 7192,
      "ni,": 7193,
      "1919": 7194,
      "sound": 7195,
      "victori": 7196,
      "ty.": 7197,
      "états": 7198,
      "blu": 7199,
      "eos": 7200,
      "káà": 7201,
      "xe": 7202,
      "ywa": 7203,
      "òkú": 7204,
      "ሊያን": 7205,
      "ሐሴ": 7206,
      "ትክ": 7207,
      "ነፈ": 7208,
      "ያዙ": 7209,
      "ፕላ": 7210,
      "matic": 7211,
      "majina": 7212,
      "namba": 7213,
      "ra'a": 7214,
      "ẹ̀bùn": 7215,
      "chache": 7216,
      "undun": 7217,
      "ancient": 7218,
      "prince": 7219,
      "አማካ": 7220,
      "boy": 7221,
      "anne": 7222,
      "urit": 7223,
      "1900": 7224,
      "colo": 7225,
      "kanna": 7226,
      "ghan": 7227,
      "vation": 7228,
      "pande": 7229,
      "politique": 7230,
      "cine": 7231,
      "ደርስ": 7232,
      "nie": 7233,
      "asibi": 7234,
      "kẹjọ": 7235,
      "souvent": 7236,
      "lenye": 7237,
      "fíl": 7238,
      "ሥርዓት": 7239,
      "እንኳን": 7240,
      "abdullahi": 7241,
      "ሪፐብሊክ": 7242,
      "phe": 7243,
      "ena": 7244,
      "hira": 7245,
      "cian": 7246,
      "solu": 7247,
      "symbo": 7248,
      "igi": 7249,
      "what": 7250,
      "sam": 7251,
      "mean": 7252,
      "concer": 7253,
      "university,": 7254,
      "sk": 7255,
      "ሊሆን": 7256,
      "ሰቦች": 7257,
      "በዓለም": 7258,
      "ክምና": 7259,
      "ጽዋት": 7260,
      "kuwe": 7261,
      "origine": 7262,
      "dauke": 7263,
      "aṣojú": 7264,
      "u.s.": 7265,
      "አስተዳደር": 7266,
      "anzisha": 7267,
      "nguvu": 7268,
      "jihohin": 7269,
      "arzikin": 7270,
      "fílmù": 7271,
      "ito": 7272,
      "leurs": 7273,
      "keb": 7274,
      "giga": 7275,
      "resul": 7276,
      "1957": 7277,
      "eau": 7278,
      "yya.": 7279,
      "buhari": 7280,
      "160": 7281,
      "ለየ": 7282,
      "ቆየ": 7283,
      "እሱ": 7284,
      "የባ": 7285,
      "ገራ": 7286,
      "wafu": 7287,
      "jagun": 7288,
      "resear": 7289,
      "kundu": 7290,
      "በተለያዩ": 7291,
      "kẹtà": 7292,
      "አምስት": 7293,
      "በዚህም": 7294,
      "watoto": 7295,
      "jagoranci": 7296,
      "kimiyyar": 7297,
      "ofishin": 7298,
      "kátólìkì": 7299,
      "87": 7300,
      "bb": 7301,
      "iwa": 7302,
      "row": 7303,
      "kodi": 7304,
      "cru": 7305,
      "kiko": 7306,
      "déc": 7307,
      "170": 7308,
      "ey": 7309,
      "ìs": 7310,
      "ማው": 7311,
      "ምሥራቅ": 7312,
      "ሥልጣ": 7313,
      "ቅና": 7314,
      "ቅኝ": 7315,
      "ግንባታ": 7316,
      "nord": 7317,
      "yesu": 7318,
      "sókè": 7319,
      "ቅድመ": 7320,
      "dabbo": 7321,
      "ኮኖሚ": 7322,
      "ọpọlọ": 7323,
      "dashi": 7324,
      "cial": 7325,
      "cei": 7326,
      "dary": 7327,
      "archite": 7328,
      ":-": 7329,
      "ater": 7330,
      "(3": 7331,
      "toni": 7332,
      "yọ̀": 7333,
      "ìyàn": 7334,
      "ሬን": 7335,
      "ቹን": 7336,
      "ኑሮ": 7337,
      "ከፋ": 7338,
      "duwa": 7339,
      "ge.": 7340,
      "maneno": 7341,
      "መንገ": 7342,
      "akafuatwa": 7343,
      "kòkò": 7344,
      "አልፋ": 7345,
      "mallaka": 7346,
      "takarar": 7347,
      "ክፍላገ": 7348,
      "quali": 7349,
      "hous": 7350,
      "(2006)": 7351,
      "américa": 7352,
      "1955": 7353,
      "scienti": 7354,
      "heri": 7355,
      "ìyàwó": 7356,
      "ረስ": 7357,
      "ራውያን": 7358,
      "ቡድ": 7359,
      "ዛፍ": 7360,
      "ያት": 7361,
      "ድሀ": 7362,
      "ጥቂት": 7363,
      "hungari": 7364,
      "አባቱ": 7365,
      "ananan": 7366,
      "digirin": 7367,
      "non-": 7368,
      "ደጃዝማች": 7369,
      "43": 7370,
      "1922": 7371,
      "miti": 7372,
      "chara": 7373,
      "exten": 7374,
      "ህዝ": 7375,
      "ሕገ": 7376,
      "ሶርያ": 7377,
      "የእንግሊዝ": 7378,
      "ጥል": 7379,
      "ጻፍ": 7380,
      "ጽሁ": 7381,
      "ፊደ": 7382,
      "ọkọ": 7383,
      "ẹ̀dá": 7384,
      "ciya": 7385,
      "muhimman": 7386,
      "2013.": 7387,
      "forces": 7388,
      "unao": 7389,
      "እስራኤል": 7390,
      "pher": 7391,
      "lẹ́hìn": 7392,
      "barabara": 7393,
      "littatta": 7394,
      "ጥያቄ": 7395,
      "tẹ́nìs": 7396,
      "zir": 7397,
      "marri": 7398,
      "gg": 7399,
      "boko": 7400,
      "obinrin": 7401,
      "àpẹ": 7402,
      "ìwà": 7403,
      "አላቸው": 7404,
      "ዲሱ": 7405,
      "sit": 7406,
      "የሚኖር": 7407,
      "appar": 7408,
      "ንግሥት": 7409,
      "dauki": 7410,
      "ndiyo": 7411,
      "kọkànlá": 7412,
      "eosentomon": 7413,
      "span": 7414,
      "soke": 7415,
      "tangan": 7416,
      "doma": 7417,
      "bridge": 7418,
      "partir": 7419,
      "ij": 7420,
      "hazi": 7421,
      "anima": 7422,
      "12,": 7423,
      "cally": 7424,
      "sẹ": 7425,
      "wì": 7426,
      "ሳለ": 7427,
      "ቡና": 7428,
      "ተማሪ": 7429,
      "ከው": 7430,
      "የፈረንሳይ": 7431,
      "ይኖ": 7432,
      "‹‹": 7433,
      "masanin": 7434,
      "paci": 7435,
      "bude": 7436,
      "tarwa": 7437,
      "የሚባል": 7438,
      "protes": 7439,
      "እንዲያ": 7440,
      "ቤተሰብ": 7441,
      "kyautu": 7442,
      "jarida": 7443,
      "firamare": 7444,
      "développe": 7445,
      "(da": 7446,
      "n;": 7447,
      "spé": 7448,
      "matar": 7449,
      "unin": 7450,
      "press,": 7451,
      "ifi": 7452,
      "tán": 7453,
      "zane": 7454,
      "11,": 7455,
      "nusu": 7456,
      "ረፈ": 7457,
      "ሰት": 7458,
      "ታማ": 7459,
      "የሐ": 7460,
      "ጻፈው": 7461,
      "››": 7462,
      "dal": 7463,
      "ony": 7464,
      "div": 7465,
      "wọlé": 7466,
      "ilè": 7467,
      "የተቀ": 7468,
      "ንድስና": 7469,
      "1956": 7470,
      "oluko": 7471,
      "igbi": 7472,
      "kasuwancin": 7473,
      "mamaye": 7474,
      "ሚኒስቴ": 7475,
      "sadarwa": 7476,
      "oríṣiríṣi": 7477,
      "ሊቃውንት": 7478,
      "hama": 7479,
      "meth": 7480,
      "sud": 7481,
      "computer": 7482,
      "gà": 7483,
      "hiki": 7484,
      "2012.": 7485,
      ")።": 7486,
      "aj": 7487,
      "kwarar": 7488,
      "pari": 7489,
      "àsìkò": 7490,
      "መብት": 7491,
      "ሞተ": 7492,
      "ስቲ": 7493,
      "ስሜን": 7494,
      "ቲት": 7495,
      "ነጭ": 7496,
      "የሙ": 7497,
      "ያል።": 7498,
      "lisha": 7499,
      "kuro": 7500,
      "gbọn": 7501,
      "pokea": 7502,
      "zi,": 7503,
      "ነበር፡፡": 7504,
      "ìdín": 7505,
      "ibujoko": 7506,
      "mvua": 7507,
      "òrìṣà": 7508,
      "ወዘተ": 7509,
      "bè": 7510,
      "lieu": 7511,
      "meli": 7512,
      "cos": 7513,
      "1946": 7514,
      "እሳት": 7515,
      "ṣu": 7516,
      "lim": 7517,
      "isation": 7518,
      "white": 7519,
      "space": 7520,
      "principa": 7521,
      "cry": 7522,
      "dìí": 7523,
      "ማክ": 7524,
      "ምሌ": 7525,
      "ሮን": 7526,
      "ሰላ": 7527,
      "ካራ": 7528,
      "የፖለቲካ": 7529,
      "ጣሪ": 7530,
      "yada": 7531,
      "sawa": 7532,
      "yaren": 7533,
      "ité": 7534,
      "ስተኛው": 7535,
      "biyu.": 7536,
      "kéde": 7537,
      "afirka.": 7538,
      "onímọ̀": 7539,
      "láàrín": 7540,
      "haihuwa": 7541,
      "(lafazi": 7542,
      "(as": 7543,
      "63": 7544,
      "jona": 7545,
      "mn": 7546,
      "mke": 7547,
      "le-": 7548,
      "al,": 7549,
      "15,": 7550,
      "album": 7551,
      "stron": 7552,
      "homo": 7553,
      "prus": 7554,
      "photo": 7555,
      "(ወይም": 7556,
      "65": 7557,
      "àtò": 7558,
      "ɗe": 7559,
      "ልን": 7560,
      "ምልክ": 7561,
      "ካከለ": 7562,
      "ዋርያ": 7563,
      "ዝያ": 7564,
      "ጃፓን": 7565,
      "ጉር": 7566,
      "ጉን": 7567,
      "ጎች": 7568,
      "ars": 7569,
      "hakuna": 7570,
      "dangin": 7571,
      "capita": 7572,
      "የአንድ": 7573,
      "ìjá": 7574,
      "በመስ": 7575,
      "zamantake": 7576,
      "tattauna": 7577,
      "ዋንጫ": 7578,
      "ገበያ": 7579,
      "ng'": 7580,
      "(au": 7581,
      "diver": 7582,
      "rasi": 7583,
      "wealth": 7584,
      "hou": 7585,
      "16,": 7586,
      "1947": 7587,
      "[[": 7588,
      "1923": 7589,
      "read": 7590,
      "celle": 7591,
      "stor": 7592,
      "sensa": 7593,
      "logie": 7594,
      "différent": 7595,
      "ሄደ": 7596,
      "መዘ": 7597,
      "በታሪክ": 7598,
      "በጥንታዊ": 7599,
      "ወላ": 7600,
      "ዚያን": 7601,
      "ፋል": 7602,
      "lee": 7603,
      "alitokea": 7604,
      "látà": 7605,
      "የተወሰ": 7606,
      "adú": 7607,
      "tsakiya": 7608,
      "zulu": 7609,
      "000.": 7610,
      "ስታን": 7611,
      "በሰሜን": 7612,
      "láàá": 7613,
      "ፖርቱ": 7614,
      "ón": 7615,
      "bamba": 7616,
      "langa": 7617,
      "soit": 7618,
      "2009.": 7619,
      "conser": 7620,
      "ority": 7621,
      "proper": 7622,
      "mori": 7623,
      "pto": 7624,
      "pungu": 7625,
      "ulu": 7626,
      "መምህ": 7627,
      "ሞላ": 7628,
      "ሣይ": 7629,
      "ቀለ": 7630,
      "በሉ": 7631,
      "ቶን": 7632,
      "ዝግ": 7633,
      "የ«": 7634,
      "ጨት": 7635,
      "wanyama": 7636,
      "capi": 7637,
      "የሚጠ": 7638,
      "lls": 7639,
      "lyn": 7640,
      "turuki": 7641,
      "ነበር፤": 7642,
      "kyau": 7643,
      "bran": 7644,
      "ndu": 7645,
      "own": 7646,
      "sand": 7647,
      "live": 7648,
      "bala": 7649,
      "600": 7650,
      "var": 7651,
      "amatsayin": 7652,
      "ccen": 7653,
      "dr.": 7654,
      "ome": 7655,
      "የቻይና": 7656,
      "ያላ": 7657,
      "bayana": 7658,
      "tous": 7659,
      "gudun": 7660,
      "nomba": 7661,
      "huɗu": 7662,
      "phon": 7663,
      "1949": 7664,
      "አልፎ": 7665,
      "gudanarwa": 7666,
      "መቀመጫ": 7667,
      "demokrasia": 7668,
      "celui": 7669,
      "buri": 7670,
      "shai": 7671,
      "hao": 7672,
      "often": 7673,
      "mann": 7674,
      "llan": 7675,
      "référen": 7676,
      "mọd": 7677,
      "ለዋል።": 7678,
      "ሊት": 7679,
      "ምድ": 7680,
      "በክ": 7681,
      "በፍ": 7682,
      "ተወለደ": 7683,
      "ንተ": 7684,
      "የእግዚአብሔር": 7685,
      "የግብጽ": 7686,
      "ዶን": 7687,
      "lei": 7688,
      "birin": 7689,
      "mother": 7690,
      "kansu": 7691,
      "alizaliwa": 7692,
      "shekarar,": 7693,
      "ኢትዮጵያዊ": 7694,
      "yìí,": 7695,
      "አስተዋ": 7696,
      "መካከለ": 7697,
      "ስርዓት": 7698,
      "side": 7699,
      "2021": 7700,
      "mou": 7701,
      "birth": 7702,
      "certains": 7703,
      "92": 7704,
      "model": 7705,
      "état": 7706,
      "business": 7707,
      "aa": 7708,
      "sọ̀rọ̀": 7709,
      "ƙananan": 7710,
      "ተስፋ": 7711,
      "ትኩ": 7712,
      "ችሉ": 7713,
      "ኒት": 7714,
      "ፈቃ": 7715,
      "tashi": 7716,
      "wel": 7717,
      "የአለም": 7718,
      "adá": 7719,
      "ellement": 7720,
      "በአንዳንድ": 7721,
      "1951": 7722,
      "ዘመናት": 7723,
      "okùn": 7724,
      "jamus": 7725,
      "ስምምነት": 7726,
      "ምክር": 7727,
      "villa": 7728,
      "መነሻ": 7729,
      "although": 7730,
      "dana": 7731,
      "v,": 7732,
      "ino": 7733,
      "défini": 7734,
      "tibu": 7735,
      "koki": 7736,
      "board": 7737,
      "malawi": 7738,
      "-ò": 7739,
      "msa": 7740,
      "ለአ": 7741,
      "መጽ": 7742,
      "ረር": 7743,
      "ተገ": 7744,
      "አነጋ": 7745,
      "ዞን": 7746,
      "የጎ": 7747,
      "ያተ": 7748,
      "ዮት": 7749,
      "ግና": 7750,
      "kulob": 7751,
      "hidi": 7752,
      "mijin": 7753,
      "ríà": 7754,
      "ወረራ": 7755,
      "múlẹ̀": 7756,
      "olùdá": 7757,
      "uislamu": 7758,
      "ghana.": 7759,
      "sauransu.": 7760,
      "https": 7761,
      "fina-finan": 7762,
      "jean-": 7763,
      "guar": 7764,
      "nations": 7765,
      "club": 7766,
      "-un": 7767,
      "dùn": 7768,
      "mdogo": 7769,
      "ሠብ": 7770,
      "ሳቸውን": 7771,
      "ንጥረ": 7772,
      "እጽዋት": 7773,
      "ከላይ": 7774,
      "ከአንድ": 7775,
      "hifa": 7776,
      "lásìkò": 7777,
      "julọ": 7778,
      "በት።": 7779,
      "muse": 7780,
      "አስፈላጊ": 7781,
      "urefu": 7782,
      "political": 7783,
      "ባህላዊ": 7784,
      "ገለግ": 7785,
      "hukumomi": 7786,
      "agbábọ́ọ̀lù": 7787,
      "áfíríkà": 7788,
      "yẹ̀wò": 7789,
      "wikipedia.": 7790,
      "pona": 7791,
      "ashi": 7792,
      "connu": 7793,
      "société": 7794,
      "squ": 7795,
      "lio": 7796,
      "so,": 7797,
      "usale": 7798,
      "emplo": 7799,
      "jìdín": 7800,
      "tù": 7801,
      "ቀደም": 7802,
      "በባ": 7803,
      "በኩ": 7804,
      "በጎ": 7805,
      "ተኞች": 7806,
      "እኛ": 7807,
      "ከን": 7808,
      "የሥ": 7809,
      "ṣì": 7810,
      "jac": 7811,
      "kwallaye": 7812,
      "yarda": 7813,
      "shiriki": 7814,
      "የተነሳ": 7815,
      "adini": 7816,
      "donc": 7817,
      "tropi": 7818,
      "kẹrìn": 7819,
      "በርግ": 7820,
      "-oòrùn": 7821,
      "àkókò": 7822,
      "ነጻነት": 7823,
      "ቀዳማዊ": 7824,
      "jiragen": 7825,
      "masana'antar": 7826,
      "መዋዕል": 7827,
      "binadamu": 7828,
      "research": 7829,
      "látàrí": 7830,
      "kle": 7831,
      "20,": 7832,
      "down": 7833,
      "ez": 7834,
      "gama": 7835,
      "commen": 7836,
      "sultani": 7837,
      "yẹ́": 7838,
      "ሞቱ": 7839,
      "ስታት": 7840,
      "በድ": 7841,
      "እራ": 7842,
      "እዚህ": 7843,
      "ọkan": 7844,
      "kidogo": 7845,
      "jijini": 7846,
      "wananchi": 7847,
      "yed": 7848,
      "huitwa": 7849,
      "fungu": 7850,
      "exter": 7851,
      "ambalo": 7852,
      "ambaye": 7853,
      "stein": 7854,
      "mashariki.": 7855,
      "waɗannan": 7856,
      "አሜሪካዊ": 7857,
      "tẹ́lẹ̀.": 7858,
      "council": 7859,
      "bani": 7860,
      "kada": 7861,
      "local": 7862,
      "clima": 7863,
      "undi": 7864,
      "ref": 7865,
      "rome": 7866,
      "road": 7867,
      "thes": 7868,
      "bed": 7869,
      "(2003)": 7870,
      "video": 7871,
      "activi": 7872,
      "llu": 7873,
      "ልጋ": 7874,
      "ተሸ": 7875,
      "ናይ": 7876,
      "ና።": 7877,
      "kasan": 7878,
      "mato": 7879,
      "mapapa": 7880,
      "comb": 7881,
      "gidi": 7882,
      "alichunguza": 7883,
      "sínú": 7884,
      "እንደነበር": 7885,
      "yake,": 7886,
      "ታወቀ": 7887,
      "olùkọ́": 7888,
      "ጣልያ": 7889,
      "mwendo": 7890,
      "መሣሪያ": 7891,
      "(),": 7892,
      "page": 7893,
      "adri": 7894,
      "d'autres": 7895,
      "european": 7896,
      "(14": 7897,
      "inté": 7898,
      "victor": 7899,
      "fonction": 7900,
      "awali": 7901,
      "kín": 7902,
      "nga": 7903,
      "nent": 7904,
      "odi": 7905,
      "yò": 7906,
      "ላቅ": 7907,
      "ልጆ": 7908,
      "ልምና": 7909,
      "ስሊ": 7910,
      "ተባለ": 7911,
      "haɓ": 7912,
      "gbí": 7913,
      "ambi": 7914,
      "jemi": 7915,
      "hard": 7916,
      "res,": 7917,
      "አስቀድሞ": 7918,
      "ይገመ": 7919,
      "jama'": 7920,
      "dàgbà": 7921,
      "òṣèrékùnrin": 7922,
      "ahmed": 7923,
      "ግራም": 7924,
      "andika": 7925,
      "sokoto": 7926,
      "lànà": 7927,
      "jonathan": 7928,
      "cum": 7929,
      "fm,": 7930,
      "mikoa": 7931,
      "secre": 7932,
      "eastern": 7933,
      "kwar": 7934,
      "ît": 7935,
      "occu": 7936,
      "current": 7937,
      "technology": 7938,
      "furu": 7939,
      "ìṣè": 7940,
      "òní": 7941,
      "ለምን": 7942,
      "ተገኝ": 7943,
      "tabia": 7944,
      "named": 7945,
      "or,": 7946,
      "miran": 7947,
      "fika": 7948,
      "kola": 7949,
      "fawa": 7950,
      "kwatar": 7951,
      "young": 7952,
      "rukun": 7953,
      "proces": 7954,
      "shughu": 7955,
      "1953": 7956,
      "ologun": 7957,
      "girman": 7958,
      "kyawun": 7959,
      "ተቀም": 7960,
      "shari'a": 7961,
      "hifadhi": 7962,
      "ambo": 7963,
      "1939": 7964,
      "gregori": 7965,
      "jur": 7966,
      "bit": 7967,
      "20.": 7968,
      "colon": 7969,
      "song": 7970,
      "corpor": 7971,
      "considé": 7972,
      "angola": 7973,
      "according": 7974,
      "railway": 7975,
      "ndio": 7976,
      "swi": 7977,
      "ለህ": 7978,
      "መተ": 7979,
      "መኮ": 7980,
      "ሰኔ": 7981,
      "ሰፊ": 7982,
      "ስነ": 7983,
      "ና፡": 7984,
      "እያለ": 7985,
      "ፉ።": 7986,
      "ፍላ": 7987,
      "ṣọ́": 7988,
      "living": 7989,
      "tocin": 7990,
      "sitì": 7991,
      "tunan": 7992,
      "በመቀ": 7993,
      "በመጽሐ": 7994,
      "ጀመር": 7995,
      "fransis": 7996,
      "mwamba": 7997,
      "kasuwa": 7998,
      "መሠረተ": 7999,
      "ይሆናል": 8000,
      "côte": 8001,
      "mazingi": 8002,
      "አልፋቤት": 8003,
      "cing": 8004,
      "rer": 8005,
      "bah": 8006,
      "mid": 8007,
      "fata": 8008,
      "champion": 8009,
      "kalu": 8010,
      "assemb": 8011,
      "fort": 8012,
      "d'i": 8013,
      "système": 8014,
      "ርሱም": 8015,
      "ቆብ": 8016,
      "ናገር": 8017,
      "አጼ": 8018,
      "የጥን": 8019,
      "ጨለማ": 8020,
      "anar": 8021,
      "max": 8022,
      "enga": 8023,
      "kiru": 8024,
      "kikubwa": 8025,
      "co,": 8026,
      "pokuwa": 8027,
      "ነው፣": 8028,
      "2002,": 8029,
      "kanada": 8030,
      "nationale": 8031,
      "trálíà": 8032,
      "አብዛኛው": 8033,
      "austrálíà": 8034,
      "ድምጽ": 8035,
      "àmì-ẹ̀yẹ": 8036,
      "hesabu": 8037,
      "ውድድር": 8038,
      "ስለሆነም": 8039,
      "ይርላንድ": 8040,
      "ordina": 8041,
      "ric": 8042,
      "républi": 8043,
      "abba": 8044,
      "record": 8045,
      "nyan": 8046,
      "pages": 8047,
      "coast": 8048,
      "sanjo": 8049,
      "médi": 8050,
      "undwa": 8051,
      "-ኢ": 8052,
      "-ẹ̀kọ́": 8053,
      "cau": 8054,
      "vas": 8055,
      "ሃም": 8056,
      "ምሩ": 8057,
      "ትስ": 8058,
      "ትዕ": 8059,
      "ነሐሴ": 8060,
      "ዩት": 8061,
      "waandishi": 8062,
      "kute": 8063,
      "kurú": 8064,
      "seu": 8065,
      "mos": 8066,
      "karo": 8067,
      "shiyar": 8068,
      "ለውጥ": 8069,
      "dinkin": 8070,
      "matsayi": 8071,
      "asilia": 8072,
      "kòó": 8073,
      "kúkurú": 8074,
      "mẹ́rin": 8075,
      "wiki/": 8076,
      "àṣàyàn": 8077,
      "ፕሬዚዳንት": 8078,
      "ትውልድ": 8079,
      "health": 8080,
      "mika": 8081,
      "vien": 8082,
      "donné": 8083,
      "1954": 8084,
      "larin": 8085,
      "different": 8086,
      "orthodo": 8087,
      "(12": 8088,
      "800": 8089,
      "test": 8090,
      "mamla": 8091,
      "tasi": 8092,
      "mediter": 8093,
      "utilisé": 8094,
      "https://": 8095,
      "-ሲን": 8096,
      "gand": 8097,
      "ikiwa": 8098,
      "ሆኗ": 8099,
      "ላህ": 8100,
      "መሃ": 8101,
      "መሆን": 8102,
      "ምግብ": 8103,
      "ቀም": 8104,
      "ብሄ": 8105,
      "ብረተ": 8106,
      "ችሎ": 8107,
      "የጦር": 8108,
      "ዳይ": 8109,
      "kiwon": 8110,
      "በአማርኛ": 8111,
      "ከተማዋ": 8112,
      "nìkan": 8113,
      "ርትራ": 8114,
      "እንዳይ": 8115,
      "rubutu": 8116,
      "ይታመ": 8117,
      "ሰማይ": 8118,
      "hakkin": 8119,
      "org/wiki/": 8120,
      "ተጫዋ": 8121,
      "ìlera": 8122,
      "%),": 8123,
      "baka": 8124,
      "frança": 8125,
      "suppor": 8126,
      "mku": 8127,
      "poland": 8128,
      "syl": 8129,
      "ground": 8130,
      "-አ": 8131,
      "kware": 8132,
      "wuri": 8133,
      "ሃያ": 8134,
      "ልዑ": 8135,
      "ሣሥ": 8136,
      "ስጋ": 8137,
      "አጠቃላይ": 8138,
      "ዳኛ": 8139,
      "፳፻": 8140,
      "bakin": 8141,
      "kano,": 8142,
      "የሚባለው": 8143,
      "yanayo": 8144,
      "sions": 8145,
      "mutuwan": 8146,
      "ahmadu": 8147,
      "ፕሬዚደን": 8148,
      "kituo": 8149,
      "yarjejeni": 8150,
      "eye": 8151,
      "coloni": 8152,
      "among": 8153,
      "obser": 8154,
      "ologie": 8155,
      "entertain": 8156,
      "oni.": 8157,
      "green": 8158,
      "important": 8159,
      "engineer": 8160,
      "69": 8161,
      "gli": 8162,
      "àṣẹ": 8163,
      "ƙe": 8164,
      "ሆናቸው": 8165,
      "ረጅም": 8166,
      "ችኹ": 8167,
      "ዲት": 8168,
      "real": 8169,
      "beli": 8170,
      "tsaro": 8171,
      "የሚሰ": 8172,
      "linalo": 8173,
      "duniani.": 8174,
      "within": 8175,
      "lọ́jọ́": 8176,
      "በኋላም": 8177,
      "southern": 8178,
      "ሌላው": 8179,
      "zamanin": 8180,
      "al'adun": 8181,
      "lissafi": 8182,
      "-iwe": 8183,
      "haihuwar": 8184,
      "ìtumò:": 8185,
      "fabrairu": 8186,
      "encore": 8187,
      "koya": 8188,
      "lo,": 8189,
      "trie": 8190,
      "daniel": 8191,
      "organization": 8192,
      "guri": 8193,
      "zone": 8194,
      "trouve": 8195,
      "gho": 8196,
      "ሄዱ": 8197,
      "መግ": 8198,
      "ርዝ": 8199,
      "በህ": 8200,
      "በለ": 8201,
      "ተም": 8202,
      "ተባ": 8203,
      "ውና": 8204,
      "ዥን": 8205,
      "ያዕ": 8206,
      "ደቅ": 8207,
      "ọna": 8208,
      "tali": 8209,
      "rain": 8210,
      "የአሦር": 8211,
      "kasashe": 8212,
      "ድረስ፣": 8213,
      "mwingine": 8214,
      "afirka,": 8215,
      "ለን።": 8216,
      "ተራሮች": 8217,
      "የኤሌክትሪክ": 8218,
      "ርቶዶ": 8219,
      "ይገመታል።": 8220,
      "-century": 8221,
      "1/": 8222,
      "osi": 8223,
      "israeli": 8224,
      "(4": 8225,
      "):": 8226,
      "52": 8227,
      "aku": 8228,
      "ctu": 8229,
      "deri": 8230,
      "equ": 8231,
      "yusu": 8232,
      "kuri": 8233,
      "brown": 8234,
      "azer": 8235,
      "(pia": 8236,
      "መቃ": 8237,
      "ቡን": 8238,
      "ተዛ": 8239,
      "ቱት": 8240,
      "አደ": 8241,
      "አማርኛ": 8242,
      "kala": 8243,
      "haja": 8244,
      "kil": 8245,
      "karɓ": 8246,
      "የሚፈ": 8247,
      "wide": 8248,
      "aikata": 8249,
      "gbajumo": 8250,
      "márùn": 8251,
      "nigeria,": 8252,
      "idije": 8253,
      "ግብፅ": 8254,
      "wake.": 8255,
      "ይገኛሉ።": 8256,
      "wuraren": 8257,
      "ፕሬዝ": 8258,
      "journal": 8259,
      "atlantiki": 8260,
      "እንስሳት": 8261,
      "sources": 8262,
      "wakiltar": 8263,
      "àjàkálẹ̀": 8264,
      "ብሪታንያ": 8265,
      "አንቀጽ": 8266,
      "koro": 8267,
      "rwanda": 8268,
      "’s": 8269,
      "eren": 8270,
      "died": 8271,
      "uso": 8272,
      "chemis": 8273,
      "2020.": 8274,
      "urin": 8275,
      "aient": 8276,
      "camp": 8277,
      "washington": 8278,
      "gré": 8279,
      "mrefu": 8280,
      "nisha": 8281,
      "ራው": 8282,
      "ሰዓት": 8283,
      "ሻሻ": 8284,
      "እርስ": 8285,
      "የደ": 8286,
      "ይመ": 8287,
      "ጤና": 8288,
      "kaza": 8289,
      "orilẹ": 8290,
      "using": 8291,
      "faa": 8292,
      "itọ": 8293,
      "ƙashin": 8294,
      "እንግሊዝኛ:": 8295,
      "ፈረንሣይ": 8296,
      "ongoza": 8297,
      "girmamawa": 8298,
      "ƙungi": 8299,
      "የግሪክ": 8300,
      "image": 8301,
      "rd1-score": 8302,
      "978-": 8303,
      "ውቅያኖስ": 8304,
      "mazingira": 8305,
      "p)": 8306,
      "chica": 8307,
      "llah": 8308,
      "jis": 8309,
      "s-": 8310,
      "xes": 8311,
      "sif": 8312,
      "tely": 8313,
      "bill": 8314,
      "chap": 8315,
      "17,": 8316,
      "bora": 8317,
      "angli": 8318,
      "particuli": 8319,
      "agusta": 8320,
      "gouver": 8321,
      "\"a": 8322,
      "sọ́": 8323,
      "x.": 8324,
      "àwùjọ": 8325,
      "ምስራቅ": 8326,
      "ኅሣሥ": 8327,
      "የሁ": 8328,
      "ዳት": 8329,
      "kampuni": 8330,
      "maanisha": 8331,
      "ungiyar": 8332,
      "laarin": 8333,
      "kiwan": 8334,
      "kijeshi": 8335,
      "kiislamu": 8336,
      "rock": 8337,
      "padri": 8338,
      "yeye": 8339,
      "የአገ": 8340,
      "descri": 8341,
      "shawarar": 8342,
      "indivi": 8343,
      "garuru": 8344,
      "burtaniya": 8345,
      "ማለትም": 8346,
      "mẹ́rìn": 8347,
      "ሚያዝያ": 8348,
      "ፍጥነት": 8349,
      "እስካሁን": 8350,
      "kòkòrò": 8351,
      "étu": 8352,
      "is.": 8353,
      "1913": 8354,
      "kolo": 8355,
      "mental": 8356,
      "ness": 8357,
      "literat": 8358,
      "odu": 8359,
      "rita": 8360,
      "momi": 8361,
      "dos": 8362,
      "183": 8363,
      "desig": 8364,
      "afghan": 8365,
      "massa": 8366,
      "(mshindi": 8367,
      "11.": 8368,
      "okan": 8369,
      "tse": 8370,
      "uzi": 8371,
      "épo": 8372,
      "ìta": 8373,
      "ìtàgé": 8374,
      "ògún": 8375,
      "ብረ": 8376,
      "አለመ": 8377,
      "ክፉ": 8378,
      "የእግር": 8379,
      "የጣልያን": 8380,
      "ፌዴ": 8381,
      "erial": 8382,
      "hispani": 8383,
      "ይህንን": 8384,
      "trava": 8385,
      "የመሬት": 8386,
      "ለመጀመሪያ": 8387,
      "olominira": 8388,
      "በሚል": 8389,
      "volken": 8390,
      "uingereza.": 8391,
      "ትልቁ": 8392,
      "ዛሬው": 8393,
      "virgini": 8394,
      "mukamin": 8395,
      "tẹlifíṣ": 8396,
      "mọdé": 8397,
      "rho": 8398,
      "œu": 8399,
      "instru": 8400,
      "isti": 8401,
      "thè": 8402,
      "l'ar": 8403,
      "ija": 8404,
      "ngo": 8405,
      "tanni": 8406,
      "2019)": 8407,
      "jaru": 8408,
      "foundation": 8409,
      "mamlaka": 8410,
      "53": 8411,
      "fìdí": 8412,
      "frán": 8413,
      "mtun": 8414,
      "nǹkan": 8415,
      "smi": 8416,
      "ìf": 8417,
      "لَ": 8418,
      "ሞስ": 8419,
      "ርቀት": 8420,
      "ስፒ": 8421,
      "ተጨማሪ": 8422,
      "ካለ": 8423,
      "ድቅ": 8424,
      "ጉዞ": 8425,
      "ፍተ": 8426,
      "sauti": 8427,
      "sababisha": 8428,
      "kitovu": 8429,
      "kitaifa": 8430,
      "fiadini": 8431,
      "mo,": 8432,
      "faire": 8433,
      "yii": 8434,
      "2008.": 8435,
      "በአፍ": 8436,
      "mtoto": 8437,
      "olùgbé": 8438,
      "musulmi": 8439,
      "hassan": 8440,
      "elizabe": 8441,
      "aṣòfin": 8442,
      "èkó.": 8443,
      "rd1-score0": 8444,
      "የካቲት": 8445,
      "የእስፓንያ": 8446,
      "al'umma": 8447,
      "standard": 8448,
      "children": 8449,
      "ውጤት": 8450,
      "example": 8451,
      "unganisha": 8452,
      "አሉት።": 8453,
      "(7": 8454,
      "magi": 8455,
      "lala": 8456,
      "nata": 8457,
      "mole": 8458,
      "terme": 8459,
      "mond": 8460,
      "toute": 8461,
      "41": 8462,
      "oi": 8463,
      "tants": 8464,
      "tée": 8465,
      "eff": 8466,
      "kìtì": 8467,
      "ufi": 8468,
      "ሕን": 8469,
      "ስፍራ": 8470,
      "በ15": 8471,
      "ቢያን": 8472,
      "ክላ": 8473,
      "inno": 8474,
      "native": 8475,
      "1928": 8476,
      "ọ̀jọ̀": 8477,
      "zime": 8478,
      "paris,": 8479,
      "sarrafa": 8480,
      "abú": 8481,
      "ድርጊ": 8482,
      "ደረግ": 8483,
      "nijeriya,": 8484,
      "amurka,": 8485,
      "ተወላ": 8486,
      "kando": 8487,
      "gẹgẹ": 8488,
      "kayayya": 8489,
      "daidai": 8490,
      "yarjejeniyar": 8491,
      "93": 8492,
      "msu": 8493,
      "lato": 8494,
      "issu": 8495,
      "ofu": 8496,
      "began": 8497,
      "guil": 8498,
      "monde": 8499,
      "aw": 8500,
      "le)": 8501,
      "alis": 8502,
      "ment.": 8503,
      "lands": 8504,
      "1943": 8505,
      "sciences": 8506,
      "azerbai": 8507,
      "cris": 8508,
      "ሕል": 8509,
      "ቃት": 8510,
      "ተለ": 8511,
      "ጃም": 8512,
      "ግዳ": 8513,
      "19,": 8514,
      "tea": 8515,
      "የተገኘ": 8516,
      "lines": 8517,
      "shuka": 8518,
      "matsayinta": 8519,
      "ibù": 8520,
      "jengwa": 8521,
      "wakili": 8522,
      "አስተሳ": 8523,
      "mpira": 8524,
      "ይልቅ": 8525,
      "amurka.": 8526,
      "kataba": 8527,
      "ብሔረ": 8528,
      "ፍጥረት": 8529,
      "nyumba": 8530,
      "ፓርቲዎች": 8531,
      "ጀመረ።": 8532,
      "wikipedia.org/wiki/": 8533,
      "élé": 8534,
      "ête": 8535,
      "annu": 8536,
      "sier": 8537,
      "ga-": 8538,
      "peace": 8539,
      "no.": 8540,
      "bisi": 8541,
      "e)": 8542,
      "jor": 8543,
      "insta": 8544,
      "kadan": 8545,
      "isé": 8546,
      "ere,": 8547,
      "secondary": 8548,
      "azu": 8549,
      "mchan": 8550,
      "u-": 8551,
      "ሮሜ": 8552,
      "በእስ": 8553,
      "ነሽ": 8554,
      "የፀ": 8555,
      "ይነገ": 8556,
      "ዱን": 8557,
      "bamban": 8558,
      "dokokin": 8559,
      "ሳሌም": 8560,
      "formed": 8561,
      "አንዳን": 8562,
      "ayọ": 8563,
      "farko,": 8564,
      "vention": 8565,
      "የሚገኘው": 8566,
      "፲፱፻፵": 8567,
      "published": 8568,
      "obasanjo": 8569,
      "gurbin": 8570,
      "mahaifinta": 8571,
      "ያያዣ": 8572,
      "ክፍላገራት": 8573,
      "nk": 8574,
      "hal": 8575,
      "def": 8576,
      "japon": 8577,
      "japona": 8578,
      "ched": 8579,
      "ancien": 8580,
      "iraq": 8581,
      "possible": 8582,
      "indonesi": 8583,
      "ela": 8584,
      "relati": 8585,
      "des,": 8586,
      "désig": 8587,
      "vol.": 8588,
      "profession": 8589,
      "élect": 8590,
      "ires": 8591,
      "kẹ̀": 8592,
      "ukristo": 8593,
      "ìlànà": 8594,
      "òkun": 8595,
      "ńì": 8596,
      "ሁንም": 8597,
      "ሮሞ": 8598,
      "ተመለ": 8599,
      "ዜማ": 8600,
      "የቅ": 8601,
      "tumo": 8602,
      "guay": 8603,
      "shahara": 8604,
      "ስተዳ": 8605,
      "matumizi": 8606,
      "sanata": 8607,
      "ገኙት": 8608,
      "ሮማይስጥ": 8609,
      "በተጨማሪም": 8610,
      "ƙaramar": 8611,
      "soft": 8612,
      "ቴክኖ": 8613,
      "ሲቀሩ": 8614,
      "ndugu": 8615,
      "መኮንን": 8616,
      "fránsì": 8617,
      "-n": 8618,
      "udi": 8619,
      "sid": 8620,
      "review": 8621,
      "pole": 8622,
      "blan": 8623,
      "baban": 8624,
      "rawa": 8625,
      "along": 8626,
      "arifa": 8627,
      "correspon": 8628,
      "films": 8629,
      "religion": 8630,
      "studies": 8631,
      "afiri": 8632,
      "igbe": 8633,
      "ሉ፣": 8634,
      "መሪዎች": 8635,
      "ሰላም": 8636,
      "ሴማዊ": 8637,
      "ቅረብ": 8638,
      "በጠ": 8639,
      "ነስ": 8640,
      "የሶ": 8641,
      "maende": 8642,
      "kile": 8643,
      "zafi": 8644,
      "pimo": 8645,
      "የአን": 8646,
      "congo": 8647,
      "sha'a": 8648,
      "sunna": 8649,
      "rẹ,": 8650,
      "'yancin": 8651,
      "ƙarƙashin": 8652,
      "ምዕራፍ": 8653,
      "akọkọ": 8654,
      "scot": 8655,
      "መሳሪያ": 8656,
      "original": 8657,
      "ጨዋታ": 8658,
      "litté": 8659,
      "bayanai": 8660,
      "fransisko": 8661,
      "safari": 8662,
      "miya": 8663,
      "milan": 8664,
      "d's": 8665,
      "fano": 8666,
      "cultural": 8667,
      "”.": 8668,
      "nad": 8669,
      "soli": 8670,
      "peup": 8671,
      "bola": 8672,
      "afro": 8673,
      "ared": 8674,
      "14,": 8675,
      "marie": 8676,
      "b)": 8677,
      "f,": 8678,
      "gest": 8679,
      "igbá": 8680,
      "ሎችን": 8681,
      "ሠሩ": 8682,
      "ሩስ": 8683,
      "በዋና": 8684,
      "ፊው": 8685,
      "ma'a": 8686,
      "bad": 8687,
      "ison": 8688,
      "alƙ": 8689,
      "gio": 8690,
      "katiba": 8691,
      "tseren": 8692,
      "harkar": 8693,
      "ነገሥቱ": 8694,
      "ishaji": 8695,
      "kilicho": 8696,
      "college,": 8697,
      "ምህንድስና": 8698,
      "kungiyoyin": 8699,
      "husiano": 8700,
      "miezi": 8701,
      "sabuwar": 8702,
      "rukunin": 8703,
      "mkon": 8704,
      "lay": 8705,
      "urban": 8706,
      "luck": 8707,
      "how": 8708,
      "show": 8709,
      "another": 8710,
      "tambu": 8711,
      "mel": 8712,
      "el-": 8713,
      "references": 8714,
      "ሆና": 8715,
      "ማል።": 8716,
      "ያሉት": 8717,
      "ingili": 8718,
      "santa": 8719,
      "የሚታ": 8720,
      "በአብ": 8721,
      "መንግሥ": 8722,
      "carol": 8723,
      "እርግጥ": 8724,
      "ወለድ": 8725,
      "ደረገ።": 8726,
      "ግድም)": 8727,
      "ongeze": 8728,
      "በታች": 8729,
      "ዕድሜ": 8730,
      "small": 8731,
      "káàkiri": 8732,
      "ሚኒስቴር": 8733,
      "ፕሬዚደንት": 8734,
      "ayo": 8735,
      "alba": 8736,
      "jou": 8737,
      "(2007)": 8738,
      "people's": 8739,
      "industri": 8740,
      "charac": 8741,
      "ole": 8742,
      "rand": 8743,
      "maye": 8744,
      "je,": 8745,
      "2005.": 8746,
      "structur": 8747,
      "include": 8748,
      "awu": 8749,
      "fisi": 8750,
      "sise": 8751,
      "ለሰው": 8752,
      "ረድ": 8753,
      "በቆ": 8754,
      "ኅዳር": 8755,
      "አግኝ": 8756,
      "የታሪክ": 8757,
      "wazungu": 8758,
      "madola": 8759,
      "bos": 8760,
      "orílè": 8761,
      "wanasiasa": 8762,
      "jam’i": 8763,
      "አብር": 8764,
      "aikinta": 8765,
      "ጠቃሚ": 8766,
      "በግሪክ": 8767,
      "fesa": 8768,
      "dalilin": 8769,
      "መጀመርያው": 8770,
      "satumba": 8771,
      "ìjẹ̀bú": 8772,
      "àtòjọ": 8773,
      "ርቶዶክስ": 8774,
      "94": 8775,
      "begin": 8776,
      "tes.": 8777,
      "12.": 8778,
      "opera": 8779,
      "',": 8780,
      "76": 8781,
      "mko": 8782,
      "mikuu": 8783,
      "tua": 8784,
      "onia": 8785,
      "s.a.": 8786,
      "berlin": 8787,
      "encyclo": 8788,
      "n'est": 8789,
      "ሩክ": 8790,
      "ቁም": 8791,
      "ነዉ": 8792,
      "ኛ፣": 8793,
      "ọjà": 8794,
      "ense": 8795,
      "we.": 8796,
      "wakatoliki": 8797,
      "lantar": 8798,
      "odù": 8799,
      "ነበር፣": 8800,
      "iyayen": 8801,
      "minister": 8802,
      "akẹ́": 8803,
      "ተመራ": 8804,
      "መሰረ": 8805,
      "àkójọ": 8806,
      "en.wikipedia.org/wiki/": 8807,
      "article": 8808,
      "àpẹẹrẹ": 8809,
      "method": 8810,
      "abúlé": 8811,
      "urar": 8812,
      "alfred": 8813,
      "right": 8814,
      "warsa": 8815,
      "woman": 8816,
      "compa": 8817,
      "chel": 8818,
      "valent": 8819,
      "title": 8820,
      "yya,": 8821,
      "dole": 8822,
      "noun": 8823,
      "capital": 8824,
      "(cc": 8825,
      "-án": 8826,
      "avoir": 8827,
      "nù": 8828,
      "ìṣà": 8829,
      "ራይ": 8830,
      "ቋሚ": 8831,
      "በዘ": 8832,
      "በሩት": 8833,
      "ዛም": 8834,
      "የጠ": 8835,
      "ፐር": 8836,
      "magan": 8837,
      "kufu": 8838,
      "dit": 8839,
      "mett": 8840,
      "momin": 8841,
      "ọ̀dọ̀": 8842,
      "addition": 8843,
      "tino": 8844,
      "misali": 8845,
      "ዘመድ": 8846,
      "1937": 8847,
      "kisasa": 8848,
      "ታወቅ": 8849,
      "ibẹ̀": 8850,
      "፲፱፻፳": 8851,
      "lingana": 8852,
      "uhindi": 8853,
      "kupitia": 8854,
      "(sa": 8855,
      "vene": 8856,
      "incre": 8857,
      "rah": 8858,
      "schol": 8859,
      "gare": 8860,
      "ku,": 8861,
      "zi.": 8862,
      "denmark": 8863,
      "know": 8864,
      "profile": 8865,
      "olympics": 8866,
      "every": 8867,
      "àwo": 8868,
      "àmọ́": 8869,
      "àwòrán": 8870,
      "ለቅ": 8871,
      "ለቆ": 8872,
      "ሚስ": 8873,
      "ሶስ": 8874,
      "ተክለ": 8875,
      "ችግር": 8876,
      "የዋ": 8877,
      "ይዛ": 8878,
      "ጎል": 8879,
      "ጣጣ": 8880,
      "kamili": 8881,
      "ensemble": 8882,
      "rivers": 8883,
      "kewa": 8884,
      "lo.": 8885,
      "wiwa": 8886,
      "lọwọ": 8887,
      "distribu": 8888,
      "olóyè": 8889,
      "carbon": 8890,
      "sarakunan": 8891,
      "goro": 8892,
      "oníṣ": 8893,
      "lẹhin": 8894,
      "ሥነ-": 8895,
      "governor": 8896,
      "ብሔሮች": 8897,
      "mtume": 8898,
      "(እንግሊዝኛ)": 8899,
      "ስድስት": 8900,
      "golden": 8901,
      "jumuiya": 8902,
      "ይታመናል።": 8903,
      "ae": 8904,
      "guna": 8905,
      "tail": 8906,
      "lat": 8907,
      "zauna": 8908,
      "gber": 8909,
      "solo": 8910,
      "align": 8911,
      "2005,": 8912,
      "advan": 8913,
      "respe": 8914,
      "samuel": 8915,
      "seur": 8916,
      "umbo": 8917,
      "nant": 8918,
      "télé": 8919,
      "iron": 8920,
      "plateau": 8921,
      "taient": 8922,
      "magaz": 8923,
      "ikh": 8924,
      "zer": 8925,
      "ìṣèlú": 8926,
      "ሕይወ": 8927,
      "ሠረተ": 8928,
      "በራዊ": 8929,
      "ተከተ": 8930,
      "ኃይ": 8931,
      "ና፣": 8932,
      "አዊ": 8933,
      "ወዲ": 8934,
      "li.": 8935,
      "kupata": 8936,
      "kiris": 8937,
      "1910": 8938,
      "karl": 8939,
      "ador": 8940,
      "እስኪ": 8941,
      "ስትሆን": 8942,
      "በማስ": 8943,
      "፲፱፻፸": 8944,
      "፲፱፻፺": 8945,
      "èkó,": 8946,
      "ሮማውያን": 8947,
      "ቴክኖሎጂ": 8948,
      "reco": 8949,
      "mum": 8950,
      "ating": 8951,
      "those": 8952,
      "emper": 8953,
      "writing": 8954,
      "oxford": 8955,
      "ographie": 8956,
      "influence": 8957,
      "established": 8958,
      "d'ivoire": 8959,
      "psy": 8960,
      "basu": 8961,
      "alter": 8962,
      "seas": 8963,
      "fa,": 8964,
      "proto": 8965,
      "turki": 8966,
      "1944": 8967,
      "arabic": 8968,
      "ibe": 8969,
      "nọ́": 8970,
      "ogún": 8971,
      "ሌት": 8972,
      "ሜክሲ": 8973,
      "ምባ": 8974,
      "ሰል": 8975,
      "ተገኘ": 8976,
      "አደጋ": 8977,
      "ጅብ": 8978,
      "ጣጫ": 8979,
      "little": 8980,
      "recei": 8981,
      "miss": 8982,
      "elementi": 8983,
      "ታወቀው": 8984,
      "darakta": 8985,
      "malamin": 8986,
      "tawagar": 8987,
      "kufika": 8988,
      "andrew": 8989,
      "ẹranko": 8990,
      "አውራጃ": 8991,
      "ያዕቆብ": 8992,
      "(na": 8993,
      "pya": 8994,
      "zing": 8995,
      "na.": 8996,
      "ra.": 8997,
      "moha": 8998,
      "1942": 8999,
      "dyna": 9000,
      "independent": 9001,
      "%).": 9002,
      "(6": 9003,
      "ic": 9004,
      "inv": 9005,
      "ern": 9006,
      "much": 9007,
      "(ki": 9008,
      "amua": 9009,
      "boni": 9010,
      "ìkan": 9011,
      "ሐምሌ": 9012,
      "ሙር": 9013,
      "ረን": 9014,
      "ሰለ": 9015,
      "በይፋ": 9016,
      "ተግባር": 9017,
      "ዘይ": 9018,
      "የሲ": 9019,
      "ጉድ": 9020,
      "፡-": 9021,
      "፫፻": 9022,
      "yawa,": 9023,
      "issa.": 9024,
      "ina,": 9025,
      "mbaji": 9026,
      "gine-": 9027,
      "ያስፈል": 9028,
      "ሁለቱም": 9029,
      "ዋል፡፡": 9030,
      "atomu": 9031,
      "ማዕከል": 9032,
      "journa": 9033,
      "commonwealth": 9034,
      "source": 9035,
      "መቅደስ": 9036,
      "cikakken": 9037,
      "መጋቢት": 9038,
      "አስተሳሰብ": 9039,
      "\").": 9040,
      "fet": 9041,
      "jani": 9042,
      "duka": 9043,
      "cini": 9044,
      "père": 9045,
      "ubu": 9046,
      "daka": 9047,
      "yulin": 9048,
      "ii.": 9049,
      "lower": 9050,
      "nouvelle": 9051,
      "ethno": 9052,
      "78": 9053,
      "hur": 9054,
      "ም፤": 9055,
      "በጋ": 9056,
      "በሌሎች": 9057,
      "ጣል።": 9058,
      "ፊልም": 9059,
      "light": 9060,
      "al.": 9061,
      "zamo": 9062,
      "kokarin": 9063,
      "aliji": 9064,
      "rée": 9065,
      "haifu": 9066,
      "አይሁ": 9067,
      "ክልት": 9068,
      "በማድረግ": 9069,
      "daraja": 9070,
      "እ.ኤ.አ": 9071,
      "ujerumani.": 9072,
      "ቀበሌ": 9073,
      "team0": 9074,
      "legas,": 9075,
      "construction": 9076,
      "ታሪኮች": 9077,
      "nairobi": 9078,
      "(8": 9079,
      "siè": 9080,
      "19.": 9081,
      "th.": 9082,
      "conse": 9083,
      "ahmad": 9084,
      "london,": 9085,
      "arthur": 9086,
      "madaga": 9087,
      "names": 9088,
      "yant": 9089,
      "ories": 9090,
      "1936": 9091,
      "britanni": 9092,
      "1–": 9093,
      "sv": 9094,
      "uliwa": 9095,
      "ለካ": 9096,
      "ሠር": 9097,
      "ንጫ": 9098,
      "ከሌሎች": 9099,
      "ጉባ": 9100,
      "kwallo": 9101,
      "olanzi": 9102,
      "፲፱፻፴": 9103,
      "ወቅቱ": 9104,
      "uholanzi": 9105,
      "mbalimbali.": 9106,
      "kaduna,": 9107,
      "ttuka": 9108,
      "ወታደራዊ": 9109,
      "succes": 9110,
      "ቴሌቪ": 9111,
      "rd2-score0": 9112,
      "maendeleo": 9113,
      "gla": 9114,
      "meri": 9115,
      "eritre": 9116,
      "burkina": 9117,
      "johannes": 9118,
      "algeria": 9119,
      "agbo": 9120,
      "dr": 9121,
      "tizo": 9122,
      "nature": 9123,
      "centra": 9124,
      "actors": 9125,
      "ሲሉ": 9126,
      "ተዋና": 9127,
      "ድግ": 9128,
      "kupan": 9129,
      "kiki": 9130,
      "nico": 9131,
      "gawan": 9132,
      "ri,": 9133,
      "five": 9134,
      "neja": 9135,
      "mot": 9136,
      "uniya": 9137,
      "faru": 9138,
      "tóbi": 9139,
      "moro": 9140,
      "kuanz": 9141,
      "lauya": 9142,
      "nombreux": 9143,
      "gudumma": 9144,
      "ወንጌል": 9145,
      "glas": 9146,
      "cipa": 9147,
      "somali": 9148,
      "aire": 9149,
      "début": 9150,
      "taires": 9151,
      "girl": 9152,
      "1903": 9153,
      "période": 9154,
      "quelques": 9155,
      "sweden": 9156,
      "korea": 9157,
      "h)": 9158,
      "midd": 9159,
      "rema": 9160,
      "qué": 9161,
      "gues": 9162,
      "jeux": 9163,
      "works": 9164,
      "polytechni": 9165,
      "ልሳ": 9166,
      "በሙ": 9167,
      "ታና": 9168,
      "ዘሮ": 9169,
      "የኬ": 9170,
      "የፋ": 9171,
      "ጆሮ": 9172,
      "ገዙ": 9173,
      "ጎት": 9174,
      "ጠኝ": 9175,
      "mahimman": 9176,
      "ener": 9177,
      "labari": 9178,
      "habu": 9179,
      "sain": 9180,
      "1924": 9181,
      "teach": 9182,
      "condu": 9183,
      "walimu": 9184,
      "commission": 9185,
      "ውስት": 9186,
      "mishwa": 9187,
      "ሲሆን፤": 9188,
      "jangwa": 9189,
      "jengo": 9190,
      "mutuwa": 9191,
      "agbaye": 9192,
      "europé": 9193,
      "pp.": 9194,
      "ይዘው": 9195,
      "ological": 9196,
      "sassan": 9197,
      "ተቋም": 9198,
      "wafuasi": 9199,
      "ọ̀jọ̀gbọ́n": 9200,
      "cteur": 9201,
      "flo": 9202,
      "zy": 9203,
      "ans,": 9204,
      "1916": 9205,
      "sett": 9206,
      "movement": 9207,
      "apollo": 9208,
      "ways": 9209,
      "dies": 9210,
      "requ": 9211,
      "office": 9212,
      "pe,": 9213,
      "politi": 9214,
      "famille": 9215,
      "senegal": 9216,
      "ìrìn": 9217,
      "ሆተ": 9218,
      "ማለ": 9219,
      "ማም": 9220,
      "ሲስ": 9221,
      "በ17": 9222,
      "ኖረው": 9223,
      "እዚያ": 9224,
      "ኪ.": 9225,
      "ጀም": 9226,
      "ጨር": 9227,
      "ọkùnrin": 9228,
      "tilẹ̀": 9229,
      "kihistoria": 9230,
      "nílé": 9231,
      "yo,": 9232,
      "el,": 9233,
      "በአለም": 9234,
      "በአውሮፓ": 9235,
      "said": 9236,
      "occi": 9237,
      "እንዳል": 9238,
      "èyí,": 9239,
      "(2016)": 9240,
      "sábà": 9241,
      "rubutun": 9242,
      "ለያየ": 9243,
      "ƙarshen": 9244,
      "ማዕረግ": 9245,
      "territoire": 9246,
      "ወዳጅ": 9247,
      "benedik": 9248,
      "lity": 9249,
      "salon": 9250,
      "depart": 9251,
      "regis": 9252,
      "viol": 9253,
      "kéré": 9254,
      "kimo": 9255,
      "zambi": 9256,
      "soviet": 9257,
      "barka": 9258,
      "mée": 9259,
      "eux": 9260,
      "ikawa": 9261,
      "èkìtì": 9262,
      "ራሪ": 9263,
      "ተገደ": 9264,
      "ቻር": 9265,
      "ኩር": 9266,
      "ካቢ": 9267,
      "ካድ": 9268,
      "ውሮ": 9269,
      "የሕዝብ": 9270,
      "ይላል": 9271,
      "ዱት": 9272,
      "ጠባ": 9273,
      "፲፯": 9274,
      "tamba": 9275,
      "kigiriki": 9276,
      "uswi": 9277,
      "chakula": 9278,
      "አንተ": 9279,
      "benue": 9280,
      "መልስ": 9281,
      "ናቸውም": 9282,
      "makarantun": 9283,
      "ይችላል": 9284,
      "janairun": 9285,
      "የሚለውን": 9286,
      "pasifiki": 9287,
      "volkeno": 9288,
      "un.": 9289,
      "poet": 9290,
      "war,": 9291,
      "abra": 9292,
      "spain": 9293,
      "support": 9294,
      "zur": 9295,
      "inji": 9296,
      "tale": 9297,
      "diplo": 9298,
      "though": 9299,
      "mouve": 9300,
      "frederi": 9301,
      "(o": 9302,
      "21,": 9303,
      "700": 9304,
      "musu": 9305,
      "ns": 9306,
      "rani": 9307,
      "èwe": 9308,
      "መቱ": 9309,
      "ረጥ": 9310,
      "ተወለዱ": 9311,
      "አነ": 9312,
      "ክቶ": 9313,
      "ጀራ": 9314,
      "ጋገ": 9315,
      "ጓደ": 9316,
      "ọrọ": 9317,
      "wafalme": 9318,
      "half": 9319,
      "za,": 9320,
      "seven": 9321,
      "yarin": 9322,
      "yar'adu": 9323,
      "adadin": 9324,
      "dunia.": 9325,
      "አንጻ": 9326,
      "የመስ": 9327,
      "አብዛ": 9328,
      "ባለቤት": 9329,
      "paswa": 9330,
      "mẹ́fà": 9331,
      "አውሮ": 9332,
      "ወጣት": 9333,
      "በቀር": 9334,
      "various": 9335,
      "ሀገሪቱ": 9336,
      "ile-iṣẹ": 9337,
      "ዝናብ": 9338,
      "kowace": 9339,
      "ma’aika": 9340,
      "karùn-ún": 9341,
      "spéci": 9342,
      "khan": 9343,
      "pc": 9344,
      "endo": 9345,
      "esa": 9346,
      "roi": 9347,
      "ly.": 9348,
      "sultan": 9349,
      "considered": 9350,
      "ropo": 9351,
      "given": 9352,
      "shika": 9353,
      "kenne": 9354,
      "georgia": 9355,
      "devient": 9356,
      "protestan": 9357,
      "cun": 9358,
      "ijọba": 9359,
      "{{": 9360,
      "économi": 9361,
      "ሉ፡": 9362,
      "ስዊ": 9363,
      "ቆር": 9364,
      "ኒክ": 9365,
      "ከ1892": 9366,
      "ዚል": 9367,
      "የቋንቋ": 9368,
      "የያዘ": 9369,
      "ዳቤ": 9370,
      "ጸሓ": 9371,
      "ፋር": 9372,
      "wafanya": 9373,
      "haj": 9374,
      "division": 9375,
      "aland": 9376,
      "zabi": 9377,
      "termin": 9378,
      "2003,": 9379,
      "wọ́pọ̀": 9380,
      "farfesa": 9381,
      "ደረሱ": 9382,
      "ሮችን": 9383,
      "gidauniyar": 9384,
      "dínlọ́gbọ̀n": 9385,
      "ፈላስፋ": 9386,
      "ṣáájú": 9387,
      "mchezaji": 9388,
      "አነጋገር": 9389,
      "62": 9390,
      "73": 9391,
      "ecu": 9392,
      "ebon": 9393,
      "ushi": 9394,
      "propo": 9395,
      "tunisi": 9396,
      "explo": 9397,
      "13,": 9398,
      "case": 9399,
      "décou": 9400,
      "reno": 9401,
      "kris": 9402,
      "መሥ": 9403,
      "ምሁ": 9404,
      "የሳ": 9405,
      "ጣቢያ": 9406,
      "ፍርድ": 9407,
      "ẹnu": 9408,
      "anc": 9409,
      "madi": 9410,
      "onin": 9411,
      "tial": 9412,
      "develo": 9413,
      "al’": 9414,
      "ke.": 9415,
      "ros": 9416,
      "lopo": 9417,
      "sement": 9418,
      "የአካባቢ": 9419,
      "jos": 9420,
      "oni,": 9421,
      "kasa,": 9422,
      "አልጋ": 9423,
      "kaizari": 9424,
      "pẹ̀pẹ̀": 9425,
      "kofar": 9426,
      "ojú-": 9427,
      "http://en.wikipedia.org/wiki/": 9428,
      "ተወዳ": 9429,
      "ጠረዥ": 9430,
      "አድርገው": 9431,
      "prise": 9432,
      "የአፍሪካ": 9433,
      "economic": 9434,
      "victoria": 9435,
      "(ccm)": 9436,
      "fc": 9437,
      "nus": 9438,
      "kas": 9439,
      "yau,": 9440,
      "isele": 9441,
      "zam": 9442,
      "nelle": 9443,
      "modi": 9444,
      "qu’": 9445,
      "experi": 9446,
      "julius": 9447,
      "\">": 9448,
      "online": 9449,
      "total": 9450,
      "deven": 9451,
      "domo": 9452,
      "consis": 9453,
      "bern": 9454,
      "still": 9455,
      "tanganyika": 9456,
      "74": 9457,
      "gno": 9458,
      "oǹ": 9459,
      "ማቸው": 9460,
      "በሁለት": 9461,
      "ቾች": 9462,
      "ነች።": 9463,
      "አሁንም": 9464,
      "haƙ": 9465,
      "left": 9466,
      "billi": 9467,
      "oluse": 9468,
      "láyé": 9469,
      "መንበር": 9470,
      "shekarata": 9471,
      "tendo": 9472,
      "15.": 9473,
      "ንጉሱ": 9474,
      "alaba": 9475,
      "መስመር": 9476,
      "አብያተ": 9477,
      "saudi": 9478,
      "ከዚህም": 9479,
      "city,": 9480,
      "ṣẹlẹ̀": 9481,
      "zinare": 9482,
      "nigbati": 9483,
      "iwoorun": 9484,
      "láàárín": 9485,
      "haɓaka": 9486,
      "shughuli": 9487,
      "entertainment": 9488,
      "(5": 9489,
      "gga": 9490,
      "k)": 9491,
      "ley,": 9492,
      "turi": 9493,
      "25,": 9494,
      "nouveau": 9495,
      "whe": 9496,
      "tient": 9497,
      "isme": 9498,
      "ana,": 9499,
      "2004.": 9500,
      "carri": 9501,
      "structure": 9502,
      "building": 9503,
      "bwana": 9504,
      "emb": 9505,
      "hani": 9506,
      "ìwọ̀n": 9507,
      "ሄደው": 9508,
      "ሉም": 9509,
      "ሙ።": 9510,
      "ማስተ": 9511,
      "ስጦ": 9512,
      "ተሳ": 9513,
      "የና": 9514,
      "ያቸው": 9515,
      "ዲን": 9516,
      "ante": 9517,
      "maandishi": 9518,
      "taarifa": 9519,
      "lambobin": 9520,
      "cibi": 9521,
      "jigawa": 9522,
      "እናንተ": 9523,
      "ማርቆ": 9524,
      "tunde": 9525,
      "olómìnira": 9526,
      "shugabannin": 9527,
      "jaribu": 9528,
      "ገደማ": 9529,
      "bishop": 9530,
      "ረብኛ": 9531,
      "seed0": 9532,
      "tsuntsu": 9533,
      "président": 9534,
      "ተደርጎ": 9535,
      "mtunzi": 9536,
      "ቴሌቪዥን": 9537,
      "jamai": 9538,
      "dant": 9539,
      "design": 9540,
      "1941": 9541,
      "communication": 9542,
      "elizabeth": 9543,
      "cke": 9544,
      "l)": 9545,
      "qa": 9546,
      "kash": 9547,
      "big": 9548,
      "fi,": 9549,
      "pala": 9550,
      "thu": 9551,
      "mance": 9552,
      "provi": 9553,
      "mkatoliki": 9554,
      "ndo": 9555,
      "oce": 9556,
      "p,": 9557,
      "ላፊ": 9558,
      "ሌሎቹ": 9559,
      "ቁስ": 9560,
      "ተከተለው": 9561,
      "ቷል": 9562,
      "ነብ": 9563,
      "አዛ": 9564,
      "እ.አ": 9565,
      "ኮር": 9566,
      "የኪ": 9567,
      "ይድ": 9568,
      "ደሴቶች": 9569,
      "፡ግን": 9570,
      "sage": 9571,
      "kidemokrasia": 9572,
      "hijira": 9573,
      "1927": 9574,
      "miiran": 9575,
      "tulus": 9576,
      "du,": 9577,
      "yemi": 9578,
      "በመጀመሪያ": 9579,
      "1932": 9580,
      "ደብዳቤ": 9581,
      "aṣọ": 9582,
      "olú-": 9583,
      "command": 9584,
      "ilaorun": 9585,
      "òṣìṣẹ́": 9586,
      "igbesi": 9587,
      "exemple": 9588,
      "columbia": 9589,
      "kìíní": 9590,
      "የአየርላንድ": 9591,
      "khalifa": 9592,
      "ulaya.": 9593,
      "é,": 9594,
      "ôle": 9595,
      "tie": 9596,
      "togo": 9597,
      "sib": 9598,
      "co-": 9599,
      "ca,": 9600,
      "2004,": 9601,
      "atten": 9602,
      "henri": 9603,
      "single": 9604,
      "global": 9605,
      "littéra": 9606,
      "ije": 9607,
      "ልስ": 9608,
      "da:": 9609,
      "demi": 9610,
      "fati": 9611,
      "bob": 9612,
      "stone": 9613,
      "yin,": 9614,
      "1931": 9615,
      "antoni": 9616,
      "vietnam": 9617,
      "dres": 9618,
      "r,": 9619,
      "sùn": 9620,
      "vun": 9621,
      "ሉ፡፡": 9622,
      "መ።": 9623,
      "ማማ": 9624,
      "ተብ": 9625,
      "ቶሎ": 9626,
      "አዲሱ": 9627,
      "ው።": 9628,
      "ዎስ": 9629,
      "ጣዊ": 9630,
      "ጥላ": 9631,
      "ṣọ̀": 9632,
      "yame": 9633,
      "alber": 9634,
      "yaran": 9635,
      "boolu": 9636,
      "yuli": 9637,
      "dès": 9638,
      "garet": 9639,
      "በተሰ": 9640,
      "መልዕ": 9641,
      "ሆኑ።": 9642,
      "wataalamu": 9643,
      "chukwu": 9644,
      "mẹ́tà": 9645,
      "siyasar": 9646,
      "ዘርፍ": 9647,
      "written": 9648,
      "principal": 9649,
      "fried": 9650,
      "ይመስላል": 9651,
      "kufikia": 9652,
      "actress": 9653,
      "horo": 9654,
      "thy": 9655,
      "pius": 9656,
      "justi": 9657,
      "(en": 9658,
      "uz": 9659,
      "arri": 9660,
      "kogi": 9661,
      "pale": 9662,
      "tutu": 9663,
      "mata,": 9664,
      "mise": 9665,
      "tique,": 9666,
      "direct": 9667,
      "%,": 9668,
      "kisa": 9669,
      "lọ̀": 9670,
      "ìlù": 9671,
      "île": 9672,
      "ሌስ": 9673,
      "ማንም": 9674,
      "ቀለም": 9675,
      "በ18": 9676,
      "ነዋ": 9677,
      "ነጥብ": 9678,
      "አወ": 9679,
      "አጭር": 9680,
      "ከያ": 9681,
      "ውሻ": 9682,
      "ጂኦ": 9683,
      "ግያ": 9684,
      "ግብር": 9685,
      "wajerumani": 9686,
      "gbùn": 9687,
      "robo": 9688,
      "yio": 9689,
      "የሚነገር": 9690,
      "18,": 9691,
      "jours": 9692,
      "tures": 9693,
      "upin": 9694,
      "እንዲሆን": 9695,
      "በኋላ፣": 9696,
      "መልካም": 9697,
      "ቅርጽ": 9698,
      "zilikuwa": 9699,
      "ወሰን": 9700,
      "kisiasa": 9701,
      "fasahar": 9702,
      "ስፋት": 9703,
      "''(": 9704,
      "ዘጋጀ": 9705,
      "makka": 9706,
      "wakilci": 9707,
      "lórílẹ̀-èdè": 9708,
      "ጽሁፍ": 9709,
      "ian": 9710,
      "ers,": 9711,
      "unded": 9712,
      "chus": 9713,
      "sheikh": 9714,
      "body": 9715,
      "1938": 9716,
      "appelé": 9717,
      "flight": 9718,
      "pulitzer": 9719,
      "(ma": 9720,
      "abí": 9721,
      "mè": 9722,
      "dail": 9723,
      "mano": 9724,
      "adop": 9725,
      "unesco": 9726,
      "ples": 9727,
      "ão": 9728,
      "ላስ": 9729,
      "ራሽ": 9730,
      "ራኒ": 9731,
      "በ2": 9732,
      "ኤስ": 9733,
      "ኦርቶዶክስ": 9734,
      "ወራት": 9735,
      "ጥፋት": 9736,
      "wadogo": 9737,
      "magun": 9738,
      "mabiya": 9739,
      "namna": 9740,
      "lett": 9741,
      "እስፓን": 9742,
      "lówó": 9743,
      "enea": 9744,
      "asiya": 9745,
      "karibi": 9746,
      "1890": 9747,
      "yẹn": 9748,
      "ጀርመ": 9749,
      "tsibirin": 9750,
      "aliyekuwa": 9751,
      "turawa": 9752,
      "ማቴዎስ፣": 9753,
      "tobijulo": 9754,
      "cription": 9755,
      "ጸሐፊ": 9756,
      "olóòtú": 9757,
      "ayọrí": 9758,
      "s:": 9759,
      "étant": 9760,
      "nasa": 9761,
      "rights": 9762,
      "came": 9763,
      "week": 9764,
      "conqu": 9765,
      "feli": 9766,
      "england": 9767,
      "droit": 9768,
      "développement": 9769,
      "individu": 9770,
      "mka": 9771,
      "vor": 9772,
      "mkataba": 9773,
      "rê": 9774,
      "ugiriki": 9775,
      "àbú": 9776,
      "ሃይል": 9777,
      "ራች": 9778,
      "ሸት": 9779,
      "በፊ": 9780,
      "ቦችን": 9781,
      "ታኅሣሥ": 9782,
      "ቴን": 9783,
      "ኢያ": 9784,
      "የደቡብ": 9785,
      "የትምህርት": 9786,
      "ይበ": 9787,
      "ግኘት": 9788,
      "waafrika": 9789,
      "esha": 9790,
      "kuishi": 9791,
      "kulingana": 9792,
      "1912": 9793,
      "tum": 9794,
      "soul": 9795,
      "mbur": 9796,
      "aiwa": 9797,
      "ghter": 9798,
      "train": 9799,
      "makai": 9800,
      "gabas,": 9801,
      "mánì": 9802,
      "hadithi": 9803,
      "wakilai": 9804,
      "የሚያሳይ": 9805,
      "ተቀባይ": 9806,
      "ተመሠረተ": 9807,
      "idris": 9808,
      "ፍራን": 9809,
      "wayahudi": 9810,
      "bẹrẹ": 9811,
      "abeo": 9812,
      "taimakawa": 9813,
      "ዘፋኝ": 9814,
      "የሚኖርበት": 9815,
      "ተቀምጦ": 9816,
      "kiwango": 9817,
      "jam’iyyar": 9818,
      "ወዲያው": 9819,
      "51": 9820,
      "pron": 9821,
      "spo": 9822,
      "vana": 9823,
      "laur": 9824,
      "baby": 9825,
      "hehe": 9826,
      "sima": 9827,
      "margaret": 9828,
      "gue.": 9829,
      "lum": 9830,
      "master": 9831,
      "1933": 9832,
      "font": 9833,
      "états-un": 9834,
      "emperor": 9835,
      "éris": 9836,
      "kumi": 9837,
      "offi": 9838,
      "fila": 9839,
      "role": 9840,
      "story": 9841,
      "study": 9842,
      "progressive": 9843,
      "pouvoir": 9844,
      "(ዘመነ": 9845,
      "ifá": 9846,
      "vingine": 9847,
      "yn": 9848,
      "ሃን": 9849,
      "መፍ": 9850,
      "ሠን": 9851,
      "በ14": 9852,
      "ባሪ": 9853,
      "የወጣ": 9854,
      "ditions": 9855,
      "yan'": 9856,
      "etc.": 9857,
      "ውስጡ": 9858,
      "kòró": 9859,
      "አገኘ": 9860,
      "moroko": 9861,
      "ƙabi": 9862,
      "አስረ": 9863,
      "ነበሩት": 9864,
      "እንዳለ": 9865,
      "እንዳለው": 9866,
      "እርሻ": 9867,
      "(2015)": 9868,
      "ƙarni": 9869,
      "imepakana": 9870,
      "ìdìbò": 9871,
      "አዳድ": 9872,
      "galibi": 9873,
      "ondoka": 9874,
      "(እንግሊዝኛ፦": 9875,
      "አይደለም።": 9876,
      "ግዛቶች": 9877,
      "የለውም": 9878,
      "masallacin": 9879,
      "kidayar": 9880,
      "kirkiro": 9881,
      "ọpọlọpọ": 9882,
      "adúlá": 9883,
      "makaizari": 9884,
      "took": 9885,
      "tsare": 9886,
      "particular": 9887,
      "azi": 9888,
      "ግዕዝ": 9889,
      "night": 9890,
      "sud-": 9891,
      "statu": 9892,
      "astrono": 9893,
      "république": 9894,
      "travail": 9895,
      ":ተረትና": 9896,
      "eme": 9897,
      "rere": 9898,
      "መያያዣ": 9899,
      "ስልጣን": 9900,
      "ቀላ": 9901,
      "ቦን": 9902,
      "ጆን": 9903,
      "ገላ": 9904,
      "ጉም": 9905,
      "ጣሊያን": 9906,
      "ጨው": 9907,
      "ጽላት": 9908,
      "ọmọdé": 9909,
      "mauri": 9910,
      "kujenga": 9911,
      "leda": 9912,
      "hitaji": 9913,
      "tolewa": 9914,
      "katikati": 9915,
      "stri": 9916,
      "without": 9917,
      "tree": 9918,
      "prime": 9919,
      "sana.": 9920,
      "አበበ": 9921,
      "count": 9922,
      "rikicin": 9923,
      "የነበረውን": 9924,
      "nauyin": 9925,
      "abubuwa": 9926,
      "professor": 9927,
      "እድሜ": 9928,
      "philosophi": 9929,
      "gundumar": 9930,
      "በዓል": 9931,
      "jagorancin": 9932,
      "mediterane": 9933,
      "ማርቆስና": 9934,
      "(ti": 9935,
      "mr": 9936,
      "oga": 9937,
      "ught": 9938,
      "vingi": 9939,
      "lion": 9940,
      "christo": 9941,
      "contribu": 9942,
      "jo,": 9943,
      "1960,": 9944,
      "23,": 9945,
      "bility": 9946,
      "in-": 9947,
      "accep": 9948,
      "aristo": 9949,
      "s’": 9950,
      "ute": 9951,
      "መክ": 9952,
      "ራክ": 9953,
      "በ1": 9954,
      "በሆነ": 9955,
      "ቧል።": 9956,
      "አሞ": 9957,
      "የራሱ": 9958,
      "ፋስ": 9959,
      "islam": 9960,
      "hei": 9961,
      "sali": 9962,
      "ur,": 9963,
      "mikubwa": 9964,
      "albarka": 9965,
      "kemis": 9966,
      "duguri": 9967,
      "jahar": 9968,
      "ziyar": 9969,
      "yancin": 9970,
      "2003.": 9971,
      "በተባለ": 9972,
      "phone": 9973,
      "ናቸው፡፡": 9974,
      "wake,": 9975,
      "inspi": 9976,
      "fasiti": 9977,
      "masomo": 9978,
      "ዘርላንድ": 9979,
      "magharibi.": 9980,
      "አፍሪቃ": 9981,
      "services": 9982,
      "በመሆኑ)": 9983,
      "ሰነድ": 9984,
      "አጠገብ": 9985,
      "uwezo": 9986,
      "museum": 9987,
      "የሥግር": 9988,
      "nadhari": 9989,
      "ኪ.ሜ": 9990,
      "እ.አ.አ.": 9991,
      "(20": 9992,
      "pere": 9993,
      "bibi": 9994,
      "aries": 9995,
      "coll": 9996,
      "ini.": 9997,
      "ginin": 9998,
      "girls": 9999
    },
    "merges": [
      [
        "a",
        "n"
      ],
      [
        "a",
        "r"
      ],
      [
        "i",
        "n"
      ],
      [
        "w",
        "a"
      ],
      [
        "k",
        "a"
      ],
      [
        "m",
        "a"
      ],
      [
        "y",
        "a"
      ],
      [
        "d",
        "a"
      ],
      [
        "t",
        "a"
      ],
      [
        "o",
        "n"
      ],
      [
        "t",
        "i"
      ],
      [
        "e",
        "r"
      ],
      [
        "e",
        "n"
      ],
      [
        "l",
        "i"
      ],
      [
        "u",
        "n"
      ],
      [
        "l",
        "a"
      ],
      [
        "e",
        "s"
      ],
      [
        "b",
        "a"
      ],
      [
        "n",
        "a"
      ],
      [
        "i",
        "s"
      ],
      [
        "o",
        "r"
      ],
      [
        "k",
        "u"
      ],
      [
        "h",
        "a"
      ],
      [
        "h",
        "e"
      ],
      [
        "s",
        "a"
      ],
      [
        "l",
        "e"
      ],
      [
        "k",
        "i"
      ],
      [
        "h",
        "i"
      ],
      [
        "t",
        "o"
      ],
      [
        "d",
        "e"
      ],
      [
        "s",
        "i"
      ],
      [
        "u",
        "r"
      ],
      [
        "n",
[...]
