{
  "version": "1.0",
  "truncation": null,
  "padding": null,
  "added_tokens": [
    {
      "id": 0,
      "content": "<pad>",
      "single_word": false,
      "lstrip": false,
      "rstrip": false,
      "normalized": false,
      "special": true
    },
    {
      "id": 1,
      "content": "<bos>",
      "single_word": false,
      "lstrip": false,
      "rstrip": false,
      "normalized": false,
      "special": true
    },
    {
      "id": 2,
      "content": "<eos>",
      "single_word": false,
      "lstrip": false,
      "rstrip": false,
      "normalized": false,
      "special": true
    }
  ],
  "normalizer": {
    "type": "Sequence",
    "normalizers": [
      {
        "type": "NFC"
      }
    ]
  },
  "pre_tokenizer": {
    "type": "ByteLevel",
    "add_prefix_space": false,
    "trim_offsets": true,
    "use_regex": false
  },
  "post_processor": {
    "type": "TemplateProcessing",
    "single": [
      {
        "SpecialToken": {
          "id": "<bos>",
          "type_id": 0
        }
      },
      {
        "Sequence": {
          "id": "A",
          "type_id": 0
        }
      },
      {
        "SpecialToken": {
          "id": "<eos>",
          "type_id": 0
        }
      }
    ],
    "pair": [
      {
        "SpecialToken": {
          "id": "<bos>",
          "type_id": 0
        }
      },
      {
        "Sequence": {
          "id": "A",
          "type_id": 0
        }
      },
      {
        "SpecialToken": {
          "id": "<eos>",
          "type_id": 0
        }
      },
      {
        "SpecialToken": {
          "id": "<bos>",
          "type_id": 0
        }
      },
      {
        "Sequence": {
          "id": "B",
          "type_id": 0
        }
      },
      {
        "SpecialToken": {
          "id": "<eos>",
          "type_id": 0
        }
      }
    ],
    "special_tokens": {
      "<bos>": {
        "id": "<bos>",
        "ids": [
          1
        ],
        "tokens": [
          "<bos>"
        ]
      },
      "<eos>": {
        "id": "<eos>",
        "ids": [
          2
        ],
        "tokens": [
          "<eos>"
        ]
      }
    }
  },
  "decoder": {
    "type": "ByteLevel",
    "add_prefix_space": true,
    "trim_offsets": true,
    "use_regex": true
  },
  "model": {
    "type": "BPE",
    "dropout": null,
    "unk_token": null,
    "continuing_subword_prefix": null,
    "end_of_word_suffix": null,
    "fuse_unk": false,
    "byte_fallback": true,
    "ignore_merges": false,
    "vocab": {
      "<pad>": 0,
      "<bos>": 1,
      "<eos>": 2,
      "!": 3,
      "\"": 4,
      "#": 5,
      "$": 6,
      "%": 7,
      "&": 8,
      "'": 9,
      "(": 10,
      ")": 11,
      "*": 12,
      "+": 13,
      ",": 14,
      "-": 15,
      ".": 16,
      "/": 17,
      "0": 18,
      "1": 19,
      "2": 20,
      "3": 21,
      "4": 22,
      "5": 23,
      "6": 24,
      "7": 25,
      "8": 26,
      "9": 27,
      ":": 28,
      ";": 29,
      "<": 30,
      "=": 31,
      ">": 32,
      "?": 33,
      "@": 34,
      "A": 35,
      "B": 36,
      "C": 37,
      "D": 38,
      "E": 39,
      "F": 40,
      "G": 41,
      "H": 42,
      "I": 43,
      "J": 44,
      "K": 45,
      "L": 46,
      "M": 47,
      "N": 48,
      "O": 49,
      "P": 50,
      "Q": 51,
      "R": 52,
      "S": 53,
      "T": 54,
      "U": 55,
      "V": 56,
      "W": 57,
      "X": 58,
      "Y": 59,
      "Z": 60,
      "[": 61,
      "\\": 62,
      "]": 63,
      "^": 64,
      "_": 65,
      "`": 66,
      "a": 67,
      "b": 68,
      "c": 69,
      "d": 70,
      "e": 71,
      "f": 72,
      "g": 73,
      "h": 74,
      "i": 75,
      "j": 76,
      "k": 77,
      "l": 78,
      "m": 79,
      "n": 80,
      "o": 81,
      "p": 82,
      "q": 83,
      "r": 84,
      "s": 85,
      "t": 86,
      "u": 87,
      "v": 88,
      "w": 89,
      "x": 90,
      "y": 91,
      "z": 92,
      "{": 93,
      "|": 94,
      "}": 95,
      "~": 96,
      "¡": 97,
      "¢": 98,
      "£": 99,
      "¤": 100,
      "¥": 101,
      "¦": 102,
      "§": 103,
      "¨": 104,
      "©": 105,
      "ª": 106,
      "«": 107,
      "¬": 108,
      "®": 109,
      "¯": 110,
      "°": 111,
      "±": 112,
      "²": 113,
      "³": 114,
      "´": 115,
      "µ": 116,
      "¶": 117,
      "·": 118,
      "¸": 119,
      "¹": 120,
      "º": 121,
      "»": 122,
      "¼": 123,
      "½": 124,
      "¾": 125,
      "¿": 126,
      "À": 127,
      "Á": 128,
      "Â": 129,
      "Ã": 130,
      "Ä": 131,
      "Å": 132,
      "Æ": 133,
      "Ç": 134,
      "È": 135,
      "É": 136,
      "Ê": 137,
      "Ë": 138,
      "Ì": 139,
      "Í": 140,
      "Î": 141,
      "Ï": 142,
      "Ð": 143,
      "Ñ": 144,
      "Ò": 145,
      "Ó": 146,
      "Ô": 147,
      "Õ": 148,
      "Ö": 149,
      "×": 150,
      "Ø": 151,
      "Ù": 152,
      "Ú": 153,
      "Û": 154,
      "Ü": 155,
      "Ý": 156,
      "Þ": 157,
      "ß": 158,
      "à": 159,
      "á": 160,
      "â": 161,
      "ã": 162,
      "ä": 163,
      "å": 164,
      "æ": 165,
      "ç": 166,
      "è": 167,
      "é": 168,
      "ê": 169,
      "ë": 170,
      "ì": 171,
      "í": 172,
      "î": 173,
      "ï": 174,
      "ð": 175,
      "ñ": 176,
      "ò": 177,
      "ó": 178,
      "ô": 179,
      "õ": 180,
      "ö": 181,
      "÷": 182,
      "ø": 183,
      "ù": 184,
      "ú": 185,
      "û": 186,
      "ü": 187,
      "ý": 188,
      "þ": 189,
      "ÿ": 190,
      "Ā": 191,
      "ā": 192,
      "Ă": 193,
      "ă": 194,
      "Ą": 195,
      "ą": 196,
      "Ć": 197,
      "ć": 198,
      "Ĉ": 199,
      "ĉ": 200,
      "Ċ": 201,
      "ċ": 202,
      "Č": 203,
      "č": 204,
      "Ď": 205,
      "ď": 206,
      "Đ": 207,
      "đ": 208,
      "Ē": 209,
      "ē": 210,
      "Ĕ": 211,
      "ĕ": 212,
      "Ė": 213,
      "ė": 214,
      "Ę": 215,
      "ę": 216,
      "Ě": 217,
      "ě": 218,
      "Ĝ": 219,
      "ĝ": 220,
      "Ğ": 221,
      "ğ": 222,
      "Ġ": 223,
      "ġ": 224,
      "Ģ": 225,
      "ģ": 226,
      "Ĥ": 227,
      "ĥ": 228,
      "Ħ": 229,
      "ħ": 230,
      "Ĩ": 231,
      "ĩ": 232,
      "Ī": 233,
      "ī": 234,
      "Ĭ": 235,
      "ĭ": 236,
      "Į": 237,
      "į": 238,
      "İ": 239,
      "ı": 240,
      "Ĳ": 241,
      "ĳ": 242,
      "Ĵ": 243,
      "ĵ": 244,
      "Ķ": 245,
      "ķ": 246,
      "ĸ": 247,
      "Ĺ": 248,
      "ĺ": 249,
      "Ļ": 250,
      "ļ": 251,
      "Ľ": 252,
      "ľ": 253,
      "Ŀ": 254,
      "ŀ": 255,
      "Ł": 256,
      "ł": 257,
      "Ń": 258,
      "áĪ": 259,
      "aĠ": 260,
      "Ġá": 261,
      "áī": 262,
      "áĬ": 263,
      "áĭ": 264,
      "nĠ": 265,
      "eĠ": 266,
      "iĠ": 267,
      "ar": 268,
      "áĮ": 269,
      "Ġáĭ": 270,
      "ĠáĬ": 271,
      "an": 272,
      "ĠáĪ": 273,
      "áį": 274,
      "áĬķ": 275,
      "Ġáī": 276,
      ",Ġ": 277,
      "áīµ": 278,
      "sĠ": 279,
      "in": 280,
      "»į": 281,
      "ÃŃ": 282,
      "áĪŃ": 283,
      "at": 284,
      "al": 285,
      "oĠ": 286,
      "á»į": 287,
      "er": 288,
      "Ġáĭ¨": 289,
      "áĭį": 290,
      "Ãł": 291,
      "º¹": 292,
      "inĠ": 293,
      "waĠ": 294,
      "uĠ": 295,
      "am": 296,
      "yaĠ": 297,
      "łáĪ": 298,
      "Ã©": 299,
      "as": 300,
      "áº¹": 301,
      "áĪĿ": 302,
      "daĠ": 303,
      "ak": 304,
      "áĪį": 305,
      "anĠ": 306,
      "en": 307,
      "áĪµ": 308,
      "il": 309,
      "arĠ": 310,
      "ik": 311,
      "tĠ": 312,
      "on": 313,
      "or": 314,
      "is": 315,
      "áº¹Ì": 316,
      "Ã¬": 317,
      "ku": 318,
      "ÃŃĠ": 319,
      "áį¢": 320,
      "Ã¡": 321,
      "áĬĵ": 322,
      "Ġáīł": 323,
      "naĠ": 324,
      "áī°": 325,
      "it": 326,
      "áĭ«": 327,
      "áĪĪ": 328,
      "ĠáĮ": 329,
      "áĭŃ": 330,
      "áĪĺ": 331,
      "ĠáĬ¥": 332,
      "ab": 333,
      "á»įÌ": 334,
      "ur": 335,
      "áī½": 336,
      "ir": 337,
      "un": 338,
      "Ãº": 339,
      "esĠ": 340,
      "Ġt": 341,
      "ĠáĬł": 342,
      "19": 343,
      "sh": 344,
      "onĠ": 345,
      "ay": 346,
      "ch": 347,
      "taĠ": 348,
      "áĭ°": 349,
      "áĬĲ": 350,
      "Ã³": 351,
      "áī¥": 352,
      "el": 353,
      "áĪ¨": 354,
      "áĮĪ": 355,
      "es": 356,
      "gb": 357,
      "Ã¨": 358,
      "áĭµ": 359,
      ".Ġ": 360,
      "ad": 361,
      "om": 362,
      "áĪĭ": 363,
      "ĠáĬĲ": 364,
      "áĮį": 365,
      "ĠáĪĺ": 366,
      "ol": 367,
      "dĠ": 368,
      "im": 369,
      "áīł": 370,
      "deĠ": 371,
      "áĪ«": 372,
      "áī³": 373,
      "ĠáĬ¨": 374,
      "áº¹ÌĢ": 375,
      "20": 376,
      "áº¹Ìģ": 377,
      "á»įÌģ": 378,
      "Ġ(": 379,
      "em": 380,
      "niĠ": 381,
      "áĬŃ": 382,
      "iy": 383,
      "ag": 384,
      "heĠ": 385,
      "unĠ": 386,
      "áĪĽ": 387,
      "áĪ³": 388,
      "¹£": 389,
      "áī£": 390,
      "us": 391,
      "of": 392,
      "Ġáį": 393,
      "aĠm": 394,
      "Ã²": 395,
      ")Ġ": 396,
      "ic": 397,
      "ok": 398,
      "ul": 399,
      "a,Ġ": 400,
      "wá»į": 401,
      "áĬĽ": 402,
      "Ġáī°": 403,
      "Ã©Ġ": 404,
      "ut": 405,
      "áĪª": 406,
      "ĠáĭŃ": 407,
      "ĠáīłáĪ": 408,
      "Ġáĭ¨áĪ": 409,
      "ÃłĠ": 410,
      "yĠ": 411,
      "ĠáĬłáĪ": 412,
      "aĠk": 413,
      "af": 414,
      "áĪħ": 415,
      "um": 416,
      "aj": 417,
      "enĠ": 418,
      "áĮ¥": 419,
      "áĬ¨": 420,
      "áį£": 421,
      "ali": 422,
      "ĠáĪĿ": 423,
      "ek": 424,
      "âĢ": 425,
      "Ġáĭ¨áĬ": 426,
      "wan": 427,
      "ai": 428,
      "Ã¹": 429,
      "tiĠ": 430,
      "áį¡": 431,
      "ĠáĭĪ": 432,
      "ac": 433,
      "iaĠ": 434,
      "ing": 435,
      "laĠ": 436,
      "á¹£": 437,
      "áįį": 438,
      "áĭ³": 439,
      "a.": 440,
      "ĠáĬĲáĭį": 441,
      "áīĢ": 442,
      "Ġá»į": 443,
      "aw": 444,
      "uk": 445,
      "ap": 446,
      "qu": 447,
      "áĭ¨": 448,
      "wá»įnĠ": 449,
      "leĠ": 450,
      "ĠáĬ¥áĬķ": 451,
      "áĭĪ": 452,
      "ah": 453,
      "tr": 454,
      "e,Ġ": 455,
      "ib": 456,
      "áĪ°": 457,
      "áīħ": 458,
      "ig": 459,
      "Ã³Ġ": 460,
      "áĪĮ": 461,
      "áĬ«": 462,
      "erĠ": 463,
      "ati": 464,
      "ĠáĪĪ": 465,
      "id": 466,
      "á»įÌĢ": 467,
      "kum": 468,
      "aiĠ": 469,
      "az": 470,
      "áĬł": 471,
      "os": 472,
      "akaĠ": 473,
      "ot": 474,
      "ĠáĬĲáĭįáį¢": 475,
      "áº¹ÌĢĠ": 476,
      "araĠ": 477,
      "re": 478,
      "ĠáĪµ": 479,
      "áī¸": 480,
      "Ġáĭ«": 481,
      "iĠyaĠ": 482,
      "baĠ": 483,
      "áĪī": 484,
      "Ġáĭĵ": 485,
      "ĠA": 486,
      "ti": 487,
      "pr": 488,
      "ÆĻ": 489,
      "nÃŃĠ": 490,
      "áīłáĪ": 491,
      "áĭĬ": 492,
      "áĭĭ": 493,
      "áĪ®": 494,
      "ÃºnĠ": 495,
      "áī±": 496,
      "İáī½": 497,
      "neĠ": 498,
      "ÃĢ": 499,
      "áī¸áĭį": 500,
      "ceĠ": 501,
      "áįĪ": 502,
      "anaĠ": 503,
      "Ġáĭ¨áĪļ": 504,
      "op": 505,
      "áĭĿ": 506,
      "áº¹ÌģĠ": 507,
      "ÃºĠ": 508,
      ":Ġ": 509,
      "áĮ£": 510,
      "et": 511,
      "ish": 512,
      "-Ġ": 513,
      "áĪįáį¢": 514,
      "áĪĨ": 515,
      "ĠáĪĽ": 516,
      "entĠ": 517,
      "Ã¡Ġ": 518,
      "etĠ": 519,
      "áĭļ": 520,
      "áī¶": 521,
      "nÃŃ": 522,
      "áĪ³áĪĮ": 523,
      "áĮł": 524,
      "ug": 525,
      "ang": 526,
      "i,Ġ": 527,
      "áĮī": 528,
      "201": 529,
      "á»įĠ": 530,
      "áĮĭ": 531,
      "og": 532,
      "ofĠ": 533,
      "ĠáīłáĬ": 534,
      "áĭ®": 535,
      "le": 536,
      "iĠwaĠ": 537,
      "shek": 538,
      "200": 539,
      "ip": 540,
      "ĠáĪĿáĪ³áĪĮ": 541,
      "zaĠ": 542,
      "hi": 543,
      "uwaĠ": 544,
      "ob": 545,
      "kumaĠ": 546,
      "ist": 547,
      "ikaĠ": 548,
      "alĠ": 549,
      "andĠ": 550,
      "iyaĠ": 551,
      "iĠk": 552,
      "and": 553,
      "ĠáĪ²": 554,
      "edĠ": 555,
      "áĭ²": 556,
      "Ġk": 557,
      "ĠtheĠ": 558,
      "18": 559,
      "áĬķáĭµ": 560,
      "ĠáĮį": 561,
      "Ġáīµ": 562,
      "tok": 563,
      "od": 564,
      "ec": 565,
      "Ã¨Ġ": 566,
      "ent": 567,
      "áĭİáī½": 568,
      "if": 569,
      "Ġáĭĺ": 570,
      "ed": 571,
      "ikinĠ": 572,
      "áĪ¥": 573,
      "áīĥ": 574,
      "oj": 575,
      "e.": 576,
      "ub": 577,
      "áĬĸ": 578,
      "áĪŀ": 579,
      "all": 580,
      "áĭĺ": 581,
      "akeĠ": 582,
      "iv": 583,
      "iĠm": 584,
      "asĠ": 585,
      "Ġáĭ¨áī°": 586,
      "ud": 587,
      "i.": 588,
      "ÌĢ": 589,
      "th": 590,
      "lÃ¡": 591,
      "tÃŃĠ": 592,
      "fr": 593,
      "ash": 594,
      "ĠáĬ¥áĬĵ": 595,
      "áĬĲáīµ": 596,
      "ĠáĪ°": 597,
      "Ġáī¥": 598,
      "áĬ¥": 599,
      "ou": 600,
      "eĠd": 601,
      "ij": 602,
      "áĪĬ": 603,
      "aniĠ": 604,
      "áĪ©": 605,
      "ÃĮ": 606,
      "amaĠ": 607,
      "Ġs": 608,
      "ih": 609,
      "wat": 610,
      "ow": 611,
      "Ġáĭį": 612,
      "áĪĻ": 613,
      "isĠ": 614,
      "amb": 615,
      "lesĠ": 616,
      "av": 617,
      "Al": 618,
      "áĬķáĮį": 619,
      "00": 620,
      "atiĠ": 621,
      "ĠáīĢ": 622,
      "kas": 623,
      "ant": 624,
      "theĠ": 625,
      "áīłáĪŃ": 626,
      "ĭáĭŃ": 627,
      "Ġáº¹": 628,
      "Ġáĭ°": 629,
      "ĠáĬ¥áĬķáĭ°": 630,
      "toĠ": 631,
      "Ġd": 632,
      "áĭĽ": 633,
      "rÃŃ": 634,
      "Ġáĭ¨áĬłáĪ": 635,
      "ung": 636,
      "agaĠ": 637,
      "cikinĠ": 638,
      "st": 639,
      "our": 640,
      "áĪļ": 641,
      "ĠáĬŃ": 642,
      "áĪİ": 643,
      "jeĠ": 644,
      "wakaĠ": 645,
      "l'": 646,
      "áĮħ": 647,
      "áī²": 648,
      "Mar": 649,
      "áī¢": 650,
      "au": 651,
      "ov": 652,
      "Ã²Ġ": 653,
      "Ġá¹£": 654,
      "oc": 655,
      "Ãłwá»įnĠ": 656,
      "áĬĳ": 657,
      "auĠ": 658,
      "áįĭ": 659,
      "Ch": 660,
      "ĠáĪį": 661,
      "ikiĠ": 662,
      "anc": 663,
      "ĠtÃŃĠ": 664,
      "ew": 665,
      "),Ġ": 666,
      "for": 667,
      "Ã¬Ġ": 668,
      "nd": 669,
      "estĠ": 670,
      "Â«": 671,
      "ann": 672,
      "ind": 673,
      "ans": 674,
      "199": 675,
      "áĬĿ": 676,
      "con": 677,
      "AĠ": 678,
      "áĪ±": 679,
      "áį¤": 680,
      "ep": 681,
      "áĪĨáĬķ": 682,
      "oy": 683,
      "áĪ½": 684,
      "ts": 685,
      "o,Ġ": 686,
      "áĮİ": 687,
      "areĠ": 688,
      "ark": 689,
      "iĠnaĠ": 690,
      "oĠyaĠ": 691,
      "adaĠ": 692,
      "ĠáĪĭáĭŃ": 693,
      "áĭ«áĬķ": 694,
      "áĪĪáĭį": 695,
      "shekar": 696,
      "ÃĢwá»įnĠ": 697,
      "Ġáī³": 698,
      "Â»": 699,
      "pl": 700,
      "Ġáĭµ": 701,
      "usĠ": 702,
      "ÉĹ": 703,
      "was": 704,
      "ÅĦ": 705,
      "áĪŃáĬĽ": 706,
      "aĠyaĠ": 707,
      "iz": 708,
      "áĭ±": 709,
      "ÃłtiĠ": 710,
      "áĪģ": 711,
      "Ġáī£": 712,
      "áº¹Ġ": 713,
      "á»įÌģĠ": 714,
      "hu": 715,
      "elĠ": 716,
      "ter": 717,
      "âĢĻ": 718,
      "á»įÌģnĠ": 719,
      "ain": 720,
      "Ġá»įd": 721,
      "ng": 722,
      "com": 723,
      "bÃŃĠ": 724,
      "Ã©r": 725,
      "gaĠ": 726,
      "dagaĠ": 727,
      "áĭļáĪħ": 728,
      "¢áīµ": 729,
      "waĠm": 730,
      "anz": 731,
      "iyarĠ": 732,
      "ĽáĪŃáĬĽ": 733,
      "¢áīµáĭ®": 734,
      "áĮµ": 735,
      "á»įÌĢĠ": 736,
      "áĬĴ": 737,
      "aĠnaĠ": 738,
      "amm": 739,
      "áĭķ": 740,
      "e-": 741,
      "áīĨ": 742,
      "áĮĢ": 743,
      "ÃłnĠ": 744,
      "ĠáīłáĪĺ": 745,
      "¢áīµáĭ®áĮµ": 746,
      "ation": 747,
      "aif": 748,
      "0Ġ": 749,
      "jáº¹ÌģĠ": 750,
      "su": 751,
      "áĪĪáīµ": 752,
      "Am": 753,
      "áĮ½": 754,
      "a.Ġ": 755,
      "áĮĪáĪŃ": 756,
      "áĪ¬": 757,
      "Ġ1": 758,
      "oh": 759,
      "ion": 760,
      "ayaĠ": 761,
      "ataĠ": 762,
      "ÃŃl": 763,
      "wen": 764,
      "áī¡": 765,
      "waĠk": 766,
      "a'": 767,
      "áĪµáĮ¥": 768,
      "Sh": 769,
      "iniĠ": 770,
      "ationĠ": 771,
      "ingĠ": 772,
      "reĠ": 773,
      "ej": 774,
      "¢áīµáĭ®áĮµáĭ«": 775,
      "Ġáĭ¨áĬłáĪĽáĪŃáĬĽ": 776,
      "shiĠ": 777,
      "áĪ¨áīµ": 778,
      "ĠáĪĿáĪ³áĪĮĠáĬĲáĭįáį¢": 779,
      "TheĠ": 780,
      "uĠm": 781,
      "uw": 782,
      "uz": 783,
      "áīłáīµ": 784,
      "Ġáĭ¨áĬłáĪĽáĪŃáĬĽĠáĪĿáĪ³áĪĮĠáĬĲáĭįáį¢": 785,
      "ĠáĬĲáīłáĪŃ": 786,
      "daĠk": 787,
      "áĭľ": 788,
      "queĠ": 789,
      "ĠáĮ¥": 790,
      "198": 791,
      "áĪĺáĬķ": 792,
      ").": 793,
      "ariĠ": 794,
      "inaĠ": 795,
      "Wali": 796,
      "ĠM": 797,
      "atikaĠ": 798,
      "áĪ»": 799,
      "art": 800,
      "ats": 801,
      "awaĠ": 802,
      "ĠáĭĪáĭ°": 803,
      "ĠáĪĨ": 804,
      "wak": 805,
      "ĠáĮĪ": 806,
      "áĪµáīµ": 807,
      "âĢĵ": 808,
      "ĠáĬ¨áī°": 809,
      "ers": 810,
      ",Ġm": 811,
      "kanĠ": 812,
      "áī»": 813,
      "Ġ-Ġ": 814,
      "kutok": 815,
      "ĠáĬķ": 816,
      "ong": 817,
      "ajer": 818,
      "eg": 819,
      "rÃ©": 820,
      "áĭ©": 821,
      "eb": 822,
      "Ġá»įdÃºnĠ": 823,
      "end": 824,
      "siĠ": 825,
      "ank": 826,
      "wá»įn": 827,
      "air": 828,
      "197": 829,
      "ev": 830,
      "ex": 831,
      "ineĠ": 832,
      "áĭĵ": 833,
      "arĠdaĠ": 834,
      "áįĬ": 835,
      "Ã¨d": 836,
      ";Ġ": 837,
      "áĭįáĬķ": 838,
      "ez": 839,
      "196": 840,
      "áī¶áī½": 841,
      "sam": 842,
      "ráº¹ÌĢĠ": 843,
      "asiĠ": 844,
      "meĠ": 845,
      "Ã¬j": 846,
      "yeĠ": 847,
      "Najer": 848,
      "ĠáĬ¥áĪµ": 849,
      "ĠS": 850,
      "Itok": 851,
      "shekaraĠ": 852,
      "asaĠ": 853,
      "ĠáĭįáĪµáĮ¥": 854,
      "ÃŃn": 855,
      "ionĠ": 856,
      "ĠáĬłáĭŃ": 857,
      "áĪŃáĮī": 858,
      "ill": 859,
      "Ĭáĭľ": 860,
      "uneĠ": 861,
      "asarĠ": 862,
      "shekararĠ": 863,
      "up": 864,
      "áĮłáĪ": 865,
      "desĠ": 866,
      "áĪªáĭ«": 867,
      "áĬĶ": 868,
      "aut": 869,
      "ach": 870,
      "iwaĠ": 871,
      "áīĭ": 872,
      "ĠáĪģ": 873,
      "áĭ¶": 874,
      "wá»įÌģnĠ": 875,
      "ansĠ": 876,
      "ĠB": 877,
      "ani": 878,
      "antĠ": 879,
      "áĪ²": 880,
      "ileĠ": 881,
      "lÃºĠ": 882,
      "oz": 883,
      "yiĠ": 884,
      "áĬĽáĭį": 885,
      "áĬłáĪ": 886,
      "ayinĠ": 887,
      "ementĠ": 888,
      "áī¦": 889,
      "nch": 890,
      "áĭŃáĪĿ": 891,
      "anceĠ": 892,
      "»Į": 893,
      "ikuwaĠ": 894,
      "ass": 895,
      "Ab": 896,
      "oĠk": 897,
      "Ġ-": 898,
      "áĪŃáĪµ": 899,
      "áĬ¤": 900,
      "aĠdaĠ": 901,
      "áĪľ": 902,
      "Ġáīłáī°": 903,
      "any": 904,
      "áĪĲ": 905,
      "áĭĻ": 906,
      "ess": 907,
      "dÃ©": 908,
      "áĬ®": 909,
      "uh": 910,
      "oĠm": 911,
      "yÃ¬": 912,
      "gbaĠ": 913,
      "1Ġ": 914,
      "Afr": 915,
      ".ĠM": 916,
      "áī¤": 917,
      "Ġáīħ": 918,
      "o.": 919,
      "kutokaĠ": 920,
      "nÃ¡": 921,
      "lÃ³": 922,
      "ĠáĬłáĪµ": 923,
      "uc": 924,
      "und": 925,
      "ĠáĪ¥": 926,
      "aĠs": 927,
      "Ã¹Ġ": 928,
      "naĠm": 929,
      "Ġáī¤": 930,
      "ĠáĬ«": 931,
      "eur": 932,
      "ef": 933,
      "ĠáīµáĪŃáĮī": 934,
      "Ġáĭ¨áĪĺ": 935,
      "áĬ©": 936,
      "alaĠ": 937,
      "5Ġ": 938,
      "ĠáĮįáĬķ": 939,
      "áĪªáĬŃ": 940,
      "nÃŃn": 941,
      "ĠÂ«": 942,
      "wandaĠ": 943,
      "ĠáĬ¥áĬķáĭ²": 944,
      "2Ġ": 945,
      "arinĠ": 946,
      "ĠáĮĭ": 947,
      "Pr": 948,
      "ieĠ": 949,
      "Ġáĭ¨áĬł": 950,
      "abb": 951,
      "áīģ": 952,
      "Ã¹nĠ": 953,
      "áĮ¨": 954,
      "emb": 955,
      "17": 956,
      "aĠb": 957,
      "aĠcikinĠ": 958,
      "sÃŃĠ": 959,
      "áī¹": 960,
      "iharĠ": 961,
      "aur": 962,
      "shekaraĠtaĠ": 963,
      "áīłáĪ¨": 964,
      "Ar": 965,
      "ĠáĪ²áĪĨáĬķ": 966,
      "uĠyaĠ": 967,
      "Ã¨dÃ¨Ġ": 968,
      "d'": 969,
      "áį¡áį¡": 970,
      "s,Ġ": 971,
      "ĭáĪĭ": 972,
      "itaĠ": 973,
      "ni": 974,
      "ItokasiĠ": 975,
      "ofĠtheĠ": 976,
      "ĠtiĠ": 977,
      "áĮĥ": 978,
      "ugh": 979,
      "áĬŃáĪį": 980,
      "tar": 981,
      "áĪĥ": 982,
      "»áį": 983,
      "Il": 984,
      "iá¹£": 985,
      "wam": 986,
      "ĠáīµáĪŃáĮīáĪĻ": 987,
      "ĠáĬĲáīłáĪŃáį¢": 988,
      "ell": 989,
      "ĠáīłáĬł": 990,
      "ĠáĬłáĬķ": 991,
      "daĠs": 992,
      "16": 993,
      "áĪ´": 994,
      ".áĪĿ": 995,
      "u,Ġ": 996,
      "ioĠ": 997,
      "xĠ": 998,
      "4Ġ": 999,
      "195": 1000,
      "Ġáº¹ÌĢ": 1001,
      "ĠáĪ³": 1002,
      "²áį": 1003,
      "áī´": 1004,
      "eĠdeĠ": 1005,
      "inc": 1006,
      "láº¹ÌĢĠ": 1007,
      "In": 1008,
      "wa": 1009,
      "yaĠK": 1010,
      "fÃºnĠ": 1011,
      "3Ġ": 1012,
      "áĮŃ": 1013,
      "rinĠ": 1014,
      "ĠáĪĺáĬķáĮį": 1015,
      "Ġáĭ¨áĬłáĪĽáĪŃáĬĽĠáĪĿáĪ³áĪĮĠáĬĲáĭįáį¢ĠáīµáĪŃáĮīáĪĻ": 1016,
      "gbÃł": 1017,
      "duĠ": 1018,
      "biĠ": 1019,
      "es,Ġ": 1020,
      "ĠáĮĬáĭľ": 1021,
      "ran": 1022,
      "ĠáīĢáĬķ": 1023,
      "Ġáĭĭ": 1024,
      "uf": 1025,
      "bay": 1026,
      "agb": 1027,
      "ĠáĭĪáĭŃáĪĿ": 1028,
      "aĠtaĠ": 1029,
      "se": 1030,
      "áī³áīµ": 1031,
      "Jam": 1032,
      "par": 1033,
      "kar": 1034,
      "ri": 1035,
      "Ġáĭĵ.áĪĿ": 1036,
      "ny": 1037,
      "ith": 1038,
      "Ãĵ": 1039,
      "St": 1040,
      "est": 1041,
      "aninĠ": 1042,
      "áĪªáĬ«": 1043,
      "Ġá¹£eĠ": 1044,
      "ÃŃrÃŃ": 1045,
      "zuwaĠ": 1046,
      "war": 1047,
      "Ġá»įm": 1048,
      "Nob": 1049,
      "aliĠ": 1050,
      "ukaĠ": 1051,
      "icĠ": 1052,
      "Un": 1053,
      "ĠáĪµáĪĪ": 1054,
      "ĠáĬĵ": 1055,
      "ĠáĬłáĪĪ": 1056,
      "ereĠ": 1057,
      "áĪ¨áīµáĬĵ": 1058,
      "ÅĦĠ": 1059,
      "áĮ»": 1060,
      "ĠáĪĬ": 1061,
      "Ã©t": 1062,
      "raĠ": 1063,
      "Ġáī¢": 1064,
      "ĠáįĪ": 1065,
      "An": 1066,
      "atik": 1067,
      "ĠáĬ¥áĪµáĬ¨": 1068,
      "har": 1069,
      "parĠ": 1070,
      "áĪĪáĪĿ": 1071,
      "Ad": 1072,
      "jam": 1073,
      "ĠtoĠ": 1074,
      "suĠ": 1075,
      "ond": 1076,
      "Ġá»įÌĢ": 1077,
      "ĠáĬķáĮī": 1078,
      "ĠáīłáĬĭáĪĭ": 1079,
      "áĪ¨áīµáĬĵĠáĪĿáĪ³áĪĮ": 1080,
      "ilĠ": 1081,
      "atĠ": 1082,
      "acinĠ": 1083,
      "Ãłk": 1084,
      "áĪ¥áīµ": 1085,
      "NobelĠ": 1086,
      "had": 1087,
      "awonĠ": 1088,
      "áį»áį": 1089,
      "15": 1090,
      "ĠáĭŃáĪħ": 1091,
      "iw": 1092,
      "Ġá»Į": 1093,
      "\"Ġ": 1094,
      "ĠáĭĺáĪĺáĬķ": 1095,
      "6Ġ": 1096,
      "áĪ¨áĪµ": 1097,
      "áĬķáĪĿ": 1098,
      "Mak": 1099,
      "ais": 1100,
      "ro": 1101,
      "aĠd": 1102,
      "NÃł": 1103,
      "aadaĠ": 1104,
      "eri": 1105,
      "anĠk": 1106,
      "atsayinĠ": 1107,
      "ĠáĬŃáįį": 1108,
      "Kar": 1109,
      "áĪ®áī½": 1110,
      "anĠm": 1111,
      "áĪķ": 1112,
      "haif": 1113,
      "áĮ«": 1114,
      "Ġáī°áĪ¨áīµáĬĵĠáĪĿáĪ³áĪĮ": 1115,
      "ĠáĬ¨áī°áĪĽ": 1116,
      "u.": 1117,
      "tak": 1118,
      "7Ġ": 1119,
      "ciĠ": 1120,
      "rist": 1121,
      "194": 1122,
      "Ġá»įj": 1123,
      "NÃłÃ¬j": 1124,
      "aliwaĠ": 1125,
      "nÃŃnÃºĠ": 1126,
      "Ã¬n": 1127,
      "aĠy": 1128,
      "ontĠ": 1129,
      "imb": 1130,
      "NÃłÃ¬jÃŃrÃŃ": 1131,
      "eng": 1132,
      "iliĠ": 1133,
      "áĮĪáĬ": 1134,
      "áĭİ": 1135,
      "orĠ": 1136,
      "itĠ": 1137,
      "deĠlaĠ": 1138,
      "Ãłn": 1139,
      "Ol": 1140,
      "Ã¬y": 1141,
      "daĠm": 1142,
      "eoĠ": 1143,
      "ewaĠ": 1144,
      "uĠk": 1145,
      "watanĠ": 1146,
      "aĠf": 1147,
      "ĠáĭĵáĪĺ": 1148,
      "ersĠ": 1149,
      "rÃŃĠ": 1150,
      "wall": 1151,
      "orÃŃl": 1152,
      "aĠku": 1153,
      "Ãºn": 1154,
      "fir": 1155,
      "ich": 1156,
      "eĠ(": 1157,
      "áĪŃáĭ«": 1158,
      "ĠáĪĪáĪĺ": 1159,
      "áįĵ": 1160,
      "áĮĢáĪĺ": 1161,
      "Ġáĭķ": 1162,
      "8Ġ": 1163,
      "eĠs": 1164,
      "áī°áĬĽ": 1165,
      "amarĠ": 1166,
      "tÃŃĠÃ³Ġ": 1167,
      "aĠl": 1168,
      "Ã¬d": 1169,
      "att": 1170,
      "áĭ´": 1171,
      "Nig": 1172,
      "Ġáĭĵ.áĪĿ.": 1173,
      "Ġ2": 1174,
      "NajeriyaĠ": 1175,
      "Br": 1176,
      "eĠm": 1177,
      "lÃ©": 1178,
      "daĠy": 1179,
      "wonĠ": 1180,
      "áĮįáĪŀ": 1181,
      "aĠg": 1182,
      "a-": 1183,
      "tur": 1184,
      "s.": 1185,
      "erÃ©Ġ": 1186,
      "Ã¨r": 1187,
      "por": 1188,
      "áį¦": 1189,
      "Ġáĭ«áĪį": 1190,
      "wakaĠwaĠ": 1191,
      "Or": 1192,
      "oĠwaĠ": 1193,
      "áĭµáĪŃ": 1194,
      "ayeĠ": 1195,
      "Fr": 1196,
      "ourĠ": 1197,
      "|Ġ": 1198,
      "ĠáĮĢ": 1199,
      "fiĠ": 1200,
      "áĪ¶": 1201,
      "Walioz": 1202,
      "ĠáĬĲáĮĪ": 1203,
      "Ġáįį": 1204,
      "9Ġ": 1205,
      "ĠáĬ¢": 1206,
      "sÃ¬": 1207,
      "ibiĠ": 1208,
      "nanĠ": 1209,
      "unaĠ": 1210,
      "eu": 1211,
      "áī³áĭĪ": 1212,
      "As": 1213,
      "Th": 1214,
      "lÃ¡tiĠ": 1215,
      "Ġáīģ": 1216,
      "bir": 1217,
      "áīµáĬķ": 1218,
      "ĠáĪķ": 1219,
      "uĠwaĠ": 1220,
      "wasĠ": 1221,
      "ĠáĮĭáĪŃ": 1222,
      "II": 1223,
      "ityĠ": 1224,
      "ĠáīłáĪĽ": 1225,
      "aisĠ": 1226,
      "yaĠk": 1227,
      "kuwaĠ": 1228,
      "ofar": 1229,
      "utan": 1230,
      "áĬŃáĪįáīł": 1231,
      "Ġáį¡": 1232,
      "ayy": 1233,
      "áº¹ÌĢ-": 1234,
      "aĠmatsayinĠ": 1235,
      "áĪīáį¢": 1236,
      "ugab": 1237,
      "193": 1238,
      "lá»įÌģ": 1239,
      "áīĤ": 1240,
      "wali": 1241,
      "artaĠ": 1242,
      "AnĠ": 1243,
      "ey": 1244,
      "ĠáĭĵáĬŃáĪįáīł": 1245,
      "áĪİáī½": 1246,
      "Waliofar": 1247,
      "apaĠ": 1248,
      "áĮ¡": 1249,
      "funĠ": 1250,
      "ens": 1251,
      "uzoĠyaĠ": 1252,
      "áĭ°áĪ¨": 1253,
      "14": 1254,
      "gab": 1255,
      "ÆĻasarĠ": 1256,
      "pÃŃn": 1257,
      "e.Ġ": 1258,
      "anaz": 1259,
      "ká»įÌģĠ": 1260,
      "daĠkumaĠ": 1261,
      "Kan": 1262,
      "chaĠ": 1263,
      "urĠ": 1264,
      "ari": 1265,
      "ĠáĪļ": 1266,
      "¦áĪŃ": 1267,
      "TuzoĠyaĠ": 1268,
      "10": 1269,
      "ph": 1270,
      "Ġáĭ°áĮįáĪŀ": 1271,
      "oĠniĠ": 1272,
      "ĠáĬłáĬķáĭµ": 1273,
      "Is": 1274,
      "Ib": 1275,
      "áĭ°áĪŃ": 1276,
      "ins": 1277,
      "ĠáĬłáĪį": 1278,
      "áī°áĪ¨": 1279,
      "bÃŃ": 1280,
      "..": 1281,
      "inĠm": 1282,
      "áĪĺáĬĲ": 1283,
      "olog": 1284,
      "asuĠ": 1285,
      "tionĠ": 1286,
      "wal": 1287,
      "Marek": 1288,
      "chĠ": 1289,
      "Ã¬t": 1290,
      "shir": 1291,
      "ÃĴ": 1292,
      "quiĠ": 1293,
      "edeĠ": 1294,
      "áĮĪáĬĿ": 1295,
      "ha": 1296,
      "arr": 1297,
      "áĪŃáīµ": 1298,
      "'sĠ": 1299,
      "ouv": 1300,
      "yaĠm": 1301,
      "aid": 1302,
      "wenyeĠ": 1303,
      "amf": 1304,
      "áĬķáīµ": 1305,
      "iqu": 1306,
      "shind": 1307,
      "gr": 1308,
      "fark": 1309,
      "ĠáĪĺáĬķáĮįáĪ¥áīµ": 1310,
      "Ġáĭ¨áĬ¢áīµáĭ®áĮµáĭ«": 1311,
      "áĬķáĪµ": 1312,
      "iki": 1313,
      "áĪĶ": 1314,
      "daĠkeĠ": 1315,
      "Ãłr": 1316,
      "hal": 1317,
      "ouĠ": 1318,
      "ĠtÃŃĠÃ³Ġ": 1319,
      "ĠáĪĪáĪĽ": 1320,
      "ien": 1321,
      "aceĠ": 1322,
      "ath": 1323,
      "y,Ġ": 1324,
      "áīłáĪ©": 1325,
      "áĬķáīĭ": 1326,
      "kĠ": 1327,
      "áī½áĬķ": 1328,
      "nÃ¡ÃłĠ": 1329,
      "áĬª": 1330,
      "ard": 1331,
      "áĪĭáĪįáį¢": 1332,
      "ĠáĪĨáĬĲ": 1333,
      "Ġáĭ¨áĬĲ": 1334,
      "yanaĠ": 1335,
      "áĬĵáīµ": 1336,
      "out": 1337,
      "TuzoĠyaĠNobelĠ": 1338,
      "aĠwaĠ": 1339,
      "ĠáĪįáĮħ": 1340,
      "irĠ": 1341,
      "ninĠ": 1342,
      "12": 1343,
      "paĠ": 1344,
      "ilim": 1345,
      "maiĠ": 1346,
      "jiharĠ": 1347,
      "omb": 1348,
      "cl": 1349,
      "waniĠ": 1350,
      "fil": 1351,
      "aryĠ": 1352,
      "ĠáĭµáĪ¨áĪµ": 1353,
      "jir": 1354,
      "ĠáĭĿ": 1355,
      "biy": 1356,
      "alis": 1357,
      "âĢľ": 1358,
      "áĭļáĭ«": 1359,
      "umb": 1360,
      "áįī": 1361,
      "anĠs": 1362,
      "neĠyaĠ": 1363,
      "an,Ġ": 1364,
      "aĠt": 1365,
      "fin": 1366,
      "Ġá»įjá»įÌģ": 1367,
      "es.": 1368,
      "ĠáĭĵáĬŃáĪįáīł.": 1369,
      "teĠ": 1370,
      "Ġáĭ«áĪįáī°": 1371,
      "shindiĠwaĠ": 1372,
      "iĠ(": 1373,
      "ile-": 1374,
      "Ã²á¹£": 1375,
      "WaliozaliwaĠ": 1376,
      "hiiĠ": 1377,
      "sÃ¬Ġ": 1378,
      "Ġá»įmá»įĠ": 1379,
      "uj": 1380,
      "áĭ°áī¥": 1381,
      "sab": 1382,
      "Ġth": 1383,
      "yÃŃĠ": 1384,
      "áī°áĪ¨áĮİ": 1385,
      "istor": 1386,
      "sonĠ": 1387,
      "oĠnaĠ": 1388,
      "aĠ(": 1389,
      "aĠshekaraĠtaĠ": 1390,
      "13": 1391,
      "ogr": 1392,
      "gbÃłĠ": 1393,
      "lá»įĠ": 1394,
      "ĠáĪħ": 1395,
      "âĢĵĠ": 1396,
      "aus": 1397,
      "Ã¬lÃºĠ": 1398,
      "áĮĬ": 1399,
      "inuĠ": 1400,
      "ivers": 1401,
      "áī£áĪį": 1402,
      "ĠáĬ¤": 1403,
      "oá¹£": 1404,
      "cr": 1405,
      "yan": 1406,
      "Nij": 1407,
      "âĢĿ": 1408,
      "Ġáĭ¨áĬ¥": 1409,
      "seĠ": 1410,
      "Ġáīĭ": 1411,
      "ĠáĪµáĪĿ": 1412,
      "vyaĠ": 1413,
      "ĠáĪĮ": 1414,
      "hisĠ": 1415,
      "with": 1416,
      "áĪ£": 1417,
      "máº¹Ìģ": 1418,
      "áĪĨáĬĳ": 1419,
      "bÃ¡": 1420,
      "ezaĠ": 1421,
      "áĪ¸": 1422,
      "wÃłĠ": 1423,
      "Yor": 1424,
      "mĠ": 1425,
      "BaadaĠ": 1426,
      "ĠáĬłáĮĪ": 1427,
      "ĠáīłáĬ¥": 1428,
      "donĠ": 1429,
      "ĠáĪĢ": 1430,
      "Ãª": 1431,
      "ili": 1432,
      "Ak": 1433,
      "inĠk": 1434,
      "²áį±": 1435,
      "per": 1436,
      "bÃ¡Ġ": 1437,
      "áī¸áĭįáį¢": 1438,
      "atuk": 1439,
      "abuĠ": 1440,
      "áĬķáĭ«": 1441,
      "dansĠ": 1442,
      "ĠáĪĽáĪĪáīµ": 1443,
      "pos": 1444,
      "zam": 1445,
      "ya": 1446,
      "Ãłwá»įn": 1447,
      "Ã¹n": 1448,
      "Ã¨n": 1449,
      "áĪĬáĭĿ": 1450,
      "org": 1451,
      "kub": 1452,
      "aitĠ": 1453,
      "áĪłáĪ": 1454,
      "ĠáĪĥ": 1455,
      "áī¸áĭįáĬķ": 1456,
      "aĠM": 1457,
      "ĠáĬķáĮīáĪ¥": 1458,
      "shindiĠwaĠTuzoĠyaĠNobelĠ": 1459,
      "Wak": 1460,
      "áĬ¨áī°": 1461,
      "amuĠ": 1462,
      "iss": 1463,
      "Ok": 1464,
      "áī±áĬķ": 1465,
      "omĠ": 1466,
      "far": 1467,
      "áĪµáī°": 1468,
      "ateĠ": 1469,
      "anaĠnaĠ": 1470,
      "ranarĠ": 1471,
      "iya.": 1472,
      "amĠ": 1473,
      "áĭįáĭ«áĬķ": 1474,
      "pÃ©Ġ": 1475,
      "áįķ": 1476,
      "cor": 1477,
      "WaliofarikiĠ": 1478,
      "láº¹Ìģ": 1479,
      "iláº¹ÌĢĠ": 1480,
      "áī°áĪ¨áĮİáĪĺ": 1481,
      "áº¹ÌĢ-Ã¨dÃ¨Ġ": 1482,
      "Ġáĭ¨áĪļáĭ«": 1483,
      "aleĠ": 1484,
      "obaĠ": 1485,
      "ráº¹ÌĢ": 1486,
      "ht": 1487,
      "áĪĢ": 1488,
      "Ã¬w": 1489,
      "olÃ³": 1490,
      "wasanĠ": 1491,
      "asi": 1492,
      "áī£áī¢": 1493,
      "sunĠ": 1494,
      "areĠdaĠ": 1495,
      "eh": 1496,
      "ĠáĬłáĪĺ": 1497,
      "embaĠ": 1498,
      "Ã©eĠ": 1499,
      "Ã©-": 1500,
      "ta": 1501,
      "sÃŃ": 1502,
      "Ġáī³áĪªáĬŃ": 1503,
      "koĠ": 1504,
      "li": 1505,
      "Jan": 1506,
      "áĬķáĮ": 1507,
      "ĠáīłáĬłáĪ": 1508,
      "Ġáĭ«áĪįáī°áī°áĪ¨áĮİáĪĺ": 1509,
      "Ġáĭ«áĪįáī°áī°áĪ¨áĮİáĪĺĠáĪĿáĪ³áĪĮ": 1510,
      "okacinĠ": 1511,
      "²áį±áį»áį": 1512,
      "haifeĠ": 1513,
      "wallonĠ": 1514,
      "osĠ": 1515,
      "áĪĦ": 1516,
      "alikuwaĠ": 1517,
      "192": 1518,
      "Ã²r": 1519,
      "Tanz": 1520,
      "ĠáĮī": 1521,
      "ĠáĪ°áĭį": 1522,
      "abbanĠ": 1523,
      "ageĠ": 1524,
      "awá»įnĠ": 1525,
      "dun": 1526,
      "emi": 1527,
      "áĭĽáīµ": 1528,
      "ĠáīĭáĬķáīĭ": 1529,
      "Ġáĭ¨áĬłáĪĽáĪŃáĬĽĠáĪĿáĪ³áĪĮĠáĬĲáĭįáį¢ĠáīµáĪŃáĮīáĪĻĠáĭ«áĪįáī°áī°áĪ¨áĮİáĪĺĠáĪĿáĪ³áĪĮ": 1530,
      "in,Ġ": 1531,
      "pÃŃnláº¹ÌĢĠ": 1532,
      "áĪŀáī½": 1533,
      "uku": 1534,
      "o-": 1535,
      "ÃĪ": 1536,
      "áĮ¥áĪŃ": 1537,
      "tion": 1538,
      "ask": 1539,
      "áĪ«áīµ": 1540,
      "ogb": 1541,
      "Tar": 1542,
      "Ãł.": 1543,
      "Ġáĭ³": 1544,
      "Ki": 1545,
      "er,Ġ": 1546,
      "áī£áīµ": 1547,
      "oun": 1548,
      "entr": 1549,
      "áī¥áĪŃ": 1550,
      ").ĠM": 1551,
      "áĪł": 1552,
      "ĠáĬłáĬ«": 1553,
      "Ġáį£": 1554,
      "Ã¬m": 1555,
      "uĠmwakaĠ": 1556,
      "san": 1557,
      "aĠkwaĠ": 1558,
      "áĪįáĬŃ": 1559,
      "PapaĠ": 1560,
      "yakeĠ": 1561,
      "/áĪĿ": 1562,
      "Ġáĭ¨áĪĽ": 1563,
      "Rom": 1564,
      "itt": 1565,
      "yarĠ": 1566,
      "afiĠ": 1567,
      "áĭĭáĪįáį¢": 1568,
      "It": 1569,
      "Ġáī¥áĭĻ": 1570,
      "annanĠ": 1571,
      "pourĠ": 1572,
      "áĪĭáīµ": 1573,
      "ajiĠ": 1574,
      "way": 1575,
      "ĠáĭŃáĮĪ": 1576,
      "aĠkar": 1577,
      "áĬ¨áĪį": 1578,
      "áĪĿáĪ®": 1579,
      "nam": 1580,
      "sunaĠ": 1581,
      "New": 1582,
      "aĠh": 1583,
      "diĠ": 1584,
      "Ġáĭĵ/áĪĿ": 1585,
      "Mus": 1586,
      "iá¹£áº¹ÌģĠ": 1587,
      "deĠl'": 1588,
      "Ã©sĠ": 1589,
      "ĠáĪŀ": 1590,
      "inger": 1591,
      "aniaĠ": 1592,
      "Ã¬l": 1593,
      "kut": 1594,
      "áĪĭáĪį": 1595,
      "akiĠ": 1596,
      "ĠáĮł": 1597,
      "áĪ³áĭŃ": 1598,
      "int": 1599,
      "tor": 1600,
      "form": 1601,
      "jer": 1602,
      "oth": 1603,
      "ĠáĪĻ": 1604,
      "bu": 1605,
      "Amer": 1606,
      "Ã³Ġt": 1607,
      "comm": 1608,
      "áī³áĭĬ": 1609,
      "189": 1610,
      "atiĠyaĠ": 1611,
      "aziĠ": 1612,
      "AfrikaĠ": 1613,
      "atikaĠm": 1614,
      "oll": 1615,
      "i'": 1616,
      "byĠ": 1617,
      "aĠaĠ": 1618,
      "iya,Ġ": 1619,
      "áĪĿáĪħ": 1620,
      "ĠáĬłáĪµáī°": 1621,
      ",00": 1622,
      "Ã¹Ġk": 1623,
      "áĮĤ": 1624,
      "ĠáĮ½": 1625,
      "kus": 1626,
      "inĠtheĠ": 1627,
      "ÃĢwá»įn": 1628,
      "anazartaĠ": 1629,
      "ser": 1630,
      "ĠáĮİ": 1631,
      "áĪĺáĪŃ": 1632,
      "oĠ(": 1633,
      "ľáĪªáĬ«": 1634,
      "aul": 1635,
      "indaĠ": 1636,
      "ern": 1637,
      "ĠáĪ³áĭŃ": 1638,
      ".ĠItokasiĠ": 1639,
      "ia": 1640,
      "oriĠ": 1641,
      "ká»įĠ": 1642,
      "ĠáĬ¥áĬķáĭ³": 1643,
      "áĬķáĭ³": 1644,
      "afinĠ": 1645,
      "ĠáĭĭáĬĵ": 1646,
      "inah": 1647,
      "lá»į": 1648,
      "esh": 1649,
      "ÃĵĠ": 1650,
      "Ã¬á¹£": 1651,
      "ĠáĬ®": 1652,
      "áĮĨ": 1653,
      "plusĠ": 1654,
      "áĭ²áĪµ": 1655,
      "ĠáīłáĪļ": 1656,
      "Ã¬yÃłnĠ": 1657,
      "part": 1658,
      ".áĬł": 1659,
      "tern": 1660,
      "Ã¡n": 1661,
      "º¸": 1662,
      "atif": 1663,
      "latiĠ": 1664,
      "antaĠ": 1665,
      "eaĠ": 1666,
      "áĮįáĪŃ": 1667,
      "jáº¹Ìģ": 1668,
      "Com": 1669,
      "ĠáĪĺáĬķ": 1670,
      "ĠáĪĺáĪµ": 1671,
      "áī·": 1672,
      "Nijer": 1673,
      "pe": 1674,
      "ile-edeĠ": 1675,
      "waj": 1676,
      "fic": 1677,
      "iqueĠ": 1678,
      "áĮłáĪŃ": 1679,
      "Afir": 1680,
      "Ġáī¤áī°": 1681,
      "lyĠ": 1682,
      "danĠ": 1683,
      "Ġáį¢": 1684,
      "áĭĿáī¥": 1685,
      "waĠnaĠ": 1686,
      "orÃŃláº¹ÌĢ-Ã¨dÃ¨Ġ": 1687,
      "Gu": 1688,
      "áĪĭáĭŃ": 1689,
      "alÃ¡": 1690,
      "oci": 1691,
      "andaĠ": 1692,
      "uĠnaĠ": 1693,
      "mar": 1694,
      "eĠdaĠ": 1695,
      "áĮĪáĬĺ": 1696,
      "ju": 1697,
      "Joh": 1698,
      "man": 1699,
      "áº¹Ìģg": 1700,
      "gu": 1701,
      "áĪĿĠáīł": 1702,
      "190": 1703,
      "soĠ": 1704,
      "Ġ:": 1705,
      "peĠ": 1706,
      "abiĠ": 1707,
      "hak": 1708,
      "áįĸ": 1709,
      "El": 1710,
      "lugh": 1711,
      "wad": 1712,
      "Gr": 1713,
      "bi": 1714,
      "nchiĠ": 1715,
      "Ind": 1716,
      "ĠáĪģáĪī": 1717,
      "Univers": 1718,
      "inahus": 1719,
      "urk": 1720,
      "Ġáĭ¨áĪĨ": 1721,
      "MakalaĠ": 1722,
      "Ġ3": 1723,
      "mÃ©": 1724,
      "áĭī": 1725,
      "iriĠ": 1726,
      "0.": 1727,
      "ĠáįĬ": 1728,
      "risto": 1729,
      "prÃ©": 1730,
      "kÃł": 1731,
      "áĬŀ": 1732,
      "iliy": 1733,
      "on,Ġ": 1734,
      "po": 1735,
      "ashinĠ": 1736,
      "à¤": 1737,
      "ma": 1738,
      "JiharĠ": 1739,
      "1.": 1740,
      "páº¹ÌĢ": 1741,
      "umĠ": 1742,
      "MakalaĠhiiĠ": 1743,
      "ord": 1744,
      "En": 1745,
      "ĠáĬłáĪĿ": 1746,
      "MakalaĠhiiĠinahus": 1747,
      "lang": 1748,
      "LeĠ": 1749,
      "áĮĢáĪĺáĪªáĭ«": 1750,
      "MakalaĠhiiĠinahusuĠmwakaĠ": 1751,
      "oir": 1752,
      "NÃŃ": 1753,
      "Ġáĭ¨áĪĿ": 1754,
      "uli": 1755,
      "ninuĠ": 1756,
      "áĪŃáĪµáī²": 1757,
      "shindiĠwaĠTuzoĠyaĠNobelĠyaĠ": 1758,
      "áĪĨáĬĲ": 1759,
      "tanaĠ": 1760,
      "--": 1761,
      "piaĠ": 1762,
      "atukioĠ": 1763,
      "oteĠ": 1764,
      "enc": 1765,
      "1,Ġ": 1766,
      "ĠáĪĺáĭ°áī¥": 1767,
      "tÃ³Ġ": 1768,
      "ept": 1769,
      "kÃ³": 1770,
      "gbeĠ": 1771,
      "awanĠ": 1772,
      "áĪ«áĭĬ": 1773,
      "ankinĠ": 1774,
      "mÃ¡": 1775,
      "=Ġ": 1776,
      "ru": 1777,
      "Ġáĭ¨áĬłáĪĽáĪŃáĬĽĠáĪĿáĪ³áĪĮĠáĬĲáĭįáį¢ĠáīµáĪŃáĮīáĪĻĠáĭ«áĪįáī°áī°áĪ¨áĮİáĪĺĠáĪĿáĪ³áĪĮĠáī°áĪ¨áīµáĬĵĠáĪĿáĪ³áĪĮ": 1778,
      "shugab": 1779,
      "gbÃ©": 1780,
      "forĠ": 1781,
      "ĠáĪ°áĭİáī½": 1782,
      "ayiĠ": 1783,
      "akar": 1784,
      "elleĠ": 1785,
      "yÃ¬nĠ": 1786,
      "yaĠKristo": 1787,
      "Ã¨nÃ¬yÃłnĠ": 1788,
      "wÃ¡": 1789,
      "Afirk": 1790,
      "arg": 1791,
      "ishaĠ": 1792,
      "anĠhaifeĠ": 1793,
      "lak": 1794,
      "yaĠKristo).ĠM": 1795,
      "áī½áį¢": 1796,
      "Ġ(BaadaĠ": 1797,
      "ÃŃá¹£": 1798,
      "kasanceĠ": 1799,
      "gaĠwatanĠ": 1800,
      "yÃ¬ÃŃĠ": 1801,
      "Ġ(BaadaĠyaĠKristo).ĠM": 1802,
      "orile-edeĠ": 1803,
      "lÃ©Ġ": 1804,
      "farkoĠ": 1805,
      "enceĠ": 1806,
      "aik": 1807,
      "weng": 1808,
      "Ġáī¦": 1809,
      "ĠáĬĲáĮĪáĪŃ": 1810,
      "ahĠ": 1811,
      "olaĠ": 1812,
      "shekararĠ201": 1813,
      "asar": 1814,
      "áįİ": 1815,
      "di": 1816,
      "dÃ¡": 1817,
      "dagaĠcikinĠ": 1818,
      "laĠm": 1819,
      "andeĠ": 1820,
      "Wa": 1821,
      "itÃ©Ġ": 1822,
      "báº¹ÌĢ": 1823,
      "ueĠ": 1824,
      "Ġáīłáĭĺ": 1825,
      "eĠdesĠ": 1826,
      "ear": 1827,
      "amp": 1828,
      "avec": 1829,
      "áĬķáĮįáĪĬáĭĿ": 1830,
      "yinĠ": 1831,
      "a)Ġ": 1832,
      "sĠ(": 1833,
      "Ing": 1834,
      "áī°áĭį": 1835,
      "Ġáī°áĪĺ": 1836,
      "áī¦áī½": 1837,
      "birninĠ": 1838,
      "iseĠ": 1839,
      "Tr": 1840,
      "1-": 1841,
      "áĪĿáį¢": 1842,
      "nÃŃĠá»įdÃºnĠ": 1843,
      "áĮ¸": 1844,
      "ayĠ": 1845,
      "áīµĠáĭ¨": 1846,
      "ool": 1847,
      "ustr": 1848,
      "mat": 1849,
      "tareĠdaĠ": 1850,
      "uwarĠ": 1851,
      "pam": 1852,
      "uat": 1853,
      "áĬķĠáĬł": 1854,
      "hĠ": 1855,
      "áį¥": 1856,
      "áĮłáīĢ": 1857,
      "aĠkatikaĠ": 1858,
      "ÆĻwallonĠ": 1859,
      "icanĠ": 1860,
      "fi": 1861,
      "ilikuwaĠ": 1862,
      "ousĠ": 1863,
      "arÃ¡Ġ": 1864,
      "áĪĽáĪª": 1865,
      "yanĠ": 1866,
      "ĠáīĨ": 1867,
      "daĠd": 1868,
      "Ġáĭ¨áĪļáĮĪáĬĿ": 1869,
      "sun": 1870,
      ")ĠjeĠ": 1871,
      "Nigeri": 1872,
      "niĠm": 1873,
      "shiĠneĠ": 1874,
      "ement": 1875,
      "Vi": 1876,
      "bayanĠ": 1877,
      "saĠ": 1878,
      "abil": 1879,
      "pá»įÌĢĠ": 1880,
      "rit": 1881,
      "Col": 1882,
      "Ã¨reĠ": 1883,
      "ĠáĭĵáĪĺáīµ": 1884,
      "áĪ¨áĭį": 1885,
      "ĠáĭĵáĪĿ": 1886,
      "wh": 1887,
      "add": 1888,
      "Con": 1889,
      "zin": 1890,
      "anoĠ": 1891,
      "Ã¨sĠ": 1892,
      "eriaĠ": 1893,
      "ationalĠ": 1894,
      "ert": 1895,
      "auk": 1896,
      "ubl": 1897,
      "maĠ": 1898,
      "Ã©esĠ": 1899,
      "be": 1900,
      "Ġ(BaadaĠyaĠKristo).ĠMatukioĠ": 1901,
      "áĮĵ": 1902,
      "imĠ": 1903,
      "0,Ġ": 1904,
      "áĭŀ": 1905,
      "ĠáĬª": 1906,
      "áį£Ġáĭ¨": 1907,
      "res": 1908,
      "áĮįáī¥": 1909,
      "an.": 1910,
      "ĠáĪĿáĬŃ": 1911,
      "tÃŃĠwá»įÌģnĠ": 1912,
      "ail": 1913,
      "áĬ¢": 1914,
      "áĭ±áĪµ": 1915,
      "si": 1916,
      "áĬķĠáīł": 1917,
      "ast": 1918,
      "ĠáĬ¥áĭ¨": 1919,
      "ĠáĪĺáĭ°áī¥Ġ:": 1920,
      "vi": 1921,
      "ayanĠ": 1922,
      "lin": 1923,
      "inĠdaĠ": 1924,
      "Éĵ": 1925,
      "eĠduĠ": 1926,
      "aikiĠ": 1927,
      "Mat": 1928,
      "Ã©n": 1929,
      "zamaĠ": 1930,
      "ign": 1931,
      ".áĬ¤": 1932,
      "áĪĭáĬķáĭµ": 1933,
      "áĬĸáī½": 1934,
      "kul": 1935,
      "uniĠ": 1936,
      "ech": 1937,
      "áįĴ": 1938,
      "emberĠ": 1939,
      "ulk": 1940,
      "eĠd'": 1941,
      "ardĠ": 1942,
      "pÃł": 1943,
      "hukum": 1944,
      "jÃ¡": 1945,
      "antarĠ": 1946,
      "áº¹Ìģgáº¹ÌģĠ": 1947,
      "á»įbaĠ": 1948,
      "omoĠ": 1949,
      "ous": 1950,
      "ká»įÌģ": 1951,
      "otĠ": 1952,
      "ĠáĪĭ": 1953,
      "áĮĮ": 1954,
      "áĭ³áĬķ": 1955,
      "áĬ¥áĬķ": 1956,
      "anciĠ": 1957,
      "fĠ": 1958,
      "áĮ¨áĪ¨": 1959,
      "Ġáīĥ": 1960,
      "okoĠ": 1961,
      "áī³áī¸áĭį": 1962,
      "áĬłáī¥": 1963,
      "áīµĠáīł": 1964,
      "port": 1965,
      "eheĠ": 1966,
      "bal": 1967,
      "2,Ġ": 1968,
      "áĭŃáĪħ": 1969,
      "atur": 1970,
      "\".": 1971,
      "tÃł": 1972,
      "arab": 1973,
      "ĠáĪĺáĬ«": 1974,
      "kir": 1975,
      "min": 1976,
      "adĠ": 1977,
      "aĠn": 1978,
      "áº¹r": 1979,
      "áĮ¦": 1980,
      "áĪ¨áĮĥ": 1981,
      "gir": 1982,
      "áĪ¨áĬķ": 1983,
      "CĠ": 1984,
      "áĪĿáĬĵ": 1985,
      "ect": 1986,
      "manĠ": 1987,
      "ĠáĪĲ": 1988,
      "we": 1989,
      "KarneĠyaĠ": 1990,
      "kÃ²": 1991,
      "ojaĠnaĠ": 1992,
      "5,Ġ": 1993,
      "IĠ": 1994,
      "almeĠ": 1995,
      "gbÃ©Ġ": 1996,
      "hur": 1997,
      "rel": 1998,
      "Ã§": 1999,
      "ĠáĬ¨áĬł": 2000,
      "2.": 2001,
      "áĪĪáĭ«": 2002,
      "Ed": 2003,
      "kÃŃĠ": 2004,
      "áī°áĪŃ": 2005,
      "Ġáī°áīĢ": 2006,
      "ĠáĬĲáīłáĪ¨": 2007,
      "kwaĠ": 2008,
      "ÆĻaf": 2009,
      "áĭįĠáĭ¨": 2010,
      "6,Ġ": 2011,
      "eneoĠ": 2012,
      "áīµáĬĵ": 2013,
      "omaĠ": 2014,
      "stĠ": 2015,
      "áĮĪáĭµ": 2016,
      "áīĨáĮ£": 2017,
      "ashar": 2018,
      "oul": 2019,
      "Â«Ġ": 2020,
      "ĠáĪĨáĬĸ": 2021,
      "Mal": 2022,
      "áĪĺáĬĵ": 2023,
      "nying": 2024,
      "intaĠ": 2025,
      "sp": 2026,
      "ĠáīłáĪµ": 2027,
      "mentĠ": 2028,
      "ahar": 2029,
      "oniĠ": 2030,
      "oá¹£Ã¹Ġk": 2031,
      "Ingil": 2032,
      "áĪ¨áĭ³": 2033,
      "ko": 2034,
      "ĠáīłáĬ¢áīµáĭ®áĮµáĭ«": 2035,
      ".áĬ¤.áĬł": 2036,
      "Ø§": 2037,
      "áĬĲáĭļáĪħ": 2038,
      "já»įĠ": 2039,
      "i.Ġ": 2040,
      "icalĠ": 2041,
      "áĪĺáĪµ": 2042,
      "áĪĶáĪŃ": 2043,
      "sik": 2044,
      "áīħáĪĿ": 2045,
      "akinĠ": 2046,
      "áĪĽáĭĬ": 2047,
      "cons": 2048,
      "ĠáĬĵáī¸áĭįáį¢": 2049,
      "8,Ġ": 2050,
      "áĪ°áī¥": 2051,
      "Par": 2052,
      "ationsĠ": 2053,
      "onn": 2054,
      "ĠáĪ´": 2055,
      "Ġáįķ": 2056,
      "istr": 2057,
      "MarekaniĠ": 2058,
      "áīª": 2059,
      "2019": 2060,
      "ishiĠ": 2061,
      "alinĠ": 2062,
      "ĠáĭĺáĬķáĭµ": 2063,
      "Har": 2064,
      "hem": 2065,
      "waiĠ": 2066,
      "LesĠ": 2067,
      "orinĠ": 2068,
      "áĪ°áĭį": 2069,
      "ÆĻwallonĠÆĻaf": 2070,
      "Ag": 2071,
      "Ã©g": 2072,
      "áįħ": 2073,
      "Ġáĭ¨áĪ°": 2074,
      "áĮĪáĬĻ": 2075,
      "ĠáĮ¨": 2076,
      "7,Ġ": 2077,
      "ĠáĬłáī¥": 2078,
      "vy": 2079,
      "Ġáī£áĪĪ": 2080,
      "ÃĮpÃŃnláº¹ÌĢĠ": 2081,
      "tunĠ": 2082,
      "ĠáĮĢáĪĿáĪ®": 2083,
      "Ġáī¤áīµ": 2084,
      "Ãī": 2085,
      "mon": 2086,
      "isaĠ": 2087,
      "Wat": 2088,
      "Ge": 2089,
      "Gh": 2090,
      "lu": 2091,
      "áĭ¥": 2092,
      "thĠ": 2093,
      "ĠsÃŃĠ": 2094,
      "ominĠ": 2095,
      "Far": 2096,
      "ĠáĪ«": 2097,
      "Ãłw": 2098,
      "áĮ½áĪĲ": 2099,
      "aĠmwakaĠwaĠ": 2100,
      "a,Ġm": 2101,
      "Ġáĭ«áĪĪ": 2102,
      "iteĠ": 2103,
      "eyĠ": 2104,
      "na": 2105,
      "ÃŃr": 2106,
      "áĪŃáĪ±": 2107,
      "Ġáįĵ": 2108,
      "auxĠ": 2109,
      "áĬķĠáĬ¨": 2110,
      "ww": 2111,
      "áįĬáīµ": 2112,
      "Dun": 2113,
      "aliy": 2114,
      "ĠtÃ³Ġ": 2115,
      "Le": 2116,
      "eleĠ": 2117,
      "abaĠ": 2118,
      "enn": 2119,
      "ĠáĬ¢áīµáĭ®áĮµáĭ«": 2120,
      "5.": 2121,
      "ia.": 2122,
      "ká»įÌĢ": 2123,
      "4.": 2124,
      "dakeĠ": 2125,
      "Ãły": 2126,
      "ĠáĬłáī£": 2127,
      "lim": 2128,
      "ÃĮt": 2129,
      "aun": 2130,
      "4,Ġ": 2131,
      "ĠáĮ¦áĪŃ": 2132,
      "miĠ": 2133,
      "cewaĠ": 2134,
      "Janu": 2135,
      "lokacinĠ": 2136,
      "iesĠ": 2137,
      "Ã¨t": 2138,
      "tan": 2139,
      "áĭ¨áĪŃ": 2140,
      "Ġáĭ«áĪĪáĭį": 2141,
      "áī¡áī¥": 2142,
      "TaĠ": 2143,
      "ĠáĬłáĮĪáĪŃ": 2144,
      "ĠáĮ¸": 2145,
      "ĠBK": 2146,
      "wamn": 2147,
      "faraĠ": 2148,
      "jÃºĠ": 2149,
      "ÙĦ": 2150,
      "tsak": 2151,
      "Ġáī¥áī»": 2152,
      "áĪĿĠáĭ¨": 2153,
      "Ġ\"": 2154,
      ").Ġ": 2155,
      "ray": 2156,
      "eurĠ": 2157,
      "iluĠ": 2158,
      "áī£áĪĪ": 2159,
      "kubwaĠ": 2160,
      "Jul": 2161,
      "áĬ¤áĪį": 2162,
      "acc": 2163,
      "ilÃ©-": 2164,
      "Ġáī°áĭĪ": 2165,
      "adh": 2166,
      "All": 2167,
      "land": 2168,
      "Ã¬gbÃł": 2169,
      "áĪłáĪ¨": 2170,
      "6.": 2171,
      "áĪįáĮ£": 2172,
      "Ùİ": 2173,
      "tiv": 2174,
      "dar": 2175,
      "ĥáĭŃ": 2176,
      "iĠkwaĠ": 2177,
      "ia,Ġ": 2178,
      "Ãł,Ġ": 2179,
      "áĭĭáĪį": 2180,
      "mp": 2181,
      "wand": 2182,
      "Ã¬r": 2183,
      "i-": 2184,
      "shig": 2185,
      "á»įÌģkas": 2186,
      "ĠáĪĺáĪį": 2187,
      "7.": 2188,
      "qu'": 2189,
      "ber": 2190,
      "áį£Ġáīł": 2191,
      "sy": 2192,
      "ust": 2193,
      "áĪīáīµ": 2194,
      "Ben": 2195,
      "dÃºnĠ": 2196,
      "fit": 2197,
      "Ãłm": 2198,
      "áī³áĪįáį¢": 2199,
      "áĪĭáī¸áĭį": 2200,
      "withĠ": 2201,
      "Nov": 2202,
      "ĠáĬ¦": 2203,
      "áĪĿĠáĬ¨": 2204,
      "ten": 2205,
      "jáº¹Ġ": 2206,
      "sontĠ": 2207,
      "in.": 2208,
      "NewĠ": 2209,
      "Ġáī°áĬ¨": 2210,
      "avecĠ": 2211,
      "kasarĠ": 2212,
      "Ãºr": 2213,
      "vis": 2214,
      "lat": 2215,
      "gbÃ¡": 2216,
      "kuf": 2217,
      "ajiĠwaĠ": 2218,
      "wakeĠ": 2219,
      "áį²áį±áį»áį": 2220,
      "ĠáĬ¥áĬķáĭ²áĪģ": 2221,
      "sehem": 2222,
      "lâĢĻ": 2223,
      "áĬħ": 2224,
      "a:Ġ": 2225,
      "OĠ": 2226,
      "gáº¹Ìģgáº¹ÌģĠ": 2227,
      "act": 2228,
      "áĭįáĪ®": 2229,
      "yar": 2230,
      "ĠáĬ¥.áĬ¤.áĬł": 2231,
      "áĭµáĬķ": 2232,
      "LaĠ": 2233,
      "Um": 2234,
      "áĪļáĭ«": 2235,
      "ĠAl": 2236,
      "abar": 2237,
      "Ac": 2238,
      "ĠáīģáĮ¥áĪŃ": 2239,
      "ananĠ": 2240,
      "esĠdeĠ": 2241,
      "itiĠ": 2242,
      "eursĠ": 2243,
      "ÆĻar": 2244,
      "ett": 2245,
      "col": 2246,
      "itu": 2247,
      "wannanĠ": 2248,
      "Ġá»įmá»į": 2249,
      "188": 2250,
      "oisĠ": 2251,
      "oĠvyaĠ": 2252,
      "UniversityĠ": 2253,
      "ĠáĪī": 2254,
      "á»Į": 2255,
      "páº¹ÌĢlÃºĠ": 2256,
      "ĠáĪ¥áĪŃ": 2257,
      "kun": 2258,
      "e)Ġ": 2259,
      "uwan": 2260,
      "ManazartaĠ": 2261,
      "Itali": 2262,
      "âĢĺ": 2263,
      "3,Ġ": 2264,
      "pin": 2265,
      "ne,Ġ": 2266,
      "igh": 2267,
      "3.": 2268,
      "jiĠ": 2269,
      "áĬĵáĪį": 2270,
      "áº¹Ìģr": 2271,
      "taĠk": 2272,
      "Ġáĭ¨áĪĨáĬĲ": 2273,
      "aĠshekararĠ": 2274,
      "Ġáº¹gb": 2275,
      "ianĠ": 2276,
      "hadiĠ": 2277,
      "Ray": 2278,
      "Ġáĭ®": 2279,
      "gud": 2280,
      "ani.": 2281,
      "tiĠoĠ": 2282,
      "biyuĠ": 2283,
      "láº¹ÌĢ": 2284,
      "jama'": 2285,
      "áĪ¥áī³áīµ": 2286,
      "gbogb": 2287,
      "ras": 2288,
      "ĠáĭĪáĬķ": 2289,
      "áĪŃáĬŃ": 2290,
      "aĠranarĠ": 2291,
      "ĠáĮ£": 2292,
      "Ġ(BaadaĠyaĠKristo).ĠMatukioĠWaliozaliwaĠ": 2293,
      "ambaĠ": 2294,
      "olÃ¹": 2295,
      "daĠsukaĠ": 2296,
      "ĠáīłáĪĿ": 2297,
      "áī¢áĭ«": 2298,
      "ĠáĬłáīł": 2299,
      "Sch": 2300,
      "áĬķĠáĭ«": 2301,
      "ajalis": 2302,
      "je": 2303,
      "adeĠ": 2304,
      "pamojaĠnaĠ": 2305,
      "áĬ¦": 2306,
      "ele": 2307,
      "tÃ¬": 2308,
      ")Ġ(": 2309,
      "áĮ¨áĪ¨áĪ»": 2310,
      "itsĠ": 2311,
      "eluĠ": 2312,
      "kÃ³Ġ": 2313,
      "áĭµáĪĿ": 2314,
      "áĮłáĪ«": 2315,
      "ĠáĪĺáĭ°áī¥Ġ:Ġáī°áĪ¨áīµáĬĵĠáĪĿáĪ³áĪĮ": 2316,
      "At": 2317,
      "áĮ¤": 2318,
      "kÃ²Ġ": 2319,
      "comp": 2320,
      "ĠáĭµáĪŃ": 2321,
      "ancinĠ": 2322,
      "ĠáĪľ": 2323,
      "áĬķĠáĪĺ": 2324,
      "wá»įÌģ": 2325,
      "áīµĠáĪĺ": 2326,
      "ĠáĬ¨áįį": 2327,
      "kup": 2328,
      "pol": 2329,
      "odĠ": 2330,
      "ilÃ©Ġ": 2331,
      "surĠ": 2332,
      "Ġáī¡": 2333,
      "ĠáĪĺáĬ«áĬ¨áĪį": 2334,
      "áĬķáĬĵ": 2335,
      "aĠkas": 2336,
      "Muh": 2337,
      "y.": 2338,
      "áĬķĠáĭ¨": 2339,
      "utaneĠ": 2340,
      "Cl": 2341,
      "ĠáīłáĪĭáĭŃ": 2342,
      "áĭİáī¹": 2343,
      "kung": 2344,
      "Feb": 2345,
      "áĮįáĭļ": 2346,
      "ĠáīłáĭĺáĪĺáĬĲ": 2347,
      "oyinĠ": 2348,
      "áĬķáĮī": 2349,
      "an-": 2350,
      "uwanĠ": 2351,
      "wÃ¡Ġ": 2352,
      "NÃłÃ¬jÃŃrÃŃÃłĠ": 2353,
      "rub": 2354,
      "babbanĠ": 2355,
      "iĠniĠ": 2356,
      "áĪĺáĪĪ": 2357,
      "i'arĠ": 2358,
      "idanĠ": 2359,
      "za": 2360,
      "atifuĠ": 2361,
      "áĬ³": 2362,
      "Kis": 2363,
      "pá»įÌĢ": 2364,
      "wasanĠÆĻwallonĠÆĻaf": 2365,
      "NĠ": 2366,
      "treĠ": 2367,
      "irinĠ": 2368,
      "yak": 2369,
      "ĠáīłáĪ°": 2370,
      "arĠm": 2371,
      "aim": 2372,
      "Ã©,Ġ": 2373,
      "ÃŃláº¹ÌĢĠ": 2374,
      "Nai": 2375,
      "enyeĠ": 2376,
      "ÃłĠlaĠ": 2377,
      "outĠ": 2378,
      "kÃłĠ": 2379,
      "zaid": 2380,
      "áī¥áĪ¨": 2381,
      "áīħáĪŃ": 2382,
      "daĠakaĠ": 2383,
      "ĠáĬŃáįįáĪĪ": 2384,
      "tp": 2385,
      "áĪĽáĭŃ": 2386,
      "áĪħáĪį": 2387,
      "sak": 2388,
      "Bir": 2389,
      "iaĠyaĠ": 2390,
      "Ph": 2391,
      "emp": 2392,
      "ĠáĬ¥áĪµáĬ¨Ġ": 2393,
      "Histor": 2394,
      "anj": 2395,
      "áĪĿáĪħáĪŃáīµ": 2396,
      "//": 2397,
      "wor": 2398,
      "ar,Ġ": 2399,
      "oup": 2400,
      "11": 2401,
      "jinaĠ": 2402,
      "orsĠ": 2403,
      "RD": 2404,
      "ionsĠ": 2405,
      "áĭŃáĭĪ": 2406,
      "TanzaniaĠ": 2407,
      "áįĥ": 2408,
      "wanzaĠ": 2409,
      "anninĠ": 2410,
      "hany": 2411,
      "áīĦ": 2412,
      "Ã¬b": 2413,
      "beĠ": 2414,
      "finĠ": 2415,
      "8.": 2416,
      "jiĠm": 2417,
      "ograp": 2418,
      "lec": 2419,
      "áīµáį¢": 2420,
      "áĬķáĮįáĪĬáĭĿáĬĽ": 2421,
      "yp": 2422,
      "iaĠm": 2423,
      "saiĠ": 2424,
      "gbaj": 2425,
      "Febru": 2426,
      "jáº¹": 2427,
      "Nor": 2428,
      "Gre": 2429,
      "iniĠyaĠ": 2430,
      "ikoĠ": 2431,
      "loĠ": 2432,
      "ra": 2433,
      "utaĠ": 2434,
      "ohunĠ": 2435,
      "ukoĠ": 2436,
      "áĬķĠáĭŃ": 2437,
      "euxĠ": 2438,
      "áīĨáĮ£áĮłáĪŃ": 2439,
      "samuĠ": 2440,
      "kud": 2441,
      "shenĠ": 2442,
      "ĠáĪ½": 2443,
      "áĭįáį¢": 2444,
      "áĪµáī³": 2445,
      "amfaniĠ": 2446,
      "aneĠ": 2447,
      "http": 2448,
      "Ãłd": 2449,
      "ĠâĢľ": 2450,
      "ativ": 2451,
      "InĠ": 2452,
      "idaĠ": 2453,
      "zil": 2454,
      "Ã©c": 2455,
      "Ġáī¦áī³": 2456,
      "wah": 2457,
      "Okt": 2458,
      "bas": 2459,
      "uv": 2460,
      "áĮįáĭļáĬłáī¥": 2461,
      "ĠáĬłáĪŃ": 2462,
      "ack": 2463,
      "fromĠ": 2464,
      "://": 2465,
      "áī¥áĪ«": 2466,
      "Ã©k": 2467,
      "50": 2468,
      "áĮģ": 2469,
      "akanĠ": 2470,
      "Ã¡nĠ": 2471,
      "Ã¬bÃŃĠ": 2472,
      "uĠ(": 2473,
      "egbeĠ": 2474,
      "Ġáº¸": 2475,
      "iraĠ": 2476,
      "Ma": 2477,
      "sin": 2478,
      "Ur": 2479,
      "woĠ": 2480,
      "odunĠ": 2481,
      "oneĠ": 2482,
      "aĠmaiĠ": 2483,
      "ba": 2484,
      "itionĠ": 2485,
      "ÃłĠl'": 2486,
      "Ã´": 2487,
      "essĠ": 2488,
      "Viung": 2489,
      "riĠ": 2490,
      "harĠ": 2491,
      "Jap": 2492,
      "eth": 2493,
      "shineĠ": 2494,
      "lÃ¨Ġ": 2495,
      "áĬŀáī½": 2496,
      "Om": 2497,
      "ĠáĬĲáīłáĪ©": 2498,
      "ashenĠ": 2499,
      "asoĠ": 2500,
      "Oá¹£": 2501,
      "jerum": 2502,
      "áĪµáĬĵ": 2503,
      "uch": 2504,
      "dig": 2505,
      "och": 2506,
      "Ã©d": 2507,
      "amil": 2508,
      "áĭ¬": 2509,
      "langu": 2510,
      "ViungoĠvyaĠ": 2511,
      "áĮĨáī½": 2512,
      "áĪ³áīµ": 2513,
      "cinĠ": 2514,
      "ofĠA": 2515,
      "Ġáĭ¨áīĢ": 2516,
      "atunĠ": 2517,
      "Ãłká»įÌģ": 2518,
      "Ġá»ĮÌĢ": 2519,
      "lakiniĠ": 2520,
      "Ġáī°áī¥": 2521,
      "áĪŃáĪµáī²áĭ«áĬķ": 2522,
      "ort": 2523,
      "JohnĠ": 2524,
      "ÉĹanĠ": 2525,
      "EnĠ": 2526,
      "Naijir": 2527,
      "ĠtÃŃĠwá»įÌģnĠ": 2528,
      "igb": 2529,
      "Ġáīħáĭ±áĪµ": 2530,
      "weĠ": 2531,
      "00Ġ": 2532,
      "nom": 2533,
      "ialĠ": 2534,
      "áĭķáĪ«": 2535,
      "esĠetĠ": 2536,
      "itedĠ": 2537,
      "dab": 2538,
      "áĮįáĭļáĬłáī¥áĪĶáĪŃ": 2539,
      "oĠlaĠ": 2540,
      "ĠáĭŃáĮĪáĬĽ": 2541,
      "Intern": 2542,
      "Ken": 2543,
      "\",Ġ": 2544,
      "Lag": 2545,
      "³áĪµ": 2546,
      "al'": 2547,
      "áĪµáĪ«": 2548,
      "Im": 2549,
      "Ġáĭĵ/áĪĿĠ-": 2550,
      "ingerezaĠ": 2551,
      "is,Ġ": 2552,
      "oĠch": 2553,
      "20Ġ": 2554,
      "ĠáĪĿáĬŃáĬķáĭ«": 2555,
      "commeĠ": 2556,
      "ĠáĪ¨": 2557,
      "yĠ(": 2558,
      "nchiniĠ": 2559,
      "9,Ġ": 2560,
      "áĭ¶áī½": 2561,
      "ĠáĬ¨áĪĺ": 2562,
      "YorÃ¹": 2563,
      "áĪº": 2564,
      "watuĠ": 2565,
      "Ay": 2566,
      "ĠáīłáĭļáĪħ": 2567,
      "áī£áĪĪáĭį": 2568,
      "áĮ¥áĬķ": 2569,
      "Shugab": 2570,
      "ItokasiĠÃĢwá»įnĠ": 2571,
      "gam": 2572,
      "ĠáĬłáĪī": 2573,
      "alikuwaĠm": 2574,
      "áĮ£áĪį": 2575,
      "tel": 2576,
      "aĠkanĠ": 2577,
      "lam": 2578,
      "ÃłrÃ¹nĠ": 2579,
      "Sp": 2580,
      "áī¤áīµ": 2581,
      "cour": 2582,
      "wasanĠÆĻwallonĠÆĻafaĠtaĠ": 2583,
      "áĬķáĬķ": 2584,
      "Wá»įÌģnĠ": 2585,
      "cul": 2586,
      "Itokasi": 2587,
      "alam": 2588,
      "%Ġ": 2589,
      "ĠtaĠ": 2590,
      "áĮĪáĬĵ": 2591,
      "áĮįáĪ«": 2592,
      "iceĠ": 2593,
      "Ã¨yÃŃĠ": 2594,
      "Og": 2595,
      "awalaĠ": 2596,
      "Pe": 2597,
      "Ġáĭ¨áĭĪ": 2598,
      "9.": 2599,
      "Qu": 2600,
      "áĬŃáīµ": 2601,
      "odh": 2602,
      "leg": 2603,
      "mb": 2604,
      "iĠdaĠ": 2605,
      "iya": 2606,
      "ilayaĠ": 2607,
      "Bar": 2608,
      "ofinĠ": 2609,
      "Austr": 2610,
      "áĮĪáī£": 2611,
      "falmeĠ": 2612,
      "dayaĠ": 2613,
      "báº¹ÌĢráº¹ÌĢĠ": 2614,
      "wasanĠÆĻwallonĠÆĻafaĠtaĠÆĻasarĠ": 2615,
      "ukĠ": 2616,
      "ook": 2617,
      "uaĠ": 2618,
      "Des": 2619,
      "Ġáĭ¨áĬĲáīłáĪ¨": 2620,
      "Tur": 2621,
      "5)Ġ": 2622,
      "ĠáĬ¥.áĬ¤.áĬł.": 2623,
      "Ul": 2624,
      "ajalisarĠ": 2625,
      "ait": 2626,
      "bur": 2627,
      "áī³áĭŃ": 2628,
      "áĬĴáĭ«": 2629,
      "máº¹ÌģrÃŃ": 2630,
      "ĠáĬŃáįįáĪį": 2631,
      "Ġá»įdunĠ": 2632,
      "áĬĸáĪŃ": 2633,
      "Ujerum": 2634,
      "oĠh": 2635,
      "idĠ": 2636,
      "áĪľáĬķ": 2637,
      "str": 2638,
      "Ang": 2639,
      "ishĠ": 2640,
      "asheĠ": 2641,
      "ne": 2642,
      "o.Ġ": 2643,
      "áº¹l": 2644,
      "Ġáĭ²": 2645,
      "IS": 2646,
      "afaĠ": 2647,
      "ĠAmáº¹ÌģrÃŃ": 2648,
      "ĠáĪŃ": 2649,
      "adar": 2650,
      "Ã®": 2651,
      "ungiyarĠ": 2652,
      "ĠáĭŃáī£": 2653,
      "al-": 2654,
      "wasuĠ": 2655,
      "Ã¬k": 2656,
      "iĠkatikaĠ": 2657,
      "astĠ": 2658,
      "Ġ/": 2659,
      "áĪĪáī°": 2660,
      "ĠáĬłáĬ«áī£áī¢": 2661,
      "|ĠRD": 2662,
      "ĠáĬ¥áĬķáĮį": 2663,
      "áĭ°áĪ¨áĮĪ": 2664,
      "áĮ½áĪĲáįį": 2665,
      "má»įÌĢ": 2666,
      "akwaiĠ": 2667,
      "wo": 2668,
      "Car": 2669,
      "Amurk": 2670,
      "ainĠ": 2671,
      "Ã²á¹£Ã¨": 2672,
      "Ik": 2673,
      "Ġáįĸ": 2674,
      "eĠofĠ": 2675,
      "br": 2676,
      "áĬķáį¡": 2677,
      "áĪ«áĪį": 2678,
      "umm": 2679,
      "áī£áĭŃ": 2680,
      "dr": 2681,
      "edĠtoĠ": 2682,
      "Ġá»įjá»įÌģÃ¬bÃŃĠ": 2683,
      "23": 2684,
      "premi": 2685,
      "áĪįáīħ": 2686,
      "IlĠ": 2687,
      "Ìģ": 2688,
      "esĠ(": 2689,
      "odeĠ": 2690,
      "iĠzaĠ": 2691,
      "Pol": 2692,
      "ĠáĬłáīĨáĮ£áĮłáĪŃ": 2693,
      "25": 2694,
      "iyoĠ": 2695,
      "áĮĪáĬķ": 2696,
      "jÃ¹": 2697,
      "te": 2698,
      "Muhamm": 2699,
      "áĬķáĮĭ": 2700,
      "ĠáĬłáĬķáĭ±": 2701,
      "car": 2702,
      "mi": 2703,
      "naĠk": 2704,
      "autarĠ": 2705,
      "anĠhaifeĠshiĠ": 2706,
      "áĪ¨áĮį": 2707,
      "Ã¬s": 2708,
      "Haus": 2709,
      "áĪŃáĭĿ": 2710,
      "áĮłáīĥ": 2711,
      "ĠáĮįáĭĽáīµ": 2712,
      "niĠk": 2713,
      "Will": 2714,
      "ĠáĬ¥áĭ«": 2715,
      "entsĠ": 2716,
      "NigeriaĠ": 2717,
      "i,Ġm": 2718,
      "kuuĠwaĠ": 2719,
      "usuĠ": 2720,
      "NÃłÃ¬jÃŃrÃŃÃł": 2721,
      "áīĢáĪŃ": 2722,
      "áįĪáĪŃ": 2723,
      "Mag": 2724,
      "ownĠ": 2725,
      "aá¹£": 2726,
      "WaliofarikiĠKarneĠyaĠ": 2727,
      "Tanzani": 2728,
      "fer": 2729,
      "ihiĠ": 2730,
      "Are": 2731,
      "vit": 2732,
      "áĭµáĪŀ": 2733,
      "áī³áĪį": 2734,
      "jin": 2735,
      "pad": 2736,
      "eseĠ": 2737,
      "áĮĪáĪĪ": 2738,
      "má»įÌĢĠ": 2739,
      "kur": 2740,
      "dÃŃ": 2741,
      "áĮİáĪŃ": 2742,
      "ĠáĬ¨áī°áĪŀáī½": 2743,
      "ĠáĬłáĪĭ": 2744,
      "ikeĠ": 2745,
      "ound": 2746,
      "áįĢ": 2747,
      "wandaĠyaĠ": 2748,
      "atol": 2749,
      "áĭŃáĬĵ": 2750,
      "áį£ĠáĬ¨": 2751,
      "ĠáĬ¥áĬķáĭ°áĪļ": 2752,
      "yáº¹Ġ": 2753,
      "shindiĠwaĠTuzoĠyaĠNobelĠyaĠF": 2754,
      "Ãģ": 2755,
      "ilit": 2756,
      "aĠzaĠ": 2757,
      "mÃ¡aĠ": 2758,
      "áīµáĪŃ": 2759,
      "já»į": 2760,
      "acceĠ": 2761,
      "21": 2762,
      "ĠáĪ¶": 2763,
      "áĭ°áīµ": 2764,
      "imuĠ": 2765,
      "ĠáĬĥáĭŃ": 2766,
      "from": 2767,
      "owoĠ": 2768,
      "AĠcikinĠ": 2769,
      "gbogboĠ": 2770,
      "Fil": 2771,
      "upandeĠ": 2772,
      "prÃ©s": 2773,
      "áĬĺ": 2774,
      "eeĠ": 2775,
      "Wor": 2776,
      "zab": 2777,
      "Ã¨gb": 2778,
      "L'": 2779,
      "ahaif": 2780,
      "whi": 2781,
      "aĠK": 2782,
      "áī¥áĪµ": 2783,
      "áĪĽáĬĸ": 2784,
      "âĢİ": 2785,
      "187": 2786,
      "zaĠm": 2787,
      "vol": 2788,
      "njeĠ": 2789,
      "Ġá»įjá»įÌģĠk": 2790,
      "Was": 2791,
      "báº¹Ìģ": 2792,
      "sÃ¡": 2793,
      "ĠáĭŃáī½": 2794,
      "iliĠyaĠ": 2795,
      "e,Ġm": 2796,
      "ĠáĪĽáĪŃ": 2797,
      "ĠáĪģáĪĪáīµ": 2798,
      "áĪĪáĭ«áĭ©": 2799,
      "Us": 2800,
      ":ĠA": 2801,
      "Bl": 2802,
      "oph": 2803,
      "2-": 2804,
      "áĪı": 2805,
      "áĪĳ": 2806,
      "áĪ°áĪ«": 2807,
      "áīµĠáĬ¨": 2808,
      "otoĠ": 2809,
      "ian": 2810,
      "zaĠk": 2811,
      "Jami'arĠ": 2812,
      "dis": 2813,
      "orn": 2814,
      "elop": 2815,
      "áĬ¬": 2816,
      "áĬŃáĪµ": 2817,
      "ĠáĭĺáĪĺ": 2818,
      "ĠáĪ¸": 2819,
      "emiĠ": 2820,
      "4)Ġ": 2821,
      "sukaĠ": 2822,
      "ĠáĪĿáĬķáĮ": 2823,
      "lÃ³rÃŃĠ": 2824,
      "rec": 2825,
      "áĭĸ": 2826,
      "Ġáī´": 2827,
      "186": 2828,
      "ipaĠ": 2829,
      "tareheĠ": 2830,
      "Ġáĭ©": 2831,
      "ubaĠ": 2832,
      "áĭ¨áīµ": 2833,
      "Eng": 2834,
      "bar": 2835,
      "Georg": 2836,
      "warĠ": 2837,
      "inĠs": 2838,
      "áĪĪáĭŃ": 2839,
      "ĠáĬłáīłáī£": 2840,
      "nchiĠyaĠ": 2841,
      "30": 2842,
      "ĠáĪĮáĪĭ": 2843,
      "uleĠ": 2844,
      "arÃ¡": 2845,
      "jÃ¡Ġ": 2846,
      "andĠtheĠ": 2847,
      "tun": 2848,
      "shugabanĠ": 2849,
      "Mon": 2850,
      "'Ġ": 2851,
      "6)Ġ": 2852,
      "aikinĠ": 2853,
      "ireĠ": 2854,
      "yĠofĠ": 2855,
      "ká»į": 2856,
      "http://": 2857,
      "ĠáĭĪáīħ": 2858,
      "ogoĠ": 2859,
      "ĠáĭĺáĪĺáĬĲ": 2860,
      "akarĠ": 2861,
      "omin": 2862,
      "oroĠ": 2863,
      "atiĠwaĠ": 2864,
      ",000": 2865,
      "Ġá»įjá»įÌģÃ¬bÃŃĠnÃŃĠ": 2866,
      "7)Ġ": 2867,
      "shekaruĠ": 2868,
      "soci": 2869,
      "osh": 2870,
      "ĠofĠ": 2871,
      "cesĠ": 2872,
      "fÃŃ": 2873,
      "anaĠk": 2874,
      "haÉĹ": 2875,
      "³áį": 2876,
      "áīµĠáĬł": 2877,
      "áĪĿáĪŃ": 2878,
      "áĪĺáĪ¨": 2879,
      "áĭ°áĪį": 2880,
      "Wan": 2881,
      "Marekani": 2882,
      "kaĠ": 2883,
      "alm": 2884,
      "ayÃ©Ġ": 2885,
      "áī±áĪĿ": 2886,
      "ĠáĭĵáĪĺáī³áīµ": 2887,
      "ĠáĪĥáĭŃ": 2888,
      "(200": 2889,
      "ĠáĮ¦áĪŃáĬĲáīµ": 2890,
      "áĮįáī£": 2891,
      "Awar": 2892,
      "wakaziĠ": 2893,
      "Ã¬wÃ©Ġ": 2894,
      "áĪŃáĪĺáĬķ": 2895,
      "ĠáĬ¥áĬĵĠáĭ¨": 2896,
      "For": 2897,
      "ashiĠ": 2898,
      "gar": 2899,
      "wÃ²": 2900,
      "Ã¢": 2901,
      "áĪįáĮį": 2902,
      "ĠáĪµáĪ«": 2903,
      "áĪªáĬ«áĭĬ": 2904,
      "aka": 2905,
      "daĠt": 2906,
      "rah": 2907,
      "ĠáĪµáĪŃ": 2908,
      "Ġáĭ¨áĪĺáĮĢáĪĺáĪªáĭ«": 2909,
      "áį¦Ġ": 2910,
      "OktobaĠ": 2911,
      "unĠm": 2912,
      "Bur": 2913,
      "lor": 2914,
      "gwamn": 2915,
      "ĠáĪ²áĭ«": 2916,
      "Eur": 2917,
      "etteĠ": 2918,
      "utuĠ": 2919,
      "Af": 2920,
      "Ã¨dÃ¨": 2921,
      "ĠáĬłáĭŃáĬĲáīµ": 2922,
      "Franc": 2923,
      "resĠ": 2924,
      "lÃ¡Ġ": 2925,
      "ilis": 2926,
      "ayoĠ": 2927,
      "kunĠ": 2928,
      "ĠáĬłáĪ¨": 2929,
      "quesĠ": 2930,
      "áĪĲáĬķáĪµ": 2931,
      "atuĠ": 2932,
      "ijiĠ": 2933,
      "sĠofĠ": 2934,
      "ine": 2935,
      "oke": 2936,
      "Sal": 2937,
      "áĪĭáĪĪ": 2938,
      "áĮłáĪ¨": 2939,
      "ult": 2940,
      "weny": 2941,
      "Et": 2942,
      "alit": 2943,
      "áĪŃáĭµ": 2944,
      "áĪįáĭµ": 2945,
      "ĠáĬĲáīłáĪ¨áį¢": 2946,
      "isti": 2947,
      "áīłáī¥": 2948,
      "ĠáĭŃáī³": 2949,
      "áĭ®áĬķ": 2950,
      ".ĠÃĢwá»įnĠ": 2951,
      "istĠ": 2952,
      "bayaĠ": 2953,
      "ĠáĭĽ": 2954,
      "áĭįĠáīł": 2955,
      "ukanĠ": 2956,
      "wur": 2957,
      "wá»įÌĢ": 2958,
      "Kus": 2959,
      "Ġá»įdÃºnĠ201": 2960,
      "áĭĵáĪĪáĪĿ": 2961,
      "bug": 2962,
      "áĪĿáį¡": 2963,
      "Ã¬nrinĠ": 2964,
      "cont": 2965,
      "áĬĲáĮĪáĪŃ": 2966,
      "Ġáį²áį±áį»áį": 2967,
      "áįįáĪ«": 2968,
      "áĭįáĪ®áįĵ": 2969,
      "idiĠ": 2970,
      "Tang": 2971,
      "ÃłÃ¡": 2972,
      "Ã¬já»įbaĠ": 2973,
      "ĠáĬ¥áĪŃ": 2974,
      "sur": 2975,
      "wacceĠ": 2976,
      "adiĠ": 2977,
      "aireĠ": 2978,
      "ĠSept": 2979,
      "de": 2980,
      "ric": 2981,
      "ĠáĭĪáĪŃ": 2982,
      "ciĠgab": 2983,
      "NiĠ": 2984,
      "yÃŃ": 2985,
      "nÃŃpaĠ": 2986,
      "waĠkwaĠ": 2987,
      "balimb": 2988,
      "odhaĠyaĠ": 2989,
      "ĠáĬĲáĮĪáĪ¥áī³áīµ": 2990,
      "Hu": 2991,
      "iveĠ": 2992,
      "lÃ³g": 2993,
      "ĠáĪłáĪ": 2994,
      "áĮĢáĪĺáĪŃáĭ«": 2995,
      "ĠáĪĮáĪİáī½": 2996,
      "alementĠ": 2997,
      "arenĠ": 2998,
      "ĠáĬ³áĪµ": 2999,
      "ilaĠ": 3000,
      "ĠáĬ¥áĮħ": 3001,
      "awoĠ": 3002,
      "kumaĠtaĠ": 3003,
      "jÃº": 3004,
      "áĪĭáĪĿ": 3005,
      "apoĠ": 3006,
      "niĠÃ³Ġ": 3007,
      "Sc": 3008,
      "atedĠ": 3009,
      "lÃº": 3010,
      "ĠáĪĽáĪµ": 3011,
      "Ãłt": 3012,
      "Ġtr": 3013,
      "cent": 3014,
      "Kam": 3015,
      "ĠáĬ©": 3016,
      "ogunĠ": 3017,
      "áĭĮ": 3018,
      "azin": 3019,
      "áīµáį£": 3020,
      "Ġáº¹ÌĢká»įÌģĠ": 3021,
      "ĠáĪĽáĪĪáīµĠáĬĲáĭįáį¢": 3022,
      "Man": 3023,
      "Ã©tÃ©Ġ": 3024,
      "vil": 3025,
      "ingĠtheĠ": 3026,
      "May": 3027,
      "aduĠ": 3028,
      "®áī½": 3029,
      "Ij": 3030,
      "pop": 3031,
      "Agb": 3032,
      "ejiĠ": 3033,
      "inay": 3034,
      "ene": 3035,
      "dÃ¡Ġ": 3036,
      "áĭ°áī¡áī¥": 3037,
      "ĠáĪĿáĭµáĪŃ": 3038,
      "If": 3039,
      "ham": 3040,
      "sc": 3041,
      "alif": 3042,
      "hadaĠ": 3043,
      "ĠtÃºnĠ": 3044,
      "áīłáĪĭ": 3045,
      "ĠáĪįáĭ©": 3046,
      "ĠK": 3047,
      "amfaninĠ": 3048,
      "bin": 3049,
      "áĬĵĠáĭ¨": 3050,
      "histor": 3051,
      "inter": 3052,
      "áĪªáĭİáī½": 3053,
      "áįĪáĪ¨áĬķ": 3054,
      "serv": 3055,
      "nÃŃgbÃł": 3056,
      "3)Ġ": 3057,
      "áĪµáĪĪ": 3058,
      "áĮ£áĪĿ": 3059,
      "iam": 3060,
      "ush": 3061,
      "Ãłti": 3062,
      "isp": 3063,
      "ableĠ": 3064,
      "mus": 3065,
      "azamaĠ": 3066,
      "odaĠ": 3067,
      "suk": 3068,
      "áī¶áĪµ": 3069,
      "iyanĠ": 3070,
      "áĬĵĠáīł": 3071,
      "iyeĠ": 3072,
      "Ç¹": 3073,
      "ingerez": 3074,
      "Cr": 3075,
      "laf": 3076,
      "Ã³nĠ": 3077,
      "ĠáĪĿáĬķ": 3078,
      "LÃ¡": 3079,
      "aÆĻ": 3080,
      "wÃŃ": 3081,
      "ar.": 3082,
      "Ãºká»įĠ": 3083,
      "gbá»įÌģnĠ": 3084,
      "bÃŃiĠ": 3085,
      "ĠáĭķáĪĪáīµ": 3086,
      "rik": 3087,
      "farans": 3088,
      "embaĠ-Ġ": 3089,
      "ĠApr": 3090,
      "áīĢáīµ": 3091,
      "Ġáĭľ": 3092,
      "sĠdeĠ": 3093,
      "Farans": 3094,
      "ĠáĭĻ": 3095,
      "anis": 3096,
      "áĬ¨áĭļáĪħ": 3097,
      "áĭĪáĭ°": 3098,
      "áĭ²áĪµĠáĬłáīłáī£": 3099,
      "10Ġ": 3100,
      "Em": 3101,
      "já»įÌģ": 3102,
      "aveĠ": 3103,
      "áī²áĬ«": 3104,
      "áĮ¨áĪĽáĪª": 3105,
      "anzaĠ": 3106,
      "áĭ«áĭį": 3107,
      "Ã©ri": 3108,
      "erĠ(": 3109,
      "Leg": 3110,
      "Ùħ": 3111,
      "ĠáĬłáĭį": 3112,
      "en,Ġ": 3113,
      "Ts": 3114,
      "áº¹ÌĢká»įÌģĠ": 3115,
      "erg": 3116,
      "Eb": 3117,
      "Gab": 3118,
      "áĭİáĪµ": 3119,
      "iyyarĠ": 3120,
      "ai,Ġ": 3121,
      "wasanĠÆĻwallonĠÆĻafaĠtaĠÆĻasarĠIngil": 3122,
      "Kik": 3123,
      "pasĠ": 3124,
      "fur": 3125,
      "n.": 3126,
      "áĪĭáīħ": 3127,
      "40": 3128,
      "he": 3129,
      "Ã©kerÃ©Ġ": 3130,
      "22": 3131,
      "áĮ¢": 3132,
      "enti": 3133,
      "lex": 3134,
      "ĠáĪĽáĭķ": 3135,
      "jag": 3136,
      "kuj": 3137,
      "áĪ¹": 3138,
      "Ãłp": 3139,
      "onc": 3140,
      "\"Ġ(": 3141,
      "Re": 3142,
      "sannanĠ": 3143,
      "ys": 3144,
      "áĬ¨áĪĪ": 3145,
      "NÃłÃ¬jÃŃrÃŃÃł.": 3146,
      "atinĠ": 3147,
      "keĠ": 3148,
      "omiĠ": 3149,
      "endele": 3150,
      "Od": 3151,
      "Pl": 3152,
      "aÉĹ": 3153,
      "tsakaninĠ": 3154,
      "fu": 3155,
      "Char": 3156,
      "aoĠ": 3157,
      "ĠáīĥáĪį": 3158,
      "ĠF": 3159,
      "Jos": 3160,
      "UnitedĠ": 3161,
      "ĠAg": 3162,
      "arib": 3163,
      "lÃ¡n": 3164,
      "áĪĭáĭĬ": 3165,
      "Ġáī¥áĪİ": 3166,
      "ĠáĬ¨áįįáī°áĬĽ": 3167,
      "áĬ¢áīµáĭ®áĮµáĭ«": 3168,
      "á»įÌģkasÃŃĠ": 3169,
      "Ir": 3170,
      "allyĠ": 3171,
      "niĠnaĠ": 3172,
      "okac": 3173,
      "Paul": 3174,
      "áĪĭáĬŃ": 3175,
      "áīłáĪį": 3176,
      "áĮįáĪŃĠáĬ³áĪµ": 3177,
      "ony": 3178,
      "lÃ³Ġ": 3179,
      "yad": 3180,
      "áĭ°áĪĿ": 3181,
      "ĠáĬłáĪµáī°áĭ³": 3182,
      "Min": 3183,
      "8)Ġ": 3184,
      "Ipin": 3185,
      "dh": 3186,
      "áī«": 3187,
      "OrodhaĠyaĠ": 3188,
      "wÃłĠnÃŃĠ": 3189,
      "aniĠyaĠ": 3190,
      "oduc": 3191,
      "á»įÌģÃ¬d": 3192,
      "lughaĠyaĠ": 3193,
      "áº¹Ìģrá»įÌģÃ¬d": 3194,
      "áī¨": 3195,
      "Ġáīłáī¥": 3196,
      "áīłáĭļáĪħ": 3197,
      "us,Ġ": 3198,
      "ĠáīµáĪĿáĪħáĪŃáīµ": 3199,
      "ĠáĭĭáĬĵĠáĬ¨áī°áĪĽ": 3200,
      "Ã¡st": 3201,
      "gáº¹Ìģgáº¹ÌģĠbÃŃĠ": 3202,
      "mag": 3203,
      "áīµĠáį": 3204,
      "áĬĵĠáĪĺ": 3205,
      "aĠS": 3206,
      "Ã¡stáº¹Ìģrá»įÌģÃ¬d": 3207,
      "ani,Ġ": 3208,
      "ĠáĬłáĪ«": 3209,
      "áīĢáĪĺ": 3210,
      "ĠáĪĪáĪĿ": 3211,
      "baadaĠ": 3212,
      "Ġáº¹láº¹Ìģ": 3213,
      "NijeriyaĠ": 3214,
      "eiĠ": 3215,
      "itaĠceĠ": 3216,
      "ojo": 3217,
      "isiĠ": 3218,
      "Najeriya.": 3219,
      "hanyarĠ": 3220,
      "Ġáī£áĪħ": 3221,
      "rÃ©g": 3222,
      "Ġáī°áĪ«": 3223,
      "áīĢáĭį": 3224,
      "áĪĬáĭ«": 3225,
      "Mad": 3226,
      "iwaĠnaĠ": 3227,
      "Ġáĭ¨áĮį": 3228,
      "Lond": 3229,
      "not": 3230,
      "ilip": 3231,
      "27": 3232,
      "tÃŃ": 3233,
      "áįĮ": 3234,
      "áĭ®áī½": 3235,
      "Ã©m": 3236,
      "mÃ©j": 3237,
      "kungiyarĠ": 3238,
      "app": 3239,
      "aux": 3240,
      "ráº¹Ġ": 3241,
      "Ã¹ĠK": 3242,
      "Ġ(áĬ¨": 3243,
      "Id": 3244,
      "Mas": 3245,
      "Oc": 3246,
      "2020": 3247,
      "BabbanĠ": 3248,
      "daĠtaĠ": 3249,
      "kumaĠm": 3250,
      "Jamhur": 3251,
      "imm": 3252,
      "1)Ġ": 3253,
      "terĠ": 3254,
      "DagaĠ": 3255,
      "hivy": 3256,
      "orÃŃláº¹ÌĢĠ": 3257,
      "tÃ¬Ġk": 3258,
      "oreĠ": 3259,
      "Musul": 3260,
      "ĠáĪĦ": 3261,
      "Ġáĭ®áĪĲáĬķáĪµ": 3262,
      "contr": 3263,
      "al,Ġ": 3264,
      "19Ġ": 3265,
      "kund": 3266,
      "Lib": 3267,
      "iya.Ġ": 3268,
      "whichĠ": 3269,
      "eauĠ": 3270,
      "ĠáĬłáįį": 3271,
      "Ã²k": 3272,
      "áĭĪáĮ£": 3273,
      "by": 3274,
      "mÃ¬n": 3275,
      "pÃ¨Ġ": 3276,
      "áīłáĪ«": 3277,
      "lÃ¡raĠ": 3278,
      "Worl": 3279,
      "Tib": 3280,
      "áī³áĭį": 3281,
      "Ã©l": 3282,
      "butĠ": 3283,
      "er.": 3284,
      "ina": 3285,
      "oĠl": 3286,
      "uuĠ": 3287,
      "áº¸": 3288,
      "Ã¡stáº¹Ìģrá»įÌģÃ¬dÃ¬": 3289,
      "nÃŃĠibiĠ": 3290,
      "áĮĬáĭľ": 3291,
      "Ġ(áĬ¥": 3292,
      "anazart": 3293,
      "AmerikaĠ": 3294,
      "yaw": 3295,
      "ĠáĬłáĪĽ": 3296,
      "Ġáī¥áĪŃ": 3297,
      "School": 3298,
      "24": 3299,
      "áīłáī°": 3300,
      "Ġáį¡áį¡": 3301,
      "err": 3302,
      "anzuĠ": 3303,
      "utanenĠ": 3304,
      "60": 3305,
      "ungeĠ": 3306,
      "entreĠ": 3307,
      "And": 3308,
      "tonĠ": 3309,
      "ĠáĬ¨áĪļ": 3310,
      "áĪ³áĭĬ": 3311,
      "ĠáĭŃáī³áĭĪ": 3312,
      "2)Ġ": 3313,
      "yankinĠ": 3314,
      "ÃłkÃ³": 3315,
      "jih": 3316,
      "Ob": 3317,
      "red": 3318,
      "War": 3319,
      "wÃ©Ġ": 3320,
      "yÃ©Ġ": 3321,
      "ull": 3322,
      "amaĠm": 3323,
      "áĬĸáĪµ": 3324,
      "publ": 3325,
      "niĠwá»įÌģnĠ": 3326,
      "Brit": 3327,
      "bÃ¹nĠ": 3328,
      "jáº¹ÌģĠp": 3329,
      "ostĠ": 3330,
      "yl": 3331,
      "ĠáĪ¥áĪ«": 3332,
      "garinĠ": 3333,
      "áĪĿáį£": 3334,
      "áĪ«áĪ±": 3335,
      "kan": 3336,
      "eraĠ": 3337,
      "ĠáĬ£": 3338,
      "Ġ(áĭ¨": 3339,
      "Ufarans": 3340,
      "occ": 3341,
      "Ġáº¹gbáº¹ÌģĠ": 3342,
      "edĠtheĠ": 3343,
      "áĪ³áī¥": 3344,
      ")Ġáĭ¨": 3345,
      "áĮĪáĪ©": 3346,
      "katikaĠ": 3347,
      "sesĠ": 3348,
      "say": 3349,
      "reg": 3350,
      "fÃ©r": 3351,
      "wÃ²Ġ": 3352,
      "wá»įÌģĠ": 3353,
      "áĬķáī²": 3354,
      "áī£áī¸áĭį": 3355,
      "ĠáĬ¥áĬķáĭ²áĪģáĪĿ": 3356,
      "28": 3357,
      "Ã©.": 3358,
      "als": 3359,
      "ĠáīĭáĬķáīĭáĭİáī½": 3360,
      "ĠØ": 3361,
      "abl": 3362,
      "Kad": 3363,
      "baĠdaĠ": 3364,
      "Ġ(BaadaĠyaĠKristo).ĠMatukioĠWaliozaliwaĠWaliofarikiĠKarneĠyaĠ": 3365,
      "Europ": 3366,
      "áĭĪáĪ°": 3367,
      "Igb": 3368,
      "Ã¬gb": 3369,
      "akarantarĠ": 3370,
      "lamb": 3371,
      "s'": 3372,
      "Dec": 3373,
      "wajenĠ": 3374,
      "IpinleĠ": 3375,
      "ĠáĪ±": 3376,
      "wereĠ": 3377,
      "icaĠ": 3378,
      "uisĠ": 3379,
      "okinĠ": 3380,
      "samiĠ": 3381,
      "ĠH": 3382,
      "isi": 3383,
      "wig": 3384,
      "Ã¨rÃ©Ġ": 3385,
      "Mis": 3386,
      "pat": 3387,
      "ĠdesĠ": 3388,
      "Yun": 3389,
      "Ġáĭ¶": 3390,
      "atĠtheĠ": 3391,
      "elek": 3392,
      "Kir": 3393,
      "áĪįáĪµ": 3394,
      "Kim": 3395,
      "áĭĲ": 3396,
      "ĠáĬ¨áĭļáĭ«": 3397,
      "iyaĠtaĠ": 3398,
      "lÃ¡náº¹Ìģ": 3399,
      "ojoibiĠ": 3400,
      "jÃ¡deĠ": 3401,
      "ĠáĬłáĪľáĪªáĬ«": 3402,
      "ĠáĭĪáĬķáĭµ": 3403,
      "ĠáĪĪáĬł": 3404,
      "áĬĸáĪ©": 3405,
      "185": 3406,
      "atarĠdaĠ": 3407,
      "koaĠwaĠ": 3408,
      "nj": 3409,
      "áĭŃáĬķ": 3410,
      "ĠáĪĺáĮł": 3411,
      "ĠnaĠ": 3412,
      "ĠáĪª": 3413,
      "Ġáī½": 3414,
      "áįĪáĭį": 3415,
      "Ġáĭ°áĪ¨áĮĥ": 3416,
      "lá»įĠsÃŃĠ": 3417,
      "ÙĬ": 3418,
      "oleĠ": 3419,
      "hiop": 3420,
      "ĠáĬłáĭµáĪŃ": 3421,
      "Ġáĭ¨áĪħ": 3422,
      "áĪ¬áīµ": 3423,
      "ink": 3424,
      "NewĠYor": 3425,
      "litt": 3426,
      "ilom": 3427,
      "ĠáĪĨáĬĲáį¢": 3428,
      "arch": 3429,
      "ĠáĭĵáĬŃáĪįáīł.ĠáĮį": 3430,
      "outh": 3431,
      "uhur": 3432,
      "Ap": 3433,
      "ition": 3434,
      "Ã¬gbÃłjÃ¡Ġ": 3435,
      "anazarta": 3436,
      "stit": 3437,
      "ĠáĪĺáĪ°": 3438,
      "âĢ¢": 3439,
      "Ġáĭ«áĪµ": 3440,
      "tÃ¬ĠkÃ©kerÃ©Ġ": 3441,
      "onÃŃ": 3442,
      "tit": 3443,
      "Ġ4": 3444,
      "Nch": 3445,
      "má»įÌģ": 3446,
      "rá»įÌĢĠ": 3447,
      "áįĲ": 3448,
      "Ġáĭ¨áĬ¤": 3449,
      "áįĭáīµ": 3450,
      "ĠáĪ¥áĬĲ": 3451,
      "aĠc": 3452,
      "tang": 3453,
      "áįįáīµ": 3454,
      "áīĥáĪµ": 3455,
      "áĪĬáĬŃ": 3456,
      "kamarĠ": 3457,
      "oĠtaĠ": 3458,
      "Ã¬pÃŃnláº¹ÌĢĠ": 3459,
      "icsĠ": 3460,
      "lÃ¡náº¹ÌģtÃ¬ĠkÃ©kerÃ©Ġ": 3461,
      "aaĠ": 3462,
      "áĬķáį£": 3463,
      "áĪĪáĭ°": 3464,
      "as,Ġ": 3465,
      "9)Ġ": 3466,
      "peu": 3467,
      "fÃºn": 3468,
      "utum": 3469,
      "áĬĻ": 3470,
      "ukuĠ": 3471,
      "áĪŃáĪµáī¶áĪµ": 3472,
      "ĠáĭĪáĬķáĭĿ": 3473,
      "samunĠ": 3474,
      "nÃŃĠibiĠÃ¬gbÃłjÃ¡Ġ": 3475,
      "iyyaĠ": 3476,
      "ÃłbÃŃĠ": 3477,
      "lÃ¡náº¹ÌģtÃ¬ĠkÃ©kerÃ©ĠnÃŃĠibiĠÃ¬gbÃłjÃ¡Ġ": 3478,
      "lÃ¡náº¹ÌģtÃ¬ĠkÃ©kerÃ©ĠnÃŃĠibiĠÃ¬gbÃłjÃ¡ĠÃ¡stáº¹Ìģrá»įÌģÃ¬dÃ¬": 3479,
      "áĪĿáĬĲáīµ": 3480,
      "Bab": 3481,
      "takatifuĠ": 3482,
      "Ġáī°áī¥áĪİ": 3483,
      "Dr": 3484,
      "Di": 3485,
      "w.": 3486,
      "áĭĭáīĤ": 3487,
      "uĠzaĠ": 3488,
      "ĠtÃŃ": 3489,
      "kumaĠyaĠ": 3490,
      "etĠdeĠ": 3491,
      "ci": 3492,
      "fran": 3493,
      "3-": 3494,
      "ĠáīłáīĢ": 3495,
      "ĠAr": 3496,
      "ĠáĪįáĮĨáī½": 3497,
      "jirg": 3498,
      "jáº¹ÌģĠplÃ¡náº¹ÌģtÃ¬ĠkÃ©kerÃ©ĠnÃŃĠibiĠÃ¬gbÃłjÃ¡ĠÃ¡stáº¹Ìģrá»įÌģÃ¬dÃ¬": 3499,
      "BayanĠ": 3500,
      "dif": 3501,
      "ulik": 3502,
      "daĠyaĠ": 3503,
      "shiry": 3504,
      "áĬĲáĭį": 3505,
      "ĠáĬĲáīłáĪ©áį¢": 3506,
      "Be": 3507,
      "iĠnaĠm": 3508,
      "ĠáĮ¥áīħáĪĿ": 3509,
      "ĠáĭĿáĪŃáĭĿ": 3510,
      "orÃŃĠ": 3511,
      "daĠyawanĠ": 3512,
      "áĪįáį£": 3513,
      "Kas": 3514,
      "iyas": 3515,
      "Æĺ": 3516,
      "awa,Ġ": 3517,
      "dÃ©Ġ": 3518,
      "akaĠm": 3519,
      "Lugh": 3520,
      "ĠáīłáĮį": 3521,
      "áĪĪáĪĽ": 3522,
      "ĠáĮŃ": 3523,
      "ĠáĬŃáįįáĪĪĠáĭĺáĪĺáĬķ": 3524,
      "anyaĠ": 3525,
      "26": 3526,
      "tob": 3527,
      "ustĠ": 3528,
      "áīŃ": 3529,
      ".ĠT": 3530,
      "landĠ": 3531,
      "nunaĠ": 3532,
      "áĪ¥áĪ«": 3533,
      "ĠÂ«áĭ¨": 3534,
      "Part": 3535,
      "ime": 3536,
      "gin": 3537,
      "áĮĪáĪ«": 3538,
      "áĭĵáīµ": 3539,
      "wa.": 3540,
      "thatĠ": 3541,
      "...": 3542,
      "aká»į": 3543,
      "usi": 3544,
      "aĠkamaĠ": 3545,
      "lÃ¡ti": 3546,
      "tÃ³": 3547,
      "Mor": 3548,
      "Rob": 3549,
      "Ġáĭ¨áĭį": 3550,
      "ĠáĮįáī¥": 3551,
      "iĠyaĠk": 3552,
      "wasanĠk": 3553,
      "oin": 3554,
      "yoĠ": 3555,
      "old": 3556,
      "eĠdansĠ": 3557,
      "áĭŃáīµ": 3558,
      "ayarĠ": 3559,
      "á¹£eĠ": 3560,
      "ĠáĪĺáĬķáĮĪáĭµ": 3561,
      "Ã¨gbÃ¨Ġ": 3562,
      "wana": 3563,
      "dauk": 3564,
      "la": 3565,
      ",ĠÃ³Ġ": 3566,
      "kuwaĠm": 3567,
      "Â»Ġ": 3568,
      "hab": 3569,
      "áĪĪáī²áĬ«": 3570,
      "áĪĺáīµ": 3571,
      "Ġáĭ¨áĬ¢": 3572,
      "áĪ½áĬķ": 3573,
      "áĭŃáĭĪáīµ": 3574,
      "100": 3575,
      "Stat": 3576,
      "áĮłáīħ": 3577,
      "Ġáī¥áĪĶ": 3578,
      "ĠáĮ¥áĬĵáīµ": 3579,
      "erb": 3580,
      "Kud": 3581,
      "áĭĪáī½": 3582,
      "ĠáĮ¥áĬķ": 3583,
      "fas": 3584,
      "ostiĠ": 3585,
      "ori": 3586,
      "sheĠ": 3587,
      "ĠáĬłáĪģ": 3588,
      "filamuĠ": 3589,
      "áĪµáįĭ": 3590,
      "ojÃºĠ": 3591,
      "2Ġáĭĵ.áĪĿ.": 3592,
      "ĠáĪĺáĮ½áĪĲáįį": 3593,
      "áĪ®áĪµ": 3594,
      "áĬĶáī³": 3595,
      "áĪĺáĬĵáĭĬ": 3596,
      "umeĠ": 3597,
      "uss": 3598,
      "kiĠ": 3599,
      "wa,Ġ": 3600,
      "harib": 3601,
      "On": 3602,
      "yáº¹": 3603,
      "ertĠ": 3604,
      "eĠdeĠlaĠ": 3605,
      "ÙĨ": 3606,
      "áĪĭáĭį": 3607,
      "etaĠ": 3608,
      "Comm": 3609,
      "ĠáĪ®": 3610,
      "ĠáĬ¨áĬĲ": 3611,
      "áĭĺáĮĭ": 3612,
      "Afrik": 3613,
      "hm": 3614,
      "áĪŁ": 3615,
      "ortĠ": 3616,
      "allĠ": 3617,
      "iong": 3618,
      "imoĠ": 3619,
      "NÃŃĠ": 3620,
      "ĠáĪīáīĥáĪµ": 3621,
      "29": 3622,
      "omeĠ": 3623,
      "áĪ¾": 3624,
      "Ġáī°áĪ°": 3625,
      "sÃŃláº¹ÌĢĠ": 3626,
      "Colleg": 3627,
      "áĬĲáĪ³": 3628,
      "áĪ¨áĪĿ": 3629,
      "Wh": 3630,
      "pi": 3631,
      "kunaĠ": 3632,
      "30Ġ": 3633,
      "ĠáĬłáįĪ": 3634,
      "Ġáĭ¨áĪķ": 3635,
      "Ãłá¹£": 3636,
      "chiniĠyaĠ": 3637,
      "wanam": 3638,
      "wambaĠ": 3639,
      "www.": 3640,
      "kal": 3641,
      "MataĠ": 3642,
      "áĪ«áĬķ": 3643,
      "ananĠhukum": 3644,
      "áĭķáĪ«áī¥": 3645,
      "on.": 3646,
      "'Y": 3647,
      "CO": 3648,
      "Abd": 3649,
      "atarĠ": 3650,
      "ĠáīłáįĬáīµ": 3651,
      "áįĪáĪį": 3652,
      "Ġáĭ¨áĬłáĪľáĪªáĬ«": 3653,
      "184": 3654,
      "Ã¬má»įÌĢĠ": 3655,
      "aĠkasanceĠ": 3656,
      "Ã²á¹£Ã¨rÃ©": 3657,
      "jáº¹ÌģĠplÃ¡náº¹ÌģtÃ¬ĠkÃ©kerÃ©ĠnÃŃĠibiĠÃ¬gbÃłjÃ¡ĠÃ¡stáº¹Ìģrá»įÌģÃ¬dÃ¬.ĠItokasiĠ": 3658,
      "inat": 3659,
      "ĠáīħáĪŃ": 3660,
      "ta,Ġ": 3661,
      "iziki": 3662,
      "Ã¨tÃ²Ġ": 3663,
      "gudan": 3664,
      "Ger": 3665,
      "Sain": 3666,
      "áįİáī½": 3667,
      "áĪįáĪĿ": 3668,
      "ĠáĬ¥áĬķáĮĤ": 3669,
      "ĠáĭŃáī£áĪĭáĪįáį¢": 3670,
      "dev": 3671,
      "gbajÃº": 3672,
      "toĠtheĠ": 3673,
      "gen": 3674,
      "ĠáĪģáĪĪ": 3675,
      "Ann": 3676,
      "parti": 3677,
      "Pop": 3678,
      "Ex": 3679,
      "má»į": 3680,
      "¹¢": 3681,
      "Ġ5": 3682,
      "Ku": 3683,
      "Ã¡r": 3684,
      "ĠáĬłáīĢ": 3685,
      "ĠáĭĪáĭŃ": 3686,
      "Ġáĭ¨áĪļáĪĪáĭį": 3687,
      "Op": 3688,
      "Ã¬nĠ": 3689,
      "]Ġ": 3690,
      "unanĠ": 3691,
      "áī³áĪªáĬŃ": 3692,
      "ĠáĮīáĭ³": 3693,
      "mak": 3694,
      "un,Ġ": 3695,
      "owĠ": 3696,
      "Ky": 3697,
      "ĠáĬŃáĪį": 3698,
      "hasaĠ": 3699,
      "mÃŃ": 3700,
      "istanĠ": 3701,
      "1,": 3702,
      "lo": 3703,
      "King": 3704,
      "jiĠwaĠ": 3705,
      "ararĠ": 3706,
      "prot": 3707,
      "ĠAmáº¹ÌģrÃŃkÃł": 3708,
      "mas": 3709,
      "popul": 3710,
      "iakaĠ": 3711,
      "MwakaĠ": 3712,
      "ÆĻas": 3713,
      "Ã²á¹£Ã¨rÃ©Ġ": 3714,
      "cel": 3715,
      "alab": 3716,
      "ĠáīłáĪŃ": 3717,
      "áī¥áĪ¨áīµ": 3718,
      "ĠáĬķáĮį": 3719,
      "ideĠ": 3720,
      "HeĠ": 3721,
      "edĠinĠ": 3722,
      "nomb": 3723,
      "otherĠ": 3724,
      "Ġáį²áį": 3725,
      "ĠáĪĽáĬķ": 3726,
      "stitut": 3727,
      "k.": 3728,
      "yab": 3729,
      "Of": 3730,
      "ameĠ": 3731,
      "ĠáĮĮ": 3732,
      "agesĠ": 3733,
      "(201": 3734,
      "Mashar": 3735,
      ")ĠniĠ": 3736,
      "WorldĠ": 3737,
      "ars": 3738,
      "ĠáīµáĬķ": 3739,
      "ĠáĬ¥áĬķáĭ²áĪħ": 3740,
      "eralĠ": 3741,
      "iti": 3742,
      "zaiĠ": 3743,
      "Ġ17": 3744,
      "aud": 3745,
      "ÃłgbÃ©": 3746,
      "áĬĲáī±": 3747,
      "áĪĽáīµ": 3748,
      "Najeriya,Ġ": 3749,
      "ĠáįķáĪ¬": 3750,
      "franÃ§": 3751,
      "n'": 3752,
      "commun": 3753,
      "ĠáĪķáĭĿáī¥": 3754,
      "GhanaĠ": 3755,
      "sĠandĠ": 3756,
      "Iá¹£": 3757,
      "achiĠ": 3758,
      "kutokaĠMarekani": 3759,
      "áĬŃáĪī": 3760,
      "Ġáī³áĪªáĬ«áĭĬ": 3761,
      ",000Ġ": 3762,
      "ĠáĭŃáī³áĭĪáīĥ": 3763,
      "notĠ": 3764,
      "pek": 3765,
      "ĠáĪĺáĪłáĪ¨": 3766,
      "Dis": 3767,
      "lokac": 3768,
      "Ãºgb": 3769,
      "ofaut": 3770,
      "JulaiĠ": 3771,
      "pers": 3772,
      "hiz": 3773,
      "cut": 3774,
      "áĪĪáĬķ": 3775,
      "ĠáĬ¨áĬ¥": 3776,
      "áĪĺáĭµ": 3777,
      "VĠ": 3778,
      "osoĠ": 3779,
      "ce,Ġ": 3780,
      "scor": 3781,
      "Ug": 3782,
      "dag": 3783,
      "nÃłĠ": 3784,
      "nÃŃbiĠ": 3785,
      "áĪ¨áĪ°": 3786,
      "wanz": 3787,
      "iaĠnaĠ": 3788,
      "áĪŃáī²": 3789,
      "pay": 3790,
      "á¹£Ã¨": 3791,
      "áĪĺáĪį": 3792,
      "ight": 3793,
      "ĠáĬ¨áĭļáĪħ": 3794,
      "ĠáĬĲáĭįáį¡áį¡": 3795,
      "ĠáĬĵáī¸áĭį": 3796,
      "iĠmaiĠ": 3797,
      "JanuariĠ": 3798,
      "Er": 3799,
      "nuĠ": 3800,
      "ĠdinĠ": 3801,
      "wakil": 3802,
      "ĠáĭĿáĪŃáĭĿáĪŃ": 3803,
      "ourn": 3804,
      "80": 3805,
      "alsoĠ": 3806,
      "áĭļáĪģ": 3807,
      "edĠbyĠ": 3808,
      "anĠhaifeĠshiĠaĠshekaraĠtaĠ": 3809,
      "orÃŃláº¹ÌĢĠÃ¨dÃ¨Ġ": 3810,
      "¶áį": 3811,
      "ĠáĬ¥áĬĵĠáīł": 3812,
      "áĬ¨áī°áĪĽ": 3813,
      "i:Ġ": 3814,
      "ráº¹": 3815,
      "Gir": 3816,
      "áĭ«áĭĬ": 3817,
      "fáº¹ÌģĠ": 3818,
      "eux": 3819,
      "mod": 3820,
      "wish": 3821,
      "áĬĵáī¸áĭį": 3822,
      "áīłáĬł": 3823,
      "ĠáīłáĬ©": 3824,
      "ĠáĪģáĬĶáī³": 3825,
      "arwaĠ": 3826,
      ")Ġáīł": 3827,
      "cap": 3828,
      "aĠjiharĠ": 3829,
      "áĬĵáĪįáį¢": 3830,
      "ĠáĮĬ": 3831,
      "NigerianĠ": 3832,
      "AwonĠ": 3833,
      "daĠsuk": 3834,
      "Ek": 3835,
      "áī¤áī°": 3836,
      "NationalĠ": 3837,
      "8-": 3838,
      "pour": 3839,
      "áĪ«áĪ²": 3840,
      "ĠáĭŃáīĢ": 3841,
      "áĬ¨áīµ": 3842,
      ",ĠandĠ": 3843,
      "ĠAfr": 3844,
      "waik": 3845,
      "iiĠ": 3846,
      "áĮĦ": 3847,
      "Ġáī»": 3848,
      "MtakatifuĠ": 3849,
      "lik": 3850,
      "umaĠ": 3851,
      "waÉĹ": 3852,
      "eanĠ": 3853,
      "lab": 3854,
      "ĠC": 3855,
      "áī¥áīµ": 3856,
      "ĠáĬĲáĮ»": 3857,
      "Ã³ĠtiĠ": 3858,
      "Wakrist": 3859,
      "Bay": 3860,
      "Her": 3861,
      "rem": 3862,
      "iĠkar": 3863,
      "Dav": 3864,
      "Ġáī±": 3865,
      "rin": 3866,
      "itwaĠ": 3867,
      "sÃ¬nĠ": 3868,
      "Os": 3869,
      "áĪĪáī½": 3870,
      "YaĠ": 3871,
      "UniversityĠofĠ": 3872,
      "yÃ³": 3873,
      "yamm": 3874,
      "iĠneĠ": 3875,
      "Ã¡l": 3876,
      "chang": 3877,
      "ibiyarĠ": 3878,
      "iĠyaĠK": 3879,
      "girm": 3880,
      "ĠAgostiĠ": 3881,
      "waikway": 3882,
      "e:Ġ": 3883,
      "áĬĲáīłáĪ¨": 3884,
      "utilis": 3885,
      "áĪ¶áī½": 3886,
      "ĠáĪļáĬĴ": 3887,
      "dom": 3888,
      "hor": 3889,
      "eniĠ": 3890,
      "ewarĠ": 3891,
      "AareĠ": 3892,
      "firstĠ": 3893,
      "aisĠwaĠ": 3894,
      "Uk": 3895,
      "ĠáĬ¨áĬłáĪ": 3896,
      "ĠáįĪáĪŃ": 3897,
      "Ġáĭ¨áĪµ": 3898,
      "ĠáĪĺáĮ¨áĪ¨áĪ»": 3899,
      "áĭļáīĥ": 3900,
      "'y": 3901,
      "daĠakeĠ": 3902,
      "aĠkwaĠm": 3903,
      "aâĢĻ": 3904,
      "Yar": 3905,
      "n,Ġ": 3906,
      "mÃºĠ": 3907,
      "áĭ°áĭį": 3908,
      "ĠáĬŃáĪŃáĪµáī²áĭ«áĬķ": 3909,
      "ref": 3910,
      "uis": 3911,
      "âĢĶ": 3912,
      "Bal": 3913,
      "Go": 3914,
      "ginaĠ": 3915,
      "yÃłĠ": 3916,
      "nÃ¡Ãł": 3917,
      "Ġáįĭ": 3918,
      "sit": 3919,
      "uĠniĠ": 3920,
      "hum": 3921,
      "áĪĿáĬķ": 3922,
      "le-": 3923,
      "Chr": 3924,
      "ihinĠ": 3925,
      "esp": 3926,
      "ĠduĠ": 3927,
      "áī´áĭİáĪµ": 3928,
      "ĠáĬĲáĮĪáĪ®áī½": 3929,
      "isiwaĠ": 3930,
      "ureĠ": 3931,
      "ISB": 3932,
      "alib": 3933,
      "overn": 3934,
      "gunĠ": 3935,
      "incip": 3936,
      "áĬ¸": 3937,
      "Ġáī¢áĪĨáĬķ": 3938,
      "áĮĪáĬĺáĭį": 3939,
      "so": 3940,
      "hakaĠ": 3941,
      "ongĠ": 3942,
      "ational": 3943,
      "'yanĠ": 3944,
      "Uch": 3945,
      "gÃŃ": 3946,
      "sá»įĠ": 3947,
      "oĠsiĠ": 3948,
      "ĠáĭĺáĪŃ": 3949,
      "He": 3950,
      "echn": 3951,
      "áĪĺáĮ£": 3952,
      "áī»áī¸áĭį": 3953,
      "Ġáĭ¨áĪĽáĭŃ": 3954,
      "taf": 3955,
      "anti": 3956,
      "waĠniĠ": 3957,
      "eweĠ": 3958,
      "pres": 3959,
      "ocr": 3960,
      "áĮĪáĭ°": 3961,
      "econ": 3962,
      "aussiĠ": 3963,
      "ĠáĭŃáĮĪáĬĽáĪįáį¢": 3964,
      "má»įÌģĠ": 3965,
      "iaĠ(": 3966,
      "samarĠdaĠ": 3967,
      "gudaĠ": 3968,
      "sikuĠ": 3969,
      "dok": 3970,
      "||": 3971,
      "áĪĤ": 3972,
      "Ã¬lÃº": 3973,
      "6-": 3974,
      "adinĠ": 3975,
      "ox": 3976,
      "usiĠ": 3977,
      "new": 3978,
      "ĠáĬłáīµ": 3979,
      "gid": 3980,
      "kaf": 3981,
      "ÃĮj": 3982,
      "tureĠ": 3983,
      "fromĠtheĠ": 3984,
      "wigiz": 3985,
      "rad": 3986,
      "sel": 3987,
      "anb": 3988,
      "ĠáĪ¦": 3989,
      "inf": 3990,
      "ĠáīłáĪĻ": 3991,
      "áĪ±áĪµ": 3992,
      "ĠáĭµáĪŃáĮħ": 3993,
      "gÃ©n": 3994,
      "ejÃ¬": 3995,
      "ywo": 3996,
      "áįĶ": 3997,
      "lÃ¹": 3998,
      "ĠR": 3999,
      "ViungoĠvyaĠnjeĠ": 4000,
      "atolikiĠ": 4001,
      "waf": 4002,
      "áĪĺáĭį": 4003,
      "áī·áĪįáį¢": 4004,
      "score": 4005,
      "Award": 4006,
      "orÃºká»įĠ": 4007,
      "áĭĭáĬĵ": 4008,
      "antsĠ": 4009,
      "áĮĢáĪŃáĪĺáĬķ": 4010,
      "serik": 4011,
      "shindiĠwaĠTuzoĠyaĠNobelĠyaĠTib": 4012,
      "Ġkm": 4013,
      "tionsĠ": 4014,
      "Ethiop": 4015,
      "ĠáĬ¡": 4016,
      "áĪĺáĪ°": 4017,
      "ĠáĬ¥áĬĲ": 4018,
      "ÃłmÃ¬": 4019,
      "ÙĪ": 4020,
      "áĭ°áĬķ": 4021,
      "ĠáĪĿáĬŃáĬķáĭ«áīµ": 4022,
      "dâĢĻ": 4023,
      "tatt": 4024,
      "Fir": 4025,
      "anzish": 4026,
      "juuĠyaĠ": 4027,
      "-áĬł": 4028,
      "Ġ(áīł": 4029,
      "áįĪáĮ¥": 4030,
      "onĠtheĠ": 4031,
      "ÉĹayaĠ": 4032,
      "áĬķáĭ±": 4033,
      "ĠáĪĿáĬķáĮ®áī½": 4034,
      "ernĠ": 4035,
      ".ĠK": 4036,
      "ĠáīłáĪ½": 4037,
      "ĠáĪĿáĬķáĪĿ": 4038,
      "uzikiĠ": 4039,
      "rib": 4040,
      "kuh": 4041,
      "70": 4042,
      "t,Ġ": 4043,
      "taĠyiĠ": 4044,
      "ÃĮb": 4045,
      "áĪµáĭ«": 4046,
      "kÃłn": 4047,
      "yayinĠ": 4048,
      "âĢ¹": 4049,
      "watoĠ": 4050,
      "agbÃ¡": 4051,
      "DuniyaĠ": 4052,
      "áĪ·": 4053,
      "Ġáĭĭáī¢": 4054,
      "tsĠ": 4055,
      "áĪĭáĪ´": 4056,
      "Sar": 4057,
      "awarĠ": 4058,
      "YorÃ¹bÃ¡Ġ": 4059,
      "pÃ©": 4060,
      "lant": 4061,
      "áĮĪáĪį": 4062,
      "ĠáĪĿáĪŃ": 4063,
      "ograph": 4064,
      "yawanĠ": 4065,
      "báº¹Ìģáº¹ÌĢĠ": 4066,
      "i)Ġ": 4067,
      "ĠáĪł": 4068,
      "babb": 4069,
      "Nd": 4070,
      "Ġáĭ¨áĬ«": 4071,
      "Ġáĭ¨áī°áĪ°": 4072,
      "OrÃŃ": 4073,
      "Aj": 4074,
      "áīłáĪĺ": 4075,
      "AS": 4076,
      "Fas": 4077,
      "ĠtÃłbÃŃĠ": 4078,
      "walej": 4079,
      "duniyaĠ": 4080,
      "·áį": 4081,
      "ĠáĪĺáĪŃ": 4082,
      "ĠáĪĺáĪįáĬŃ": 4083,
      "áĬŃáĪŃ": 4084,
      "áīłáĪĪ": 4085,
      "ock": 4086,
      "Cor": 4087,
      ".ĠItokasiĠÃĢwá»įnĠ": 4088,
      "hukumarĠ": 4089,
      "/Ġ": 4090,
      "yank": 4091,
      "áĭ²áĭ«": 4092,
      "alifĠ": 4093,
      "12Ġ": 4094,
      "bec": 4095,
      "maj": 4096,
      "mÃ¬": 4097,
      "15Ġ": 4098,
      "Mich": 4099,
      "JuniĠ": 4100,
      "sunanĠ": 4101,
      "|ĠRD1-": 4102,
      "ai.": 4103,
      "Ser": 4104,
      "Kib": 4105,
      "áīĨáĪµ": 4106,
      "ĠáĮ½áĪĳ": 4107,
      "áĬ¥áĬķáĭ°": 4108,
      "imeĠ": 4109,
      "conc": 4110,
      "din": 4111,
      "áĪĭáĪĽ": 4112,
      "kutokaĠMarekaniĠ": 4113,
      "dang": 4114,
      "kÃ¡": 4115,
      "aliĠyaĠ": 4116,
      "âĢº": 4117,
      "áĭĪáĪŃ": 4118,
      "imat": 4119,
      "Ġ(200": 4120,
      "leur": 4121,
      "áĪİáīµ": 4122,
      "4-": 4123,
      "amin": 4124,
      "ĠáĪµáĪĻ": 4125,
      "trans": 4126,
      "prov": 4127,
      "egeĠ": 4128,
      "jagor": 4129,
      "orig": 4130,
      "indiĠ": 4131,
      "ĠáĮłáĪ": 4132,
      "Ġáįª": 4133,
      "áĭ³áĪŃ": 4134,
      "ĠáĪłáĪ«": 4135,
      "ÃłwonĠ": 4136,
      "áĬĵáĭĬ": 4137,
      "aff": 4138,
      "anyanĠ": 4139,
      "Äģ": 4140,
      "iki.": 4141,
      "ation,Ġ": 4142,
      "ungu": 4143,
      "ĠáĬħ": 4144,
      "ĠáĪ¥áĪŃáĭĪ": 4145,
      "Med": 4146,
      "offic": 4147,
      "oseĠ": 4148,
      "ĠáĭŃáĪĨ": 4149,
      "Ġáĭ°áĪ´": 4150,
      "aĠlokacinĠ": 4151,
      "vir": 4152,
      "91": 4153,
      "ĠáĪĤ": 4154,
      "ĠáĬ¥áĮįáĪŃĠáĬ³áĪµ": 4155,
      "ĠáĬłáĪ³": 4156,
      "áĮłáĭį": 4157,
      "ightĠ": 4158,
      "onsĠ": 4159,
      "KwaĠ": 4160,
      "ohonĠ": 4161,
      "wandishiĠ": 4162,
      "polit": 4163,
      "Pi": 4164,
      "18Ġ": 4165,
      "Ġáĭ¨áĪ¥": 4166,
      "ĠáĪĿáĪįáĬŃ": 4167,
      "sehemuĠyaĠ": 4168,
      "Del": 4169,
      "ĠáĬłáĭ«": 4170,
      "áĭĪáīħ": 4171,
      "áįĪáĪ¨áĬķáĪ³áĭŃ": 4172,
      "nor": 4173,
      "Awá»įnĠ": 4174,
      "kÃ¹n": 4175,
      "asil": 4176,
      "jÃ¹lá»įĠ": 4177,
      ".Ġ(": 4178,
      "oirĠ": 4179,
      "cal": 4180,
      "áĪµáįĵ": 4181,
      "peluĠ": 4182,
      "iweĠ": 4183,
      "oá¹£Ã¹Ġkáº¹": 4184,
      "ÃŃrÃłnĠ": 4185,
      "LagosĠ": 4186,
      "wilayaĠ": 4187,
      "áĪ¡": 4188,
      "Ã¨meĠ": 4189,
      "ojaĠ": 4190,
      "Wal": 4191,
      "áĭķáĪį": 4192,
      "lÃ³rÃŃ": 4193,
      "a-fin": 4194,
      "ayyarĠ": 4195,
      "wÃŃpÃ©Ġ": 4196,
      "naĠku": 4197,
      "180": 4198,
      "baadaĠyaĠ": 4199,
      "áĪ¯": 4200,
      "ĠáĬĴ": 4201,
      "ĠáĬĸ": 4202,
      "áī¥áĭĻ": 4203,
      "ĠáĭĪáĪ¨áĭ³": 4204,
      "ĠáĬłáĪĪáīĥ": 4205,
      "partic": 4206,
      "Ø±": 4207,
      "Dem": 4208,
      "ÆĻasaĠ": 4209,
      "35": 4210,
      "áĪĽáĬķ": 4211,
      "áĭĭáĬķ": 4212,
      "áĪłáĪ«": 4213,
      "en.": 4214,
      "bayyanaĠ": 4215,
      "me": 4216,
      "ĠáĮħ": 4217,
      "A.": 4218,
      "famil": 4219,
      "u-": 4220,
      "ishiĠwaĠ": 4221,
      "FebruariĠ": 4222,
      "shindiĠwaĠTuzoĠyaĠNobelĠyaĠFiziki": 4223,
      "áĭİáī½áĬķ": 4224,
      "ongoĠ": 4225,
      "adiĠyaĠ": 4226,
      "0)Ġ": 4227,
      "rap": 4228,
      "Gb": 4229,
      "endĠ": 4230,
      "ensĠ": 4231,
      "áī°áĬķ": 4232,
      "áĪĪáī½áį¢": 4233,
      "gbá»įÌĢ": 4234,
      "ĠáĬłáĪ¸": 4235,
      "áĭ¨áĬł": 4236,
      "1892Ġáĭĵ.áĪĿ.": 4237,
      "ful": 4238,
      "saur": 4239,
      "ÃªmeĠ": 4240,
      ")áį£": 4241,
      "Ġáį¤": 4242,
      "ĠáĭŃáĪĺáĪµ": 4243,
      "áĭ¨áĪĿ": 4244,
      "Ø§ÙĦ": 4245,
      "Per": 4246,
      "fim": 4247,
      "akaĠk": 4248,
      "aientĠ": 4249,
      "aĠgasarĠ": 4250,
      "ShugabanĠ": 4251,
      "elsĠ": 4252,
      "áĭĳ": 4253,
      "áĪĺáĪ«": 4254,
      "ĠáĪĺáĮĢáĪĺáĪŃáĭ«": 4255,
      "alip": 4256,
      "ĠáĭķáĪĪ": 4257,
      "taĠnaĠ": 4258,
      "kasuwan": 4259,
      "sim": 4260,
      "17Ġ": 4261,
      "áĬĵĠáĬ¨": 4262,
      "unĠniĠ": 4263,
      "áĮįáī¥áĮ½": 4264,
      "AfricanĠ": 4265,
      "ubuĠ": 4266,
      "amfaniĠdaĠ": 4267,
      "awan": 4268,
      "ick": 4269,
      "prof": 4270,
      "áĮĪáī¥": 4271,
      "áĭ²áĪħ": 4272,
      "Ġáī³áĭĭáīĤ": 4273,
      "Ġáīłáī°áĪĪáĭŃ": 4274,
      "io": 4275,
      "Ãłráº¹Ġ": 4276,
      "wasanĠkwaikway": 4277,
      "alb": 4278,
      "ĠL": 4279,
      "ĠáĪº": 4280,
      "ĠáīłáĮ£áĪĿ": 4281,
      "ĠáĬ¥áĭį": 4282,
      "áĮĪáīł": 4283,
      "áĭĺáĪŃ": 4284,
      "áĬ®áī½": 4285,
      "mer": 4286,
      "umbaĠ": 4287,
      "asharaĠ": 4288,
      "UlayaĠ": 4289,
      "áĮ¦áĪŃ": 4290,
      "áĭ°áĮį": 4291,
      "ĠáīłáĪĮ": 4292,
      "ĠáĬŃáįįáĪĭ": 4293,
      "oĠdaĠ": 4294,
      "Chin": 4295,
      "una": 4296,
      "tab": 4297,
      "oyÃ¨Ġ": 4298,
      "NaijiriaĠ": 4299,
      "padÃłĠ": 4300,
      "ly": 4301,
      "ment": 4302,
      "âĢ¦": 4303,
      "aĠdun": 4304,
      "shaw": 4305,
      "hasĠ": 4306,
      "Aug": 4307,
      "InternationalĠ": 4308,
      "sÃ³": 4309,
      "alim": 4310,
      "áĬ¹": 4311,
      ".ĠS": 4312,
      "áĪ³áī¸áĭį": 4313,
      "áĭĬáīµ": 4314,
      "áįĪáĪµ": 4315,
      "áĮ£áīµ": 4316,
      "ĠáĬłáĭŃáĭ°": 4317,
      "yaĠKemi": 4318,
      "tÃłbÃŃĠ": 4319,
      "Kats": 4320,
      "Â»Ġ(": 4321,
      "adem": 4322,
      "Ãīt": 4323,
      "has": 4324,
      "sol": 4325,
      "áĮ¥áĪ¨": 4326,
      "áĪįáĮ£áĬķ": 4327,
      "Pap": 4328,
      "ainsĠ": 4329,
      "IIĠ": 4330,
      "Ã©p": 4331,
      "AN": 4332,
      "Pet": 4333,
      "UjerumaniĠ": 4334,
      "byĠtheĠ": 4335,
      ",ĠS": 4336,
      "áĪĺáī±": 4337,
      "áĮįáĪį": 4338,
      "ĠáīłáĪģ": 4339,
      "ĠáīĢáĮ¥": 4340,
      "áĪķáĪŃ": 4341,
      "Ã©ĠparĠ": 4342,
      "lakeĠ": 4343,
      "Ġ'": 4344,
      "ne.": 4345,
      "Â°": 4346,
      "ĠT": 4347,
      "ship": 4348,
      "14Ġ": 4349,
      "áįĳ": 4350,
      "áĪ¨áī¥": 4351,
      "áīłáĪ©áīµ": 4352,
      "amad": 4353,
      "Yamm": 4354,
      "faitĠ": 4355,
      "yaĠkasanceĠ": 4356,
      "asiasaĠ": 4357,
      "visiwaĠ": 4358,
      "lÃ³gÃºnĠ": 4359,
      "gw": 4360,
      "iter": 4361,
      "Az": 4362,
      "90": 4363,
      "97": 4364,
      "anniĠ": 4365,
      "unt": 4366,
      "áĭµáĪ¨áĮį": 4367,
      "des": 4368,
      "oĠkatikaĠ": 4369,
      "Waliozali": 4370,
      "dayaĠdagaĠcikinĠ": 4371,
      "Ibad": 4372,
      "prÃ©sent": 4373,
      "masuĠ": 4374,
      "ĠáĪ»": 4375,
      "áĭįáĪĿ": 4376,
      "áĪĿáĪħáĪŃ": 4377,
      "ĠáĬ¥áĬķáĮįáĪĬáĭĿ": 4378,
      "fÃŃÃ¬m": 4379,
      "rom": 4380,
      "Bah": 4381,
      "arz": 4382,
      "áĭĪáĪ¨": 4383,
      "áĮłáĪ©": 4384,
      "ĠáĬłáĮĪáĪįáĮį": 4385,
      "iyasaĠ": 4386,
      "aĠmat": 4387,
      "áĪ¨áĮĭ": 4388,
      "ĠáĬ¥áĭ¨áī°": 4389,
      "tareĠ": 4390,
      "Ã¬gbÃłĠ": 4391,
      "ÅĦĠs": 4392,
      "oireĠ": 4393,
      "taraĠ": 4394,
      "ven": 4395,
      "ĠáĪĺáĪĨáĬĳ": 4396,
      "45": 4397,
      "juĠ": 4398,
      "Ġd'": 4399,
      "Bi": 4400,
      "JinaĠ": 4401,
      "UingerezaĠ": 4402,
      "aĠÆĻasarĠ": 4403,
      "Ã¬f": 4404,
      "anĠhaifeĠtaĠ": 4405,
      "upandeĠwaĠ": 4406,
      "cin": 4407,
      "enoĠ": 4408,
      "áĭ®áĪµ": 4409,
      "The": 4410,
      "ĠáĬłáĪĺáīµ": 4411,
      "áĬĵáĬķ": 4412,
      "Ġáº¹láº¹ÌģbÃ¹nĠ": 4413,
      "kuk": 4414,
      "US": 4415,
      "apr": 4416,
      "yo": 4417,
      "ectĠ": 4418,
      "isteĠ": 4419,
      "áĬĹ": 4420,
      "ilion": 4421,
      "rá»įÌĢ": 4422,
      "ye": 4423,
      "ĠáĪĥáĭŃáĪĽáĬĸ": 4424,
      "olos": 4425,
      "itz": 4426,
      "hiyoĠ": 4427,
      "ĠkanĠ": 4428,
      "ĠApriliĠ": 4429,
      "erÃ©": 4430,
      "ĠáĭĪáīħáīµ": 4431,
      "bl": 4432,
      "iâĢĻ": 4433,
      "yenyeĠ": 4434,
      "Ãłj": 4435,
      "Ã¹gbá»įÌģnĠ": 4436,
      "iĠkamaĠ": 4437,
      "Fin": 4438,
      "a)": 4439,
      "jim": 4440,
      "ĠáĬ¥áĬĲáĭļáĪħ": 4441,
      "áī£áĪŃ": 4442,
      "http://www.": 4443,
      "áĬĥ": 4444,
      "aĠkwenyeĠ": 4445,
      "ext": 4446,
      "unc": 4447,
      "áī£áĭĬ": 4448,
      "fl": 4449,
      "enz": 4450,
      "yÃ¬ÃŃ": 4451,
      "kusin": 4452,
      "jinaĠlaĠ": 4453,
      "ĠAb": 4454,
      "Peop": 4455,
      "leĠm": 4456,
      "ItaĠ": 4457,
      "áį²áį": 4458,
      "ĠáĭŃáĭĺ": 4459,
      "umiaĠ": 4460,
      "ĠáĪĽáī´áĭİáĪµ": 4461,
      "ledĠ": 4462,
      "babbanĠbirninĠ": 4463,
      "eziĠ": 4464,
      "Haif": 4465,
      "mataĠ": 4466,
      "erreĠ": 4467,
      "´áį": 4468,
      "ĠáĬ¬": 4469,
      "anĠ(": 4470,
      "ĠáĪµáīµ": 4471,
      "áĮĭáĪį": 4472,
      "Ġáĭįáĭµ": 4473,
      "áĪģáĬķ": 4474,
      "cik": 4475,
      "ana'": 4476,
      "adil": 4477,
      "sinim": 4478,
      "Amerik": 4479,
      "nas": 4480,
      "ģáĬĳ": 4481,
      "Ġáĭ´": 4482,
      "uĠK": 4483,
      "portĠ": 4484,
      "sch": 4485,
      "OnĠ": 4486,
      "amu": 4487,
      "stat": 4488,
      ".ĠH": 4489,
      "bor": 4490,
      "11Ġ": 4491,
      "akoĠ": 4492,
      "áĪ«áĪīáį¢": 4493,
      "áĬĽáį¦Ġ": 4494,
      "ĠáĭķáĪĪáī³áīµ": 4495,
      "má»įĠ": 4496,
      "nÃ¬": 4497,
      "akosoĠ": 4498,
      "ellesĠ": 4499,
      "Ilim": 4500,
      "akonĠ": 4501,
      "aĠma": 4502,
      "Engl": 4503,
      "sup": 4504,
      "KatikaĠ": 4505,
      "Ġtáº¹Ìģ": 4506,
      "áĮįáĬķ": 4507,
      "áĭ¨áĪ±áĪµ": 4508,
      "Bib": 4509,
      "MwakaĠwaĠ": 4510,
      "mwakaĠ": 4511,
      "ISBNĠ": 4512,
      "Ni": 4513,
      "ia.Ġ": 4514,
      "yanzuĠ": 4515,
      "tsarinĠ": 4516,
      "Octob": 4517,
      "Ġ16": 4518,
      "aĠwatanĠ": 4519,
      "atom": 4520,
      "neĠdagaĠ": 4521,
      ".ĠManazartaĠ": 4522,
      "walejinĠ": 4523,
      "16Ġ": 4524,
      "Kil": 4525,
      "183": 4526,
      "dir": 4527,
      "áĮłáĬĵ": 4528,
      "ĠáĮ¥áĬķáī³áĭĬ": 4529,
      "Wah": 4530,
      "yÃłnĠ": 4531,
      "Kal": 4532,
      "nem": 4533,
      "arĠk": 4534,
      "are": 4535,
      "ĠáĭŃáĪ°": 4536,
      "De": 4537,
      "kuz": 4538,
      "forĠtheĠ": 4539,
      "ographi": 4540,
      "ax": 4541,
      "produc": 4542,
      "ikub": 4543,
      "áī³áĭ°": 4544,
      "áĪĽáī½": 4545,
      "áĪħáĬķ": 4546,
      "ĠáīĢáĬĵáīµ": 4547,
      "Marej": 4548,
      "Ãłwá»įnĠÃ¨nÃ¬yÃłnĠ": 4549,
      "wakatiĠwaĠ": 4550,
      "pá»įÌĢlá»į": 4551,
      "ativeĠ": 4552,
      "t-": 4553,
      "Láº¹Ìģ": 4554,
      "ity": 4555,
      "ÃĢwá»įnĠÃ¬t": 4556,
      "áĮĪáĪª": 4557,
      "Ġáĭ¨áĪĻ": 4558,
      "áĭ¨áī°": 4559,
      "áĭ®áĪŃ": 4560,
      "áĪ»áĭİáī½": 4561,
      "ĠáĭŃáĪħáĬķ": 4562,
      "jar": 4563,
      "loriĠ": 4564,
      "sign": 4565,
      "taim": 4566,
      "kamaĠ": 4567,
      "nÃŃĠÃ¬lÃºĠ": 4568,
      "ammanĠ": 4569,
      "áĪ«áĪµ": 4570,
      "Pat": 4571,
      "pakaĠ": 4572,
      "tÃ¬Ġ": 4573,
      "zinaz": 4574,
      "e)": 4575,
      "lil": 4576,
      "JanuaryĠ": 4577,
      "13Ġ": 4578,
      "men": 4579,
      "ĠáĪĿáĪµ": 4580,
      "ĠáĭĵáĪĪáĪĿ": 4581,
      "ĠáīłáĬłáĬķáĭµ": 4582,
      "lĠ": 4583,
      "ÃłgbÃłĠ": 4584,
      "ayyaĠ": 4585,
      "affunĠ": 4586,
      "udiĠ": 4587,
      "anziaĠ": 4588,
      "ananĠhukumominĠ": 4589,
      "conn": 4590,
      "Mart": 4591,
      "iquesĠ": 4592,
      "áī»áĭŃáĬĵ": 4593,
      "ĠáįĵáĪŃáī²": 4594,
      "tÃºnĠ": 4595,
      "akam": 4596,
      "princip": 4597,
      "ifuat": 4598,
      "ungan": 4599,
      "áĪłĠáĬĲáĮĪ": 4600,
      "gameĠdaĠ": 4601,
      "utt": 4602,
      "nau": 4603,
      "le.": 4604,
      "agbaĠ": 4605,
      "wÃ³nĠ": 4606,
      "okeaĠ": 4607,
      "Ġáĭ«áĪħáĪį": 4608,
      "ĠMachiĠ": 4609,
      "nÃŃnÃº": 4610,
      "sabodaĠ": 4611,
      "áĪŃáĪµáī²áĭ«": 4612,
      "Ð°": 4613,
      "Waz": 4614,
      "prop": 4615,
      "KenyaĠ": 4616,
      "Hukum": 4617,
      "Rep": 4618,
      "aĠkasarĠ": 4619,
      "iá¹£áº¹Ìģ": 4620,
      "wararr": 4621,
      "ĪáĪĿ": 4622,
      "áįĦ": 4623,
      "áĪĽáĪŃ": 4624,
      "ĠáĭĪáĪ¨": 4625,
      "áįĪáĪĪ": 4626,
      "aĠB": 4627,
      "oryĠ": 4628,
      "awai": 4629,
      "Ġ10": 4630,
      "ini": 4631,
      "ĠAn": 4632,
      "day": 4633,
      "ÙĲ": 4634,
      "opoĠ": 4635,
      "Ã³ĠtÃ³Ġ": 4636,
      "7-": 4637,
      "Sab": 4638,
      "Kh": 4639,
      "áĪįáĭ°": 4640,
      "áī³áī¸áĭįáĬķ": 4641,
      "ĠáĬłáĬķáĭ³": 4642,
      "ĠáĪ´áīµ": 4643,
      "epend": 4644,
      "atib": 4645,
      "esab": 4646,
      "áº¹Ìģká»įÌĢ": 4647,
      "daĠsaur": 4648,
      "agbÃ¨gbÃ¨Ġ": 4649,
      "isaĠgaĠ": 4650,
      "áĪĵ": 4651,
      "ĠáīĢáĬķĠáīłáĬ¢áīµáĭ®áĮµáĭ«": 4652,
      "the": 4653,
      "ki": 4654,
      "euĠ": 4655,
      "vers": 4656,
      "Kit": 4657,
      "ĠáĪĺáĬķáĮįáĪµáīµ": 4658,
      "mesĠ": 4659,
      "ÃªtreĠ": 4660,
      "ÃłrÃŃ": 4661,
      "ĠáĪĺáĪª": 4662,
      "shindiĠwaĠTuzoĠyaĠNobelĠyaĠKemi": 4663,
      "ÃĢwá»įnĠáº¹láº¹ÌģbÃ¹nĠ": 4664,
      "ilÃ©-áº¹ÌĢká»įÌģĠ": 4665,
      "á»įÌģkasÃŃ": 4666,
      ".Ġ-": 4667,
      "Wom": 4668,
      "Ã©lÃ©": 4669,
      "DolaĠ": 4670,
      "her": 4671,
      "ariĠwaĠ": 4672,
      "Waliofariki": 4673,
      "Ã²rÃ¹nĠ": 4674,
      "wengiĠ": 4675,
      "eneoĠlaĠ": 4676,
      "áĮ¹": 4677,
      "ĠáĪĺáĭµ": 4678,
      "Afric": 4679,
      "ĠáĪ¥áĪŃáĭĪĠáĪĺáĬķáĮįáĪ¥áīµ": 4680,
      "agu": 4681,
      "Mil": 4682,
      "Es": 4683,
      "emĠ": 4684,
      "ipoĠ": 4685,
      "ĠMeiĠ": 4686,
      "nÃ¡Ãł.": 4687,
      "sababuĠ": 4688,
      "HaifaffunĠ": 4689,
      "ba.": 4690,
      "aĠr": 4691,
      "Ġáī¥áĪĪáĭį": 4692,
      "9Ġ-Ġ": 4693,
      "páº¹l": 4694,
      "Ãłb": 4695,
      "ÃłgbÃł": 4696,
      "aseĠ": 4697,
      "anaĠdaĠ": 4698,
      "Waliozaliwa": 4699,
      "Ġáĭ°áī¡áī¥": 4700,
      "JamesĠ": 4701,
      "Roma,Ġ": 4702,
      "gÃ©nÃ©r": 4703,
      "uguĠ": 4704,
      "eff": 4705,
      "ijobaĠ": 4706,
      "AĠwatanĠ": 4707,
      "nÃŃnuĠ": 4708,
      "ientĠ": 4709,
      "2003": 4710,
      "etĠleĠ": 4711,
      "5Ġ-Ġ": 4712,
      "áĪ°áĬķ": 4713,
      "ectionĠ": 4714,
      "lambarĠ": 4715,
      "okuwaĠ": 4716,
      "ikanĠ": 4717,
      "dontĠ": 4718,
      "ret": 4719,
      "Dar": 4720,
      "daiĠ": 4721,
      "haveĠ": 4722,
      "yst": 4723,
      "taĠhanyarĠ": 4724,
      "ojÃº": 4725,
      "arkonĠ": 4726,
      "ziliz": 4727,
      "áīº": 4728,
      "áĪĮáĬŃáīµ": 4729,
      "ĠáĬķáĮīáĪµ": 4730,
      "ĠáĬłáĬ«áĪį": 4731,
      "ĠáįĪáĪŃáĭĸ": 4732,
      "faĠ": 4733,
      "laĠk": 4734,
      "Ã¯": 4735,
      "2006": 4736,
      "Ãłg": 4737,
      "akk": 4738,
      "1Ġ-Ġ": 4739,
      "cc": 4740,
      "deuxĠ": 4741,
      "pÃ¡": 4742,
      "áĪĪáī¥": 4743,
      "áĬĲáīłáĪŃ": 4744,
      "áĬĲáī¶áī½": 4745,
      "ĠáĭµáĪĿ": 4746,
      "21Ġ": 4747,
      "William": 4748,
      "S.": 4749,
      "ough": 4750,
      "rew": 4751,
      "atikaĠk": 4752,
      "Hisp": 4753,
      "áī¼": 4754,
      "muĠ": 4755,
      "FI": 4756,
      "utawalaĠ": 4757,
      "anaĠnaĠm": 4758,
      "uĠmasoĠ": 4759,
      "oni": 4760,
      "Ng": 4761,
      "áĪĭáĪīáį¢": 4762,
      "centur": 4763,
      "Bank": 4764,
      "wandaĠakaĠ": 4765,
      "digir": 4766,
      "5-": 4767,
      "oot": 4768,
      "ost": 4769,
      "DecemberĠ": 4770,
      "yr": 4771,
      "áĪŃáĭ«áĪĿ": 4772,
      "Bel": 4773,
      "ific": 4774,
      "addin": 4775,
      "Mt": 4776,
      "Kiswah": 4777,
      "Gl": 4778,
      "aĠfanninĠ": 4779,
      "Eg": 4780,
      "áįĪáīµ": 4781,
      "Ġáĭ¨áĪļáĪį": 4782,
      "Adam": 4783,
      "áĮłáīĥáĪĭáĭŃ": 4784,
      "Riv": 4785,
      "dur": 4786,
      "ajiĠwaĠfilamuĠ": 4787,
      "Ä«": 4788,
      "áĬ¨áĪ«": 4789,
      "o:Ġ": 4790,
      "ont": 4791,
      "e.ĠItokasiĠÃĢwá»įnĠ": 4792,
      "Ãłwá»įnĠá»įjá»įÌģÃ¬bÃŃĠnÃŃĠ": 4793,
      "nyingiĠ": 4794,
      "gbajÃºmá»įÌĢĠ": 4795,
      "crÃ©": 4796,
      "egb": 4797,
      "hai": 4798,
      "ver": 4799,
      "áĪįáį¡áį¡": 4800,
      "ĠáĪĺáĬĲ": 4801,
      "Ġáĭ¨áĪĿáīµ": 4802,
      "unguĠ": 4803,
      "iakaĠm": 4804,
      "Ã³mÃ¬n": 4805,
      "idayarĠ": 4806,
      "Ġá»įjá»įÌģĠ": 4807,
      "alÃ¡Ã¬": 4808,
      "arÃ¡ĠAmáº¹ÌģrÃŃkÃł": 4809,
      "Ahm": 4810,
      "Lov": 4811,
      "ĠáĬ¥áĬķáĪµ": 4812,
      "áĬ©áĪį": 4813,
      "al.": 4814,
      "Ãłf": 4815,
      "wá»įĠ": 4816,
      "iĠyaĠm": 4817,
      "tsohonĠ": 4818,
      ",ĠM": 4819,
      "VI": 4820,
      "fus": 4821,
      "ingu": 4822,
      "anenĠ": 4823,
      "áĪįáįį": 4824,
      "áĪĪáĭ±": 4825,
      "ĠáĬłáĮ¥": 4826,
      "áĮĪáĭį": 4827,
      "Ġáī°áĬĲ": 4828,
      "nÃŃĠÃĮpÃŃnláº¹ÌĢĠ": 4829,
      "ÃĴg": 4830,
      "sikuĠyaĠ": 4831,
      "ĠAd": 4832,
      "resp": 4833,
      "aĠsh": 4834,
      "pap": 4835,
      "kask": 4836,
      "ÅĦĠá¹£": 4837,
      "azamaĠpiaĠ": 4838,
      "Gen": 4839,
      "áĪĦáĭµ": 4840,
      "ĠáĪ³áĭŃáĪĨáĬķ": 4841,
      "canĠ": 4842,
      "Ġ6": 4843,
      "iny": 4844,
      "ilÃ©": 4845,
      "agn": 4846,
      "GeorgeĠ": 4847,
      "dominĠ": 4848,
      "waĠkatikaĠ": 4849,
      "perm": 4850,
      "Rayayy": 4851,
      "EbunĠ": 4852,
      "áĭ°áĮĭ": 4853,
      "ott": 4854,
      "2,": 4855,
      "pass": 4856,
      "aguz": 4857,
      "vo": 4858,
      "auch": 4859,
      "ĠáĪĺáĭĿ": 4860,
      "ĠáĪĽáĪħ": 4861,
      "ĠáĬŃáĪįáĪį": 4862,
      "0-": 4863,
      "Uingerez": 4864,
      "kuuĠ": 4865,
      "á»įÌģá»įÌĢ": 4866,
      "hukumaĠ": 4867,
      "daĠkar": 4868,
      "iá¹£áº¹Ġ": 4869,
      "enĠm": 4870,
      "9-": 4871,
      "Up": 4872,
      "bang": 4873,
      "dansĠleĠ": 4874,
      "Sark": 4875,
      "áī¬": 4876,
      "áĮ³": 4877,
      "áĮłáįĭ": 4878,
      "Ġáĭ¨áī°áĪĪáĭ«áĭ©": 4879,
      "Ġáī³áĪĭáīħ": 4880,
      "-áº¹ÌĢ": 4881,
      "34": 4882,
      "kÃŃ": 4883,
      "uriĠ": 4884,
      "Ġáº¸ÌĢ": 4885,
      "a;Ġ": 4886,
      "cetteĠ": 4887,
      "''": 4888,
      "Comp": 4889,
      "ĠáĬĳ": 4890,
      "áº¹ÌĢáº¹Ìģ": 4891,
      "ĠáĭĪáĮĪáĬķ": 4892,
      "ĠáĪĪáĭį": 4893,
      "arkashinĠ": 4894,
      "ĠáĪĽáĪµáī³áĭĪ": 4895,
      "fac": 4896,
      "waz": 4897,
      "áĪµáī±": 4898,
      "duk": 4899,
      "uoĠ": 4900,
      "ackĠ": 4901,
      "ollywo": 4902,
      "Vol": 4903,
      "gidanĠ": 4904,
      "ĠáĭĲ": 4905,
      "wanaf": 4906,
      "ÃĢÃłráº¹Ġ": 4907,
      "jama'aĠ": 4908,
      "Ġáĭ¨áīµ": 4909,
      "Ã¨g": 4910,
      "ĠáĪ²áĪĨáĬķĠáĭŃáĪħ": 4911,
      "Ġáĭ¨áĬłáĪĽáĪŃáĬĽĠáĪĿáĪ³áĪĮĠáĬĲáĭįáį¢ĠáīµáĪŃáĮīáĪĻĠáĪĺáĭ°áī¥Ġ:Ġáī°áĪ¨áīµáĬĵĠáĪĿáĪ³áĪĮ": 4912,
      "ĠáīłáĬ¥áĬķáĮįáĪĬáĭĿáĬĽ": 4913,
      "etĠlaĠ": 4914,
      "entom": 4915,
      "aniĠdaĠ": 4916,
      "AĠranarĠ": 4917,
      "birniĠ": 4918,
      "class": 4919,
      "ilomitaĠ": 4920,
      "µáį": 4921,
      "burg": 4922,
      "Josep": 4923,
      "Ùı": 4924,
      "ĠD": 4925,
      "pÃ¨ĠnÃŃĠ": 4926,
      "peutĠ": 4927,
      "anch": 4928,
      "okeĠ": 4929,
      "áĭ³áĪĿ": 4930,
      "neĠaĠ": 4931,
      "36": 4932,
      "autresĠ": 4933,
      "MajalisarĠ": 4934,
      "akatifuĠ": 4935,
      "ojaĠwaĠ": 4936,
      "StateĠ": 4937,
      "'YanĠ": 4938,
      "ed.": 4939,
      "eĠdeĠl'": 4940,
      "sar": 4941,
      ":ĠTheĠ": 4942,
      "utĠ": 4943,
      "MkoaĠwaĠ": 4944,
      "já»įÌģĠ": 4945,
      "mulk": 4946,
      "Ġáº¹niĠ": 4947,
      "sÃŃĠnÃŃĠ": 4948,
      "danĠwasanĠÆĻwallonĠÆĻafaĠtaĠÆĻasarĠIngil": 4949,
      "ĠáĪ©": 4950,
      "áĪŃáĮį": 4951,
      "ĠáĬĲáĭįáį¢Ġáĭ¨": 4952,
      "aĠyaĠk": 4953,
      "áĮłáĪį": 4954,
      "ĠáĪĢáĮĪáĪŃ": 4955,
      "binĠ": 4956,
      "onĠ(": 4957,
      "et,Ġ": 4958,
      "oyeĠ": 4959,
      "á»įnĠ": 4960,
      "taĠkasanceĠ": 4961,
      "Ã³Ġá¹£eĠ": 4962,
      "ĠkwaĠ": 4963,
      "iĠmwaĠ": 4964,
      "hivyoĠ": 4965,
      "Lak": 4966,
      "div": 4967,
      "áīłáĪĮ": 4968,
      "áĮ¥áĬķáī³áĭĬ": 4969,
      "oloj": 4970,
      "ifÃ¡": 4971,
      "Hen": 4972,
      "OlÃ³": 4973,
      "orunĠ": 4974,
      "eli": 4975,
      "ejÃ¬Ġ": 4976,
      "wamnanĠ": 4977,
      "Ã¬tÃłnĠ": 4978,
      "páº¹luĠ": 4979,
      "kn": 4980,
      "áĬķĠ(": 4981,
      "áī½áĭį": 4982,
      "áĬĲáĮĪ": 4983,
      "Ġáĭ¨áī°áī£áĪĪáĭį": 4984,
      "awak": 4985,
      "Maj": 4986,
      "Ã©lec": 4987,
      "áĬķáĭ°": 4988,
      "áĬķĠáĪĪ": 4989,
      "áĬķĠáĪµáĪĿ": 4990,
      "áį¢Ġáīł": 4991,
      "áī°áĭĭáĪįáį¢": 4992,
      "áĪĭáĪī": 4993,
      "Ġáĭ¨áĪĮ": 4994,
      "áĬĽáĭįĠáĬŃáįįáĪĪĠáĭĺáĪĺáĬķ": 4995,
      "ĠáĭĻáĪªáĭ«": 4996,
      "mÃŃĠ": 4997,
      "enez": 4998,
      "Ã²unĠ": 4999,
      "Abub": 5000,
      "Makar": 5001,
      "ráº¹ÌĢ.": 5002,
      "iongoz": 5003,
      "inn": 5004,
      "ationĠofĠ": 5005,
      "25Ġ": 5006,
      "Pas": 5007,
      "orÃŃ": 5008,
      "áĭ«áĪµ": 5009,
      "áī¶áī¹": 5010,
      "ĠáĪĨáĬĲáĭį": 5011,
      "ĠáĬ¥áĮħáĮį": 5012,
      "WilayaĠ": 5013,
      "binc": 5014,
      "fan": 5015,
      "lasheĠ": 5016,
      "ism": 5017,
      "Ã²g": 5018,
      "Ã²yÃ¬nĠ": 5019,
      "iranĠ": 5020,
      "ity,Ġ": 5021,
      "3,": 5022,
      "BB": 5023,
      "jiniĠ": 5024,
      "kulaĠ": 5025,
      "ĠáĮĨ": 5026,
      "áĭŃáĬĲáīµ": 5027,
      "áī½áĪį": 5028,
      "áĬŃáĪĪ": 5029,
      "áī¨áĪŃ": 5030,
      "22Ġ": 5031,
      "ÃłÃły": 5032,
      "unciĠ": 5033,
      "ky": 5034,
      "áĭĺáī¥": 5035,
      "nouv": 5036,
      "nadaĠ": 5037,
      "ikiaĠ": 5038,
      "esiĠ": 5039,
      "temp": 5040,
      "elyĠ": 5041,
      "iliyanĠ": 5042,
      "YorÃ¹bÃ¡": 5043,
      "Port": 5044,
      "áī½áĪģ": 5045,
      "áĮĪáĬĽ": 5046,
      "áĬ¨áĪŃ": 5047,
      "áĬ«áī£áī¢": 5048,
      "syst": 5049,
      "Sik": 5050,
      "Ã¬p": 5051,
      "ÃĢwá»įnĠáº¹láº¹ÌģbÃ¹nĠNobelĠ": 5052,
      "un.": 5053,
      "áĮĪáĬĲ": 5054,
      "áĪªáī³": 5055,
      "ĠáĬ«áĪį": 5056,
      "ba,Ġ": 5057,
      "dat": 5058,
      "usul": 5059,
      "ainsiĠ": 5060,
      "BaadaĠyaĠ": 5061,
      "láº¹ÌģyÃ¬nĠ": 5062,
      "Ġ7": 5063,
      "Coun": 5064,
      "vari": 5065,
      "áį¤Ġáīł": 5066,
      "Cap": 5067,
      "bab": 5068,
      "wadan": 5069,
      "ÃłgbÃ©lÃ©": 5070,
      "FAĠ": 5071,
      "alil": 5072,
      "wang": 5073,
      "Bo": 5074,
      "Ibrah": 5075,
      "'yarĠ": 5076,
      "áĬŃáĪŃáĪµáī²áĭ«áĬķ": 5077,
      "ĠáĪĽáĮ£": 5078,
      "iĠwaĠm": 5079,
      "sanyaĠ": 5080,
      "shindiĠwaĠTuzoĠyaĠNobelĠyaĠTibaĠmwakaĠwaĠ": 5081,
      "alik": 5082,
      "Ãºs": 5083,
      "tron": 5084,
      "lav": 5085,
      "Æ´": 5086,
      "aĠniĠ": 5087,
      ",ĠleĠ": 5088,
      "oĠkwaĠ": 5089,
      "nÃŃnÃºĠerÃ©Ġ": 5090,
      "ementsĠ": 5091,
      "Ġáĭ¨áĭĵ": 5092,
      "áī£áĪįáį¢": 5093,
      "áįįáĪªáĬ«": 5094,
      "áĭ¨áĪĺ": 5095,
      "áī²áĬŃ": 5096,
      "bo": 5097,
      "Co": 5098,
      "angaz": 5099,
      "ternĠ": 5100,
      "co": 5101,
      "bÃł": 5102,
      "ÃŃnĠ": 5103,
      "kutokaĠnchiĠyaĠ": 5104,
      "Lou": 5105,
      "Ã¼": 5106,
      "FebruaryĠ": 5107,
      "utionĠ": 5108,
      "hud": 5109,
      "Ġm": 5110,
      "Wam": 5111,
      "Ġá»įdÃºnĠ200": 5112,
      "torÃŃĠ": 5113,
      "rayuwaĠ": 5114,
      "WakristoĠ": 5115,
      "ole": 5116,
      "UN": 5117,
      "age": 5118,
      "áī¥áĪŃáĪĥ": 5119,
      "ĠáĭŃáī½áĪĭáĪįáį¢": 5120,
      "ary": 5121,
      "tiĠwonĠ": 5122,
      "uĠM": 5123,
      "Ġáĭ¨áī³": 5124,
      "áĪ³áī°": 5125,
      "Ġáī°áįĪ": 5126,
      "ĠáīłáĪį": 5127,
      "ĠáĭĵáĬŃáĪįáīł.ĠáĮįáĭµáĪĿ": 5128,
      "ĠáĭŃáī³áĭĪáīĥáĪįáį¢": 5129,
      "awá»įn": 5130,
      "kutokanaĠnaĠ": 5131,
      "halar": 5132,
      "harĠzuwaĠ": 5133,
      ".ĠÃĢ": 5134,
      "ellĠ": 5135,
      "aiss": 5136,
      "press": 5137,
      "áĬ½": 5138,
      "áĬĭáĪĭ": 5139,
      "áĪŃ-": 5140,
      "ĠáĬ¥áĭµ": 5141,
      "áĪ«áī¸áĭį": 5142,
      "áīĥáĪį": 5143,
      "ĠáĬ¥áĬķáĭ°áĪĨáĬĲ": 5144,
      "aĠyankinĠ": 5145,
      "oloseluĠ": 5146,
      "truc": 5147,
      "Ro": 5148,
      "alum": 5149,
      "Cong": 5150,
      "owaĠ": 5151,
      "tabiĠ": 5152,
      "oloniĠ": 5153,
      "haifiĠ": 5154,
      "áĬ¾": 5155,
      "ĠáĬłáĭ²áĪµ": 5156,
      "ĠthatĠ": 5157,
      "Ġáĭ¨áĪĨáĬĳ": 5158,
      "Ġáĭ¨áĬĲáīłáĪ¨áĭį": 5159,
      "áĪĪáī°áĬĽáĭį": 5160,
      "Ġáĭ©áĬĴ": 5161,
      "7Ġ-Ġ": 5162,
      "kumb": 5163,
      ")Ġt": 5164,
      "kÃº": 5165,
      "er,Ġm": 5166,
      "isionĠ": 5167,
      "TareheĠ": 5168,
      "bil": 5169,
      "2Ġ-Ġ": 5170,
      "San": 5171,
      "áĭ«áĭ«": 5172,
      "áī¥áĪĬáĬŃ": 5173,
      "áī£áĪī": 5174,
      "identĠ": 5175,
      "eĠdÃ©": 5176,
      "áĬĳáĪµ": 5177,
      "erc": 5178,
      "Ghan": 5179,
      "áº¹s": 5180,
      "ayans": 5181,
      "iĠwaĠk": 5182,
      "lughaĠ": 5183,
      "fre": 5184,
      "ton": 5185,
      "áĬķáĮ«": 5186,
      "áīłáĬĽ": 5187,
      "Ġáī°áīĭ": 5188,
      "ĠáĭŃáī»": 5189,
      "ĠáĭŃáĮłáīĢ": 5190,
      "oldĠ": 5191,
      "ouldĠ": 5192,
      "loc": 5193,
      "Ġthe": 5194,
      "já»įÌģĠk": 5195,
      "proc": 5196,
      "plac": 5197,
      "progr": 5198,
      "Ã©qu": 5199,
      "d'unĠ": 5200,
      "áĬłáĪĿ": 5201,
      "CharlesĠ": 5202,
      "neĠnaĠ": 5203,
      "harshenĠ": 5204,
      ".,Ġ": 5205,
      "ali.": 5206,
      "Ba": 5207,
      "hukoĠ": 5208,
      "lÃ²Ġ": 5209,
      "áĬ¡": 5210,
      "áī£áĪħ": 5211,
      "áĬ«áĪį": 5212,
      "over": 5213,
      "ĠáĬ«áĪĮ": 5214,
      "askazin": 5215,
      "rang": 5216,
      "Thom": 5217,
      "abub": 5218,
      "iwaĠkuwaĠ": 5219,
      "jirginĠ": 5220,
      "ĠáĪĪáĬ¥": 5221,
      "Ġáĭ«áĪī": 5222,
      "áĭĽáĪ¬": 5223,
      "áĪ±áĪĿ": 5224,
      "Ã©galementĠ": 5225,
      "bak": 5226,
      "atanĠ": 5227,
      "aĠmap": 5228,
      "Ut": 5229,
      "hann": 5230,
      "alorsĠ": 5231,
      "iyoy": 5232,
      "leurĠ": 5233,
      "Ġá»įÌĢkanĠ": 5234,
      "AmericanĠ": 5235,
      "áĮ¼": 5236,
      "áīģáĪŃ": 5237,
      "ĠáĪ«áĪµ": 5238,
      "ammal": 5239,
      "wing": 5240,
      "ici": 5241,
      "Ber": 5242,
      "á»įÌģn": 5243,
      "áº¹ÌĢ-Ã¨dÃ¨": 5244,
      "DolaĠlaĠ": 5245,
      "d,Ġ": 5246,
      "poss": 5247,
      "lexand": 5248,
      "Apr": 5249,
      "Ġáĭ¨áī°áĬŃáĪī": 5250,
      "ĠáĭįáĪµáĮ¥Ġáĭ¨áĪļáĮĪáĬĿ": 5251,
      "jum": 5252,
      ".ĠÃĮ": 5253,
      "kumaĠk": 5254,
      "wigizajiĠwaĠfilamuĠ": 5255,
      "ahiĠ": 5256,
      "onaĠ": 5257,
      "esĠofĠ": 5258,
      "au,Ġ": 5259,
      "tÃłĠ": 5260,
      "áĮĪáĭĽ": 5261,
      "ĠáĪŀáīµ": 5262,
      "abinc": 5263,
      "adayeĠ": 5264,
      "aiĠnaĠ": 5265,
      "iĠkoĠ": 5266,
      "shekararĠ200": 5267,
      "sub": 5268,
      "inst": 5269,
      "ons": 5270,
      "eliĠ": 5271,
      "group": 5272,
      "iyy": 5273,
      "rá»įĠ": 5274,
      "import": 5275,
      "áī³áī½áĬķ": 5276,
      "áĭ°áĪ¨áĮī": 5277,
      "du": 5278,
      "takeĠ": 5279,
      "aar": 5280,
      "itinĠ": 5281,
      "DP": 5282,
      "lamuĠ": 5283,
      "mill": 5284,
      "aĠkatikaĠm": 5285,
      "yn": 5286,
      "ĠáīłáĪ¨": 5287,
      "áĬłáĪį": 5288,
      "ĠáĭĵáĪĺáī±": 5289,
      "ĠáīłáĬ©áĪį": 5290,
      "Map": 5291,
      "que,Ġ": 5292,
      "RaisĠwaĠ": 5293,
      "dukĠ": 5294,
      "fimĠ": 5295,
      "asalinĠ": 5296,
      "toĠgbaĠ": 5297,
      "ÃĢwá»įnĠá»įjá»įÌģÃ¬bÃŃĠnÃŃĠ": 5298,
      "sehemuĠ": 5299,
      "Ã³mÃ¬nÃłĠ": 5300,
      "áĭįáĪµ": 5301,
      "áĭµáĪµáīµ": 5302,
      "áĬĿáĬĲáīµ": 5303,
      "ĠáĮĪáī¥": 5304,
      "áĮłáĪĭ": 5305,
      "Ġáī¤áī°ĠáĬŃáĪŃáĪµáī²áĭ«áĬķ": 5306,
      "consid": 5307,
      "fáº¹Ìģ": 5308,
      "oĠM": 5309,
      "imaninĠ": 5310,
      "leĠdeĠ": 5311,
      "huwarĠ": 5312,
      "ehem": 5313,
      "South": 5314,
      "ipin": 5315,
      ")ĠáĬ¨": 5316,
      "áĭ£": 5317,
      "Ġáĭ±": 5318,
      "incl": 5319,
      "umiĠ": 5320,
      "olon": 5321,
      "ndÃŃn": 5322,
      "'estĠ": 5323,
      "WestĠ": 5324,
      "ThisĠ": 5325,
      "sakeĠ": 5326,
      "tsar": 5327,
      "ĠáĬłáĪ°": 5328,
      "ĠáīµáĪįáīħ": 5329,
      "ĠáĪľáīµáĪŃ": 5330,
      "imaĠ": 5331,
      "8Ġ-Ġ": 5332,
      "Jum": 5333,
      "velop": 5334,
      "atun": 5335,
      "ed,Ġ": 5336,
      "d'uneĠ": 5337,
      "Te": 5338,
      "áĬķáĭ²": 5339,
      "áĭįáĪį": 5340,
      "áĪĪáĪģ": 5341,
      "áĪ©áīµ": 5342,
      "áĪİáĬķ": 5343,
      "ĠáĪķáĭĿ": 5344,
      "pÃłt": 5345,
      "ahariĠyaĠ": 5346,
      "alinĠarz": 5347,
      "fuataĠ": 5348,
      "ĠáįķáĪ¬áĭļ": 5349,
      "tuĠ": 5350,
      "ammaĠ": 5351,
      "Aw": 5352,
      "anarĠ": 5353,
      "Ð¸": 5354,
      "NovemberĠ": 5355,
      "vileĠ": 5356,
      "Ã³p": 5357,
      "oĠmak": 5358,
      "Waf": 5359,
      "ÃĢwá»įnĠÃ¨nÃ¬yÃłnĠ": 5360,
      "airesĠ": 5361,
      "shiĠneĠdanĠwasanĠÆĻwallonĠÆĻafaĠtaĠÆĻasarĠIngil": 5362,
      "hadaĠdaĠ": 5363,
      "olu": 5364,
      "ĠáĭįáĮ¤": 5365,
      "Ġáĭ¨áĪ°áĭį": 5366,
      "ĠáīłáĭĺáĪĺáĬĲĠáĭ®áĪĲáĬķáĪµ": 5367,
      "ĠáĪ¥áĪĭáĪ´": 5368,
      "nip": 5369,
      "ikish": 5370,
      "ĠáįĢ": 5371,
      "ÃŃláº¹ÌĢ": 5372,
      "Ġáĭŀ": 5373,
      "ing,Ġ": 5374,
      "áīĢáĪį": 5375,
      "áīĢáĭµáĪŀ": 5376,
      "áīħáĪµ": 5377,
      "ĠáĮ½áĪĳáįį": 5378,
      "ymp": 5379,
      "amarĠhukumarĠ": 5380,
      "bad": 5381,
      "mÃº": 5382,
      "áĬ¨áįį": 5383,
      "aniĠ(": 5384,
      "engineĠ": 5385,
      "áĬķáĭ³áĪŃ": 5386,
      "ĠáĮįáī¥áĮ½": 5387,
      "entiĠ": 5388,
      "ĠkatikaĠ": 5389,
      "amarĠhukumaĠ": 5390,
      "kÃ³paĠ": 5391,
      "Ãģfr": 5392,
      "Tim": 5393,
      "eny": 5394,
      "áĭķáĭĿ": 5395,
      "ItĠ": 5396,
      "Mu": 5397,
      "ifeĠ": 5398,
      "kasaĠ": 5399,
      "ĠáĭŃáĪħáĪĿ": 5400,
      "áĬ¨áī°áĪĪáĭį": 5401,
      "WannanĠ": 5402,
      "adha": 5403,
      "ifoĠch": 5404,
      "nÃŃnÃºĠÃłwá»įnĠ": 5405,
      "lá»įÌģdÃºnĠ": 5406,
      "Ã¹n-": 5407,
      "erĠofĠ": 5408,
      "ikip": 5409,
      "Sen": 5410,
      "OctoberĠ": 5411,
      "dÃ¬": 5412,
      "ÙĴ": 5413,
      "inÃºĠ": 5414,
      "áĪµáī°áĬĽ": 5415,
      "Ġáīłáĭ¨": 5416,
      "ĠáĬłáĬĲ": 5417,
      "ĠáĬłáĭµ": 5418,
      "áĭ³áĮħ": 5419,
      "auĠm": 5420,
      "ĠáĭµáĬķ": 5421,
      "ĠáīģáĮ¥": 5422,
      "á»ĮÌĢ": 5423,
      "endeleaĠku": 5424,
      "Ġ15": 5425,
      "aliz": 5426,
      "film": 5427,
      "hat": 5428,
      "nÃŃĠá»įjá»įÌģĠk": 5429,
      "ansuĠ": 5430,
      "ĠáĬ¥áĬķáĭ°áī°": 5431,
      "ĠáīłáĪĺáĪĨáĬĳ": 5432,
      "labar": 5433,
      "imp": 5434,
      "Braz": 5435,
      "Ġ(201": 5436,
      "idg": 5437,
      "Ã¨resĠ": 5438,
      "gasarĠ": 5439,
      "ambay": 5440,
      "ÃĪkÃ³": 5441,
      "Oy": 5442,
      "Sud": 5443,
      "áĬ¨áī¥": 5444,
      "áĪ¥áī±": 5445,
      "áĮİáĪŃáĮİáĪŃ": 5446,
      "Vic": 5447,
      "Ã¤": 5448,
      "ãĥ": 5449,
      "ceĠtaĠ": 5450,
      "ation.": 5451,
      "shindiĠwaĠTuzoĠyaĠNobelĠyaĠFizikiaĠmwakaĠwaĠ": 5452,
      "amba": 5453,
      "Je": 5454,
      "a.ĠM": 5455,
      "áĭ³áĬķáīµ": 5456,
      "ĠáĪµáĪĪáĭļáĪħ": 5457,
      "ĠáĪħáĭĿáī¥": 5458,
      "fina-fin": 5459,
      "fitoĠ": 5460,
      "ÃģfrÃŃ": 5461,
      "Arab": 5462,
      "24Ġ": 5463,
      "tas": 5464,
      "28Ġ": 5465,
      "OpenĠ": 5466,
      "áĬķĠáĪĪáĪĺ": 5467,
      "ĠáĪĺáĪ¨áĮĥ": 5468,
      "áį¡áĭ¨": 5469,
      "áĭĭáīµ": 5470,
      "ĠáĪĿáĬķáĮŃ": 5471,
      "Ø¨": 5472,
      "KanananĠhukumominĠ": 5473,
      "Ã¨s": 5474,
      "Born": 5475,
      "Kor": 5476,
      "yam": 5477,
      "North": 5478,
      "75": 5479,
      "o,Ġm": 5480,
      "Ã©eĠparĠ": 5481,
      "Gwamn": 5482,
      "Soci": 5483,
      "yá»į": 5484,
      "áī§": 5485,
      "ĠáīłáĮ¥": 5486,
      "ĠáĬłáī£áĪį": 5487,
      "áī£áī¥": 5488,
      "ishwaĠ": 5489,
      "ĠáĬŃáĪŃáĪµáī¶áĪµ": 5490,
      "ndaniĠyaĠ": 5491,
      "awaĠdaĠ": 5492,
      "shirinĠ": 5493,
      "áĬªáĭ«": 5494,
      "ĠáįĬáĭ°áĪį": 5495,
      "beenĠ": 5496,
      "ĠáįķáĪ®": 5497,
      "áįĪáĮ¥áĪ®": 5498,
      "-d": 5499,
      "encesĠ": 5500,
      "ilos": 5501,
      "otaĠ": 5502,
      "oĠtiĠ": 5503,
      "AfrikaĠKus": 5504,
      "áĮ¾": 5505,
      "ĠáīłáĪĨ": 5506,
      "Ġáĭ¨áĬĸ": 5507,
      "ĠáĬ¥áĬķáĬ³": 5508,
      "ĠáĬłáĭŃáĭ°áĪĪáĪĿ": 5509,
      "iwaĠk": 5510,
      "Æ³": 5511,
      "dagaĠbayaĠ": 5512,
      "a'aik": 5513,
      "indaĠtaĠ": 5514,
      "score0": 5515,
      "u.Ġ": 5516,
      "intĠ": 5517,
      "ĠáīłáĪ«": 5518,
      "usĠ(": 5519,
      "ĠáĬłáĬķáĭ³áĬķáĭµ": 5520,
      "let": 5521,
      "oku": 5522,
      "artĠ": 5523,
      "Tun": 5524,
      "year": 5525,
      "igbaĠ": 5526,
      "Najeriya": 5527,
      "ique,Ġ": 5528,
      "Atlant": 5529,
      "23Ġ": 5530,
      "endaĠ": 5531,
      "hy": 5532,
      "jul": 5533,
      "long": 5534,
      "tim": 5535,
      "áĪµáī¶": 5536,
      "ĠáĪĺáĮ»": 5537,
      "áĬłáĭŃ": 5538,
      "áĪµáĪ«áīħ": 5539,
      "ĠáĪĽáĪŃáīĨáĪµ": 5540,
      "ĠáīłáĪĻáĪī": 5541,
      "aiĠdaĠ": 5542,
      "anzib": 5543,
      "Oá¹£Ã¹ĠK": 5544,
      "pá»įÌĢlá»įpá»įÌĢĠ": 5545,
      "vid": 5546,
      "el,Ġ": 5547,
      "Â²": 5548,
      "amiĠ": 5549,
      "Yoh": 5550,
      "áīłáĪ¬": 5551,
      "áĭĿáĪĽáī½": 5552,
      "ĠáĬłáĪĿáĪĭáĬŃ": 5553,
      "EĠ": 5554,
      "natur": 5555,
      "Ġá¹¢": 5556,
      "á»įÌģk": 5557,
      "rubutaĠ": 5558,
      "Mah": 5559,
      "su.": 5560,
      "&Ġ": 5561,
      "aunaĠ": 5562,
      "a,": 5563,
      "dÃ©c": 5564,
      "AllahĠ": 5565,
      "Rich": 5566,
      "Sw": 5567,
      "áĪ«áĪĿ": 5568,
      "áº¹ÌģrÃŃ": 5569,
      "ĠAug": 5570,
      "auy": 5571,
      "shekaraĠtaĠ201": 5572,
      "ĠáĪļáĪĬ": 5573,
      "darÃŃĠ": 5574,
      "ĠáĬ¥áĪµáĬ¨Ġ20": 5575,
      "iâĢĻarĠ": 5576,
      "jour": 5577,
      "C.": 5578,
      "eĠnaĠ": 5579,
      "hadĠ": 5580,
      "rashinĠ": 5581,
      "arabuĠ": 5582,
      "iaĠyaĠK": 5583,
      "igu": 5584,
      "mÃ¡aĠÅĦĠ": 5585,
      "Ã¶": 5586,
      "áĪ³áĪį": 5587,
      "áĭ¨áĭį": 5588,
      "áĬ«áī³": 5589,
      "áĭĺáĬķ": 5590,
      "ĠáĬ¥áĬķáĭ°áĮĪáĬĵ": 5591,
      "ĠáīłáĪ½áī³": 5592,
      "berg": 5593,
      "bÃ¬nrinĠ": 5594,
      "hom": 5595,
      "aĠJiharĠ": 5596,
      "IlÃ©-": 5597,
      "pÃłtÃłk": 5598,
      "FM": 5599,
      "ix": 5600,
      "ĠáīłáĬ¢": 5601,
      "áī²áĬķ": 5602,
      "áĪģáĪī": 5603,
      "áĮĬáĪµ": 5604,
      "ĠáĬ«áĪĮáĬķáĭ³áĪŃ": 5605,
      "Bell": 5606,
      "asĠtheĠ": 5607,
      "Ayy": 5608,
      "Se": 5609,
      "Zanzib": 5610,
      "ablaĠ": 5611,
      "idadiĠyaĠ": 5612,
      "ovut": 5613,
      "ÃłtiĠÃłwá»įnĠ": 5614,
      "Ġáº¹ÌĢyÃłĠ": 5615,
      "III": 5616,
      "sinimÃ¡Ġ": 5617,
      "entomonĠ": 5618,
      "áīłáĭį": 5619,
      "ĠáĪĪáī°": 5620,
      "áīĭáĬķáīĭ": 5621,
      "áĬķáĭ³áĬķáĭµ": 5622,
      "áĮłáīĢáĪĿ": 5623,
      "áĮİáĪŃáĮİáĪŃáĭ«áĬķ": 5624,
      "|-Ġ": 5625,
      "awa.": 5626,
      "Nuw": 5627,
      "aĠkoĠ": 5628,
      "wanasiasaĠ": 5629,
      "AlakosoĠ": 5630,
      "Janair": 5631,
      "Ã©taitĠ": 5632,
      "áĪµáĪĽ": 5633,
      "Ġáį«": 5634,
      "áĪŀáĬŃ": 5635,
      "áĭĽáĭĿ": 5636,
      "áĮ£áĪįáĭ«áĬķ": 5637,
      "ĠáĪĽáĮ£áīĢ": 5638,
      "web": 5639,
      "woteĠ": 5640,
      "iref": 5641,
      "NÃŃĠá»įdÃºnĠ201": 5642,
      "Ã©cr": 5643,
      "abr": 5644,
      "vitaĠ": 5645,
      "intern": 5646,
      "alesĠ": 5647,
      "ali,Ġ": 5648,
      "herĠ": 5649,
      "ĠáĬĹ": 5650,
      "áĪįáĮħ": 5651,
      "Ġáī°áĬĵ": 5652,
      "Ġá»įmá»įĠorÃŃláº¹ÌĢ-Ã¨dÃ¨Ġ": 5653,
      "ĠBKĠ(BaadaĠyaĠKristo).ĠMatukioĠWaliozaliwaĠWaliofarikiĠKarneĠyaĠ": 5654,
      "zaÉĵ": 5655,
      "ĠáĬłáĪģáĬķ": 5656,
      "Iv": 5657,
      "âĢĿĠ": 5658,
      "inu": 5659,
      "Turk": 5660,
      "Uh": 5661,
      "Mac": 5662,
      "samaĠ": 5663,
      "Ã²finĠ": 5664,
      "iĠkwenyeĠ": 5665,
      "ojuĠ": 5666,
      "jerinĠ": 5667,
      "Can": 5668,
      "ĠáĪİ": 5669,
      "áīµáĪĿ": 5670,
      "áĭ«áĭĿ": 5671,
      "ĠáĪĺáī¶": 5672,
      "áĪ«áĪ½": 5673,
      "ĠáĭŃáĭĪ": 5674,
      "franÃ§ais": 5675,
      "larg": 5676,
      "arm": 5677,
      "a\"Ġ": 5678,
      "JulyĠ": 5679,
      "nit": 5680,
      "gÃŃgaĠ": 5681,
      "Mb": 5682,
      "Pal": 5683,
      "áį£Ġ": 5684,
      "ĠáĪĿáĬĵáĪį": 5685,
      "áĭ³áĬķáĭ±": 5686,
      "ĠáĪĿáĬĵáĪįáī£áīµ": 5687,
      "inz": 5688,
      "Hot": 5689,
      "hank": 5690,
      "ruwaĠ": 5691,
      "alÃłÃły": 5692,
      "ambayoĠ": 5693,
      "Amáº¹ÌģrÃŃ": 5694,
      "UmojaĠwaĠ": 5695,
      "erv": 5696,
      "sing": 5697,
      "áĪįáīģ": 5698,
      "ĠáĬłáī£áīµ": 5699,
      "leyĠ": 5700,
      "áĬ¥áĮįáĭļáĬłáī¥áĪĶáĪŃ": 5701,
      "ierĠ": 5702,
      "cinĠk": 5703,
      "kafinĠ": 5704,
      "iĠtaĠ": 5705,
      "trav": 5706,
      "ÆĻir": 5707,
      "olÃ³rinĠ": 5708,
      "fad": 5709,
      "abinĠ": 5710,
      "aniĠm": 5711,
      "e),Ġ": 5712,
      "ºáį": 5713,
      "áĬķĠáīłáĪĺ": 5714,
      "withĠtheĠ": 5715,
      "whoĠ": 5716,
      "91Ġáĭĵ.áĪĿ.": 5717,
      "Had": 5718,
      "gbÃ³": 5719,
      "obÃ¬nrinĠ": 5720,
      "takrib": 5721,
      "balimbaliĠ": 5722,
      "Sept": 5723,
      "utumĠ": 5724,
      "Tanzania": 5725,
      "yayiĠ": 5726,
      "Ð¾": 5727,
      "on-": 5728,
      "áĮĪáī¡": 5729,
      "AgbegbeĠ": 5730,
      "áĮİáĪŃáĮİáĪŃáĭ«áĬķĠáĬ«áĪĮáĬķáĭ³áĪŃ": 5731,
      "lÃ¨": 5732,
      "TV": 5733,
      "coun": 5734,
      "com/": 5735,
      "ammentĠ": 5736,
      "Lagos": 5737,
      "es)Ġ": 5738,
      "bertĠ": 5739,
      "Roy": 5740,
      "wÃł": 5741,
      "waĠmasoĠ": 5742,
      "wakatiĠ": 5743,
      "dabanĠ": 5744,
      "ciĠgabaĠdaĠ": 5745,
      "aĠlaĠ": 5746,
      "Ġáī°áĭĭ": 5747,
      "áīłáĪ°": 5748,
      "Ġáī£áĪį": 5749,
      "ĠáįĪáĪ¨áĬķ": 5750,
      "áĪ¥áĪ«áīħ": 5751,
      "27Ġ": 5752,
      "atsay": 5753,
      "aĠtiĠ": 5754,
      "ologieĠ": 5755,
      "tu": 5756,
      "¹áį": 5757,
      "ĠáĪ¹": 5758,
      "áĬķĠáĪĽ": 5759,
      "Ġtel": 5760,
      "áĪªáīµ": 5761,
      "ĠáīłáĪķ": 5762,
      "áįįáĬĵ": 5763,
      "áĬłáĬķ": 5764,
      "áīłáĪī": 5765,
      "áĭ®áĪŃáĮĬáĪµ": 5766,
      "der": 5767,
      "takaĠ": 5768,
      "DĠ": 5769,
      "nasar": 5770,
      "aĠNajeriyaĠ": 5771,
      "aĠgarinĠ": 5772,
      "pÃŃnláº¹ÌĢ": 5773,
      "okeoĠyaĠ": 5774,
      "estĠunĠ": 5775,
      "val": 5776,
      "ĠáĭµáĬķáĮĭ": 5777,
      "Shir": 5778,
      "ĠáĬłáĮĪáĪ«áīµ": 5779,
      "John": 5780,
      "áĪıáĪįáį¢": 5781,
      "ilsĠ": 5782,
      "FranceĠ": 5783,
      "á»įÌĢn": 5784,
      "Abuj": 5785,
      "Australi": 5786,
      "Al-": 5787,
      "Î±": 5788,
      "ĠáĪįáī¥": 5789,
      "epuisĠ": 5790,
      "ĠáĪĽáĪµáī³áĭĪáĪ»áĭİáī½": 5791,
      "Lat": 5792,
      "lÃ²": 5793,
      "aĠwas": 5794,
      "yÃ¬n": 5795,
      "tanaĠdaĠ": 5796,
      "intaĠnaĠ": 5797,
      "âĢİâĢİ": 5798,
      "pekeeĠ": 5799,
      "kÃ¹nrinĠ": 5800,
      "29Ġ": 5801,
      "fun": 5802,
      "hut": 5803,
      "dÃ©part": 5804,
      "DansĠ": 5805,
      "sos": 5806,
      "rough": 5807,
      "arans": 5808,
      "ayenĠ": 5809,
      "elez": 5810,
      "Ġáĭ¨áĪŀ": 5811,
      "kumbu": 5812,
      "IjobaĠ": 5813,
      "tal": 5814,
      "reeĠ": 5815,
      "ÃłgbÃ¡": 5816,
      "aĠmwakaĠ": 5817,
      ")ĠnaĠ": 5818,
      "awaĠnaĠ": 5819,
      "nyingineĠ": 5820,
      "wanamuzikiĠ": 5821,
      "ocrat": 5822,
      "áº¹Ìģká»įÌĢá»įÌģĠ": 5823,
      "Chi": 5824,
      "Lang": 5825,
      "áĪµáĪį": 5826,
      "áĬĲáī±áĬķ": 5827,
      "ĠáĪĺáĮ¥": 5828,
      "Ġáĭ¨áĬ®": 5829,
      "áĭ«áĬķáĭ³áĬķáĭ±": 5830,
      "ĠáĬŃáįįáĪİáī½": 5831,
      "Ġáĭ¨áĪļáĭ«áĪµ": 5832,
      "Ġáĭ³áĪŃ": 5833,
      "CityĠ": 5834,
      "DanĠ": 5835,
      "jÃłĠ": 5836,
      "paysĠ": 5837,
      "3Ġ-Ġ": 5838,
      "ji": 5839,
      "ini.": 5840,
      "opol": 5841,
      "ograf": 5842,
      "Ã³Ġá¹£": 5843,
      "olÃº": 5844,
      "oĠyaĠk": 5845,
      "olÃ³á¹£Ã¨": 5846,
      "wajeĠ": 5847,
      "tanguĠ": 5848,
      "usieursĠ": 5849,
      "Gar": 5850,
      "jus": 5851,
      "Ġáī¶": 5852,
      "ĠáĮ«": 5853,
      "lÃł": 5854,
      "ren": 5855,
      "awezaĠ": 5856,
      "nÃŃĠorÃŃláº¹ÌĢ-Ã¨dÃ¨Ġ": 5857,
      "ijiĠyaĠ": 5858,
      "shindiĠwaĠTuzoĠyaĠNobelĠyaĠKemiaĠmwakaĠwaĠ": 5859,
      "ministr": 5860,
      ",ĠtheĠ": 5861,
      "0Ġ-Ġ": 5862,
      "tall": 5863,
      "áĬķáĪ³áĭĬ": 5864,
      "ĠáĮ³": 5865,
      "ĠáĪĺáĪ³": 5866,
      "outhĠ": 5867,
      "Ã©ĠdeĠ": 5868,
      "AgbaĠ": 5869,
      "fÃł": 5870,
      "fÃłĠ": 5871,
      ".ĠB": 5872,
      "trouv": 5873,
      "idiĠyaĠ": 5874,
      "prim": 5875,
      "expl": 5876,
      "iwonĠ": 5877,
      "AnĠhaifeĠ": 5878,
      "Nijeriya.": 5879,
      "iamĠ": 5880,
      "Muhammad": 5881,
      "etiĠ": 5882,
      "oÃ¹Ġ": 5883,
      "¸áį": 5884,
      "áī¾": 5885,
      "áĬķáĭ¶": 5886,
      "uĠdaĠ": 5887,
      "áī³áī½": 5888,
      "ĠáīĢáĬķĠáį²áį±áį»áį": 5889,
      "áĮĪáĪªáī±": 5890,
      "insuĠ": 5891,
      "oĠchaĠ": 5892,
      "ÆĻungiyarĠ": 5893,
      "ĠMtoĠ": 5894,
      "jam'": 5895,
      "HukumarĠ": 5896,
      "sal": 5897,
      "abis": 5898,
      "anyĠ": 5899,
      "2007": 5900,
      ".ĠItokasi": 5901,
      "áĪ³áĪ³áĭŃ": 5902,
      "áīĢáĪ¨": 5903,
      "Ġáī¥áĭĽáīµ": 5904,
      "conom": 5905,
      "áį¤Ġáĭ¨": 5906,
      "agbegbeĠ": 5907,
      "Ã¨rÃ¨Ġ": 5908,
      "ĠáĭĿáĪŃáĭ«": 5909,
      "Ã¨tÃ²": 5910,
      "ĠáĪĪáĪĿáĪ³áĪĮ": 5911,
      "Åĵ": 5912,
      "annÃ©esĠ": 5913,
      "Sah": 5914,
      "eĠtaĠ": 5915,
      "etoĠ": 5916,
      "etĠlesĠ": 5917,
      "Ny": 5918,
      "Nijeriya.Ġ": 5919,
      "áĬķáĭ°áĪŃ": 5920,
      "ĠáĭĪáĪįáĭ°": 5921,
      "origin": 5922,
      "urr": 5923,
      "Ful": 5924,
      "Ø¯": 5925,
      "jiĠmkuuĠwaĠ": 5926,
      "Den": 5927,
      "rest": 5928,
      "ĠáīłáĮİáĪŃáĮİáĪŃáĭ«áĬķĠáĬ«áĪĮáĬķáĭ³áĪŃ": 5929,
      "Ã©ĠenĠ": 5930,
      "ĠáĪ²áĪĨáĬķáį£": 5931,
      "ĠáĬĲáĮĪáĪŃĠáĮįáĬķ": 5932,
      "ĠáĮĢáĪĿáĪ®ĠáĬ¥áĪµáĬ¨Ġ20": 5933,
      "log": 5934,
      "ere": 5935,
      "aprÃ¨sĠ": 5936,
      "oaĠ": 5937,
      "iláº¹": 5938,
      "Ġá¹£Ã¹gbá»įÌģnĠ": 5939,
      "ÃĵĠk": 5940,
      "hadiĠk": 5941,
      "Ãłn.": 5942,
      "gabatarĠdaĠ": 5943,
      "adhim": 5944,
      "---": 5945,
      "inĠ(": 5946,
      "áī°áį¢": 5947,
      "Ġáĭ¨áĬ¦": 5948,
      "áĪ©áĪĿ": 5949,
      "ers,Ġ": 5950,
      "áĪ²áĬķ": 5951,
      "ĠáīĢáĬķĠáĪĽáĪĪáīµĠáĬĲáĭįáį¢": 5952,
      "ĠáĬłáīĨáĮ£áĮłáĪŃĠ(áĬ¨": 5953,
      "1892Ġáĭĵ.áĪĿ.ĠáĮĢáĪĿáĪ®ĠáĬ¥áĪµáĬ¨Ġ20": 5954,
      "ĠáīĢáĬķĠáīłáĬ¢áīµáĭ®áĮµáĭ«ĠáĬłáīĨáĮ£áĮłáĪŃĠ(áĬ¨": 5955,
      "1892Ġáĭĵ.áĪĿ.ĠáĮĢáĪĿáĪ®ĠáĬ¥áĪµáĬ¨Ġ2091Ġáĭĵ.áĪĿ.": 5956,
      "ĠáīĢáĬķĠáīłáĬ¢áīµáĭ®áĮµáĭ«ĠáĬłáīĨáĮ£áĮłáĪŃĠ(áĬ¨1892Ġáĭĵ.áĪĿ.ĠáĮĢáĪĿáĪ®ĠáĬ¥áĪµáĬ¨Ġ2091Ġáĭĵ.áĪĿ.": 5957,
      ";Ġ(": 5958,
      "dam": 5959,
      "gl": 5960,
      "moĠ": 5961,
      "annaĠ": 5962,
      "=\"": 5963,
      "Yul": 5964,
      "yaĠyiĠ": 5965,
      "osereĠ": 5966,
      "baĠtaĠ": 5967,
      "al'umm": 5968,
      "zabenĠ": 5969,
      "alabij": 5970,
      "Wil": 5971,
      "compos": 5972,
      "JuneĠ": 5973,
      "abab": 5974,
      "eyiĠ": 5975,
      "inform": 5976,
      "áīħáĭ±áĪµ": 5977,
      "Ġáĭĺáĭ´": 5978,
      "auc": 5979,
      "áĭ©áĪµ": 5980,
      "Ġáĭ¨áīĢáĬķĠáĪµáĪĿ": 5981,
      "Ġ(áĬ¥áĬķáĮįáĪĬáĭĿáĬĽ": 5982,
      "ĠáĪ²áĪĨáĬķĠáĭŃáĪħĠáīĢáĬķĠáīłáĬ¢áīµáĭ®áĮµáĭ«ĠáĬłáīĨáĮ£áĮłáĪŃĠ(áĬ¨1892Ġáĭĵ.áĪĿ.ĠáĮĢáĪĿáĪ®ĠáĬ¥áĪµáĬ¨Ġ2091Ġáĭĵ.áĪĿ.": 5983,
      "ĠáīłáĬ¥áĬķáĮįáĪĬáĭĿáĬĽĠáĪ²áĪĨáĬķĠáĭŃáĪħĠáīĢáĬķĠáīłáĬ¢áīµáĭ®áĮµáĭ«ĠáĬłáīĨáĮ£áĮłáĪŃĠ(áĬ¨1892Ġáĭĵ.áĪĿ.ĠáĮĢáĪĿáĪ®ĠáĬ¥áĪµáĬ¨Ġ2091Ġáĭĵ.áĪĿ.": 5984,
      "ĠáīłáĮİáĪŃáĮİáĪŃáĭ«áĬķĠáĬ«áĪĮáĬķáĭ³áĪŃĠáĭ¨áīĢáĬķĠáĪµáĪĿ": 5985,
      "ĠáīłáĮİáĪŃáĮİáĪŃáĭ«áĬķĠáĬ«áĪĮáĬķáĭ³áĪŃĠáĭ¨áīĢáĬķĠáĪµáĪĿĠáīłáĬ¥áĬķáĮįáĪĬáĭĿáĬĽĠáĪ²áĪĨáĬķĠáĭŃáĪħĠáīĢáĬķĠáīłáĬ¢áīµáĭ®áĮµáĭ«ĠáĬłáīĨáĮ£áĮłáĪŃĠ(áĬ¨1892Ġáĭĵ.áĪĿ.ĠáĮĢáĪĿáĪ®ĠáĬ¥áĪµáĬ¨Ġ2091Ġáĭĵ.áĪĿ.": 5986,
      "eniyanĠ": 5987,
      "2011": 5988,
      "sabab": 5989,
      "âĢ¢ĠMtoĠ": 5990,
      "ienĠ": 5991,
      "mark": 5992,
      "Wash": 5993,
      "Åį": 5994,
      "Pak": 5995,
      "zur": 5996,
      "Dam": 5997,
      "áīłáīĥ": 5998,
      "iyoyinĠ": 5999,
      "Ġáī°áīĥ": 6000,
      "ĠáĮłáīħ": 6001,
      "wÃ¡jÃºĠ": 6002,
      "áī¥áĪ«áĭŃ": 6003,
      "ĠáĬĥáĭŃáĪį": 6004,
      "áĪĮáĬŃáīµáĪªáĬŃ": 6005,
      "Ã©s": 6006,
      "uceĠ": 6007,
      "2014": 6008,
      "ĠtoĠtheĠ": 6009,
      "oundĠ": 6010,
      "includ": 6011,
      "CibiyarĠ": 6012,
      "huwaĠ": 6013,
      "jimb": 6014,
      "onÃŃá¹£": 6015,
      "Press": 6016,
      "áĪŃáī±": 6017,
      "ĠáĮĪáĭ°": 6018,
      "Ġáīłáī°áĮ¨áĪĽáĪª": 6019,
      "áĪĲáįĬ": 6020,
      "work": 6021,
      "pro": 6022,
      "ĠSch": 6023,
      "doĠ": 6024,
      "láº¹": 6025,
      "ojoj": 6026,
      "fÃºnĠÃłwá»įnĠ": 6027,
      "shiryaĠ": 6028,
      "yaĠmutuĠ": 6029,
      "gbá»įÌĢnĠ": 6030,
      "kumbukumb": 6031,
      "6Ġ-Ġ": 6032,
      "33": 6033,
      "áĬķĠáĪĪáĪĽ": 6034,
      "áī°áĬĽáĭį": 6035,
      "áĪĪáĪĺ": 6036,
      "Ġáĭ¨áĪĢ": 6037,
      "áīĢáĮ¥": 6038,
      "ÃĢĠ": 6039,
      "Ġáĭ¨áĪĺáĮĢáĪĺáĪªáĭ«áĭį": 6040,
      "ĠáĬĥáĭŃáĪĪ": 6041,
      "KÃ¡": 6042,
      "SĠ": 6043,
      "cert": 6044,
      "sáº¹ÌĢĠ": 6045,
      "Ã²á¹£erÃ©Ġ": 6046,
      "Ãłká»įÌģká»įÌģĠ": 6047,
      "RobertĠ": 6048,
      "Val": 6049,
      "Fed": 6050,
      "ĠÐ": 6051,
      "áĭŃáĪŃ": 6052,
      "Ġáĭ¨áĪļáī³áĭĪ": 6053,
      "ĠáĮįáĭĽ": 6054,
      "áĬłáĪĪ": 6055,
      "ĠáĬłáĪĪáĪĿ": 6056,
      "is.": 6057,
      "1999": 6058,
      "tofaut": 6059,
      "a,Ġk": 6060,
      "kasaĠdaĠ": 6061,
      "Ġá»įÌĢd": 6062,
      "48": 6063,
      "aminĠ": 6064,
      "t.": 6065,
      "succ": 6066,
      "foisĠ": 6067,
      "lem": 6068,
      "iĠaĠ": 6069,
      "ĠáĬ¥áĬĶ": 6070,
      "ĠáĬłáĭ¨áĪŃ": 6071,
      "áĮįáĪªáĬŃ": 6072,
      "áĬ¨áĭļáĭ«": 6073,
      "áĪ°áĪŃ": 6074,
      "áīłáīµĠáĮĬáĭľ": 6075,
      "ĠáĮĪáĬķ": 6076,
      "Ã¬gbÃ©": 6077,
      "aziniĠ": 6078,
      "KanisaĠ": 6079,
      "AnnabiĠ": 6080,
      "ÃĮbÃłd": 6081,
      "Su": 6082,
      "tif": 6083,
      "partĠ": 6084,
      "ĠáĬłáĭ²áĪµĠáĬłáīłáī£": 6085,
      "2005": 6086,
      "áĪµáīµáĬĵ": 6087,
      "argaj": 6088,
      "Hak": 6089,
      "DavidĠ": 6090,
      "ta.": 6091,
      "Ġti": 6092,
      "awal": 6093,
      "uĠkwaĠ": 6094,
      "anbihiĠ": 6095,
      "ÃĢwá»įnĠÃ¨nÃ¬yÃłnĠalÃłÃły": 6096,
      "oss": 6097,
      "áĭĽáĬĽáĭį": 6098,
      "Ġáīłáī¥áĭĽáīµ": 6099,
      "Sat": 6100,
      "bat": 6101,
      "dansĠlesĠ": 6102,
      "Republ": 6103,
      "AdÃ©": 6104,
      "ÙİÙ": 6105,
      "trad": 6106,
      "biyarĠ": 6107,
      "aiz": 6108,
      "nÃŃtorÃŃĠ": 6109,
      "ÃĢwá»įnĠÃĮt": 6110,
      "akarant": 6111,
      "wá»įÌģn": 6112,
      "ym": 6113,
      "dansĠlaĠ": 6114,
      "ĠáĭŃáĪĦ": 6115,
      "áĭ³áĪį": 6116,
      "áĭĺáĭį": 6117,
      "áĪ©áį¢": 6118,
      "ĠáĪµáĪĪáĪļ": 6119,
      "ĠáĪĻáĪī": 6120,
      "ĠáĪĺáĪįáĬŃáĭĵ": 6121,
      "47": 6122,
      "ĠáĬłáĪħ": 6123,
      "ĠáīĢáĭ³": 6124,
      "Ele": 6125,
      "ce": 6126,
      "activ": 6127,
      "ariĠtaraĠ": 6128,
      "TarayyarĠ": 6129,
      "ne,ĠdaĠkeĠ": 6130,
      "áº¸ÌĢ": 6131,
      "kuhusuĠ": 6132,
      "Litt": 6133,
      "Ġ*": 6134,
      "áĭµáĪ¨áĪµ": 6135,
      "Ġáį³áį": 6136,
      "áįįáĮ¥": 6137,
      "Ġáī£áĭŃ": 6138,
      "ĠáīĢáĬķĠ-": 6139,
      "ĠáĪĺáĪĪ": 6140,
      "ubuc": 6141,
      "ocinĠ": 6142,
      "tsawonĠ": 6143,
      "exp": 6144,
      "jami'": 6145,
      "walikuwaĠ": 6146,
      "aikiĠaĠmatsayinĠ": 6147,
      "n.k.": 6148,
      "useĠ": 6149,
      "2010": 6150,
      "iensĠ": 6151,
      "Ġ8": 6152,
      "in-": 6153,
      "áīłáīħ": 6154,
      "áĪ°áĪĽ": 6155,
      "áīłáĪ³": 6156,
      "áĪŀáīµ": 6157,
      "Â»,Ġ": 6158,
      "ĠáĬłáĮĪáĪ®áī½": 6159,
      "áĬ¥áĬķáĭ²": 6160,
      "Sam": 6161,
      "mÃ¹Ġ": 6162,
      "udi": 6163,
      "Ã¬sÃłnĠ": 6164,
      "26Ġ": 6165,
      "99": 6166,
      "a),Ġ": 6167,
      "arĠs": 6168,
      "trÃ¨sĠ": 6169,
      "onek": 6170,
      "dog": 6171,
      "engaĠ": 6172,
      ")ĠáĬ¥áĬĵ": 6173,
      "Î¿": 6174,
      "áĪŃáī£": 6175,
      "áĬĵáĭŃáīµ": 6176,
      "ĠáĬ¥áĮįáĭļáĬłáī¥áĪĶáĪŃ": 6177,
      "wandaĠkeĠ": 6178,
      "2018": 6179,
      "áĭ´áīµ": 6180,
      "ologyĠ": 6181,
      "Ġáī¥áĪĶáĪ«áĭĬ": 6182,
      "ĠáĭĪáĭŃáĬķáĪĿ": 6183,
      "Christi": 6184,
      "ĠáīĢáĮ¥áĪİ": 6185,
      "CC": 6186,
      "ile": 6187,
      "autaĠ": 6188,
      "anĠNajeriyaĠ": 6189,
      "obiĠ": 6190,
      "KanoĠ": 6191,
      "AfirkaĠtaĠ": 6192,
      "LegasĠ": 6193,
      "Rh": 6194,
      "nomĠ": 6195,
      "Ġ~": 6196,
      "áĬķáĬŃ": 6197,
      "Ġáī°áĮįáī£": 6198,
      "áĭ³áĭµ": 6199,
      "áīłáĪµ": 6200,
      "Ġáĭ¨áī°áĪĺ": 6201,
      "saf": 6202,
      "NewĠYorkĠ": 6203,
      "aĠmas": 6204,
      "okanaĠnaĠ": 6205,
      "nÃ¡Ãł,Ġ": 6206,
      "gwamnatinĠ": 6207,
      "Emp": 6208,
      "ami": 6209,
      "umoĠ": 6210,
      "2009": 6211,
      "áĮĪáĪ«áīµ": 6212,
      "angl": 6213,
      "áĪĪáĪĿáĪ³áĪĮ": 6214,
      "áĪ¸áĬĲ": 6215,
      "ĠáĪĽáĮ£áīĢáĪ»": 6216,
      "ron": 6217,
      "isc": 6218,
      "ationĠdeĠ": 6219,
      "do": 6220,
      "lib": 6221,
      "Ãį": 6222,
      "ÅĦĠá¹£eĠ": 6223,
      "Ã¬á¹£áº¹ÌĢ": 6224,
      "ilioniĠ": 6225,
      "ryĠ": 6226,
      "ĠsiĠ": 6227,
      "Jon": 6228,
      "Ðµ": 6229,
      "áį¡áīł": 6230,
      "unĠM": 6231,
      "KunaĠ": 6232,
      "etr": 6233,
      "ial": 6234,
      "jÃ¹Ġ": 6235,
      "Alim": 6236,
      "wakaz": 6237,
      "asarautarĠ": 6238,
      "Ã¬rÃ²yÃ¬nĠ": 6239,
      "nombre": 6240,
      "jÃ©Ġ": 6241,
      "áĪªáĪµ": 6242,
      "ĠdiĠ": 6243,
      "ion,Ġ": 6244,
      "ĠáĬłáĪīáį¢": 6245,
      "Ġáī£áĪħáĪŃ": 6246,
      "GÃ³mÃ¬nÃłĠ": 6247,
      "Wad": 6248,
      "gan": 6249,
      "láº¹ÌĢ-Ã¨dÃ¨Ġ": 6250,
      "naf": 6251,
      "daĠyakeĠ": 6252,
      "KadunaĠ": 6253,
      "Offic": 6254,
      "MakarantarĠ": 6255,
      "Moh": 6256,
      "duĠm": 6257,
      "to": 6258,
      "2004": 6259,
      "iki,Ġ": 6260,
      "istaĠ": 6261,
      "ĠáĪĺáĮ£": 6262,
      "ĠkatikaĠm": 6263,
      "ĠáĮ¥áĪ©": 6264,
      "áĬłáĪµ": 6265,
      "Ã¬dÃŃĠ": 6266,
      "atukio": 6267,
      "nÃŃgbÃłĠtÃŃĠ": 6268,
      "Reg": 6269,
      "aya,Ġ": 6270,
      "Hous": 6271,
      "yanaĠdaĠ": 6272,
      "fasah": 6273,
      "ĠáīłáĪħ": 6274,
      "c.": 6275,
      "sk": 6276,
      "Institut": 6277,
      "inceĠ": 6278,
      "enĠ(": 6279,
      "crip": 6280,
      "anth": 6281,
      "econdĠ": 6282,
      "AlÃ¡": 6283,
      "onneĠ": 6284,
      "itaceĠ": 6285,
      "ÆĻidayarĠ": 6286,
      "aĠkung": 6287,
      "ÃĪkÃ³Ġ": 6288,
      "áĭµáĪĺ": 6289,
      "áį¡áĬ¥": 6290,
      "ĠáīłáĪĽáĪĪáīµ": 6291,
      "ĠáĬ¥áĬķáĮįáĪĬáĭĿáĬĽ": 6292,
      "37": 6293,
      "ĠáĪĽáĪŃáĭ«áĪĿ": 6294,
      "ES": 6295,
      "liv": 6296,
      "deĠm": 6297,
      "overnmentĠ": 6298,
      "Wais": 6299,
      "ÅĦĠk": 6300,
      "lÃ©Ġráº¹ÌĢĠ": 6301,
      "zaidiĠ": 6302,
      "wenyeweĠ": 6303,
      "Ġ20": 6304,
      "re.": 6305,
      "AnaĠ": 6306,
      "chez": 6307,
      "nje": 6308,
      "áĪŃáĮİ": 6309,
      "áīħáĭ«": 6310,
      "Ġáīµáĭį": 6311,
      "áĮ«áĭĪ": 6312,
      "ĠáĪ³áĭŃáĬķáĪ³áĭĬ": 6313,
      "ĠáįĸáĪĪáī²áĬ«": 6314,
      "áī¥áĪ«áĭŃáĪµáĮ¥": 6315,
      "38": 6316,
      "báº¹ÌģĠ": 6317,
      "tabb": 6318,
      "alk": 6319,
      ".ĠÃĢwá»įnĠÃ¬t": 6320,
      "toĠgbaĠEbunĠ": 6321,
      "arew": 6322,
      "wap": 6323,
      "áĬķáī³": 6324,
      "scien": 6325,
      "ĠáĮīáĭ³áĭŃ": 6326,
      "AR": 6327,
      "pá»į": 6328,
      "ina,Ġ": 6329,
      "ÃºÃºs": 6330,
      "Ã¨-": 6331,
      "ajiliĠyaĠ": 6332,
      "2012": 6333,
      "ileĠniĠ": 6334,
      "Ã¬dÃŃ": 6335,
      "IbileĠ": 6336,
      "sousĠ": 6337,
      "ĠN": 6338,
      "aĠG": 6339,
      "faf": 6340,
      "sá»į": 6341,
      "ĠáĪ¬": 6342,
      "áĬķĠáĭ¨áĪļ": 6343,
      "ikiĠwaĠ": 6344,
      "áĬłáĬķáĭµ": 6345,
      "ÃŃnÃºĠ": 6346,
      "Ã¬má»įÌĢ": 6347,
      "ĠáĬ¥áĬķáĭ³áĭŃ": 6348,
      "ĠáĭĽáĪ¬": 6349,
      "Ġáī³áĪªáĬ«áĭĬĠáĪĽáĪµáī³áĭĪáĪ»áĭİáī½": 6350,
      "ĠáĪĺáĪįáĬŃáĭĵĠáĪĿáĭµáĪŃ": 6351,
      "hark": 6352,
      "rank": 6353,
      "empl": 6354,
      "TanaĠ": 6355,
      "4,": 6356,
      "eyeĠ": 6357,
      "TanbihiĠ": 6358,
      "ishaĠm": 6359,
      "ambaz": 6360,
      "amfan": 6361,
      "zamaniĠ": 6362,
      "shirye-": 6363,
      "daĠyawanĠjama'aĠ": 6364,
      "Láº¹ÌģyÃ¬nĠ": 6365,
      "ĠáĬłáī¶": 6366,
      "ĠáīłáĭĺáĪĺáĬĲĠáĪīáīĥáĪµ": 6367,
      "ĠáĬłáįĪĠáī³áĪªáĬŃ": 6368,
      "ĠáĪļáĬĴáĪµáīµ": 6369,
      "ĠáĭµáĪŃáĮħáīµ": 6370,
      "Lim": 6371,
      "enneĠ": 6372,
      "yiĠm": 6373,
      "hiy": 6374,
      "ayáº¹": 6375,
      "iyaĠdaĠ": 6376,
      "1)": 6377,
      "Str": 6378,
      "peop": 6379,
      "Ġáīłáīµ": 6380,
      "áĭ«áĪį": 6381,
      "plusieursĠ": 6382,
      "áĬ®áĬĸ": 6383,
      "ĠáīłáĪµáī°": 6384,
      "Ã´t": 6385,
      "Ġáĭĭáī¢ĠáĪĿáĬķáĮ®áī½": 6386,
      "cy": 6387,
      "tat": 6388,
      "aineĠ": 6389,
      "Alexand": 6390,
      "Ã³paĠ": 6391,
      "ChinaĠ": 6392,
      "gudanarĠdaĠ": 6393,
      "ammalaĠkar": 6394,
      "Rad": 6395,
      "itoĠ": 6396,
      "estiv": 6397,
      "sĠinĠ": 6398,
      "áĪŃáī¶": 6399,
      "Ġáįİ": 6400,
      "áĮ¥áĪĿ": 6401,
      "áįĪáĪĭ": 6402,
      "ĠáīłáĬ®": 6403,
      "ĠáĬĵáīµáį¢": 6404,
      "ĠáīłáĬĭáĪĭĠáĬ¥áĪµáĬ¨": 6405,
      "áįĸáĪĪáī²áĬ«": 6406,
      "ĠáĮ¸áī£áĭŃ": 6407,
      "o)Ġ": 6408,
      "Ãłl": 6409,
      "Pres": 6410,
      "gáº¹": 6411,
      "nÃŃgbÃłĠ": 6412,
      "2008": 6413,
      "2015": 6414,
      "ipeĠ": 6415,
      "Kur": 6416,
      "Kwam": 6417,
      "°áį»áį": 6418,
      "áĪµáī´": 6419,
      "Ġáį»áį": 6420,
      "áĬ«áĪŃ": 6421,
      "ĠáĪµáī¥áĪµ": 6422,
      "2016": 6423,
      "Ġáĭ¨áī°áī£áĪĪ": 6424,
      "Ġáĭ°áĪ«áĪ²": 6425,
      "ember": 6426,
      "pia": 6427,
      "irg": 6428,
      "huadhim": 6429,
      "yaaniĠ": 6430,
      "pÃłÃ¡Ġ": 6431,
      "versĠ": 6432,
      "ulĠ": 6433,
      "áĬķĠáĬ¥áĬĵ": 6434,
      "áĬķáĮİ": 6435,
      "áĪĭáīģ": 6436,
      "áĬ¨áĪĭ": 6437,
      "áĪİáĮĤ": 6438,
      "ĠáīħáĪŃáĪµ": 6439,
      "áĮŃáĪŃ": 6440,
      "ÃºrÃ²Ġ": 6441,
      "ĠáĮĬáĭ®áĪŃáĮĬáĪµ": 6442,
      "alÃ¡Ã¬sÃŃĠnÃŃĠ": 6443,
      "KanananĠhukumominĠjiharĠ": 6444,
      "áĬĵáĭŃáīµáĭµ": 6445,
      "centr": 6446,
      "usin": 6447,
      "osiĠ": 6448,
      "bet": 6449,
      "undĠ": 6450,
      "uck": 6451,
      "cikiĠ": 6452,
      "zakeĠ": 6453,
      "2000": 6454,
      "ÉĹauk": 6455,
      "egem": 6456,
      "IIIĠ": 6457,
      "aularĠ": 6458,
      "ĠBKĠ(BaadaĠyaĠKristo).ĠMatukioĠWaliozaliwaĠ": 6459,
      "IjobaĠIbileĠ": 6460,
      "áĭµáĪ®": 6461,
      ".ĠL": 6462,
      "áĬ¨áī³": 6463,
      "áĭĪáĭŃáĪĿ": 6464,
      "áĮĭáī¢": 6465,
      "led": 6466,
      "gur": 6467,
      "ĠdeĠ": 6468,
      "lev": 6469,
      "500": 6470,
      "abakiĠ": 6471,
      "ÃĢwá»įnĠá»įjá»įÌģ": 6472,
      "MarejeoĠ": 6473,
      "ĠáĬ¥áĪĿáĬĲáīµ": 6474,
      "áĮĪáĪ¨": 6475,
      "áĪ«áĪįáį¢": 6476,
      "áĪĮáĪİáī½": 6477,
      "Ġáĭ¨áĪļáĮĪáĬĻ": 6478,
      "áĮłáī¥": 6479,
      "ĠáĭįáĮŃ": 6480,
      "46": 6481,
      "Kais": 6482,
      "adir": 6483,
      "Ã©rÃ©Ġ": 6484,
      "Academ": 6485,
      "Centr": 6486,
      "VisiwaĠ": 6487,
      "iĠkatiĠyaĠ": 6488,
      ",ĠmshindiĠwaĠTuzoĠyaĠNobelĠyaĠTibaĠmwakaĠwaĠ": 6489,
      "Ġá»ĮdÃºnĠ": 6490,
      "ari'": 6491,
      "yanay": 6492,
      "AfrikaĠyaĠ": 6493,
      "wengi,Ġ": 6494,
      "Arg": 6495,
      "luiĠ": 6496,
      "LondonĠ": 6497,
      "rig": 6498,
      "áĪĪáĭµ": 6499,
      "ĠáĭŃáĪĭáĪįáį¢": 6500,
      "ident": 6501,
      "azz": 6502,
      "ĠáĪ²áĪĨáĬĳ": 6503,
      "ijer": 6504,
      "áĬŀáī¹": 6505,
      "Ġáī°áĪ«áĪ«": 6506,
      "Wab": 6507,
      "asih": 6508,
      "wez": 6509,
      "yaliy": 6510,
      "akat": 6511,
      "Ã¬dÃ¡": 6512,
      "notammentĠ": 6513,
      "YunifÃ¡": 6514,
      "tattalinĠarz": 6515,
      "ÃĢwá»įnĠá»įjá»įÌģalÃ¡Ã¬sÃŃĠnÃŃĠ": 6516,
      "ine,Ġ": 6517,
      "wanaĠ": 6518,
      "fordĠ": 6519,
      "Som": 6520,
      "ĠáĬ¥áĪŃáĪ±": 6521,
      "áĮįáĬĺ": 6522,
      "ĠáīłáĬ¦": 6523,
      "Ġáī°áĬ¨áī³": 6524,
      "Kum": 6525,
      "Kig": 6526,
      "ĠØ§ÙĦ": 6527,
      "envir": 6528,
      "iláº¹ÌĢ": 6529,
      "undiĠ": 6530,
      "intoĠ": 6531,
      "2013": 6532,
      "Â».": 6533,
      "ikiped": 6534,
      "pris": 6535,
      "AM": 6536,
      "Bak": 6537,
      "ika": 6538,
      "ossĠ": 6539,
      "1998": 6540,
      "premiÃ¨reĠ": 6541,
      "ekoĠ": 6542,
      "gn": 6543,
      "udaĠ": 6544,
      "áĭ°áĪµ": 6545,
      "ĠáĭĪáī³áĭ°": 6546,
      "apÃ¡Ġ": 6547,
      "áĬłáīµ": 6548,
      "áĬ®áīµ": 6549,
      "ĠáĪ¥áįįáĪ«": 6550,
      "ĠáĬ¥áĬķáĭ²áĭ«": 6551,
      "niĠá»įdunĠ": 6552,
      "ĠáĪµáĪĪáĪĨáĬĲ": 6553,
      "ĠáĬ¨áī°áĪĽĠáĬĲáĭįáį¢": 6554,
      "premierĠ": 6555,
      "ĠAgostiĠ-Ġ": 6556,
      "ĠáĪ¦áĪµáīµ": 6557,
      "lambarĠyab": 6558,
      "kam": 6559,
      "ranĠ": 6560,
      "AP": 6561,
      "him": 6562,
      "ĠP": 6563,
      "DarĠ": 6564,
      "gá»įÌģ": 6565,
      "toutĠ": 6566,
      "ĠdagaĠ": 6567,
      "waĠkwanzaĠ": 6568,
      "iliminĠ": 6569,
      "Ãłwá»įnĠá»įmá»įĠ": 6570,
      "OgunĠ": 6571,
      "nemanĠ": 6572,
      "ie,Ġ": 6573,
      "eroĠ": 6574,
      "áĪĿĠáĪĪ": 6575,
      "ĠáĬłáīħ": 6576,
      "áĬ«áĪĿ": 6577,
      "ĠáĭµáĪį": 6578,
      "áĪ²áī²": 6579,
      "hel": 6580,
      "Oj": 6581,
      "ida": 6582,
      "eshiĠ": 6583,
      "gargaj": 6584,
      "kÃ¬": 6585,
      "aĠshekararĠ201": 6586,
      "akaf": 6587,
      "lá»į.": 6588,
      "RayuwarĠ": 6589,
      "Ġ9": 6590,
      "iusĠ": 6591,
      "Ã©po": 6592,
      "áĭĺáĪĺ": 6593,
      "ĠáĮįáĬķáĬĻ": 6594,
      "áĮ¡áīµ": 6595,
      "ĠáĬłáįįáĪªáĬ«": 6596,
      "Dev": 6597,
      "sec": 6598,
      "afuĠ": 6599,
      "4Ġ-Ġ": 6600,
      "vic": 6601,
      "osp": 6602,
      "ikuuĠ": 6603,
      "ĠsÃŃ": 6604,
      "dÃ¡raĠ": 6605,
      "imataif": 6606,
      "YohaneĠ": 6607,
      "AgbegbeĠIjobaĠIbileĠ": 6608,
      "Ã³n": 6609,
      "WilliamĠ": 6610,
      "ving": 6611,
      "vent": 6612,
      "agenĠ": 6613,
      "áĬ«áĬ¨áĪĪ": 6614,
      "ĠáĪµáĪĭ": 6615,
      "áĪĨáĬĸ": 6616,
      "áĭ²áĭ®": 6617,
      "org/": 6618,
      "les": 6619,
      "pri": 6620,
      "Cal": 6621,
      "azarinĠ": 6622,
      "eneoĠyaĠ": 6623,
      "Iá¹£áº¹ÌģĠ": 6624,
      "ijerum": 6625,
      "low": 6626,
      "re,Ġ": 6627,
      "appar": 6628,
      "cultur": 6629,
      "Olymp": 6630,
      "Lab": 6631,
      "áĮª": 6632,
      "áĪĿĠáĪĨáĬĲ": 6633,
      "áĬŃáĪ²": 6634,
      "áī£áī³": 6635,
      "áĬ¨áĪ¨áĪĿ": 6636,
      "ĠáĪ²áīĢ": 6637,
      "ĠáīµáĪŃ": 6638,
      "Ġáĭĺáįĭ": 6639,
      "ĠáĭĺáĪĺáĬĵáĭĬ": 6640,
      "áīĥáĪ´": 6641,
      "ĠáĭįáĪĥ": 6642,
      "ĠáĪĺáĮ¨áĪ¨áĪ»ĠáĭµáĪ¨áĪµ": 6643,
      "gidaĠ": 6644,
      "moj": 6645,
      "const": 6646,
      "lá»įÌģwá»įÌģĠ": 6647,
      "indaĠyaĠ": 6648,
      "DesembaĠ": 6649,
      "Ne": 6650,
      "inap": 6651,
      "yoteĠ": 6652,
      ",ĠB": 6653,
      "tÃ²": 6654,
      "play": 6655,
      "lÃŃ": 6656,
      "áĬķĠáī°": 6657,
      "Ãłgb": 6658,
      "áĮĪáīµ": 6659,
      "áĪ°áĪį": 6660,
      "aliye": 6661,
      "áĪµáįĵáĬķáĭ«": 6662,
      "áīħáĪµáīĥáĪ´": 6663,
      "ĠáīłáĬĭáĪĭĠáĬ¥áĪµáĬ¨ĠáĭĵáĪĺáī±": 6664,
      "isĠ(": 6665,
      "Allah": 6666,
      "Sil": 6667,
      "NewĠYork": 6668,
      "velopp": 6669,
      "fa": 6670,
      "ector": 6671,
      "KwalejinĠ": 6672,
      "aĠyaĠm": 6673,
      "OlÃº": 6674,
      "ement,Ġ": 6675,
      "Way": 6676,
      "aelĠ": 6677,
      "áĪįáīµ": 6678,
      "ĠáĪµáĪŀáī½": 6679,
      "Ġáīłáī°áĪĪ": 6680,
      "à¤ķ": 6681,
      "ĠáĪĺáĪłáĪ¨áīµ": 6682,
      "ThomasĠ": 6683,
      "rab": 6684,
      "leursĠ": 6685,
      "MaiĠ": 6686,
      "ux": 6687,
      "elaĠ": 6688,
      "tĠ(": 6689,
      "ajuĠ": 6690,
      "Jer": 6691,
      "ObaĠ": 6692,
      "bÃº": 6693,
      "ceĠdakeĠ": 6694,
      "Ġá¹£ÃŃá¹£": 6695,
      "ayyukanĠ": 6696,
      "yaddaĠ": 6697,
      "le,Ġ": 6698,
      "rĠ": 6699,
      "ibleĠ": 6700,
      "view": 6701,
      "Hany": 6702,
      "Law": 6703,
      "giz": 6704,
      "Ġáĭ¨áĭĵáĪĪáĪĿ": 6705,
      "ĠáĬ¥áĪĿ": 6706,
      "áĪĽáĪ½": 6707,
      "ĠáīµáĪĿáĪħáĪŃ": 6708,
      "ĠáĬ¥áĬķáĭ°Ġáī°": 6709,
      "áĮħáĪĿ": 6710,
      "áĪµáĪĪáĭļáĪħ": 6711,
      "Iy": 6712,
      "dÃ³": 6713,
      "gaĠm": 6714,
      "Frank": 6715,
      "Juli": 6716,
      "Kih": 6717,
      "Nollywo": 6718,
      "banĠ": 6719,
      "Fren": 6720,
      "AnĠginaĠ": 6721,
      "áº¹ráº¹Ġ": 6722,
      "azamaĠpiaĠOrodhaĠyaĠ": 6723,
      "DeĠ": 6724,
      "Dur": 6725,
      "Dok": 6726,
      "Nair": 6727,
      "Tel": 6728,
      "Kut": 6729,
      "band": 6730,
      "áĪĿáįĴ": 6731,
      "Ġáīłáĭį": 6732,
      "áĪĽáĪį": 6733,
      "Ġáĭ¨áĪ®": 6734,
      "ĠáĪĿáĭķáĪ«áī¥": 6735,
      "áĪģáĪĪáīµ": 6736,
      "áĪľáīµ": 6737,
      "ĠáĬĲáĮĪáĪł": 6738,
      "Ġáī¡áĭµáĬķ": 6739,
      "ĠáĭŃáīĢáĪ«áĪīáį¢": 6740,
      "gh": 6741,
      "yauĠ": 6742,
      "aĠwasanĠ": 6743,
      "kumaĠmaiĠ": 6744,
      "fiĠs": 6745,
      "uatanaĠnaĠ": 6746,
      "ViungoĠvyaĠnje": 6747,
      "hadiĠkifoĠch": 6748,
      "grand": 6749,
      "AF": 6750,
      "Ver": 6751,
      "ubli": 6752,
      "urg": 6753,
      "áĭµáĬĵ": 6754,
      "ĠáĭŃáĭ©": 6755,
      "Ġáĭ¨áĪ´": 6756,
      "áįĪáĬķ": 6757,
      "Ġáĭ¨áī°áĭĪ": 6758,
      "áĪİáĪµ": 6759,
      "Kif": 6760,
      "da": 6761,
      "pá»įĠ": 6762,
      "daĠyawaĠ": 6763,
      "ninuĠawonĠ": 6764,
      "sakand": 6765,
      "yÃ³Ã²Ġ": 6766,
      "AlakosoĠAgbaĠ": 6767,
      "aan": 6768,
      "hiv": 6769,
      "aboutĠ": 6770,
      "weenĠ": 6771,
      "39": 6772,
      "hil": 6773,
      "erch": 6774,
      "us.": 6775,
      "lilikuwaĠ": 6776,
      "uitĠ": 6777,
      "ahaliĠ": 6778,
      "áĬķáĮįáĪį": 6779,
      "ĠáĮĭáĪ«": 6780,
      "auriĠ": 6781,
      "shindiĠwaĠTuzoĠyaĠNobelĠyaĠFasih": 6782,
      "Ġáī¥áĪŃáĪĥ": 6783,
      "aĠp": 6784,
      "Sun": 6785,
      "aya.": 6786,
      "dak": 6787,
      "daĠnaĠ": 6788,
      "Ã¨yÃŃ": 6789,
      "andik": 6790,
      "oá¹£Ã¹ĠK": 6791,
      "Sala": 6792,
      "JulaiĠ-Ġ": 6793,
      "ÃĢwá»įnĠÃ¬tá»įÌģkasÃŃĠ": 6794,
      "digiriĠnaĠ": 6795,
      "sinimÃ¡ĠÃłgbÃ©lÃ©": 6796,
      "Ot": 6797,
      "ĠáĬłáĮĭ": 6798,
      "áĬ¥áĬĲáĭļáĪħ": 6799,
      "ĠáĬŃáĪŃáĪµáī²áĭ«": 6800,
      "ĠáĮĪáĮ½": 6801,
      "illĠ": 6802,
      "ĠáĮ½áĪķ": 6803,
      "ĠáĭŃáĪĨáĬĵáĪįáį¢": 6804,
      "ĠáīłáĬĭáĪĭĠáĬ¥áĪµáĬ¨ĠáĭĵáĪĺáī±ĠáĪĺáĮ¨áĪ¨áĪ»ĠáĭµáĪ¨áĪµ": 6805,
      "ajir": 6806,
      "taĠfarkoĠ": 6807,
      "nÃŃp": 6808,
      "iĠmwakaĠ": 6809,
      "wakifuat": 6810,
      "nÃŃĠá»įdÃºnĠ201": 6811,
      "upandeĠwaĠm": 6812,
      "We": 6813,
      "sir": 6814,
      "1980": 6815,
      "Ġtrans": 6816,
      "ĠáĬĽ": 6817,
      "ĠáĭĪáĮĪ": 6818,
      "edĠasĠ": 6819,
      "ĠáĭįáĪĢ": 6820,
      "áĪ²áĭ«": 6821,
      "aĠbir": 6822,
      "ĠáĭķáĪĪáī°": 6823,
      "ĠáįįáĪ¬": 6824,
      "ood": 6825,
      "abi": 6826,
      "ká»įÌĢĠ": 6827,
      "wacinĠ": 6828,
      "áº¹taĠ": 6829,
      "Ã¬tÃłg": 6830,
      "lÃ¡raĠÃłwá»įnĠ": 6831,
      "nÃŃbiĠtÃŃĠ": 6832,
      "AbubakarĠ": 6833,
      "shiĠneĠdanĠwasanĠÆĻwallonĠÆĻafaĠtaĠÆĻasarĠIngila.": 6834,
      "nuf": 6835,
      "Sok": 6836,
      "yth": 6837,
      "Ġáĭ¨áĪ±": 6838,
      "áĮłáĪĪ": 6839,
      "Ġáĭ¨áĬĲáīłáĪ©": 6840,
      "áĬķáĮĮ": 6841,
      "ĠáĪĿáĬķáĮĬáĭľ": 6842,
      "ĠáĪļáĪĬáĭ®áĬķ": 6843,
      "ois": 6844,
      "rÃº": 6845,
      "yaĠmwakaĠ": 6846,
      "baiĠ": 6847,
      "31Ġ": 6848,
      "territ": 6849,
      "Rev": 6850,
      "áĬ£": 6851,
      "áĬķáīĢ": 6852,
      "Ġáīłáīħ": 6853,
      "áĬ«áĬ¤áĪį": 6854,
      "áĪİáī¹": 6855,
      "ĠáĪįáĮģ": 6856,
      "Ġáī¢áĭ«": 6857,
      "ĠáĭĺáĪĺáĬķĠáĬłáīĨáĮ£áĮłáĪŃ": 6858,
      "Ġáĭ¨áĭįáĮŃ": 6859,
      "áī¨áĪŃáĪ²áī²": 6860,
      "ĠáĪĺáĮ»áĪķ": 6861,
      "85": 6862,
      "Ùĩ": 6863,
      "compl": 6864,
      "ress": 6865,
      "suchĠ": 6866,
      "1960": 6867,
      "cord": 6868,
      "Mut": 6869,
      "obj": 6870,
      "Italia": 6871,
      "ĠaĠ": 6872,
      "áĪĪáį¢": 6873,
      "ĠáĪĺáīħ": 6874,
      "áīĥáĭįáĬķ": 6875,
      "áīĤáīµ": 6876,
      "jáº¹ÌģĠá»įmá»įĠ": 6877,
      "jáº¹sÃ¡": 6878,
      "uhuruĠ": 6879,
      "Nam": 6880,
      "fon": 6881,
      "wid": 6882,
      "2017": 6883,
      "wardĠ": 6884,
      "UnitedĠStat": 6885,
      "ĠAugustĠ": 6886,
      "tarĠ": 6887,
      "</": 6888,
      "Si": 6889,
      "anim": 6890,
      "Larab": 6891,
      "jÃ¬Ġ": 6892,
      "yt": 6893,
      "á»įkÃłn": 6894,
      "gbÃ²": 6895,
      "askof": 6896,
      "OktobaĠ-Ġ": 6897,
      "áĬŃáĪŃáĪµáī¶áĪµ": 6898,
      "ĠáĭŃáĬĲ": 6899,
      "ĠáīłáĬ¤": 6900,
      "Ġáī£áĪķáĪŃ": 6901,
      "Ġáĭ¨áĬłáĭ¨áĪŃ": 6902,
      "áīĤáĭ«": 6903,
      "cit": 6904,
      "kinĠ": 6905,
      "oodĠ": 6906,
      "aÃ®": 6907,
      "son": 6908,
      "agharib": 6909,
      "watakatifuĠ": 6910,
      "AnĠhaifiĠ": 6911,
      "BiranenĠ": 6912,
      "Ã¬bÃŃláº¹ÌĢĠ": 6913,
      "haÉĹinĠ": 6914,
      "BritishĠ": 6915,
      "fÃŃÃ¬mÃ¹Ġ": 6916,
      "49": 6917,
      "isĠtheĠ": 6918,
      "ake.": 6919,
      "Ġ(áĬł": 6920,
      "áĬ¨áĪ°": 6921,
      "ĠáīłáĪĺáĪĨáĬķ": 6922,
      "ElleĠ": 6923,
      "ĠáĭŃáĪĺáĪµáĪĭáĪįáį¢": 6924,
      "Kul": 6925,
      "FarkonĠ": 6926,
      "bá»įÌģá»įÌĢ": 6927,
      "orÃŃá¹£": 6928,
      "Ġá»įbaĠ": 6929,
      "jáº¹ÌģĠá»įÌĢkanĠ": 6930,
      "irefu": 6931,
      "Sol": 6932,
      "Ġáīª": 6933,
      "Democrat": 6934,
      "Portug": 6935,
      "Fre": 6936,
      "Ġáīłáĭĵ": 6937,
      "áĭ«áĪľ": 6938,
      "áĪĭáĪµ": 6939,
      "áįĪáĪ«": 6940,
      "anteĠ": 6941,
      "formeĠ": 6942,
      "assanĠ": 6943,
      "áĮ»áįĪ": 6944,
      "RĠ": 6945,
      "mostĠ": 6946,
      "shair": 6947,
      "ayarĠdaĠ": 6948,
      "gboyÃ¨Ġ": 6949,
      "ĠAs": 6950,
      "AĠshekararĠ": 6951,
      "karniĠnaĠ": 6952,
      "kaskazin": 6953,
      "aĠmapokeoĠyaĠ": 6954,
      "italĠ": 6955,
      "Alg": 6956,
      "queĠleĠ": 6957,
      "tot": 6958,
      "Jar": 6959,
      "100Ġ": 6960,
      "ĠáĮĥ": 6961,
      "áĭŃáĪģ": 6962,
      "ĠáīłáĪĭ": 6963,
      "ĠáĬĲáĭįáį¢ĠáĬ¨": 6964,
      "ĠáĬłáĪĪáĭįáį¢": 6965,
      "jÃ¬": 6966,
      "kÃ¹": 6967,
      ",ĠÃłtiĠ": 6968,
      "ensiĠ": 6969,
      "....": 6970,
      "e).": 6971,
      "ajaĠ": 6972,
      "IbnĠ": 6973,
      "AD": 6974,
      "KK": 6975,
      "Mex": 6976,
      "appel": 6977,
      "Sel": 6978,
      "a).": 6979,
      "gwamnanĠ": 6980,
      "zoteĠ": 6981,
      "ĠáīĦ": 6982,
      "áĪ¨áĪŃ": 6983,
      "aĠmakarantarĠ": 6984,
      "Ġáī°áĮ½": 6985,
      "Ġáĭ¨áĪļáĪ°": 6986,
      "iĠkwaĠm": 6987,
      "iĠkatikaĠm": 6988,
      "ĠáĮįáĭµ": 6989,
      "ambaoĠ": 6990,
      "Alb": 6991,
      "ĠáīĢáĬķĠ": 6992,
      "ĠáĬłáĪĪáĭį": 6993,
      "lá»įÌģwá»įÌģ": 6994,
      "EneoĠ": 6995,
      "ĠáĭķáĪĪáīµĠáīłáĬĭáĪĭĠáĬ¥áĪµáĬ¨ĠáĭĵáĪĺáī±ĠáĪĺáĮ¨áĪ¨áĪ»ĠáĭµáĪ¨áĪµ": 6996,
      "waÉĹan": 6997,
      "Fabr": 6998,
      "Mand": 6999,
      "TĠ": 7000,
      "150": 7001,
      "onyĠ": 7002,
      "SaintĠ": 7003,
      "lÃ¹Ġ": 7004,
      "oÃ²rÃ¹nĠ": 7005,
      "pre": 7006,
      "aĠkatiĠyaĠ": 7007,
      "alich": 7008,
      "ÃĮá¹£": 7009,
      "1997": 7010,
      "orÃŃláº¹ÌĢ-Ã¨dÃ¨": 7011,
      "mÃ©jÃ¬": 7012,
      "aguziĠwaĠ": 7013,
      "B.": 7014,
      "Ġáĭ¨áī£": 7015,
      "áĭ«áĭĺ": 7016,
      "ĠáĬĲáĮ¥": 7017,
      "áĬŃáĬķ": 7018,
      "ĠáĪįáĭ°áīµ": 7019,
      "ĠáĬłáĪįáī°": 7020,
      "Que": 7021,
      "ĠáĭŃáī»áĪĭáĪįáį¢": 7022,
      "ĠAc": 7023,
      "Ter": 7024,
      "adam": 7025,
      "Mit": 7026,
      "etsĠ": 7027,
      "dro": 7028,
      "okanĠ": 7029,
      "akeĠkir": 7030,
      "aniĠnaĠ": 7031,
      "ÃłwÃ³Ġ": 7032,
      "Ãłká»įÌģlÃ©Ġráº¹ÌĢĠ": 7033,
      "JuniĠ-Ġ": 7034,
      "iakaĠmirefu": 7035,
      "abakiĠsikuĠ": 7036,
      "taĠm": 7037,
      "idarĠ": 7038,
      "Ġáĭ¨áīĨ": 7039,
      "áĪĿĠáĪĺ": 7040,
      "áĪĺáĮ¥": 7041,
      "ĠáĬłáĭ³": 7042,
      "áĭµáĪ¨": 7043,
      "ĠáĬ¨áĪĽ": 7044,
      "áĪªáīĥ": 7045,
      "ĠáĭĪáĮ¥": 7046,
      "áī¸áĭĭáĪįáį¢": 7047,
      "ĠáĪ°áĬĲ": 7048,
      "Ġ12": 7049,
      "áĭĵáĬķ": 7050,
      "ilĠestĠ": 7051,
      "ĠáīĨáĭŃ": 7052,
      "Ġáĭ¨áĪļáĮĪáĬĿáīłáīµ": 7053,
      "áĬķáĮīáĪ¥": 7054,
      "diffÃ©r": 7055,
      "ĠáĮĮáī³": 7056,
      "Kin": 7057,
      "Mov": 7058,
      "souv": 7059,
      "illeĠ": 7060,
      "etĠl'": 7061,
      "ĠáĬķáĮīáĪłĠáĬĲáĮĪ": 7062,
      "bÃłĠ": 7063,
      "bisaĠgaĠ": 7064,
      ",ĠmwandishiĠ": 7065,
      "nÃ¡ÃłĠniĠ": 7066,
      "aimakinĠ": 7067,
      "aribuĠ": 7068,
      "uisheĠ": 7069,
      "Roma,Ġhuadhim": 7070,
      "ĠkatikaĠmiakaĠmirefu": 7071,
      "wakifuataĠmapokeoĠyaĠ": 7072,
      "wakifuataĠmapokeoĠyaĠRoma,Ġhuadhim": 7073,
      "MariaĠ": 7074,
      "56": 7075,
      "anal": 7076,
      "áĪĪáīĢ": 7077,
      "Ġáį©": 7078,
      "Ġáī°áĬŃáĪį": 7079,
      "áĪªáĬ®áī½": 7080,
      "Ġáĭ«áĪ³": 7081,
      "áī³áĭĪáīĢ": 7082,
      "áĬ¨áĭļáĪħĠáĭķáĪĪáīµĠáīłáĬĭáĪĭĠáĬ¥áĪµáĬ¨ĠáĭĵáĪĺáī±ĠáĪĺáĮ¨áĪ¨áĪ»ĠáĭµáĪ¨áĪµ": 7083,
      "áĬĵĠáĪĺáĭĭ": 7084,
      "Air": 7085,
      "EastĠ": 7086,
      "BahariĠyaĠ": 7087,
      "Kol": 7088,
      "aĠdagaĠ": 7089,
      "202": 7090,
      "iziĠ": 7091,
      "wendaĠ": 7092,
      "reĠdeĠ": 7093,
      "ellementĠ": 7094,
      "JamiâĢĻarĠ": 7095,
      "Guine": 7096,
      "NÃŃgbÃł": 7097,
      "zinabakiĠsikuĠ": 7098,
      "kundiĠ": 7099,
      "ĠMachiĠ-Ġ": 7100,
      "WakristoĠwengi,Ġ": 7101,
      "uisheĠzinabakiĠsikuĠ": 7102,
      "WakristoĠwengi,ĠwakifuataĠmapokeoĠyaĠRoma,Ġhuadhim": 7103,
      "Ev": 7104,
      "rop": 7105,
      "Yes": 7106,
      "lov": 7107,
      "ĠáīłáĬĲ": 7108,
      "ĠáĬ¥áĪ±": 7109,
      "áĪĽáĭįáĭ«áĬķ": 7110,
      "ĠáįĮ": 7111,
      "áīħáĬĵ": 7112,
      "áī¸áĭī": 7113,
      "ĠáĪ²áĪį": 7114,
      "own": 7115,
      "áįĬáĭ«": 7116,
      "ĠáĪĬáīĢ": 7117,
      "ĠáĬłáĪĺáī³áīµ": 7118,
      "Oh": 7119,
      "watum": 7120,
      "yawan": 7121,
      "ablaĠyaĠ": 7122,
      "Bon": 7123,
      "\"M": 7124,
      "iel": 7125,
      "2019,Ġ": 7126,
      "ĠáīłáĪĢ": 7127,
      "áĬ¨áĬĲ": 7128,
      "wann": 7129,
      "áĬ«áĪĦ": 7130,
      "ipÃ²Ġ": 7131,
      "ĠáĮĪáĭ¥": 7132,
      "uhim": 7133,
      "tarihinĠ": 7134,
      "ĠáĪĺáĬķáĮįáĪ¥áī³áīµ": 7135,
      "áĭŀáī½": 7136,
      "jeshiĠ": 7137,
      "kuduĠmasoĠ": 7138,
      "onyesh": 7139,
      "pakaĠuisheĠzinabakiĠsikuĠ": 7140,
      "DarĠesĠ": 7141,
      "Fabrair": 7142,
      "Philip": 7143,
      "BĠ": 7144,
      "insĠ": 7145,
      "2007Ġ": 7146,
      "anyik": 7147,
      "KingĠ": 7148,
      "zoĠ": 7149,
      "âĢĵĠ2": 7150,
      "ombeĠ": 7151,
      "tionn": 7152,
      "Trans": 7153,
      "Å«": 7154,
      "ajeĠ": 7155,
      "undum": 7156,
      "Ġá¹£iá¹£áº¹ÌģĠ": 7157,
      "ÃĵĠjáº¹ÌģĠ": 7158,
      "ĠBKĠ(BaadaĠyaĠKristo).ĠMatukioĠ": 7159,
      "ArewacinĠ": 7160,
      "dhidiĠyaĠ": 7161,
      "AnĠginaĠbirninĠ": 7162,
      "atab": 7163,
      "áĭµáĪį": 7164,
      "áĪ³áĪįáį¢": 7165,
      "áĬĴáĪįáĬŃ": 7166,
      "Ġáįªáį»áį": 7167,
      "viv": 7168,
      "Sing": 7169,
      "alsĠ": 7170,
      "afr": 7171,
      "ant,Ġ": 7172,
      "whenĠ": 7173,
      "Ã²s": 7174,
      "awarĠdaĠ": 7175,
      "uĠkatikaĠ": 7176,
      "ráº¹ÌĢ,Ġ": 7177,
      "AlimfuataĠ": 7178,
      "AwardĠ": 7179,
      "mor": 7180,
      "pal": 7181,
      "ĠáĬĥ": 7182,
      "áĪµáĪĿ": 7183,
      "ĠáĬ¥áĬ©áĪį": 7184,
      "Ġáĭ¨áĪģ": 7185,
      "quat": 7186,
      "áĭ¨áĪļ": 7187,
      "ĠáĪĨáĬĳ": 7188,
      "áĭ°áĪŃáĮį": 7189,
      "ĠáīłáĬłáĪģáĬĳ": 7190,
      "áįĸáĪĬ": 7191,
      "ambr": 7192,
      "exist": 7193,
      "Scien": 7194,
      "ĠandĠ": 7195,
      "rubut": 7196,
      "LughaĠzaĠ": 7197,
      "JanuariĠ-Ġ": 7198,
      "halarciĠ": 7199,
      "ectiv": 7200,
      "ion.": 7201,
      "áįı": 7202,
      "ĠáīĤ": 7203,
      "áĪĪáĭĭáĪįáį¢": 7204,
      "áĭ°áĮĪ": 7205,
      "identi": 7206,
      "áįĪáĪ¨": 7207,
      "ĠáĮĪáī¥áĪ¨": 7208,
      "Ros": 7209,
      "cheoĠ": 7210,
      "reprÃ©sent": 7211,
      "AkwaiĠ": 7212,
      "rayuw": 7213,
      "NovembaĠ": 7214,
      "BirninĠ": 7215,
      "Ãłká»įÌģká»įÌģ": 7216,
      "nasaraĠ": 7217,
      "cinĠkofinĠ": 7218,
      "Luc": 7219,
      "Mk": 7220,
      "68": 7221,
      "Cali": 7222,
      "OL": 7223,
      "CE": 7224,
      "IleĠ": 7225,
      "amaĠk": 7226,
      "ĠáīłáĪŀ": 7227,
      "ĠáĬ¥áĬķáīħáĪµáīĥáĪ´": 7228,
      "prob": 7229,
      "Ġáī¥áĪĶáĪŃ": 7230,
      "000": 7231,
      "ĠáĬŃáĪĪáī¥": 7232,
      "Ġ14": 7233,
      "ĠáĪĬáĭ«": 7234,
      "ium": 7235,
      "ones": 7236,
      "Ã¬bÃ¡": 7237,
      "ipindiĠ": 7238,
      "rÃŃnĠ": 7239,
      "wallonĠkaf": 7240,
      "maĠÅĦĠ": 7241,
      "daban-": 7242,
      "fond": 7243,
      "tic": 7244,
      "dec": 7245,
      "ikuĠ": 7246,
      "Sec": 7247,
      "pÃ¡Ġ": 7248,
      "influ": 7249,
      "Shek": 7250,
      "Islam": 7251,
      "PopeĠ": 7252,
      "iev": 7253,
      "iograf": 7254,
      "áĭ·": 7255,
      "á»įdÃºnĠ": 7256,
      "áĬ¨áĬĵ": 7257,
      "áĮĭáīµ": 7258,
      "áĭ²áĪ±": 7259,
      "áĪ©áĬķ": 7260,
      "ongoz": 7261,
      "Ġáī¤áī¶áī½": 7262,
      "aĠyakeĠ": 7263,
      "NÃŃĠá»įdÃºnĠ": 7264,
      "wengineĠ": 7265,
      "Ġáī°áĬ¨áī³áĭŃ": 7266,
      "al'ad": 7267,
      "ĠSeptemberĠ": 7268,
      "áĬ¨áī°áĪĽáĭį": 7269,
      "ĠáĪĿáĪįáĬŃáīµ": 7270,
      "FebruariĠ-Ġ": 7271,
      "betweenĠ": 7272,
      "MarchĠ": 7273,
      "oĠs": 7274,
      "as.": 7275,
      "ollow": 7276,
      "Ø©": 7277,
      "ahiyarĠ": 7278,
      "aliwaĠnaĠ": 7279,
      "biasharaĠ": 7280,
      "Ġáĭ¨áĪĪáĭį": 7281,
      "áĪĿáī¥": 7282,
      "eneĠ": 7283,
      "áĪµáĬķ": 7284,
      "ĠáĬ¨áĪĨáĬĲ": 7285,
      "áĪ³áĪ°": 7286,
      "áĮĬáĭ«": 7287,
      "tainĠ": 7288,
      "ĠáīµáĬķáĪ½": 7289,
      "ĠáĪºáĪħ": 7290,
      "Dut": 7291,
      "ekaĠ": 7292,
      "Ile-": 7293,
      "Laf": 7294,
      "s)Ġ": 7295,
      "wamb": 7296,
      "alamaĠ": 7297,
      "akokoĠ": 7298,
      "unic": 7299,
      "gbÃ¡Ġ": 7300,
      "kasashenĠ": 7301,
      "toĠjeĠ": 7302,
      "wá»įn.": 7303,
      "babbarĠ": 7304,
      "kumbukumbuĠzaĠ": 7305,
      "ĠseĠ": 7306,
      "FirstĠ": 7307,
      "Nk": 7308,
      "PP": 7309,
      "áĬķáĮĢ": 7310,
      "ĠáĭŃáīĨ": 7311,
      "ĠáĪĪáĪļ": 7312,
      "ĠáīĥáĪĭáīµ": 7313,
      "ĠáĭĺáĪĺáĬĲĠáĪĽáī´áĭİáĪµ": 7314,
      "uth": 7315,
      "appl": 7316,
      "rÃ©s": 7317,
      "villeĠ": 7318,
      "::": 7319,
      "pyaĠ": 7320,
      "Ã¡Ã¡": 7321,
      "acikinĠ": 7322,
      "akaĠdaĠ": 7323,
      ",ĠmwigizajiĠwaĠfilamuĠ": 7324,
      "ayyuk": 7325,
      "insaĠ": 7326,
      "áº¹lif": 7327,
      "ahaifiy": 7328,
      "kumbukumbuĠzaĠwatakatifuĠ": 7329,
      "sanĠ": 7330,
      "57": 7331,
      "D-": 7332,
      "fonc": 7333,
      "som": 7334,
      "roĠ": 7335,
      "áī°áīµ": 7336,
      "áĭŃáĪį": 7337,
      "awa": 7338,
      "ĠáĪµáĬķ": 7339,
      "áįĵáĬķ": 7340,
      "ĠáĮĢáĪŃáĪĺáĬķ": 7341,
      "organis": 7342,
      "Ġáī°áĪĺáĪ³áĪ³áĭŃ": 7343,
      "ĠáĪĺáĪ°áĪ¨áīµ": 7344,
      "personn": 7345,
      "áĮ¥áĪ¨ĠáĬĲáĮĪáĪ®áī½": 7346,
      "áĬ®áĬĸáĪļ": 7347,
      "31": 7348,
      "BÃŃĠ": 7349,
      "Kog": 7350,
      "piaĠm": 7351,
      "zoĠyaĠ": 7352,
      "Ã©ti": 7353,
      "asayans": 7354,
      "iĠkanĠ": 7355,
      "odiĠ": 7356,
      "atikaĠkar": 7357,
      "attaf": 7358,
      "walip": 7359,
      "nchiĠzaĠ": 7360,
      "KatsinaĠ": 7361,
      "DarĠesĠSala": 7362,
      "178": 7363,
      "Ash": 7364,
      "ball": 7365,
      "kuch": 7366,
      ")áį¢": 7367,
      "ine.": 7368,
      "Ġáĭ¨áĮ¥": 7369,
      "áĪįáĮĭ": 7370,
      "ĠáīłáĭĪ": 7371,
      "Ġáī°áĮ«": 7372,
      "Ġáĭ¨áĪļáĪ°áĪ«": 7373,
      "ĠáīłáĪĺáī£áĪį": 7374,
      "áįĸáĪŃáīµ": 7375,
      "ĠáĬłáīĢáįį": 7376,
      "ĠáĮįáĬķáĬĻáĬĲáīµ": 7377,
      "dÃºgb": 7378,
      "irÃŃá¹£": 7379,
      "prod": 7380,
      "aĠnaĠm": 7381,
      "sÃ¬kÃ²Ġ": 7382,
      "shigaĠ": 7383,
      "ĠkatikaĠmiakaĠmirefu).ĠM": 7384,
      "A)Ġ": 7385,
      ",ĠmaisĠ": 7386,
      "siteĠ": 7387,
      "amÃ©r": 7388,
      "leĠc": 7389,
      "MarisĠ": 7390,
      "1996": 7391,
      "gÃ¡": 7392,
      "MuhammadĠ": 7393,
      "CN": 7394,
      "Hiv": 7395,
      "puisĠ": 7396,
      "áĮİáī½": 7397,
      "ĠáĬ¥áĪ«áĪ±": 7398,
      "ominaĠ": 7399,
      "ĠáĬ¨áĪ°": 7400,
      "Ġáĭ¨áĬ¡": 7401,
      "ĠáĭĵáĭŃáĬĲáīµ": 7402,
      "ĠáĪĽáĬħ": 7403,
      "ĠáĪįáĪĽ": 7404,
      "áī¦áĪŃ": 7405,
      "Ġáĭ¨áĬłáĭįáĪ®áįĵ": 7406,
      "Ġá»įÌĢpá»įÌĢlá»įpá»įÌĢĠ": 7407,
      "ĠáĮĢáĪĺáĪ¨": 7408,
      "ĠáĬłáĪĿáī£": 7409,
      ".ĠÃĢwá»įnĠÃĮt": 7410,
      "JamhuriĠyaĠ": 7411,
      "ĠáĬŃáįįáĪĭáĮĪáĪŃ": 7412,
      "zan": 7413,
      "ĠG": 7414,
      "Champ": 7415,
      "hul": 7416,
      "Do": 7417,
      "Jac": 7418,
      "atak": 7419,
      "apt": 7420,
      "ibuĠ": 7421,
      "wuĠ": 7422,
      "itanĠ": 7423,
      "AT": 7424,
      "Bauch": 7425,
      "kÃ¨Ġ": 7426,
      "pwan": 7427,
      "owÃ³Ġ": 7428,
      "ÃŃlÃ©Ġ": 7429,
      "ráº¹ÌĢĠnÃŃĠ": 7430,
      "uĠyaĠm": 7431,
      "ItokasiĠÃłwá»įnĠá»įjá»įÌģÃ¬bÃŃĠnÃŃĠ": 7432,
      "wÃ¡yÃ©Ġ": 7433,
      "ijobaĠib": 7434,
      "agul": 7435,
      "ĠáįĴ": 7436,
      "ĠáĪµáĭ«áĪľ": 7437,
      "¢áīµáĭ®áĮµáĭ«áĬķ": 7438,
      "----": 7439,
      "ĠáĪĺáĪįáĬ©": 7440,
      "ĠáĪĽáĪŃáīĨáĪµĠáĭ°áĮįáĪŀ": 7441,
      "Ju": 7442,
      "oinsĠ": 7443,
      "Sup": 7444,
      "abor": 7445,
      "LeoĠ": 7446,
      "ana,Ġ": 7447,
      "1990": 7448,
      "antĠlaĠ": 7449,
      "ienn": 7450,
      "2)": 7451,
      "kÃ¬Ġ": 7452,
      "yaraĠ": 7453,
      "ÃłÃ¬sÃłnĠ": 7454,
      "asiliĠyaĠ": 7455,
      "Ã²:Ġ": 7456,
      "ts,Ġ": 7457,
      "haribiĠ": 7458,
      "Keny": 7459,
      "DesembaĠ-Ġ": 7460,
      "LakiniĠ": 7461,
      "BestĠ": 7462,
      "gÃ©": 7463,
      "ini,Ġ": 7464,
      "igneĠ": 7465,
      "ever": 7466,
      "ĠáĮĦ": 7467,
      "áī½áĪī": 7468,
      "áĪĭáĪĭ": 7469,
      "ĠáĪĿáĪħ": 7470,
      "áĭ³áĪª": 7471,
      "áĭ¨áĪ©": 7472,
      "Ġáĭ«áĪĭáī¸áĭį": 7473,
      "Ġáĭ¨áī°áī£": 7474,
      "áī¦áīµ": 7475,
      "áĪµáī°áĪŃ": 7476,
      "áĪįáĪµáįįáĬĵ": 7477,
      "FIFAĠ": 7478,
      "Ġáĭ¨áĭĵáĪĺáī±": 7479,
      "amer": 7480,
      "ifi": 7481,
      "hiĠ": 7482,
      "afiĠk": 7483,
      "ĠAm": 7484,
      "Alit": 7485,
      "ilÃ©-iá¹£áº¹ÌģĠ": 7486,
      "bincik": 7487,
      "DolaĠlaĠRom": 7488,
      "WakristoĠwengi,ĠwakifuataĠmapokeoĠyaĠRoma,ĠhuadhimishaĠ": 7489,
      "noĠ": 7490,
      "Ath": 7491,
      "tain": 7492,
      "ĠthisĠ": 7493,
      ".ĠD": 7494,
      "idd": 7495,
      "UgandaĠ": 7496,
      "áĪŃáī³": 7497,
      "áĬĲáĬĽ": 7498,
      "igab": 7499,
      "ĠáĮ£áĪį": 7500,
      "ĠáĪĥáĭŃáĪĽáĬĸáīµ": 7501,
      "Ø³": 7502,
      "age,Ġ": 7503,
      "Ãłn,Ġ": 7504,
      "Gáº¹ÌĢáº¹Ìģ": 7505,
      "kÃł.": 7506,
      "yÃ¨Ġ": 7507,
      "arĠtaĠ": 7508,
      "gbáº¹Ìģ": 7509,
      "duni": 7510,
      "daĠdamaĠ": 7511,
      "Ã¬kÃ¬": 7512,
      "rÃ©gionĠ": 7513,
      "Res": 7514,
      "Sim": 7515,
      "bel": 7516,
      "htm": 7517,
      "Bas": 7518,
      "How": 7519,
      "ra'": 7520,
      "áĬķáĮ»": 7521,
      "Ġáīłáĭļáĭ«": 7522,
      "áĪĪáī±": 7523,
      "áīłáī³áĪįáį¢": 7524,
      "Ġáī°áĮĪ": 7525,
      "Ġáī°áĭ°áĪŃ": 7526,
      "ingĠs": 7527,
      "Alh": 7528,
      "ĠSt": 7529,
      "áĬłáĪģ": 7530,
      "ĠáĬłáĪĪáį¢": 7531,
      "parĠlesĠ": 7532,
      "ĠáĬłáĪ«áīµ": 7533,
      "áĪªáī³áĬķáĭ«": 7534,
      "mafiĠ": 7535,
      "edik": 7536,
      "ÅĦĠjáº¹ÌģĠ": 7537,
      "KiingerezaĠ": 7538,
      "ic,Ġ": 7539,
      "Greg": 7540,
      "ĠdonĠ": 7541,
      "atiqu": 7542,
      "Sheh": 7543,
      "Ly": 7544,
      "rÃłnĠ": 7545,
      "wÃŃĠ": 7546,
      "itÃ©sĠ": 7547,
      "ĠáĮ¤": 7548,
      "ĠáĬłáĭĭ": 7549,
      "áĭµáīħ": 7550,
      "Ġáĭ°áī¥": 7551,
      "huÉĹ": 7552,
      "áĮĢáīµ": 7553,
      "áīĭáīĭ": 7554,
      "IlÃ©Ġ": 7555,
      "NÃłÃ¬jÃŃrÃŃÃł,Ġ": 7556,
      "ĠáĬłáī£áĪĭáīµ": 7557,
      "ĠáĭľáĬĵĠáĪĺáĭĭ": 7558,
      "Ġáĭ¨áĪħáĭĿáī¥": 7559,
      "áįĲáī¥áĪĬáĬŃ": 7560,
      "ĠApriliĠ-Ġ": 7561,
      "Ġáĭ©áĬĴáī¨áĪŃáĪ²áī²": 7562,
      "ĠáĪ³áĭŃáĬķáĪ³áĭĬĠáĮ¸áī£áĭŃ": 7563,
      "toĠgbaĠEbunĠNobelĠ": 7564,
      "Kong": 7565,
      "def": 7566,
      "Maz": 7567,
      "univers": 7568,
      "ing.": 7569,
      "Hind": 7570,
      "onlyĠ": 7571,
      "angĠ": 7572,
      "ookĠ": 7573,
      "enaĠ": 7574,
      "177": 7575,
      "ĠSchool": 7576,
      "qĠ": 7577,
      "sasaĠ": 7578,
      "ty": 7579,
      ".ĠManazarta": 7580,
      "aryĠSchool": 7581,
      "wadandaĠ": 7582,
      "qu'ilĠ": 7583,
      "|ĠRD2-": 7584,
      "WilayaĠyaĠ": 7585,
      "áĬĵáĮĪáĪŃ": 7586,
      "elec": 7587,
      "ĠáĪĿáĭķáĪ«": 7588,
      "ingtonĠ": 7589,
      "áĭĿáĪĿ": 7590,
      "ĠáīĢáĭŃ": 7591,
      "1993": 7592,
      "parĠleĠ": 7593,
      "Ġáĭ¨áĬĲáĮĪ": 7594,
      "languageĠ": 7595,
      "áĬĲáĮĪáĪŃĠáĮįáĬķ": 7596,
      "Ġáĭ¨áĪĻáĭļáīĥ": 7597,
      "Wag": 7598,
      "Flor": 7599,
      "eo": 7600,
      "suiv": 7601,
      "uiĠ": 7602,
      "ukeĠ": 7603,
      "philos": 7604,
      "inrinĠ": 7605,
      "ictĠ": 7606,
      "AliĠ": 7607,
      "tso": 7608,
      "anĠsiyas": 7609,
      "wurinĠ": 7610,
      "rikic": 7611,
      "MusulunciĠ": 7612,
      "NchiĠzaĠ": 7613,
      "kulaĠdaĠ": 7614,
      "pÃłtÃłkÃ¬Ġ": 7615,
      "wanĠ": 7616,
      "emistr": 7617,
      "ainesĠ": 7618,
      "Sul": 7619,
      "ale,Ġ": 7620,
      "áĪĪáīłáīµ": 7621,
      "áī¥áĬĽ": 7622,
      "áĮįáĪĽáĭĬ": 7623,
      "áĮĭáĪ«": 7624,
      "áĮĭáĮĪáĪŃ": 7625,
      "ĠáĪ°áĪŃ": 7626,
      "áĬķáĮįáĪ¥áīµ": 7627,
      "ĠáĬ¥áĬķáĭ°ĠáĬĲáīłáĪŃ": 7628,
      "ĠáĬ¥áĪµáĬ«": 7629,
      "Ãªt": 7630,
      "caract": 7631,
      "áįĪáĪĭáĮĬ": 7632,
      "rÃ¨Ġ": 7633,
      "rasm": 7634,
      "AL": 7635,
      "queĠlesĠ": 7636,
      "aisonĠ": 7637,
      "BBCĠ": 7638,
      "Hel": 7639,
      "wá»įÌĢĠ": 7640,
      ",ĠmshindiĠwaĠTuzoĠyaĠNobelĠyaĠFizikiaĠmwakaĠwaĠ": 7641,
      "ItaĠceĠ": 7642,
      "knownĠ": 7643,
      "jáº¹sÃ¡raĠ": 7644,
      "dem": 7645,
      "Progr": 7646,
      "1=": 7647,
      "erĠlesĠ": 7648,
      "ent,Ġ": 7649,
      "antuĠ": 7650,
      "aish": 7651,
      "ĠáĪĺáĬ®": 7652,
      "áĬŃáĪĿáĬĵ": 7653,
      "áĭĿáī¡": 7654,
      "ĠáĭĭáĮĭ": 7655,
      "ĠáĪĬáīĥáĭįáĬķ": 7656,
      "Ġáī°áĪĺáĪį": 7657,
      "CollegeĠ": 7658,
      "ĠáĪģáĪĪáī°áĬĽ": 7659,
      "IV": 7660,
      "atureĠ": 7661,
      "kwaĠm": 7662,
      "iyaĠnaĠ": 7663,
      "ÃĪyÃŃĠ": 7664,
      "lokacinĠdaĠ": 7665,
      "kubwaĠyaĠ": 7666,
      "falmeĠwaĠ": 7667,
      "ne.Ġ": 7668,
      "Mur": 7669,
      "Nic": 7670,
      "itaĠm": 7671,
      "ationĠdesĠ": 7672,
      "BÃ¡": 7673,
      "imbab": 7674,
      "Maur": 7675,
      "áĮįáĪĪ": 7676,
      "ĠáīłáĪ¥": 7677,
      "áĪµáīµáĪª": 7678,
      "áĮ»áįį": 7679,
      "áĭ°áī¥áĪ¨": 7680,
      "ĠáĪļáĬĴáĪµáīµáĪŃ": 7681,
      "Rec": 7682,
      "nÃł": 7683,
      "amoĠ": 7684,
      "kush": 7685,
      "utamad": 7686,
      "ibnĠ": 7687,
      "nÃŃĠÃ¬pÃŃnláº¹ÌĢĠ": 7688,
      "áī¢áĭŃ": 7689,
      "tarih": 7690,
      "randeĠ": 7691,
      "Fasah": 7692,
      "mÃ¬ÃŃrÃłnĠ": 7693,
      "HanyoyinĠ": 7694,
      "Ms": 7695,
      "barĠ": 7696,
      "eas": 7697,
      "inĠK": 7698,
      "opĠ": 7699,
      "Chil": 7700,
      "Publ": 7701,
      "Ġ1.": 7702,
      "jej": 7703,
      "itionsĠ": 7704,
      "ward": 7705,
      "umi": 7706,
      "1970": 7707,
      "LouisĠ": 7708,
      "kaw": 7709,
      "rá»į": 7710,
      "Ġáĭ¨áĪĭ": 7711,
      "áĭ«áīĦ": 7712,
      "áĬĲáĪ£": 7713,
      "áĭµáĪľ": 7714,
      "áį£ĠáĪĪ": 7715,
      "ĠáĭĪáĮ£": 7716,
      "ÃĮlÃºĠ": 7717,
      "ĠáĬŃáĪŃ": 7718,
      "ĠáĮ¥áīłáī¥": 7719,
      "áĪĲáĪ´": 7720,
      "ĠáĮ¨áĪĿáĪ®": 7721,
      "áĭ°áĪ¨áĮĪáĭį": 7722,
      "Burtan": 7723,
      "NchiĠ": 7724,
      "yammacinĠ": 7725,
      "fimĠdinĠ": 7726,
      "centuryĠ": 7727,
      "RayayyunĠM": 7728,
      "aĠkungiyarĠ": 7729,
      "beg": 7730,
      "roy": 7731,
      "UnionĠ": 7732,
      "cas": 7733,
      "uni": 7734,
      "Ram": 7735,
      "sens": 7736,
      "ualĠ": 7737,
      "esĠandĠ": 7738,
      "endel": 7739,
      "ritĠ": 7740,
      "oiĠ": 7741,
      "lead": 7742,
      "issionĠ": 7743,
      "MuhammaduĠ": 7744,
      "ãĤ": 7745,
      "aĠL": 7746,
      "a,ĠdaĠ": 7747,
      "1994": 7748,
      "ukuu": 7749,
      "bienĠ": 7750,
      "NovembaĠ-Ġ": 7751,
      "BabbanĠbirninĠ": 7752,
      "Î¹": 7753,
      "áĪĽáī¸áĭį": 7754,
      "áįĬáĭİáī½": 7755,
      "ĠáĪ¥áĮĭ": 7756,
      "ĠáīµáĪŃáĮīáĪĿ": 7757,
      "team": 7758,
      "ĠáįĪáĪ¨áĬķáĪ³áĭŃ": 7759,
      "áīħáĭ«áĬĸáĪµ": 7760,
      "Ġáĭ¨áĪļáĮĪáĬĿáīłáīµĠáĪĺáĪįáĬŃáĭĵĠáĪĿáĭµáĪŃ": 7761,
      "nonĠ": 7762,
      "ram": 7763,
      "55": 7764,
      "bilaĠ": 7765,
      "mot": 7766,
      "ariĠyaĠ": 7767,
      "atsĠ": 7768,
      "asaliĠ": 7769,
      "chaĠm": 7770,
      "gbá»įÌģĠ": 7771,
      "olanz": 7772,
      "ilimaĠyaĠ": 7773,
      "Ã²rÃ²Ġ": 7774,
      "lughaĠzaĠ": 7775,
      "falmeĠm": 7776,
      "elopmentĠ": 7777,
      "ĠkoĠ": 7778,
      "ªáĭ«": 7779,
      "ĠâĢ¹": 7780,
      "Ġáī²": 7781,
      "Ġáīłáĭ°áī¡áī¥": 7782,
      "áī°áĬĵ": 7783,
      "ĠáĬłáĭĺ": 7784,
      "ĠáĬĲáįĥ": 7785,
      "Ġáĭ¨áĪĺáĮ£": 7786,
      "eĠsurĠ": 7787,
      "ĠáĪļáĬ«áĬ¤áĪį": 7788,
      "nameĠ": 7789,
      "relig": 7790,
      "ĠáĬłáĪµáī°áĭ³áĭ°áĮį": 7791,
      "áīĢáĪĺáĮ«": 7792,
      "AwardsĠ": 7793,
      "ĠáĮłáīħáĪĭáĭŃ": 7794,
      "ĠáĬĽáĭį": 7795,
      "á¹¢": 7796,
      "ge": 7797,
      "shaĠ": 7798,
      "esaĠ": 7799,
      "ceĠquiĠ": 7800,
      "namoĠ": 7801,
      "Tovut": 7802,
      "gomaĠ": 7803,
      "pÃº": 7804,
      "oĠkwenyeĠ": 7805,
      "nigb": 7806,
      "inĠmall": 7807,
      "yaoĠ": 7808,
      "má»įÌĢĠsÃŃĠ": 7809,
      "KiswahiliĠ": 7810,
      "pÃ¨": 7811,
      "ufuĠ": 7812,
      "itÃ©ĠdeĠ": 7813,
      "Zam": 7814,
      "bah": 7815,
      "s.Ġ": 7816,
      "ÑĢ": 7817,
      "olĠ": 7818,
      "Isra": 7819,
      "-áĬ¢": 7820,
      "Zimbab": 7821,
      "áĪ¦": 7822,
      "ĠáĪĺáĪ¬áīµ": 7823,
      "áĪ«áĭįáĭ«áĬķ": 7824,
      "ĠáĪĿáĬĴáĪįáĬŃ": 7825,
      "quel": 7826,
      "ĠáĭĵáĪĭáĪĽ": 7827,
      "áĮĭáĪª": 7828,
      "Ġáĭĺáĭį": 7829,
      "áī¤áī±": 7830,
      "áĪ£áĪªáĭ«": 7831,
      "ĠáĭķáĪĪáī°ĠáĪŀáīµ": 7832,
      "sa": 7833,
      "179": 7834,
      "kejÃ¬Ġ": 7835,
      "maisĠ": 7836,
      "ari,Ġ": 7837,
      "illaĠ": 7838,
      "niĠsikuĠyaĠ": 7839,
      "a,ĠkumaĠ": 7840,
      "aĠkarkashinĠ": 7841,
      "ajiĠm": 7842,
      "Ġá»įÌģ": 7843,
      "ote.": 7844,
      "tÃŃĠaĠ": 7845,
      "waÆĻ": 7846,
      "WakatiĠwaĠ": 7847,
      "Ã³ĠtiĠk": 7848,
      "birniĠne,ĠdaĠkeĠ": 7849,
      "ipinleĠ": 7850,
      "obinĠ": 7851,
      "Christ": 7852,
      "Rash": 7853,
      "ĠAmer": 7854,
      "Egyp": 7855,
      "cre": 7856,
      "pir": 7857,
      "writ": 7858,
      "huoĠ": 7859,
      "áĭ«áĪįáį¢": 7860,
      "áĭ«áĭįáĭ«áĬķ": 7861,
      "ĠáĬłáĬĵ": 7862,
      "áĭ°áĪŃáĪµ": 7863,
      "áĪ«áĪª": 7864,
      "áĬķáĮįáĪµáīµ": 7865,
      "áĬĽáĭįáĪĿ": 7866,
      "ĠáĪĬáĪĨáĬķ": 7867,
      "Ġáĭķáĭį": 7868,
      "ĠáĪľáĭ³": 7869,
      "RichardĠ": 7870,
      "ĠáĭĺáĪĺáĬķĠáĬłáīĨáĮ£áĮłáĪŃĠáĭ¨áĭĵáĪĺáī±": 7871,
      "88": 7872,
      "bid": 7873,
      "já»įÌĢ": 7874,
      "sark": 7875,
      "apá»įÌĢĠ": 7876,
      "Island": 7877,
      "haka,Ġ": 7878,
      "miakaĠ": 7879,
      "daĠsukeĠ": 7880,
      "Argent": 7881,
      "ijobaĠibileĠniĠ": 7882,
      "jejen": 7883,
      "Pers": 7884,
      "ultur": 7885,
      "ovi": 7886,
      "Abdull": 7887,
      "a,ĠM": 7888,
      "áĪĲáĭŃ": 7889,
      "IlĠestĠ": 7890,
      "futĠ": 7891,
      "ionn": 7892,
      "(yaĠ": 7893,
      "ZiwaĠ": 7894,
      "arsaĠ": 7895,
      ",ĠtÃŃĠÃ³Ġ": 7896,
      "áĪĿáīłáĪŃ": 7897,
      "orukoĠ": 7898,
      "áĮįáĬĵ": 7899,
      "ĠáĬ¨áĭĪ": 7900,
      "ĠáĭŃáĪĺ": 7901,
      "ĠáĭĪáĭĺ": 7902,
      "azim": 7903,
      "áīłáĪ®": 7904,
      "áįĪáĮłáĪ¨": 7905,
      "áĬķáĭµáĪµáĬĵ": 7906,
      "oĠyaĠm": 7907,
      "wasaĠ": 7908,
      "ÅĦĠd": 7909,
      "áĮĥáĭĿáĪĽáī½": 7910,
      "ĠáĬ¢áĭ¨áĪ±áĪµ": 7911,
      "farkonĠ": 7912,
      "zamaĠm": 7913,
      "TarihinĠ": 7914,
      "ĠáĬªáĭ³áĬķ": 7915,
      "ĠáĮ¸áĪĲáįĬ": 7916,
      "rasmiĠ": 7917,
      "daĠtakeĠ": 7918,
      "ĠáĬłáĪµáī°áĭ³áĭ°áĪŃ": 7919,
      "yÃ³Ã²": 7920,
      "Ã¡lÃŃ": 7921,
      "jusqu'": 7922,
      "ijobaĠibileĠniĠIpinleĠ": 7923,
      "e\"Ġ": 7924,
      "taw": 7925,
      "ambul": 7926,
      "Ha": 7927,
      "anay": 7928,
      "cell": 7929,
      "aĠD": 7930,
      "antiĠ": 7931,
      "jaĠ": 7932,
      "alij": 7933,
      "Prof": 7934,
      "English": 7935,
      "donn": 7936,
      "pÃ²Ġ": 7937,
      "anaĠm": 7938,
      "usammanĠ": 7939,
      "á»įÌĢrá»įÌĢĠ": 7940,
      "nÃŃĠÃłwá»įnĠ": 7941,
      "eĠdagaĠ": 7942,
      "samoĠ": 7943,
      "ĠSeptembaĠ-Ġ": 7944,
      "franÃ§aisĠ": 7945,
      "ilÃ©Ġáº¹ÌĢká»įÌģĠ": 7946,
      "shirye-shiry": 7947,
      "Gud": 7948,
      "áĬ»": 7949,
      "áīłáĬłáĪ": 7950,
      "YorubaĠ": 7951,
      "Ġáī¥áĭĻĠáĮĬáĭľ": 7952,
      "usesĠ": 7953,
      "a\"": 7954,
      "Ã²n": 7955,
      "Hung": 7956,
      "baraĠ": 7957,
      "unz": 7958,
      "taĠzamaĠ": 7959,
      "ihÃłnĠ": 7960,
      "ChuoĠ": 7961,
      "waoĠ": 7962,
      "bayarĠdaĠ": 7963,
      "Ġá»ĮbaĠ": 7964,
      "adhiĠyaĠ": 7965,
      "baadayeĠ": 7966,
      "Kasuwan": 7967,
      "ÉĹayaĠdagaĠcikinĠ": 7968,
      "ikubwaĠ": 7969,
      "WakristoĠwengi,ĠwakifuataĠmapokeoĠyaĠRoma,ĠhuadhimishaĠkumbukumbuĠzaĠwatakatifuĠ": 7970,
      "positionĠ": 7971,
      "gig": 7972,
      "áĮ©": 7973,
      "áĪŃáį£": 7974,
      "áī£áī±": 7975,
      "áĭ¨áĬłáĪ": 7976,
      "ĠáĬ¢áĬķ": 7977,
      "ĠáĬªáĪİ": 7978,
      "coursĠ": 7979,
      "áĮĬáĭľáĭį": 7980,
      "300": 7981,
      "efuĠ": 7982,
      "Mos": 7983,
      "dinĠ": 7984,
      "nis": 7985,
      "pourĠlaĠ": 7986,
      "Saint-": 7987,
      "JosephĠ": 7988,
      "and,Ġ": 7989,
      "waĠmwakaĠ": 7990,
      "zamanĠk": 7991,
      "ÃłdÃºgb": 7992,
      "filmĠ": 7993,
      "worl": 7994,
      "met": 7995,
      "inaĠm": 7996,
      "Ã©rÃ©": 7997,
      "ĠáĬ¦áĪŃ": 7998,
      "ĠáĬ¥áĮ½": 7999,
      "áĪ³áĭį": 8000,
      "áĪĬáĭ«áĬķ": 8001,
      "áĭįáĬķĠáĭ¨": 8002,
      "ĠáĪ²áĪĨáĬķĠáīł": 8003,
      "ĠáĪŃáĭķ": 8004,
      "ĠáĬłáĪĽáĬ«": 8005,
      "ĠáĬĹáĪª": 8006,
      "Ġáīłáī°áĪĪáĭŃáĪĿ": 8007,
      "haliĠ": 8008,
      "kim": 8009,
      "onimoĠ": 8010,
      "taĠfaraĠ": 8011,
      "off": 8012,
      "owÃ³": 8013,
      "ShiĠneĠ": 8014,
      "uhimuĠ": 8015,
      "taronĠ": 8016,
      "walit": 8017,
      "tÃŃĠwá»įÌģnĠbÃŃĠ": 8018,
      "mÃ©jÃ¬Ġ": 8019,
      "nau'": 8020,
      "shairiĠ": 8021,
      "rÃ¨": 8022,
      "Sur": 8023,
      "sil": 8024,
      "ata,Ġ": 8025,
      "erĠt": 8026,
      "eteĠ": 8027,
      "ItaliaĠ": 8028,
      "pÃ©ri": 8029,
      "erm": 8030,
      "ilich": 8031,
      "ĠáĬłáī¡": 8032,
      "áįįáĪ¬": 8033,
      "ĠáĪĪáĭĪ": 8034,
      "áĮ£áĪª": 8035,
      "áĬ¥áĪµ": 8036,
      "ĠáĪĻáĭļáīĥ": 8037,
      "ĠáĭĺáĪĺáĬĲĠáĪĽáĪŃáīĨáĪµĠáĭ°áĮįáĪŀ": 8038,
      "âĢºâĢº": 8039,
      "ĠáĬłáĮĪáĪįáĮįáĪİáīµ": 8040,
      "ĠáįĪáĪŃáĭĸáĬķ": 8041,
      "Ġ~Ġ": 8042,
      "Zamb": 8043,
      "bÃ³": 8044,
      "bikinĠ": 8045,
      "wÃ³Ġ": 8046,
      "Ġá»įÌĢrá»įÌĢĠ": 8047,
      "ilimiaĠ": 8048,
      "istoriaĠ": 8049,
      "olÃ¹darÃŃĠ": 8050,
      "MasharikiĠ": 8051,
      "sosaiĠ": 8052,
      "Dir": 8053,
      "Po": 8054,
      "owan": 8055,
      "pil": 8056,
      "dÃ©velopp": 8057,
      "aureĠ": 8058,
      "eĠetĠ": 8059,
      "es-": 8060,
      "emaĠ": 8061,
      "PeterĠ": 8062,
      "Jo": 8063,
      "Ox": 8064,
      "ĠáĭŃáĮł": 8065,
      "áĪĮáĪĭ": 8066,
      "Ġáĭ°áĮĭ": 8067,
      "ansu.": 8068,
      "areĠnaĠ": 8069,
      "samanĠ": 8070,
      "uhimm": 8071,
      "ĠáįĬáĪį": 8072,
      "ulkiĠ": 8073,
      "auniyarĠ": 8074,
      "Ġáĭ«áĪĪáĭįáĬķ": 8075,
      "áį²áį±áį»áį¶áį": 8076,
      "áĪĽáĭŃáĪµáĮ¥": 8077,
      "Wá»įÌģnĠbÃŃĠ": 8078,
      "ungeĠlaĠ": 8079,
      "ĠáĪļáĬĴáĪµáī´": 8080,
      "egeĠbiĠ": 8081,
      "pÃŃnláº¹ÌĢĠá»ĮÌĢ": 8082,
      "ĠáĭµáĬķáĮĭáĭŃ": 8083,
      "ĠáĮĪáĬķáĭĺáī¥": 8084,
      "YunifÃ¡sÃŃ": 8085,
      "2015Ġ": 8086,
      "fiel": 8087,
      "ignĠ": 8088,
      "Â»)": 8089,
      "(Ġ": 8090,
      "babaĠ": 8091,
      "Plat": 8092,
      "d.Ġ": 8093,
      "tum": 8094,
      "takenĠ": 8095,
      "EnglishĠ": 8096,
      "cond": 8097,
      "1983": 8098,
      "uchum": 8099,
      "njiaĠ": 8100,
      "awaidaĠ": 8101,
      "lati": 8102,
      "runĠ": 8103,
      "áĪĿáĪĮ": 8104,
      "ĠáĬłáĮł": 8105,
      "áį¡áĬł": 8106,
      "ĠáĬ¥áĬķáĭµ": 8107,
      "round": 8108,
      "áī£áī¢áĪİáĬķ": 8109,
      "Ġáī¡áĭµ": 8110,
      "áĪĺáĪĪáĪµ": 8111,
      "Angel": 8112,
      "ojoĠ": 8113,
      "67": 8114,
      "Sir": 8115,
      "yÃ©": 8116,
      "ara,Ġ": 8117,
      "imboĠ": 8118,
      "MĠ": 8119,
      "aĠT": 8120,
      "2000Ġ": 8121,
      "dÃ¨Ġ": 8122,
      "uelĠ": 8123,
      "avantĠ": 8124,
      ",ĠmshindiĠwaĠTuzoĠyaĠNobelĠyaĠKemiaĠmwakaĠwaĠ": 8125,
      "arÃ¡ĠNÃłÃ¬jÃŃrÃŃÃł": 8126,
      "áº¹ráº¹": 8127,
      "Naijiria.Ġ": 8128,
      "cutarĠ": 8129,
      "NuwambaĠ": 8130,
      "yaĠmwakaĠ(yaĠ": 8131,
      "vij": 8132,
      "e,ĠleĠ": 8133,
      "âĢĵĠ1": 8134,
      "áĪĪáĪ°": 8135,
      "ibut": 8136,
      "áĭĭáĪŃáĭ«": 8137,
      "2002": 8138,
      "overĠ": 8139,
      "Ġ--Ġ": 8140,
      "uka": 8141,
      "ohinĠ": 8142,
      "(N": 8143,
      "Pul": 8144,
      "yĠandĠ": 8145,
      "ijeĠ": 8146,
      "ers.": 8147,
      "KamusiĠ": 8148,
      "RoyalĠ": 8149,
      "Festiv": 8150,
      "lineĠ": 8151,
      "raj": 8152,
      "Ã¹d": 8153,
      "lÃ¡báº¹ÌģĠ": 8154,
      "hakanĠ": 8155,
      "BeninĠ": 8156,
      "ĠMeiĠ-Ġ": 8157,
      "abubuwanĠ": 8158,
      "WarĠ": 8159,
      "emat": 8160,
      "ique.": 8161,
      "ĠAfric": 8162,
      "5,": 8163,
      "áĮĲ": 8164,
      "áĬķáī°": 8165,
      "áĬĲáĪµ": 8166,
      "áĪ«áĭį": 8167,
      "afterĠ": 8168,
      "áĭ³áĭĬ": 8169,
      "áĬ«áĭµ": 8170,
      "ĠáĪµáī´": 8171,
      "Ġáĭ¨áĪļáī£áĪį": 8172,
      "áĭļáĭ«áĬķ": 8173,
      "áĪĻáīµ": 8174,
      "ĠáĬ¥áĬķáĭ°ĠáĪĨáĬĲ": 8175,
      "ĠáĬĲáīłáĪŃáį¡áį¡": 8176,
      "ĠáĪķáĮį": 8177,
      "ĠáīµáĪĿáĪħáĪŃáīµĠáī¤áīµ": 8178,
      "lit": 8179,
      "COVI": 8180,
      "ZanzibarĠ": 8181,
      "Califor": 8182,
      "Ear": 8183,
      "Manazarta": 8184,
      "Zar": 8185,
      "ondeĠ": 8186,
      "AĠshekararĠ201": 8187,
      "ilimiĠ": 8188,
      "ĠSeptembaĠ": 8189,
      "UfaransaĠ": 8190,
      "ÃłĠt": 8191,
      "agoĠ": 8192,
      "ezek": 8193,
      "associ": 8194,
      "ienneĠ": 8195,
      "44": 8196,
      "Ġ[": 8197,
      "amiaĠ": 8198,
      "2001": 8199,
      "athol": 8200,
      "aĠÃ©tÃ©Ġ": 8201,
      "áĪĪáĪį": 8202,
      "ĠáĮĵ": 8203,
      "ĠáĬłáĭ°": 8204,
      "áĪ«áĬĴ": 8205,
      "Ġáīłáī°áĪĪáĭ«áĭ©": 8206,
      "ĠáįįáīħáĪŃ": 8207,
      "ĠáĬłáĪįáįĭ": 8208,
      "ĠáĪħáĮį": 8209,
      "Ġáī¤áī°áĬŃáĪŃáĪµáī²áĭ«áĬķ": 8210,
      "áĪµáĪ«áĬ¤áĪį": 8211,
      "DemocraticĠ": 8212,
      "COVID-": 8213,
      "Cent": 8214,
      "bahar": 8215,
      "dubuĠ": 8216,
      "maz": 8217,
      "sanaĠ": 8218,
      "taif": 8219,
      "talabij": 8220,
      "ĠâĢĺ": 8221,
      "ara.": 8222,
      "áĮłáīµ": 8223,
      "Kiingerez": 8224,
      "Ã³ĠtÃºnĠ": 8225,
      "ĠAmáº¹ÌģrÃŃkÃłĠ": 8226,
      "Amerika.Ġ": 8227,
      "ehemuĠ": 8228,
      "ĠáĬĥáĭŃáĪĪĠáĪ¥áĪĭáĪ´": 8229,
      "ĠkatikaĠmiakaĠmirefu).ĠMpakaĠuisheĠzinabakiĠsikuĠ": 8230,
      "Hab": 8231,
      "many": 8232,
      "oliĠ": 8233,
      "rich": 8234,
      "hist": 8235,
      "numb": 8236,
      "a,ĠnaĠ": 8237,
      "AĠk": 8238,
      "Tai": 8239,
      "TaĠkasanceĠ": 8240,
      "mÃŃrÃłnĠ": 8241,
      "ĠáĬĶ": 8242,
      "áĬķĠáĭĪáĭ°": 8243,
      "Ġáĭ¨áī¥": 8244,
      "Ġáĭ¨áĪĪáĪĿ": 8245,
      "chaĠk": 8246,
      "Ã²p": 8247,
      "ĠáīłáĪ®": 8248,
      "á»įÌĢĠsÃŃĠ": 8249,
      "ubwaĠ": 8250,
      "ambakoĠ": 8251,
      "Ġáĭ°áĪŃ": 8252,
      "induz": 8253,
      "aĠkuanziaĠ": 8254,
      "askaziniĠ": 8255,
      "eshim": 8256,
      "AfirkaĠ": 8257,
      "áį²áį±áį»áį·áį": 8258,
      "zauneĠ": 8259,
      "FilmĠ": 8260,
      "UsmanĠ": 8261,
      "ĠáīĢáĬĵáīµĠáĭŃáīĢáĪ«áĪīáį¢": 8262,
      "bre": 8263,
      "ÏĤ": 8264,
      "ellaĠ": 8265,
      "prÃ©c": 8266,
      "PartyĠ(": 8267,
      "66": 8268,
      "Ġ18": 8269,
      "aĠj": 8270,
      "VitaĠ": 8271,
      "mis": 8272,
      "sau": 8273,
      "tout": 8274,
      "adu": 8275,
      "itali": 8276,
      "erĠandĠ": 8277,
      "Premi": 8278,
      "road": 8279,
      "Hon": 8280,
      "diniĠ": 8281,
      "daid": 8282,
      "káº¹Ìģ": 8283,
      "inĠjirginĠ": 8284,
      "shahar": 8285,
      "gbáº¹ÌģĠ": 8286,
      "olud": 8287,
      "etĠdesĠ": 8288,
      "bÃŃbÃŃĠ": 8289,
      "duniaĠ": 8290,
      "SarkinĠ": 8291,
      "ÃĢwá»įnĠáº¹láº¹ÌģbÃ¹nĠNobelĠnÃŃnÃºĠ": 8292,
      "asayansiĠwaĠ": 8293,
      "Ð½": 8294,
      "áĪµĠ(": 8295,
      "áĬĵĠáĪĪ": 8296,
      "áī¥áĪĭ": 8297,
      "áī¡áĪŃ": 8298,
      "ĠáīĢáĬķĠáĬĲáĭįáį¢": 8299,
      "ĠáĬķáĮīáĪ¥ĠáĬĲáīłáĪŃáį¢": 8300,
      "ĠáįĬáĭ°": 8301,
      "áĮĪáĪĪáĮį": 8302,
      "ĠáĪªáįĲáī¥áĪĬáĬŃ": 8303,
      "ĠáĮłáĪĭ": 8304,
      "Ġáĭ°áĪ´áīµ": 8305,
      "áĬ¥áĬķáĭ²áĪģ": 8306,
      "ĠáĪĿáĬķáĮĬáĭľáĪĿ": 8307,
      "AB": 8308,
      "Dani": 8309,
      "Techn": 8310,
      "mil": 8311,
      "Ïģ": 8312,
      "esternĠ": 8313,
      "1987": 8314,
      ",000.": 8315,
      "ET": 8316,
      "HasaĠ": 8317,
      "cibiyarĠ": 8318,
      "Ã²t": 8319,
      "girmaĠ": 8320,
      "TaĠkumaĠ": 8321,
      "alsaf": 8322,
      "patakiĠ": 8323,
      "aĠbirninĠ": 8324,
      "Bad": 8325,
      "J.": 8326,
      "ton,Ġ": 8327,
      "an'": 8328,
      "shaf": 8329,
      "edĠbyĠtheĠ": 8330,
      "Group": 8331,
      "Bill": 8332,
      "Liv": 8333,
      "uy": 8334,
      "à¥": 8335,
      "áī°áĬŀáī½": 8336,
      "ĠáĭĪáĪ°": 8337,
      "troisĠ": 8338,
      "áĭĿáĬĵ": 8339,
      "ĠáĮįáĪ«": 8340,
      "Ġáĭ¨áī°áīĢ": 8341,
      "ĠáīłáĪĺáĮ¨áĪ¨áĪ»": 8342,
      "queĠlaĠ": 8343,
      "ĠáĬłáĬķáĭ°": 8344,
      "ĠáĬłáĭįáĪ«": 8345,
      "March": 8346,
      "biliĠ": 8347,
      "oweĠ": 8348,
      "ionalĠ": 8349,
      "hÃłnĠ": 8350,
      "mÃ¡Ġ": 8351,
      "rÃ¬": 8352,
      "sansĠ": 8353,
      "arĠdaĠk": 8354,
      "shah": 8355,
      "lá»įÌģgbá»įÌĢnĠ": 8356,
      "TaĠyiĠ": 8357,
      "jinsiĠ": 8358,
      "yaĠmutuĠaĠshekaraĠtaĠ": 8359,
      "aizariĠwaĠ": 8360,
      "pouv": 8361,
      "ingsĠ": 8362,
      "ana": 8363,
      ".ĠA": 8364,
      "ĠAĠ": 8365,
      "GrandĠ": 8366,
      "o'": 8367,
      "áĬķáĬ«": 8368,
      ",ĠK": 8369,
      "áĪĿĠáĭŃ": 8370,
      "ĠáĮįáĪį": 8371,
      "Ġáĭ°áī¥áĪ¨": 8372,
      "ĠáīłáĬĭáĪĭĠáīł": 8373,
      "ĠáīłáĬłáĪľáĪªáĬ«": 8374,
      "Ġáĭ¨áīĢáĭµáĪŀ": 8375,
      "ĠtheirĠ": 8376,
      "Ġáīłáī¥áĭĽáīµĠáĭ¨áĪļáĮĪáĬĿáīłáīµĠáĪĺáĪįáĬŃáĭĵĠáĪĿáĭµáĪŃ": 8377,
      "ĠáĪµáī¥áĪµáī¥": 8378,
      "2=": 8379,
      "GB": 8380,
      "1988": 8381,
      "U.": 8382,
      "awaĠk": 8383,
      "dÃºr": 8384,
      "jÃŃ": 8385,
      "jap": 8386,
      "encor": 8387,
      "oft": 8388,
      "sÃŃwÃ¡jÃºĠ": 8389,
      "waĠnaĠPapaĠ": 8390,
      "shigaĠcikinĠ": 8391,
      "HistoriaĠyaĠ": 8392,
      "WanasayansiĠwaĠ": 8393,
      "kasuwanciĠ": 8394,
      "ambayoĠniĠ": 8395,
      "pend": 8396,
      "u:Ġ": 8397,
      "She": 8398,
      "Est": 8399,
      "amÃ©ric": 8400,
      "a/": 8401,
      "ĠáĮ»": 8402,
      "áĪ¨áįĪ": 8403,
      "adin": 8404,
      "áĮįáĬĿ": 8405,
      "áĪ³áī¸áĭįáĬķ": 8406,
      "ĠáīłáĪ±": 8407,
      "Ġáĭ¨áĪ¶": 8408,
      "ĠáĬĲáĭįĠáį¢": 8409,
      "áīħáĪį": 8410,
      "áĪ®áĪŀ": 8411,
      "áĪ©áĬŃ": 8412,
      "ĠáĬ¥áĬķáĭ°áĬĲáīłáĪŃ": 8413,
      "ĠáĭµáĬķáĮįáĪį": 8414,
      "ĠáĬłáĪµáī°áĭĭ": 8415,
      "ĠáĬ¥áĬķáĪµáĪ³": 8416,
      "dÃ©partementĠ": 8417,
      "ĠáĭĪáĭĺáī°": 8418,
      "buk": 8419,
      "nipaĠ": 8420,
      "Ġá»įlá»įÌģ": 8421,
      "ahud": 8422,
      "tre": 8423,
      "epoĠ": 8424,
      "jáº¹ÌģĠÃ²á¹£Ã¨rÃ©Ġ": 8425,
      "a'sĠ": 8426,
      "Ġáº¹ÌĢyáº¹Ġ": 8427,
      "NÃŃĠá»įjá»įÌģĠk": 8428,
      "Ã¨yÃŃĠtÃŃĠ": 8429,
      "gwamnatiĠ": 8430,
      "hiziĠ": 8431,
      "Victor": 8432,
      "olÃ³á¹£Ã¨lÃºĠ": 8433,
      "lambarĠyaboĠtaĠ": 8434,
      "IN": 8435,
      "una,Ġ": 8436,
      "1920": 8437,
      "ashir": 8438,
      "seed": 8439,
      "surĠleĠ": 8440,
      "MichaelĠ": 8441,
      "rag": 8442,
      "aroĠ": 8443,
      "2014Ġ": 8444,
      "Chur": 8445,
      "link": 8446,
      "fe": 8447,
      "Ã©v": 8448,
      "aĠÆĻar": 8449,
      "áīµáĪµ": 8450,
      "áĪµáī²": 8451,
      "isk": 8452,
      "ĠáĪĺáĮĢáĪĺáĪªáĭ«": 8453,
      "ĠáīłáĪ³": 8454,
      "ĠáĬ¥áĬķáĭ´áīµ": 8455,
      "Ġáĭ«áĭĺ": 8456,
      "Ġáĭ¨áī°áĬĲáĪ³": 8457,
      "jeĠijobaĠibileĠniĠIpinleĠ": 8458,
      "áīĨáī¥": 8459,
      "karatunĠ": 8460,
      "ĠáĮīáĪį": 8461,
      "áĪłáī¥": 8462,
      "ĠáĭŃáĮĪáĪĺ": 8463,
      "ÃĮtum": 8464,
      "bÃłbÃ¡Ġ": 8465,
      "áī£áĪħáĪŃ": 8466,
      "oluiluĠ": 8467,
      "tsohuwarĠ": 8468,
      "Nik": 8469,
      "High": 8470,
      "Me": 8471,
      "UK": 8472,
      "haz": 8473,
      "memb": 8474,
      "aĠmak": 8475,
      "2006Ġ": 8476,
      "ansaĠ": 8477,
      "suit": 8478,
      "aĠmar": 8479,
      "ambal": 8480,
      "Gid": 8481,
      "wikiped": 8482,
      "yÃ¨": 8483,
      "aldĠ": 8484,
      "erĠleĠ": 8485,
      "HispaniaĠ": 8486,
      "aum": 8487,
      "tash": 8488,
      "yaĠzamaĠ": 8489,
      "leyinĠ": 8490,
      "ambapoĠ": 8491,
      "shekarunĠ": 8492,
      "ÉĹinĠ": 8493,
      "haliĠyaĠ": 8494,
      "olÃ³rÃŃĠ": 8495,
      "Oá¹£Ã¹Ġk": 8496,
      "tele.ĠItokasiĠÃĢwá»įnĠ": 8497,
      "TanguĠ": 8498,
      "Hispani": 8499,
      "áĮ®": 8500,
      "Ġáĭ¨áĬŃ": 8501,
      "ĠáĬłáĬŃ": 8502,
      "AfricaĠ": 8503,
      "languesĠ": 8504,
      "ĠáĮ½áĪķáįĪáīµ": 8505,
      "cat": 8506,
      "follow": 8507,
      "wag": 8508,
      "acr": 8509,
      "IbadanĠ": 8510,
      "bis": 8511,
      "civ": 8512,
      "hataĠ": 8513,
      "wÃ³": 8514,
      "cherch": 8515,
      "PĠ": 8516,
      "bit": 8517,
      "sáº¹Ìģ": 8518,
      "áº¹Ìģm": 8519,
      "eurĠdeĠ": 8520,
      "olojiaĠ": 8521,
      "PortĠ": 8522,
      "wiki": 8523,
      "Girl": 8524,
      "IbrahimĠ": 8525,
      "ĠáĪĺáĬĸ": 8526,
      "áĪ«áĪŃ": 8527,
      "áĪĽáĪ¨": 8528,
      "áĮ£áĬķ": 8529,
      "ĠáĭĺáĪĺáī»": 8530,
      "Ġáī¢áĪĨáĬķáĪĿ": 8531,
      "DeltaĠ": 8532,
      "sor": 8533,
      "96": 8534,
      "uataĠ": 8535,
      "2010Ġ": 8536,
      "aĠsunĠ": 8537,
      "400": 8538,
      "MjiĠ": 8539,
      "awaÆĻ": 8540,
      "kanĠtÃŃĠ": 8541,
      "parĠlaĠ": 8542,
      ");Ġ": 8543,
      "kaiĠ": 8544,
      "inv": 8545,
      "2012Ġ": 8546,
      "1995": 8547,
      "crit": 8548,
      "v.": 8549,
      "Ø¹": 8550,
      "áĭ¢": 8551,
      "áĭ°áĪŃáĮī": 8552,
      "áĬĲáĮį": 8553,
      "áĪĽáĪįáį¢": 8554,
      "ĠáĬłáĪ¥": 8555,
      "áĭĪáĮ¡": 8556,
      "áĭķáī¥áĪ«áĭŃáĪµáĮ¥": 8557,
      "ĠáĮ¥áĭ«áīĦ": 8558,
      "Ġáĭ¨áĪĨáĬĲáĭį": 8559,
      "occup": 8560,
      "ĠáĬłáĭµáĪŃáĮİ": 8561,
      "ĠáĪłáĪ«áĭĬáīµ": 8562,
      "áĬ¨áįįáī°áĬĽ": 8563,
      "Vit": 8564,
      "vu": 8565,
      "ÉĻ": 8566,
      "ulaĠ": 8567,
      "erĠlaĠ": 8568,
      "ĠdansĠ": 8569,
      "HarĠ": 8570,
      "R.": 8571,
      "YanaĠ": 8572,
      "iaĠkatikaĠ": 8573,
      "pleĠ": 8574,
      "sÃŃláº¹ÌĢ": 8575,
      "ana.": 8576,
      "ulikuwaĠ": 8577,
      "ungum": 8578,
      "oĠmwakaĠ": 8579,
      "RomanĠ": 8580,
      "nÃŃgbÃłĠtÃŃĠÃ³Ġ": 8581,
      "ShehuĠ": 8582,
      "AuĠ": 8583,
      ",ĠD": 8584,
      "Bag": 8585,
      "nen": 8586,
      "Li": 8587,
      "Lor": 8588,
      "áĬķáĪ°": 8589,
      "áĪµáĪĬ": 8590,
      "Ġáīłáį": 8591,
      "áĭŃáīħ": 8592,
      "icr": 8593,
      "áį¡áī°": 8594,
      "ĠáĮįáĪªáĬŃ": 8595,
      "ifĠ": 8596,
      "Ġáĭ¨áī°áĭĪáĪ°": 8597,
      "áīłáīµáį¢": 8598,
      "1966": 8599,
      "áī³áĭĪáīħ": 8600,
      "pourĠlesĠ": 8601,
      "ĠáĪĺáĮłáĬķ": 8602,
      "TVĠ": 8603,
      "kÃºĠ": 8604,
      "sáº¹ÌĢ": 8605,
      "kuanz": 8606,
      "kumaĠanĠ": 8607,
      "wataĠ": 8608,
      "'YanĠwasanĠÆĻwallonĠÆĻafaĠtaĠÆĻasarĠIngil": 8609,
      "ĠdÃ©": 8610,
      "1989": 8611,
      "pet": 8612,
      "tanĠ": 8613,
      "industr": 8614,
      "Columb": 8615,
      "Petr": 8616,
      "Tak": 8617,
      "riv": 8618,
      "can": 8619,
      "Ãł-": 8620,
      "phys": 8621,
      "YankinĠ": 8622,
      "táº¹Ìģ": 8623,
      "Ġáĭĳ": 8624,
      "asiĠyaĠ": 8625,
      "áĪµáī³áīµ": 8626,
      "kunanĠ": 8627,
      "áī°áĭ³": 8628,
      "ĠáĪµáī¥": 8629,
      "leoĠ": 8630,
      "anci,Ġ": 8631,
      "huuĠ": 8632,
      "europ": 8633,
      "áĪķáĪį": 8634,
      "áĪ£áĭŃ": 8635,
      "olÃ³gunĠ": 8636,
      "ĠáĪĿáĬŃáĪŃ": 8637,
      "Ġáī°áĭĪáĪĪáĭ°": 8638,
      "jama'aĠaĠ": 8639,
      "atikaĠkarneĠyaĠ": 8640,
      "ĠáĭľáĬĵĠáĪĺáĭĭáĭķáĪį": 8641,
      "proj": 8642,
      "Gi": 8643,
      "UneĠ": 8644,
      "alth": 8645,
      "Ã¨neĠ": 8646,
      "icationĠ": 8647,
      "ensemb": 8648,
      "manyĠ": 8649,
      "MartinĠ": 8650,
      "torĠ": 8651,
      "Mohamm": 8652,
      "KamfaninĠ": 8653,
      "dÃŃn": 8654,
      "oÆĻ": 8655,
      "Ãłjáº¹sÃ¡raĠ": 8656,
      "ama,Ġ": 8657,
      "asc": 8658,
      "1918": 8659,
      "Marekani.": 8660,
      "lakin": 8661,
      "wá»įÌĢny": 8662,
      "ÃĮjá»įbaĠ": 8663,
      "u)Ġ": 8664,
      "uraĠ": 8665,
      "áīłáĭ«": 8666,
      "Ġáĭ«áĭį": 8667,
      "áįĪáĮ¸": 8668,
      "2011Ġ": 8669,
      "ĠáīħáĬĿ": 8670,
      "áīģáīµ": 8671,
      "áĮ½áĪĲáįįĠáīħáĭ±áĪµ": 8672,
      "Ġáĭ¶áĪ®": 8673,
      "ĠáīłáĪĮáĪĭ": 8674,
      "áĭŃáĪŃáĪĭáĬķáĭµ": 8675,
      "Gold": 8676,
      "Ã©ĠÃłĠ": 8677,
      "1986": 8678,
      "C)Ġ": 8679,
      "uel": 8680,
      "mit": 8681,
      "atesĠ": 8682,
      "shidaĠ": 8683,
      "thÃ©": 8684,
      "Ant": 8685,
      "almarĠ": 8686,
      "Mlim": 8687,
      "mÃ¹": 8688,
      "á»įd": 8689,
      "ÃłrinĠ": 8690,
      "akanaĠnaĠ": 8691,
      "Ã²bÃŃĠ": 8692,
      "ÆĻwararr": 8693,
      "ishinĠ": 8694,
      "1999Ġ": 8695,
      "ia.org/": 8696,
      "Greek": 8697,
      "MayuĠ": 8698,
      "sayensiĠ": 8699,
      "DisambaĠ": 8700,
      "Langu": 8701,
      "KÃ¡tÃ³": 8702,
      "SanĠ": 8703,
      "aciĠ": 8704,
      "166": 8705,
      "áĪĪáĪµ": 8706,
      "áĭ°áĬķáīµ": 8707,
      "áĪĭáĮħ": 8708,
      "áĮįáĪª": 8709,
      "áīłáĪ»": 8710,
      "ĠáĬłáĪįáįİ": 8711,
      "ĠáĪĪáĪĽáĪµ": 8712,
      "Ġáĭ¨áĬ¥áĬķáĮįáĪĬáĭĿ": 8713,
      "Ġáī°áīĢáĪĿ": 8714,
      "ĠáĮ¨áĭĭ": 8715,
      "Av": 8716,
      "alg": 8717,
      "tĠofĠ": 8718,
      "ĠsÃ¬Ġ": 8719,
      "Arch": 8720,
      "ipp": 8721,
      "utane": 8722,
      "PÃ³p": 8723,
      "Tsak": 8724,
      "kit": 8725,
      "wouldĠ": 8726,
      "anaĠkwaĠ": 8727,
      "oluk": 8728,
      "aĠmasuĠ": 8729,
      "Ã²Ġk": 8730,
      "aiĠtaĠ": 8731,
      "atiĠawá»įnĠ": 8732,
      "waĠkar": 8733,
      "nigbaĠ": 8734,
      "ÃĵĠtÃºnĠ": 8735,
      "aĠgab": 8736,
      "ominiraĠ": 8737,
      "-áº¹ÌĢyáº¹Ġ": 8738,
      "Pasif": 8739,
      "Cup": 8740,
      "C'estĠ": 8741,
      "Journ": 8742,
      "thod": 8743,
      "capit": 8744,
      "souventĠ": 8745,
      "Ig": 8746,
      "acheĠ": 8747,
      "áīµĠáī°": 8748,
      "áī£áī£": 8749,
      "ical": 8750,
      "áīĢáĪµ": 8751,
      "ĠáĬ¥áĬĵĠáĬ¨": 8752,
      "áĬ¥áĬķáĮįáĪĬáĭĿáĬĽ": 8753,
      "ĠáĬ¨áĬłáĬķáĭµ": 8754,
      "ĠáĪ½áĪį": 8755,
      "intr": 8756,
      "áĪŃáīµáĪ«": 8757,
      "Black": 8758,
      "BahariĠ": 8759,
      "katiĠyaĠ": 8760,
      "tá»įÌĢ": 8761,
      "á»įÌĢkanĠ": 8762,
      "hukun": 8763,
      "aĠbug": 8764,
      "haifarĠdaĠ": 8765,
      ")ĠjeĠosereĠ": 8766,
      "Oá¹£uĠK": 8767,
      "DagaĠbayaĠ": 8768,
      "ulikanaĠ": 8769,
      "YammacinĠ": 8770,
      "jimill": 8771,
      "nipas": 8772,
      "2020Ġ": 8773,
      "Ġ(m": 8774,
      "eje": 8775,
      "present": 8776,
      "Fat": 8777,
      "Ham": 8778,
      "law": 8779,
      "akh": 8780,
      "uduĠ": 8781,
      "echni": 8782,
      "Bol": 8783,
      "moreĠ": 8784,
      "HenryĠ": 8785,
      "áī¿": 8786,
      "ĠáĭĬ": 8787,
      "áīµáĪį": 8788,
      "áĭįĠáĬ¨": 8789,
      "ĠáīłáĪ¶": 8790,
      "ĠáĬĲáĭįáį¤": 8791,
      "áĪīáĪĿ": 8792,
      "áī¶áĭ¶": 8793,
      "áĭķáīĨáī¥": 8794,
      "ĠáīłáĪĺáĪµ": 8795,
      "achĠ": 8796,
      "ĠáįĪáĪĭ": 8797,
      "áĪ£áĪ¥": 8798,
      "ĠáĪĢáī¥": 8799,
      "à¤ĺ": 8800,
      "áįİáĪŃ": 8801,
      "áī¥áĪ¨áī°": 8802,
      "ĠáĭŃáī³áĪĺáĬĵ": 8803,
      "hÃ¬nĠ": 8804,
      "yawaĠ": 8805,
      ",ĠtÃŃĠ": 8806,
      "iaĠniĠ": 8807,
      "ÃĮjá»įĠ": 8808,
      "wasem": 8809,
      "aĠfaraĠ": 8810,
      "yÃ¬ÃŃĠniĠ": 8811,
      "jiĠmkuuĠ": 8812,
      "ilĠs": 8813,
      "\"TheĠ": 8814,
      "Ach": 8815,
      "tro": 8816,
      "struc": 8817,
      "77": 8818,
      "aÃ¯": 8819,
      "amat": 8820,
      "su,Ġ": 8821,
      "Domin": 8822,
      "surĠlaĠ": 8823,
      "bornĠ": 8824,
      "Mw": 8825,
      "bakwaiĠ": 8826,
      "kwenyeĠ": 8827,
      "rÃ¹nĠ": 8828,
      "ventĠ": 8829,
      "áī®": 8830,
      "anoĠyaĠ": 8831,
      "Ġáī°áĪĽáĪª": 8832,
      "aĠkwall": 8833,
      "áĭ¨áĬ¢áīµáĭ®áĮµáĭ«": 8834,
      "2005Ġ": 8835,
      "ÃĮd": 8836,
      "Ġáī£áĪħáĪį": 8837,
      "aĠdukĠ": 8838,
      "zamanĠ": 8839,
      "áº¹rin": 8840,
      "wandishiĠwaĠ": 8841,
      "áĪ¨áĮĭáĮĪ": 8842,
      "takribanĠ": 8843,
      "falmeĠmkuuĠwaĠ": 8844,
      "DonĠ": 8845,
      "agneĠ": 8846,
      "pointĠ": 8847,
      "Seneg": 8848,
      "Bos": 8849,
      "boĠ": 8850,
      "akas": 8851,
      "ild": 8852,
      "1984": 8853,
      "wiki/": 8854,
      "aniĠk": 8855,
      "alish": 8856,
      "(S": 8857,
      "situ": 8858,
      "tayiĠ": 8859,
      "es/": 8860,
      "AbuĠ": 8861,
      "95": 8862,
      "Aut": 8863,
      "fÃŃl": 8864,
      "á»įrÃŃĠ": 8865,
      "uruĠ": 8866,
      "gbá»įÌģ": 8867,
      "otunĠ": 8868,
      "araĠnyingiĠ": 8869,
      "antak": 8870,
      "engenez": 8871,
      "ogboĠ": 8872,
      "2019Ġ": 8873,
      "zaidiĠyaĠ": 8874,
      "wasanĠkwaikwayoĠ": 8875,
      "Dang": 8876,
      "lom": 8877,
      "áī¥áī»": 8878,
      "ĠáĪĺáī¥": 8879,
      "áī³áĪŃ": 8880,
      "áĬŃáĬĸ": 8881,
      "áįįáī°": 8882,
      "aph": 8883,
      "ĠáĪ°áĪĽ": 8884,
      "stand": 8885,
      "áĪģáįį": 8886,
      "ĠáĬłáĪµáįĪáĪĭáĮĬ": 8887,
      "»áįī": 8888,
      "áĪµáī°áĬĽáĭį": 8889,
      "ĠáĪĺáĬķáĮĪ": 8890,
      "Ġáī°áĪ«áĪ®áī½": 8891,
      "Ġáī°áĮ«áĭĭ": 8892,
      "ĠáĭŃáĮĪáĪĺáī³áĪįáį¢": 8893,
      "Hor": 8894,
      "ibit": 8895,
      "foreĠ": 8896,
      "1960Ġ": 8897,
      "alph": 8898,
      "ĠtunĠ": 8899,
      "ingĠtoĠ": 8900,
      "oper": 8901,
      "eph": 8902,
      "artic": 8903,
      "86": 8904,
      "páº¹": 8905,
      "wayaĠ": 8906,
      "asiliĠ": 8907,
      "islamuĠ": 8908,
      "ammalaĠ": 8909,
      "Ġá»Įjá»įÌģĠk": 8910,
      "kuwaĠnaĠ": 8911,
      "wadandaĠsukaĠ": 8912,
      "NollywoodĠ": 8913,
      "zim": 8914,
      "Ã©e,Ġ": 8915,
      "islam": 8916,
      "ĠkmÂ²": 8917,
      "PeopleĠ": 8918,
      "FederalĠ": 8919,
      "a:": 8920,
      "dist": 8921,
      "ĠÎ": 8922,
      "áī°áį¡": 8923,
      "ĠáĪĺáĪĭ": 8924,
      "áĪ³áĬķ": 8925,
      "áĬĽáį¦": 8926,
      "áīĢáĮ½": 8927,
      "Ġáĭ¨áĬłáĪĪáĪĿ": 8928,
      "Ġáĭ¨áĬĲáīłáĪ©áīµ": 8929,
      "ĠáĪµáĪĿáĪĿáĬĲáīµ": 8930,
      "whereĠ": 8931,
      "ĠáĭŃáĮĪáĬĽáĪīáį¢": 8932,
      "áĪĺáĪ°áĪ¨": 8933,
      "áĬķáĮĮáĪį": 8934,
      "arĠS": 8935,
      "omor": 8936,
      "becameĠ": 8937,
      "P.": 8938,
      "fÃŃrÃŃ": 8939,
      "hap": 8940,
      "yá»įĠ": 8941,
      "rÃ©fÃ©r": 8942,
      "Ã¬wá»įÌĢ": 8943,
      "tsakiyarĠ": 8944,
      "inkinĠ": 8945,
      "ÃĮjáº¹ÌĢ": 8946,
      "TarayyarĠAmurk": 8947,
      "Ã¬dÃŃjeĠ": 8948,
      "Kifarans": 8949,
      "CetteĠ": 8950,
      "lorsĠ": 8951,
      "earlyĠ": 8952,
      "Eos": 8953,
      "Äĵ": 8954,
      "er-": 8955,
      "erĠofĠtheĠ": 8956,
      "proch": 8957,
      "ouch": 8958,
      "1991": 8959,
      "Ġ11": 8960,
      "cir": 8961,
      "áĬķĠáīłáĪĽ": 8962,
      "áĬĵáį¢": 8963,
      "ĠáĬłáĭ°áĪ¨áĮĪ": 8964,
      "áĭ¨áĪµ": 8965,
      "áī±áĪŃáĬŃ": 8966,
      "Ġáĭ¨áĪļáĬĸáĪŃ": 8967,
      "Ġáĭįáīħáĭ«áĬĸáĪµ": 8968,
      "ĠáĪļáĪµáīµ": 8969,
      "áĪłáĪ©": 8970,
      "Ġáĭ¨áī°áĬŃáĪīĠáĪ³áĭŃáĬķáĪ³áĭĬĠáĮ¸áī£áĭŃ": 8971,
      "áĪŀáĬŃáĪ«áĪ²": 8972,
      "europÃ©": 8973,
      "aal": 8974,
      "ËĪ": 8975,
      "inj": 8976,
      "istĠofĠ": 8977,
      "DukĠ": 8978,
      "rÃ¹": 8979,
      "yas": 8980,
      ",ĠÃłwá»įnĠ": 8981,
      "suf": 8982,
      "uff": 8983,
      "farkoĠnaĠ": 8984,
      "Ãłwá»įnĠáº¹": 8985,
      "August": 8986,
      "daĠsauranĠ": 8987,
      "yun": 8988,
      "ans,Ġ": 8989,
      "Vir": 8990,
      "actionĠ": 8991,
      "LoveĠ": 8992,
      "Ã£": 8993,
      "87": 8994,
      "Ġáī«": 8995,
      "ĠáĬ¨áĮ¥": 8996,
      "ĠáīłáĪĪ": 8997,
      "Ġáĭ¨áĪ©": 8998,
      "áį£ĠáĬ¥áĬĵ": 8999,
      "áīĢáĪĿ": 9000,
      "ĠáĬĲáĭįáį¢Ġáīł": 9001,
      "áĭĺáĪĺáĬĲ": 9002,
      "ĠáĪ°áįĬ": 9003,
      "áĬķáĮįáĭµ": 9004,
      "ĠáĭĭáĬķáĮ«": 9005,
      "áįķáĪĭ": 9006,
      "áĬħáĪ£áĪ¥": 9007,
      "KatikaĠm": 9008,
      "KungiyarĠ": 9009,
      "ruw": 9010,
      "aĠÅĦĠ": 9011,
      "aĠJami'arĠ": 9012,
      "taĠsamuĠ": 9013,
      "niĠodunĠ": 9014,
      "ÆĻan": 9015,
      ",ĠmwanamuzikiĠ": 9016,
      "nye": 9017,
      "Ãłká»į": 9018,
      "Ã¡nÃ¬": 9019,
      "jÃ¡d": 9020,
      "ayáº¹yáº¹Ġ": 9021,
      "KÃ¡tÃ³l": 9022,
      "-ĠA": 9023,
      "zak": 9024,
      "ediaĠ": 9025,
      "ste": 9026,
      "exemp": 9027,
      "akawaĠ": 9028,
      "2013Ġ": 9029,
      "particuli": 9030,
      "en'sĠ": 9031,
      "Ġ13": 9032,
      "Jean-": 9033,
      "C,Ġ": 9034,
      "aki": 9035,
      "ouvern": 9036,
      "PiaĠ": 9037,
      "gask": 9038,
      "oor": 9039,
      "ruku": 9040,
      "tir": 9041,
      "ÆĬ": 9042,
      "ØŃ": 9043,
      "ĠÙ": 9044,
      "Ġ19": 9045,
      "Ġáĭī": 9046,
      "áįģ": 9047,
      "oĠjeĠ": 9048,
      "áº¹tÃł": 9049,
      "áĪµáī¶áī½": 9050,
      "kuw": 9051,
      "áĭŃáįĭ": 9052,
      "ĠáĬłáĭįáĪ®áįĵ": 9053,
      "Ã¨Ã¨": 9054,
      "iyuĠ": 9055,
      "Ġáī°áĮĪáĬĿ": 9056,
      "ĠáĭŃáĭŀ": 9057,
      "áĬ¨áĪ¨": 9058,
      "áĭĪáĪµ": 9059,
      "ĠáĬ¥áĪµáĭ«": 9060,
      "áĮ¨áīµ": 9061,
      "Jama'": 9062,
      "KiarabuĠ": 9063,
      "kudancinĠ": 9064,
      "ĠáĪĺáĬĲáĪ»": 9065,
      "arewacinĠ": 9066,
      "egeme": 9067,
      "UnĠ": 9068,
      "vin": 9069,
      "althĠ": 9070,
      "oris": 9071,
      "áīłáĭ°": 9072,
      "ParisĠ": 9073,
      "Hum": 9074,
      "oid": 9075,
      "Round": 9076,
      "Abdul": 9077,
      "(m": 9078,
      "Kon": 9079,
      "okiĠ": 9080,
      "ambarĠ": 9081,
      "Prim": 9082,
      "God": 9083,
      "typ": 9084,
      "nÃŃĠÃ¬": 9085,
      "uwaĠdaĠ": 9086,
      "nguv": 9087,
      "shiĠdaĠ": 9088,
      "uzikiĠwaĠ": 9089,
      "agbaraĠ": 9090,
      "OlÃ¹": 9091,
      "Kiarab": 9092,
      "shiĠneĠÉĹanĠ": 9093,
      "ulkinĠ": 9094,
      "ArewaĠ": 9095,
      "áĭįáĬĵ": 9096,
      "áīłáīł": 9097,
      "Ġ(áĭĪáĭŃáĪĿ": 9098,
      "ĠáĪĿáĮįáī¥": 9099,
[...]
