{
  "version": "1.0",
  "truncation": null,
  "padding": null,
  "added_tokens": [
    {
      "id": 0,
      "content": "<pad>",
      "single_word": false,
      "lstrip": false,
      "rstrip": false,
      "normalized": false,
      "special": true
    },
    {
      "id": 1,
      "content": "<bos>",
      "single_word": false,
      "lstrip": false,
      "rstrip": false,
      "normalized": false,
      "special": true
    },
    {
      "id": 2,
      "content": "<eos>",
      "single_word": false,
      "lstrip": false,
      "rstrip": false,
      "normalized": false,
      "special": true
    }
  ],
  "normalizer": {
    "type": "Sequence",
    "normalizers": [
      {
        "type": "NFC"
      }
    ]
  },
  "pre_tokenizer": {
    "type": "ByteLevel",
    "add_prefix_space": false,
    "trim_offsets": true,
    "use_regex": false
  },
  "post_processor": {
    "type": "TemplateProcessing",
    "single": [
      {
        "SpecialToken": {
          "id": "<bos>",
          "type_id": 0
        }
      },
      {
        "Sequence": {
          "id": "A",
          "type_id": 0
        }
      },
      {
        "SpecialToken": {
          "id": "<eos>",
          "type_id": 0
        }
      }
    ],
    "pair": [
      {
        "SpecialToken": {
          "id": "<bos>",
          "type_id": 0
        }
      },
      {
        "Sequence": {
          "id": "A",
          "type_id": 0
        }
      },
      {
        "SpecialToken": {
          "id": "<eos>",
          "type_id": 0
        }
      },
      {
        "SpecialToken": {
          "id": "<bos>",
          "type_id": 0
        }
      },
      {
        "Sequence": {
          "id": "B",
          "type_id": 0
        }
      },
      {
        "SpecialToken": {
          "id": "<eos>",
          "type_id": 0
        }
      }
    ],
    "special_tokens": {
      "<bos>": {
        "id": "<bos>",
        "ids": [
          1
        ],
        "tokens": [
          "<bos>"
        ]
      },
      "<eos>": {
        "id": "<eos>",
        "ids": [
          2
        ],
        "tokens": [
          "<eos>"
        ]
      }
    }
  },
  "decoder": {
    "type": "ByteLevel",
    "add_prefix_space": true,
    "trim_offsets": true,
    "use_regex": true
  },
  "model": {
    "type": "BPE",
    "dropout": null,
    "unk_token": null,
    "continuing_subword_prefix": null,
    "end_of_word_suffix": null,
    "fuse_unk": false,
    "byte_fallback": true,
    "ignore_merges": false,
    "vocab": {
      "<pad>": 0,
      "<bos>": 1,
      "<eos>": 2,
      "!": 3,
      "\"": 4,
      "#": 5,
      "$": 6,
      "%": 7,
      "&": 8,
      "'": 9,
      "(": 10,
      ")": 11,
      "*": 12,
      "+": 13,
      ",": 14,
      "-": 15,
      ".": 16,
      "/": 17,
      "0": 18,
      "1": 19,
      "2": 20,
      "3": 21,
      "4": 22,
      "5": 23,
      "6": 24,
      "7": 25,
      "8": 26,
      "9": 27,
      ":": 28,
      ";": 29,
      "<": 30,
      "=": 31,
      ">": 32,
      "?": 33,
      "@": 34,
      "A": 35,
      "B": 36,
      "C": 37,
      "D": 38,
      "E": 39,
      "F": 40,
      "G": 41,
      "H": 42,
      "I": 43,
      "J": 44,
      "K": 45,
      "L": 46,
      "M": 47,
      "N": 48,
      "O": 49,
      "P": 50,
      "Q": 51,
      "R": 52,
      "S": 53,
      "T": 54,
      "U": 55,
      "V": 56,
      "W": 57,
      "X": 58,
      "Y": 59,
      "Z": 60,
      "[": 61,
      "\\": 62,
      "]": 63,
      "^": 64,
      "_": 65,
      "`": 66,
      "a": 67,
      "b": 68,
      "c": 69,
      "d": 70,
      "e": 71,
      "f": 72,
      "g": 73,
      "h": 74,
      "i": 75,
      "j": 76,
      "k": 77,
      "l": 78,
      "m": 79,
      "n": 80,
      "o": 81,
      "p": 82,
      "q": 83,
      "r": 84,
      "s": 85,
      "t": 86,
      "u": 87,
      "v": 88,
      "w": 89,
      "x": 90,
      "y": 91,
      "z": 92,
      "{": 93,
      "|": 94,
      "}": 95,
      "~": 96,
      "¡": 97,
      "¢": 98,
      "£": 99,
      "¤": 100,
      "¥": 101,
      "¦": 102,
      "§": 103,
      "¨": 104,
      "©": 105,
      "ª": 106,
      "«": 107,
      "¬": 108,
      "®": 109,
      "¯": 110,
      "°": 111,
      "±": 112,
      "²": 113,
      "³": 114,
      "´": 115,
      "µ": 116,
      "¶": 117,
      "·": 118,
      "¸": 119,
      "¹": 120,
      "º": 121,
      "»": 122,
      "¼": 123,
      "½": 124,
      "¾": 125,
      "¿": 126,
      "À": 127,
      "Á": 128,
      "Â": 129,
      "Ã": 130,
      "Ä": 131,
      "Å": 132,
      "Æ": 133,
      "Ç": 134,
      "È": 135,
      "É": 136,
      "Ê": 137,
      "Ë": 138,
      "Ì": 139,
      "Í": 140,
      "Î": 141,
      "Ï": 142,
      "Ð": 143,
      "Ñ": 144,
      "Ò": 145,
      "Ó": 146,
      "Ô": 147,
      "Õ": 148,
      "Ö": 149,
      "×": 150,
      "Ø": 151,
      "Ù": 152,
      "Ú": 153,
      "Û": 154,
      "Ü": 155,
      "Ý": 156,
      "Þ": 157,
      "ß": 158,
      "à": 159,
      "á": 160,
      "â": 161,
      "ã": 162,
      "ä": 163,
      "å": 164,
      "æ": 165,
      "ç": 166,
      "è": 167,
      "é": 168,
      "ê": 169,
      "ë": 170,
      "ì": 171,
      "í": 172,
      "î": 173,
      "ï": 174,
      "ð": 175,
      "ñ": 176,
      "ò": 177,
      "ó": 178,
      "ô": 179,
      "õ": 180,
      "ö": 181,
      "÷": 182,
      "ø": 183,
      "ù": 184,
      "ú": 185,
      "û": 186,
      "ü": 187,
      "ý": 188,
      "þ": 189,
      "ÿ": 190,
      "Ā": 191,
      "ā": 192,
      "Ă": 193,
      "ă": 194,
      "Ą": 195,
      "ą": 196,
      "Ć": 197,
      "ć": 198,
      "Ĉ": 199,
      "ĉ": 200,
      "Ċ": 201,
      "ċ": 202,
      "Č": 203,
      "č": 204,
      "Ď": 205,
      "ď": 206,
      "Đ": 207,
      "đ": 208,
      "Ē": 209,
      "ē": 210,
      "Ĕ": 211,
      "ĕ": 212,
      "Ė": 213,
      "ė": 214,
      "Ę": 215,
      "ę": 216,
      "Ě": 217,
      "ě": 218,
      "Ĝ": 219,
      "ĝ": 220,
      "Ğ": 221,
      "ğ": 222,
      "Ġ": 223,
      "ġ": 224,
      "Ģ": 225,
      "ģ": 226,
      "Ĥ": 227,
      "ĥ": 228,
      "Ħ": 229,
      "ħ": 230,
      "Ĩ": 231,
      "ĩ": 232,
      "Ī": 233,
      "ī": 234,
      "Ĭ": 235,
      "ĭ": 236,
      "Į": 237,
      "į": 238,
      "İ": 239,
      "ı": 240,
      "Ĳ": 241,
      "ĳ": 242,
      "Ĵ": 243,
      "ĵ": 244,
      "Ķ": 245,
      "ķ": 246,
      "ĸ": 247,
      "Ĺ": 248,
      "ĺ": 249,
      "Ļ": 250,
      "ļ": 251,
      "Ľ": 252,
      "ľ": 253,
      "Ŀ": 254,
      "ŀ": 255,
      "Ł": 256,
      "ł": 257,
      "Ń": 258,
      "áĪ": 259,
      "Ġá": 260,
      "aĠ": 261,
      "áī": 262,
      "áĬ": 263,
      "áĭ": 264,
      "nĠ": 265,
      "eĠ": 266,
      "iĠ": 267,
      "ar": 268,
      "áĮ": 269,
      "Ġáĭ": 270,
      "ĠáĬ": 271,
      "an": 272,
      "ĠáĪ": 273,
      "áį": 274,
      "áĬķ": 275,
      "Ġáī": 276,
      ",Ġ": 277,
      "áīµ": 278,
      "áĪŃ": 279,
      "in": 280,
      "sĠ": 281,
      "at": 282,
      "al": 283,
      "»į": 284,
      "ÃŃ": 285,
      "oĠ": 286,
      "Ġáĭ¨": 287,
      "áĭį": 288,
      "inĠ": 289,
      "er": 290,
      "am": 291,
      "á»į": 292,
      "daĠ": 293,
      "łáĪ": 294,
      "as": 295,
      "Ãł": 296,
      "uĠ": 297,
      "yaĠ": 298,
      "anĠ": 299,
      "waĠ": 300,
      "áĪĿ": 301,
      "º¹": 302,
      "áĪį": 303,
      "áĪµ": 304,
      "ak": 305,
      "arĠ": 306,
      "áº¹": 307,
      "Ã©": 308,
      "en": 309,
      "ik": 310,
      "il": 311,
      "or": 312,
      "on": 313,
      "tĠ": 314,
      "is": 315,
      "áį¢": 316,
      "ku": 317,
      "áº¹Ì": 318,
      "áĬĵ": 319,
      "Ã¬": 320,
      "Ġáīł": 321,
      "áī°": 322,
      "naĠ": 323,
      "áĪĪ": 324,
      "áĭ«": 325,
      "ÃŃĠ": 326,
      "ĠáĮ": 327,
      "it": 328,
      "áĭŃ": 329,
      "áĪĺ": 330,
      "ĠáĬ¥": 331,
      "Ã¡": 332,
      "ab": 333,
      "áī½": 334,
      "ir": 335,
      "taĠ": 336,
      "un": 337,
      "ur": 338,
      "sh": 339,
      "ĠáĬł": 340,
      "ay": 341,
      "dĠ": 342,
      "á»įÌ": 343,
      "áĭ°": 344,
      "áĬĲ": 345,
      "onĠ": 346,
      "19": 347,
      "áī¥": 348,
      "áĮĪ": 349,
      "áĪ¨": 350,
      "áĭµ": 351,
      "Ãº": 352,
      "esĠ": 353,
      "th": 354,
      "ch": 355,
      "áĪĭ": 356,
      "ĠáĬĲ": 357,
      "áĮį": 358,
      ".Ġ": 359,
      "el": 360,
      "ĠáĪĺ": 361,
      "es": 362,
      "Ã³": 363,
      "ad": 364,
      "gb": 365,
      "om": 366,
      "áīł": 367,
      "Ã¨": 368,
      "áĪ«": 369,
      "áī³": 370,
      "im": 371,
      "ĠáĬ¨": 372,
      "ol": 373,
      "iy": 374,
      "20": 375,
      "áĬŃ": 376,
      "Ġ(": 377,
      "ag": 378,
      "áĪĽ": 379,
      "deĠ": 380,
      "áĪ³": 381,
      "áº¹ÌĢ": 382,
      "áī£": 383,
      "áº¹Ìģ": 384,
      "em": 385,
      "unĠ": 386,
      "niĠ": 387,
      "Ġáį": 388,
      "á»įÌģ": 389,
      "of": 390,
      "a,Ġ": 391,
      "us": 392,
      ")Ġ": 393,
      "aĠm": 394,
      "ic": 395,
      "áĬĽ": 396,
      "Ġáī°": 397,
      "yĠ": 398,
      "áĪª": 399,
      "ul": 400,
      "ĠáĭŃ": 401,
      "ok": 402,
      "¹£": 403,
      "ĠáīłáĪ": 404,
      "Ġáĭ¨áĪ": 405,
      "af": 406,
      "ĠáĬłáĪ": 407,
      "ÃłĠ": 408,
      "tiĠ": 409,
      "Ã²": 410,
      "áĪħ": 411,
      "kar": 412,
      "áĬ¨": 413,
      "áĮ¥": 414,
      "áį£": 415,
      "aw": 416,
      "aj": 417,
      "Ã©Ġ": 418,
      "enĠ": 419,
      "ĠáĪĿ": 420,
      "Ġáĭ¨áĬ": 421,
      "um": 422,
      "âĢ": 423,
      "ut": 424,
      "iaĠ": 425,
      "ĠáĭĪ": 426,
      "áį¡": 427,
      "ac": 428,
      "wan": 429,
      "ai": 430,
      "áįį": 431,
      "áĭ³": 432,
      "ĠáĬĲáĭį": 433,
      "wá»į": 434,
      "theĠ": 435,
      "áīĢ": 436,
      "a.": 437,
      "uk": 438,
      "ing": 439,
      "ali": 440,
      "áĭ¨": 441,
      "ĠáĬ¥áĬķ": 442,
      "áĭĪ": 443,
      "Ã¹": 444,
      "aĠk": 445,
      "kum": 446,
      "Ã³Ġ": 447,
      "áĪ°": 448,
      "áīħ": 449,
      "Ġá»į": 450,
      "ah": 451,
      "aiĠ": 452,
      "áĪĮ": 453,
      "erĠ": 454,
      "áĬ«": 455,
      "ap": 456,
      "laĠ": 457,
      "ĠáĪĪ": 458,
      "ofĠ": 459,
      "tr": 460,
      "á¹£": 461,
      "ig": 462,
      "e,Ġ": 463,
      "ib": 464,
      "leĠ": 465,
      "id": 466,
      "áĬł": 467,
      "qu": 468,
      "ĠáĬĲáĭįáį¢": 469,
      "ÆĻ": 470,
      "az": 471,
      "ati": 472,
      "akaĠ": 473,
      "ĠáĪµ": 474,
      "áī¸": 475,
      "Ġáĭ«": 476,
      "áĪī": 477,
      "wá»įnĠ": 478,
      "os": 479,
      "re": 480,
      "Ġáĭĵ": 481,
      "tÃŃĠ": 482,
      "áº¹ÌĢĠ": 483,
      "á»įÌĢ": 484,
      "áīłáĪ": 485,
      "baĠ": 486,
      "áĭĬ": 487,
      "áĭĭ": 488,
      "edĠ": 489,
      "áĪ®": 490,
      "ti": 491,
      "áī±": 492,
      "İáī½": 493,
      "ceĠ": 494,
      "áī¸áĭį": 495,
      "toĠ": 496,
      "anaĠ": 497,
      "áįĪ": 498,
      "neĠ": 499,
      "Ġáĭ¨áĪļ": 500,
      "áĭĿ": 501,
      ":Ġ": 502,
      "iĠyaĠ": 503,
      "áĮ£": 504,
      "áĪįáį¢": 505,
      "she": 506,
      "Ã¡Ġ": 507,
      "ĠáĪĽ": 508,
      "áĪĨ": 509,
      "-Ġ": 510,
      "ro": 511,
      "áĭļ": 512,
      "áī¶": 513,
      "shekar": 514,
      "áĪ³áĪĮ": 515,
      "nÃŃĠ": 516,
      "andĠ": 517,
      "áĮł": 518,
      "áº¹ÌģĠ": 519,
      "áĮī": 520,
      "ÃºĠ": 521,
      "kumaĠ": 522,
      "ish": 523,
      "ÃºnĠ": 524,
      "201": 525,
      "ug": 526,
      "ÃĢ": 527,
      "iyaĠ": 528,
      "áĮĭ": 529,
      "alĠ": 530,
      "áĭ®": 531,
      "i,Ġ": 532,
      "ĠáīłáĬ": 533,
      "á»įĠ": 534,
      "ĠáĪĿáĪ³áĪĮ": 535,
      "ang": 536,
      "op": 537,
      "le": 538,
      "ash": 539,
      "uwaĠ": 540,
      "entĠ": 541,
      "200": 542,
      "nÃŃ": 543,
      "ikinĠ": 544,
      "ĠáĪ²": 545,
      "áĭ²": 546,
      "isĠ": 547,
      "áĬķáĭµ": 548,
      "etĠ": 549,
      "ĠáĮį": 550,
      "Ġáīµ": 551,
      "all": 552,
      "ip": 553,
      "Ã¨Ġ": 554,
      "ot": 555,
      "áĭİáī½": 556,
      "Ġáĭĺ": 557,
      "iĠwaĠ": 558,
      "ikaĠ": 559,
      "zaĠ": 560,
      "áĪ¥": 561,
      "Al": 562,
      "áīĥ": 563,
      "18": 564,
      "og": 565,
      "áĬĸ": 566,
      "áĪŀ": 567,
      "áĭĺ": 568,
      "iv": 569,
      "ob": 570,
      "araĠ": 571,
      "aniĠ": 572,
      "ih": 573,
      "ec": 574,
      "akeĠ": 575,
      "et": 576,
      "ub": 577,
      "Ġáĭ¨áī°": 578,
      "asĠ": 579,
      "ĠáĬ¥áĬĵ": 580,
      "ist": 581,
      "if": 582,
      "áĬĲáīµ": 583,
      "ĠáĪ°": 584,
      "aĠtaĠ": 585,
      "Ġáī¥": 586,
      "ud": 587,
      "áĬ¥": 588,
      "wat": 589,
      "ent": 590,
      "tok": 591,
      "áĪĬ": 592,
      "Ã¬Ġ": 593,
      "kas": 594,
      "áĪ©": 595,
      "i.": 596,
      "ij": 597,
      "e.": 598,
      "Ġáĭį": 599,
      "áĪĻ": 600,
      "agaĠ": 601,
      "and": 602,
      "AĠ": 603,
      "áĬķáĮį": 604,
      "cikinĠ": 605,
      "Ã²Ġ": 606,
      "amaĠ": 607,
      "Th": 608,
      "oj": 609,
      "pr": 610,
      "ĠáīĢ": 611,
      "ÌĢ": 612,
      "fr": 613,
      "iĠm": 614,
      "ek": 615,
      "00": 616,
      "áīłáĪŃ": 617,
      "Ġáĭ°": 618,
      "ĭáĭŃ": 619,
      "ou": 620,
      "amb": 621,
      "ĠáĬ¥áĬķáĭ°": 622,
      "iĠk": 623,
      "eĠd": 624,
      "áĭĽ": 625,
      "ant": 626,
      "Ġáĭ¨áĬłáĪ": 627,
      "á»įÌģĠ": 628,
      "ingĠ": 629,
      "áĪļ": 630,
      "od": 631,
      "ow": 632,
      "ÃĮ": 633,
      "av": 634,
      "au": 635,
      "ĠáĬŃ": 636,
      "anc": 637,
      "st": 638,
      "áĪİ": 639,
      "lÃ¡": 640,
      "Ġáº¹": 641,
      "ts": 642,
      "áī²": 643,
      "áĮħ": 644,
      "áī¢": 645,
      "atiĠ": 646,
      "ed": 647,
      "áĬĳ": 648,
      "ung": 649,
      "lesĠ": 650,
      "áįĭ": 651,
      "ann": 652,
      "ĠáĪį": 653,
      "dagaĠ": 654,
      "Am": 655,
      "Ch": 656,
      "ÉĹ": 657,
      "rÃŃ": 658,
      "áĬĿ": 659,
      "Ġá¹£": 660,
      "áĪ±": 661,
      "Mar": 662,
      "áį¤": 663,
      "ew": 664,
      "áº¹Ġ": 665,
      "tar": 666,
      "ikiĠ": 667,
      "áĪĨáĬķ": 668,
      "our": 669,
      "áĪ½": 670,
      "ans": 671,
      "was": 672,
      "for": 673,
      "jeĠ": 674,
      "á»įÌĢĠ": 675,
      "iyarĠ": 676,
      "áĮİ": 677,
      "Â«": 678,
      "wakaĠ": 679,
      "),Ġ": 680,
      "In": 681,
      "199": 682,
      "ĠáĪĭáĭŃ": 683,
      "uw": 684,
      "áĭ«áĬķ": 685,
      "áĪĪáĭį": 686,
      "Ġáī³": 687,
      "Ġáĭµ": 688,
      "gaĠ": 689,
      "ark": 690,
      "auĠ": 691,
      "0Ġ": 692,
      "Ãłwá»įnĠ": 693,
      "áĪŃáĬĽ": 694,
      "iz": 695,
      "adaĠ": 696,
      "Ġáī£": 697,
      "áĭ±": 698,
      "áĪģ": 699,
      "iĠnaĠ": 700,
      "amm": 701,
      "oc": 702,
      "oy": 703,
      "elĠ": 704,
      "su": 705,
      "o,Ġ": 706,
      "ov": 707,
      "awaĠ": 708,
      "ep": 709,
      "áĭļáĪħ": 710,
      "eĠdaĠ": 711,
      "¢áīµ": 712,
      "ind": 713,
      "Â»": 714,
      "con": 715,
      "aif": 716,
      "a'": 717,
      "l'": 718,
      "Sh": 719,
      "ĽáĪŃáĬĽ": 720,
      "¢áīµáĭ®": 721,
      "áĮµ": 722,
      "áĭķ": 723,
      "áĬĴ": 724,
      "shiĠ": 725,
      "estĠ": 726,
      "áīĨ": 727,
      "áĮĢ": 728,
      "âĢĻ": 729,
      "¢áīµáĭ®áĮµ": 730,
      "ĠáīłáĪĺ": 731,
      "Ġd": 732,
      "aĠdaĠ": 733,
      "ter": 734,
      "áĪĪáīµ": 735,
      "arĠdaĠ": 736,
      "oĠyaĠ": 737,
      "ĠA": 738,
      "áĮ½": 739,
      "áĮĪáĪŃ": 740,
      "áĪ¬": 741,
      "yan": 742,
      "ayaĠ": 743,
      "aĠyaĠ": 744,
      "oh": 745,
      "aĠnaĠ": 746,
      "ain": 747,
      "ats": 748,
      "aĠh": 749,
      "Ġá»įd": 750,
      "áī¡": 751,
      "áĪµáĮ¥": 752,
      "ÃĢwá»įnĠ": 753,
      "Ã¹Ġ": 754,
      "¢áīµáĭ®áĮµáĭ«": 755,
      "Ġáĭ¨áĬłáĪĽáĪŃáĬĽ": 756,
      "usĠ": 757,
      "e-": 758,
      "Ġ1": 759,
      "áĪ¨áīµ": 760,
      "com": 761,
      "ÅĦ": 762,
      "a.Ġ": 763,
      "ĠáĪĿáĪ³áĪĮĠáĬĲáĭįáį¢": 764,
      "ÃłtiĠ": 765,
      "pl": 766,
      "Ġáĭ¨áĬłáĪĽáĪŃáĬĽĠáĪĿáĪ³áĪĮĠáĬĲáĭįáį¢": 767,
      "ajer": 768,
      "ĠáĬĲáīłáĪŃ": 769,
      "áīłáīµ": 770,
      "á»įÌģnĠ": 771,
      "áĭľ": 772,
      "ation": 773,
      "ĠáĮ¥": 774,
      "áĪĺáĬķ": 775,
      "bÃŃĠ": 776,
      "kanĠ": 777,
      "TheĠ": 778,
      "áĪ»": 779,
      "tÃŃĠÃ³Ġ": 780,
      "jáº¹ÌģĠ": 781,
      "1Ġ": 782,
      "ĠáĭĪáĭ°": 783,
      ";Ġ": 784,
      "An": 785,
      "5Ġ": 786,
      "sam": 787,
      "ĠáĪĨ": 788,
      "kat": 789,
      "ĠáĮĪ": 790,
      "Najer": 791,
      "waĠm": 792,
      "ong": 793,
      "ÃłnĠ": 794,
      "áĪµáīµ": 795,
      "ej": 796,
      "ĠáĬ¨áī°": 797,
      "2Ġ": 798,
      "198": 799,
      "ĵĠ": 800,
      "áī»": 801,
      "ationĠ": 802,
      "ĠáĬķ": 803,
      "uĠm": 804,
      ").": 805,
      "láº¹ÌĢĠ": 806,
      "iniĠ": 807,
      "shekararĠ": 808,
      "áĭ©": 809,
      "up": 810,
      "wen": 811,
      "Ã©r": 812,
      "asarĠ": 813,
      "eĠm": 814,
      "uz": 815,
      "ariĠ": 816,
      "art": 817,
      "áĭĵ": 818,
      "áįĬ": 819,
      "eg": 820,
      "áĭįáĬķ": 821,
      "yiĠ": 822,
      "áī¶áī½": 823,
      "ers": 824,
      "wandaĠ": 825,
      "ayinĠ": 826,
      "iwaĠ": 827,
      "wak": 828,
      "aĠb": 829,
      "ĠáĬ¥áĪµ": 830,
      "hu": 831,
      "ĠáĭįáĪµáĮ¥": 832,
      "ran": 833,
      "ĠáĬłáĭŃ": 834,
      "áĪŃáĮī": 835,
      "Wali": 836,
      "eb": 837,
      "ev": 838,
      "6Ġ": 839,
      ",Ġm": 840,
      "Ab": 841,
      "197": 842,
      "4Ġ": 843,
      "7Ġ": 844,
      "sÃŃĠ": 845,
      "ion": 846,
      "siĠ": 847,
      "Ĭáĭľ": 848,
      "reĠ": 849,
      "áĮłáĪ": 850,
      "anz": 851,
      "ráº¹ÌĢĠ": 852,
      "áĪªáĭ«": 853,
      "3Ġ": 854,
      "áĬĶ": 855,
      "196": 856,
      "Ġá»įdÃºnĠ": 857,
      "ex": 858,
      "áīĭ": 859,
      "áĭ¶": 860,
      "kutok": 861,
      "atĠ": 862,
      "ĠáĪģ": 863,
      "air": 864,
      "áĪ²": 865,
      "any": 866,
      "áĬĽáĭį": 867,
      "end": 868,
      "ill": 869,
      "áĬłáĪ": 870,
      "queĠ": 871,
      "ineĠ": 872,
      "inaĠ": 873,
      "áī¦": 874,
      "áĭŃáĪĿ": 875,
      "ataĠ": 876,
      "ez": 877,
      "áĪŃáĪµ": 878,
      "abb": 879,
      "áĪľ": 880,
      "áĬ¤": 881,
      "hĠ": 882,
      "aĠcikinĠ": 883,
      "Ã¨d": 884,
      "Ġáīłáī°": 885,
      "áĪĲ": 886,
      "asiĠ": 887,
      "lÃºĠ": 888,
      "áĭĻ": 889,
      "iharĠ": 890,
      "áĬ®": 891,
      "shekaraĠtaĠ": 892,
      "Ã¬j": 893,
      "ionĠ": 894,
      "ÃŃn": 895,
      "Itok": 896,
      "Ġáīħ": 897,
      "áī¤": 898,
      "ach": 899,
      "ĠáĬłáĪµ": 900,
      "ĠáĪ¥": 901,
      "Ar": 902,
      "ĠáĬ«": 903,
      "Ġáī¤": 904,
      "uh": 905,
      "ĠáīµáĪŃáĮī": 906,
      "anceĠ": 907,
      "Ġáĭ¨áĪĺ": 908,
      "áĬ©": 909,
      "Afr": 910,
      "nd": 911,
      "rÃ©": 912,
      "áĪªáĬŃ": 913,
      "ĠáĬ¥áĬķáĭ²": 914,
      "arinĠ": 915,
      "ĠáĮįáĬķ": 916,
      "ass": 917,
      "suk": 918,
      "ich": 919,
      "keĠ": 920,
      "aur": 921,
      "eh": 922,
      "uc": 923,
      "ĠÂ«": 924,
      "wá»įn": 925,
      "kw": 926,
      "ĠáĮĭ": 927,
      "Ġáĭ¨áĬł": 928,
      "icĠ": 929,
      "áīģ": 930,
      "áĮ¨": 931,
      "wá»įÌģnĠ": 932,
      "oz": 933,
      "asaĠ": 934,
      "pro": 935,
      ".ĠM": 936,
      "s,Ġ": 937,
      "áī¹": 938,
      "Ã¨dÃ¨Ġ": 939,
      "suĠ": 940,
      "áīłáĪ¨": 941,
      "ileĠ": 942,
      "und": 943,
      "ĠáĪ²áĪĨáĬķ": 944,
      "o.": 945,
      "ofĠtheĠ": 946,
      "bay": 947,
      "desĠ": 948,
      "ĭáĪĭ": 949,
      "áį¡áį¡": 950,
      "Ad": 951,
      "ÅĦĠ": 952,
      "ef": 953,
      "ani": 954,
      "áĮĥ": 955,
      "nch": 956,
      "8Ġ": 957,
      "naĠm": 958,
      "»Į": 959,
      "\"Ġ": 960,
      "ikuwaĠ": 961,
      "aĠd": 962,
      "»áį": 963,
      "ansĠ": 964,
      "aninĠ": 965,
      "áĬŃáĪį": 966,
      "uneĠ": 967,
      "áĪĥ": 968,
      "ĠáīµáĪŃáĮīáĪĻ": 969,
      "kwaĠ": 970,
      "meĠ": 971,
      "ĠáĬĲáīłáĪŃáį¢": 972,
      "antĠ": 973,
      "zuwaĠ": 974,
      "oĠm": 975,
      "ementĠ": 976,
      "ĠáīłáĬł": 977,
      "áĪ´": 978,
      "ng": 979,
      "ĠáĬłáĬķ": 980,
      "aut": 981,
      ".áĪĿ": 982,
      "yÃ¬": 983,
      "9Ġ": 984,
      "itaĠ": 985,
      "orĠ": 986,
      "²áį": 987,
      "ieĠ": 988,
      "áī´": 989,
      "areĠ": 990,
      "St": 991,
      "kutokaĠ": 992,
      "ĠáĪ³": 993,
      "nÃ¡": 994,
      "xĠ": 995,
      "Jam": 996,
      "áĮŃ": 997,
      "inc": 998,
      "u,Ġ": 999,
      "Ġáĭ¨áĬłáĪĽáĪŃáĬĽĠáĪĿáĪ³áĪĮĠáĬĲáĭįáį¢ĠáīµáĪŃáĮīáĪĻ": 1000,
      "emb": 1001,
      "ĠáĪĺáĬķáĮį": 1002,
      "Ġáĭĭ": 1003,
      "ĠáīĢáĬķ": 1004,
      "lÃ³": 1005,
      "ĠáĮĬáĭľ": 1006,
      "nÃŃn": 1007,
      "urĠ": 1008,
      "agb": 1009,
      "aĠs": 1010,
      "ĠáĭĪáĭŃáĪĿ": 1011,
      "yeĠ": 1012,
      "acinĠ": 1013,
      "ell": 1014,
      "áī³áīµ": 1015,
      "ess": 1016,
      "Ġáĭĵ.áĪĿ": 1017,
      "áĪªáĬ«": 1018,
      "Ã¹nĠ": 1019,
      "Ġ-": 1020,
      "195": 1021,
      "ioĠ": 1022,
      "jam": 1023,
      "atsayinĠ": 1024,
      "uĠyaĠ": 1025,
      "uf": 1026,
      "aĠf": 1027,
      "ĠáĪµáĪĪ": 1028,
      "ilĠ": 1029,
      "iĠdaĠ": 1030,
      "láº¹ÌĢ": 1031,
      "ĠáĬłáĪĪ": 1032,
      "áĪ¨áīµáĬĵ": 1033,
      "ĠáĬĵ": 1034,
      "haif": 1035,
      "Ġáº¹ÌĢ": 1036,
      "áĮ»": 1037,
      "ItokasiĠ": 1038,
      "ĠáĪĬ": 1039,
      "Ġáī¢": 1040,
      "ĠáįĪ": 1041,
      "iw": 1042,
      "anĠm": 1043,
      "iá¹£": 1044,
      "ĠáĬ¥áĪµáĬ¨": 1045,
      "ewaĠ": 1046,
      "áĪĪáĪĿ": 1047,
      "kĠ": 1048,
      "aĠg": 1049,
      "áĪ¨áīµáĬĵĠáĪĿáĪ³áĪĮ": 1050,
      "ĠáĬķáĮī": 1051,
      "ĠáīłáĬĭáĪĭ": 1052,
      "orÃŃ": 1053,
      "kinĠ": 1054,
      "watanĠ": 1055,
      "tÃ³Ġ": 1056,
      "Il": 1057,
      "áĪ¥áīµ": 1058,
      "koĠ": 1059,
      "áį»áį": 1060,
      "Un": 1061,
      "ĠáĭŃáĪħ": 1062,
      "Ġá¹£eĠ": 1063,
      "es,Ġ": 1064,
      "yaĠK": 1065,
      "ĠáĭĺáĪĺáĬķ": 1066,
      "tak": 1067,
      "est": 1068,
      "áĪ¨áĪµ": 1069,
      "d'": 1070,
      "áĬķáĪĿ": 1071,
      "rinĠ": 1072,
      "wam": 1073,
      "ni": 1074,
      "biĠ": 1075,
      "ereĠ": 1076,
      "amarĠ": 1077,
      "áĪ®áī½": 1078,
      "ĠáĬŃáįį": 1079,
      "áĪķ": 1080,
      "NajeriyaĠ": 1081,
      "áĮ«": 1082,
      "Ġáī°áĪ¨áīµáĬĵĠáĪĿáĪ³áĪĮ": 1083,
      "fir": 1084,
      "ĠáĬ¨áī°áĪĽ": 1085,
      "ard": 1086,
      "dÃ©": 1087,
      "gbÃłĠ": 1088,
      "17": 1089,
      "fÃºnĠ": 1090,
      "aliĠ": 1091,
      "par": 1092,
      "sÃŃ": 1093,
      "nanĠ": 1094,
      "Ġá»įm": 1095,
      "áĭİ": 1096,
      "sÃ¬Ġ": 1097,
      "duĠ": 1098,
      "áĮĪáĬ": 1099,
      "ciĠ": 1100,
      "ÃŃrÃŃ": 1101,
      "itĠ": 1102,
      "Mak": 1103,
      "deĠlaĠ": 1104,
      "Nob": 1105,
      "Ġá»įÌĢ": 1106,
      "ĠáĭĵáĪĺ": 1107,
      "ugh": 1108,
      "omĠ": 1109,
      "wasanĠ": 1110,
      "yaw": 1111,
      "ny": 1112,
      "u.": 1113,
      "gbaĠ": 1114,
      "ĠáĪĪáĪĺ": 1115,
      "Ġáĭķ": 1116,
      "Kar": 1117,
      "asuĠ": 1118,
      "áįĵ": 1119,
      "áĮĢáĪĺ": 1120,
      "ond": 1121,
      "áī°áĬĽ": 1122,
      "áĪŃáĭ«": 1123,
      "Ġá»Į": 1124,
      "yanaĠ": 1125,
      "NobelĠ": 1126,
      "16": 1127,
      "15": 1128,
      "AnĠ": 1129,
      "eri": 1130,
      "a-": 1131,
      "att": 1132,
      "áĭ´": 1133,
      "194": 1134,
      "Ġáĭĵ.áĪĿ.": 1135,
      "artaĠ": 1136,
      "aĠmatsayinĠ": 1137,
      "Man": 1138,
      "aĠl": 1139,
      "utan": 1140,
      "Ãłk": 1141,
      "maiĠ": 1142,
      "aĠku": 1143,
      "ugab": 1144,
      "awonĠ": 1145,
      "áĮįáĪŀ": 1146,
      "As": 1147,
      "aliwaĠ": 1148,
      "ha": 1149,
      "har": 1150,
      "Ol": 1151,
      "ÆĻasarĠ": 1152,
      "arr": 1153,
      "áį¦": 1154,
      "ká»įÌģĠ": 1155,
      "Ġáĭ«áĪį": 1156,
      "wasĠ": 1157,
      "amĠ": 1158,
      "Br": 1159,
      "Ã©t": 1160,
      "tur": 1161,
      "seĠ": 1162,
      "Pr": 1163,
      "áĭµáĪŃ": 1164,
      "ersĠ": 1165,
      "NÃł": 1166,
      "erÃ©Ġ": 1167,
      "aadaĠ": 1168,
      "gab": 1169,
      "Ġá»įj": 1170,
      "áĪ¶": 1171,
      "ĠáĮĢ": 1172,
      "iiĠ": 1173,
      "eoĠ": 1174,
      "ĠáĬĲáĮĪ": 1175,
      "|Ġ": 1176,
      "parĠ": 1177,
      "eng": 1178,
      "ĠáĬ¢": 1179,
      "Ġáįį": 1180,
      "unaĠ": 1181,
      "raĠ": 1182,
      "imb": 1183,
      "ityĠ": 1184,
      "ais": 1185,
      "áī³áĭĪ": 1186,
      "amf": 1187,
      "nÃŃnÃºĠ": 1188,
      "yarĠ": 1189,
      "andaĠ": 1190,
      "Ġáīģ": 1191,
      "NÃłÃ¬j": 1192,
      "Nig": 1193,
      "Ã¬n": 1194,
      "sunĠ": 1195,
      "áīµáĬķ": 1196,
      "wa": 1197,
      "ĠáĮĭáĪŃ": 1198,
      "ĠáĪķ": 1199,
      "iliĠ": 1200,
      "ĠáīłáĪĽ": 1201,
      "âĢĵĠ": 1202,
      "fark": 1203,
      "bÃŃ": 1204,
      "NÃłÃ¬jÃŃrÃŃ": 1205,
      "eĠ(": 1206,
      "s.": 1207,
      "katikaĠ": 1208,
      "Ãłn": 1209,
      "uĠwaĠ": 1210,
      "tareĠdaĠ": 1211,
      "Ġáį¡": 1212,
      "áĬŃáĪįáīł": 1213,
      "mat": 1214,
      "áĪīáį¢": 1215,
      "por": 1216,
      "áīĤ": 1217,
      "Ã¬y": 1218,
      "rÃŃĠ": 1219,
      "Kan": 1220,
      "ourĠ": 1221,
      "áĪİáī½": 1222,
      "ĠáĭĵáĬŃáĪįáīł": 1223,
      "Ãºn": 1224,
      "ninĠ": 1225,
      "áĮ¡": 1226,
      "áĭ°áĪ¨": 1227,
      "shir": 1228,
      "bir": 1229,
      "kuwaĠ": 1230,
      "thĠ": 1231,
      "ayeĠ": 1232,
      "¦áĪŃ": 1233,
      "Ġáĭ°áĮįáĪŀ": 1234,
      "sab": 1235,
      "ĠáĪļ": 1236,
      "ĠáĬłáĬķáĭµ": 1237,
      "Ã¨r": 1238,
      "aĠwaĠ": 1239,
      "ÃĵĠ": 1240,
      "wall": 1241,
      "oĠwaĠ": 1242,
      "áĪĺáĬĲ": 1243,
      "áĭ°áĪŃ": 1244,
      "áī°áĪ¨": 1245,
      "y,Ġ": 1246,
      "Ã¬d": 1247,
      "ontĠ": 1248,
      "ĠáĬłáĪį": 1249,
      "aĠt": 1250,
      "jiharĠ": 1251,
      "forĠ": 1252,
      "ins": 1253,
      "wonĠ": 1254,
      "i'": 1255,
      "wit": 1256,
      "lÃ©": 1257,
      "áĮĪáĬĿ": 1258,
      "áĪŃáīµ": 1259,
      "irĠ": 1260,
      "II": 1261,
      "ph": 1262,
      "wh": 1263,
      "fiĠ": 1264,
      "..": 1265,
      "byĠ": 1266,
      "aceĠ": 1267,
      "Ib": 1268,
      "aĠaĠ": 1269,
      "áĬķáīµ": 1270,
      "wakaĠwaĠ": 1271,
      "waniĠ": 1272,
      "Ġáĭ¨áĬ¢áīµáĭ®áĮµáĭ«": 1273,
      "193": 1274,
      "áĬķáĪµ": 1275,
      "Is": 1276,
      "ĠáĪĺáĬķáĮįáĪ¥áīµ": 1277,
      "kaf": 1278,
      "áĪĶ": 1279,
      "wal": 1280,
      "'sĠ": 1281,
      "biy": 1282,
      "Ġ2": 1283,
      "daĠkumaĠ": 1284,
      "ĠáĪĪáĪĽ": 1285,
      "Walioz": 1286,
      "áīłáĪ©": 1287,
      "ibiĠ": 1288,
      "e.Ġ": 1289,
      "tionĠ": 1290,
      "áĬķáīĭ": 1291,
      "Nij": 1292,
      "mĠ": 1293,
      "eĠdeĠ": 1294,
      "áĬª": 1295,
      "áī½áĬķ": 1296,
      "áĪĭáĪįáį¢": 1297,
      "alis": 1298,
      "lÃ¡tiĠ": 1299,
      "aik": 1300,
      "âĢĵ": 1301,
      "Ġáĭ¨áĬĲ": 1302,
      "áĬĵáīµ": 1303,
      "funĠ": 1304,
      "yakeĠ": 1305,
      "ĠáĪĨáĬĲ": 1306,
      "atikaĠ": 1307,
      "10": 1308,
      "nÃ¡ÃłĠ": 1309,
      "eur": 1310,
      "ĠáĪįáĮħ": 1311,
      "arikiĠ": 1312,
      "had": 1313,
      "war": 1314,
      "indaĠ": 1315,
      "donĠ": 1316,
      "annanĠ": 1317,
      "14": 1318,
      "abbanĠ": 1319,
      "aĠshekaraĠtaĠ": 1320,
      "ĠáĭĿ": 1321,
      "ĠáĭµáĪ¨áĪµ": 1322,
      "san": 1323,
      "eu": 1324,
      "olog": 1325,
      "lá»įÌģ": 1326,
      "áĭļáĭ«": 1327,
      "wali": 1328,
      "Waliof": 1329,
      "gr": 1330,
      "áįī": 1331,
      "aid": 1332,
      "uzoĠyaĠ": 1333,
      "ranarĠ": 1334,
      "iya.": 1335,
      "pÃŃn": 1336,
      "á¹£Ã¹Ġ": 1337,
      "Ġáĭ«áĪįáī°": 1338,
      "ĠáĭĵáĬŃáĪįáīł.": 1339,
      "Tar": 1340,
      "sonĠ": 1341,
      "aisĠ": 1342,
      "to": 1343,
      "se": 1344,
      "aĠ(": 1345,
      "yaĠm": 1346,
      "zam": 1347,
      "TuzoĠyaĠ": 1348,
      "aryĠ": 1349,
      "ta": 1350,
      "aĠM": 1351,
      "láº¹ÌĢ-": 1352,
      "ilim": 1353,
      "iqu": 1354,
      "fin": 1355,
      "áĭ°áī¥": 1356,
      "áī°áĪ¨áĮİ": 1357,
      "âĢľ": 1358,
      "ien": 1359,
      "okacinĠ": 1360,
      "ĠáĪħ": 1361,
      "áĮĬ": 1362,
      "Marek": 1363,
      "edeĠ": 1364,
      "haifeĠ": 1365,
      "ĠáĬ¤": 1366,
      "Ã¬t": 1367,
      "ÃĴ": 1368,
      "ĠáĪµáĪĿ": 1369,
      "Ġáīĭ": 1370,
      "an,Ġ": 1371,
      "áī£áĪį": 1372,
      "Ġáĭ¨áĬ¥": 1373,
      "ĠáĪĮ": 1374,
      "bÃ¡Ġ": 1375,
      "áĪ¸": 1376,
      "áĪ£": 1377,
      "áĪĨáĬĳ": 1378,
      "ĠáĬłáĮĪ": 1379,
      "apaĠ": 1380,
      "ĠáĪĢ": 1381,
      "teĠ": 1382,
      "ĠáīłáĬ¥": 1383,
      "Ãłr": 1384,
      "cl": 1385,
      "²áį±": 1386,
      "Ã¬lÃºĠ": 1387,
      "ĠM": 1388,
      "yinĠ": 1389,
      "áī¸áĭįáį¢": 1390,
      "tÃŃĠwá»įÌģnĠ": 1391,
      "áĬķáĭ«": 1392,
      "shind": 1393,
      "âĢĿ": 1394,
      "ĠáĪĽáĪĪáīµ": 1395,
      "umb": 1396,
      "awá»į": 1397,
      "fil": 1398,
      "uwarĠ": 1399,
      "sunaĠ": 1400,
      "abuĠ": 1401,
      "uj": 1402,
      "áĪĬáĭĿ": 1403,
      "aus": 1404,
      "ĠáĪĥ": 1405,
      "áĪłáĪ": 1406,
      "inĠdaĠ": 1407,
      "áī¸áĭįáĬķ": 1408,
      "ĠáĬķáĮīáĪ¥": 1409,
      "áĬ¨áī°": 1410,
      "pos": 1411,
      "per": 1412,
      "áĭįáĭ«áĬķ": 1413,
      "áī±áĬķ": 1414,
      "cr": 1415,
      "áĪµáī°": 1416,
      "Ġáĭ¨áĪļáĭ«": 1417,
      "neĠyaĠ": 1418,
      "afiĠ": 1419,
      "áī°áĪ¨áĮİáĪĺ": 1420,
      "láº¹ÌĢ-Ã¨dÃ¨Ġ": 1421,
      "TuzoĠyaĠNobelĠ": 1422,
      "áįķ": 1423,
      "iki": 1424,
      "ouĠ": 1425,
      "jir": 1426,
      "oĠniĠ": 1427,
      "ya": 1428,
      "ateĠ": 1429,
      "áī£áī¢": 1430,
      "Ġá»įmá»įĠ": 1431,
      "omb": 1432,
      "áĪĢ": 1433,
      "ahĠ": 1434,
      "danĠ": 1435,
      "quiĠ": 1436,
      "adĠ": 1437,
      "es.": 1438,
      "ĠáĬłáĪĺ": 1439,
      "lá»įĠ": 1440,
      "12": 1441,
      "ayĠ": 1442,
      "Ġáī³áĪªáĬŃ": 1443,
      "Fr": 1444,
      "Ġáĭ«áĪįáī°áī°áĪ¨áĮİáĪĺ": 1445,
      "Ġáĭ«áĪįáī°áī°áĪ¨áĮİáĪĺĠáĪĿáĪ³áĪĮ": 1446,
      "áĬķáĮ": 1447,
      "tanaĠ": 1448,
      "²áį±áį»áį": 1449,
      "vyaĠ": 1450,
      "ĠáīłáĬłáĪ": 1451,
      "chaĠ": 1452,
      "iĠ(": 1453,
      "istor": 1454,
      "áĪĦ": 1455,
      "ivers": 1456,
      "ouv": 1457,
      "ĠáĮī": 1458,
      "uku": 1459,
      "ayy": 1460,
      "wÃłĠ": 1461,
      "ĠáĪ°áĭį": 1462,
      "oĠnaĠ": 1463,
      "áĭĽáīµ": 1464,
      "Ġáĭ¨áĬłáĪĽáĪŃáĬĽĠáĪĿáĪ³áĪĮĠáĬĲáĭįáį¢ĠáīµáĪŃáĮīáĪĻĠáĭ«áĪįáī°áī°áĪ¨áĮİáĪĺĠáĪĿáĪ³áĪĮ": 1465,
      "WaliozaliwaĠ": 1466,
      "ĠáīĭáĬķáīĭ": 1467,
      "ashinĠ": 1468,
      "Amer": 1469,
      "iya,Ġ": 1470,
      "ht": 1471,
      "amuĠ": 1472,
      "ens": 1473,
      "dun": 1474,
      "azartaĠ": 1475,
      "áĪŀáī½": 1476,
      "lyĠ": 1477,
      "org": 1478,
      "Mus": 1479,
      "áĮ¥áĪŃ": 1480,
      "oun": 1481,
      "rist": 1482,
      "áĪ«áīµ": 1483,
      "Yor": 1484,
      "13": 1485,
      "shindiĠwaĠ": 1486,
      "ath": 1487,
      "Ġáĭ³": 1488,
      "inuĠ": 1489,
      "ile-": 1490,
      "arÃ¡Ġ": 1491,
      "Ġáį£": 1492,
      "Jan": 1493,
      "Ã²á¹£": 1494,
      "áī£áīµ": 1495,
      "áĪł": 1496,
      "ĠáĬłáĬ«": 1497,
      "áī¥áĪŃ": 1498,
      "ey": 1499,
      "oĠk": 1500,
      "yÃŃĠ": 1501,
      "áĪįáĬŃ": 1502,
      "hal": 1503,
      "in,Ġ": 1504,
      "/áĪĿ": 1505,
      "Or": 1506,
      "daĠm": 1507,
      "kir": 1508,
      "Ġáĭ¨áĪĽ": 1509,
      "áĭĭáĪįáį¢": 1510,
      "imĠ": 1511,
      "Ġáī¥áĭĻ": 1512,
      "itt": 1513,
      "umĠ": 1514,
      "ari": 1515,
      "ageĠ": 1516,
      "Nijer": 1517,
      "ikaĠm": 1518,
      "aleĠ": 1519,
      "áĪĭáīµ": 1520,
      "withĠ": 1521,
      "áĪĿáĪ®": 1522,
      "ĠáĭŃáĮĪ": 1523,
      "áĬ¨áĪį": 1524,
      "antaĠ": 1525,
      "ezaĠ": 1526,
      "tion": 1527,
      "gbÃł": 1528,
      "kasanceĠ": 1529,
      "BaadaĠ": 1530,
      "cor": 1531,
      "Afir": 1532,
      "yanĠ": 1533,
      "waj": 1534,
      "Ġáĭĵ/áĪĿ": 1535,
      "áĪĭáĪį": 1536,
      "WaliofarikiĠ": 1537,
      "inĠtheĠ": 1538,
      "ĠáĪŀ": 1539,
      "Wak": 1540,
      "áĪ³áĭŃ": 1541,
      "Ok": 1542,
      "ĠáĮł": 1543,
      "192": 1544,
      "chĠ": 1545,
      "er,Ġ": 1546,
      "ká»įĠ": 1547,
      "ili": 1548,
      "Ãłwá»įn": 1549,
      "Ã¹n": 1550,
      "ĠáĪĻ": 1551,
      "osĠ": 1552,
      "far": 1553,
      "embaĠ": 1554,
      "sun": 1555,
      "Ã¨n": 1556,
      "shindiĠwaĠTuzoĠyaĠNobelĠ": 1557,
      "pÃ©Ġ": 1558,
      "iláº¹ÌĢĠ": 1559,
      "iss": 1560,
      "áĪĿáĪħ": 1561,
      "iá¹£áº¹ÌģĠ": 1562,
      "áī³áĭĬ": 1563,
      "ancinĠ": 1564,
      "atuk": 1565,
      "paĠ": 1566,
      "Ã©eĠ": 1567,
      "bu": 1568,
      "di": 1569,
      "ĠáĬłáĪµáī°": 1570,
      "ĠáĮ½": 1571,
      "áĮĤ": 1572,
      "anaĠnaĠ": 1573,
      "yaĠk": 1574,
      "fromĠ": 1575,
      "ĠáĮİ": 1576,
      "tÃł": 1577,
      "New": 1578,
      "ľáĪªáĬ«": 1579,
      "áĪĺáĪŃ": 1580,
      "ayanĠ": 1581,
      "láº¹Ìģ": 1582,
      "ÆĻwall": 1583,
      "JiharĠ": 1584,
      "Ã¬w": 1585,
      "olÃ³": 1586,
      "nam": 1587,
      "ser": 1588,
      "ĠáĭĭáĬĵ": 1589,
      "ĠáĬ¥áĬķáĭ³": 1590,
      "jer": 1591,
      "ĠáĪ³áĭŃ": 1592,
      "áĬķáĭ³": 1593,
      "bayanĠ": 1594,
      "áĭ²áĪµ": 1595,
      "diĠ": 1596,
      "ĠáĬ®": 1597,
      "áĮĨ": 1598,
      "ĠáīłáĪļ": 1599,
      "wad": 1600,
      "It": 1601,
      "pÃŃnláº¹ÌĢĠ": 1602,
      "ia": 1603,
      "Ãª": 1604,
      "hak": 1605,
      "Ã©-": 1606,
      "soĠ": 1607,
      ".áĬł": 1608,
      "Tanz": 1609,
      "Rom": 1610,
      "má»įÌĢĠ": 1611,
      "alikuwaĠ": 1612,
      "kub": 1613,
      "ĠáĪĺáĪµ": 1614,
      "áĮįáĪŃ": 1615,
      "ĠáĪĺáĬķ": 1616,
      "aniaĠ": 1617,
      "shugab": 1618,
      "Afirk": 1619,
      ",00": 1620,
      "fĠ": 1621,
      "farkoĠ": 1622,
      "189": 1623,
      "áī·": 1624,
      "awá»įnĠ": 1625,
      "Ã²r": 1626,
      "pourĠ": 1627,
      "dansĠ": 1628,
      "aitĠ": 1629,
      "áĮłáĪŃ": 1630,
      "oll": 1631,
      "anĠhaifeĠ": 1632,
      "te": 1633,
      "ayiĠ": 1634,
      "Ġáį¢": 1635,
      "Ġáī¤áī°": 1636,
      "áĪĭáĭŃ": 1637,
      "kÃ³": 1638,
      "áĭĿáī¥": 1639,
      "ogb": 1640,
      "dagaĠcikinĠ": 1641,
      "ÃĪ": 1642,
      "urk": 1643,
      "gaĠwatanĠ": 1644,
      "lÃ©Ġ": 1645,
      ").ĠM": 1646,
      "aul": 1647,
      "man": 1648,
      "áĪĿĠáīł": 1649,
      "akar": 1650,
      "áĮĪáĬĺ": 1651,
      "shekararĠ201": 1652,
      "int": 1653,
      "áįĸ": 1654,
      "Ki": 1655,
      "Mat": 1656,
      "wenyeĠ": 1657,
      "kus": 1658,
      "uĠmwakaĠ": 1659,
      "ear": 1660,
      "ajiĠ": 1661,
      "Ãł.": 1662,
      "ĠáĪģáĪī": 1663,
      "li": 1664,
      "OĠ": 1665,
      "asar": 1666,
      "orÃŃláº¹ÌĢ-Ã¨dÃ¨Ġ": 1667,
      "áĭī": 1668,
      "entr": 1669,
      "o-": 1670,
      "Ã¡n": 1671,
      "Ġáĭ¨áĪĨ": 1672,
      "ĠáįĬ": 1673,
      "auk": 1674,
      "Ġ:": 1675,
      "ri": 1676,
      "yak": 1677,
      "asi": 1678,
      "aĠn": 1679,
      "gu": 1680,
      "áĬŀ": 1681,
      "aziĠ": 1682,
      "Com": 1683,
      "alinĠ": 1684,
      "à¤": 1685,
      "káº¹": 1686,
      "PapaĠ": 1687,
      "ĠáĬłáĪĿ": 1688,
      "Gu": 1689,
      "emi": 1690,
      "sp": 1691,
      "uĠnaĠ": 1692,
      "AfrikaĠ": 1693,
      "ÆĻwallonĠ": 1694,
      "ern": 1695,
      "áĮĢáĪĺáĪªáĭ«": 1696,
      "inger": 1697,
      "piaĠ": 1698,
      "--": 1699,
      "tern": 1700,
      "comm": 1701,
      "Ġáĭ¨áĪĿ": 1702,
      "=Ġ": 1703,
      "áĪŃáĪµáī²": 1704,
      "saĠ": 1705,
      "shiĠneĠ": 1706,
      "aĠkwaĠ": 1707,
      "áĪ«áĭĬ": 1708,
      "ĠáĪĺáĭ°áī¥": 1709,
      "form": 1710,
      "tor": 1711,
      "fic": 1712,
      "áĪĨáĬĲ": 1713,
      "Ing": 1714,
      "sÃ¬": 1715,
      "Ġáĭ¨áĬłáĪĽáĪŃáĬĽĠáĪĿáĪ³áĪĮĠáĬĲáĭįáį¢ĠáīµáĪŃáĮīáĪĻĠáĭ«áĪįáī°áī°áĪ¨áĮİáĪĺĠáĪĿáĪ³áĪĮĠáī°áĪ¨áīµáĬĵĠáĪĿáĪ³áĪĮ": 1716,
      "arg": 1717,
      "Joh": 1718,
      "daĠkeĠ": 1719,
      "ĠáĪ°áĭİáī½": 1720,
      "ationalĠ": 1721,
      "yar": 1722,
      "1.": 1723,
      "oá¹£Ã¹Ġ": 1724,
      "esh": 1725,
      "ask": 1726,
      "CĠ": 1727,
      "ÃĢwá»įn": 1728,
      "Ak": 1729,
      "áī½áį¢": 1730,
      "add": 1731,
      "190": 1732,
      "inĠm": 1733,
      "oriĠ": 1734,
      "kÃ²Ġ": 1735,
      "oci": 1736,
      "0.": 1737,
      "aikiĠ": 1738,
      "Éĵ": 1739,
      "iliy": 1740,
      ".ĠItokasiĠ": 1741,
      "1,Ġ": 1742,
      "Ġáī¦": 1743,
      "alaĠ": 1744,
      "El": 1745,
      "ris": 1746,
      "áįİ": 1747,
      "Ġáīłáĭĺ": 1748,
      "a)Ġ": 1749,
      "Univers": 1750,
      "ĠáĬĲáĮĪáĪŃ": 1751,
      "zamaĠ": 1752,
      "Ã¬á¹£": 1753,
      "part": 1754,
      "ahus": 1755,
      "Ã¬yÃłnĠ": 1756,
      "on,Ġ": 1757,
      "abiĠ": 1758,
      "deĠl'": 1759,
      "ju": 1760,
      "iiĠin": 1761,
      "áĬķáĮįáĪĬáĭĿ": 1762,
      "antarĠ": 1763,
      "º¸": 1764,
      "Ġáī°áĪĺ": 1765,
      "oĠ(": 1766,
      "Ã©sĠ": 1767,
      "En": 1768,
      "akiĠ": 1769,
      "po": 1770,
      "waĠnaĠ": 1771,
      "latiĠ": 1772,
      "áī¦áī½": 1773,
      "áĪĿáį¢": 1774,
      "thatĠ": 1775,
      "áī°áĭį": 1776,
      "karat": 1777,
      "áĮ¸": 1778,
      "ile-edeĠ": 1779,
      "áĬķĠáĬł": 1780,
      "áīµĠáĭ¨": 1781,
      "áĮłáīĢ": 1782,
      "ambaĠ": 1783,
      "alÃ¡": 1784,
      "way": 1785,
      "ueĠ": 1786,
      "áį¥": 1787,
      "mar": 1788,
      "enc": 1789,
      "pá»įÌĢĠ": 1790,
      "IĠ": 1791,
      "áĪĽáĪª": 1792,
      "Ġáĭ¨áĪļáĮĪáĬĿ": 1793,
      "áº¹Ìģg": 1794,
      "ĠáīĨ": 1795,
      "alaĠh": 1796,
      "tunĠ": 1797,
      "lugh": 1798,
      "ko": 1799,
      "rap": 1800,
      "nchiĠ": 1801,
      "ĠáĭĵáĪĿ": 1802,
      "lá»į": 1803,
      "iqueĠ": 1804,
      "aun": 1805,
      "ÆĻaf": 1806,
      "amp": 1807,
      "bÃ¡": 1808,
      "tan": 1809,
      "áĪ¨áĭį": 1810,
      "icanĠ": 1811,
      "ma": 1812,
      "ĠáĭĵáĪĺáīµ": 1813,
      "manĠ": 1814,
      "ĠS": 1815,
      "áĭŀ": 1816,
      "eaĠ": 1817,
      "áĮĵ": 1818,
      "kan": 1819,
      "ool": 1820,
      "Ingil": 1821,
      "intaĠ": 1822,
      "sĠ(": 1823,
      "be": 1824,
      "iriĠ": 1825,
      "áį£Ġáĭ¨": 1826,
      "risto": 1827,
      "ĠáĬª": 1828,
      "cewaĠ": 1829,
      "áĮįáī¥": 1830,
      "plusĠ": 1831,
      "ominĠ": 1832,
      "ĠáĪĿáĬŃ": 1833,
      "tsak": 1834,
      "ord": 1835,
      "vi": 1836,
      "áĬ¢": 1837,
      "ĠáĪĺáĭ°áī¥Ġ:": 1838,
      "áĬĸáī½": 1839,
      "ráº¹ÌĢ": 1840,
      "TaĠ": 1841,
      "áĬķĠáīł": 1842,
      "áĭ±áĪµ": 1843,
      "NÃŃ": 1844,
      "uĠdaĠ": 1845,
      "ru": 1846,
      "gir": 1847,
      "olaĠ": 1848,
      "MakalaĠh": 1849,
      "enceĠ": 1850,
      "kÃł": 1851,
      "All": 1852,
      "hukum": 1853,
      "iiĠinahus": 1854,
      "icalĠ": 1855,
      "páº¹ÌĢ": 1856,
      "ishaĠ": 1857,
      "áĪĭáĬķáĭµ": 1858,
      "ÆĻwallonĠÆĻaf": 1859,
      "ept": 1860,
      "MakalaĠhiiĠinahus": 1861,
      "ĠáĬ¥áĭ¨": 1862,
      "MakalaĠhiiĠinahusuĠmwakaĠ": 1863,
      "yawanĠ": 1864,
      ".áĬ¤": 1865,
      "áįĴ": 1866,
      "shindiĠwaĠTuzoĠyaĠNobelĠyaĠ": 1867,
      "atif": 1868,
      "res": 1869,
      "eĠs": 1870,
      "maĠ": 1871,
      "i.Ġ": 1872,
      "egb": 1873,
      "ManazartaĠ": 1874,
      "lang": 1875,
      "kÃŃĠ": 1876,
      "Ġ3": 1877,
      "áĬ¥áĬķ": 1878,
      "atukioĠ": 1879,
      "tel": 1880,
      "ĠáĪĭ": 1881,
      "áĮ¨áĪ¨": 1882,
      "abil": 1883,
      "áĭ³áĬķ": 1884,
      "mÃ¡": 1885,
      "áĮĮ": 1886,
      "áīµĠáīł": 1887,
      "rit": 1888,
      "abaĠ": 1889,
      "áī³áī¸áĭį": 1890,
      "Col": 1891,
      "dh": 1892,
      "Ġáīĥ": 1893,
      "Jul": 1894,
      "ehem": 1895,
      "dakeĠ": 1896,
      "ustr": 1897,
      "áĭŃáĪħ": 1898,
      "áĬłáī¥": 1899,
      "birninĠ": 1900,
      "1-": 1901,
      "omaĠ": 1902,
      "eriaĠ": 1903,
      "yÃ¬nĠ": 1904,
      "Ag": 1905,
      "uat": 1906,
      "0,Ġ": 1907,
      "yaĠKristo": 1908,
      "Ã¨nÃ¬yÃłnĠ": 1909,
      "áĪ¨áĮĥ": 1910,
      "oteĠ": 1911,
      "aniĠdaĠ": 1912,
      "faraĠ": 1913,
      "lak": 1914,
      "Con": 1915,
      "kul": 1916,
      "kasarĠ": 1917,
      "ĠáĪĺáĬ«": 1918,
      "yaĠKristo).ĠM": 1919,
      "lokacinĠ": 1920,
      "áĪ¨áĬķ": 1921,
      "wamn": 1922,
      "Ġ(BaadaĠ": 1923,
      "Nigeri": 1924,
      "dÃ¡": 1925,
      "anciĠ": 1926,
      "ĠáĪĲ": 1927,
      "yÃ¬ÃŃĠ": 1928,
      "wannanĠ": 1929,
      "fi": 1930,
      "Ġ(BaadaĠyaĠKristo).ĠM": 1931,
      "áĮ¦": 1932,
      "han": 1933,
      "orile-edeĠ": 1934,
      "peĠ": 1935,
      "uwanĠ": 1936,
      "kiĠ": 1937,
      "ubl": 1938,
      "ousĠ": 1939,
      "áĪĿáĬĵ": 1940,
      "zin": 1941,
      "weng": 1942,
      "ĠáĬ¨áĬł": 1943,
      "bi": 1944,
      "gbÃ©": 1945,
      "hisĠ": 1946,
      "ardĠ": 1947,
      "áīĨáĮ£": 1948,
      "prÃ©": 1949,
      "Ben": 1950,
      "áī°áĪŃ": 1951,
      "áĭįĠáĭ¨": 1952,
      "otĠ": 1953,
      "Wa": 1954,
      "ĠáĬĲáīłáĪ¨": 1955,
      "Ġáī°áīĢ": 1956,
      "LeĠ": 1957,
      "áĪĪáĭ«": 1958,
      "áīµáĬĵ": 1959,
      "sukaĠ": 1960,
      "\".": 1961,
      "áĮĪáĭµ": 1962,
      "áĪĺáĬĵ": 1963,
      "Mal": 1964,
      "stĠ": 1965,
      "ĠáĪĨáĬĸ": 1966,
      "Ac": 1967,
      "mÃ©": 1968,
      "Vi": 1969,
      "shig": 1970,
      "lin": 1971,
      "pe": 1972,
      "ananĠ": 1973,
      "ray": 1974,
      "nÃŃĠá»įdÃºnĠ": 1975,
      "sak": 1976,
      "oth": 1977,
      "áĪĺáĪµ": 1978,
      "terĠ": 1979,
      "2,Ġ": 1980,
      "Far": 1981,
      "báº¹ÌĢ": 1982,
      "si": 1983,
      "ĠáīłáĪµ": 1984,
      "ĠáīłáĬ¢áīµáĭ®áĮµáĭ«": 1985,
      "áĪ¨áĭ³": 1986,
      "ous": 1987,
      "áĬĲáĭļáĪħ": 1988,
      "Sch": 1989,
      "eyĠ": 1990,
      "2.": 1991,
      "fit": 1992,
      ".áĬ¤.áĬł": 1993,
      "yankinĠ": 1994,
      "áĪĽáĭĬ": 1995,
      "niĠm": 1996,
      "ail": 1997,
      "Ġáįķ": 1998,
      "áīħáĪĿ": 1999,
      "akw": 2000,
      "kut": 2001,
      "Le": 2002,
      "iseĠ": 2003,
      "ne,Ġ": 2004,
      "pam": 2005,
      "inĠk": 2006,
      "ninuĠ": 2007,
      "áĪ°áī¥": 2008,
      "ĠáĬĵáī¸áĭįáį¢": 2009,
      "5,Ġ": 2010,
      "ĠáĪ´": 2011,
      "áĪĶáĪŃ": 2012,
      "áīª": 2013,
      "2019": 2014,
      "jáº¹Ìģ": 2015,
      "áĪ°áĭį": 2016,
      "andeĠ": 2017,
      "idanĠ": 2018,
      "ĠáĭĺáĬķáĭµ": 2019,
      "Dun": 2020,
      "ilikuwaĠ": 2021,
      "ĠáĬłáī¥": 2022,
      "Ġáĭ¨áĪ°": 2023,
      "Ã¬l": 2024,
      "ĠáĮ¨": 2025,
      "Ø§": 2026,
      "áįħ": 2027,
      "6,Ġ": 2028,
      "tÃºnĠ": 2029,
      "Ġáī£áĪĪ": 2030,
      "áĮĪáĬĻ": 2031,
      "emberĠ": 2032,
      "laĠm": 2033,
      "Ġáī¤áīµ": 2034,
      ")ĠjeĠ": 2035,
      "arab": 2036,
      "áĭ¥": 2037,
      "ement": 2038,
      "ĠáĮĢáĪĿáĪ®": 2039,
      "ÆĻar": 2040,
      "babbanĠ": 2041,
      "okoĠ": 2042,
      "Ed": 2043,
      "áĮ½áĪĲ": 2044,
      "tÃŃ": 2045,
      "ĠáĪ«": 2046,
      "itÃ©Ġ": 2047,
      "tÃ¬Ġ": 2048,
      "Ġáĭ«áĪĪ": 2049,
      "ĠB": 2050,
      "áĪŃáĪ±": 2051,
      "áįĬáīµ": 2052,
      "elleĠ": 2053,
      "Ġáįĵ": 2054,
      "wÃ¡": 2055,
      "saiĠ": 2056,
      "ign": 2057,
      "Har": 2058,
      "ĠáĬ¢áīµáĭ®áĮµáĭ«": 2059,
      "áĬķĠáĬ¨": 2060,
      "tsĠ": 2061,
      "oir": 2062,
      "eĠdesĠ": 2063,
      "i'arĠ": 2064,
      "Ġ(BaadaĠyaĠKristo).ĠMatukioĠ": 2065,
      "min": 2066,
      "8,Ġ": 2067,
      "bal": 2068,
      "we": 2069,
      "Tr": 2070,
      "atur": 2071,
      "hur": 2072,
      "ĠáĬłáĮĪáĪŃ": 2073,
      "a:Ġ": 2074,
      "ĠáĮ¦áĪŃ": 2075,
      "eĠofĠ": 2076,
      "anoĠ": 2077,
      "ĠáĬłáī£": 2078,
      "str": 2079,
      "uwan": 2080,
      "7,Ġ": 2081,
      "rel": 2082,
      "mentĠ": 2083,
      "avec": 2084,
      "ahar": 2085,
      "jáº¹Ġ": 2086,
      "ÉĹanĠ": 2087,
      "isaĠ": 2088,
      "já»įĠ": 2089,
      "Ġáĭ«áĪĪáĭį": 2090,
      "áī¡áī¥": 2091,
      "áĭ¨áĪŃ": 2092,
      "oul": 2093,
      "jama'": 2094,
      "Ind": 2095,
      "ĠáĮ¸": 2096,
      "Ġáī¥áī»": 2097,
      "idaĠ": 2098,
      "abar": 2099,
      "áĪĿĠáĭ¨": 2100,
      "omoĠ": 2101,
      "Ġáī°áĭĪ": 2102,
      "ÙĦ": 2103,
      "aĠranarĠ": 2104,
      "áī£áĪĪ": 2105,
      "samuĠ": 2106,
      "aĠshekararĠ": 2107,
      "ajalis": 2108,
      "kÃ³Ġ": 2109,
      "sy": 2110,
      "Ùİ": 2111,
      "Â«Ġ": 2112,
      "áĬ¤áĪį": 2113,
      "áĪįáĮ£": 2114,
      "dar": 2115,
      "áº¹Ìģgáº¹ÌģĠ": 2116,
      "4.": 2117,
      "ĥáĭŃ": 2118,
      "Ray": 2119,
      "5.": 2120,
      "áĪłáĪ¨": 2121,
      "4,Ġ": 2122,
      "anĠk": 2123,
      "áĭĭáĪį": 2124,
      "pÃł": 2125,
      "ait": 2126,
      "iesĠ": 2127,
      "eneoĠ": 2128,
      "jÃ¡": 2129,
      "ĠáĪĺáĪį": 2130,
      "gud": 2131,
      "áį£Ġáīł": 2132,
      "in.": 2133,
      "Ġá»įjá»įÌģĠ": 2134,
      "áī³áĪįáį¢": 2135,
      "áĪīáīµ": 2136,
      "kal": 2137,
      "áĪĭáī¸áĭį": 2138,
      "Ġ\"": 2139,
      "acc": 2140,
      "áĪĿĠáĬ¨": 2141,
      "eheĠ": 2142,
      "Gr": 2143,
      "áº¹Ìģr": 2144,
      "auxĠ": 2145,
      "ĠáĬ¦": 2146,
      "Ġáī°áĬ¨": 2147,
      "00Ġ": 2148,
      "afinĠ": 2149,
      "Par": 2150,
      "Ge": 2151,
      "waĠk": 2152,
      "tiĠoĠ": 2153,
      "surĠ": 2154,
      "kung": 2155,
      "ww": 2156,
      "iĠyaĠm": 2157,
      "NÃłÃ¬jÃŃrÃŃÃłĠ": 2158,
      "istr": 2159,
      "wasanĠÆĻwallonĠÆĻaf": 2160,
      "akinĠ": 2161,
      "utaneĠ": 2162,
      "anninĠ": 2163,
      "á»įbaĠ": 2164,
      "a,Ġm": 2165,
      "6.": 2166,
      "hany": 2167,
      "ojaĠnaĠ": 2168,
      "Ã©esĠ": 2169,
      "Ã¨sĠ": 2170,
      "rub": 2171,
      "ber": 2172,
      "ĠáĬ¥áĬķáĭ²áĪģ": 2173,
      "isiwaĠ": 2174,
      "áį²áį±áį»áį": 2175,
      "oyinĠ": 2176,
      "áĭµáĬķ": 2177,
      "Ã©n": 2178,
      "7.": 2179,
      "KarneĠyaĠ": 2180,
      "MarekaniĠ": 2181,
      "mon": 2182,
      "áĭįáĪ®": 2183,
      "áĪļáĭ«": 2184,
      "eĠd'": 2185,
      "comp": 2186,
      "áĬħ": 2187,
      "tiv": 2188,
      "ationsĠ": 2189,
      "ĠáĬ¥.áĬ¤.áĬł": 2190,
      "gbÃ©Ġ": 2191,
      "ĠáīģáĮ¥áĪŃ": 2192,
      "Bir": 2193,
      "jÃºĠ": 2194,
      ").Ġ": 2195,
      "ĠáĪī": 2196,
      "akanĠ": 2197,
      "Wat": 2198,
      "weny": 2199,
      "Ã¨reĠ": 2200,
      "eĠduĠ": 2201,
      "NewĠ": 2202,
      "irinĠ": 2203,
      "orinĠ": 2204,
      "sik": 2205,
      "uniĠ": 2206,
      "ianĠ": 2207,
      "ĠáĪ¥áĪŃ": 2208,
      "nying": 2209,
      "Ġá»įjá»įÌģ": 2210,
      "âĢĺ": 2211,
      "Em": 2212,
      "áº¹ÌģrÃŃ": 2213,
      "odĠ": 2214,
      "áĬĵáĪį": 2215,
      "ia.": 2216,
      "lu": 2217,
      "Ġáĭ®": 2218,
      "an.": 2219,
      "i-": 2220,
      "BK": 2221,
      "yoĠ": 2222,
      "ráº¹Ġ": 2223,
      "asheĠ": 2224,
      "sontĠ": 2225,
      "Muh": 2226,
      "ichĠ": 2227,
      "Ġáĭ¨áĪĨáĬĲ": 2228,
      "toĠtheĠ": 2229,
      "ast": 2230,
      "na": 2231,
      "ĠáĮ£": 2232,
      "shenĠ": 2233,
      "áĪ¥áī³áīµ": 2234,
      "Ã§": 2235,
      "Um": 2236,
      "áĪŃáĬŃ": 2237,
      "ÃĮpÃŃnláº¹ÌĢĠ": 2238,
      "ishiĠ": 2239,
      "Amáº¹ÌģrÃŃ": 2240,
      "land": 2241,
      "áĬķĠáĭ«": 2242,
      "ká»įÌĢ": 2243,
      "ĠáĭĪáĬķ": 2244,
      "ĠáīłáĪĿ": 2245,
      "ukĠ": 2246,
      "adh": 2247,
      "ĠáĬłáīł": 2248,
      "tit": 2249,
      "aliy": 2250,
      "áī¢áĭ«": 2251,
      "oniĠ": 2252,
      "áĬ¦": 2253,
      "áĮ¨áĪ¨áĪ»": 2254,
      "ĠáĭµáĪŃ": 2255,
      "iluĠ": 2256,
      "ust": 2257,
      "ĠáĪĺáĭ°áī¥Ġ:Ġáī°áĪ¨áīµáĬĵĠáĪĿáĪ³áĪĮ": 2258,
      "áĮ¤": 2259,
      "áĮłáĪ«": 2260,
      "ia,Ġ": 2261,
      "harĠ": 2262,
      "ikoĠ": 2263,
      "ĠáĪľ": 2264,
      "ĠáĬ¨áįį": 2265,
      "kej": 2266,
      "áĬķĠáĪĺ": 2267,
      "Janu": 2268,
      "3,Ġ": 2269,
      "ar,Ġ": 2270,
      "dig": 2271,
      "aĠmaiĠ": 2272,
      "áīµĠáĪĺ": 2273,
      "saur": 2274,
      "áĭµáĪĿ": 2275,
      "3.": 2276,
      "NĠ": 2277,
      "iteĠ": 2278,
      "ÃŃá¹£": 2279,
      "lim": 2280,
      "Ġáī¡": 2281,
      "siy": 2282,
      "áĬķáĮī": 2283,
      "áĭİáī¹": 2284,
      "miĠ": 2285,
      "lÃ¨Ġ": 2286,
      "ashenĠ": 2287,
      "ĠáīłáĪĭáĭŃ": 2288,
      "ĠáīłáĭĺáĪĺáĬĲ": 2289,
      "lat": 2290,
      "utaĠ": 2291,
      "áĬķáĬĵ": 2292,
      "áĬķĠáĭ¨": 2293,
      "ĠáĪĺáĬ«áĬ¨áĪį": 2294,
      "kubwaĠ": 2295,
      "Ãły": 2296,
      "y.": 2297,
      "kun": 2298,
      "aim": 2299,
      "asoĠ": 2300,
      "kud": 2301,
      "ÃĮt": 2302,
      "wasuĠ": 2303,
      "áĪĺáĪĪ": 2304,
      "wor": 2305,
      "ĠáīłáĪ°": 2306,
      "áĮįáĭļ": 2307,
      "aĠmwakaĠwaĠ": 2308,
      "áĬ³": 2309,
      "Ã©g": 2310,
      "ÃŃr": 2311,
      "wand": 2312,
      "áī¥áĪ¨": 2313,
      "áīħáĪŃ": 2314,
      "Nov": 2315,
      "188": 2316,
      "UniversityĠ": 2317,
      "za": 2318,
      "fal": 2319,
      "áĪĽáĭŃ": 2320,
      "sin": 2321,
      "ĠáĬŃáįįáĪĪ": 2322,
      "InĠ": 2323,
      "20Ġ": 2324,
      "áĪħáĪį": 2325,
      "dayaĠ": 2326,
      "ilÃ©-": 2327,
      "áĪĿáĪħáĪŃáīµ": 2328,
      "e)Ġ": 2329,
      "al'": 2330,
      "avecĠ": 2331,
      "kÃłĠ": 2332,
      "edĠbyĠ": 2333,
      "LesĠ": 2334,
      "yáº¹Ġ": 2335,
      "Ãī": 2336,
      "At": 2337,
      "ĠáĬ¥áĪµáĬ¨Ġ": 2338,
      "beĠ": 2339,
      "áĭŃáĭĪ": 2340,
      "áīµáį¢": 2341,
      "Ãł,Ġ": 2342,
      "Shugab": 2343,
      "sĠofĠ": 2344,
      "sehem": 2345,
      "ras": 2346,
      "aĠkanĠ": 2347,
      "á»įÌģkas": 2348,
      "áįĥ": 2349,
      "áīĦ": 2350,
      "adeĠ": 2351,
      "áĬķáĮįáĪĬáĭĿáĬĽ": 2352,
      "wÃ¡Ġ": 2353,
      "Ãłm": 2354,
      "pel": 2355,
      "Ã¨t": 2356,
      "wandaĠyaĠ": 2357,
      "ert": 2358,
      "wasanĠÆĻwallonĠÆĻafaĠtaĠ": 2359,
      "ishĠ": 2360,
      "igb": 2361,
      "kuf": 2362,
      "áĬķĠáĭŃ": 2363,
      "Ã¬r": 2364,
      "áīĨáĮ£áĮłáĪŃ": 2365,
      "kaĠ": 2366,
      "jiĠ": 2367,
      "odaĠ": 2368,
      "Pro": 2369,
      "Ãºr": 2370,
      "uĠ(": 2371,
      "uv": 2372,
      ")Ġ(": 2373,
      "onn": 2374,
      "port": 2375,
      "daĠakaĠ": 2376,
      "col": 2377,
      "áĭįáį¢": 2378,
      "pol": 2379,
      "ĠáĪ½": 2380,
      "Ã¬m": 2381,
      "obaĠ": 2382,
      "oĠvyaĠ": 2383,
      "áĪµáī³": 2384,
      "ĠâĢľ": 2385,
      "Ken": 2386,
      "dab": 2387,
      "gam": 2388,
      "ajiĠwaĠ": 2389,
      "ajalisarĠ": 2390,
      "ra": 2391,
      "tp": 2392,
      "wasanĠÆĻwallonĠÆĻafaĠtaĠÆĻasarĠ": 2393,
      "Ãłw": 2394,
      "ĠáĬłáĪŃ": 2395,
      "páº¹ÌĢlÃºĠ": 2396,
      "Ġáī¦áī³": 2397,
      "áī¥áĪ«": 2398,
      "eth": 2399,
      "gáº¹Ìģgáº¹ÌģĠ": 2400,
      "ect": 2401,
      "//": 2402,
      "áĮģ": 2403,
      "Cl": 2404,
      "áĮįáĭļáĬłáī¥": 2405,
      "Ġáº¹gb": 2406,
      "otoĠ": 2407,
      "8.": 2408,
      "kamaĠ": 2409,
      "ungiyarĠ": 2410,
      "Ph": 2411,
      "arĠm": 2412,
      "an-": 2413,
      "ĠáĬĲáīłáĪ©": 2414,
      "gin": 2415,
      "pin": 2416,
      "ani.": 2417,
      "iya": 2418,
      "áĬŀáī½": 2419,
      "tun": 2420,
      "Ġáī°áī¥": 2421,
      "Aw": 2422,
      "itsĠ": 2423,
      "outĠ": 2424,
      "Amurk": 2425,
      "aĠkatikaĠ": 2426,
      "ialĠ": 2427,
      "akwaiĠ": 2428,
      "áĪµáĬĵ": 2429,
      "áĭ¬": 2430,
      "ofinĠ": 2431,
      "wakeĠ": 2432,
      "ten": 2433,
      "áĮĨáī½": 2434,
      "Ġáĭ¨áīĢ": 2435,
      "yanz": 2436,
      "kÃ©": 2437,
      "áĪ³áīµ": 2438,
      "Tur": 2439,
      "oisĠ": 2440,
      "Im": 2441,
      "áĪŃáĪµáī²áĭ«áĬķ": 2442,
      "ilÃ©Ġ": 2443,
      "ba": 2444,
      "Ġáīħáĭ±áĪµ": 2445,
      "Gre": 2446,
      "http": 2447,
      "ki": 2448,
      "baĠdaĠ": 2449,
      "qu'": 2450,
      "loĠ": 2451,
      "áĭķáĪ«": 2452,
      "sannanĠ": 2453,
      "ativ": 2454,
      "jin": 2455,
      "://": 2456,
      "AĠcikinĠ": 2457,
      "shineĠ": 2458,
      "Af": 2459,
      "gbogb": 2460,
      "ká»į": 2461,
      "anĠhaifeĠshiĠ": 2462,
      "áĪµáĪ«": 2463,
      "Ġ(BaadaĠyaĠKristo).ĠMatukioĠWaliozaliwaĠ": 2464,
      "autarĠ": 2465,
      "Feb": 2466,
      "bas": 2467,
      "ĠáĭŃáĮĪáĬĽ": 2468,
      "olÃ¹": 2469,
      "Are": 2470,
      "³áĪµ": 2471,
      "ele": 2472,
      "ne": 2473,
      "Nor": 2474,
      "Ġáĭĵ/áĪĿĠ-": 2475,
      "áĮįáĭļáĬłáī¥áĪĶáĪŃ": 2476,
      "euxĠ": 2477,
      "áĭ¶áī½": 2478,
      "biyuĠ": 2479,
      "ĠáĪ¨": 2480,
      "pamojaĠnaĠ": 2481,
      "raph": 2482,
      "ĠáĪĿáĬŃáĬķáĭ«": 2483,
      "umm": 2484,
      "je": 2485,
      "ĠáĬ¨áĪĺ": 2486,
      "áĪº": 2487,
      "áī£áĪĪáĭį": 2488,
      "ĠáĬłáĪī": 2489,
      "iraĠ": 2490,
      "ĠáīłáĭļáĪħ": 2491,
      "Ġá»įmá»į": 2492,
      "Sept": 2493,
      "finĠ": 2494,
      "%Ġ": 2495,
      "igh": 2496,
      "Ay": 2497,
      "sÃ¡": 2498,
      "áĮ¥áĬķ": 2499,
      "áĮ£áĪį": 2500,
      "Histor": 2501,
      "\",Ġ": 2502,
      "Lag": 2503,
      "acceĠ": 2504,
      "itedĠ": 2505,
      "Austr": 2506,
      "TanzaniaĠ": 2507,
      "lâĢĻ": 2508,
      "Haus": 2509,
      "shugabanĠ": 2510,
      "áī¤áīµ": 2511,
      "áĬķáĬķ": 2512,
      "uli": 2513,
      "iaĠyaĠ": 2514,
      "Bar": 2515,
      "Ġáĭ¨áĭĪ": 2516,
      "eursĠ": 2517,
      "LaĠ": 2518,
      "alam": 2519,
      "'Ġ": 2520,
      "bo": 2521,
      "áĮĪáĬĵ": 2522,
      "Ġáº¸": 2523,
      "unĠm": 2524,
      "al-": 2525,
      "ahaif": 2526,
      "áĮįáĪ«": 2527,
      "zab": 2528,
      "Om": 2529,
      "Sp": 2530,
      "idĠ": 2531,
      "áĮĪáī£": 2532,
      "áĬŃáīµ": 2533,
      "Fas": 2534,
      "Nai": 2535,
      "atifuĠ": 2536,
      "Muhamm": 2537,
      "rik": 2538,
      "esĠdeĠ": 2539,
      "kumaĠtaĠ": 2540,
      "yĠofĠ": 2541,
      "oĠdaĠ": 2542,
      "essĠ": 2543,
      "Ġáĭ¨áĬĲáīłáĪ¨": 2544,
      "Ma": 2545,
      "zaid": 2546,
      "itu": 2547,
      "the": 2548,
      "áĬĴáĭ«": 2549,
      "Jami'arĠ": 2550,
      "riĠ": 2551,
      "ĠáĬŃáįįáĪį": 2552,
      "ĠáĬ¥.áĬ¤.áĬł.": 2553,
      "Febru": 2554,
      "9,Ġ": 2555,
      "RD": 2556,
      "áĬĸáĪŃ": 2557,
      "oneĠ": 2558,
      "áī³áĭŃ": 2559,
      "JohnĠ": 2560,
      "tÃłbÃŃĠ": 2561,
      "ukoĠ": 2562,
      "aĠK": 2563,
      "act": 2564,
      "áĪľáĬķ": 2565,
      "11": 2566,
      "sc": 2567,
      "yĠ(": 2568,
      "Ġáĭ²": 2569,
      "ĠáĭŃáī£": 2570,
      "Intern": 2571,
      "gbÃ¡": 2572,
      "lec": 2573,
      "ĠáĬłáĬ«áī£áī¢": 2574,
      "leg": 2575,
      "kamarĠ": 2576,
      "ĠáĪŃ": 2577,
      "jiĠm": 2578,
      "áĪĪáī°": 2579,
      "wanzaĠ": 2580,
      "50": 2581,
      "5)Ġ": 2582,
      "kup": 2583,
      "áĪ«áĪį": 2584,
      "Ġáįĸ": 2585,
      "ĠáĬ¥áĬķáĮį": 2586,
      "iĠkwaĠ": 2587,
      "anj": 2588,
      "atedĠ": 2589,
      "áĮ½áĪĲáįį": 2590,
      "itionĠ": 2591,
      "emp": 2592,
      "ym": 2593,
      "9.": 2594,
      "Og": 2595,
      "Kat": 2596,
      "aikinĠ": 2597,
      "adar": 2598,
      "áĭ°áĪ¨áĮĪ": 2599,
      "aĠkas": 2600,
      "Ang": 2601,
      "wah": 2602,
      "ograph": 2603,
      "áĮĪáĬķ": 2604,
      "lor": 2605,
      "Ã©,Ġ": 2606,
      "Jap": 2607,
      "May": 2608,
      "Ġ/": 2609,
      "eĠnaĠ": 2610,
      "gbaj": 2611,
      "woĠ": 2612,
      "áī£áĭŃ": 2613,
      "bur": 2614,
      "fÃŃ": 2615,
      "iaĠm": 2616,
      "amil": 2617,
      "kil": 2618,
      "treĠ": 2619,
      "adiĠ": 2620,
      "ĠáĬłáīĨáĮ£áĮłáĪŃ": 2621,
      "ukanĠ": 2622,
      "Ãłd": 2623,
      "aÉĹ": 2624,
      "zil": 2625,
      "á»Į": 2626,
      "áĮłáīĥ": 2627,
      "áĪŃáĭĿ": 2628,
      "áĪįáīħ": 2629,
      "ĠáĮįáĭĽáīµ": 2630,
      "áīĢáĪŃ": 2631,
      "egbeĠ": 2632,
      "chiĠ": 2633,
      "Pe": 2634,
      "gwamn": 2635,
      "áĬķáį¡": 2636,
      "áĭµáĪ¨": 2637,
      "áįĪáĪŃ": 2638,
      "áĬķáĮĭ": 2639,
      "ĠáĬłáĬķáĭ±": 2640,
      "yad": 2641,
      "áĮĪáĪĪ": 2642,
      "áįĢ": 2643,
      "Ġá»ĮÌĢ": 2644,
      "ĠáĬ¥áĭ«": 2645,
      "dÃºnĠ": 2646,
      "oph": 2647,
      "áĭµáĪŀ": 2648,
      "Ã¬bÃŃĠ": 2649,
      "hadiĠ": 2650,
      "bug": 2651,
      "akarĠ": 2652,
      "Qu": 2653,
      "nom": 2654,
      "áĮİáĪŃ": 2655,
      "rah": 2656,
      "yp": 2657,
      "eurĠ": 2658,
      "áī³áĪį": 2659,
      "ohunĠ": 2660,
      "is,Ġ": 2661,
      "áīµáĪŃ": 2662,
      "daĠd": 2663,
      "eleĠ": 2664,
      "ĠáĬ¨áī°áĪŀáī½": 2665,
      "Viung": 2666,
      "áį£ĠáĬ¨": 2667,
      "langu": 2668,
      "Bl": 2669,
      "ÃłĠlaĠ": 2670,
      "ith": 2671,
      "áĭ°áīµ": 2672,
      "ĠáĬĥáĭŃ": 2673,
      "ĠáĬłáĪĭ": 2674,
      "âĢİ": 2675,
      "School": 2676,
      "ĠáĬ¥áĬķáĭ°áĪļ": 2677,
      "ĠáĪ¶": 2678,
      "áĭŃáĬĵ": 2679,
      "mus": 2680,
      "jerum": 2681,
      "áī¥áĪµ": 2682,
      "ViungoĠvyaĠ": 2683,
      "bayaĠ": 2684,
      "wur": 2685,
      "ionsĠ": 2686,
      "wacceĠ": 2687,
      "whichĠ": 2688,
      "astĠ": 2689,
      "ĠáĪĽáĪŃ": 2690,
      "lakiniĠ": 2691,
      "áĬĺ": 2692,
      "ciĠgab": 2693,
      "Ãłká»įÌģ": 2694,
      "shekaruĠ": 2695,
      "cul": 2696,
      "-ĠM": 2697,
      "wo": 2698,
      "tsakaninĠ": 2699,
      "áĪĽáĬĸ": 2700,
      "aĠkar": 2701,
      "Naijir": 2702,
      "Gh": 2703,
      "ĠáĪģáĪĪáīµ": 2704,
      "áīµĠáĬ¨": 2705,
      "lÃ¡Ġ": 2706,
      "dÃŃ": 2707,
      "ĠáĭŃáī½": 2708,
      "ashiĠ": 2709,
      "áĪ°áĪ«": 2710,
      "utuĠ": 2711,
      "oĠch": 2712,
      "kur": 2713,
      "nÃŃgbÃłĠ": 2714,
      "áĪĳ": 2715,
      "IlĠ": 2716,
      "Ã´": 2717,
      "áĪĪáĭ«áĭ©": 2718,
      "ĠáĭĺáĪĺ": 2719,
      "Fil": 2720,
      "áĪı": 2721,
      "cons": 2722,
      "áĬ¬": 2723,
      "áĭĸ": 2724,
      "andĠtheĠ": 2725,
      "Ġáī´": 2726,
      "áĬŃáĪµ": 2727,
      "IS": 2728,
      "oĠh": 2729,
      "ihiĠ": 2730,
      "áį¦Ġ": 2731,
      "NigeriaĠ": 2732,
      "ingerezaĠ": 2733,
      "ká»įÌģ": 2734,
      "ĠáĪ¸": 2735,
      "imuĠ": 2736,
      "Des": 2737,
      "oĠlaĠ": 2738,
      "ĠáĪĿáĬķáĮ": 2739,
      "ĠáĭĺáĪĺáĬĲ": 2740,
      "Ġáĭ©": 2741,
      "báº¹ÌĢráº¹ÌĢĠ": 2742,
      "Mag": 2743,
      "Wor": 2744,
      "uch": 2745,
      "nchiniĠ": 2746,
      "Pol": 2747,
      "amfaninĠ": 2748,
      "alikuwaĠm": 2749,
      "cour": 2750,
      "YorÃ¹": 2751,
      "Kis": 2752,
      "Ur": 2753,
      "Ã¬gbÃł": 2754,
      "watuĠ": 2755,
      "orn": 2756,
      "odunĠ": 2757,
      "iceĠ": 2758,
      "ĠáĬłáīłáī£": 2759,
      "eseĠ": 2760,
      "ĠáĪĮáĪĭ": 2761,
      "cinĠ": 2762,
      "allĠ": 2763,
      "ItokasiĠÃĢwá»įnĠ": 2764,
      "áĭ¨áīµ": 2765,
      "4)Ġ": 2766,
      "ongĠ": 2767,
      "ĠáĭĪáīħ": 2768,
      "ÆĻas": 2769,
      "áĪĪáĭŃ": 2770,
      "ort": 2771,
      "kam": 2772,
      "kuuĠwaĠ": 2773,
      "niĠÃ³Ġ": 2774,
      "(200": 2775,
      "aĠy": 2776,
      "jinaĠ": 2777,
      "vit": 2778,
      "ÃłrÃ¹nĠ": 2779,
      "katikaĠm": 2780,
      "Ã©d": 2781,
      "³áį": 2782,
      "Wá»įÌģnĠ": 2783,
      "áĪĿáĪŃ": 2784,
      "BayanĠ": 2785,
      "wá»įÌģ": 2786,
      "áĪĺáĪ¨": 2787,
      "ÃłĠl'": 2788,
      "Itokasi": 2789,
      "ainĠ": 2790,
      "áī±áĪĿ": 2791,
      "ubaĠ": 2792,
      "aneĠ": 2793,
      "áĭ°áĪį": 2794,
      "ĠáĬ¥áĬĵĠáĭ¨": 2795,
      "Bur": 2796,
      "emiĠ": 2797,
      "Ã¨yÃŃĠ": 2798,
      "Hu": 2799,
      "ĠáĮ¦áĪŃáĬĲáīµ": 2800,
      "áĪįáĮį": 2801,
      "tÃ³": 2802,
      "ĠáĪĥáĭŃ": 2803,
      "áĮįáī£": 2804,
      "mul": 2805,
      "ar.": 2806,
      "áĪªáĬ«áĭĬ": 2807,
      "Car": 2808,
      "Ul": 2809,
      "laf": 2810,
      "Ġá»įdunĠ": 2811,
      "áīµĠáĬł": 2812,
      "hanyarĠ": 2813,
      "ĠáĭĵáĪĺáī³áīµ": 2814,
      "Will": 2815,
      "ilayaĠ": 2816,
      "áĪŃáĪĺáĬķ": 2817,
      "o.Ġ": 2818,
      "allyĠ": 2819,
      "kaw": 2820,
      "Ġáĭ¨áĪĺáĮĢáĪĺáĪªáĭ«": 2821,
      "ĠáĪµáĪ«": 2822,
      "wasanĠÆĻwallonĠÆĻafaĠtaĠÆĻasarĠIngil": 2823,
      "Eng": 2824,
      "iyyarĠ": 2825,
      "máº¹Ìģ": 2826,
      "fer": 2827,
      "arenĠ": 2828,
      "Id": 2829,
      "Sc": 2830,
      "ĠáĬłáĪ¨": 2831,
      "6)Ġ": 2832,
      "ĠáĪµáĪŃ": 2833,
      "Was": 2834,
      "áĪĲáĬķáĪµ": 2835,
      "7)Ġ": 2836,
      "ĠáĬłáĭŃáĬĲáīµ": 2837,
      "áĮłáĪ¨": 2838,
      "daĠtaĠ": 2839,
      "ĠáĪ²áĭ«": 2840,
      "Us": 2841,
      "dis": 2842,
      "gar": 2843,
      "lam": 2844,
      "ĠáĬĲáīłáĪ¨áį¢": 2845,
      "aliaĠ": 2846,
      "haÉĹ": 2847,
      "Ujerum": 2848,
      "Sal": 2849,
      "ingĠtheĠ": 2850,
      "áĪŃáĭµ": 2851,
      "áĭįĠáīł": 2852,
      "áĪĭáĪĪ": 2853,
      "áīłáī¥": 2854,
      ".ĠMan": 2855,
      "BabbanĠ": 2856,
      "iyoĠ": 2857,
      "áĭ®áĬķ": 2858,
      "ĠáĭŃáī³": 2859,
      "EnĠ": 2860,
      "ĠáĭĽ": 2861,
      "áĪįáĭµ": 2862,
      "Bo": 2863,
      "tob": 2864,
      "uaĠ": 2865,
      "10Ġ": 2866,
      "iĠniĠ": 2867,
      "Ã¡nĠ": 2868,
      "amfaniĠdaĠ": 2869,
      "soci": 2870,
      "áĭĵáĪĪáĪĿ": 2871,
      "Leg": 2872,
      "atinĠ": 2873,
      "Fran": 2874,
      "niĠnaĠ": 2875,
      "187": 2876,
      "okac": 2877,
      "tsoh": 2878,
      "Ġáį²áį±áį»áį": 2879,
      "áĭįáĪ®áįĵ": 2880,
      "esĠetĠ": 2881,
      "Ìģ": 2882,
      "|ĠRD": 2883,
      "áĪĿáį¡": 2884,
      "aÆĻ": 2885,
      "DagaĠ": 2886,
      "edĠtoĠ": 2887,
      "ĠáĬ¥áĪŃ": 2888,
      "áįįáĪ«": 2889,
      "i,Ġm": 2890,
      "áĬĲáĮĪáĪŃ": 2891,
      "rec": 2892,
      "http://": 2893,
      "ĠáĪłáĪ": 2894,
      "ai,Ġ": 2895,
      "2-": 2896,
      "já»įÌģĠ": 2897,
      "Farans": 2898,
      "19Ġ": 2899,
      "ĠáĬĲáĮĪáĪ¥áī³áīµ": 2900,
      "NijeriyaĠ": 2901,
      "ĠáĭĪáĪŃ": 2902,
      "ĠáĪĽáĪµ": 2903,
      "ashar": 2904,
      "itaĠceĠ": 2905,
      "áĭĮ": 2906,
      "ĠáĪĮáĪİáī½": 2907,
      "tobaĠ": 2908,
      "elop": 2909,
      "Najeriya.": 2910,
      "wÃ²Ġ": 2911,
      "ĠáĬ³áĪµ": 2912,
      "ireĠ": 2913,
      "áĮĢáĪĺáĪŃáĭ«": 2914,
      "Ġá»įjá»įÌģÃ¬bÃŃĠ": 2915,
      "iniĠyaĠ": 2916,
      "daĠk": 2917,
      "Afric": 2918,
      "Georg": 2919,
      "weĠ": 2920,
      "áĪĭáĪĿ": 2921,
      "Ġáº¹ÌĢká»įÌģĠ": 2922,
      "Mon": 2923,
      "usuĠ": 2924,
      "alif": 2925,
      "ĠáĬ¥áĮħ": 2926,
      "tal": 2927,
      "out": 2928,
      "áīµáį£": 2929,
      "ĠáĬ©": 2930,
      "kÃ²": 2931,
      "kungiyarĠ": 2932,
      "ech": 2933,
      "186": 2934,
      "serv": 2935,
      "atarĠdaĠ": 2936,
      "áº¹l": 2937,
      "3)Ġ": 2938,
      "Musul": 2939,
      "okinĠ": 2940,
      "commeĠ": 2941,
      "aĠzaĠ": 2942,
      "Gab": 2943,
      "aá¹£": 2944,
      "ĠáĪįáĭ©": 2945,
      "ĠáĪĽáĪĪáīµĠáĬĲáĭįáį¢": 2946,
      "áĪªáĭİáī½": 2947,
      "vol": 2948,
      "kumaĠm": 2949,
      "ĠáĪĿáĭµáĪŃ": 2950,
      "Ã¬wÃ©Ġ": 2951,
      "áīłáĪĭ": 2952,
      "áĬĵĠáĭ¨": 2953,
      "ine": 2954,
      "Ã¬s": 2955,
      "WaliofarikiĠKarneĠyaĠ": 2956,
      "®áī½": 2957,
      "iya.Ġ": 2958,
      "jag": 2959,
      "Kas": 2960,
      "cent": 2961,
      "áįĪáĪ¨áĬķ": 2962,
      "áĭ°áī¡áī¥": 2963,
      "ginĠ": 2964,
      "aĠkat": 2965,
      "Mas": 2966,
      "pad": 2967,
      "aveĠ": 2968,
      "owoĠ": 2969,
      "Ãģ": 2970,
      "azart": 2971,
      "áĪµáĪĪ": 2972,
      "áĮ£áĪĿ": 2973,
      "ilit": 2974,
      "enn": 2975,
      "sabodaĠ": 2976,
      "OktobaĠ": 2977,
      "iveĠ": 2978,
      "áī¶áĪµ": 2979,
      "eeĠ": 2980,
      "jih": 2981,
      "ĠáĭķáĪĪáīµ": 2982,
      "esĠ(": 2983,
      "ownĠ": 2984,
      ",ĠmshindiĠwaĠTuzoĠyaĠNobelĠyaĠ": 2985,
      "áĬ¨áĭļáĪħ": 2986,
      "ĠáĪĿáĬķ": 2987,
      "ogoĠ": 2988,
      "Ts": 2989,
      "utanenĠ": 2990,
      "sá»įĠ": 2991,
      "jÃ¹": 2992,
      "áī²áĬ«": 2993,
      "Ã®": 2994,
      "Min": 2995,
      "trans": 2996,
      "upandeĠ": 2997,
      "samiĠ": 2998,
      "áĬĵĠáīł": 2999,
      "zaĠm": 3000,
      "Ã¨gb": 3001,
      "ĠáĬłáĭį": 3002,
      "ĠáĭĻ": 3003,
      "Ġáĭľ": 3004,
      "áĭİáĪµ": 3005,
      "gbogboĠ": 3006,
      "For": 3007,
      "karatunĠ": 3008,
      "áĭ²áĪµĠáĬłáīłáī£": 3009,
      "jáº¹": 3010,
      "enyeĠ": 3011,
      "Agb": 3012,
      "áĭ«áĭį": 3013,
      "áīĢáīµ": 3014,
      "áĮ¨áĪĽáĪª": 3015,
      "dÃ¡Ġ": 3016,
      "ayÃ©Ġ": 3017,
      "25": 3018,
      "Ùħ": 3019,
      "garinĠ": 3020,
      "iyaĠtaĠ": 3021,
      "ack": 3022,
      "tim": 3023,
      "tareheĠ": 3024,
      "omin": 3025,
      "áĭĪáĭ°": 3026,
      "e,Ġm": 3027,
      "kunĠ": 3028,
      "tanaĠdaĠ": 3029,
      "entsĠ": 3030,
      "oroĠ": 3031,
      "s'": 3032,
      "njeĠ": 3033,
      "áĮ¢": 3034,
      "iĠkatikaĠ": 3035,
      "30": 3036,
      "lÃ³Ġ": 3037,
      "ĠáĪĽáĭķ": 3038,
      "Eur": 3039,
      "áĬ¨áĪĪ": 3040,
      "iyyaĠ": 3041,
      "Ġ-Ġ": 3042,
      "1)Ġ": 3043,
      "sur": 3044,
      "áĪĭáīħ": 3045,
      "bar": 3046,
      "wajenĠ": 3047,
      ",000Ġ": 3048,
      "láº¹ÌĢĠÃ¨dÃ¨Ġ": 3049,
      "imm": 3050,
      "lÃ³rÃŃĠ": 3051,
      "lamb": 3052,
      "Ban": 3053,
      "jÃ¡Ġ": 3054,
      "áĪ¹": 3055,
      "ĠáĬ¨áįįáī°áĬĽ": 3056,
      "pá»įÌĢ": 3057,
      "Tanzani": 3058,
      "Franc": 3059,
      "Ġ4": 3060,
      "cont": 3061,
      "ayoĠ": 3062,
      "iakaĠ": 3063,
      "premi": 3064,
      "taĠyiĠ": 3065,
      "aĠÅĦĠ": 3066,
      "áĪĭáĭĬ": 3067,
      "akarantarĠ": 3068,
      "ĠáīĥáĪį": 3069,
      "ayarĠ": 3070,
      "duc": 3071,
      "aĠS": 3072,
      "áī«": 3073,
      "Ġáī¥áĪİ": 3074,
      "áĪĭáĬŃ": 3075,
      "idiĠ": 3076,
      "edĠtheĠ": 3077,
      "ĠáĬłáĪµáī°áĭ³": 3078,
      "Ġáīłáī¥": 3079,
      "áīłáĪį": 3080,
      "rin": 3081,
      "kumaĠyaĠ": 3082,
      "Ãºká»įĠ": 3083,
      "áĮįáĪŃĠáĬ³áĪµ": 3084,
      "tĠofĠ": 3085,
      "Me": 3086,
      "áĬ¢áīµáĭ®áĮµáĭ«": 3087,
      "áīłáĭļáĪħ": 3088,
      "ĠáĭĭáĬĵĠáĬ¨áī°áĪĽ": 3089,
      "ĠofĠ": 3090,
      "Ã©c": 3091,
      "wá»įÌģĠ": 3092,
      "Ã¬dÃ¬": 3093,
      "áīĢáĪĺ": 3094,
      "ett": 3095,
      "ĠáīµáĪĿáĪħáĪŃáīµ": 3096,
      "uleĠ": 3097,
      "de": 3098,
      "ound": 3099,
      "áī¨": 3100,
      "apoĠ": 3101,
      "Ġáī£áĪħ": 3102,
      "cesĠ": 3103,
      "áīµĠáį": 3104,
      "aĠc": 3105,
      "fur": 3106,
      "sunanĠ": 3107,
      "Ġá»įjá»įÌģÃ¬bÃŃĠnÃŃĠ": 3108,
      "ĠáĪĪáĪĿ": 3109,
      "Ġáī°áĪ«": 3110,
      "iyanĠ": 3111,
      "azarta": 3112,
      "ableĠ": 3113,
      "áĪĬáĭ«": 3114,
      "Ġá»įdÃºnĠ201": 3115,
      "Kam": 3116,
      "'yanĠ": 3117,
      "Ap": 3118,
      "ĠáĬłáĪ«": 3119,
      "áĭ®áī½": 3120,
      "wakaziĠ": 3121,
      "kim": 3122,
      "áĭ°áĪĿ": 3123,
      "anaĠdaĠ": 3124,
      "nchiĠyaĠ": 3125,
      "shiry": 3126,
      "Marekani": 3127,
      "áįĮ": 3128,
      "ijiĠ": 3129,
      "vil": 3130,
      "áĬĵĠáĪĺ": 3131,
      "ipaĠ": 3132,
      "reg": 3133,
      "zaĠk": 3134,
      "aduĠ": 3135,
      "wadandaĠ": 3136,
      "áīĢáĭį": 3137,
      "ian": 3138,
      "UnitedĠ": 3139,
      "Ġáĭ¨áĮį": 3140,
      "Kad": 3141,
      "i:Ġ": 3142,
      "samunĠ": 3143,
      "2)Ġ": 3144,
      "Ob": 3145,
      "wÃ©Ġ": 3146,
      "Ġ(áĬ¨": 3147,
      "L'": 3148,
      "awal": 3149,
      "Kus": 3150,
      "ric": 3151,
      "tonĠ": 3152,
      "Ġáĭ®áĪĲáĬķáĪµ": 3153,
      "ĠáĪĦ": 3154,
      "Ãłt": 3155,
      "áįįáĪªáĬ«": 3156,
      "Re": 3157,
      "roup": 3158,
      "pop": 3159,
      "alit": 3160,
      "áĭĪáĮ£": 3161,
      "báº¹Ìģ": 3162,
      "atiĠwaĠ": 3163,
      "oĠtaĠ": 3164,
      "prÃ©s": 3165,
      "du": 3166,
      "ikeĠ": 3167,
      "\"Ġ(": 3168,
      "oke": 3169,
      "Ã¨rÃ©Ġ": 3170,
      "en,Ġ": 3171,
      "lÃŃ": 3172,
      "landĠ": 3173,
      "ky": 3174,
      "takeĠ": 3175,
      "orsĠ": 3176,
      "odeĠ": 3177,
      "erĠ(": 3178,
      "oreĠ": 3179,
      "áīłáĪ«": 3180,
      "8)Ġ": 3181,
      "áĮĬáĭľ": 3182,
      "itiĠ": 3183,
      "Tang": 3184,
      "Brit": 3185,
      "VĠ": 3186,
      "ush": 3187,
      "Æĺ": 3188,
      "err": 3189,
      "Ġ(áĬ¥": 3190,
      "ĠáĬłáĪĽ": 3191,
      "rá»įÌĢĠ": 3192,
      "kÃ©k": 3193,
      "owĠ": 3194,
      ".ĠÃĢwá»įnĠ": 3195,
      "Ã²á¹£Ã¨": 3196,
      "Ah": 3197,
      "Ġáī¥áĪŃ": 3198,
      "dauk": 3199,
      "omiĠ": 3200,
      "áī³áĭį": 3201,
      "uuĠ": 3202,
      "Ij": 3203,
      "etteĠ": 3204,
      "inter": 3205,
      "azin": 3206,
      "NiĠ": 3207,
      "ĠáĭŃáī³áĭĪ": 3208,
      "Ã¬nrinĠ": 3209,
      "Ġáº¹gbáº¹ÌģĠ": 3210,
      "erg": 3211,
      "lÃ³g": 3212,
      "kwall": 3213,
      "áīłáī°": 3214,
      "i)Ġ": 3215,
      "áĬĸáĪµ": 3216,
      "heĠ": 3217,
      "áĪ³áĭĬ": 3218,
      "yÃŃ": 3219,
      "ĠáĬ¨áĪļ": 3220,
      "áĬķáī²": 3221,
      "áĪĿáį£": 3222,
      "ĠáĪ¥áĪ«": 3223,
      "lex": 3224,
      "Kud": 3225,
      "Mad": 3226,
      "YanĠ": 3227,
      "he": 3228,
      "Ġ(áĭ¨": 3229,
      "Lond": 3230,
      "Itali": 3231,
      "nunaĠ": 3232,
      ")Ġáĭ¨": 3233,
      "Eb": 3234,
      "Oro": 3235,
      "balimb": 3236,
      "ĠáĬ£": 3237,
      "us,Ġ": 3238,
      "mag": 3239,
      "ham": 3240,
      "Ã¢": 3241,
      "asil": 3242,
      "áĪ«áĪ±": 3243,
      "ogunĠ": 3244,
      "histor": 3245,
      "ars": 3246,
      "If": 3247,
      "osh": 3248,
      "áĮĪáĪ©": 3249,
      "Willi": 3250,
      "Worl": 3251,
      "21": 3252,
      "áĪ³áī¥": 3253,
      "hiv": 3254,
      "áī£áī¸áĭį": 3255,
      "Ġáį¡áį¡": 3256,
      "ĠáĬ¥áĬķáĭ²áĪģáĪĿ": 3257,
      "azamaĠ": 3258,
      "Ã¨gbÃ¨Ġ": 3259,
      "butĠ": 3260,
      "23": 3261,
      "car": 3262,
      "ĠáīĭáĬķáīĭáĭİáī½": 3263,
      "aireĠ": 3264,
      "Jamhur": 3265,
      "]Ġ": 3266,
      "iop": 3267,
      "ys": 3268,
      "áĭĪáĪ°": 3269,
      "endele": 3270,
      "aka": 3271,
      "áº¹ÌĢká»įÌģĠ": 3272,
      "say": 3273,
      "áĭĲ": 3274,
      "ĠØ": 3275,
      "yanzuĠ": 3276,
      "Pl": 3277,
      "Char": 3278,
      "anzaĠ": 3279,
      "Ã©tÃ©Ġ": 3280,
      "ristoĠ": 3281,
      "kafinĠ": 3282,
      "nÃŃĠÃ¬": 3283,
      "Ã¬já»įbaĠ": 3284,
      "ĠáĪ±": 3285,
      "ĠáĬłáĪľáĪªáĬ«": 3286,
      "Di": 3287,
      "Ann": 3288,
      "áĭŃáĬķ": 3289,
      "wereĠ": 3290,
      "Ã³nĠ": 3291,
      "Bab": 3292,
      "Ġáĭ¨áĪħ": 3293,
      "samarĠdaĠ": 3294,
      "ananĠhukum": 3295,
      "isp": 3296,
      "áĪįáĪµ": 3297,
      "ĠáĬ¨áĭļáĭ«": 3298,
      "Ġáĭ°áĪ¨áĮĥ": 3299,
      "Jos": 3300,
      "yawaĠ": 3301,
      "ĠáĪª": 3302,
      ",ĠandĠ": 3303,
      "áĬĸáĪ©": 3304,
      "ĠáĭĪáĬķáĭµ": 3305,
      "litt": 3306,
      "Ġáĭ¶": 3307,
      "resĠ": 3308,
      "Wan": 3309,
      "áįĪáĭį": 3310,
      "Paul": 3311,
      "ĠáĪĺáĮł": 3312,
      "30Ġ": 3313,
      "inay": 3314,
      "gudan": 3315,
      "ani,Ġ": 3316,
      "er.": 3317,
      "ĠáĪĪáĬł": 3318,
      "edĠinĠ": 3319,
      "farans": 3320,
      "Ãłti": 3321,
      "ĠáĬłáĭµáĪŃ": 3322,
      "wÃŃ": 3323,
      "ull": 3324,
      "unc": 3325,
      "ukaĠ": 3326,
      "enti": 3327,
      "Ç¹": 3328,
      "yab": 3329,
      "Ġáī½": 3330,
      "And": 3331,
      "ingerez": 3332,
      "LÃ¡": 3333,
      "aoĠ": 3334,
      "ĠáĪĺáĪ°": 3335,
      "gbá»įÌģnĠ": 3336,
      "áīĥáĪµ": 3337,
      "bÃŃiĠ": 3338,
      "San": 3339,
      "Ġáĭ¨áĬ¤": 3340,
      "mas": 3341,
      "áĪ¬áīµ": 3342,
      "15Ġ": 3343,
      "ĠáĪĨáĬĲáį¢": 3344,
      "Orodh": 3345,
      "yamm": 3346,
      "Ġáĭ«áĪµ": 3347,
      "Kik": 3348,
      "n.": 3349,
      "ÙĬ": 3350,
      "áįĭáīµ": 3351,
      "Mis": 3352,
      "áĬĻ": 3353,
      "áĪĬáĬŃ": 3354,
      "ĠáĪ¥áĬĲ": 3355,
      "iusĠ": 3356,
      "áįĲ": 3357,
      "embaĠ-Ġ": 3358,
      "/Ġ": 3359,
      "sĠdeĠ": 3360,
      "ÃłÃ¡": 3361,
      "ĠáĭĵáĬŃáĪįáīł.ĠáĮį": 3362,
      "km": 3363,
      "tarih": 3364,
      "as,Ġ": 3365,
      "Ġáī°áī¥áĪİ": 3366,
      "áįįáīµ": 3367,
      "Oc": 3368,
      "och": 3369,
      "12Ġ": 3370,
      "áĪŃáĪµáī¶áĪµ": 3371,
      "Kim": 3372,
      "kund": 3373,
      "áĬķáį£": 3374,
      "dÃ©Ġ": 3375,
      "icsĠ": 3376,
      "áĭĪáĪĪ": 3377,
      "ostĠ": 3378,
      "ĠáĭĪáĬķáĭĿ": 3379,
      "Lib": 3380,
      "samaĠ": 3381,
      "zaiĠ": 3382,
      "Najeriya,Ġ": 3383,
      "Abd": 3384,
      "áĪĿáĬĲáīµ": 3385,
      "yÃ©Ġ": 3386,
      "bin": 3387,
      "lokac": 3388,
      "kÃ©kerÃ©Ġ": 3389,
      "Ġáº¹láº¹Ìģ": 3390,
      "ĠdinĠ": 3391,
      "ĠáĭĿáĪŃáĭĿ": 3392,
      "ene": 3393,
      "ĠáīłáīĢ": 3394,
      "2020": 3395,
      "áĭĭáīĤ": 3396,
      "sesĠ": 3397,
      "ĠáĮŃ": 3398,
      "gameĠdaĠ": 3399,
      "Ãłp": 3400,
      "ilaĠ": 3401,
      "ĠáĪįáĮĨáī½": 3402,
      "NÃłÃ¬jÃŃrÃŃÃł.": 3403,
      "ĠáĬĲáīłáĪ©áį¢": 3404,
      "eralĠ": 3405,
      "áĪĽáīµ": 3406,
      "ĠáĬŃáįįáĪĪĠáĭĺáĪĺáĬķ": 3407,
      "lo": 3408,
      "áĪįáį£": 3409,
      "áĬĲáĭį": 3410,
      "já»į": 3411,
      "áĭĵáīµ": 3412,
      "ĠáīłáĮį": 3413,
      "Sou": 3414,
      "daĠyaĠ": 3415,
      "alementĠ": 3416,
      "Yun": 3417,
      "kuj": 3418,
      "ĠáĮ¥áīħáĪĿ": 3419,
      "Kir": 3420,
      "Yar": 3421,
      "9)Ġ": 3422,
      "taf": 3423,
      "áĭ°áĭį": 3424,
      "ĠáĮįáī¥": 3425,
      "á»įÌģkasÃŃĠ": 3426,
      "publ": 3427,
      "áīŃ": 3428,
      "ilis": 3429,
      "NewĠYor": 3430,
      "aĠjiharĠ": 3431,
      "contr": 3432,
      "áĮĪáĪ«": 3433,
      "iwaĠnaĠ": 3434,
      "Ġáĭ¨áĭį": 3435,
      "Ã©m": 3436,
      "2Ġáĭĵ.áĪĿ.": 3437,
      "Be": 3438,
      "áĪ¥áĪ«": 3439,
      "anĠhaifeĠshiĠaĠshekaraĠtaĠ": 3440,
      "Ipin": 3441,
      "nÃłĠ": 3442,
      "OrodhaĠyaĠ": 3443,
      "istanĠ": 3444,
      "áĭŃáīµ": 3445,
      "row": 3446,
      "cut": 3447,
      "lÃ¡n": 3448,
      "áĪĪáī²áĬ«": 3449,
      "taĠk": 3450,
      "quesĠ": 3451,
      "Ky": 3452,
      "áĪĺáīµ": 3453,
      "áº¹Ìģrá»įÌģ": 3454,
      "áĪ®áĪµ": 3455,
      "áĭŃáĭĪáīµ": 3456,
      "áĮłáīħ": 3457,
      "Ġáī¥áĪĶ": 3458,
      "ĠáĪĺáĬķáĮĪáĭµ": 3459,
      "ce,Ġ": 3460,
      "Ã¡st": 3461,
      "al,Ġ": 3462,
      "occ": 3463,
      "lughaĠyaĠ": 3464,
      "daĠsuk": 3465,
      "Ã¡stáº¹Ìģrá»įÌģ": 3466,
      "Ġáĭ¨áĬ¢": 3467,
      "ĠÂ«áĭ¨": 3468,
      "Igb": 3469,
      "ikaĠk": 3470,
      "áĪĺáĬĵáĭĬ": 3471,
      "gáº¹Ìģgáº¹ÌģĠbÃŃĠ": 3472,
      "Od": 3473,
      "áĪŁ": 3474,
      "On": 3475,
      "ĠáĪ®": 3476,
      "ojo": 3477,
      "áĪ½áĬķ": 3478,
      "ilip": 3479,
      ",000": 3480,
      "fas": 3481,
      "ĠáĮ¥áĬĵáīµ": 3482,
      "anis": 3483,
      "áĭĪáī½": 3484,
      "ĠáĮ¥áĬķ": 3485,
      "aâĢĻ": 3486,
      "pÃ¨Ġ": 3487,
      "ĠáĬłáĪģ": 3488,
      "sÃŃláº¹ÌĢĠ": 3489,
      "Dec": 3490,
      "Ir": 3491,
      "br": 3492,
      "ÙĨ": 3493,
      "17Ġ": 3494,
      "áĪµáįĭ": 3495,
      "ĠáĪĺáĮ½áĪĲáįį": 3496,
      "ejiĠ": 3497,
      "waÉĹ": 3498,
      "ĠáĪīáīĥáĪµ": 3499,
      "anaĠk": 3500,
      "60": 3501,
      ",ĠÃ³Ġ": 3502,
      "mÃ©j": 3503,
      "AmerikaĠ": 3504,
      "14Ġ": 3505,
      "ibiyarĠ": 3506,
      "ĠáĬ¨áĬĲ": 3507,
      "áĬĶáī³": 3508,
      "Europ": 3509,
      "áĪĭáĭį": 3510,
      "oleĠ": 3511,
      "hadaĠ": 3512,
      "wakil": 3513,
      "NationalĠ": 3514,
      "ĠApr": 3515,
      "Ã©ri": 3516,
      "aĠbir": 3517,
      "Eth": 3518,
      "awoĠ": 3519,
      "Dis": 3520,
      "sel": 3521,
      "adinĠ": 3522,
      "áĭĺáĮĭ": 3523,
      "Ġáī°áĪ°": 3524,
      "pat": 3525,
      "isiĠ": 3526,
      "ĠáĬłáįĪ": 3527,
      "Amáº¹ÌģrÃŃkÃł": 3528,
      "tatt": 3529,
      "185": 3530,
      "...": 3531,
      "onc": 3532,
      "Ġáĭ¨áĬłáĪľáĪªáĬ«": 3533,
      "notĠ": 3534,
      "áĬĲáĪ³": 3535,
      "Ã²á¹£Ã¨rÃ©Ġ": 3536,
      "onÃŃ": 3537,
      "Tib": 3538,
      "Ã¬k": 3539,
      "áĭķáĪ«áī¥": 3540,
      "áĪ¾": 3541,
      "fu": 3542,
      "mÃ¬n": 3543,
      "gen": 3544,
      "Ġáĭ¨áĪķ": 3545,
      "Ser": 3546,
      "mb": 3547,
      "jirginĠ": 3548,
      "áįİáī½": 3549,
      "áĪ«áĬķ": 3550,
      "stit": 3551,
      "nÃŃĠibiĠ": 3552,
      "jÃº": 3553,
      "siyas": 3554,
      "saf": 3555,
      "áĪįáĪĿ": 3556,
      "pasĠ": 3557,
      "ĠáīłáįĬáīµ": 3558,
      "áįĪáĪį": 3559,
      "Ã¨tÃ²Ġ": 3560,
      "ition": 3561,
      "ewarĠ": 3562,
      "YaĠ": 3563,
      "ĠáīħáĪŃ": 3564,
      "tang": 3565,
      "w.": 3566,
      "ĠáĭŃáī£áĪĭáĪįáį¢": 3567,
      "arch": 3568,
      "táº¹Ìģ": 3569,
      "lab": 3570,
      "gudaĠ": 3571,
      "ukuĠ": 3572,
      "ĠáĪģáĪĪ": 3573,
      "áĪ¨áĪĿ": 3574,
      "ĠáĬ¥áĬķáĮĤ": 3575,
      "alsoĠ": 3576,
      "BKĠ(BaadaĠyaĠKristo).ĠMatukioĠWaliozaliwaĠ": 3577,
      "kwaik": 3578,
      "Bal": 3579,
      "ĠáĬłáīĢ": 3580,
      "wá»įÌĢ": 3581,
      "Ã¬má»įÌĢĠ": 3582,
      "Stat": 3583,
      "hakaĠ": 3584,
      "184": 3585,
      "ĠáĮīáĭ³": 3586,
      "ina": 3587,
      "vis": 3588,
      "taĠkasanceĠ": 3589,
      "Ã¡stáº¹Ìģrá»įÌģÃ¬dÃ¬": 3590,
      "Ġáĭ¨áĪļáĪĪáĭį": 3591,
      "ĠF": 3592,
      "ÃłkÃ³": 3593,
      "yayinĠ": 3594,
      "áī³áĪªáĬŃ": 3595,
      "ĠáĭĪáĭŃ": 3596,
      "kwaikway": 3597,
      "niĠwá»įÌģnĠ": 3598,
      "ibuĠ": 3599,
      "sar": 3600,
      "ĠáĬķáĮį": 3601,
      "oá¹£Ã¹Ġkáº¹": 3602,
      "Ġáį²áį": 3603,
      "ĠáĬŃáĪį": 3604,
      "mÃŃ": 3605,
      "HeĠ": 3606,
      "bÃ¹nĠ": 3607,
      "âĢ¢": 3608,
      "iyeĠ": 3609,
      "ĠáĪĽáĬķ": 3610,
      "jáº¹ÌģĠp": 3611,
      "yanaĠdaĠ": 3612,
      "áĬĲáī±": 3613,
      "anyanĠ": 3614,
      "24": 3615,
      "27": 3616,
      "ustĠ": 3617,
      "Part": 3618,
      "ĠáįķáĪ¬": 3619,
      "ĠáīłáĪŃ": 3620,
      "áī¥áĪ¨áīµ": 3621,
      "ĠáĬ¥áĬķáĭ²áĪħ": 3622,
      "omeĠ": 3623,
      "Ufarans": 3624,
      "bl": 3625,
      "3-": 3626,
      "Ġ5": 3627,
      "etaĠ": 3628,
      "ackĠ": 3629,
      "áĪĪáĪĽ": 3630,
      "ĠáĮĮ": 3631,
      "AfricanĠ": 3632,
      "Ger": 3633,
      "Ã²k": 3634,
      "kunaĠ": 3635,
      "Ġáī³áĪªáĬ«áĭĬ": 3636,
      "Wh": 3637,
      "ĠáīµáĬķ": 3638,
      "dif": 3639,
      "ĠáĭŃáī³áĭĪáīĥ": 3640,
      "ĠáĪķáĭĿáī¥": 3641,
      "falmeĠ": 3642,
      "sec": 3643,
      "rÃ©g": 3644,
      "yl": 3645,
      "alib": 3646,
      "ungeĠ": 3647,
      "baadaĠ": 3648,
      "awa,Ġ": 3649,
      "Colleg": 3650,
      "ongoz": 3651,
      "Dr": 3652,
      "wig": 3653,
      "otherĠ": 3654,
      "eraĠ": 3655,
      "ÉĹayaĠ": 3656,
      "IpinleĠ": 3657,
      "(201": 3658,
      "utum": 3659,
      "e:Ġ": 3660,
      "soj": 3661,
      "masuĠ": 3662,
      "áĬŃáĪī": 3663,
      "ĠáĬ¨áĬ¥": 3664,
      "áĪŃáī²": 3665,
      "firstĠ": 3666,
      "áĪ¨áĪ°": 3667,
      "iĠmaiĠ": 3668,
      "1,": 3669,
      "t,Ġ": 3670,
      "ĠáĪĺáĪłáĪ¨": 3671,
      "sheĠ": 3672,
      "Sec": 3673,
      "áĪĪáĬķ": 3674,
      "nÃŃpaĠ": 3675,
      "bayyanaĠ": 3676,
      "wÃłĠnÃŃĠ": 3677,
      "Mor": 3678,
      "áĪĺáĭµ": 3679,
      "ĠáĭĿáĪŃáĭĿáĪŃ": 3680,
      "Â»Ġ": 3681,
      "Ġ17": 3682,
      "atarĠ": 3683,
      "ight": 3684,
      "ĠáĬ¨áĭļáĪħ": 3685,
      "16Ġ": 3686,
      "eauĠ": 3687,
      "alifĠ": 3688,
      "ĠáĬĵáī¸áĭį": 3689,
      "girm": 3690,
      "WorldĠ": 3691,
      "entreĠ": 3692,
      "Comm": 3693,
      "lÃ¡náº¹Ìģ": 3694,
      "ojoibiĠ": 3695,
      "Gir": 3696,
      "akaĠm": 3697,
      "duniyaĠ": 3698,
      "DuniyaĠ": 3699,
      "watoĠ": 3700,
      "8-": 3701,
      "ĠáĬ¥áĬĵĠáīł": 3702,
      "jÃ¡deĠ": 3703,
      "Rob": 3704,
      "koaĠwaĠ": 3705,
      "War": 3706,
      "kÃ¡": 3707,
      "ther": 3708,
      "karneĠyaĠ": 3709,
      "lá»įĠsÃŃĠ": 3710,
      "áĭ«áĭĬ": 3711,
      "ĠáĬĲáĭįáį¡áį¡": 3712,
      "sit": 3713,
      "áĭļáĪģ": 3714,
      "aud": 3715,
      "áĬ¨áī°áĪĽ": 3716,
      "aniĠyaĠ": 3717,
      "ĠáĭŃáīĢ": 3718,
      "Ã¬gbÃłĠ": 3719,
      "áĪĺáĪį": 3720,
      "old": 3721,
      "ĠáīłáĬ©": 3722,
      "SĠ": 3723,
      "iĠneĠ": 3724,
      "umaĠ": 3725,
      ")Ġáīł": 3726,
      "¶áį": 3727,
      "áĬĵáĪįáį¢": 3728,
      "uĠzaĠ": 3729,
      "emĠ": 3730,
      "lÃ¡náº¹ÌģtÃ¬Ġ": 3731,
      "dok": 3732,
      "www.": 3733,
      "Ã¬gb": 3734,
      "yawanĠjama'": 3735,
      "on.": 3736,
      "uhur": 3737,
      "áĬĵáī¸áĭį": 3738,
      "orÃŃláº¹ÌĢĠÃ¨dÃ¨Ġ": 3739,
      "Ã¬gbÃłjÃ¡Ġ": 3740,
      "ĠáĮĬ": 3741,
      "Ku": 3742,
      "arwaĠ": 3743,
      "Ġáī»": 3744,
      "áīłáĬł": 3745,
      "ishwaĠ": 3746,
      "Ex": 3747,
      "áĪ«áĪ²": 3748,
      "red": 3749,
      "áī¤áī°": 3750,
      "abl": 3751,
      "21Ġ": 3752,
      "ĠáĪģáĬĶáī³": 3753,
      "awarĠ": 3754,
      "sĠandĠ": 3755,
      "Her": 3756,
      "katiĠyaĠ": 3757,
      "lÃ¡náº¹ÌģtÃ¬ĠkÃ©kerÃ©Ġ": 3758,
      "oĠl": 3759,
      "unanĠ": 3760,
      "k.": 3761,
      "jagor": 3762,
      "jar": 3763,
      "ĠáĪĺáĮ¨áĪ¨áĪ»": 3764,
      "ult": 3765,
      "áĬ¨áīµ": 3766,
      "tele.Ġ": 3767,
      "wa,Ġ": 3768,
      "Ġáī±": 3769,
      "aĠlokacinĠ": 3770,
      "áī¥áīµ": 3771,
      "Ġáĭ¨áĪµ": 3772,
      "nÃŃĠibiĠÃ¬gbÃłjÃ¡Ġ": 3773,
      "ĠáįĪáĪŃ": 3774,
      "InternationalĠ": 3775,
      "ĠAg": 3776,
      "ayyarĠ": 3777,
      "áĮĦ": 3778,
      "áĭļáīĥ": 3779,
      "lÃ¡náº¹ÌģtÃ¬ĠkÃ©kerÃ©ĠnÃŃĠibiĠÃ¬gbÃłjÃ¡Ġ": 3780,
      "dang": 3781,
      "aih": 3782,
      "ĠáĬĲáĮ»": 3783,
      "áĪ¶áī½": 3784,
      "áĬĲáīłáĪ¨": 3785,
      "ĠáĪļáĬĴ": 3786,
      "áĪĪáī½": 3787,
      "ref": 3788,
      "Aj": 3789,
      "Sar": 3790,
      "fÃºn": 3791,
      "ĠáĬ¨áĬłáĪ": 3792,
      "áī´áĭİáĪµ": 3793,
      "ondĠ": 3794,
      "Sain": 3795,
      "a-fin": 3796,
      "not": 3797,
      "alm": 3798,
      "takatifuĠ": 3799,
      "jáº¹ÌģĠplÃ¡náº¹ÌģtÃ¬ĠkÃ©kerÃ©ĠnÃŃĠibiĠÃ¬gbÃłjÃ¡Ġ": 3800,
      "Ġáįĭ": 3801,
      "ShugabanĠ": 3802,
      "áĪĿáĬķ": 3803,
      "fáº¹ÌģĠ": 3804,
      "wa.": 3805,
      "Ġáī¢áĪĨáĬķ": 3806,
      "13Ġ": 3807,
      "má»įÌģĠ": 3808,
      "100": 3809,
      "ĠáĬŃáĪŃáĪµáī²áĭ«áĬķ": 3810,
      "11Ġ": 3811,
      "taĠnaĠ": 3812,
      "fÃ©r": 3813,
      "ojÃºĠ": 3814,
      "ammaĠ": 3815,
      "IIĠ": 3816,
      "0)Ġ": 3817,
      "iĠh": 3818,
      "ĠáĬĲáĮĪáĪ®áī½": 3819,
      "GhanaĠ": 3820,
      "ai.": 3821,
      "dag": 3822,
      "araĠdaĠ": 3823,
      "lÃ¡raĠ": 3824,
      "ararĠ": 3825,
      "Ã©.": 3826,
      "un,Ġ": 3827,
      "dev": 3828,
      "stitut": 3829,
      "Lugh": 3830,
      "Mach": 3831,
      "din": 3832,
      "jáº¹ÌģĠplÃ¡náº¹ÌģtÃ¬ĠkÃ©kerÃ©ĠnÃŃĠibiĠÃ¬gbÃłjÃ¡ĠÃ¡stáº¹Ìģrá»įÌģÃ¬dÃ¬": 3833,
      "hab": 3834,
      "kasuwan": 3835,
      "pres": 3836,
      "ĠáĭĺáĪŃ": 3837,
      "Oá¹£Ã¹Ġ": 3838,
      "lik": 3839,
      "áĬ¸": 3840,
      "Ik": 3841,
      "onĠtheĠ": 3842,
      "iĠnaĠm": 3843,
      "nj": 3844,
      "áĪĺáĮ£": 3845,
      "aĠgasarĠ": 3846,
      "&Ġ": 3847,
      "áī»áī¸áĭį": 3848,
      "ĠáĭŃáĮĪáĬĽáĪįáį¢": 3849,
      "ĠáĭµáĪŃáĮħ": 3850,
      "ideĠ": 3851,
      "ulik": 3852,
      "áĮĪáĭ°": 3853,
      "fromĠtheĠ": 3854,
      "King": 3855,
      "lÃ¡ti": 3856,
      "ĠáĬłáīµ": 3857,
      "wana": 3858,
      "He": 3859,
      "áĪĤ": 3860,
      "so": 3861,
      "uisĠ": 3862,
      "orÃŃĠ": 3863,
      "Ġáĭ¨áĪĽáĭŃ": 3864,
      "ameĠ": 3865,
      "Cr": 3866,
      "naĠku": 3867,
      "Op": 3868,
      "hukumarĠ": 3869,
      "áĮĪáĬĺáĭį": 3870,
      "aká»į": 3871,
      "áĪ±áĪµ": 3872,
      "kÃ³paĠ": 3873,
      "wasanĠkwaikway": 3874,
      "26": 3875,
      "áįĶ": 3876,
      "áº¸": 3877,
      "YorÃ¹bÃ¡Ġ": 3878,
      "new": 3879,
      "Pop": 3880,
      "inat": 3881,
      "ostiĠ": 3882,
      "fran": 3883,
      "filamuĠ": 3884,
      "UniversityĠofĠ": 3885,
      "bec": 3886,
      "áĪĺáĪ°": 3887,
      "18Ġ": 3888,
      "áī·áĪįáį¢": 3889,
      "áĪĺáĭį": 3890,
      "ĠáĬ¥áĬĲ": 3891,
      "yÃłĠ": 3892,
      "aĠbirninĠ": 3893,
      "ertĠ": 3894,
      "ĠáĪ¦": 3895,
      "popul": 3896,
      "áĮĢáĪŃáĪĺáĬķ": 3897,
      "dayaĠdagaĠcikinĠ": 3898,
      "amin": 3899,
      "áĭĭáĬĵ": 3900,
      "áĭ°áĬķ": 3901,
      "Fir": 3902,
      "áįĪáĮ¥": 3903,
      "80": 3904,
      "Go": 3905,
      "Er": 3906,
      "ĠáīłáĪĻ": 3907,
      "ĠáĪĿáĬŃáĬķáĭ«áīµ": 3908,
      "ĠáĬ¡": 3909,
      "eanĠ": 3910,
      "uĠniĠ": 3911,
      "ĠáīłáĪ½": 3912,
      "NÃłÃ¬jÃŃrÃŃÃł": 3913,
      "anb": 3914,
      "gw": 3915,
      "agesĠ": 3916,
      "Award": 3917,
      "áĪĭáĪ´": 3918,
      "sakeĠ": 3919,
      "NÃŃĠ": 3920,
      "ywo": 3921,
      "áĬķáĭ±": 3922,
      "Ãłá¹£": 3923,
      "Ã©l": 3924,
      "yaĠkasanceĠ": 3925,
      "Ġ(áīł": 3926,
      "shaw": 3927,
      "cik": 3928,
      "-áĬł": 3929,
      "aliĠyaĠ": 3930,
      "sch": 3931,
      "tabiĠ": 3932,
      "25Ġ": 3933,
      "Fiz": 3934,
      "kit": 3935,
      "ĠáĪĿáĬķáĪĿ": 3936,
      "sanyaĠ": 3937,
      "ĠáĪĿáĬķáĮ®áī½": 3938,
      "peu": 3939,
      "wanz": 3940,
      "22Ġ": 3941,
      "pers": 3942,
      "cap": 3943,
      "overn": 3944,
      "ĠáĪĿáĪŃ": 3945,
      "áĮĪáĪį": 3946,
      "aĠmat": 3947,
      "NigerianĠ": 3948,
      "Of": 3949,
      "aĠdun": 3950,
      "áĪ·": 3951,
      "ÙĪ": 3952,
      "áĪµáĭ«": 3953,
      "Ġáĭĭáī¢": 3954,
      "hadĠ": 3955,
      "wanam": 3956,
      "oin": 3957,
      "wardĠ": 3958,
      "AN": 3959,
      "dr": 3960,
      "sol": 3961,
      "ĠáĪł": 3962,
      "Ġáĭ¨áĬ«": 3963,
      "ĠáĪĽáĪŃáīĨ": 3964,
      "Dav": 3965,
      "áīłáĪĪ": 3966,
      "jáº¹ÌģĠplÃ¡náº¹ÌģtÃ¬ĠkÃ©kerÃ©ĠnÃŃĠibiĠÃ¬gbÃłjÃ¡ĠÃ¡stáº¹Ìģrá»įÌģÃ¬dÃ¬.ĠItokasiĠ": 3967,
      "·áį": 3968,
      "des": 3969,
      "âĢ¹": 3970,
      "arz": 3971,
      "áĭ²áĭ«": 3972,
      "cel": 3973,
      "anniĠ": 3974,
      "ĠáĪĺáĪįáĬŃ": 3975,
      "kwaĠm": 3976,
      "gbajÃº": 3977,
      "áĬŃáĪŃ": 3978,
      "Ġáĭ¨áī°áĪ°": 3979,
      "iĠkat": 3980,
      "Yan": 3981,
      "aaĠ": 3982,
      "áĬ¥áĬķáĭ°": 3983,
      "aĠÆĻasarĠ": 3984,
      "Ġáįª": 3985,
      "anĠhaifeĠtaĠ": 3986,
      "¹¢": 3987,
      "scor": 3988,
      ".ĠT": 3989,
      "ĠáĪĺáĪŃ": 3990,
      "iâĢĻ": 3991,
      "Kats": 3992,
      "áĪĭáĪĽ": 3993,
      "umeĠ": 3994,
      "ubuĠ": 3995,
      "babbanĠbirninĠ": 3996,
      "áĪİáīµ": 3997,
      "la": 3998,
      "Az": 3999,
      "Äģ": 4000,
      "áīłáĪĺ": 4001,
      "etĠdeĠ": 4002,
      "kashinĠ": 4003,
      "ĠáĮ½áĪĳ": 4004,
      "mÃºĠ": 4005,
      "ammanĠ": 4006,
      "Afrik": 4007,
      "Med": 4008,
      "mak": 4009,
      "eĠdansĠ": 4010,
      "ĠáĪłáĪ«": 4011,
      "uss": 4012,
      "áĬĵáĭĬ": 4013,
      "ĠáĮłáĪ": 4014,
      "jiĠwaĠ": 4015,
      "sim": 4016,
      "walej": 4017,
      "ĠáĪµáĪĻ": 4018,
      "harib": 4019,
      "Iá¹£": 4020,
      "wÃ²": 4021,
      "let": 4022,
      "lÃº": 4023,
      "ĠáĭŃáĪĨ": 4024,
      "MwakaĠ": 4025,
      "ĠáĪ¥áĪŃáĭĪ": 4026,
      "lĠ": 4027,
      "Haif": 4028,
      "daĠakeĠ": 4029,
      "ĠáĬħ": 4030,
      "áĭ³áĪŃ": 4031,
      "n,Ġ": 4032,
      "ĠáĬłáĪ³": 4033,
      "rem": 4034,
      "Bay": 4035,
      "S.": 4036,
      "âĢĶ": 4037,
      "AmericanĠ": 4038,
      "KatikaĠ": 4039,
      "itwaĠ": 4040,
      "ĠáĬ¥áĮįáĪŃĠáĬ³áĪµ": 4041,
      "Ġáĭ°áĪ´": 4042,
      "ĠdesĠ": 4043,
      "áĭĪáĪŃ": 4044,
      "A.": 4045,
      "Kh": 4046,
      "neĠdagaĠ": 4047,
      "tab": 4048,
      "Ãĵ": 4049,
      "ori": 4050,
      "áĮłáĭį": 4051,
      "lant": 4052,
      "ortĠ": 4053,
      "ureĠ": 4054,
      "tsarinĠ": 4055,
      "orÃºká»įĠ": 4056,
      "ulĠ": 4057,
      "40": 4058,
      "kuwaĠm": 4059,
      "ĠáĪĿáĪįáĬŃ": 4060,
      "ItaĠ": 4061,
      "osoĠ": 4062,
      "gid": 4063,
      "ĠáĪĤ": 4064,
      "ÃłgbÃ©": 4065,
      "akaĠk": 4066,
      "áĪµáįĵ": 4067,
      "osel": 4068,
      "ughĠ": 4069,
      "Ġáĭ¨áĪ¥": 4070,
      "kutokaĠMarekani": 4071,
      "áįĪáĪ¨áĬķáĪ³áĭŃ": 4072,
      "istĠ": 4073,
      "pek": 4074,
      "Ã¬nĠ": 4075,
      "áĬķáī°": 4076,
      "áī¥áĭĻ": 4077,
      "áĭĪáīħ": 4078,
      "âĢº": 4079,
      "asharik": 4080,
      "Ãºgb": 4081,
      "JulaiĠ": 4082,
      "ayyaĠ": 4083,
      "a;Ġ": 4084,
      "gidanĠ": 4085,
      "Ilim": 4086,
      "ĠáĬĴ": 4087,
      "iaĠ(": 4088,
      "áĪ¡": 4089,
      "ĠáĭŃáĪĺáĪµ": 4090,
      "MuhammadĠ": 4091,
      "nÃŃbiĠ": 4092,
      "ĠáĬłáĪĪáīĥ": 4093,
      "áĪłáĪ«": 4094,
      "Fiziki": 4095,
      "ĠáĮħ": 4096,
      "ISB": 4097,
      "áĭķáĪį": 4098,
      "Aug": 4099,
      "ĠáĬłáĭ«": 4100,
      "ocr": 4101,
      "sÃ¬nĠ": 4102,
      "ĠáĬĸ": 4103,
      "áĪĽáĬķ": 4104,
      "erc": 4105,
      "akonĠ": 4106,
      "tureĠ": 4107,
      "Ug": 4108,
      "tat": 4109,
      "serik": 4110,
      "Ethiop": 4111,
      "AwonĠ": 4112,
      "commun": 4113,
      "áĭĭáĬķ": 4114,
      ".ĠManazartaĠ": 4115,
      "iĠyaĠK": 4116,
      "áĪ¯": 4117,
      "imoĠ": 4118,
      "JanuariĠ": 4119,
      "ĠáĭķáĪĪ": 4120,
      ")áį£": 4121,
      "Del": 4122,
      "ony": 4123,
      "fim": 4124,
      "chang": 4125,
      ")ĠniĠ": 4126,
      "áĭİáī½áĬķ": 4127,
      "hasĠ": 4128,
      "iĠ-Ġ": 4129,
      "áĪĪáī½áį¢": 4130,
      "nem": 4131,
      "28": 4132,
      "aff": 4133,
      "ĠáĭĪáĪ¨áĭ³": 4134,
      "áĭĺáĪŃ": 4135,
      "1892Ġáĭĵ.áĪĿ.": 4136,
      "áĭĳ": 4137,
      "unt": 4138,
      "aĠwatanĠ": 4139,
      "iaĠnaĠ": 4140,
      "waĠniĠ": 4141,
      "ier": 4142,
      "ĠáĬłáĪ¸": 4143,
      "áĭ¨áĪĿ": 4144,
      "áĬ¹": 4145,
      "tÃŃĠÃ³ĠsÃ¬Ġ": 4146,
      "sikuĠ": 4147,
      "ne.": 4148,
      "áĪĺáĪ«": 4149,
      "Ġáį¤": 4150,
      "ime": 4151,
      "áĭ¨áĬł": 4152,
      "dominĠ": 4153,
      "fl": 4154,
      "ĠáĪĺáĮĢáĪĺáĪŃáĭ«": 4155,
      "taim": 4156,
      "kn": 4157,
      "6-": 4158,
      "AareĠ": 4159,
      "Cor": 4160,
      "ver": 4161,
      "'y": 4162,
      "áĮĪáīł": 4163,
      "áĮ¥áĪ¨": 4164,
      "affunĠ": 4165,
      "24Ġ": 4166,
      "Ø±": 4167,
      "ellĠ": 4168,
      "áĮįáī¥áĮ½": 4169,
      "esp": 4170,
      "ĠáĬ¥áĭį": 4171,
      "ĠáīłáĪĮ": 4172,
      "aĠkasanceĠ": 4173,
      "tsohonĠ": 4174,
      "ĠáĪº": 4175,
      "atik": 4176,
      "Ġáī³áĭĭáīĤ": 4177,
      "áĮ¦áĪŃ": 4178,
      "áĪ³áī¸áĭį": 4179,
      "áĭĬáīµ": 4180,
      "ourn": 4181,
      "Sam": 4182,
      "jim": 4183,
      "ĠáīłáĮ£áĪĿ": 4184,
      "LagosĠ": 4185,
      "Ġáīłáī°áĪĪáĭŃ": 4186,
      "eny": 4187,
      "ship": 4188,
      "áĭ°áĮį": 4189,
      "áĮĪáī¥": 4190,
      "áĬ®áī½": 4191,
      "le-": 4192,
      "daiĠ": 4193,
      "Hukum": 4194,
      "áĭ²áĪħ": 4195,
      "tionsĠ": 4196,
      "Ø§ÙĦ": 4197,
      "ĠáĬŃáįįáĪĭ": 4198,
      "yÃ³": 4199,
      "ightĠ": 4200,
      "taĠhanyarĠ": 4201,
      "ĠáĬ¥áĭ¨áī°": 4202,
      "isaĠgaĠ": 4203,
      "digir": 4204,
      "Sab": 4205,
      "en.": 4206,
      "áįĪáĪµ": 4207,
      "áĮ£áīµ": 4208,
      "io": 4209,
      "elek": 4210,
      "áĪ¨áī¥": 4211,
      "rad": 4212,
      "áĬĵĠáĬ¨": 4213,
      "AĠwatanĠ": 4214,
      "nuĠ": 4215,
      "ĠáĬłáĭŃáĭ°": 4216,
      "parti": 4217,
      "áĪįáĮ£áĬķ": 4218,
      "áĪĿáĪħáĪŃ": 4219,
      "eniĠ": 4220,
      "á¹£Ã¨": 4221,
      "ĠáīĢáĮ¥": 4222,
      "aisĠwaĠ": 4223,
      "HaifaffunĠ": 4224,
      "áĮįáĪį": 4225,
      "mod": 4226,
      "nomb": 4227,
      "Ġ'": 4228,
      "ĠáīłáĪģ": 4229,
      "ĠáĬłáĮĪáĪįáĮį": 4230,
      "nau": 4231,
      "23Ġ": 4232,
      "Uch": 4233,
      "franÃ§": 4234,
      "áĪķáĪŃ": 4235,
      "'YanĠ": 4236,
      "dom": 4237,
      "n'": 4238,
      "karamarĠ": 4239,
      "áĮłáĪ©": 4240,
      "ananĠhukumominĠ": 4241,
      "MataĠ": 4242,
      "káº¹Ìģ": 4243,
      "alb": 4244,
      "áįĳ": 4245,
      "37": 4246,
      "áĪĺáī±": 4247,
      "áīłáĪ©áīµ": 4248,
      "jÃ¹lá»įĠ": 4249,
      "yayiĠ": 4250,
      "Co": 4251,
      "nas": 4252,
      "app": 4253,
      "29Ġ": 4254,
      "wish": 4255,
      "lambarĠ": 4256,
      "gunĠ": 4257,
      "Chin": 4258,
      "Ġ(200": 4259,
      "Tarih": 4260,
      "Hot": 4261,
      "ationĠofĠ": 4262,
      "áĬĽáį¦Ġ": 4263,
      "ĠáĬ¥áĬķáĮįáĪĬáĭĿ": 4264,
      "áĭµáĪ¨áĮį": 4265,
      "rib": 4266,
      "Fin": 4267,
      "ĠáĪ»": 4268,
      "Ã¡r": 4269,
      "She": 4270,
      "Ahm": 4271,
      "áĭ®áĪµ": 4272,
      "4-": 4273,
      "addin": 4274,
      "áĭįáĪĿ": 4275,
      "aĠkasarĠ": 4276,
      "walejinĠ": 4277,
      "KwaĠ": 4278,
      "Pap": 4279,
      "gÃŃ": 4280,
      "pay": 4281,
      "ation,Ġ": 4282,
      "u.Ġ": 4283,
      "áĭĪáĪ¨": 4284,
      "arkonĠ": 4285,
      "stat": 4286,
      "atĠtheĠ": 4287,
      "ĠáĭĪáīħáīµ": 4288,
      "AS": 4289,
      "sup": 4290,
      "wandaĠakaĠ": 4291,
      "aĠsh": 4292,
      "usi": 4293,
      "agbÃ¨gbÃ¨Ġ": 4294,
      "hum": 4295,
      "ĠáĪĺáĪĨáĬĳ": 4296,
      "Dem": 4297,
      "Wal": 4298,
      "dukĠ": 4299,
      "me": 4300,
      "Awá»įnĠ": 4301,
      "má»įÌĢ": 4302,
      "nÃŃĠá»įjá»įÌģĠ": 4303,
      "uĠmasoĠ": 4304,
      "score": 4305,
      "áĬĹ": 4306,
      "ĠáĪĽáī´áĭİáĪµ": 4307,
      "Mich": 4308,
      "olikiĠ": 4309,
      "ĠáĬłáĪĺáīµ": 4310,
      "áĮįáĬķ": 4311,
      "aĠfanninĠ": 4312,
      "Ã¬b": 4313,
      "Sark": 4314,
      "má»įÌģ": 4315,
      "ÃĮj": 4316,
      "báº¹Ìģáº¹ÌĢĠ": 4317,
      "iĠwaĠm": 4318,
      "AĠranarĠ": 4319,
      "AllahĠ": 4320,
      "ĠáĪĥáĭŃáĪĽáĬĸ": 4321,
      "áį²áį": 4322,
      "Ibad": 4323,
      "wigiz": 4324,
      "Al-": 4325,
      "ĠáĬ¥áĬĲáĭļáĪħ": 4326,
      "áĮĭáĪį": 4327,
      "kÃłn": 4328,
      "aiĠdaĠ": 4329,
      "áĬĥ": 4330,
      "offic": 4331,
      "Sik": 4332,
      "warĠ": 4333,
      "babb": 4334,
      "ráº¹": 4335,
      "ViungoĠvyaĠnjeĠ": 4336,
      "anyaĠ": 4337,
      "áī£áĭĬ": 4338,
      "29": 4339,
      "ment": 4340,
      "áī£áĪŃ": 4341,
      "hasaĠ": 4342,
      "Ã¬dÃŃ": 4343,
      "´áį": 4344,
      "Ġáĭ´": 4345,
      "inf": 4346,
      "áĪ«áĪīáį¢": 4347,
      "180": 4348,
      "EĠ": 4349,
      "yo": 4350,
      "idayarĠ": 4351,
      "neĠnaĠ": 4352,
      "Ber": 4353,
      "áĪģáĬķ": 4354,
      "incip": 4355,
      "ÃłgbÃłĠ": 4356,
      "adem": 4357,
      "ĠáĪµáīµ": 4358,
      "ĠAgostiĠ": 4359,
      "PĠ": 4360,
      "haveĠ": 4361,
      "ĠáĭķáĪĪáī³áīµ": 4362,
      "âĢ¦": 4363,
      "MajalisarĠ": 4364,
      "ģáĬĳ": 4365,
      "ĠáĭŃáĭĺ": 4366,
      "UjerumaniĠ": 4367,
      "has": 4368,
      "oseĠ": 4369,
      "ĠáīĢáĬĵáīµ": 4370,
      "forĠtheĠ": 4371,
      "Os": 4372,
      "yaĠM": 4373,
      "are": 4374,
      "oyÃ¨Ġ": 4375,
      "juuĠyaĠ": 4376,
      "umiaĠ": 4377,
      "sign": 4378,
      "anenĠ": 4379,
      "orig": 4380,
      "umbaĠ": 4381,
      "áĭ¨áĪ±áĪµ": 4382,
      "Ġáĭįáĭµ": 4383,
      "kuh": 4384,
      "Rayayy": 4385,
      "Kib": 4386,
      "waf": 4387,
      ".Ġ(": 4388,
      "Ni": 4389,
      "uzikiĠ": 4390,
      "Ãłráº¹Ġ": 4391,
      "0-": 4392,
      "ven": 4393,
      "neĠaĠ": 4394,
      "sub": 4395,
      "ĠáĬ¬": 4396,
      "Â»Ġ(": 4397,
      "utt": 4398,
      "ongoĠ": 4399,
      "Nd": 4400,
      "áĪħáĬķ": 4401,
      "Â°": 4402,
      "aĠniĠ": 4403,
      "ĠáĭŃáĪ°": 4404,
      "vo": 4405,
      "usiĠ": 4406,
      "shekaraĠ": 4407,
      "awaĠdaĠ": 4408,
      "Makar": 4409,
      "fimĠ": 4410,
      "áĪ«áĪµ": 4411,
      "áĪ»áĭİáī½": 4412,
      "asalinĠ": 4413,
      "Pet": 4414,
      "OrÃŃ": 4415,
      "canĠ": 4416,
      "áĮłáĬĵ": 4417,
      "5-": 4418,
      "thisĠ": 4419,
      "áĭ®áĪŃ": 4420,
      "oryĠ": 4421,
      "iti": 4422,
      "conc": 4423,
      "27Ġ": 4424,
      "Ġ7": 4425,
      "famil": 4426,
      "oĠsiĠ": 4427,
      "áī³áĭ°": 4428,
      "Ãłká»įÌģká»įÌģĠ": 4429,
      "28Ġ": 4430,
      "áĪĽáī½": 4431,
      "ĠáĮ¥áĬķáī³áĭĬ": 4432,
      "ba.": 4433,
      "sal": 4434,
      "iter": 4435,
      "antsĠ": 4436,
      "ĠáīłáĬłáĬķáĭµ": 4437,
      ".ĠItokasiĠÃĢwá»įnĠ": 4438,
      "partic": 4439,
      "ativeĠ": 4440,
      "FAĠ": 4441,
      "ta,Ġ": 4442,
      "Pres": 4443,
      "áĪłĠáĬĲáĮĪ": 4444,
      "ciĠgabaĠdaĠ": 4445,
      "áĭ¨áī°": 4446,
      "polit": 4447,
      "ĠáįĵáĪŃáī²": 4448,
      "áĮĪáĪª": 4449,
      "hukumaĠ": 4450,
      "Gb": 4451,
      "JuniĠ": 4452,
      "juĠ": 4453,
      "áĪįáĭ°": 4454,
      "áĪ¨áĮĭ": 4455,
      "áĪŃáĪµáī²áĭ«": 4456,
      "|ĠRD1-": 4457,
      "Ġáĭ¨áĪĻ": 4458,
      "Bel": 4459,
      "danĠwasanĠÆĻwallonĠÆĻafaĠtaĠÆĻasarĠIngil": 4460,
      "kÃ¹n": 4461,
      "ĠáĭĵáĪĪáĪĿ": 4462,
      "The": 4463,
      "ĠáĭŃáĪħáĬķ": 4464,
      "CO": 4465,
      "Káº¹": 4466,
      "kutokaĠMarekaniĠ": 4467,
      "birniĠ": 4468,
      "iliyanĠ": 4469,
      "ĠáĪĺáĬķáĮįáĪµáīµ": 4470,
      "áĪĵ": 4471,
      "isi": 4472,
      "duk": 4473,
      "Abub": 4474,
      "91": 4475,
      "áĪĽáĪŃ": 4476,
      "sehemuĠyaĠ": 4477,
      "wamnanĠ": 4478,
      "anti": 4479,
      "Bah": 4480,
      "ĪáĪĿ": 4481,
      "lÃ¹": 4482,
      "akk": 4483,
      "uwaĠdaĠ": 4484,
      "waÉĹandaĠ": 4485,
      "Kal": 4486,
      "nor": 4487,
      "una": 4488,
      "ĠáĪĿáĪµ": 4489,
      "áī»áĭŃáĬĵ": 4490,
      "Ġáĭ«áĪħáĪį": 4491,
      "Engl": 4492,
      "ÙĲ": 4493,
      "onsĠ": 4494,
      "egeĠ": 4495,
      "áįĦ": 4496,
      "ÃłwonĠ": 4497,
      "ÃłmÃ¬": 4498,
      "theirĠ": 4499,
      "Bi": 4500,
      "nadaĠ": 4501,
      "chiniĠyaĠ": 4502,
      "autiĠ": 4503,
      "ĠáīĢáĬķĠáīłáĬ¢áīµáĭ®áĮµáĭ«": 4504,
      "dam": 4505,
      "iliĠyaĠ": 4506,
      "ĠáĪ´áīµ": 4507,
      "ientĠ": 4508,
      "endĠ": 4509,
      "utilis": 4510,
      "97": 4511,
      "vir": 4512,
      "áī³áī¸áĭįáĬķ": 4513,
      "Rep": 4514,
      "bang": 4515,
      "BCĠ": 4516,
      "áįĪáĪĪ": 4517,
      "De": 4518,
      "Dar": 4519,
      "áĮ¹": 4520,
      "ĠáĪ¥áĪŃáĭĪĠáĪĺáĬķáĮįáĪ¥áīµ": 4521,
      "2,": 4522,
      "aidaĠ": 4523,
      "amad": 4524,
      "wandishiĠ": 4525,
      "wÃŃpÃ©Ġ": 4526,
      "ĠáĭĪáĪ¨": 4527,
      "5Ġ-Ġ": 4528,
      "mall": 4529,
      "Peop": 4530,
      "kÃŃĠÃ³Ġ": 4531,
      "ĠáĬłáĬķáĭ³": 4532,
      "sÃ³": 4533,
      "u-": 4534,
      "áĬķĠ(": 4535,
      "esĠofĠ": 4536,
      "day": 4537,
      "gÃ©n": 4538,
      "nÃŃĠÃ¬lÃºĠ": 4539,
      "padÃłĠ": 4540,
      "FI": 4541,
      "ye": 4542,
      "||": 4543,
      "bor": 4544,
      "pakaĠ": 4545,
      "eweĠ": 4546,
      "ÃŃrÃłnĠ": 4547,
      "kad": 4548,
      "wilayaĠ": 4549,
      "ĠáĪĺáĪª": 4550,
      "shekararĠ200": 4551,
      "iweĠ": 4552,
      "ensĠ": 4553,
      "StateĠ": 4554,
      "syst": 4555,
      "enoĠ": 4556,
      "lÃ³rÃŃ": 4557,
      "peluĠ": 4558,
      "zar": 4559,
      "WannanĠ": 4560,
      "lasheĠ": 4561,
      "aussiĠ": 4562,
      ".Ġ-": 4563,
      "Ġáĭ°áī¡áī¥": 4564,
      "má»į": 4565,
      "NaijiriaĠ": 4566,
      "centur": 4567,
      "ĠáįĪáĪŃáĭĸ": 4568,
      "DĠ": 4569,
      "'yarĠ": 4570,
      "binc": 4571,
      "áīº": 4572,
      "binĠ": 4573,
      "áĬĲáīłáĪŃ": 4574,
      "pÃ©": 4575,
      "Ġáī¥áĪĪáĭį": 4576,
      "áĪĪáī¥": 4577,
      "kÃŃ": 4578,
      "sinim": 4579,
      "FebruariĠ": 4580,
      "tas": 4581,
      "Æ´": 4582,
      "áĪĭáĪīáį¢": 4583,
      "http://www.": 4584,
      "áĪĮáĬŃáīµ": 4585,
      "kulaĠ": 4586,
      "ĠáĬłáĬ«áĪį": 4587,
      "ceĠtaĠ": 4588,
      "ĠáĭµáĪĿ": 4589,
      "Manazarta": 4590,
      "mÃ¬": 4591,
      "ĠáĬķáĮīáĪµ": 4592,
      "áĬĲáī¶áī½": 4593,
      "rew": 4594,
      "anziaĠ": 4595,
      "Per": 4596,
      "dâĢĻ": 4597,
      "t-": 4598,
      "má»įĠ": 4599,
      "gbá»įÌĢ": 4600,
      "prof": 4601,
      "atanĠ": 4602,
      "gĠ": 4603,
      "portĠ": 4604,
      "Ġ16": 4605,
      "Wom": 4606,
      "Ġáĭ¨áĪļáĪį": 4607,
      "Ã²á¹£Ã¨rÃ©": 4608,
      "iĠzaĠ": 4609,
      "aĠr": 4610,
      "áī¼": 4611,
      "muĠ": 4612,
      "áįĪáīµ": 4613,
      "yaddaĠ": 4614,
      "ton": 4615,
      "Mil": 4616,
      "ana'": 4617,
      "Ġ200": 4618,
      "asharaĠ": 4619,
      "ammalaĠ": 4620,
      "Ghan": 4621,
      "Ġáĭ¨áĪĿáīµ": 4622,
      "áĮłáīĥáĪĭáĭŃ": 4623,
      "Yamm": 4624,
      "cin": 4625,
      "lÃ²Ġ": 4626,
      "wenyeĠm": 4627,
      "áĬ¨áĪ«": 4628,
      "okuwaĠ": 4629,
      "al.": 4630,
      "áĬ©áĪį": 4631,
      "áĪŃáĭ«áĪĿ": 4632,
      "Ä«": 4633,
      "WakristoĠ": 4634,
      "sauranĠ": 4635,
      "UlayaĠ": 4636,
      "ainsĠ": 4637,
      "unĠniĠ": 4638,
      "Kil": 4639,
      "kask": 4640,
      "tsar": 4641,
      "produc": 4642,
      "kafaĠ": 4643,
      "utumĠ": 4644,
      "áĪ°áĬķ": 4645,
      "tech": 4646,
      "ĠáĬ¥áĬķáĪµ": 4647,
      "enĠm": 4648,
      "aux": 4649,
      "áĪįáįį": 4650,
      "ĠáĪĺáĬĲ": 4651,
      "bat": 4652,
      "ectĠ": 4653,
      "áĪĦáĭµ": 4654,
      "mÃ¡aĠÅĦĠ": 4655,
      "lÃ³gÃºnĠ": 4656,
      "Bib": 4657,
      "dir": 4658,
      "ĠáĬłáĮ¥": 4659,
      "ISBNĠ": 4660,
      "áĪįáį¡áį¡": 4661,
      "áĮĪáĭį": 4662,
      "aiĠnaĠ": 4663,
      "ĠduĠ": 4664,
      "Ġáº¹niĠ": 4665,
      "áĮ³": 4666,
      "áī¬": 4667,
      "áĬķĠáĪĪ": 4668,
      "Octob": 4669,
      "áĭ°áĮĭ": 4670,
      "adiĠyaĠ": 4671,
      "okeĠ": 4672,
      "ĠáĪĽáĪµáī³áĭĪ": 4673,
      "abub": 4674,
      "harĠzuwaĠ": 4675,
      "ouldĠ": 4676,
      "lakeĠ": 4677,
      "ĠáĪĺáĭĿ": 4678,
      "ĠáĪ³áĭŃáĪĨáĬķ": 4679,
      "ilÃ©-áº¹ÌĢká»įÌģĠ": 4680,
      "183": 4681,
      "Lov": 4682,
      "anĠ(": 4683,
      "áĬĲáĪµ": 4684,
      "haifiĠ": 4685,
      "elyĠ": 4686,
      "ĠáĬŃáĪįáĪį": 4687,
      "ĠáĭĪáĮĪáĬķ": 4688,
      "ĠáĪĽáĪħ": 4689,
      "Uk": 4690,
      "deuxĠ": 4691,
      "OnĠ": 4692,
      "ĠáĬĳ": 4693,
      "áĪµáī±": 4694,
      "áĮłáįĭ": 4695,
      "NchiĠ": 4696,
      "alim": 4697,
      "sababuĠ": 4698,
      "Riv": 4699,
      "ed.": 4700,
      "hann": 4701,
      "µáį": 4702,
      "Ùı": 4703,
      "Ġáĭ¨áīµ": 4704,
      "akosoĠ": 4705,
      "asiasaĠ": 4706,
      "-ĠMtakatifuĠ": 4707,
      "Pat": 4708,
      "ba,Ġ": 4709,
      "MĠ": 4710,
      "rom": 4711,
      "indiĠ": 4712,
      "ĠáĭĲ": 4713,
      "ishiĠwaĠ": 4714,
      "Ð°": 4715,
      "abinc": 4716,
      "alip": 4717,
      "áĬĲáĮĪ": 4718,
      "ban": 4719,
      "26Ġ": 4720,
      "90": 4721,
      "fus": 4722,
      "ĠáĪ²áĪĨáĬķĠáĭŃáĪħ": 4723,
      "fÃŃÃ¬m": 4724,
      "yÃ³Ã²Ġ": 4725,
      "Ġáĭ¨áī°áĪĪáĭ«áĭ©": 4726,
      "ĠáīłáĬ¥áĬķáĮįáĪĬáĭĿáĬĽ": 4727,
      "Comp": 4728,
      "itinĠ": 4729,
      "Ġáĭ¨áĬłáĪĽáĪŃáĬĽĠáĪĿáĪ³áĪĮĠáĬĲáĭįáį¢ĠáīµáĪŃáĮīáĪĻĠáĪĺáĭ°áī¥Ġ:Ġáī°áĪ¨áīµáĬĵĠáĪĿáĪ³áĪĮ": 4730,
      "cc": 4731,
      "áĭ³áĪĿ": 4732,
      "ubwaĠ": 4733,
      "ĠáĪĢáĮĪáĪŃ": 4734,
      "omitaĠ": 4735,
      "iá¹£áº¹Ġ": 4736,
      "adil": 4737,
      "Ġáī³áĪĭáīħ": 4738,
      "UingerezaĠ": 4739,
      "upandeĠwaĠ": 4740,
      "ikanĠ": 4741,
      "okĠ": 4742,
      "ĠáĬĲáĭįáį¢Ġáĭ¨": 4743,
      "tuĠ": 4744,
      "epend": 4745,
      "gbeĠ": 4746,
      "trav": 4747,
      "Ġ10": 4748,
      "kusin": 4749,
      "Ġáº¹láº¹ÌģbÃ¹nĠ": 4750,
      "agu": 4751,
      "le.": 4752,
      "elsĠ": 4753,
      "unguĠ": 4754,
      "Ibrah": 4755,
      "enz": 4756,
      "lÃł": 4757,
      "ĠáĪ©": 4758,
      "shirinĠ": 4759,
      "aĠma": 4760,
      "JanuaryĠ": 4761,
      "tall": 4762,
      "áī½áĭį": 4763,
      "Ġáĭ¨áī°áī£áĪĪáĭį": 4764,
      "shekaraĠtaĠ201": 4765,
      "tÃŃĠÃłwá»įnĠ": 4766,
      "Gl": 4767,
      "kin": 4768,
      "áĬķáĭ°": 4769,
      "a)": 4770,
      "ilion": 4771,
      "Ã¹gbá»įÌģnĠ": 4772,
      "Mart": 4773,
      "iquesĠ": 4774,
      "alinĠarz": 4775,
      "Ġáº¸ÌĢ": 4776,
      "áĮ¥áĬķáī³áĭĬ": 4777,
      "ĠáĭĻáĪªáĭ«": 4778,
      "Ġ6": 4779,
      "áį¢Ġáīł": 4780,
      "áĬŃáĪĪ": 4781,
      "Tim": 4782,
      "áĪŃáĮį": 4783,
      "ĠáĮĨ": 4784,
      "auy": 4785,
      "shiĠneĠdanĠwasanĠÆĻwallonĠÆĻafaĠtaĠÆĻasarĠIngil": 4786,
      "kwallonĠ": 4787,
      "Se": 4788,
      "ĠK": 4789,
      "áĬĽáĭįĠáĬŃáįįáĪĪĠáĭĺáĪĺáĬķ": 4790,
      "oireĠ": 4791,
      "áĬķĠáĪµáĪĿ": 4792,
      "yÃ¬ÃŃ": 4793,
      "jinaĠlaĠ": 4794,
      "Ro": 4795,
      "alil": 4796,
      "Ġáĭ¨áĪĮ": 4797,
      "áīłáĪĮ": 4798,
      "ĠH": 4799,
      "áĮłáĪį": 4800,
      "Amerik": 4801,
      "baadaĠyaĠ": 4802,
      "dur": 4803,
      "áī°áĭĭáĪįáį¢": 4804,
      "ĠáĪĪáĭį": 4805,
      "áī¶áī¹": 4806,
      "vid": 4807,
      "atom": 4808,
      "kaiĠ": 4809,
      "KenyaĠ": 4810,
      "áĪĭáĪī": 4811,
      "iyy": 4812,
      "aĠyaĠm": 4813,
      "akoĠ": 4814,
      "áĭĺáī¥": 4815,
      "áĬ«áī£áī¢": 4816,
      "sanĠ": 4817,
      "ĠáĪĨáĬĲáĭį": 4818,
      "rubutaĠ": 4819,
      "a\"Ġ": 4820,
      "ipoĠ": 4821,
      "aseĠ": 4822,
      "áĭŃáĬĲáīµ": 4823,
      "áĮĪáĬĲ": 4824,
      "áī½áĪģ": 4825,
      "áĮĪáĬĽ": 4826,
      "áī°áĬķ": 4827,
      "áĭ«áĪµ": 4828,
      "dagaĠbayaĠ": 4829,
      "âĢĿĠ": 4830,
      "Coun": 4831,
      "áī½áĪį": 4832,
      "ollywo": 4833,
      "pÃŃ": 4834,
      "aientĠ": 4835,
      "áĬ¨áĪŃ": 4836,
      "aliwa": 4837,
      "tÃŃĠÃ³ĠtiĠ": 4838,
      "ĠáĬ«áĪį": 4839,
      "Wah": 4840,
      "iranĠ": 4841,
      "erĠofĠ": 4842,
      "áī¨áĪŃ": 4843,
      "Eg": 4844,
      "ikiaĠ": 4845,
      "áį¤Ġáīł": 4846,
      "au,Ġ": 4847,
      "Gen": 4848,
      "JamesĠ": 4849,
      "oundĠ": 4850,
      "ĠáĬ¥áĮħáĮį": 4851,
      "áĪªáī³": 4852,
      "áĭ¨áĪĺ": 4853,
      "uoĠ": 4854,
      "JinaĠ": 4855,
      "Kit": 4856,
      "Waz": 4857,
      "Ġáĭ¨áĭĵ": 4858,
      "gabatarĠdaĠ": 4859,
      "Adam": 4860,
      "MwakaĠwaĠ": 4861,
      "yÃłnĠ": 4862,
      "Ãłj": 4863,
      "rashinĠ": 4864,
      "fina-fin": 4865,
      "yr": 4866,
      "45": 4867,
      "áĬŃáĪŃáĪµáī²áĭ«áĬķ": 4868,
      "Apr": 4869,
      "ax": 4870,
      "kwanzaĠ": 4871,
      "redĠ": 4872,
      "áĬ½": 4873,
      "Alex": 4874,
      "Gwamn": 4875,
      "Ng": 4876,
      "labar": 4877,
      "áī²áĬŃ": 4878,
      "mi": 4879,
      "ick": 4880,
      "eff": 4881,
      "ĠáĪĽáĮ£": 4882,
      "raf": 4883,
      "ock": 4884,
      "jerinĠ": 4885,
      "hiyoĠ": 4886,
      "áĬķĠáī°": 4887,
      "kumaĠk": 4888,
      "men": 4889,
      "áī£áĪįáį¢": 4890,
      "ext": 4891,
      "o:Ġ": 4892,
      "ĠáĭŃáī³áĭĪáīĥáĪįáį¢": 4893,
      "opoĠ": 4894,
      "ifuat": 4895,
      "Marej": 4896,
      "ÃĢwá»įnĠÃ¬t": 4897,
      "wakatiĠwaĠ": 4898,
      "pá»įÌĢlá»į": 4899,
      "3,": 4900,
      "group": 4901,
      "áĪ³áī°": 4902,
      "prÃ©sent": 4903,
      "oirĠ": 4904,
      "ĠáĬłáįį": 4905,
      "Láº¹Ìģ": 4906,
      "aĠB": 4907,
      "kasaĠ": 4908,
      "Cap": 4909,
      "gasarĠ": 4910,
      "ĠáīłáĪį": 4911,
      "Ã©ĠparĠ": 4912,
      "áīĥáĪį": 4913,
      "KanananĠhukumominĠ": 4914,
      "Ã©p": 4915,
      "lil": 4916,
      "rá»įĠ": 4917,
      "Ġáĭ¨áī³": 4918,
      "áī¥áĪŃáĪĥ": 4919,
      "áĬĳáĪµ": 4920,
      "Æ³": 4921,
      "ity,Ġ": 4922,
      "thro": 4923,
      "a'aik": 4924,
      "indaĠtaĠ": 4925,
      "Ġáĭ¨áĬĲáīłáĪ¨áĭį": 4926,
      "uelĠ": 4927,
      "áĪĪáī°áĬĽáĭį": 4928,
      "ĠáĬłáĭ²áĪµ": 4929,
      "isteĠ": 4930,
      "ansuĠ": 4931,
      "zinaz": 4932,
      "1Ġ-Ġ": 4933,
      "eziĠ": 4934,
      "áĬķáĮ«": 4935,
      "Vol": 4936,
      "áīłáĬĽ": 4937,
      "aĠkwaĠm": 4938,
      "aunaĠ": 4939,
      "ĠáĭŃáī½áĪĭáĪįáį¢": 4940,
      "ĠáĬ¥áĭµ": 4941,
      "ĠáĭŃáī»": 4942,
      "áī£áĪī": 4943,
      "udiĠ": 4944,
      "kwenyeĠ": 4945,
      "ĠáĬ¥áĬķáĭ°áĪĨáĬĲ": 4946,
      "ungan": 4947,
      "áĬ¾": 4948,
      "Ġáĭ¨áĪĨáĬĳ": 4949,
      "Ġáĭ©áĬĴ": 4950,
      "DecemberĠ": 4951,
      "vers": 4952,
      "ed,Ġ": 4953,
      "ia.Ġ": 4954,
      "ariki": 4955,
      "awak": 4956,
      "gbajÃºmá»įÌĢĠ": 4957,
      "áī¥áĪĬáĬŃ": 4958,
      "fitoĠ": 4959,
      "áĮ¼": 4960,
      "áīµĠáī°": 4961,
      "9-": 4962,
      "Hen": 4963,
      "oldĠ": 4964,
      "conn": 4965,
      "ĠáĭĵáĬŃáĪįáīł.ĠáĮįáĭµáĪĿ": 4966,
      "iyoy": 4967,
      "co": 4968,
      "áĬĭáĪĭ": 4969,
      "áĪ«áī¸áĭį": 4970,
      "ret": 4971,
      "aĠJiharĠ": 4972,
      "áĭ«áĭ«": 4973,
      "wararr": 4974,
      "intaĠnaĠ": 4975,
      "iâĢĻarĠ": 4976,
      "wÃ³nĠ": 4977,
      "yenyeĠ": 4978,
      "loriĠ": 4979,
      "áī£áĪħ": 4980,
      "ThisĠ": 4981,
      "risti": 4982,
      "iyaĠdaĠ": 4983,
      "nÃ¬": 4984,
      "ternĠ": 4985,
      "Ayy": 4986,
      "faitĠ": 4987,
      "áĭĽáĪ¬": 4988,
      "Sen": 4989,
      "nolog": 4990,
      "áĪŃ-": 4991,
      "abr": 4992,
      ".ĠK": 4993,
      "ĠáĬ«áĪĮ": 4994,
      "resp": 4995,
      "Najeriya": 4996,
      "áĮłáīĢáĪĿ": 4997,
      "eneoĠlaĠ": 4998,
      "oseluĠ": 4999,
      ":ĠTheĠ": 5000,
      "Ġáĭ«áĪī": 5001,
      "iakaĠm": 5002,
      "Ã¨meĠ": 5003,
      "su.": 5004,
      "owaĠ": 5005,
      "áĬłáĪĿ": 5006,
      "iĠtaĠ": 5007,
      "atsay": 5008,
      "yaĠKemi": 5009,
      "ÃªmeĠ": 5010,
      "ÃĢwá»įnĠáº¹láº¹ÌģbÃ¹nĠ": 5011,
      "á»įÌģkasÃŃ": 5012,
      "GeorgeĠ": 5013,
      "fac": 5014,
      "áĬ¡": 5015,
      "Arab": 5016,
      "ĠáĪ«áĪµ": 5017,
      "Bell": 5018,
      "iyoyinĠ": 5019,
      "Janair": 5020,
      "Nuw": 5021,
      "ÃłrÃŃ": 5022,
      "DolaĠ": 5023,
      "Maj": 5024,
      "áĬ«áĪį": 5025,
      "ÃĢÃłráº¹Ġ": 5026,
      "ific": 5027,
      "nÃŃnuĠ": 5028,
      "Waliofariki": 5029,
      "shindiĠwaĠTuzoĠyaĠNobelĠyaĠKemi": 5030,
      "Ã²rÃ¹nĠ": 5031,
      "áĪ±áĪĿ": 5032,
      "35": 5033,
      "Soci": 5034,
      "dro": 5035,
      "Hisp": 5036,
      "eĠtaĠ": 5037,
      "ĠáĭĵáĪĺáī±": 5038,
      "yaĠyiĠ": 5039,
      "áīģáĪŃ": 5040,
      "nÃ¡Ãł.": 5041,
      "ĠApriliĠ": 5042,
      "Mu": 5043,
      "Born": 5044,
      "Roma,Ġ": 5045,
      "hud": 5046,
      "páº¹l": 5047,
      "kuz": 5048,
      "okeaĠ": 5049,
      "ĠáīłáĪ¨": 5050,
      "tron": 5051,
      "Waliozaliwa": 5052,
      "zaÉĵ": 5053,
      "iziĠ": 5054,
      "incl": 5055,
      "áĭ°áĪ¨áĮī": 5056,
      "sos": 5057,
      "ellesĠ": 5058,
      "ĠáĪĪáĬ¥": 5059,
      "Ġáĭ¨áī°áĬŃáĪī": 5060,
      "ĠáĭįáĪµáĮ¥Ġáĭ¨áĪļáĮĪáĬĿ": 5061,
      "inn": 5062,
      "áĭįáĪµ": 5063,
      "ijobaĠ": 5064,
      "aĠyankinĠ": 5065,
      "usul": 5066,
      ")ĠáĬ¨": 5067,
      "dat": 5068,
      "Ã¬f": 5069,
      "ĠáīłáĬ©áĪį": 5070,
      "áĮĪáĭĽ": 5071,
      "kik": 5072,
      "pap": 5073,
      "tÃłĠ": 5074,
      "Ãłg": 5075,
      "awalaĠ": 5076,
      "aĠkamaĠ": 5077,
      "ing,Ġ": 5078,
      "áĮłáĪĭ": 5079,
      "beenĠ": 5080,
      "esab": 5081,
      "áī³áī½áĬķ": 5082,
      "Josep": 5083,
      "ItĠ": 5084,
      "Ġáī°áīĭ": 5085,
      "ziliz": 5086,
      "Es": 5087,
      "arciĠ": 5088,
      "áĬĿáĬĲáīµ": 5089,
      "ĠáĮĪáī¥": 5090,
      "insuĠ": 5091,
      "ataif": 5092,
      "ÆĻir": 5093,
      "ÆĻasaĠ": 5094,
      "Ġáī¤áī°ĠáĬŃáĪŃáĪµáī²áĭ«áĬķ": 5095,
      "utĠ": 5096,
      "age": 5097,
      "DanĠ": 5098,
      "7-": 5099,
      "Cong": 5100,
      "Ãłb": 5101,
      "ojaĠwaĠ": 5102,
      "ĠáĪŀáīµ": 5103,
      "ĠáĪľáīµáĪŃ": 5104,
      "ĠáįķáĪ¬áĭļ": 5105,
      ".,Ġ": 5106,
      "onĠ(": 5107,
      "princip": 5108,
      "illĠ": 5109,
      "ĠáīłáĭĺáĪĺáĬĲĠáĭ®áĪĲáĬķáĪµ": 5110,
      "ĠáĭįáĮ¤": 5111,
      "iĠkoĠ": 5112,
      "ulkinĠ": 5113,
      "kasaĠdaĠ": 5114,
      "tsawonĠ": 5115,
      "KaramarĠ": 5116,
      "vari": 5117,
      "áĬķáĭ²": 5118,
      "áĬłáĪį": 5119,
      "ĠáĪ¥áĪĭáĪ´": 5120,
      "ĠáĭŃáĪħáĪĿ": 5121,
      "áĭ£": 5122,
      "tiĠwonĠ": 5123,
      "ÃĮb": 5124,
      "Ġd'": 5125,
      "Lou": 5126,
      "9Ġ-Ġ": 5127,
      "Ã©cr": 5128,
      "ĠáĬłáĪ°": 5129,
      "áĭµáĪµáīµ": 5130,
      "waĠmasoĠ": 5131,
      "Ġáī°áĭĪáĪĪ": 5132,
      "mulkinĠ": 5133,
      "VI": 5134,
      "áĪ©áīµ": 5135,
      "BC": 5136,
      "áĬķáĭ¶": 5137,
      "aminĠ": 5138,
      "''": 5139,
      "ĠáĪķáĭĿ": 5140,
      "Sat": 5141,
      "ĠáĮįáī¥áĮ½": 5142,
      "Ã¯": 5143,
      "áĬ¨áįį": 5144,
      "awanĠ": 5145,
      "áīĢáĭµáĪŀ": 5146,
      "áĭķáĭĿ": 5147,
      "áĪįáīµ": 5148,
      "alÃ¡Ã¬": 5149,
      "aĠNajeriyaĠ": 5150,
      "leĠm": 5151,
      "aĠgarinĠ": 5152,
      "Up": 5153,
      "faf": 5154,
      "Ġáĭ±": 5155,
      "zur": 5156,
      "ĠáīµáĪįáīħ": 5157,
      "anaĠnaĠm": 5158,
      "Ãłwá»įnĠá»įjá»įÌģÃ¬bÃŃĠnÃŃĠ": 5159,
      "ajiĠwaĠfilamuĠ": 5160,
      "ĠáįĢ": 5161,
      "áīħáĪµ": 5162,
      "nasar": 5163,
      "yiĠm": 5164,
      "unciĠ": 5165,
      "baĠtaĠ": 5166,
      "dabanĠ": 5167,
      "Ã³mÃ¬n": 5168,
      "ingu": 5169,
      "áĬķáĭ³áĪŃ": 5170,
      "aticĠ": 5171,
      "áĪĪáĪģ": 5172,
      "áīĢáĪį": 5173,
      "Ġá»įdÃºnĠ200": 5174,
      "36": 5175,
      "iĠkamaĠ": 5176,
      "Abuj": 5177,
      "Pas": 5178,
      "Ġáĭ¨áĪ°áĭį": 5179,
      "ĠáĮ½áĪĳáįį": 5180,
      "Ã¼": 5181,
      "ism": 5182,
      "ĠáīģáĮ¥": 5183,
      "nÃŃnÃºĠerÃ©Ġ": 5184,
      "sikuĠyaĠ": 5185,
      "áĪ¨áĮį": 5186,
      "áĭ³áĮħ": 5187,
      "leurĠ": 5188,
      "ÃĴg": 5189,
      "Ġáī°áįĪ": 5190,
      "áĬ¨áī°áĪĪáĭį": 5191,
      "ful": 5192,
      "ie": 5193,
      "UN": 5194,
      "Ġáĭŀ": 5195,
      "á»įÌģá»įÌĢ": 5196,
      "nÃŃĠÃĮpÃŃnláº¹ÌĢĠ": 5197,
      "ÅĦĠá¹£": 5198,
      "nÃŃnÃº": 5199,
      "asĠtheĠ": 5200,
      "ienĠ": 5201,
      "kÃº": 5202,
      "un.": 5203,
      "ierĠ": 5204,
      "laĠk": 5205,
      "aguz": 5206,
      "WestĠ": 5207,
      "ost": 5208,
      "sÃŃĠnÃŃĠ": 5209,
      "ymp": 5210,
      "azamaĠpiaĠ": 5211,
      "ayenĠ": 5212,
      "Sud": 5213,
      "shar": 5214,
      "wang": 5215,
      "ĠáĬ¥áĬķáĭ°áī°": 5216,
      "struc": 5217,
      "EbunĠ": 5218,
      "year": 5219,
      "ÙĴ": 5220,
      "olon": 5221,
      "áĪ¥áī±": 5222,
      "Mut": 5223,
      "áĭ³áĬķáīµ": 5224,
      "ĠáĪĺáĪ¨áĮĥ": 5225,
      "a,": 5226,
      "Fasih": 5227,
      "ĠáīłáĪĺáĪĨáĬĳ": 5228,
      "ĠáĭµáĬķ": 5229,
      "imaĠ": 5230,
      "yawanĠjama'aĠ": 5231,
      "Uingerez": 5232,
      "wajeĠ": 5233,
      "áĮİáĪŃáĮİáĪŃ": 5234,
      "Te": 5235,
      "utiĠ": 5236,
      "anarĠ": 5237,
      ",ĠM": 5238,
      "Kiswah": 5239,
      "amiĠ": 5240,
      "ĠáĪĿáĬķáĮŃ": 5241,
      "takaĠ": 5242,
      "temp": 5243,
      "áĬķĠáĪĪáĪĺ": 5244,
      "ĠáĪµáĪĪáĭļáĪħ": 5245,
      "Lak": 5246,
      "Port": 5247,
      "ĠR": 5248,
      "omonĠ": 5249,
      "agn": 5250,
      "áĬ¨áī¥": 5251,
      "AnĠhaifeĠ": 5252,
      "al'umm": 5253,
      "34": 5254,
      "áĮ¾": 5255,
      "class": 5256,
      "ĠáįĬáĭ°áĪį": 5257,
      "ĠáĪĽáĪŃáīĨáĪµ": 5258,
      "withĠtheĠ": 5259,
      "pass": 5260,
      "sáº¹ÌĢĠ": 5261,
      "7Ġ-Ġ": 5262,
      "Amáº¹ÌģrÃŃkÃłĠ": 5263,
      "áī§": 5264,
      "ÆĻungiyarĠ": 5265,
      "jam'": 5266,
      "áĬªáĭ«": 5267,
      "Nijeriya.": 5268,
      "áįĪáĮ¥áĪ®": 5269,
      "jiniĠ": 5270,
      "yn": 5271,
      "alik": 5272,
      "Ġáīłáĭ¨": 5273,
      "ĠAfr": 5274,
      "lav": 5275,
      "icaĠ": 5276,
      "áį¡áĭ¨": 5277,
      "arm": 5278,
      "akatifuĠ": 5279,
      "wanaf": 5280,
      "oyeĠ": 5281,
      "ĠáįķáĪ®": 5282,
      "pÃ¡": 5283,
      "rab": 5284,
      "harshenĠ": 5285,
      "Nijeriya.Ġ": 5286,
      "HukumarĠ": 5287,
      "leur": 5288,
      "ÃªtreĠ": 5289,
      "hor": 5290,
      "ĠáĬłáĭµ": 5291,
      "Ġáĭ¨áĬĸ": 5292,
      "iwonĠ": 5293,
      "yaĠmutuĠ": 5294,
      "áĪµáĪ«áīħ": 5295,
      "-áº¹ÌĢ": 5296,
      "22": 5297,
      "Tun": 5298,
      "lamuĠ": 5299,
      "ron": 5300,
      "enez": 5301,
      "isionĠ": 5302,
      "FebruaryĠ": 5303,
      "Ø¨": 5304,
      "Ã©lÃ©": 5305,
      "ĠáĬ¥áĬķáĬ³": 5306,
      "uguĠ": 5307,
      "ĠáĬłáĪĿáĪĭáĬŃ": 5308,
      "div": 5309,
      "ini": 5310,
      "Ã¬bÃŃ": 5311,
      "páº¹luĠ": 5312,
      "ĠáīłáĮ¥": 5313,
      "WilliamĠ": 5314,
      "oot": 5315,
      "whoĠ": 5316,
      "áĭ¨áĭį": 5317,
      "áĪ«áĪĿ": 5318,
      "áĬłáĭŃ": 5319,
      "SeptemberĠ": 5320,
      "pÃ¨ĠnÃŃĠ": 5321,
      "US": 5322,
      "mill": 5323,
      "áī£áī¥": 5324,
      "arkokinĠ": 5325,
      "ĠáĬłáĭŃáĭ°áĪĪáĪĿ": 5326,
      "udaĠ": 5327,
      "abij": 5328,
      "ĠáĪħáĭĿáī¥": 5329,
      "ĠáīłáĪĨ": 5330,
      "gÃ©nÃ©r": 5331,
      "loc": 5332,
      "ĠáĬŃáĪŃáĪµáī¶áĪµ": 5333,
      "perm": 5334,
      "arÃ¡ĠAmáº¹ÌģrÃŃkÃł": 5335,
      "ĠáĬłáī£áĪį": 5336,
      "shiryaĠ": 5337,
      "zabenĠ": 5338,
      "tattalinĠarz": 5339,
      "CityĠ": 5340,
      "d,Ġ": 5341,
      "áĬĲáĮĭ": 5342,
      "reeĠ": 5343,
      "yam": 5344,
      "á»įnĠ": 5345,
      "Ã¬pÃŃnláº¹ÌĢĠ": 5346,
      "oloj": 5347,
      "ojÃº": 5348,
      "BĠ": 5349,
      "hat": 5350,
      "ĠáĪĺáĭµ": 5351,
      "yank": 5352,
      "orunĠ": 5353,
      "ĠáīłáĪ«": 5354,
      "Thom": 5355,
      "áĪģáĪī": 5356,
      "OlÃ³": 5357,
      "ont": 5358,
      "áĭĿáĪĽáī½": 5359,
      "visiwaĠ": 5360,
      "Ã²unĠ": 5361,
      "áīłáĪ¬": 5362,
      "iĠmwaĠ": 5363,
      "ĠáĪļáĪĬ": 5364,
      "Ã¬tÃłnĠ": 5365,
      "sehemuĠ": 5366,
      "ĠáīłáĪ½áī³": 5367,
      "áĬķĠáīłáĪĺ": 5368,
      "aĠkoĠ": 5369,
      "ahiĠ": 5370,
      "ott": 5371,
      "arew": 5372,
      "etĠleĠ": 5373,
      "ĠáĬłáĬķáĭ³áĬķáĭµ": 5374,
      "mÃŃĠ": 5375,
      "lokacinĠdaĠ": 5376,
      "faĠ": 5377,
      "ĠáĬ¥áĪµáĬ¨Ġ20": 5378,
      "geĠ": 5379,
      "kÃ¬": 5380,
      "Braz": 5381,
      "ráº¹ÌĢ.": 5382,
      "CibiyarĠ": 5383,
      "dontĠ": 5384,
      "ĠáĪĺáĮ»": 5385,
      "AnnabiĠ": 5386,
      "Mah": 5387,
      "fan": 5388,
      "áĭĭáīµ": 5389,
      "ifÃ¡": 5390,
      "WilayaĠ": 5391,
      "Ã²g": 5392,
      "Ã²yÃ¬nĠ": 5393,
      "áĬ«áī³": 5394,
      "trad": 5395,
      "torÃŃĠ": 5396,
      "ĠáīłáĪĻáĪī": 5397,
      "RĠ": 5398,
      "hy": 5399,
      ",ĠtheĠ": 5400,
      "Ġáį«": 5401,
      "eux": 5402,
      "áĮĬáĪµ": 5403,
      "CharlesĠ": 5404,
      "ĠáĬ«áĪĮáĬķáĭ³áĪŃ": 5405,
      "Hak": 5406,
      "ĠáīłáĬ¢": 5407,
      "alum": 5408,
      "áĭĽáĭĿ": 5409,
      "70": 5410,
      "áĪµáĪĽ": 5411,
      "ĠáĭŃáĮłáīĢ": 5412,
      "ĠáĬ¥áĬķáĭ°áĮĪáĬĵ": 5413,
      "akam": 5414,
      "áĪµáīµáĬĵ": 5415,
      "ariĠt": 5416,
      "Æ³anĠ": 5417,
      "uliwaĠ": 5418,
      "Wam": 5419,
      "áĮİáĪŃáĮİáĪŃáĭ«áĬķ": 5420,
      "cetteĠ": 5421,
      "áĪŀáĬŃ": 5422,
      "áĮ£áĪįáĭ«áĬķ": 5423,
      "MkoaĠwaĠ": 5424,
      "coun": 5425,
      "ÃłÃły": 5426,
      "ikip": 5427,
      "imp": 5428,
      "sakand": 5429,
      "kejÃ¬Ġ": 5430,
      "áīĭáĬķáīĭ": 5431,
      "áĬķáĭ³áĬķáĭµ": 5432,
      "crÃ©": 5433,
      "áĬķĠáĪĽ": 5434,
      "áīłáĭį": 5435,
      "ali.": 5436,
      "Ġ(201": 5437,
      "áº¹ÌĢáº¹Ìģ": 5438,
      "ishaĠm": 5439,
      "fÃŃÃ¬mÃ¹Ġ": 5440,
      "ÃĢwá»įnĠáº¹láº¹ÌģbÃ¹nĠNobelĠ": 5441,
      "Turk": 5442,
      "rang": 5443,
      "ĠáĪİ": 5444,
      "áĪ³áĪį": 5445,
      "Ġ15": 5446,
      "otaĠ": 5447,
      "ĠáĪĺáī¶": 5448,
      "áĪįáĮħ": 5449,
      "áĭ«áĭĿ": 5450,
      "aya,Ġ": 5451,
      "á¹£uĠ": 5452,
      "AlÃ¡": 5453,
      "láº¹ÌģyÃ¬nĠ": 5454,
      "Yul": 5455,
      "AnaĠ": 5456,
      "ĠáĬĹ": 5457,
      "ĠáĪĪáī°": 5458,
      "argaj": 5459,
      "ºáį": 5460,
      "aĠwas": 5461,
      "utionĠ": 5462,
      "iĠaĠ": 5463,
      "arabuĠ": 5464,
      "áĪ«áĪ½": 5465,
      "wá»įĠ": 5466,
      "ká»įÌĢá»įÌģĠ": 5467,
      "Lagos": 5468,
      "ÃłgbÃ©lÃ©": 5469,
      "ĠáĪĽáĮ£áīĢ": 5470,
      "Can": 5471,
      "Vic": 5472,
      "áĭ³áĬķáĭ±": 5473,
      "cinĠk": 5474,
      "prot": 5475,
      "gl": 5476,
      "Ð¸": 5477,
      "ifeĠ": 5478,
      "BaadaĠyaĠ": 5479,
      "TibaĠmwakaĠwaĠ": 5480,
      "áĬķáīĢ": 5481,
      "Ãłf": 5482,
      "áįįáĬĵ": 5483,
      "aniĠnaĠ": 5484,
      "ali,Ġ": 5485,
      "kuuĠ": 5486,
      "akarant": 5487,
      "gwamnatinĠ": 5488,
      "iliminĠ": 5489,
      "identĠ": 5490,
      "áīłáĪ°": 5491,
      "angaz": 5492,
      "e)": 5493,
      "áī²áĬķ": 5494,
      "áĪįáīģ": 5495,
      "kutokaĠnchiĠyaĠ": 5496,
      "Ġáº¹ÌĢyÃłĠ": 5497,
      "Mac": 5498,
      "ĠáĪĿáĬĵáĪį": 5499,
      "progr": 5500,
      "TarayyarĠ": 5501,
      "ne,ĠdaĠkeĠ": 5502,
      "ĠáĪĿáĬĵáĪįáī£áīµ": 5503,
      "Ãºs": 5504,
      "Ġáī£áĪį": 5505,
      "yst": 5506,
      "ĠáĬłáī£áīµ": 5507,
      "sinimÃ¡Ġ": 5508,
      "Ba": 5509,
      "áĬ¥áĮįáĭļáĬłáī¥áĪĶáĪŃ": 5510,
      "ementsĠ": 5511,
      "ubuc": 5512,
      "jami'": 5513,
      "aikiĠaĠmatsayinĠ": 5514,
      "MakarantarĠ": 5515,
      "91Ġáĭĵ.áĪĿ.": 5516,
      "etĠlaĠ": 5517,
      "Ã³mÃ¬nÃłĠ": 5518,
      "therĠ": 5519,
      "eĠdÃ©": 5520,
      "AfirkaĠtaĠ": 5521,
      "áĮİáĪŃáĮİáĪŃáĭ«áĬķĠáĬ«áĪĮáĬķáĭ³áĪŃ": 5522,
      "áīµáĪĿ": 5523,
      "oloniĠ": 5524,
      "autaĠ": 5525,
      "Ãłwá»įnĠÃ¨nÃ¬yÃłnĠ": 5526,
      "yanay": 5527,
      "kutokanaĠnaĠ": 5528,
      "wengiĠ": 5529,
      "âĢİâĢİ": 5530,
      "ation.": 5531,
      "ĠáįĪáĪ¨áĬķ": 5532,
      "Atlant": 5533,
      "ĠnaĠ": 5534,
      "umiĠ": 5535,
      "press": 5536,
      "áĪİáĬķ": 5537,
      "ĠáĬłáĪģáĬķ": 5538,
      "gidaĠ": 5539,
      "inst": 5540,
      "gudanarĠdaĠ": 5541,
      "arc": 5542,
      "ĠáīłáĪķ": 5543,
      "ĠáĪĽáĪµáī³áĭĪáĪ»áĭİáī½": 5544,
      "Kor": 5545,
      "bil": 5546,
      "onaĠ": 5547,
      "áĭ®áĪŃáĮĬáĪµ": 5548,
      "¹áį": 5549,
      "kumb": 5550,
      "áĪ¥áĪ«áīħ": 5551,
      "tu": 5552,
      "awá»įn": 5553,
      "Ful": 5554,
      "moj": 5555,
      "ĠáĪ¹": 5556,
      "karniĠnaĠ": 5557,
      "ipin": 5558,
      "LegasĠ": 5559,
      "Had": 5560,
      "áĮĪáī¡": 5561,
      "áĪıáĪįáį¢": 5562,
      "peutĠ": 5563,
      "Str": 5564,
      "Indi": 5565,
      "nip": 5566,
      "pir": 5567,
      "unĠM": 5568,
      "TareheĠ": 5569,
      "Alexand": 5570,
      "sing": 5571,
      "ĠáĬłáĮĪáĪ«áīµ": 5572,
      "scien": 5573,
      "consid": 5574,
      "Pal": 5575,
      "Ġáīµáĭį": 5576,
      "Jum": 5577,
      "her": 5578,
      "áīłáĪī": 5579,
      "iev": 5580,
      "jum": 5581,
      "endaĠ": 5582,
      "tele.ĠItokasiĠÃĢwá»įnĠ": 5583,
      "pá»įÌĢlá»įpá»įÌĢĠ": 5584,
      "zan": 5585,
      "ilÃ©": 5586,
      "NovemberĠ": 5587,
      "nÃŃp": 5588,
      "ĠáĪįáī¥": 5589,
      "dansĠleĠ": 5590,
      "ary": 5591,
      ".ĠÃĢ": 5592,
      "ilos": 5593,
      "Ġáĭ¨áĪŀ": 5594,
      "KanoĠ": 5595,
      "Ġáĭ¨áĪļáĭ«áĪµ": 5596,
      "Mb": 5597,
      "ayans": 5598,
      "itaceĠ": 5599,
      "asharikiĠ": 5600,
      "ocinĠ": 5601,
      "asarautarĠ": 5602,
      "áĪµáĪį": 5603,
      "Ek": 5604,
      "ĠáĮ³": 5605,
      "oloseluĠ": 5606,
      "et,Ġ": 5607,
      "áĭ«áĬķáĭ³áĬķáĭ±": 5608,
      "autresĠ": 5609,
      "yaaniĠ": 5610,
      "aar": 5611,
      "tabb": 5612,
      "ĠáĮ«": 5613,
      "esiĠ": 5614,
      "leyĠ": 5615,
      "ĠáĭµáĬķáĮĭ": 5616,
      "Ġáĭ³áĪŃ": 5617,
      "sark": 5618,
      "áĪªáīµ": 5619,
      "ĠáĭŃáĭĪ": 5620,
      "aliz": 5621,
      "ĠáĬŃáįįáĪİáī½": 5622,
      "adayeĠ": 5623,
      "Ġá»įÌĢkanĠ": 5624,
      "Iv": 5625,
      "¸áį": 5626,
      "ĠáĭĪáĪįáĭ°": 5627,
      "includ": 5628,
      "a,ĠdaĠ": 5629,
      "áĭĺáĬķ": 5630,
      "OctoberĠ": 5631,
      "Akw": 5632,
      "Cal": 5633,
      "áĭ°áĪµ": 5634,
      "nemanĠ": 5635,
      "nyingiĠ": 5636,
      "larg": 5637,
      "ons": 5638,
      "import": 5639,
      "fasah": 5640,
      "maj": 5641,
      "afterĠ": 5642,
      "plac": 5643,
      "poss": 5644,
      "áĬĲáī±áĬķ": 5645,
      "tiqu": 5646,
      "kwambaĠ": 5647,
      "DolaĠlaĠ": 5648,
      "on-": 5649,
      "Ġáĭ¨áĬ®": 5650,
      "kabil": 5651,
      "ĠáīĢáĬķĠáį²áį±áį»áį": 5652,
      "áī³áī½": 5653,
      "áĪ³áĪ³áĭŃ": 5654,
      "á»įÌģn": 5655,
      "ÆĻidayarĠ": 5656,
      "ifoĠch": 5657,
      "awalaĠwaĠ": 5658,
      "áĬķĠáĪĪáĪĽ": 5659,
      "ansaĠ": 5660,
      "Ġáī¶": 5661,
      "ĠáĪĺáĪ³": 5662,
      "aĠmap": 5663,
      "hi": 5664,
      "ãĥ": 5665,
      "aĠkung": 5666,
      "áĮĪáĪªáī±": 5667,
      "lughaĠ": 5668,
      "wigizajiĠwaĠfilamuĠ": 5669,
      "rig": 5670,
      "Ġáī¥áĭĽáīµ": 5671,
      "ĠáĪĪáĪĿáĪ³áĪĮ": 5672,
      "bel": 5673,
      "haih": 5674,
      "áĬķáĪ³áĭĬ": 5675,
      "ity": 5676,
      "ĠáĪĺáĮ¥": 5677,
      "áīĢáĪ¨": 5678,
      "2Ġ-Ġ": 5679,
      "Arg": 5680,
      "8Ġ-Ġ": 5681,
      "Oy": 5682,
      "anyĠ": 5683,
      "aniĠ(": 5684,
      "áį¤Ġáĭ¨": 5685,
      "Lat": 5686,
      "ahariĠyaĠ": 5687,
      "biyarĠ": 5688,
      "bÃł": 5689,
      "áĪŃáī±": 5690,
      "Ã©lec": 5691,
      "áĬĲáĪ£": 5692,
      "ĠáĪ²áĪĨáĬķáį£": 5693,
      "waz": 5694,
      "Ġáī°áĬĵ": 5695,
      "yaraĠ": 5696,
      "prim": 5697,
      "31Ġ": 5698,
      "Sah": 5699,
      "RaisĠwaĠ": 5700,
      "ank": 5701,
      "ÃĢwá»įnĠá»įjá»įÌģÃ¬bÃŃĠnÃŃĠ": 5702,
      "bad": 5703,
      "ĠáĭĿáĪŃáĭ«": 5704,
      "Ã¶": 5705,
      "uĠaĠ": 5706,
      "áĭ©áĪµ": 5707,
      "ruwaĠ": 5708,
      "Ø¯": 5709,
      "ĠáīłáĮİáĪŃáĮİáĪŃáĭ«áĬķĠáĬ«áĪĮáĬķáĭ³áĪŃ": 5710,
      ".ĠÃĮ": 5711,
      "ayyukanĠ": 5712,
      "ĠáĮĢáĪĿáĪ®ĠáĬ¥áĪµáĬ¨Ġ20": 5713,
      "áī°áį¢": 5714,
      "áĪ©áĪĿ": 5715,
      "ainsiĠ": 5716,
      "---": 5717,
      "Ã¤": 5718,
      "áī¾": 5719,
      "el,Ġ": 5720,
      "Ġ(áĬ¥áĬķáĮįáĪĬáĭĿáĬĽ": 5721,
      "Waf": 5722,
      "der": 5723,
      "uriĠ": 5724,
      "Kin": 5725,
      "rĠ": 5726,
      "áĬķáĭ°áĪŃ": 5727,
      "olĠ": 5728,
      "Ġáĭ¨áĬ¦": 5729,
      "Ġá»įmá»įĠorÃŃláº¹ÌĢ-Ã¨dÃ¨Ġ": 5730,
      "Litt": 5731,
      "aularĠ": 5732,
      "shirye-": 5733,
      "KadunaĠ": 5734,
      "ungu": 5735,
      "ĠáĬłáīĨáĮ£áĮłáĪŃĠ(áĬ¨": 5736,
      "1892Ġáĭĵ.áĪĿ.ĠáĮĢáĪĿáĪ®ĠáĬ¥áĪµáĬ¨Ġ20": 5737,
      "ĠáīĢáĬķĠáīłáĬ¢áīµáĭ®áĮµáĭ«ĠáĬłáīĨáĮ£áĮłáĪŃĠ(áĬ¨": 5738,
      "1892Ġáĭĵ.áĪĿ.ĠáĮĢáĪĿáĪ®ĠáĬ¥áĪµáĬ¨Ġ2091Ġáĭĵ.áĪĿ.": 5739,
      "ĠáīĢáĬķĠáīłáĬ¢áīµáĭ®áĮµáĭ«ĠáĬłáīĨáĮ£áĮłáĪŃĠ(áĬ¨1892Ġáĭĵ.áĪĿ.ĠáĮĢáĪĿáĪ®ĠáĬ¥áĪµáĬ¨Ġ2091Ġáĭĵ.áĪĿ.": 5740,
      "bet": 5741,
      "vin": 5742,
      "anon": 5743,
      "inÃºĠ": 5744,
      "o,Ġm": 5745,
      "ĠáĮĪáĭ°": 5746,
      "ĠáīĢáĬķĠáĪĽáĪĪáīµĠáĬĲáĭįáį¢": 5747,
      "Je": 5748,
      "Roy": 5749,
      "lÃłĠ": 5750,
      "|-Ġ": 5751,
      "succ": 5752,
      "fÃłĠ": 5753,
      "Ġáĭ¨áīĢáĬķĠáĪµáĪĿ": 5754,
      "ĠáĪ²áĪĨáĬķĠáĭŃáĪħĠáīĢáĬķĠáīłáĬ¢áīµáĭ®áĮµáĭ«ĠáĬłáīĨáĮ£áĮłáĪŃĠ(áĬ¨1892Ġáĭĵ.áĪĿ.ĠáĮĢáĪĿáĪ®ĠáĬ¥áĪµáĬ¨Ġ2091Ġáĭĵ.áĪĿ.": 5755,
      "ĠáīłáĬ¥áĬķáĮįáĪĬáĭĿáĬĽĠáĪ²áĪĨáĬķĠáĭŃáĪħĠáīĢáĬķĠáīłáĬ¢áīµáĭ®áĮµáĭ«ĠáĬłáīĨáĮ£áĮłáĪŃĠ(áĬ¨1892Ġáĭĵ.áĪĿ.ĠáĮĢáĪĿáĪ®ĠáĬ¥áĪµáĬ¨Ġ2091Ġáĭĵ.áĪĿ.": 5756,
      "ĠáīłáĮİáĪŃáĮİáĪŃáĭ«áĬķĠáĬ«áĪĮáĬķáĭ³áĪŃĠáĭ¨áīĢáĬķĠáĪµáĪĿ": 5757,
      "ĠáīłáĮİáĪŃáĮİáĪŃáĭ«áĬķĠáĬ«áĪĮáĬķáĭ³áĪŃĠáĭ¨áīĢáĬķĠáĪµáĪĿĠáīłáĬ¥áĬķáĮįáĪĬáĭĿáĬĽĠáĪ²áĪĨáĬķĠáĭŃáĪħĠáīĢáĬķĠáīłáĬ¢áīµáĭ®áĮµáĭ«ĠáĬłáīĨáĮ£áĮłáĪŃĠ(áĬ¨1892Ġáĭĵ.áĪĿ.ĠáĮĢáĪĿáĪ®ĠáĬ¥áĪµáĬ¨Ġ2091Ġáĭĵ.áĪĿ.": 5758,
      "eo": 5759,
      "com/": 5760,
      "áĪĮáĬŃáīµáĪªáĬŃ": 5761,
      "ix": 5762,
      "Î±": 5763,
      "oĠmak": 5764,
      "ĠáĮłáīħ": 5765,
      "ĠáĬĲáĮĪáĪŃĠáĮįáĬķ": 5766,
      "Ġáĭ¨áĪĺáĮĢáĪĺáĪªáĭ«áĭį": 5767,
      "ÃĢwá»įnĠÃ¨nÃ¬yÃłnĠ": 5768,
      "ĠáĬĥáĭŃáĪį": 5769,
      "OpenĠ": 5770,
      "Ġáī°áĭĭ": 5771,
      "áīħáĭ±áĪµ": 5772,
      "suchĠ": 5773,
      "Hany": 5774,
      "Mt": 5775,
      "amaĠm": 5776,
      "elec": 5777,
      "áĪ°áĪŃ": 5778,
      "ĠáĬĥáĭŃáĪĪ": 5779,
      "TĠ": 5780,
      "áĪĪáĪĺ": 5781,
      "áīłáīĥ": 5782,
      "Ġáīłáī°áĮ¨áĪĽáĪª": 5783,
      "ndÃŃn": 5784,
      "áī¥áĪ«áĭŃ": 5785,
      "digiriĠnaĠ": 5786,
      "Rich": 5787,
      "entiĠ": 5788,
      "áĬłáĪĪ": 5789,
      "encesĠ": 5790,
      "itz": 5791,
      "tanguĠ": 5792,
      "Ġáĭĺáĭ´": 5793,
      "auĠm": 5794,
      "ĠáĬłáĪĪáĪĿ": 5795,
      "JulyĠ": 5796,
      "ĠáĬ¥áĬĶ": 5797,
      "iedĠ": 5798,
      "web": 5799,
      "kuk": 5800,
      "áĬ¨áĭļáĭ«": 5801,
      "toĠgbaĠ": 5802,
      "ĠAb": 5803,
      "pÃłt": 5804,
      "Ãģfr": 5805,
      "áīłáīµĠáĮĬáĭľ": 5806,
      "ĠáĮĪáĬķ": 5807,
      "6Ġ-Ġ": 5808,
      "áĪĲáįĬ": 5809,
      "Ð¾": 5810,
      "KanananĠhukumominĠjiharĠ": 5811,
      "Ġáĭ¨áĪļáī³áĭĪ": 5812,
      "ta.": 5813,
      "vy": 5814,
      "Ġáĭ¨áĪĢ": 5815,
      "ipÃ²Ġ": 5816,
      "AlakosoĠ": 5817,
      "nÃŃnÃºĠÃłwá»įnĠ": 5818,
      "Ã¨rÃ¨Ġ": 5819,
      "lá»įÌģdÃºnĠ": 5820,
      "sil": 5821,
      "wing": 5822,
      "áĪªáĪµ": 5823,
      "natur": 5824,
      "akaĠdaĠ": 5825,
      "aiss": 5826,
      "indaĠyaĠ": 5827,
      "Pak": 5828,
      "pÃ¨": 5829,
      "Ã¹n-": 5830,
      "jiĠmkuuĠwaĠ": 5831,
      "endeleaĠku": 5832,
      "áĭŃáĪŃ": 5833,
      "ĠáĬłáĭ²áĪµĠáĬłáīłáī£": 5834,
      "áīĢáĮ¥": 5835,
      "ĠáĮįáĭĽ": 5836,
      "John": 5837,
      "Air": 5838,
      "Su": 5839,
      "Map": 5840,
      "etoĠ": 5841,
      "ÙİÙ": 5842,
      "cikiĠ": 5843,
      "aĠwasanĠ": 5844,
      "ĠáĬłáĭ¨áĪŃ": 5845,
      "cheĠ": 5846,
      "ambay": 5847,
      "ÉĹauk": 5848,
      "ers,Ġ": 5849,
      "TaĠyiĠ": 5850,
      "cutarĠ": 5851,
      "BKĠ(BaadaĠyaĠKristo).ĠMatukioĠWaliozaliwaĠWaliofarikiĠKarneĠyaĠ": 5852,
      "Kwam": 5853,
      "gur": 5854,
      "theyĠ": 5855,
      "ĠáĭŃáĪĦ": 5856,
      "sá»į": 5857,
      "olu": 5858,
      "nÃŃĠorÃŃláº¹ÌĢ-Ã¨dÃ¨Ġ": 5859,
      "FizikiaĠmwakaĠwaĠ": 5860,
      "áĮįáĪªáĬŃ": 5861,
      "áĭĽáĬĽáĭį": 5862,
      "áĪ²áĬķ": 5863,
      "áį£Ġ": 5864,
      "eĠdeĠl'": 5865,
      "Ġáīłáī¥áĭĽáīµ": 5866,
      "Ã©qu": 5867,
      "Dam": 5868,
      "aĠG": 5869,
      "awa.": 5870,
      "apr": 5871,
      "á¹£eĠ": 5872,
      "sukeĠ": 5873,
      "ĠáīĢáĬķĠ-": 5874,
      "ĠáĪµáĪĪáĪļ": 5875,
      "Ã©galementĠ": 5876,
      "NewĠYorkĠ": 5877,
      "ief": 5878,
      "Ġáį³áį": 5879,
      ")ĠnaĠ": 5880,
      "lambarĠyab": 5881,
      "Ut": 5882,
      "akeĠkir": 5883,
      "SchoolĠ": 5884,
      "contin": 5885,
      "nouv": 5886,
      "eliĠ": 5887,
      "Ã³Ġá¹£eĠ": 5888,
      "ole": 5889,
      "ĠáĬłáĪħ": 5890,
      "Ġáī£áĭŃ": 5891,
      "takrib": 5892,
      "ique,Ġ": 5893,
      "AfrikaĠKus": 5894,
      "ÃģfrÃŃ": 5895,
      "gaĠm": 5896,
      "alorsĠ": 5897,
      "áĪ°áĪĽ": 5898,
      "jÃłĠ": 5899,
      "áĭĺáĭį": 5900,
      "with": 5901,
      "áĪ©áį¢": 5902,
      "ariĠtaraĠdaĠ": 5903,
      "ĠáīĢáĭ³": 5904,
      "d'unĠ": 5905,
      "Academ": 5906,
      "Ġáī¥áĪĶáĪ«áĭĬ": 5907,
      "ĠáĪĺáĪįáĬŃáĭĵ": 5908,
      "mesĠ": 5909,
      "Â²": 5910,
      "áĭ³áĪį": 5911,
      "artĠ": 5912,
      "airesĠ": 5913,
      "áĬ¥áĬķáĭ²": 5914,
      "Democr": 5915,
      "IbrahimĠ": 5916,
      ".ĠB": 5917,
      "áīłáĪ³": 5918,
      "Ġá¹¢": 5919,
      "aĠtiĠ": 5920,
      "waĠkwaĠ": 5921,
      "taĠfaraĠ": 5922,
      "amfaniĠ": 5923,
      "ĠáĬłáĮĪáĪ®áī½": 5924,
      "bertĠ": 5925,
      "áĭµáĪ¨áĪµ": 5926,
      "ĠáĭĪáĭŃáĬķáĪĿ": 5927,
      "Wash": 5928,
      "s)Ġ": 5929,
      "Ã²finĠ": 5930,
      "darÃŃĠ": 5931,
      "Ġ~": 5932,
      "ĠáĪĺáĪĪ": 5933,
      "IIIĠ": 5934,
      "áīłáĪµ": 5935,
      "Fed": 5936,
      "bab": 5937,
      "euĠ": 5938,
      "hukoĠ": 5939,
      "velop": 5940,
      "anzib": 5941,
      "score0": 5942,
      "gargaj": 5943,
      "jul": 5944,
      "áĪŃáī£": 5945,
      "áĪĪáĪĿáĪ³áĪĮ": 5946,
      "RayuwarĠ": 5947,
      "al'ad": 5948,
      "kulaĠdaĠ": 5949,
      "almeĠ": 5950,
      "áīłáīħ": 5951,
      "ivyoĠ": 5952,
      "ĠáĪĻáĪī": 5953,
      "Yoh": 5954,
      ".ĠS": 5955,
      "intern": 5956,
      "ItaliaĠ": 5957,
      "ĠáīĢáĮ¥áĪİ": 5958,
      ")ĠáĬ¥áĬĵ": 5959,
      "sousĠ": 5960,
      "áĬĵáĭŃáīµ": 5961,
      "Ġáī£áĪħáĪŃ": 5962,
      "film": 5963,
      "aĠkatikaĠm": 5964,
      "áįįáĮ¥": 5965,
      "Shir": 5966,
      "Lang": 5967,
      "100Ġ": 5968,
      "áĮĪáĪ«áīµ": 5969,
      "leĠdeĠ": 5970,
      "Ġáĭ¨áī°áĪĺ": 5971,
      "atuĠ": 5972,
      "azarinĠ": 5973,
      "BestĠ": 5974,
      "áį¡áīł": 5975,
      "oup": 5976,
      "MaiĠ": 5977,
      "a),Ġ": 5978,
      "agenĠ": 5979,
      "lÃ¨": 5980,
      "mark": 5981,
      "áī°áĬĽáĭį": 5982,
      "herĠ": 5983,
      "áº¹áº¹": 5984,
      "iaĠyaĠK": 5985,
      "tÃŃĠÃ³Ġjáº¹ÌģĠ": 5986,
      "áĪ¸áĬĲ": 5987,
      "ĠáĬ¥áĮįáĭļáĬłáī¥áĪĶáĪŃ": 5988,
      "aĠlaĠ": 5989,
      "urr": 5990,
      "Republ": 5991,
      "Uh": 5992,
      "lÃ¹Ġ": 5993,
      "over": 5994,
      "Zanzib": 5995,
      "áĬķáĬŃ": 5996,
      "anĠdaĠ": 5997,
      "undĠ": 5998,
      "Christi": 5999,
      "KwalejinĠ": 6000,
      "áĬķáī³": 6001,
      "inĠjirginĠ": 6002,
      "áĭ´áīµ": 6003,
      "tarihinĠ": 6004,
      "Ġ*": 6005,
      "ĠáĬłáĪīáį¢": 6006,
      "bÃ¬nrinĠ": 6007,
      "jÃ¬Ġ": 6008,
      "mÃ¹Ġ": 6009,
      "ambayoĠ": 6010,
      "proc": 6011,
      "IlÃ©-": 6012,
      "pÃłtÃłk": 6013,
      "=\"": 6014,
      "nit": 6015,
      "ĠáĪĽáĮ£áīĢáĪ»": 6016,
      "TVĠ": 6017,
      "75": 6018,
      "hel": 6019,
      "ĠáĪĺáĮ£": 6020,
      "ceĠdakeĠ": 6021,
      "ablaĠ": 6022,
      "entomonĠ": 6023,
      "ÃłtiĠÃłwá»įnĠ": 6024,
      "Arew": 6025,
      "hivyoĠ": 6026,
      "Sikuku": 6027,
      "val": 6028,
      ",ĠleĠ": 6029,
      "fad": 6030,
      "iki.": 6031,
      "ile": 6032,
      "ijiĠyaĠ": 6033,
      "Stud": 6034,
      "ĠáįĸáĪĪáī²áĬ«": 6035,
      "áĭ³áĭµ": 6036,
      "kumaĠmaiĠ": 6037,
      "3Ġ-Ġ": 6038,
      "dog": 6039,
      "Den": 6040,
      "auc": 6041,
      "Bro": 6042,
      "oÃ¹Ġ": 6043,
      "woteĠ": 6044,
      "áĬķĠáĭ¨áĪļ": 6045,
      "wanasiasaĠ": 6046,
      "NÃŃĠá»įdÃºnĠ201": 6047,
      "UmojaĠwaĠ": 6048,
      "amba": 6049,
      "origin": 6050,
      "hiiĠ": 6051,
      "istaĠ": 6052,
      "es)Ġ": 6053,
      "ĠáĮ¥áĪ©": 6054,
      "KÃ¡": 6055,
      "ikish": 6056,
      "ĠáĪĽáĪŃáĭ«áĪĿ": 6057,
      "Ġáī³áĪªáĬ«áĭĬĠáĪĽáĪµáī³áĭĪáĪ»áĭİáī½": 6058,
      "bak": 6059,
      "ĠáīłáĪħ": 6060,
      "ilosoph": 6061,
      "aĠshekararĠ201": 6062,
      "kumaĠanĠ": 6063,
      "kif": 6064,
      "áĬłáĪµ": 6065,
      "Ele": 6066,
      "Kum": 6067,
      "do": 6068,
      "áīħáĭ«": 6069,
      "ezĠ": 6070,
      "ĠáīłáĪĽáĪĪáīµ": 6071,
      "doĠ": 6072,
      "estĠunĠ": 6073,
      "work": 6074,
      "áĮįáī£áĪŃ": 6075,
      "Lab": 6076,
      "áĬķĠáĬ¥áĬĵ": 6077,
      "rayuwaĠ": 6078,
      "moĠ": 6079,
      "áĭµáĪĺ": 6080,
      "Ġáī°áīĥ": 6081,
      "áįĪáĪĭ": 6082,
      "ĠáĬ¥áĬķáĮįáĪĬáĭĿáĬĽ": 6083,
      "Wad": 6084,
      "William": 6085,
      "áī¥áĪ«áĭŃáĪµáĮ¥": 6086,
      "áį¡áĬ¥": 6087,
      "Ã©eĠparĠ": 6088,
      "ĠáĬ¥áĬķáĭ³áĭŃ": 6089,
      "alÃłÃły": 6090,
      "á»įÌĢn": 6091,
      "ĠáīłáĬĭáĪĭĠáĬ¥áĪµáĬ¨": 6092,
      "ĠáīłáĭĺáĪĺáĬĲĠáĪīáīĥáĪµ": 6093,
      "AgbegbeĠ": 6094,
      "tof": 6095,
      "áĪŃáĮİ": 6096,
      "202": 6097,
      "karib": 6098,
      "trouv": 6099,
      "ĠáĮīáĭ³áĭŃ": 6100,
      "Val": 6101,
      "engineĠ": 6102,
      "long": 6103,
      "overĠ": 6104,
      "ĠáĪ¬": 6105,
      "áĪŀáīµ": 6106,
      "ovutiĠ": 6107,
      "olÃ³rinĠ": 6108,
      "ĠáĭĽáĪ¬": 6109,
      "balimbaliĠ": 6110,
      "gÃŃgaĠ": 6111,
      "ial": 6112,
      "ie,Ġ": 6113,
      "Kur": 6114,
      "áĪŃáī¶": 6115,
      "taĠm": 6116,
      "ĠáĪ³áĭŃáĬķáĪ³áĭĬ": 6117,
      "hom": 6118,
      "ryĠ": 6119,
      "yá»į": 6120,
      "áĬłáĬķáĭµ": 6121,
      "ĠÐ": 6122,
      "ÃĪkÃ³Ġ": 6123,
      "Jon": 6124,
      "áĬķáĮİ": 6125,
      "Ġáįİ": 6126,
      "ĠáĪĺáĪįáĬŃáĭĵĠáĪĿáĭµáĪŃ": 6127,
      "Ġ~Ġ": 6128,
      "saniĠdaĠ": 6129,
      ",ĠS": 6130,
      "ojuĠ": 6131,
      "AnĠgin": 6132,
      "hadaĠdaĠ": 6133,
      "ĠáĬłáįĪĠáī³áĪªáĬŃ": 6134,
      "JuneĠ": 6135,
      "Lim": 6136,
      "áĮ«áĭĪ": 6137,
      "AbubakarĠ": 6138,
      "obÃ¬nrinĠ": 6139,
      "Ġá¹£Ã¹gbá»įÌģnĠ": 6140,
      "á»ĮÌĢ": 6141,
      "DavidĠ": 6142,
      "Hous": 6143,
      "ĠáĪµáī¥áĪµ": 6144,
      "peop": 6145,
      "Ġáį»áį": 6146,
      "shekaraĠtaĠ200": 6147,
      "shiĠneĠdanĠwasanĠÆĻwallonĠÆĻafaĠtaĠÆĻasarĠIngila.": 6148,
      "cinĠkofinĠ": 6149,
      "iref": 6150,
      "ĠáĬłáī¶": 6151,
      "áĬ«áĪŃ": 6152,
      "wakatiĠ": 6153,
      "kwar": 6154,
      "Ã¨resĠ": 6155,
      "Dok": 6156,
      "áĬ®áĬĸ": 6157,
      "Ġáĭĭáī¢ĠáĪĿáĬķáĮ®áī½": 6158,
      "Ġ20": 6159,
      "awaĠnaĠ": 6160,
      "BritishĠ": 6161,
      "damaĠ": 6162,
      "ĠáĭµáĪŃáĮħáīµ": 6163,
      "wandaĠkeĠ": 6164,
      "zamaniĠ": 6165,
      "kirkir": 6166,
      "ÃĪkÃ³": 6167,
      "kÃ¹nrinĠ": 6168,
      "-d": 6169,
      "uceĠ": 6170,
      "Ġáīłáīµ": 6171,
      "áĭ«áĪį": 6172,
      "ĠáĬĵáīµáį¢": 6173,
      "ĠáĪļáĬĴáĪµáīµ": 6174,
      "ren": 6175,
      "Rad": 6176,
      "°áį»áį": 6177,
      "inĠ(": 6178,
      "áĪµáī´": 6179,
      "áĪĭáīģ": 6180,
      "yÃ¬n": 6181,
      "okeoĠyaĠ": 6182,
      "Î¿": 6183,
      "ondeĠ": 6184,
      "giz": 6185,
      "akat": 6186,
      "áĬ¨áĪĭ": 6187,
      "áĮ¥áĪĿ": 6188,
      "1)": 6189,
      "áĪİáĮĤ": 6190,
      "Ġ14": 6191,
      "exp": 6192,
      "áįĸáĪĪáī²áĬ«": 6193,
      "Ġ8": 6194,
      "ÃłgbÃł": 6195,
      "eniyanĠ": 6196,
      "idadiĠyaĠ": 6197,
      "ĠáĭįáĮŃ": 6198,
      "Ġáĭ°áĪ«áĪ²": 6199,
      "ĠáīłáĪµáī°": 6200,
      "wÃ¡jÃºĠ": 6201,
      "Sun": 6202,
      "nuf": 6203,
      "uĠM": 6204,
      "Ġáĭ¨áī°áī£áĪĪ": 6205,
      "Tanzania": 6206,
      "Åį": 6207,
      "áĮŃáĪŃ": 6208,
      "Wil": 6209,
      "tif": 6210,
      "usĠ(": 6211,
      "isc": 6212,
      "sÃ¬kÃ²Ġ": 6213,
      "intoĠ": 6214,
      "ĠáĮ¸áī£áĭŃ": 6215,
      "Ġáĭ¨áĪļáĮĪáĬĻ": 6216,
      "FranceĠ": 6217,
      "usin": 6218,
      "ĠáĭĪáĪĪ": 6219,
      "ĠáĬ¥áĬķáĭ°Ġáī°": 6220,
      "insaĠ": 6221,
      "ĠáĮĬáĭ®áĪŃáĮĬáĪµ": 6222,
      "Rh": 6223,
      "jÃ¹Ġ": 6224,
      "gbÃ³": 6225,
      "áĬ¨áī³": 6226,
      "iwaĠkuwaĠ": 6227,
      "elez": 6228,
      "ĠáīħáĪŃáĪµ": 6229,
      "ministr": 6230,
      "expl": 6231,
      "overnmentĠ": 6232,
      "onlyĠ": 6233,
      "abinĠ": 6234,
      "áĭµáĪ®": 6235,
      "áĮłáī¥": 6236,
      "FarkonĠ": 6237,
      "Reg": 6238,
      "eyiĠ": 6239,
      "mÃº": 6240,
      "kumbu": 6241,
      "AnĠhaifiĠ": 6242,
      "rubut": 6243,
      "BiranenĠ": 6244,
      "siyasaĠ": 6245,
      "wanamuzikiĠ": 6246,
      "áĬĵáĭŃáīµáĭµ": 6247,
      "6.Ġ": 6248,
      "ĠáīłáĬ®": 6249,
      "Olymp": 6250,
      "Alh": 6251,
      "ograf": 6252,
      "territ": 6253,
      "Tanb": 6254,
      "ifĠ": 6255,
      "Ã²á¹£erÃ©Ġ": 6256,
      "olÃ³á¹£Ã¨": 6257,
      "áĬŀáī¹": 6258,
      "Ġáī°áĬ¨áī³": 6259,
      "IjobaĠ": 6260,
      "fuataĠ": 6261,
      "RobertĠ": 6262,
      "yauĠ": 6263,
      "áĮĭáī¢": 6264,
      "AĠshekararĠ": 6265,
      "ĠáĭŃáĪĭáĪįáį¢": 6266,
      "oodĠ": 6267,
      "ina,Ġ": 6268,
      "Ġáī°áĪ«áĪ«": 6269,
      "ÃłgbÃ¡": 6270,
      "ĠáĬ¥áĪĿáĬĲáīµ": 6271,
      "aĠmas": 6272,
      "awezaĠ": 6273,
      "agbÃ¡": 6274,
      "shindiĠwaĠTuzoĠyaĠNobelĠyaĠKemiaĠmwakaĠwaĠ": 6275,
      "baiĠ": 6276,
      "afaĠ": 6277,
      "idiĠyaĠ": 6278,
      "ĠAug": 6279,
      "Larab": 6280,
      "uĠk": 6281,
      "aĠgab": 6282,
      "intĠ": 6283,
      "thernĠ": 6284,
      "Institut": 6285,
      "askazin": 6286,
      "abab": 6287,
      "idarĠ": 6288,
      "ĠáĪ²áĪĨáĬĳ": 6289,
      "weenĠ": 6290,
      "fun": 6291,
      "áĮįáĬĺ": 6292,
      "áĪ«áĪįáį¢": 6293,
      "gwamnanĠ": 6294,
      "shigaĠ": 6295,
      "sĠinĠ": 6296,
      "ĠáĬ¥áĪŃáĪ±": 6297,
      "abis": 6298,
      "olÃº": 6299,
      "áĪĮáĪİáī½": 6300,
      "ĠáĬ¥áĬķáĭ²áĭ«": 6301,
      "Jer": 6302,
      "áĪĿĠáĪĪ": 6303,
      "conom": 6304,
      "ion,Ġ": 6305,
      "franÃ§ais": 6306,
      "Law": 6307,
      "e),Ġ": 6308,
      "activ": 6309,
      "fordĠ": 6310,
      "ĠáĪĺáĮ¨áĪ¨áĪ»ĠáĭµáĪ¨áĪµ": 6311,
      "C.": 6312,
      "som": 6313,
      "vileĠ": 6314,
      ";Ġ(": 6315,
      "ji": 6316,
      "twoĠ": 6317,
      "ĠáĭĪáī³áĭ°": 6318,
      "ossĠ": 6319,
      "ĠáĬ¨áī°áĪĽĠáĬĲáĭįáį¢": 6320,
      "aimakinĠ": 6321,
      "haÉĹinĠ": 6322,
      "Oh": 6323,
      "rÃ¨": 6324,
      "ĠáīłáĬ¦": 6325,
      "âĢ¢ĠM": 6326,
      "AgbaĠ": 6327,
      "áĬ«áĪĿ": 6328,
      "4Ġ-Ġ": 6329,
      "áĭĺáĪĺ": 6330,
      "ĠáīłáĬĭáĪĭĠáĬ¥áĪµáĬ¨ĠáĭĵáĪĺáī±": 6331,
      "in-": 6332,
      "ÃĢĠ": 6333,
      "ĠáĮįáĬķáĬĻ": 6334,
      "crip": 6335,
      "Fabr": 6336,
      "Ġáīłáĭį": 6337,
      "ĠáĭµáĪį": 6338,
      "0Ġ-Ġ": 6339,
      "ĠáĪµáĪĪáĪĨáĬĲ": 6340,
      "kÃºr": 6341,
      "yas": 6342,
      "láº¹": 6343,
      "á»įÌģr": 6344,
      "pekeeĠ": 6345,
      "Ðµ": 6346,
      "áĭµáĬĵ": 6347,
      "okanĠ": 6348,
      "AliĠ": 6349,
      "ational": 6350,
      "áĪ²áī²": 6351,
      "Bak": 6352,
      "áĬŃáĪ²": 6353,
      "áĬ«áĬ¨áĪĪ": 6354,
      "ĠáĪ²áīĢ": 6355,
      "dÃ©part": 6356,
      "FIFAĠ": 6357,
      "áĮĪáĪ¨": 6358,
      "ajuĠ": 6359,
      "ĠáĪµáĪĭ": 6360,
      "ĠáĪ¥áįįáĪ«": 6361,
      "vic": 6362,
      "wá»įÌĢĠ": 6363,
      "áĪĨáĬĸ": 6364,
      "áĭ²áĭ®": 6365,
      "ĠáĭĺáĪĺáĬĵáĭĬ": 6366,
      "agbegbeĠ": 6367,
      "BirninĠ": 6368,
      "adhim": 6369,
      "AP": 6370,
      "ĠØ§ÙĦ": 6371,
      "ĠáĬłáįįáĪªáĬ«": 6372,
      "áĬ®áīµ": 6373,
      "Kul": 6374,
      "useĠ": 6375,
      "Ġáĭĺáįĭ": 6376,
      "Jar": 6377,
      "aelĠ": 6378,
      "kwan": 6379,
      "ĠáĬłáīħ": 6380,
      "aĠmakarantarĠ": 6381,
      "Tal": 6382,
      "pour": 6383,
      "osereĠ": 6384,
      "angĠ": 6385,
      "Ãłn.": 6386,
      "ammentĠ": 6387,
      "ĠáĪ¦áĪµáīµ": 6388,
      "Gar": 6389,
      "rest": 6390,
      "is.": 6391,
      "bisaĠgaĠ": 6392,
      "igab": 6393,
      "compos": 6394,
      "tÃŃĠÃ³ĠÅĦĠ": 6395,
      "JamiâĢĻarĠ": 6396,
      "âĢ¢ĠMtoĠ": 6397,
      "jour": 6398,
      "LondonĠ": 6399,
      "áĪĿĠáĪĨáĬĲ": 6400,
      "d'uneĠ": 6401,
      "IbnĠ": 6402,
      "ĠáĭŃáīĢáĪ«áĪīáį¢": 6403,
      "jimb": 6404,
      "tarĠ": 6405,
      "italĠ": 6406,
      "ighĠ": 6407,
      "áĬłáīµ": 6408,
      "assanĠ": 6409,
      "Ġá»įÌĢd": 6410,
      "mafiĠ": 6411,
      "áĪµáįĵáĬķáĭ«": 6412,
      "babbarĠ": 6413,
      "ici": 6414,
      "áĬ¨áĪ¨áĪĿ": 6415,
      "áĮ¡áīµ": 6416,
      "dak": 6417,
      "ĠáĪµáĪŀáī½": 6418,
      "4,": 6419,
      "DansĠ": 6420,
      "inform": 6421,
      "oĠtiĠ": 6422,
      "onÃŃá¹£": 6423,
      "áº¹ÌĢláº¹ÌĢĠ": 6424,
      "áī£áī³": 6425,
      "Alg": 6426,
      "Ã©taitĠ": 6427,
      "nyingineĠ": 6428,
      "kaskazin": 6429,
      "ollywoodĠ": 6430,
      "à¤ķ": 6431,
      "áīħáĪµáīĥ": 6432,
      "c.": 6433,
      "áĪµáī°áĬĽ": 6434,
      "taĠfarkoĠ": 6435,
      "aya.": 6436,
      "ĠáīµáĪĿáĪħáĪŃ": 6437,
      "kuduĠmasoĠ": 6438,
      "bincik": 6439,
      "Fabrair": 6440,
      "38": 6441,
      "99": 6442,
      "KingĠ": 6443,
      "áĮª": 6444,
      "annaĠ": 6445,
      "aziniĠ": 6446,
      "áĮħáĪĿ": 6447,
      "gbá»įÌĢnĠ": 6448,
      "kumbukumb": 6449,
      "shin": 6450,
      "áĪ°áĪį": 6451,
      "org/": 6452,
      "áĭĪáĭŃáĪĿ": 6453,
      "ĠáĭįáĪĥ": 6454,
      "stud": 6455,
      "Offic": 6456,
      "ikiped": 6457,
      "(199": 6458,
      "Ã©ĠdeĠ": 6459,
      "kasashenĠ": 6460,
      "áĪµáĪĪáĭļáĪħ": 6461,
      "AkwaiĠ": 6462,
      "ArewacinĠ": 6463,
      "AnĠginaĠbirninĠ": 6464,
      "áīħáĪµáīĥáĪ´": 6465,
      "hut": 6466,
      "ká»įÌĢĠ": 6467,
      "KĠ": 6468,
      ".ĠH": 6469,
      "ĠáīłáĬĭáĪĭĠáĬ¥áĪµáĬ¨ĠáĭĵáĪĺáī±ĠáĪĺáĮ¨áĪ¨áĪ»ĠáĭµáĪ¨áĪµ": 6470,
      "ES": 6471,
      "áĪĽáĪ½": 6472,
      "undum": 6473,
      "Ver": 6474,
      "log": 6475,
      "Ġáĭ¨áĭĵáĪĪáĪĿ": 6476,
      "mÃ©jÃ¬Ġ": 6477,
      "HotunaĠ": 6478,
      "Bau": 6479,
      "Lu": 6480,
      "koy": 6481,
      "Ġáī¥áĪŃáĪĥ": 6482,
      "Centr": 6483,
      "Dur": 6484,
      "Ġáīłáī°áĪĪ": 6485,
      "ember": 6486,
      "ĠáīµáĪŃ": 6487,
      "kÃºĠ": 6488,
      "áĪĿáįĴ": 6489,
      "áĪİáĪµ": 6490,
      "III": 6491,
      "lá»įÌģwá»įÌģĠ": 6492,
      "ĠáĮ½áĪķ": 6493,
      ",ĠmshindiĠwaĠTuzoĠyaĠNobelĠyaĠTibaĠmwakaĠwaĠ": 6494,
      "ÃĮbÃłd": 6495,
      "cy": 6496,
      "edĠasĠ": 6497,
      "áĬķáĮįáĪį": 6498,
      "Ne": 6499,
      "sk": 6500,
      "Alf": 6501,
      "Ġáī¡áĭµáĬķ": 6502,
      "ilsĠ": 6503,
      "aboutĠ": 6504,
      "Ã©ĠenĠ": 6505,
      "ĠáĪĿáĭķáĪ«áī¥": 6506,
      "Som": 6507,
      "nÃŃĠá»įdÃºnĠ201": 6508,
      "anim": 6509,
      "ĠáĭŃáĪĨáĬĵáĪįáį¢": 6510,
      "AD": 6511,
      "áįĪáĬķ": 6512,
      "ĠáĬŃáĪŃáĪµáī²áĭ«": 6513,
      "ĠáĬĲáĮĪáĪł": 6514,
      "rayuw": 6515,
      "usieursĠ": 6516,
      "bai": 6517,
      "oĠM": 6518,
      "onek": 6519,
      "ĠáĬ¥áĪĿ": 6520,
      "Alb": 6521,
      "áĪģáĪĪáīµ": 6522,
      "etiĠ": 6523,
      "ÃĢwá»įnĠÃĮt": 6524,
      "KanisaĠ": 6525,
      "kuhusuĠ": 6526,
      "ÃĢwá»įnĠÃ¨nÃ¬yÃłnĠalÃłÃły": 6527,
      "estiv": 6528,
      "yĠandĠ": 6529,
      "ĠáĭŃáĭ©": 6530,
      "ĠáĮĪáĮ½": 6531,
      "wid": 6532,
      "ayarĠdaĠ": 6533,
      "Ġáĭ¨áĪ´": 6534,
      "ida": 6535,
      "azz": 6536,
      "Sil": 6537,
      "fáº¹Ìģ": 6538,
      "nÃŃtorÃŃĠ": 6539,
      "maĠÅĦĠ": 6540,
      "wá»įÌģn": 6541,
      "FĠ": 6542,
      "taw": 6543,
      "áĪĽáĪį": 6544,
      "opol": 6545,
      "view": 6546,
      "Dev": 6547,
      "jus": 6548,
      "GÃ³mÃ¬nÃłĠ": 6549,
      "Ter": 6550,
      "ini.": 6551,
      "engaĠ": 6552,
      "isĠtheĠ": 6553,
      "barĠ": 6554,
      "tayiĠ": 6555,
      "aĠshekar": 6556,
      "taĠzamaĠ": 6557,
      "áĮĪáīµ": 6558,
      "Ġá¹£iá¹£áº¹ÌģĠ": 6559,
      "ĠáĪĺáĪłáĪ¨áīµ": 6560,
      "Ġáĭ¨áĪ®": 6561,
      "angl": 6562,
      "Alim": 6563,
      "áĬ¥áĬĲáĭļáĪħ": 6564,
      "dÃ©c": 6565,
      "auriĠ": 6566,
      "liv": 6567,
      "ox": 6568,
      "knownĠ": 6569,
      "dÃ¬": 6570,
      "pre": 6571,
      "rá»įÌĢ": 6572,
      ".ĠItokasi": 6573,
      "2010": 6574,
      "achĠ": 6575,
      "walikuwaĠ": 6576,
      "Iá¹£áº¹ÌģĠ": 6577,
      "paysĠ": 6578,
      "aĠdagaĠ": 6579,
      "ĠáĬĽ": 6580,
      "ahiyarĠ": 6581,
      "yanayinĠ": 6582,
      "wurinĠ": 6583,
      "HanyoyinĠ": 6584,
      "AwardĠ": 6585,
      "Sol": 6586,
      "Fren": 6587,
      "Ġ(áĬł": 6588,
      "trÃ¨sĠ": 6589,
      "áĪľáīµ": 6590,
      "ĠáĮĭáĪ«": 6591,
      "Ġáĭ¨áĬĲáīłáĪ©": 6592,
      "KunaĠ": 6593,
      "ram": 6594,
      "táº¹ÌĢ": 6595,
      "oĠchaĠ": 6596,
      "ĠáįįáĪ¬": 6597,
      "Ã¬sÃłnĠ": 6598,
      "n.k.": 6599,
      "ĠáĬłáĮĭ": 6600,
      "enĠ(": 6601,
      "aĠdaĠkumaĠ": 6602,
      "áĪ²áĭ«": 6603,
      "burg": 6604,
      "CC": 6605,
      "nomĠ": 6606,
      "ĠáĭĪáĮĪ": 6607,
      "ibleĠ": 6608,
      "epuisĠ": 6609,
      "áĬķáĮĮ": 6610,
      "ĠáĪļáĪĬáĭ®áĬķ": 6611,
      "Moh": 6612,
      "lib": 6613,
      "ĠáĭįáĪĢ": 6614,
      "ekĠ": 6615,
      "Ã¬bÃŃláº¹ÌĢĠ": 6616,
      "toĠgbaĠEbunĠ": 6617,
      "Ùĩ": 6618,
      "áĬŃáĪŃáĪµáī¶áĪµ": 6619,
      "Ġáĭ¨áĪ±": 6620,
      "áĮłáĪĪ": 6621,
      "ĠáĭĺáĪĺáĬķĠáĬłáīĨáĮ£áĮłáĪŃ": 6622,
      "ĠáĭķáĪĪáī°": 6623,
      "48": 6624,
      "ĠáĪĺáīħ": 6625,
      "acikinĠ": 6626,
      "ident": 6627,
      "annÃ©esĠ": 6628,
      "ahaifiy": 6629,
      "YorÃ¹bÃ¡": 6630,
      "ĠáĪįáĮģ": 6631,
      "Ġá»ĮdÃºnĠ": 6632,
      "ĠáĭŃáĪĺáĪµáĪĭáĪįáį¢": 6633,
      "mataĠ": 6634,
      "Ġáīłáīħ": 6635,
      "ĠáĪĿáĬķáĮĬáĭľ": 6636,
      "FM": 6637,
      "kom": 6638,
      "áĬ£": 6639,
      "Ã©rÃ©Ġ": 6640,
      "premierĠ": 6641,
      "Sok": 6642,
      "les": 6643,
      "okanaĠnaĠ": 6644,
      "Ġá¹£ÃŃá¹£": 6645,
      "anzish": 6646,
      "ndaniĠyaĠ": 6647,
      "nÃ¡Ãł,Ġ": 6648,
      "fÃºnĠÃłwá»įnĠ": 6649,
      "attaf": 6650,
      "kejÃ¬": 6651,
      "pÃłtÃłkÃ¬Ġ": 6652,
      "Ãį": 6653,
      "Åĵ": 6654,
      "áīĥáĭįáĬķ": 6655,
      "áī¨áĪŃáĪ²áī²": 6656,
      "33": 6657,
      "Ġáīª": 6658,
      "er,Ġm": 6659,
      "opĠ": 6660,
      "47": 6661,
      "igbaĠ": 6662,
      "cord": 6663,
      "toutĠ": 6664,
      "pÃłÃ¡Ġ": 6665,
      "Ġáĭ¨áĭįáĮŃ": 6666,
      "ilioniĠ": 6667,
      "gan": 6668,
      "rikic": 6669,
      "JosephĠ": 6670,
      "son": 6671,
      "ara": 6672,
      "2019,Ġ": 6673,
      "us.": 6674,
      "ingiaĠ": 6675,
      "2007Ġ": 6676,
      "etĠlesĠ": 6677,
      "B.": 6678,
      "ranĠ": 6679,
      "áĪİáī¹": 6680,
      "MarisĠ": 6681,
      "ÅĦĠá¹£eĠ": 6682,
      "Ġáī¢áĭ«": 6683,
      "hadiĠk": 6684,
      "Ã¬rÃ²yÃ¬nĠ": 6685,
      "ĠáĭķáĪĪáīµĠáīłáĬĭáĪĭĠáĬ¥áĪµáĬ¨ĠáĭĵáĪĺáī±ĠáĪĺáĮ¨áĪ¨áĪ»ĠáĭµáĪ¨áĪµ": 6686,
      "aprÃ¨sĠ": 6687,
      "Oj": 6688,
      "kayanĠ": 6689,
      "itoĠ": 6690,
      "ĠáĬłáĪĪáĭįáį¢": 6691,
      "ayyuk": 6692,
      "hank": 6693,
      "Mov": 6694,
      "kwam": 6695,
      "aĠfaraĠ": 6696,
      "báº¹ÌģĠ": 6697,
      "tash": 6698,
      "Ã©s": 6699,
      "lÃ©Ġráº¹ÌĢĠ": 6700,
      "Ãīt": 6701,
      "eneoĠyaĠ": 6702,
      "ĠáĪĺáĮ»áĪķ": 6703,
      "Laf": 6704,
      "áĬ«áĬ¤áĪį": 6705,
      "Ġáĭ¨áĬłáĭ¨áĪŃ": 6706,
      "zoĠ": 6707,
      "ufuĠ": 6708,
      "áīĤáĭ«": 6709,
      "eshiĠ": 6710,
      "gn": 6711,
      "akaf": 6712,
      "ĠáīłáĬ¤": 6713,
      "ĠáīłáĪĺáĪĨáĬķ": 6714,
      "bayarĠdaĠ": 6715,
      "áĮ»áįĪ": 6716,
      "o)Ġ": 6717,
      "wap": 6718,
      "Ġáīłáĭĵ": 6719,
      "Ġá»įÌĢrá»įÌĢĠ": 6720,
      "Ã¬dÃŃĠ": 6721,
      "atukio": 6722,
      "BBCĠ": 6723,
      "ixĠ": 6724,
      "áįĪáĪ«": 6725,
      "Ġáī£áĪķáĪŃ": 6726,
      "OgunĠ": 6727,
      "jÃ©Ġ": 6728,
      "le,Ġ": 6729,
      "qĠ": 6730,
      "áĪĭáĪµ": 6731,
      "iyaĠnaĠ": 6732,
      "(Ġ": 6733,
      "obiĠ": 6734,
      "Ãłwá»įnĠá»įmá»įĠ": 6735,
      "áĪĪáį¢": 6736,
      "áĭ«áĪľ": 6737,
      "afuĠ": 6738,
      "ĠáīłáĪĭ": 6739,
      "Kej": 6740,
      "fÃł": 6741,
      "ĠáĮįáĭµ": 6742,
      "Wais": 6743,
      "ĠáĬĲáĭįáį¢ĠáĬ¨": 6744,
      "aineĠ": 6745,
      "whenĠ": 6746,
      "Luc": 6747,
      "ĠáĮĥ": 6748,
      "áīĤáīµ": 6749,
      "áĬ¨áĭļáĪħĠáĭķáĪĪáīµĠáīłáĬĭáĪĭĠáĬ¥áĪµáĬ¨ĠáĭĵáĪĺáī±ĠáĪĺáĮ¨áĪ¨áĪ»ĠáĭµáĪ¨áĪµ": 6750,
      "yammacinĠ": 6751,
      "ĠáĭŃáī»áĪĭáĪįáį¢": 6752,
      "thanĠ": 6753,
      "áĬ¨áĪ°": 6754,
      "betweenĠ": 6755,
      "e\"Ġ": 6756,
      "kÃ¬Ġ": 6757,
      "pyaĠ": 6758,
      "áĬŃáĬķ": 6759,
      "wakaz": 6760,
      "ÃŃnÃºĠ": 6761,
      "ĠáĬłáĪĪáĭį": 6762,
      "....": 6763,
      "tÃŃĠwá»įÌģnĠbÃŃĠ": 6764,
      "zir": 6765,
      "umoĠ": 6766,
      "ĠáĬķáĮīáĪłĠáĬĲáĮĪ": 6767,
      "UnitedĠStat": 6768,
      "Kog": 6769,
      "shiĠdaĠ": 6770,
      "Portug": 6771,
      "Rash": 6772,
      "nje": 6773,
      "áĪ¨áĪŃ": 6774,
      "2018": 6775,
      "aniĠm": 6776,
      "aĠmwakaĠ": 6777,
      "pÃŃnláº¹ÌĢ": 6778,
      "mÃ¡aĠ": 6779,
      "Ot": 6780,
      "Ġáĭ¨áī£": 6781,
      "ambaz": 6782,
      "Fl": 6783,
      "Ath": 6784,
      "t.": 6785,
      "áīħáĬĵ": 6786,
      "ĠáĪįáĭ°áīµ": 6787,
      "IbileĠ": 6788,
      "ium": 6789,
      "áĪĿĠáĪĺ": 6790,
      "ÃºÃºs": 6791,
      "Ã³ĠsÃ¬Ġ": 6792,
      "Ġáĭ¨áĪļáĪ°": 6793,
      "ileĠniĠ": 6794,
      "Scien": 6795,
      "TanbihiĠ": 6796,
      "Dut": 6797,
      "áĪªáīĥ": 6798,
      "ipeĠ": 6799,
      "ĠáĬłáĪįáī°": 6800,
      "edĠbyĠtheĠ": 6801,
      "ra'": 6802,
      "áĭŃáĪģ": 6803,
      "lev": 6804,
      "Ash": 6805,
      "Ev": 6806,
      "da": 6807,
      "ivy": 6808,
      "ĠáĪ°áĬĲ": 6809,
      "play": 6810,
      "duĠm": 6811,
      "akawaĠ": 6812,
      "apÃ¡Ġ": 6813,
      "áī¸áĭī": 6814,
      "áĭĵáĬķ": 6815,
      "reĠdeĠ": 6816,
      "Ġáĭ¨áĪļáĮĪáĬĿáīłáīµ": 6817,
      ".ĠÃĢwá»įnĠÃ¬t": 6818,
      "maz": 6819,
      "áĭ«áĭĺ": 6820,
      "áĬķáĮīáĪ¥": 6821,
      "ce": 6822,
      "naf": 6823,
      "Ġáį©": 6824,
      "2015": 6825,
      "PD": 6826,
      "ĠáīĦ": 6827,
      "áĪĺáĮ¥": 6828,
      "ĠáĬĲáĮ¥": 6829,
      "empl": 6830,
      "ĠáĮĮáī³": 6831,
      "Ã¬gbÃ©": 6832,
      "áī³áĭĪáīĢ": 6833,
      "Láº¹ÌģyÃ¬nĠ": 6834,
      "yth": 6835,
      "ĠáĬłáĭ³": 6836,
      "áĬĲáĮį": 6837,
      "ĠáįĮ": 6838,
      "dansĠlesĠ": 6839,
      ".ĠManazarta": 6840,
      "tsohuwarĠ": 6841,
      "yayinĠdaĠ": 6842,
      "shirye-shiry": 6843,
      "osiĠ": 6844,
      "k,Ġ": 6845,
      "ĠáĬ¥áĪ±": 6846,
      "áĭµáĪį": 6847,
      "ĠáĬ¨áĪĽ": 6848,
      "Ġáįªáį»áį": 6849,
      "cert": 6850,
      "ĠáīĨáĭŃ": 6851,
      "We": 6852,
      "cal": 6853,
      "Ġáĭ¨áīĨ": 6854,
      "ĠáĭĪáĮ¥": 6855,
      "áī¸áĭĭáĪįáį¢": 6856,
      "inz": 6857,
      "ĠáĬłáĪĺáī³áīµ": 6858,
      "ThomasĠ": 6859,
      "meĠm": 6860,
      "spec": 6861,
      "Fasah": 6862,
      "</": 6863,
      "Nair": 6864,
      "Ros": 6865,
      "VisiwaĠ": 6866,
      "foisĠ": 6867,
      "pÃ²Ġ": 6868,
      "tÃ²": 6869,
      "yaliy": 6870,
      "tĠ(": 6871,
      "ayáº¹": 6872,
      "Ġá»įÌĢpá»įÌĢlá»įpá»įÌĢĠ": 6873,
      "yaoĠ": 6874,
      "áĬĵĠáĪĺáĭĭ": 6875,
      "39": 6876,
      "Rev": 6877,
      "Ġáī°áĮ½": 6878,
      "ĠáĪĬáīĢ": 6879,
      "'estĠ": 6880,
      "AM": 6881,
      "a).": 6882,
      "ĠáĮĪáĭ¥": 6883,
      "iensĠ": 6884,
      "eroĠ": 6885,
      "áĪĽáĭįáĭ«áĬķ": 6886,
      "karkashinĠ": 6887,
      "ajeĠ": 6888,
      "ĠáĪĨáĬĳ": 6889,
      "DarĠ": 6890,
      "cas": 6891,
      "áĪµáī¶": 6892,
      "áĪªáĬ®áī½": 6893,
      "áĬ«áĪĦ": 6894,
      "ĠAr": 6895,
      "áįĬáĭ«": 6896,
      "ood": 6897,
      "2019Ġ": 6898,
      "dinĠ": 6899,
      "aĠL": 6900,
      "inv": 6901,
      "áĪĪáīĢ": 6902,
      "MayĠ": 6903,
      "ajir": 6904,
      "obinĠ": 6905,
      "SaintĠ": 6906,
      "ObaĠ": 6907,
      "ginaĠ": 6908,
      "pia": 6909,
      "ĠáĬĥ": 6910,
      "taĠsamuĠ": 6911,
      "Ġáĭ«áĪ³": 6912,
      "huadhim": 6913,
      "sukaĠh": 6914,
      "talabij": 6915,
      "osp": 6916,
      "ĠáĪ²áĪį": 6917,
      "A)Ġ": 6918,
      "ĠáĬ¥áĬ©áĪį": 6919,
      "áĬ¨áĬĲ": 6920,
      "Â»,Ġ": 6921,
      "sir": 6922,
      "EnglishĠ": 6923,
      "Kais": 6924,
      "mostĠ": 6925,
      "oá¹£": 6926,
      "Ãłgb": 6927,
      "tÃŃĠaĠ": 6928,
      "owÃ³Ġ": 6929,
      "áĬĴáĪįáĬŃ": 6930,
      "Ã´t": 6931,
      "alÃ¡Ã¬sÃŃĠnÃŃĠ": 6932,
      "áĪ³áĪįáį¢": 6933,
      "áĭ°áĪŃáĮį": 6934,
      "ĠáīłáĬłáĪģáĬĳ": 6935,
      "fimĠdinĠ": 6936,
      "Nam": 6937,
      "jej": 6938,
      "ĠáīłáĪĢ": 6939,
      "ekoĠ": 6940,
      "egem": 6941,
      "ĠáĪĺáĬķáĮįáĪ¥áī³áīµ": 6942,
      "Que": 6943,
      "sau": 6944,
      "esĠandĠ": 6945,
      "igu": 6946,
      "áįĸáĪĬ": 6947,
      "zakeĠ": 6948,
      "inrinĠ": 6949,
      "afiĠk": 6950,
      "dansĠlaĠ": 6951,
      "qu'ilĠ": 6952,
      "SarkinĠ": 6953,
      "MarejeoĠ": 6954,
      "IjobaĠIbileĠ": 6955,
      "Ġáĭ¨áĪģ": 6956,
      "áĬ¨áĬĵ": 6957,
      "áįĪáĪ¨": 6958,
      "ambr": 6959,
      "ĠáīĤ": 6960,
      "awarĠdaĠ": 6961,
      "re.": 6962,
      "Sheh": 6963,
      "Burtan": 6964,
      "RayayyunĠM": 6965,
      "aĠkungiyarĠ": 6966,
      "dubuĠ": 6967,
      "áĪĪáĭĭáĪįáį¢": 6968,
      "ĠáīłáĪŀ": 6969,
      "ĠáĮĪáī¥áĪ¨": 6970,
      "haka,Ġ": 6971,
      "TarihinĠ": 6972,
      "abakiĠ": 6973,
      "ÃĢwá»įnĠá»įjá»įÌģ": 6974,
      "Ġ(BaadaĠyaĠKristo).ĠMatukioĠWaliozaliwaĠWaliofarikiĠKarneĠyaĠ": 6975,
      "sinimÃ¡ĠÃłgbÃ©lÃ©": 6976,
      "babaĠ": 6977,
      "jec": 6978,
      "yoteĠ": 6979,
      "banĠ": 6980,
      "ere": 6981,
      "takenĠ": 6982,
      "ĠáĭĺáĪĺáĬĲĠáĪĽáī´áĭİáĪµ": 6983,
      "500": 6984,
      "wez": 6985,
      "ine,Ġ": 6986,
      "Ġáī¥áĪĶáĪŃ": 6987,
      "ijer": 6988,
      "Ġáī¤áī¶áī½": 6989,
      "BabbanĠbirninĠ": 6990,
      "sojoj": 6991,
      "ne.Ġ": 6992,
      "pá»į": 6993,
      "pá»įĠ": 6994,
      "áĭŀáī½": 6995,
      "wengi,Ġ": 6996,
      "uhuruĠ": 6997,
      "Wab": 6998,
      "áĭ°áį¢": 6999,
      "2011": 7000,
      "pris": 7001,
      "ĠáĬŃáĪĪáī¥": 7002,
      "áĪµáĪĿ": 7003,
      "cultur": 7004,
      "68": 7005,
      "s.Ġ": 7006,
      "ualĠ": 7007,
      "áįı": 7008,
      "as.": 7009,
      "aĠmasuĠ": 7010,
      "aĠbiy": 7011,
      "sabab": 7012,
      "sakam": 7013,
      "Ã¬lÃº": 7014,
      "YunifÃ¡": 7015,
      "-áº¹ÌĢyáº¹Ġ": 7016,
      "ÃĢwá»įnĠá»įjá»įÌģalÃ¡Ã¬sÃŃĠnÃŃĠ": 7017,
      "re,Ġ": 7018,
      "áĪ³áĪ°": 7019,
      "ifar": 7020,
      "áĮĬáĭ«": 7021,
      "Mand": 7022,
      "ving": 7023,
      "áĭ·": 7024,
      "ĠáīłáĬĲ": 7025,
      "ic,Ġ": 7026,
      "ah,Ġ": 7027,
      "upĠ": 7028,
      "onyĠ": 7029,
      "onneĠ": 7030,
      "Ġáī°áĬŃáĪį": 7031,
      "ĠáĭŃáīĨ": 7032,
      "ĠáĬ¥áĬķáīħáĪµáīĥáĪ´": 7033,
      "RoyalĠ": 7034,
      "alsĠ": 7035,
      "áĭ°áĮĪ": 7036,
      "AT": 7037,
      "centr": 7038,
      "áĬ¨áī°áĪĽáĭį": 7039,
      "abubuwanĠ": 7040,
      "DeĠ": 7041,
      "dÃ³": 7042,
      "uteĠ": 7043,
      "tainĠ": 7044,
      "lÃ²": 7045,
      "ithĠ": 7046,
      "ĠáĪĬáĭ«": 7047,
      "Ġáī°áĬ¨áī³áĭŃ": 7048,
      "nombre": 7049,
      "Tech": 7050,
      "bro": 7051,
      "ami": 7052,
      "áĭ¨áĪļ": 7053,
      "uwa,Ġ": 7054,
      "Ã¬dÃ¡": 7055,
      "Ã²rÃ²Ġ": 7056,
      "zaidiĠ": 7057,
      "kilomitaĠ": 7058,
      "eyeĠ": 7059,
      "Kig": 7060,
      "Mur": 7061,
      "Å«": 7062,
      "waÆĻ": 7063,
      "hakanĠ": 7064,
      "daban-": 7065,
      "kwallonĠkaf": 7066,
      "Ġ9": 7067,
      "áĬķáĮĢ": 7068,
      "áĭ²áĪ±": 7069,
      "áĪ©áĬķ": 7070,
      "áĭŃáĪį": 7071,
      "AbuĠ": 7072,
      "AgbegbeĠIjobaĠIbileĠ": 7073,
      "def": 7074,
      "areĠnaĠ": 7075,
      "ollow": 7076,
      "áĮ¥áĪ¨ĠáĬĲáĮĪáĪ®áī½": 7077,
      "ĠáĪºáĪħ": 7078,
      "Shekar": 7079,
      "Iy": 7080,
      "kij": 7081,
      "oaĠ": 7082,
      "2014": 7083,
      "Ġáī°áĪĺáĪ³áĪ³áĭŃ": 7084,
      "dec": 7085,
      "áĪįáĮĭ": 7086,
      "eĠdagaĠ": 7087,
      "Shar": 7088,
      "ĠáĪĺáĪ°áĪ¨áīµ": 7089,
      "sosaiĠ": 7090,
      "ĠáĪĽáĪŃáīĨáĪµĠáĭ°áĮįáĪŀ": 7091,
      "jejen": 7092,
      "3)": 7093,
      "aneĠdaĠ": 7094,
      "wasaĠ": 7095,
      "ilÃ©-iá¹£áº¹ÌģĠ": 7096,
      "Sul": 7097,
      "ChinaĠ": 7098,
      "ĠáĬłáīĢáįį": 7099,
      "Ġáĭ¨áĪĪáĭį": 7100,
      "áĪĿáī¥": 7101,
      "ĠáĮĢáĪŃáĪĺáĬķ": 7102,
      "áĬ®áĬĸáĪļ": 7103,
      "áįĵáĬķ": 7104,
      "áįĸáĪŃáīµ": 7105,
      "ĠáĪĿáĪįáĬŃáīµ": 7106,
      "ikuuĠ": 7107,
      "taronĠ": 7108,
      "samoĠ": 7109,
      "niĠá»įdunĠ": 7110,
      "farkonĠ": 7111,
      "ĠáīµáĬķáĪ½": 7112,
      "ĠáĮįáĬķáĬĻáĬĲáīµ": 7113,
      "2)": 7114,
      "Do": 7115,
      "Ny": 7116,
      "ĠáĪĪáĪļ": 7117,
      "50Ġ": 7118,
      "Mex": 7119,
      "kareĠ": 7120,
      "AR": 7121,
      "----": 7122,
      "lá»į.": 7123,
      "dÃ¡raĠ": 7124,
      "MuhammaduĠ": 7125,
      "ijerum": 7126,
      "kok": 7127,
      "arsaĠ": 7128,
      "Ġáĭ¨áĪļáĪ°áĪ«": 7129,
      "áĭ±áį¢": 7130,
      "Kasuwan": 7131,
      "nasaraĠ": 7132,
      "birniĠne,ĠdaĠkeĠ": 7133,
      "ĠáĬ¨áĪĨáĬĲ": 7134,
      "isĠ(": 7135,
      "plusieursĠ": 7136,
      "::": 7137,
      "EastĠ": 7138,
      "kÃ¨Ġ": 7139,
      "uish": 7140,
      "Ø©": 7141,
      "Ġáĭ¨áĬłáĭįáĪ®áįĵ": 7142,
      "Americ": 7143,
      "áĪįáĪµáįįáĬĵ": 7144,
      "SouthĠ": 7145,
      "Sup": 7146,
      "wayĠ": 7147,
      "áĪĭáĪĭ": 7148,
      "gbÃ¡Ġ": 7149,
      "ationĠdeĠ": 7150,
      "wenyeweĠ": 7151,
      "beg": 7152,
      "Islam": 7153,
      "ĠáĬłáĪĿáī£": 7154,
      "anciĠdaĠ": 7155,
      "ÉĹayaĠdagaĠcikinĠ": 7156,
      "cit": 7157,
      "kÃ¹": 7158,
      "áĭ³áĪª": 7159,
      "ĠáīłáĪĺáī£áĪį": 7160,
      "Ġ12": 7161,
      "partĠ": 7162,
      "6)": 7163,
      "Ġáĭ¨áĮ¥": 7164,
      "ĠáĬ¥áĪ«áĪ±": 7165,
      "Ġáĭ¨áĬ¡": 7166,
      "ĠáīĥáĪĭáīµ": 7167,
      "South": 7168,
      "shidaĠ": 7169,
      "áĪµáī°áĪŃ": 7170,
      "ĠáĬŃáįįáĪĭáĮĪáĪŃ": 7171,
      "ĠáĬ¨áĪ°": 7172,
      "áĬ¥áĬĵ": 7173,
      "mataĠtaĠ": 7174,
      "zamanĠk": 7175,
      "perĠ": 7176,
      "táº¹l": 7177,
      "áĪŃáī³": 7178,
      "Ġáĭ«áĪĭáī¸áĭį": 7179,
      "áĮĭáīµ": 7180,
      "Ġáĭ¨áī°áī£": 7181,
      "áī¦áīµ": 7182,
      "ĠáĮĢáĪĺáĪ¨": 7183,
      "YohaneĠ": 7184,
      "manyanĠ": 7185,
      "owerĠ": 7186,
      "1999Ġ": 7187,
      "ĠáĮ£áĪį": 7188,
      "\"M": 7189,
      "P.": 7190,
      "ĠáįĴ": 7191,
      "ĠáĭĵáĭŃáĬĲáīµ": 7192,
      "¢áīµáĭ®áĮµáĭ«áĬķ": 7193,
      "ĠáĬłáĪĪáį¢": 7194,
      "Gud": 7195,
      "ĠáĪµáĬķ": 7196,
      "iĠkanĠ": 7197,
      "Ġáĭ¨áĭĵáĪĺáī±": 7198,
      "Kih": 7199,
      "band": 7200,
      "kÃ¡Ġ": 7201,
      "atolikiĠ": 7202,
      "anĠNajeriyaĠ": 7203,
      "áĬĲáĬĽ": 7204,
      "tiqueĠ": 7205,
      "toĠjeĠ": 7206,
      "ts,Ġ": 7207,
      "wendaĠ": 7208,
      "sukaĠk": 7209,
      "Ġáº¹ÌĢyáº¹Ġ": 7210,
      "saurans": 7211,
      "CN": 7212,
      "Way": 7213,
      "Zar": 7214,
      "ĠáĪµáĭ«áĪľ": 7215,
      "Dan": 7216,
      "pÃ¡Ġ": 7217,
      "alesĠ": 7218,
      "amar": 7219,
      "atiqu": 7220,
      "vitaĠ": 7221,
      "ĠáĪĽáĬħ": 7222,
      "Fat": 7223,
      "mor": 7224,
      "yÃ¨Ġ": 7225,
      "áĮİáī½": 7226,
      "ikiĠwaĠ": 7227,
      "ĠáĮĦ": 7228,
      "karibuĠ": 7229,
      "aph": 7230,
      "ĠáĪįáĪĽ": 7231,
      "aliye": 7232,
      "azamaĠpiaĠOrodhaĠyaĠ": 7233,
      "AlakosoĠAgbaĠ": 7234,
      "TV": 7235,
      "áĬķáĮ»": 7236,
      "eneĠ": 7237,
      "envir": 7238,
      "áĭ¨áĪ©": 7239,
      "áĬłáĪģ": 7240,
      "girmaĠ": 7241,
      "nau'": 7242,
      "áī½áĪī": 7243,
      "2015Ġ": 7244,
      "áī¦áĪŃ": 7245,
      "Sing": 7246,
      "iel": 7247,
      "uns": 7248,
      "awa": 7249,
      "2012Ġ": 7250,
      "áĬķáĮįáĪ¥áīµ": 7251,
      "áĪµáĬķ": 7252,
      "ĠáĪĿáĪħ": 7253,
      "kanĠtÃŃĠ": 7254,
      "uatanaĠnaĠ": 7255,
      "ÃłwÃ³Ġ": 7256,
      "ViungoĠvyaĠnje": 7257,
      "Sel": 7258,
      "rikaĠ": 7259,
      "ibnĠ": 7260,
      "Ġáĭ¨áĪħáĭĿáī¥": 7261,
      "AL": 7262,
      "bikinĠ": 7263,
      "Ã³p": 7264,
      "imaninĠ": 7265,
      "aĠkwall": 7266,
      "ShiĠneĠ": 7267,
      "áīĭáīĭ": 7268,
      "aĠdukĠ": 7269,
      "150": 7270,
      "auniyarĠ": 7271,
      "ĠáĪĺáĪįáĬ©": 7272,
      "Sala": 7273,
      "aĠp": 7274,
      "Ġáī°áĮ«": 7275,
      "ologieĠ": 7276,
      "Trans": 7277,
      "daid": 7278,
      "noĠ": 7279,
      "áīłáī³áĪįáį¢": 7280,
      "agharib": 7281,
      "uhimuĠ": 7282,
      "jáº¹ÌģĠá»įmá»įĠ": 7283,
      "DesembaĠ": 7284,
      "kmÂ²": 7285,
      "aan": 7286,
      "ahaliĠ": 7287,
      "ĠdonĠ": 7288,
      "áįĪáĪĭáĮĬ": 7289,
      "Hel": 7290,
      "ge": 7291,
      "Ġáĭ°áī¥": 7292,
      "Rec": 7293,
      "aĠdonĠ": 7294,
      "bÃłĠ": 7295,
      "yáº¹": 7296,
      "iláº¹ÌĢ": 7297,
      "ones": 7298,
      "apá»įÌĢĠ": 7299,
      "ĠáīĢáĭŃ": 7300,
      "OlÃº": 7301,
      "ÃĢwá»įnĠÃ¬tá»įÌģkasÃŃĠ": 7302,
      "hadiĠkifoĠch": 7303,
      "Ġáīłáĭļáĭ«": 7304,
      "Â».": 7305,
      "Abdull": 7306,
      "áĪªáī³áĬķáĭ«": 7307,
      "Guine": 7308,
      "call": 7309,
      "áĪĪáī±": 7310,
      "notammentĠ": 7311,
      "sáº¹ÌĢ": 7312,
      "arĠtaĠ": 7313,
      "áĭµáīħ": 7314,
      "Ã¨yÃŃ": 7315,
      "a,ĠkumaĠ": 7316,
      "AĠshekararĠ201": 7317,
      "ambaoĠ": 7318,
      "Ġáĭ¨áĬĲáĮĪ": 7319,
      "MayuĠ": 7320,
      "jihoh": 7321,
      "JulaiĠ-Ġ": 7322,
      "NuwambaĠ": 7323,
      "Sim": 7324,
      "ke": 7325,
      "oughĠ": 7326,
      "ĠáĮ¤": 7327,
      "MariaĠ": 7328,
      "zamaĠm": 7329,
      "Ġáĭ©áĬĴáī¨áĪŃáĪ²áī²": 7330,
      "áĬĵáĮĪáĪŃ": 7331,
      "appar": 7332,
      "áĮĭáĪ«": 7333,
      "AdÃ©": 7334,
      "Cali": 7335,
      "áĭĪáĬķáĭµ": 7336,
      "ĠáĬłáī£áĪĭáīµ": 7337,
      "Ġáĭ¨áĪĻáĭļáīĥ": 7338,
      "Kol": 7339,
      "gboyÃ¨Ġ": 7340,
      "const": 7341,
      "wakifuat": 7342,
      "upandeĠwaĠm": 7343,
      "ÃºgbÃ²Ġ": 7344,
      "OrÃŃláº¹ÌĢ-Ã¨dÃ¨Ġ": 7345,
      "57": 7346,
      "Zam": 7347,
      "kamfaninĠ": 7348,
      "itanĠ": 7349,
      "ĠáĬ¥áĬķáĭ°ĠáĬĲáīłáĪŃ": 7350,
      "samanĠ": 7351,
      "ĠáĭľáĬĵĠáĪĺáĭĭ": 7352,
      "áįĲáī¥áĪĬáĬŃ": 7353,
      "kasuwanc": 7354,
      "Mos": 7355,
      "áĮįáĪĽáĭĬ": 7356,
      "wataĠ": 7357,
      "ĠáĬ¥áĪµáĬ«": 7358,
      "178": 7359,
      "Ã²:Ġ": 7360,
      "thĠcentur": 7361,
      "luiĠ": 7362,
      "ikuĠ": 7363,
      "ĠáĬłáĭĭ": 7364,
      "Ã¬tÃłg": 7365,
      "lÃ¡raĠÃłwá»įnĠ": 7366,
      "áĭįáĪį": 7367,
      "ĠáĪĿáĭķáĪ«": 7368,
      "ĠáĪ³áĭŃáĬķáĪ³áĭĬĠáĮ¸áī£áĭŃ": 7369,
      ")áį¢": 7370,
      "gomaĠ": 7371,
      "sauĠ": 7372,
      "sabonĠ": 7373,
      "Philip": 7374,
      "Angel": 7375,
      "Maz": 7376,
      "UgandaĠ": 7377,
      "ĠáĪĥáĭŃáĪĽáĬĸáīµ": 7378,
      "ukw": 7379,
      "2014Ġ": 7380,
      "sÃŃtÃ¬Ġ": 7381,
      "yaĠmwakaĠ": 7382,
      "FirstĠ": 7383,
      "ĠáĬłáĬĵ": 7384,
      "2017": 7385,
      "ĠáĪ°áĪŃ": 7386,
      "ĠáĭĭáĮĭ": 7387,
      "ĠáĪĬáīĥáĭįáĬķ": 7388,
      "ĠáĬłáĪ«áīµ": 7389,
      "Dir": 7390,
      "rÃ¨Ġ": 7391,
      "áī°áīµ": 7392,
      "unic": 7393,
      "ĠAn": 7394,
      "áĮ»áįį": 7395,
      "Prim": 7396,
      "ement,Ġ": 7397,
      "TaĠkasanceĠ": 7398,
      "Ø³": 7399,
      "kunanĠ": 7400,
      "áĮįáĪĪ": 7401,
      "ÉĹinĠ": 7402,
      "TaĠkumaĠ": 7403,
      "lambarĠyaboĠtaĠ": 7404,
      "rÃº": 7405,
      "áĪĿĠáĭŃ": 7406,
      "itaĠm": 7407,
      "cheoĠ": 7408,
      "AwardsĠ": 7409,
      "áĪµáīµáĪª": 7410,
      "enneĠ": 7411,
      "áįĪáĮłáĪ¨": 7412,
      "áī¢áĭŃ": 7413,
      "ĠáĪģáĪĪáī°áĬĽ": 7414,
      "ĠáĪĺáĬ®": 7415,
      "Ġáī°áĮĪ": 7416,
      "2007": 7417,
      "ĠáĬŃáĪŃ": 7418,
      "Oá¹£uĠ": 7419,
      "Res": 7420,
      "TanaĠdaĠ": 7421,
      "lilikuwaĠ": 7422,
      "aĠkwenyeĠ": 7423,
      "watakatifuĠ": 7424,
      "áįĬáĭİáī½": 7425,
      "NÃŃgbÃłĠ": 7426,
      "OktobaĠ-Ġ": 7427,
      "jáº¹sÃ¡": 7428,
      "ItaĠceĠ": 7429,
      "bid": 7430,
      "hiĠ": 7431,
      "lov": 7432,
      "tam": 7433,
      "áĬĲáĮĪáĪŃĠáĮįáĬķ": 7434,
      "Bas": 7435,
      "maw": 7436,
      "ishinĠ": 7437,
      "áĪĪáīłáīµ": 7438,
      "áī¥áĬĽ": 7439,
      "áĬŃáĪĿáĬĵ": 7440,
      "tre": 7441,
      "ombeĠ": 7442,
      "ĠáĮ¨áĪĿáĪ®": 7443,
      "áĭ°áĪ¨áĮĪáĭį": 7444,
      "49": 7445,
      "Publ": 7446,
      "roĠ": 7447,
      "Champ": 7448,
      "1999": 7449,
      "askof": 7450,
      "BKĠ(BaadaĠyaĠKristo).ĠMatukioĠ": 7451,
      "3.Ġ": 7452,
      "Ġáĭ¨áĪĭ": 7453,
      "shahar": 7454,
      "ĠáĬłáĭĺ": 7455,
      "anteĠ": 7456,
      "MarchĠ": 7457,
      "uhimm": 7458,
      "zauneĠ": 7459,
      "áīĢáĪĺáĮ«": 7460,
      "46": 7461,
      "Yes": 7462,
      "rin,Ġ": 7463,
      "ojaĠ": 7464,
      "áĮĢáīµ": 7465,
      "1980": 7466,
      "ion.": 7467,
      "Ã³n": 7468,
      "Ġáī°áĪĺáĪį": 7469,
      "Vir": 7470,
      "iláº¹": 7471,
      "Ã³Ġá¹£": 7472,
      "ajaĠ": 7473,
      "á¹£ir": 7474,
      "áĭĿáĪĿ": 7475,
      "2005": 7476,
      "2000Ġ": 7477,
      "iĠmwakaĠ": 7478,
      "Arch": 7479,
      "áĭ°áī¥áĪ¨": 7480,
      "team": 7481,
      "anal": 7482,
      "ĠáīłáĪ¥": 7483,
      "ĠáĪļáĬĴáĪµáīµáĪŃ": 7484,
      "tanĠ": 7485,
      "ªáĭ«": 7486,
      "áį¡áĬł": 7487,
      "ing.": 7488,
      "adaĠdaĠ": 7489,
      "ĠáĮ¥áīłáī¥": 7490,
      "haifarĠdaĠ": 7491,
      "áĪ¦": 7492,
      "shaĠ": 7493,
      "áį£ĠáĪĪ": 7494,
      "byĠtheĠ": 7495,
      "áīħáĭ«áĬĸáĪµ": 7496,
      "hul": 7497,
      "souv": 7498,
      "tir": 7499,
      "áĪĲáĪ´": 7500,
      "ninuĠawonĠ": 7501,
      "jáº¹ÌģĠá»įÌĢkanĠ": 7502,
      "áĭµáĪľ": 7503,
      "áĪĽáī¸áĭį": 7504,
      "ekaĠ": 7505,
      "ĠáĬłáĪµáī°áĭ³áĭ°áĮį": 7506,
      "Bon": 7507,
      "asaliĠ": 7508,
      "Ġáī°áĭ°áĪŃ": 7509,
      "Italia": 7510,
      "Ġáĭ¨áĪļáĮĪáĬĿáīłáīµĠáĪĺáĪįáĬŃáĭĵĠáĪĿáĭµáĪŃ": 7511,
      "ĠáĭĪáĮ£": 7512,
      "gwamnatiĠ": 7513,
      "UsmanĠ": 7514,
      "yaĠmutuĠaĠshekaraĠtaĠ": 7515,
      "ĠáįĪáĪ¨áĬķáĪ³áĭŃ": 7516,
      "mwakaĠ": 7517,
      "ink": 7518,
      "shair": 7519,
      "áĭĿáī¡": 7520,
      "ĠC": 7521,
      "ĠáĭĵáĪĭáĪĽ": 7522,
      "Ġáĭ¨áĪĺáĮ£": 7523,
      "ĠáĪ²áĪĨáĬķĠáīł": 7524,
      "Sw": 7525,
      "met": 7526,
      "tain": 7527,
      "áĭ«áīĦ": 7528,
      "áĪ«áĭįáĭ«áĬķ": 7529,
      "manyĠ": 7530,
      "Nic": 7531,
      "Ġáī²": 7532,
      "hiy": 7533,
      "pÃº": 7534,
      "althĠ": 7535,
      "ensiĠ": 7536,
      "shigaĠcikinĠ": 7537,
      "áº¸ÌĢ": 7538,
      "aĠmapokeoĠyaĠ": 7539,
      "Mit": 7540,
      "als": 7541,
      "yaĠzamaĠ": 7542,
      "áĪ«áĪª": 7543,
      "2011Ġ": 7544,
      "Ly": 7545,
      "ĠáĬĲáįĥ": 7546,
      "BankĠ": 7547,
      "ĠáĬĽáĭį": 7548,
      "writ": 7549,
      "abi": 7550,
      "ĠáĪĿáĬĴáĪįáĬŃ": 7551,
      "NovembaĠ": 7552,
      "Progr": 7553,
      "ĠáĮłáīħáĪĭáĭŃ": 7554,
      "bÃº": 7555,
      "pal": 7556,
      "zoteĠ": 7557,
      "áĮįáĬĵ": 7558,
      ",ĠmwandishiĠ": 7559,
      "ÃĵĠjáº¹ÌģĠ": 7560,
      "EneoĠ": 7561,
      "kÃŃĠÃ³ĠtÃ³Ġ": 7562,
      "iakaĠmiref": 7563,
      "aguziĠwaĠ": 7564,
      "cibiyarĠ": 7565,
      "áĮĭáĪª": 7566,
      "áĬķáĮįáĪµáīµ": 7567,
      "owev": 7568,
      "ĠáĪ¥áĮĭ": 7569,
      "ĠáĭĺáĪĺáĬķĠáĬłáīĨáĮ£áĮłáĪŃĠáĭ¨áĭĵáĪĺáī±": 7570,
      "TanaĠ": 7571,
      "etr": 7572,
      "torĠ": 7573,
      "alich": 7574,
      "áĭĪáĮ¡": 7575,
      "000": 7576,
      "Ġáĭķáĭį": 7577,
      "DarĠesĠ": 7578,
      "Kab": 7579,
      "viv": 7580,
      "ariĠyaĠ": 7581,
      "Ã©po": 7582,
      "exist": 7583,
      "grand": 7584,
      "ĠáĪľáĭ³": 7585,
      "-áĬ¢": 7586,
      "Lamb": 7587,
      "oÃ²rÃ¹nĠ": 7588,
      "ĠâĢ¹": 7589,
      "ector": 7590,
      "nÃ¡Ãł": 7591,
      "Ġá»Įjá»įÌģĠ": 7592,
      "languageĠ": 7593,
      "ĠAgostiĠ-Ġ": 7594,
      "ĠáĭķáĪĪáī°ĠáĪŀáīµ": 7595,
      "him": 7596,
      "áĭ«áĭįáĭ«áĬķ": 7597,
      "2009": 7598,
      "Ġáĭĺáĭį": 7599,
      "áĪ£áĪªáĭ«": 7600,
      "Kut": 7601,
      "illeĠ": 7602,
      "abinĠdaĠ": 7603,
      "identi": 7604,
      "ÆĻinĠ": 7605,
      "áĬķáĭµáĪµáĬĵ": 7606,
      "áĬĽáĭįáĪĿ": 7607,
      "Art": 7608,
      "aĠkarkashinĠ": 7609,
      "fat": 7610,
      "ĠáĪĬáĪĨáĬķ": 7611,
      "BahariĠyaĠ": 7612,
      "iumĠ": 7613,
      "wÃ³Ġ": 7614,
      "shaf": 7615,
      "áīłáĬłáĪ": 7616,
      "ardsĠ": 7617,
      "dÃ©velop": 7618,
      "ráº¹ÌĢ,Ġ": 7619,
      "Ãłká»įÌģlÃ©Ġráº¹ÌĢĠ": 7620,
      "influ": 7621,
      "abakiĠsikuĠ": 7622,
      "iakaĠmirefu": 7623,
      "áī°áĬĵ": 7624,
      "ĠáīµáĪŃáĮīáĪĿ": 7625,
      "aureĠ": 7626,
      "aĠsunĠ": 7627,
      "Hat": 7628,
      "udeĠ": 7629,
      "ĠáĪĺáĪ¬áīµ": 7630,
      "ĠáĪļáĬ«áĬ¤áĪį": 7631,
      "worl": 7632,
      "uĠtaĠ": 7633,
      "áĪ³áĭį": 7634,
      "anci,Ġ": 7635,
      "áĪĲáĭŃ": 7636,
      "AfirkaĠ": 7637,
      "5,": 7638,
      "DukĠ": 7639,
      "Tsak": 7640,
      "eĠzin": 7641,
      "áĪĿáīłáĪŃ": 7642,
      "gba": 7643,
      "Ġá»įbaĠ": 7644,
      "áīłáĪ®": 7645,
      "katikaĠmiakaĠmirefu": 7646,
      ",ĠmshindiĠwaĠTuzoĠyaĠNobelĠyaĠFizikiaĠmwakaĠwaĠ": 7647,
      "áĮĬáĭľáĭį": 7648,
      "Roma,Ġhuadhim": 7649,
      "wakifuataĠmapokeoĠyaĠ": 7650,
      "wakifuataĠmapokeoĠyaĠRoma,Ġhuadhim": 7651,
      "Sur": 7652,
      "gom": 7653,
      "ianiĠ": 7654,
      "áĭ«áĪįáį¢": 7655,
      "177": 7656,
      "ĠáĭĺáĪĺáĬĲĠáĪĽáĪŃáīĨáĪµĠáĭ°áĮįáĪŀ": 7657,
      "Pers": 7658,
      "zoĠyaĠ": 7659,
      "Ġáīłáĭ°áī¡áī¥": 7660,
      "Ġ1.": 7661,
      "áī¤áī±": 7662,
      "ĠáĬ¢áĭ¨áĪ±áĪµ": 7663,
      "ingtonĠ": 7664,
      "áĮĥáĭĿáĪĽáī½": 7665,
      "âĢĵĠ1": 7666,
      "iyeĠdaĠ": 7667,
      "ÃĮlÃºĠ": 7668,
      "yawanĠm": 7669,
      "filmĠ": 7670,
      "ĠáĬłáĪµáī°áĭ³áĭ°áĪŃ": 7671,
      "samaĠdaĠ": 7672,
      "PopeĠ": 7673,
      "YankinĠ": 7674,
      "ĠáĬłáĮĪáĪįáĮįáĪİáīµ": 7675,
      "WakristoĠwengi,Ġ": 7676,
      "uisheĠzin": 7677,
      "WakristoĠwengi,ĠwakifuataĠmapokeoĠyaĠRoma,Ġhuadhim": 7678,
      "uisheĠzinabakiĠsikuĠ": 7679,
      "Bad": 7680,
      "OL": 7681,
      "undiĠ": 7682,
      "Mo": 7683,
      "aÃ®": 7684,
      "áĭ°áĪŃáĪµ": 7685,
      "ĠáĮ¸áĪĲáįĬ": 7686,
      "KatsinaĠ": 7687,
      "ker": 7688,
      "ĠáĭĪáĭĺ": 7689,
      "ubli": 7690,
      "aĠten": 7691,
      "ĠáĪĻáĭļáīĥ": 7692,
      "nameĠ": 7693,
      "ĠáĬªáĪİ": 7694,
      "elopmentĠ": 7695,
      "ĠáĬłáĪĽáĬ«": 7696,
      "kuch": 7697,
      "áĭ¨áĬłáĪ": 7698,
      "Flor": 7699,
      "versĠ": 7700,
      "áĪĿáĪĮ": 7701,
      "adu": 7702,
      "ĠáĬªáĭ³áĬķ": 7703,
      "DubaĠ": 7704,
      "ana,Ġ": 7705,
      "ĠáįĬáĪį": 7706,
      "leursĠ": 7707,
      "2012": 7708,
      "1998": 7709,
      "anyik": 7710,
      "DemocraticĠ": 7711,
      "D-": 7712,
      "bis": 7713,
      "áĬ»": 7714,
      "kuw": 7715,
      "adha": 7716,
      "watum": 7717,
      "edik": 7718,
      "jeshiĠ": 7719,
      "pakaĠuisheĠzinabakiĠsikuĠ": 7720,
      "ablaĠyaĠ": 7721,
      "toĠgbaĠEbunĠNobelĠ": 7722,
      "age,Ġ": 7723,
      "áī£áī±": 7724,
      "htm": 7725,
      "HarĠ": 7726,
      "áĮ©": 7727,
      "toĠbeĠ": 7728,
      "áĪĬáĭ«áĬķ": 7729,
      "biyuĠdaĠ": 7730,
      "ĠáĬĹáĪª": 7731,
      "IleĠ": 7732,
      "áĬķáĬ«": 7733,
      "Ãłn,Ġ": 7734,
      "ĠáĪŃáĭķ": 7735,
      "chin": 7736,
      "gbá»įÌģĠ": 7737,
      "siteĠ": 7738,
      "esaĠ": 7739,
      "2008": 7740,
      "ĠáīĢáĬķĠ": 7741,
      "ĠáĮĪáĬķáĭĺáī¥": 7742,
      "Kong": 7743,
      "numb": 7744,
      "ress": 7745,
      "áĪĪáĪ°": 7746,
      "áĭįáĬķĠáĭ¨": 7747,
      "ĠáĬ¦áĪŃ": 7748,
      "ĠáĬ¥áĮ½": 7749,
      "2020Ġ": 7750,
      "áĬ¥áĪµ": 7751,
      "huÉĹ": 7752,
      "yawancinĠ": 7753,
      "Ġáī¥áĭĻĠáĮĬáĭľ": 7754,
      "surĠleĠ": 7755,
      "MusulunciĠ": 7756,
      "ĠáįĪáĪŃáĭĸáĬķ": 7757,
      "BÃŃĠ": 7758,
      "Duk": 7759,
      "bá»įÌģá»įÌĢ": 7760,
      "kisiwaĠ": 7761,
      "ikĠ": 7762,
      "LughaĠzaĠ": 7763,
      "onyesh": 7764,
      "FebruariĠ-Ġ": 7765,
      "tofautiĠ": 7766,
      "AlhajiĠ": 7767,
      "Ile-": 7768,
      "iki,Ġ": 7769,
      "ĠáĬłáī¡": 7770,
      "titiĠ": 7771,
      "áĮ£áĪª": 7772,
      "1960": 7773,
      "ĠáĪļáĬĴáĪµáī´": 7774,
      "d.Ġ": 7775,
      "Ã¬,Ġ": 7776,
      "ĠáĭŃáĪĺ": 7777,
      "179": 7778,
      "áĪĽáĭŃáĪµáĮ¥": 7779,
      "dem": 7780,
      "áĪŃáį£": 7781,
      "ine.": 7782,
      "amer": 7783,
      "emistr": 7784,
      "ulkiĠ": 7785,
      "tsakiyarĠ": 7786,
      "'YanĠwasanĠÆĻwallonĠÆĻafaĠtaĠÆĻasarĠIngil": 7787,
      "56": 7788,
      "2010Ġ": 7789,
      "BeninĠ": 7790,
      "Ġáī¡áĭµ": 7791,
      "u:Ġ": 7792,
      "Î¹": 7793,
      "Ã¬.": 7794,
      "leĠofĠ": 7795,
      "Egyp": 7796,
      "ois": 7797,
      "aliwaĠnaĠ": 7798,
      "JuniĠ-Ġ": 7799,
      "KamfaninĠ": 7800,
      "aĠÆĻar": 7801,
      "philosoph": 7802,
      "namoĠ": 7803,
      "áĬĵáĬķ": 7804,
      "Â»)": 7805,
      "ElleĠ": 7806,
      "Argent": 7807,
      "Ġáīłáī°áĪĪáĭŃáĪĿ": 7808,
      "DarĠesĠSala": 7809,
      "Jac": 7810,
      "illaĠ": 7811,
      "and,Ġ": 7812,
      "rÃŃnĠ": 7813,
      "epoĠ": 7814,
      "áįįáĪ¬": 7815,
      "ĠáĬ¥áĬķáĭµ": 7816,
      "2006Ġ": 7817,
      "ÃłkÃ¡": 7818,
      "tÃŃtÃŃĠ": 7819,
      "nÃŃĠÃ¬pÃŃnláº¹ÌĢĠ": 7820,
      "oft": 7821,
      "ignĠ": 7822,
      "plic": 7823,
      "fiel": 7824,
      "ArewaĠ": 7825,
      "premiÃ¨reĠ": 7826,
      "cre": 7827,
      "damarĠ": 7828,
      "iny": 7829,
      "iloĠ": 7830,
      "áĪĮáĪĭ": 7831,
      "ÆĻwararr": 7832,
      "azam": 7833,
      "DisambaĠ": 7834,
      "AF": 7835,
      "atesĠ": 7836,
      "ĠáīĢáĬĵáīµĠáĭŃáīĢáĪ«áĪīáį¢": 7837,
      "(N": 7838,
      "dÃ¨Ġ": 7839,
      "hiz": 7840,
      "iograf": 7841,
      "Ġáĭ«áĪĪáĭįáĬķ": 7842,
      "SeptembaĠ": 7843,
      "ĠAugustĠ": 7844,
      "WandaĠ": 7845,
      "ĠáĬłáĮł": 7846,
      "áĪ«áĭį": 7847,
      "Ġáĭ°áĮĭ": 7848,
      "ammedĠ": 7849,
      "kamaĠm": 7850,
      "ĠáīµáĪĿáĪħáĪŃáīµĠáī¤áīµ": 7851,
      "LeoĠ": 7852,
      "shah": 7853,
      "ĠáĬłáĭ°": 7854,
      "a,ĠM": 7855,
      "usammanĠ": 7856,
      "ĠáįįáīħáĪŃ": 7857,
      "áį²áį±áį»áį¶áį": 7858,
      "ĠáĭµáĬķáĮĭáĭŃ": 7859,
      "sáº¹Ìģ": 7860,
      "Ġáĭ¨áĪĪáĪĿ": 7861,
      "akokoĠ": 7862,
      "áĬ«áĭµ": 7863,
      "idd": 7864,
      "ent,Ġ": 7865,
      "ÃĮá¹£": 7866,
      ",ĠmwigizajiĠwaĠfilamuĠ": 7867,
      "NÃŃĠá»įdÃºnĠ": 7868,
      "áĪĺáĪĪáĪµ": 7869,
      "ká»įÌģká»įÌģĠ": 7870,
      "âĢºâĢº": 7871,
      "wouldĠ": 7872,
      "áĮĲ": 7873,
      "2013Ġ": 7874,
      "ly": 7875,
      "tum": 7876,
      "zĠ": 7877,
      "inap": 7878,
      "áĬĵĠáĪĪ": 7879,
      "Fal": 7880,
      "ĠáĮĵ": 7881,
      "áĭĪáĬķ": 7882,
      "su,Ġ": 7883,
      "aĠhar": 7884,
      "ĠáĬĲáīłáĪŃáį¡áį¡": 7885,
      "Din": 7886,
      "adin": 7887,
      "Ġáĭ¨áĪļáī£áĪį": 7888,
      "ĠáĬ¥áĬķáĭ°ĠáĪĨáĬĲ": 7889,
      "suĠdaĠ": 7890,
      "istoriaĠ": 7891,
      "wengineĠ": 7892,
      "biasharaĠ": 7893,
      "DesembaĠ-Ġ": 7894,
      "DagaĠbayaĠ": 7895,
      "jimill": 7896,
      "YammacinĠ": 7897,
      "kumbukumbuĠzaĠ": 7898,
      "ty": 7899,
      "una,Ġ": 7900,
      "áĭ³áĭĬ": 7901,
      "áĭĭáĪŃáĭ«": 7902,
      "áĭļáĭ«áĬķ": 7903,
      "ever": 7904,
      "1960Ġ": 7905,
      "Tel": 7906,
      "antak": 7907,
      "ellementĠ": 7908,
      "tag": 7909,
      "áĪµĠ(": 7910,
      "ickĠ": 7911,
      "áĪĻáīµ": 7912,
      "positionĠ": 7913,
      "Ġáī¤áī°áĬŃáĪŃáĪµáī²áĭ«áĬķ": 7914,
      "rasm": 7915,
      "Keny": 7916,
      "ĠáĮłáĪĭ": 7917,
      "ĠáĬĥáĭŃáĪĪĠáĪ¥áĪĭáĪ´": 7918,
      "Ach": 7919,
      "WarĠ": 7920,
      "piaĠm": 7921,
      "sá»įÌĢ": 7922,
      "erv": 7923,
      "amu": 7924,
      "ĠáĪķáĮį": 7925,
      "JamhuriĠyaĠ": 7926,
      "kumbukumbuĠzaĠwatakatifuĠ": 7927,
      "Plat": 7928,
      "quat": 7929,
      "utane": 7930,
      "sunaĠdaĠ": 7931,
      "áį²áį±áį»áį·áį": 7932,
      "karamarĠhukumarĠ": 7933,
      "PeterĠ": 7934,
      "ĠáĬĶ": 7935,
      "ĠáīłáĪ®": 7936,
      "2005Ġ": 7937,
      "ant,Ġ": 7938,
      "villeĠ": 7939,
      "ShehuĠ": 7940,
      "Hind": 7941,
      "e).": 7942,
      "anoĠyaĠ": 7943,
      "áĬķĠáĭĪáĭ°": 7944,
      "ĠáĬłáĪįáįĭ": 7945,
      "ĠáĪħáĮį": 7946,
      "LouisĠ": 7947,
      "áĬ¥áĬķáĭ²áĪģ": 7948,
      "asayans": 7949,
      "wá»įn.": 7950,
      "organis": 7951,
      "nchiĠzaĠ": 7952,
      "wÃ¡yÃ©Ġ": 7953,
      "Ġáĭ¨áī°áīĢ": 7954,
      "Ġáĭ°áĪŃ": 7955,
      "formeĠ": 7956,
      "áĪµáĪ«áĬ¤áĪį": 7957,
      "ĠáĬłáĭįáĪ«": 7958,
      "aÉĵ": 7959,
      "kid": 7960,
      "suneĠ": 7961,
      "ĠáĪµáī´": 7962,
      "wadannanĠ": 7963,
      "AmurkaĠ": 7964,
      "Ear": 7965,
      "Tai": 7966,
      "buk": 7967,
      "wÃł": 7968,
      "zak": 7969,
      "ild": 7970,
      "aciĠ": 7971,
      "ĠáīĢáĬķĠáĬĲáĭįáį¢": 7972,
      "fe": 7973,
      "gÃ¡": 7974,
      "elaĠ": 7975,
      "a,ĠnaĠ": 7976,
      "ĠáĭĪáĪ°": 7977,
      "áĮłáīµ": 7978,
      "áī¡áĪŃ": 7979,
      "Ġáīłáī°áĪĪáĭ«áĭ©": 7980,
      "ĠáĬķáĮīáĪ¥ĠáĬĲáīłáĪŃáį¢": 7981,
      "AfricaĠ": 7982,
      "JanuariĠ-Ġ": 7983,
      "katikaĠmiakaĠmirefu).ĠM": 7984,
      "Christ": 7985,
      "ĠáĬ¢áĬķ": 7986,
      "atureĠ": 7987,
      "sou": 7988,
      "uth": 7989,
      "apt": 7990,
      "Island": 7991,
      "cigab": 7992,
      "ĠáĭŃáĮł": 7993,
      "aĠnaĠm": 7994,
      "zamanĠ": 7995,
      "tionn": 7996,
      "ĠáĪµáī¥áĪµáī¥": 7997,
      "ĠáĪĿáĬķáĮĬáĭľáĪĿ": 7998,
      "lead": 7999,
      "aĠhu": 8000,
      "tÃŃĠÃ³ĠwÃłĠnÃŃĠ": 8001,
      "IlÃ©Ġ": 8002,
      "haribiĠ": 8003,
      "ĠáįĬáĭ°": 8004,
      "FilmĠ": 8005,
      "Ã¬kÃ¬Ġ": 8006,
      "iĠkatikaĠm": 8007,
      "Sin": 8008,
      "tÃº": 8009,
      "Ġáĭ¨áī¥": 8010,
      "thÃ©": 8011,
      "ilimiĠ": 8012,
      "áĮĪáĪĪáĮį": 8013,
      "ĠáĪªáįĲáī¥áĪĬáĬŃ": 8014,
      "diffÃ©r": 8015,
      "1.Ġ": 8016,
      "raj": 8017,
      "kutaĠ": 8018,
      "ĠáīłáĬĭáĪĭĠáīł": 8019,
      "Cent": 8020,
      "Dang": 8021,
      "cu": 8022,
      "ĠâĢĺ": 8023,
      "am,Ġ": 8024,
      "ictĠ": 8025,
      "oss": 8026,
      "ĠáĭµáĬķáĮįáĪį": 8027,
      "ĠáĬłáĬķáĭ°": 8028,
      "cell": 8029,
      "kis": 8030,
      "kÃł.": 8031,
      "daĠsukaĠ": 8032,
      "Ã²s": 8033,
      "áĭĿáĬĵ": 8034,
      "Ġáĭ¨áī°áĬĲáĪ³": 8035,
      "kanĠnÃ¡ÃłĠ": 8036,
      "ItokasiĠÃłwá»įnĠá»įjá»įÌģÃ¬bÃŃĠnÃŃĠ": 8037,
      "koĠkumaĠ": 8038,
      "issionĠ": 8039,
      ".ĠÃĢwá»įnĠÃĮt": 8040,
      "ijobaĠib": 8041,
      "nufinĠ": 8042,
      "FrenchĠ": 8043,
      "88": 8044,
      "Ram": 8045,
      "áĪ«áĬĴ": 8046,
      "wanaĠ": 8047,
      "2004": 8048,
      "earlyĠ": 8049,
      "ootb": 8050,
      "áī£áī¢áĪİáĬķ": 8051,
      "RichardĠ": 8052,
      "DonĠ": 8053,
      "lem": 8054,
      "ÑĢ": 8055,
      "ers.": 8056,
      "imbab": 8057,
      "ÃłÃ¬sÃłnĠ": 8058,
      "ajiliĠyaĠ": 8059,
      "ĠáĬ¥áĬķáĭ°áĬĲáīłáĪŃ": 8060,
      "queĠleĠ": 8061,
      "ĠáĬłáĪµáī°áĭĭ": 8062,
      "NÃŃĠá»įjá»įÌģĠ": 8063,
      "alikuwaĠmshindiĠwaĠTuzoĠyaĠNobelĠyaĠ": 8064,
      "áĭĪáĪĪáĭ±": 8065,
      "táº¹Ìģláº¹ÌĢ": 8066,
      "LakiniĠ": 8067,
      "Jo": 8068,
      "iĠlaĠ": 8069,
      "áī¥áĪĭ": 8070,
      "Ġáĭ°áī¥áĪ¨": 8071,
      "ma'": 8072,
      "ĠáĮįáĪ«": 8073,
      "ĠáīłáĪĺáĮ¨áĪ¨áĪ»": 8074,
      "ĠáĬ¥áĬķáĪµáĪ³": 8075,
      "BÃ¡": 8076,
      "etĠl'": 8077,
      "Alit": 8078,
      "ilimaĠyaĠ": 8079,
      "ĠáīłáĬłáĪľáĪªáĬ«": 8080,
      "ĠáĮīáĪį": 8081,
      "falmeĠm": 8082,
      "Ã¨tÃ²": 8083,
      "Ġáĭ¨áīĢáĭµáĪŀ": 8084,
      "Ġáĭ°áĪ´áīµ": 8085,
      "DolaĠlaĠRom": 8086,
      "ayáº¹yáº¹Ġ": 8087,
      "WakristoĠwengi,ĠwakifuataĠmapokeoĠyaĠRoma,ĠhuadhimishaĠ": 8088,
      "ĠáīłáĪ±": 8089,
      "ingĠtoĠ": 8090,
      "ionalĠ": 8091,
      "ĠáĮ½áĪķáįĪáīµ": 8092,
      "aiĠtaĠ": 8093,
      "troisĠ": 8094,
      "UnionĠ": 8095,
      "farkoĠnaĠ": 8096,
      "áĪłáī¥": 8097,
      "Ġáīłáī¥áĭĽáīµĠáĭ¨áĪļáĮĪáĬĿáīłáīµĠáĪĺáĪįáĬŃáĭĵĠáĪĿáĭµáĪŃ": 8098,
      "tot": 8099,
      "univers": 8100,
      "odiĠ": 8101,
      "ienn": 8102,
      "Gáº¹ÌĢáº¹Ìģ": 8103,
      "jaĠ": 8104,
      "pwan": 8105,
      "áĪµáī²": 8106,
      "reprÃ©sent": 8107,
      "40Ġ": 8108,
      "fa": 8109,
      "alamaĠ": 8110,
      "áĮįáĬĿ": 8111,
      "ĠáĬ¥áĬĵĠáĬ¨": 8112,
      "a'sĠ": 8113,
      "Ox": 8114,
      "typ": 8115,
      "yaĠfaraĠ": 8116,
      "ĠáĬĲáĭįĠáį¢": 8117,
      "ÆĻan": 8118,
      "2006": 8119,
      "Isra": 8120,
      "karatuĠ": 8121,
      "Greg": 8122,
      "Musulunc": 8123,
      "HispaniaĠ": 8124,
      "Hung": 8125,
      "áĪ³áī¸áĭįáĬķ": 8126,
      "Ġáĭ¨áĪ¶": 8127,
      "ingsĠ": 8128,
      "iĠkwaĠm": 8129,
      "arri": 8130,
      "nÃŃgbÃłĠtÃŃĠ": 8131,
      "Ale": 8132,
      "áīµáĪµ": 8133,
      "ĠáĪĺáĮĢáĪĺáĪªáĭ«": 8134,
      "ultur": 8135,
      "áīĨáī¥": 8136,
      "relig": 8137,
      "Fre": 8138,
      "Group": 8139,
      "Hab": 8140,
      "Ġ[": 8141,
      "yaĠs": 8142,
      "áī°áĬŀáī½": 8143,
      "ĠáĮ»": 8144,
      "off": 8145,
      "áĪ®áĪŀ": 8146,
      "áĪ©áĬŃ": 8147,
      "Wag": 8148,
      "ton,Ġ": 8149,
      "ÉĻ": 8150,
      "ĠáĬ¥áĬķáĭ´áīµ": 8151,
      "Ġáĭ«áĭĺ": 8152,
      "antuĠ": 8153,
      "duniaĠ": 8154,
      "ĠáĭĪáĭĺáī°": 8155,
      "Bos": 8156,
      "ÆĬ": 8157,
      "naĠfarkoĠ": 8158,
      ".ĠÃĵĠ": 8159,
      "ajiĠm": 8160,
      "utarĠ": 8161,
      "NÃłÃ¬jÃŃrÃŃÃł,Ġ": 8162,
      "ĠáĭŃáĮĪáĪĺ": 8163,
      "kudancinĠ": 8164,
      "wasanĠkwaikwayoĠ": 8165,
      "áī£áĪħáĪŃ": 8166,
      "arewacinĠ": 8167,
      "ilÃ©Ġáº¹ÌĢká»įÌģĠ": 8168,
      "gÃ©": 8169,
      "lineĠ": 8170,
      "agoĠ": 8171,
      "ĠáĮįáĪį": 8172,
      "Jama'": 8173,
      "follow": 8174,
      "ahud": 8175,
      "Chur": 8176,
      "Bill": 8177,
      "Zimbab": 8178,
      "antiĠ": 8179,
      "ĠáĬłáĬŃ": 8180,
      "áĪ¨áįĪ": 8181,
      "áīħáĪį": 8182,
      "NorthĠ": 8183,
      "Ju": 8184,
      "wÃŃĠ": 8185,
      "Ã¡Ã¡": 8186,
      "taĠdaĠ": 8187,
      "ĠáīłáĪ³": 8188,
      "otunĠ": 8189,
      "|ĠRD2-": 8190,
      "NchiĠzaĠ": 8191,
      "á¹£irÃŃá¹£": 8192,
      ");Ġ": 8193,
      "KungiyarĠ": 8194,
      "LokacinĠ": 8195,
      "áĮ®": 8196,
      "ĠáĬłáĬĲáĮĭ": 8197,
      "uĠyaĠm": 8198,
      "shiĠneĠÉĹanĠ": 8199,
      "à¥": 8200,
      "Ġáĭ¨áĬŃ": 8201,
      "esternĠ": 8202,
      "es-": 8203,
      "Ã²n": 8204,
      "áĬ¨áįįáī°áĬĽ": 8205,
      "Hon": 8206,
      "Liv": 8207,
      "Po": 8208,
      "kip": 8209,
      "áĬķáĪ°": 8210,
      "ĠáĪĺáĬĸ": 8211,
      "Ġá»įÌģ": 8212,
      "ÅĦĠd": 8213,
      "tÃŃĠÃ³ĠwÃłĠ": 8214,
      "ĠáĭĺáĪĺáī»": 8215,
      "ĠáĪłáĪ«áĭĬáīµ": 8216,
      "AlimfuataĠ": 8217,
      "boĠ": 8218,
      "áĭŃáīħ": 8219,
      "Arm": 8220,
      "Prof": 8221,
      "fond": 8222,
      "ruku": 8223,
      "wikiped": 8224,
      "ãĤ": 8225,
      "áĭ¢": 8226,
      "áĪĿĠáī°": 8227,
      "amfanon": 8228,
      "tro": 8229,
      "Ġáĭ¨áĪĨáĬĲáĭį": 8230,
      "tÃºn": 8231,
      "yun": 8232,
      "chaĠm": 8233,
      "iá¹£áº¹Ìģ": 8234,
      "ĠáĪĿáĬŃáĪŃ": 8235,
      "falmeĠwaĠ": 8236,
      "ÃĵĠd": 8237,
      "moreĠ": 8238,
      "poĠ": 8239,
      "áĪµáĪĬ": 8240,
      "Ġáīłáį": 8241,
      "idg": 8242,
      "áĪķáĪį": 8243,
      "wiki": 8244,
      "áĪĽáĪ¨": 8245,
      "AlexanderĠ": 8246,
      "IN": 8247,
      "situ": 8248,
      "someĠ": 8249,
      "neĠdaĠ": 8250,
      "áīłáīµáį¢": 8251,
      "aĠbug": 8252,
      "ĠáīħáĬĿ": 8253,
      "jami'arĠ": 8254,
      "Associ": 8255,
      "jam'iyyarĠ": 8256,
      "rag": 8257,
      "rÃłnĠ": 8258,
      "ÏĤ": 8259,
      "áĪ«áĪŃ": 8260,
      "utawalaĠwaĠ": 8261,
      "ÃĢwá»įnĠarÃ¡Ġ": 8262,
      "ÅĦĠjáº¹ÌģĠ": 8263,
      "ÃĪyÃŃĠ": 8264,
      "KiingerezaĠ": 8265,
      "kubwaĠyaĠ": 8266,
      "aĠN": 8267,
      "ĠáĬłáĪ¥": 8268,
      "áĭķáī¥áĪ«áĭŃáĪµáĮ¥": 8269,
      "ĠAd": 8270,
      "fonc": 8271,
      "aĠj": 8272,
      "Ġáĭĳ": 8273,
      "áĭ°áĪŃáĮī": 8274,
      "áĪĽáĪįáį¢": 8275,
      "áį¡áī°": 8276,
      "ĠáĬłáĭµáĪŃáĮİ": 8277,
      "Por": 8278,
      "diniĠ": 8279,
      "insĠ": 8280,
      "ashir": 8281,
      "musul": 8282,
      "Califor": 8283,
      "Bag": 8284,
      "TovutiĠ": 8285,
      "bah": 8286,
      "bilaĠ": 8287,
      "dÃºr": 8288,
      "faÉĹ": 8289,
      "áĮįáĪª": 8290,
      "utamad": 8291,
      "iaĠniĠ": 8292,
      "andik": 8293,
      "RomanĠ": 8294,
      "JamhuriyarĠ": 8295,
      "ĠáĪĺáĮłáĬķ": 8296,
      "hukumaĠceĠdakeĠ": 8297,
      "'YanĠwasanĠÆĻwallonĠÆĻafaĠtaĠÆĻasarĠIngila": 8298,
      "foreĠ": 8299,
      "Dani": 8300,
      "cer": 8301,
      "many": 8302,
      "Festiv": 8303,
      "Gid": 8304,
      "Ø¹": 8305,
      "áįĪáĮ¸": 8306,
      "Cath": 8307,
      "Ãłjáº¹sÃ¡": 8308,
      "nÃŃĠÃłwá»įnĠ": 8309,
      "ĠáĮįáĪªáĬŃ": 8310,
      "stand": 8311,
      "1997": 8312,
      "ĠáĮ¥áĭ«áīĦ": 8313,
      "sÃŃwÃ¡jÃºĠ": 8314,
      "whereĠ": 8315,
      "Australi": 8316,
      "MeiĠ": 8317,
      "ongoziĠwaĠ": 8318,
      "becameĠ": 8319,
      "bakwaiĠ": 8320,
      "amoĠ": 8321,
      "arĠS": 8322,
      "round": 8323,
      "Abdul": 8324,
      "o'": 8325,
      "áĪ£áĭŃ": 8326,
      "Ġáī¢áĪĨáĬķáĪĿ": 8327,
      "Lis": 8328,
      "waneĠ": 8329,
      "amba,Ġ": 8330,
      "1970": 8331,
      "áīģáīµ": 8332,
      "C)Ġ": 8333,
      "mis": 8334,
      "Ïģ": 8335,
      "ernĠ": 8336,
      "áĪµáī³áīµ": 8337,
      "áĪĪáĪµ": 8338,
      "áĪĭáĮħ": 8339,
      "ellaĠ": 8340,
      "áĮ£áĬķ": 8341,
      "parĠleĠ": 8342,
      "aĠkatiĠyaĠ": 8343,
      "IbadanĠ": 8344,
      "vik": 8345,
      "áīĢáĪµ": 8346,
      "Ġáĭ¨áī°áĭĪáĪ°": 8347,
      "a.ĠM": 8348,
      "áĮ½áĪĲáįįĠáīħáĭ±áĪµ": 8349,
      "runĠ": 8350,
      "áĭ°áĬķáīµ": 8351,
      "cher": 8352,
      "tunĠdagaĠ": 8353,
      "PartyĠ(": 8354,
      "AikinĠ": 8355,
      "Zamb": 8356,
      "e;Ġ": 8357,
      "ganinĠ": 8358,
      "amÃ©r": 8359,
      "appel": 8360,
      "ovi": 8361,
      "áī³áĭĪáīħ": 8362,
      "ĠáĭľáĬĵĠáĪĺáĭĭáĭķáĪį": 8363,
      "ĠD": 8364,
      "áī°áĭ³": 8365,
      "áīłáĭ«": 8366,
      "olanz": 8367,
      "emat": 8368,
      "ĠáĪµáī¥": 8369,
      "2000": 8370,
      "etsĠ": 8371,
      "lughaĠzaĠ": 8372,
      "MachiĠ-Ġ": 8373,
      "serikaliĠyaĠ": 8374,
      "Bol": 8375,
      "ET": 8376,
      "tay": 8377,
      "u)Ġ": 8378,
      "Ġ18": 8379,
      "iyas": 8380,
      "Premi": 8381,
      "YorubaĠ": 8382,
      "tour": 8383,
      "kush": 8384,
      "deĠm": 8385,
      "DeltaĠ": 8386,
      "ZanzibarĠ": 8387,
      "med": 8388,
      "pleĠ": 8389,
      "sadar": 8390,
      "aĠJami'arĠ": 8391,
      "áĭįĠáĬ¨": 8392,
      "amiaĠ": 8393,
      "or,Ġ": 8394,
      "itionsĠ": 8395,
      "suiv": 8396,
      "takwasĠ": 8397,
      "parĠlesĠ": 8398,
      "GwamnatinĠ": 8399,
      "sakamakonĠ": 8400,
      "gáº¹": 8401,
      "mÃ¡Ġ": 8402,
      "pil": 8403,
      "ĠáĬĲáĭįáį¤": 8404,
      "erĠandĠ": 8405,
      "áīłáĪ»": 8406,
      "waoĠ": 8407,
      "Ġáī°áīĢáĪĿ": 8408,
      "ĠáīłáĪĮáĪĭ": 8409,
      "áĬłáĬķ": 8410,
      "ĠáĮ¨áĭĭ": 8411,
      "low": 8412,
      "adir": 8413,
      "ĠáĭŃáĬĲ": 8414,
      "trib": 8415,
      "ojoĠ": 8416,
      "uhim": 8417,
      "nigb": 8418,
      "ĠáĬłáĪįáįİ": 8419,
      "Ġáĭ¨áĬ¥áĬķáĮįáĪĬáĭĿ": 8420,
      "áī¥áĪ¨áī°": 8421,
      "personn": 8422,
      "igneĠ": 8423,
      "ia.org/": 8424,
      "Seneg": 8425,
      "R.": 8426,
      "eĠniĠ": 8427,
      "iĠkwenyeĠ": 8428,
      ",ĠmaisĠ": 8429,
      "WakatiĠwaĠ": 8430,
      "yarjejen": 8431,
      "shipĠ": 8432,
      "addininĠ": 8433,
      "Æ´arĠ": 8434,
      "ipinleĠ": 8435,
      "ger": 8436,
      "ote.": 8437,
      "antĠlaĠ": 8438,
      "jinsiĠ": 8439,
      "Maur": 8440,
      "hij": 8441,
      "puisĠ": 8442,
      "sanaĠ": 8443,
      "à¤ķà¤": 8444,
      "anĠmat": 8445,
      "ĠáĪĪáĪĽáĪµ": 8446,
      "Ġáĭ¶áĪ®": 8447,
      "COĠ": 8448,
      "ale,Ġ": 8449,
      "gbáº¹Ìģ": 8450,
      "niĠsikuĠyaĠ": 8451,
      "áĭķáīĨáī¥": 8452,
      "Ġá»įÌĢnÃłĠ": 8453,
      "má»įÌĢĠsÃŃĠ": 8454,
      "rÃ©gionĠ": 8455,
      "present": 8456,
      "mÃ¬ÃŃrÃłnĠ": 8457,
      "Sikukuu": 8458,
      "ijobaĠibileĠniĠ": 8459,
      "1=": 8460,
      "memb": 8461,
      "áī®": 8462,
      "iyakaĠdaĠ": 8463,
      "ustaĠ": 8464,
      "azim": 8465,
      "áī¶áĭ¶": 8466,
      "uduĠ": 8467,
      "shekaraĠtaĠalifĠ": 8468,
      "maiĠsunaĠ": 8469,
      "kuwaĠnaĠ": 8470,
      "fiĠsaniĠdaĠ": 8471,
      "yakinĠ": 8472,
      "ArewaĠmasoĠ": 8473,
      "RayayyunĠm": 8474,
      "AnĠhaifeĠshiĠ": 8475,
      "áĭŃáĪŃáĪĭáĬķáĭµ": 8476,
      "HanyoyinĠhaÉĹinĠ": 8477,
      "shirye-shiryenĠ": 8478,
      "nes": 8479,
      "akh": 8480,
      "Ġáĭ«áĭį": 8481,
      "amaĠdaĠ": 8482,
      "underĠ": 8483,
      "áĪŃáīµáĪ«": 8484,
      "ĠáĬ¨áĬłáĬķáĭµ": 8485,
      "MichaelĠ": 8486,
      "300": 8487,
      "U.": 8488,
      "gariĠ": 8489,
      "adhiĠyaĠ": 8490,
      "ZiwaĠ": 8491,
      "gig": 8492,
      "Ð½": 8493,
      "áī¿": 8494,
      "orukoĠ": 8495,
      "tÃŃĠwá»įnĠ": 8496,
      "pri": 8497,
      "áįİáĪŃ": 8498,
      "rasmiĠ": 8499,
      "SeptembaĠ-Ġ": 8500,
      "Ġá»ĮÌĢy": 8501,
      "uchum": 8502,
      "ijobaĠibileĠniĠIpinleĠ": 8503,
      "a/": 8504,
      "lati": 8505,
      "sens": 8506,
      "ĠáĭĬ": 8507,
      "ĠáĪĢáī¥": 8508,
      "ËĪ": 8509,
      "áīµáĪį": 8510,
      "ammal": 8511,
      "iĠdaĠkumaĠ": 8512,
      "TarihiĠ": 8513,
      "ĠáĭŃáī³áĪĺáĬĵ": 8514,
      "fusk": 8515,
      "itÃ©sĠ": 8516,
      "ĠáĬłáĪµáįĪáĪĭáĮĬ": 8517,
      "ĠáĪ½áĪį": 8518,
      "suchĠasĠ": 8519,
      "67": 8520,
      "Buh": 8521,
      "IV": 8522,
      "NollywoodĠ": 8523,
      "á¹¢": 8524,
      "unz": 8525,
      "tiĠá¹£eĠ": 8526,
      "áĬ¥áĬķáĮįáĪĬáĭĿáĬĽ": 8527,
      "ezek": 8528,
      "kwaĠsababuĠ": 8529,
      "lá»įÌģwá»įÌģ": 8530,
      "5)": 8531,
      "ĠáįĪáĪĭ": 8532,
      "PaulĠ": 8533,
      "ĠáĪĺáī¥": 8534,
      "áī£áī£": 8535,
      "surĠlaĠ": 8536,
      "(yaĠ": 8537,
      "keĠdaĠ": 8538,
      "mu": 8539,
      "Ãł-": 8540,
      "wann": 8541,
      "áįįáī°": 8542,
      "shekarunĠ": 8543,
      "Nijeriya.ĠKanananĠhukumominĠjiharĠ": 8544,
      "tabbatarĠdaĠ": 8545,
      "wiki/": 8546,
      "\")Ġ": 8547,
      "Hol": 8548,
      "Pul": 8549,
      "haliĠ": 8550,
      "sansĠ": 8551,
      "Ġá»įg": 8552,
      "ihÃłnĠ": 8553,
      "walip": 8554,
      "áĪĺáĪ°áĪ¨": 8555,
      "WakristoĠwengi,ĠwakifuataĠmapokeoĠyaĠRoma,ĠhuadhimishaĠkumbukumbuĠzaĠwatakatifuĠ": 8556,
      "ini,Ġ": 8557,
      "Ġáī£áĪħáĪį": 8558,
      "Allah": 8559,
      "Girl": 8560,
      "âĢĶĠ": 8561,
      "COVI": 8562,
      "ĠáīłáĪ¶": 8563,
      "2004Ġ": 8564,
      "ĠáīłáĪĺáĪµ": 8565,
      "aisonĠ": 8566,
      "áĬķáĮĮáĪį": 8567,
      "Ham": 8568,
      "asc": 8569,
      "Ã¡lÃŃ": 8570,
      "áĬŃáĬĸ": 8571,
      "ĠáĪ°áĪĽ": 8572,
      "ĠáĪ°áįĬ": 8573,
      "associ": 8574,
      "ĠáĭĭáĬķáĮ«": 8575,
      "aĠfiĠ": 8576,
      "ĠáĪĺáĬķáĮĪ": 8577,
      ",000.": 8578,
      "áĪ¨áĮĭáĮĪ": 8579,
      "KiswahiliĠ": 8580,
      "ĠáĭŃáĮĪáĪĺáī³áĪįáį¢": 8581,
      "Bern": 8582,
      "ks": 8583,
      "nÃ¬Ġ": 8584,
      "sasaĠ": 8585,
      "usesĠ": 8586,
      "aizar": 8587,
      "uka": 8588,
      "2016Ġ": 8589,
      "wats": 8590,
      "Ġáĭ¨áĬłáĪĪáĪĿ": 8591,
      "a.ĠManazartaĠ": 8592,
      "randeĠ": 8593,
      "biyu,Ġ": 8594,
      "áĬħáĪ£": 8595,
      "MachiĠ": 8596,
      "bÃłbÃ¡Ġ": 8597,
      "Vit": 8598,
      "bit": 8599,
      "law": 8600,
      "áī¥áī»": 8601,
      "áĭ¨áĬ¢áīµáĭ®áĮµáĭ«": 8602,
      "Al'": 8603,
      "ectiv": 8604,
      "Ġáī°áĪ«áĪ®áī½": 8605,
      "COVID-": 8606,
      "cat": 8607,
      "inĠK": 8608,
      "áĪģáįį": 8609,
      "ainesĠ": 8610,
      "produ": 8611,
      "oinsĠ": 8612,
      "2.Ġ": 8613,
      "onom": 8614,
      "onimoĠ": 8615,
      "áī³áĪŃ": 8616,
      "oliĠ": 8617,
      "2008Ġ": 8618,
      "»áįī": 8619,
      "atikan": 8620,
      "FederalĠ": 8621,
      "Lor": 8622,
      "PP": 8623,
      "já»įÌĢ": 8624,
      "vip": 8625,
      ",ĠÃłtiĠ": 8626,
      "1990": 8627,
      "phys": 8628,
      "walit": 8629,
      "ilimiaĠ": 8630,
      "Oktob": 8631,
      "Bibl": 8632,
      "olÃ³á¹£Ã¨lÃºĠ": 8633,
      "mil": 8634,
      "no": 8635,
      "ayayy": 8636,
      "emaĠ": 8637,
      "Ġáĭ¨áĪļáĬĸáĪŃ": 8638,
      "Ġáĭįáīħáĭ«áĬĸáĪµ": 8639,
      "ĠáĪµáĪĿáĪĿáĬĲáīµ": 8640,
      "áĪµáī°áĬĽáĭį": 8641,
      "AllĠ": 8642,
      "berg": 8643,
      "HenryĠ": 8644,
      "59": 8645,
      "KumaĠ": 8646,
      "hukun": 8647,
      "áĪŀáĬŃáĪ«áĪ²": 8648,
      "Ġáī°áĮ«áĭĭ": 8649,
      "Av": 8650,
      "tÃ¡": 8651,
      "enseĠ": 8652,
      "abarĠ": 8653,
      "agueĠ": 8654,
      "áĪ³áĬķ": 8655,
      "áĭ¨áĪµ": 8656,
      "ĠáĪļáĪµáīµ": 8657,
      "BAĠ": 8658,
      "Yak": 8659,
      "Ġ19": 8660,
      "Ġáī«": 8661,
      "inĠnaĠ": 8662,
      "Ã©v": 8663,
      "áĬĵáį¢": 8664,
      "ibit": 8665,
      "2018Ġ": 8666,
      "lÃ¡báº¹ÌģĠ": 8667,
      ",ĠmshindiĠwaĠTuzoĠyaĠNobelĠyaĠKemiaĠmwakaĠwaĠ": 8668,
      "Ġáĭ¨áĬĲáīłáĪ©áīµ": 8669,
      "NovembaĠ-Ġ": 8670,
      "baadayeĠ": 8671,
      "ĠáĭŃáĮĪáĬĽáĪīáį¢": 8672,
      "olÃ¹darÃŃĠ": 8673,
      "caract": 8674,
      "eas": 8675,
      "lom": 8676,
      "sour": 8677,
      "ĠáĬłáĭ°áĪ¨áĮĪ": 8678,
      "ĠáĪĺáĪĭ": 8679,
      "own": 8680,
      "tser": 8681,
      "ilĠestĠ": 8682,
      "bre": 8683,
      "baraĠ": 8684,
      "áĪīáĪĿ": 8685,
      "kasanc": 8686,
      "KamusiĠ": 8687,
      "lokaciĠ": 8688,
      "ammalaĠkaratunĠ": 8689,
      "4)": 8690,
      "GidanĠ": 8691,
      "áĪłáĪ©": 8692,
      "Columb": 8693,
      "Ġáĭ¨áī°áĬŃáĪīĠáĪ³áĭŃáĬķáĪ³áĭĬĠáĮ¸áī£áĭŃ": 8694,
      "Tak": 8695,
      "es/": 8696,
      "ĠáĬ¨áĮ¥": 8697,
      "e,ĠleĠ": 8698,
      "ChuoĠ": 8699,
      "KiarabuĠ": 8700,
      "Wá»įÌģnĠbÃŃĠ": 8701,
      "ungeĠlaĠ": 8702,
      "egeĠbiĠ": 8703,
      "LoveĠ": 8704,
      "ĠáĬłáĭįáĪ®áįĵ": 8705,
      "áī±áĪŃáĬŃ": 8706,
      "2003": 8707,
      "wasĠtheĠ": 8708,
      "Saint-": 8709,
      "CE": 8710,
      "anch": 8711,
      "uruĠ": 8712,
      "áį£ĠáĬ¥áĬĵ": 8713,
      "oper": 8714,
      "yake.": 8715,
      "kan.": 8716,
      "lit": 8717,
      "sor": 8718,
      "aĠmar": 8719,
      "ĠáīłáĪĪ": 8720,
      "ĠáĬĲáĭįáį¢Ġáīł": 8721,
      "yankeĠ": 8722,
      "Najeriya.Ġ": 8723,
      "halarciĠ": 8724,
      "thatĠtheĠ": 8725,
      "kalm": 8726,
      "Mod": 8727,
      "chaĠk": 8728,
      "Ã¹d": 8729,
      "áĭĺáĪĺáĬĲ": 8730,
      "Sir": 8731,
      "baz": 8732,
      "ateurĠ": 8733,
      "áįįáĬķ": 8734,
      "áīĢáĪĿ": 8735,
      "placeĠ": 8736,
      "bornĠ": 8737,
      "ĠáĪĺáĬĲáĪ»": 8738,
      "Gi": 8739,
      "ĠÙ": 8740,
      "áįģ": 8741,
      "ismĠ": 8742,
      "uraĠ": 8743,
      "áīłáĭ°": 8744,
      "ĠáĭŃáĭŀ": 8745,
      "ceĠquiĠ": 8746,
      "áĬķáĮįáĭµ": 8747,
      "suf": 8748,
      "áĪ»áĪ»": 8749,
      "ique.": 8750,
      "ienneĠ": 8751,
      "Ig": 8752,
      "ots": 8753,
      "ĠáĬ¥áĪµáĭ«": 8754,
      "GrandĠ": 8755,
      "MunguĠ": 8756,
      "kr": 8757,
      "kÃ¹Ġ": 8758,
      "Ġáĭī": 8759,
      "áĬķáī¶": 8760,
      "gbÃ²": 8761,
      "áĭĪáĪµ": 8762,
      "yanarĠ": 8763,
      "Birtan": 8764,
      "Naijiria.Ġ": 8765,
      "Societ": 8766,
      "olojiaĠ": 8767,
      "táº¹lif": 8768,
      "yaĠmwakaĠ(yaĠ": 8769,
      "shahararr": 8770,
      "shairiĠ": 8771,
      "6,": 8772,
      "liss": 8773,
      "Ġáĭ¨áī°áĮĪáĬĺ": 8774,
      "áĬĽáĭįĠáĪ¥áĪŃáĭĪĠáĪĺáĬķáĮįáĪ¥áīµ": 8775,
      "prÃ©c": 8776,
      "km2Ġ": 8777,
      "August": 8778,
      "vij": 8779,
      "ØŃ": 8780,
      "aĠD": 8781,
      "aldĠ": 8782,
      "Ġáĭ¨áĪ©": 8783,
      "trod": 8784,
      "1990Ġ": 8785,
      "áĮ¨áīµ": 8786,
      "ologyĠ": 8787,
      "Amerika.Ġ": 8788,
      "Gold": 8789,
      "Wap": 8790,
      "bÃ³": 8791,
      "áº¹n": 8792,
      "Ġá»įlá»įÌģ": 8793,
      "ste": 8794,
      "ĠáĪįáĬŃ": 8795,
      "ĠáĪĨáĭŃ": 8796,
      "imboĠ": 8797,
      "lá»įÌģgbá»įÌĢnĠ": 8798,
      "Ã¬á¹£áº¹ÌĢláº¹ÌĢĠ": 8799,
      "ĠApriliĠ-Ġ": 8800,
      "\"TheĠ": 8801,
      "uiĠ": 8802,
      "zarg": 8803,
      "áĭįĠáĪĭáĭŃ": 8804,
      "daĠnaĠ": 8805,
      "áĭŃáįĭ": 8806,
      "Ġáī°áĬĲ": 8807,
      "Langu": 8808,
      "2013": 8809,
      "Ant": 8810,
      "airĠ": 8811,
      "áĬħáĪ£áĪ¥": 8812,
      "Obas": 8813,
      "himĠ": 8814,
      "áĪµáī¶áī½": 8815,
      "áīłáīł": 8816,
      "áįĭáĪŃáĪµ": 8817,
      "áīłáī°áĮ¨áĪĽáĪª": 8818,
      "dÃŃn": 8819,
      "nonĠ": 8820,
      "akĠ": 8821,
      "akabil": 8822,
      "Ġáī°áĮĪáĬĿ": 8823,
      "queĠlesĠ": 8824,
      "aĠkuanziaĠ": 8825,
      "tÃŃĠwá»įÌģnĠÅĦĠ": 8826,
      "AfrikaĠyaĠM": 8827,
      "dhidiĠyaĠ": 8828,
      "UmarĠ": 8829,
      "Ã²á¹£Ã¨lÃºĠ": 8830,
      "pÃŃnĠ": 8831,
      "Ow": 8832,
      "SanĠ": 8833,
      "peri": 8834,
      "riv": 8835,
      "áĬ¨áĪ¨": 8836,
      "ectionĠ": 8837,
      "ĠáīĢáĪ¨": 8838,
      "Ġ13": 8839,
      "áįķáĪĭ": 8840,
      "ĠáįĵáĪŃáī²áĭİáī½": 8841,
      "58": 8842,
      "Nik": 8843,
      "ruwanĠ": 8844,
      "taĠsamiĠ": 8845,
      "Ġ(áĭĪáĭŃáĪĿ": 8846,
      "wasuĠm": 8847,
      "aĠhann": 8848,
      "gabashinĠ": 8849,
      "TsarinĠ": 8850,
      "jimillarĠ": 8851,
      "aĠÃ©tÃ©Ġ": 8852,
      "áĬķĠáīłáĪĽ": 8853,
      "Ġáī¬": 8854,
      "Ġáī°áĪĽáĪª": 8855,
      "ĠáĪĿáĮįáī¥": 8856,
      "Ġáĭ¨áĪļáī£áĪĪáĭį": 8857,
      "ewa,Ġ": 8858,
      "workĠ": 8859,
      "Li": 8860,
      "kuanz": 8861,
      "ambakoĠ": 8862,
      "jáº¹ÌģĠÃ²á¹£Ã¨rÃ©Ġ": 8863,
      "njiaĠ": 8864,
      "takribanĠ": 8865,
      "katikaĠmiakaĠmirefu).ĠMpakaĠuisheĠzinabakiĠsikuĠ": 8866,
      "Tor": 8867,
      "chez": 8868,
      "wambaĠ": 8869,
      "166": 8870,
      "ĠáĬ¢áīµáĭ®áĮµáĭ«áĭĬ": 8871,
      "School,Ġ": 8872,
      "áī¤áĪį": 8873,
      "Domin": 8874,
      "God": 8875,
      "harĠdaĠ": 8876,
      "harkokinĠ": 8877,
      "mutaneĠ": 8878,
      "sev": 8879,
      "asiĠyaĠ": 8880,
      "ÆĻung": 8881,
      "ĠáĪ°áī¥": 8882,
      "ationĠdesĠ": 8883,
      "Ġáĭ¨áĬłáĬķáĭµ": 8884,
      "kusanĠ": 8885,
      "ĠáĪ²áīĢáĪ©": 8886,
      "Jih": 8887,
      "taif": 8888,
      "áĮ§": 8889,
      "islamuĠ": 8890,
      "gbáº¹ÌģĠ": 8891,
      "ambal": 8892,
      "induz": 8893,
      "áĪłáĪ¨áī°": 8894,
      "karibuĠnaĠ": 8895,
      "pĠ": 8896,
      "áīĢáĪĭ": 8897,
      "áīłáīµáĬķ": 8898,
      "ĠáĭįáĭµáĭµáĪŃ": 8899,
      "-áĪĿ": 8900,
      "biliĠ": 8901,
      "pet": 8902,
      "aroĠ": 8903,
      "ikonĠ": 8904,
      "andanĠ": 8905,
      "stateĠ": 8906,
      "áĭ°áĪ¨áĮį": 8907,
      "seed": 8908,
      "ĠáĬłáĪµáī°áĪ³": 8909,
      "bienĠ": 8910,
      "Mc": 8911,
      "ĠÎ": 8912,
      "áĮįáĭµáĪĿ": 8913,
      "áī³áĬķ": 8914,
      "áī³áĪĿ": 8915,
      "âĢĻĠ": 8916,
      "donn": 8917,
      "fiyeĠdaĠ": 8918,
      "uy": 8919,
      "yay": 8920,
      "áĬķáī¥": 8921,
      "amatsayinĠ": 8922,
      "tÃŃĠkÃ²Ġ": 8923,
      "iĠmasuĠ": 8924,
      "á»įÌĢĠsÃŃĠ": 8925,
      "áĭ©áĬĵáĭŃáīµáĭµ": 8926,
      "aĠlabar": 8927,
      "bÃŃbÃŃĠ": 8928,
      "askaziniĠ": 8929,
      "HarsunanĠ": 8930,
      "ĠáĬ¢áīµáĭ®áĮµáĭ«ĠáĭįáĪµáĮ¥Ġáĭ¨áĪļáĮĪáĬĿ": 8931,
      "ÃĢwá»įnĠáº¹láº¹ÌģbÃ¹nĠNobelĠnÃŃnÃºĠ": 8932,
      "asayansiĠwaĠ": 8933,
      "mayĠ": 8934,
      "xim": 8935,
      "ari,Ġ": 8936,
      "áīħáĪ¨áī¥": 8937,
      "erĠlesĠ": 8938,
      "industr": 8939,
      "áįīáį¢": 8940,
      "AcademyĠ": 8941,
      "Jig": 8942,
      "kans": 8943,
      "aziĠyaĠ": 8944,
      "Ġáī¥áĪĭ": 8945,
      "AdamĠ": 8946,
      "áĮĢáĪĺáĪªáĭ«ĠáĮĬáĭľ": 8947,
      "áĭŃáĪħáĪĿ": 8948,
      "Keb": 8949,
      "zang": 8950,
      "áĪįáį¤": 8951,
      "áĪĭáĪĽáĭĬ": 8952,
      "áĪ«áĭŃ": 8953,
      "áįįáĪŃ": 8954,
      "áĬĴáīµ": 8955,
      "franÃ§aisĠ": 8956,
      "countr": 8957,
      "ĠáĬłáĪįáįĭáī¤áīµ": 8958,
      "ia.org/wiki/": 8959,
      "GB": 8960,
      "daw": 8961,
      "derĠ": 8962,
      "áĬĢ": 8963,
      "olud": 8964,
      "Ã²p": 8965,
      "ambapoĠ": 8966,
      "katikaĠk": 8967,
      "ráº¹ÌĢĠnÃŃĠ": 8968,
      "Kiingerez": 8969,
      "juuĠ": 8970,
      "itÃ©ĠdeĠ": 8971,
      "UfaransaĠ": 8972,
      "\".Ġ": 8973,
      "J.": 8974,
      "en'sĠ": 8975,
      "ĠáĪĺáīĢáĪĺáĮ«": 8976,
      "baĠtareĠdaĠ": 8977,
      "áĭ°áĪ¨áĪ°": 8978,
      "zamantak": 8979,
      "baĠdaĠshaw": 8980,
      "ĠáīłáĪŃáĬ«áī³": 8981,
      "cikakk": 8982,
      "áĭ«áĭ«áĭ£": 8983,
      "Journ": 8984,
      "jinĠ": 8985,
      "kÃ¨": 8986,
      "es.Ġ": 8987,
      "AugustĠ": 8988,
      "Victor": 8989,
      "Found": 8990,
      "yÃ¡": 8991,
      "áī½áĬ¹": 8992,
      "aidĠ": 8993,
      "Ġáī£áĪĪáĭį": 8994,
      "ĠáĬŃáįįáĪĭáĮĪáĪ«áīµ": 8995,
      "ĠáĪļáĬĴáĪµáī´áĪŃ": 8996,
      "mÃŃrÃłnĠ": 8997,
      "áĭįáĬĵ": 8998,
      "áī°áĪĺ": 8999,
      "ĠáĮĪáĬĵ": 9000,
      "rÃ©s": 9001,
      "uck": 9002,
      "iakaĠyaĠ": 9003,
      "TanguĠ": 9004,
      "patakiĠ": 9005,
      "MartinĠ": 9006,
      "Hor": 9007,
      "Yus": 9008,
      "civ": 9009,
      "urg": 9010,
      "ĠáĬªáĬķáĮį": 9011,
      "ĠáĬłáĪīáīµáį¢": 9012,
      "Kip": 9013,
      "SannanĠ": 9014,
      "dabb": 9015,
      "Ã£": 9016,
      "ĠT": 9017,
      "tsib": 9018,
      "a'inĠdaĠ": 9019,
      "yankunanĠ": 9020,
      "wallaf": 9021,
      "jama'aĠaĠ": 9022,
      "musammanĠ": 9023,
      "áįĪáĪµĠáīħáĭ±áĪµ": 9024,
      "leĠc": 9025,
      "formĠ": 9026,
      "áīłáīµĠáĭĵáĪĺáīµ": 9027,
      "AsiaĠ": 9028,
      "ĠáīłáĪļáĪį": 9029,
      "ĠáīłáĭĺáĪĺáĬĲĠáĪĽáī´áĭİáĪµ": 9030,
      "máº¹Ìģr": 9031,
      "alg": 9032,
      "áĬĲáĪ±": 9033,
      "áº¹Ìģm": 9034,
      "ĠáĭŃáĪĪ": 9035,
      "waĠmwakaĠ": 9036,
      "Ġá»ĮbaĠ": 9037,
      "uatwaĠnaĠ": 9038,
      "HistoriaĠyaĠ": 9039,
      "IlĠestĠ": 9040,
      "coursĠ": 9041,
      "MeiĠ-Ġ": 9042,
      "WanasayansiĠwaĠ": 9043,
      "ambayoĠniĠ": 9044,
      "CentralĠ": 9045,
      "ÃºÃºsÃ¹Ġ": 9046,
      "March": 9047,
      "ans,Ġ": 9048,
      "jusqu'": 9049,
      "Bul": 9050,
      "Pier": 9051,
      "pÃ©ri": 9052,
      "áĪįáī¥": 9053,
      "au.": 9054,
      "egunĠ": 9055,
      "áĮłáĪī": 9056,
      "áĮ½áĪĲáįĪ": 9057,
      "Book": 9058,
      "ĠáĬĲáĮ»áĬĲáīµ": 9059,
      "a,ĠwandaĠ": 9060,
      "aĠkamarĠ": 9061,
      "2016": 9062,
      "ainstĠ": 9063,
      "ĠáĮĭáĭľ": 9064,
      "takararĠ": 9065,
      "BlackĠ": 9066,
      "wikipedia.org/wiki/": 9067,
      "HasaĠ": 9068,
      "hÃłnĠ": 9069,
      "uxĠ": 9070,
      "yá»įĠ": 9071,
      "á¹£áº¹ÌģĠ": 9072,
      "ĠáĬ¥áĬķáĭ°áĪļáĭ«": 9073,
      "yakeĠniĠ": 9074,
      "Ġáī»áĭŃáĬĵ": 9075,
      "oluiluĠ": 9076,
      "aizariĠwaĠ": 9077,
      "áĬĽáĭįáĬķ": 9078,
[...]
