{
  "version": "1.0",
  "truncation": null,
  "padding": null,
  "added_tokens": [
    {
      "id": 0,
      "content": "<pad>",
      "single_word": false,
      "lstrip": false,
      "rstrip": false,
      "normalized": false,
      "special": true
    },
    {
      "id": 1,
      "content": "<bos>",
      "single_word": false,
      "lstrip": false,
      "rstrip": false,
      "normalized": false,
      "special": true
    },
    {
      "id": 2,
      "content": "<eos>",
      "single_word": false,
      "lstrip": false,
      "rstrip": false,
      "normalized": false,
      "special": true
    }
  ],
  "normalizer": null,
  "pre_tokenizer": {
    "type": "ByteLevel",
    "add_prefix_space": false,
    "trim_offsets": true,
    "use_regex": false
  },
  "post_processor": {
    "type": "TemplateProcessing",
    "single": [
      {
        "SpecialToken": {
          "id": "<bos>",
          "type_id": 0
        }
      },
      {
        "Sequence": {
          "id": "A",
          "type_id": 0
        }
      },
      {
        "SpecialToken": {
          "id": "<eos>",
          "type_id": 0
        }
      }
    ],
    "pair": [
      {
        "SpecialToken": {
          "id": "<bos>",
          "type_id": 0
        }
      },
      {
        "Sequence": {
          "id": "A",
          "type_id": 0
        }
      },
      {
        "SpecialToken": {
          "id": "<eos>",
          "type_id": 0
        }
      },
      {
        "SpecialToken": {
          "id": "<bos>",
          "type_id": 0
        }
      },
      {
        "Sequence": {
          "id": "B",
          "type_id": 0
        }
      },
      {
        "SpecialToken": {
          "id": "<eos>",
          "type_id": 0
        }
      }
    ],
    "special_tokens": {
      "<bos>": {
        "id": "<bos>",
        "ids": [
          1
        ],
        "tokens": [
          "<bos>"
        ]
      },
      "<eos>": {
        "id": "<eos>",
        "ids": [
          2
        ],
        "tokens": [
          "<eos>"
        ]
      }
    }
  },
  "decoder": {
    "type": "ByteLevel",
    "add_prefix_space": true,
    "trim_offsets": true,
    "use_regex": true
  },
  "model": {
    "type": "BPE",
    "dropout": null,
    "unk_token": null,
    "continuing_subword_prefix": null,
    "end_of_word_suffix": null,
    "fuse_unk": false,
    "byte_fallback": false,
    "ignore_merges": false,
    "vocab": {
      "<pad>": 0,
      "<bos>": 1,
      "<eos>": 2,
      "!": 3,
      "\"": 4,
      "#": 5,
      "$": 6,
      "%": 7,
      "&": 8,
      "'": 9,
      "(": 10,
      ")": 11,
      "*": 12,
      "+": 13,
      ",": 14,
      "-": 15,
      ".": 16,
      "/": 17,
      "0": 18,
      "1": 19,
      "2": 20,
      "3": 21,
      "4": 22,
      "5": 23,
      "6": 24,
      "7": 25,
      "8": 26,
      "9": 27,
      ":": 28,
      ";": 29,
      "<": 30,
      "=": 31,
      ">": 32,
      "?": 33,
      "@": 34,
      "A": 35,
      "B": 36,
      "C": 37,
      "D": 38,
      "E": 39,
      "F": 40,
      "G": 41,
      "H": 42,
      "I": 43,
      "J": 44,
      "K": 45,
      "L": 46,
      "M": 47,
      "N": 48,
      "O": 49,
      "P": 50,
      "Q": 51,
      "R": 52,
      "S": 53,
      "T": 54,
      "U": 55,
      "V": 56,
      "W": 57,
      "X": 58,
      "Y": 59,
      "Z": 60,
      "[": 61,
      "\\": 62,
      "]": 63,
      "^": 64,
      "_": 65,
      "`": 66,
      "a": 67,
      "b": 68,
      "c": 69,
      "d": 70,
      "e": 71,
      "f": 72,
      "g": 73,
      "h": 74,
      "i": 75,
      "j": 76,
      "k": 77,
      "l": 78,
      "m": 79,
      "n": 80,
      "o": 81,
      "p": 82,
      "q": 83,
      "r": 84,
      "s": 85,
      "t": 86,
      "u": 87,
      "v": 88,
      "w": 89,
      "x": 90,
      "y": 91,
      "z": 92,
      "{": 93,
      "|": 94,
      "}": 95,
      "~": 96,
      "¡": 97,
      "¢": 98,
      "£": 99,
      "¤": 100,
      "¥": 101,
      "¦": 102,
      "§": 103,
      "¨": 104,
      "©": 105,
      "ª": 106,
      "«": 107,
      "¬": 108,
      "®": 109,
      "¯": 110,
      "°": 111,
      "±": 112,
      "²": 113,
      "³": 114,
      "´": 115,
      "µ": 116,
      "¶": 117,
      "·": 118,
      "¸": 119,
      "¹": 120,
      "º": 121,
      "»": 122,
      "¼": 123,
      "½": 124,
      "¾": 125,
      "¿": 126,
      "À": 127,
      "Á": 128,
      "Â": 129,
      "Ã": 130,
      "Ä": 131,
      "Å": 132,
      "Æ": 133,
      "Ç": 134,
      "È": 135,
      "É": 136,
      "Ê": 137,
      "Ë": 138,
      "Ì": 139,
      "Í": 140,
      "Î": 141,
      "Ï": 142,
      "Ð": 143,
      "Ñ": 144,
      "Ò": 145,
      "Ó": 146,
      "Ô": 147,
      "Õ": 148,
      "Ö": 149,
      "×": 150,
      "Ø": 151,
      "Ù": 152,
      "Ú": 153,
      "Û": 154,
      "Ü": 155,
      "Ý": 156,
      "Þ": 157,
      "ß": 158,
      "à": 159,
      "á": 160,
      "â": 161,
      "ã": 162,
      "ä": 163,
      "å": 164,
      "æ": 165,
      "ç": 166,
      "è": 167,
      "é": 168,
      "ê": 169,
      "ë": 170,
      "ì": 171,
      "í": 172,
      "î": 173,
      "ï": 174,
      "ð": 175,
      "ñ": 176,
      "ò": 177,
      "ó": 178,
      "ô": 179,
      "õ": 180,
      "ö": 181,
      "÷": 182,
      "ø": 183,
      "ù": 184,
      "ú": 185,
      "û": 186,
      "ü": 187,
      "ý": 188,
      "þ": 189,
      "ÿ": 190,
      "Ā": 191,
      "ā": 192,
      "Ă": 193,
      "ă": 194,
      "Ą": 195,
      "ą": 196,
      "Ć": 197,
      "ć": 198,
      "Ĉ": 199,
      "ĉ": 200,
      "Ċ": 201,
      "ċ": 202,
      "Č": 203,
      "č": 204,
      "Ď": 205,
      "ď": 206,
      "Đ": 207,
      "đ": 208,
      "Ē": 209,
      "ē": 210,
      "Ĕ": 211,
      "ĕ": 212,
      "Ė": 213,
      "ė": 214,
      "Ę": 215,
      "ę": 216,
      "Ě": 217,
      "ě": 218,
      "Ĝ": 219,
      "ĝ": 220,
      "Ğ": 221,
      "ğ": 222,
      "Ġ": 223,
      "ġ": 224,
      "Ģ": 225,
      "ģ": 226,
      "Ĥ": 227,
      "ĥ": 228,
      "Ħ": 229,
      "ħ": 230,
      "Ĩ": 231,
      "ĩ": 232,
      "Ī": 233,
      "ī": 234,
      "Ĭ": 235,
      "ĭ": 236,
      "Į": 237,
      "į": 238,
      "İ": 239,
      "ı": 240,
      "Ĳ": 241,
      "ĳ": 242,
      "Ĵ": 243,
      "ĵ": 244,
      "Ķ": 245,
      "ķ": 246,
      "ĸ": 247,
      "Ĺ": 248,
      "ĺ": 249,
      "Ļ": 250,
      "ļ": 251,
      "Ľ": 252,
      "ľ": 253,
      "Ŀ": 254,
      "ŀ": 255,
      "Ł": 256,
      "ł": 257,
      "Ń": 258,
      "áĪ": 259,
      "Ġá": 260,
      "áī": 261,
      "áĬ": 262,
      "áĭ": 263,
      "an": 264,
      "ar": 265,
      "áĮ": 266,
      "Ġáĭ": 267,
      "ĠáĬ": 268,
      "in": 269,
      "ĠáĪ": 270,
      "áį": 271,
      "Ġd": 272,
      "áĬķ": 273,
      "Ġáī": 274,
      "Ġk": 275,
      "Ġa": 276,
      "Ġt": 277,
      "wa": 278,
      "Ġn": 279,
      "Ġs": 280,
      "Ġm": 281,
      "áīµ": 282,
      "ya": 283,
      "on": 284,
      "áĪŃ": 285,
      "en": 286,
      "ĠÃ": 287,
      "Ġl": 288,
      "»į": 289,
      "ÃŃ": 290,
      "er": 291,
      "es": 292,
      "Ġáĭ¨": 293,
      "áĭį": 294,
      "at": 295,
      "Ã©": 296,
      "un": 297,
      "á»į": 298,
      "li": 299,
      "łáĪ": 300,
      "Ġda": 301,
      "áĪĿ": 302,
      "º¹": 303,
      "áĪį": 304,
      "áĪµ": 305,
      "as": 306,
      "am": 307,
      "is": 308,
      "áº¹": 309,
      "Ġya": 310,
      "Ġc": 311,
      "ka": 312,
      "ĠA": 313,
      "Ġp": 314,
      "or": 315,
      "Ġwa": 316,
      "Ġb": 317,
      "Ġ(": 318,
      "it": 319,
      "he": 320,
      "áį¢": 321,
      "ĠM": 322,
      "Ġ1": 323,
      "áĬĵ": 324,
      "Ìģ": 325,
      "ur": 326,
      "Ġáīł": 327,
      "áī°": 328,
      "al": 329,
      "áĭ«": 330,
      "áĪĪ": 331,
      "Ġf": 332,
      "Ãł": 333,
      "ĠáĮ": 334,
      "ÌĢ": 335,
      "ir": 336,
      "áĭŃ": 337,
      "áĪĺ": 338,
      "Ġh": 339,
      "ĠáĬ¥": 340,
      "Ġna": 341,
      "Ġo": 342,
      "Ã¡": 343,
      "Ġg": 344,
      "áī½": 345,
      "il": 346,
      "Ġr": 347,
      "ĠáĬł": 348,
      "ti": 349,
      "ab": 350,
      "us": 351,
      "ĠK": 352,
      "áĭ°": 353,
      "áĬĲ": 354,
      "um": 355,
      "ĠS": 356,
      "ik": 357,
      "Ġw": 358,
      "Ġta": 359,
      "áī¥": 360,
      "áĮĪ": 361,
      "áĪ¨": 362,
      "áĭµ": 363,
      "Ãº": 364,
      "le": 365,
      "om": 366,
      "Ġj": 367,
      "ad": 368,
      "áĪĭ": 369,
      "ĠáĬĲ": 370,
      "áĮį": 371,
      "Ġde": 372,
      "hi": 373,
      "ĠÃł": 374,
      "Ã¬": 375,
      "ĠáĪĺ": 376,
      "ĠN": 377,
      "ut": 378,
      "ati": 379,
      "áīł": 380,
      "and": 381,
      "ĠB": 382,
      "áĪ«": 383,
      "áī³": 384,
      "ĠáĬ¨": 385,
      "Ġ2": 386,
      "ai": 387,
      "et": 388,
      "ĠI": 389,
      "Ã¨": 390,
      "ia": 391,
      "ak": 392,
      "ent": 393,
      "áĬŃ": 394,
      "ay": 395,
      "Ġ19": 396,
      "ĠT": 397,
      "el": 398,
      "áĪĽ": 399,
      "áĪ³": 400,
      "ĠC": 401,
      "áī£": 402,
      "em": 403,
      "Ġáį": 404,
      "Ġni": 405,
      "Ġz": 406,
      "gb": 407,
      "ta": 408,
      "Ġla": 409,
      "ana": 410,
      "qu": 411,
      "Ġi": 412,
      "Ġy": 413,
      "áĬĽ": 414,
      "Ġáī°": 415,
      "ha": 416,
      "áĪª": 417,
      "ĠáĭŃ": 418,
      "ed": 419,
      "¹£": 420,
      "ara": 421,
      "ĠáīłáĪ": 422,
      "Ã³": 423,
      "Ġáĭ¨áĪ": 424,
      "ĠP": 425,
      "ĠáĬłáĪ": 426,
      "ol": 427,
      "ic": 428,
      "áĪħ": 429,
      "Ġin": 430,
      "ba": 431,
      "áĬ¨": 432,
      "áĮ¥": 433,
      "áį£": 434,
      "âĢ": 435,
      "Ġ20": 436,
      "ĠW": 437,
      "ĠáĪĿ": 438,
      "ĠnÃŃ": 439,
      "á»įn": 440,
      "ĠL": 441,
      "Ġáĭ¨áĬ": 442,
      "ga": 443,
      "ani": 444,
      "ĠD": 445,
      "ĠG": 446,
      "re": 447,
      "Ġthe": 448,
      "ul": 449,
      "ĠáĭĪ": 450,
      "ĠJ": 451,
      "áį¡": 452,
      "ĠO": 453,
      "ĠF": 454,
      "áįį": 455,
      "áĭ³": 456,
      "ĠáĬĲáĭį": 457,
      "áīĢ": 458,
      "uk": 459,
      "ro": 460,
      "áĭ¨": 461,
      "ĠÃ¬": 462,
      "ce": 463,
      "im": 464,
      "Ġma": 465,
      "ĠáĬ¥áĬķ": 466,
      "wá»įn": 467,
      "Ã¹": 468,
      "Ġof": 469,
      "áĭĪ": 470,
      "ing": 471,
      "ĠH": 472,
      "ĠR": 473,
      "to": 474,
      "iya": 475,
      "id": 476,
      "áĪ°": 477,
      "áīħ": 478,
      "Ġá»į": 479,
      "ali": 480,
      "áĪĮ": 481,
      "Ã²": 482,
      "áĬ«": 483,
      "ĠáĪĪ": 484,
      "os": 485,
      "uwa": 486,
      "á¹£": 487,
      "Ġ-": 488,
      "ch": 489,
      "uma": 490,
      "iy": 491,
      "áĬł": 492,
      "Ġv": 493,
      "ÆĻ": 494,
      "ĠáĪµ": 495,
      "ĠE": 496,
      "áī¸": 497,
      "ari": 498,
      "Ġáĭ«": 499,
      "la": 500,
      "ci": 501,
      "Ãºn": 502,
      "áĪī": 503,
      "ĠU": 504,
      "Ġle": 505,
      "Ġáĭĵ": 506,
      "ri": 507,
      "ant": 508,
      "ĠtÃŃ": 509,
      "ud": 510,
      "ra": 511,
      "ke": 512,
      "áīłáĪ": 513,
      "áĭĬ": 514,
      "áĭĭ": 515,
      "are": 516,
      "áĪ®": 517,
      "áī±": 518,
      "İáī½": 519,
      "Ġet": 520,
      "áī¸áĭį": 521,
      "áįĪ": 522,
      "ans": 523,
      "ation": 524,
      "Ġkuma": 525,
      "est": 526,
      "Ġáĭ¨áĪļ": 527,
      "áĭĿ": 528,
      "ig": 529,
      "ama": 530,
      "áĮ£": 531,
      "hek": 532,
      "te": 533,
      "ĠáĪĽ": 534,
      "áĪĨ": 535,
      "00": 536,
      "áĭļ": 537,
      "ji": 538,
      "áī¶": 539,
      "áĪ³áĪĮ": 540,
      "Ġto": 541,
      "Ġshek": 542,
      "Ġen": 543,
      "áĮł": 544,
      "Ġne": 545,
      "áĮī": 546,
      "Ġti": 547,
      "ag": 548,
      "ĠÆĻ": 549,
      "ili": 550,
      "af": 551,
      "áĮĭ": 552,
      "ikin": 553,
      "áĭ®": 554,
      "Ġun": 555,
      "ĠáīłáĬ": 556,
      "ko": 557,
      "19": 558,
      "ĠáĪĿáĪ³áĪĮ": 559,
      "ub": 560,
      "Ġkwa": 561,
      "ann": 562,
      "hin": 563,
      "ang": 564,
      "ug": 565,
      "ec": 566,
      "ĠáĪ²": 567,
      "ĠÃ³": 568,
      "da": 569,
      "que": 570,
      "áĭ²": 571,
      "iki": 572,
      "áĬķáĭµ": 573,
      "Ġor": 574,
      "ĠáĮį": 575,
      "op": 576,
      "ap": 577,
      "Ġáīµ": 578,
      "di": 579,
      "Ġand": 580,
      "láº¹": 581,
      "áĭİáī½": 582,
      "Ġil": 583,
      "Ġáĭĺ": 584,
      "Ġdes": 585,
      "áĪ¥": 586,
      "áīĥ": 587,
      "ini": 588,
      "og": 589,
      "ĠY": 590,
      "Ġkas": 591,
      "áĬĸ": 592,
      "Ġ201": 593,
      "aj": 594,
      "áĪŀ": 595,
      "áĭĺ": 596,
      "ers": 597,
      "Ġal": 598,
      "Ġáĭ¨áī°": 599,
      "za": 600,
      "Ġe": 601,
      "wan": 602,
      "Ġsu": 603,
      "me": 604,
      "har": 605,
      "ĠáĬ¥áĬĵ": 606,
      "ye": 607,
      "Ġba": 608,
      "áĬĲáīµ": 609,
      "ata": 610,
      "ĠáĪ°": 611,
      "Ġku": 612,
      "rÃŃ": 613,
      "ot": 614,
      "our": 615,
      "Ġáī¥": 616,
      "áĬ¥": 617,
      "ĠÂ": 618,
      "sa": 619,
      "de": 620,
      "si": 621,
      "áĪĬ": 622,
      "áĪ©": 623,
      "ma": 624,
      "war": 625,
      "Ġáĭį": 626,
      "áĪĻ": 627,
      "Ġ\"": 628,
      "Ġcikin": 629,
      "st": 630,
      "bi": 631,
      "ne": 632,
      "ĠÃĢ": 633,
      ").": 634,
      "áĬķáĮį": 635,
      "zi": 636,
      "ina": 637,
      "ĠáīĢ": 638,
      "Ġpar": 639,
      "anda": 640,
      "ist": 641,
      "Ãłn": 642,
      "Ġles": 643,
      "Ġdu": 644,
      "áīłáĪŃ": 645,
      "ung": 646,
      "Ġáĭ°": 647,
      "ĭáĭŃ": 648,
      "ĠÃłwá»įn": 649,
      "iv": 650,
      "ĠáĬ¥áĬķáĭ°": 651,
      "ká»į": 652,
      "Ġza": 653,
      "Ġdaga": 654,
      "áĭĽ": 655,
      "Ġáĭ¨áĬłáĪ": 656,
      "Ġce": 657,
      "ĠâĢ": 658,
      "asi": 659,
      "Ġshi": 660,
      "áĪļ": 661,
      "oka": 662,
      "Ġwas": 663,
      "bo": 664,
      "ĠáĬŃ": 665,
      "),": 666,
      "áĪİ": 667,
      "Ġkati": 668,
      "Ġáº¹": 669,
      "Ġam": 670,
      "una": 671,
      "áī²": 672,
      "Ġu": 673,
      "áĮħ": 674,
      "áī¢": 675,
      "rÃ©": 676,
      "ont": 677,
      "áĬĳ": 678,
      "cin": 679,
      "eriya": 680,
      "ine": 681,
      "áįĭ": 682,
      "ĠáĪį": 683,
      "âĢĻ": 684,
      "Ġkar": 685,
      "ou": 686,
      "Ġ200": 687,
      "Ġjáº¹": 688,
      "ÉĹ": 689,
      "já»į": 690,
      "Ġmat": 691,
      "ita": 692,
      "iyar": 693,
      "ĠV": 694,
      "Ġali": 695,
      "áĬĿ": 696,
      "Ġá¹£": 697,
      "áĪ±": 698,
      "waka": 699,
      "ion": 700,
      "ĠÃ©": 701,
      "ie": 702,
      "áį¤": 703,
      "áĪĨáĬķ": 704,
      "Ġshekar": 705,
      "áĪ½": 706,
      "ĠAf": 707,
      "asa": 708,
      "áĮİ": 709,
      "Ġau": 710,
      "Ġga": 711,
      "ada": 712,
      "ter": 713,
      "tion": 714,
      "ĠáĪĭáĭŃ": 715,
      "áĭ«áĬķ": 716,
      "we": 717,
      "áĪĪáĭį": 718,
      "Ġáī³": 719,
      "Ġáĭµ": 720,
      "oj": 721,
      "fi": 722,
      "má»į": 723,
      "áĪŃáĬĽ": 724,
      "Ġqu": 725,
      "res": 726,
      "Ġan": 727,
      "au": 728,
      "od": 729,
      "Ġáī£": 730,
      "áĭ±": 731,
      "áĪģ": 732,
      "ĠÂ«": 733,
      "ere": 734,
      "ement": 735,
      "Ġas": 736,
      "Ġ:": 737,
      "ob": 738,
      "Ġcom": 739,
      "ki": 740,
      "ĠÃ¨": 741,
      "Ġ.": 742,
      "fu": 743,
      "áĭļáĪħ": 744,
      "¢áīµ": 745,
      "ĠAl": 746,
      "ĠÃłti": 747,
      "kin": 748,
      "Ġkan": 749,
      "Ġest": 750,
      "ĽáĪŃáĬĽ": 751,
      "ĠIn": 752,
      "¢áīµáĭ®": 753,
      "ance": 754,
      "áĮµ": 755,
      "Ġkatika": 756,
      "áĭķ": 757,
      "áĬĴ": 758,
      "th": 759,
      "ge": 760,
      "áīĨ": 761,
      "Ġ18": 762,
      "áĮĢ": 763,
      "Ġse": 764,
      "Ġkut": 765,
      "ire": 766,
      "¢áīµáĭ®áĮµ": 767,
      "ĠAm": 768,
      "ĠáīłáĪĺ": 769,
      "Ġmas": 770,
      "ĠÃĮ": 771,
      "aka": 772,
      "Ġko": 773,
      "Ġar": 774,
      "ĠdÃ©": 775,
      "áĪĪáīµ": 776,
      "Ġráº¹": 777,
      "Ġsh": 778,
      "dÃºn": 779,
      "áĮ½": 780,
      "áĮĪáĪŃ": 781,
      "Ġre": 782,
      "rin": 783,
      "áĪ¬": 784,
      "chi": 785,
      "Ġ3": 786,
      "zo": 787,
      "áī¡": 788,
      "áĪµáĮ¥": 789,
      "¢áīµáĭ®áĮµáĭ«": 790,
      "Ġcon": 791,
      "Ġáĭ¨áĬłáĪĽáĪŃáĬĽ": 792,
      "Ã¬n": 793,
      "ov": 794,
      "lÃº": 795,
      "ĠÃĢwá»įn": 796,
      "Ġmwaka": 797,
      "áĪ¨áīµ": 798,
      "yo": 799,
      "ĠsÃŃ": 800,
      "ÅĦ": 801,
      "ah": 802,
      "ĠAn": 803,
      "Ġwat": 804,
      "20": 805,
      "ĠáĬĲáīłáĪŃ": 806,
      "áīłáīµ": 807,
      "ĠlÃ¡": 808,
      "áĭľ": 809,
      "se": 810,
      "ĠáĮ¥": 811,
      "áĪĺáĬķ": 812,
      "Ġshekara": 813,
      "Ġon": 814,
      "ile": 815,
      "ĠÃ²": 816,
      "áĪ»": 817,
      "Ã¹n": 818,
      "je": 819,
      "if": 820,
      "Ġmai": 821,
      "Ġke": 822,
      "aba": 823,
      "Ġje": 824,
      "ĠáĭĪáĭ°": 825,
      "Ġshekarar": 826,
      "Ġyi": 827,
      "lÃ©": 828,
      "ĠáĪĨ": 829,
      "Ġyan": 830,
      "ĠáĮĪ": 831,
      "áĪµáīµ": 832,
      "ĠáĬ¨áī°": 833,
      "ĠNaj": 834,
      "asar": 835,
      "Ġ199": 836,
      "aif": 837,
      "Ġpro": 838,
      "áī»": 839,
      "ow": 840,
      "Ġfor": 841,
      "ok": 842,
      "ami": 843,
      "ĠáĬķ": 844,
      "ĠNajeriya": 845,
      "Ġts": 846,
      "áĭ©": 847,
      "Ġili": 848,
      "ni": 849,
      "ac": 850,
      "ila": 851,
      "ris": 852,
      "áĭĵ": 853,
      "Ġpl": 854,
      "Ġwá»į": 855,
      "áįĬ": 856,
      "amu": 857,
      "ve": 858,
      "Ġol": 859,
      "of": 860,
      "ban": 861,
      "áĭįáĬķ": 862,
      "Ġis": 863,
      "ika": 864,
      "áī¶áī½": 865,
      "Ġaka": 866,
      "ÃŃn": 867,
      "yar": 868,
      "ĠáĬ¥áĪµ": 869,
      "ĠÅĦ": 870,
      "Â»": 871,
      "won": 872,
      "Ġsa": 873,
      "ĠáĭįáĪµáĮ¥": 874,
      "ij": 875,
      "ĠáĬłáĭŃ": 876,
      "les": 877,
      "áĪŃáĮī": 878,
      "ber": 879,
      "ate": 880,
      "Ġá»įdÃºn": 881,
      "á¹£áº¹": 882,
      "Ĭáĭľ": 883,
      "áĮłáĪ": 884,
      "áĪªáĭ«": 885,
      "ho": 886,
      "arin": 887,
      "pa": 888,
      "kan": 889,
      "áĬĶ": 890,
      "ly": 891,
      "end": 892,
      "dÃ¨": 893,
      "áīĭ": 894,
      "ihar": 895,
      "áĭ¶": 896,
      "ĠáĪģ": 897,
      "po": 898,
      "ong": 899,
      "ment": 900,
      "kuwa": 901,
      "áĪ²": 902,
      "18": 903,
      "áĬĽáĭį": 904,
      "ure": 905,
      "ayin": 906,
      "áĬłáĪ": 907,
      "Ġwanda": 908,
      "oma": 909,
      "Ġati": 910,
      "gbÃł": 911,
      "áī¦": 912,
      "Ġth": 913,
      "ane": 914,
      "áĭŃáĪĿ": 915,
      "bu": 916,
      "anar": 917,
      "bÃŃ": 918,
      "ric": 919,
      "ale": 920,
      "tok": 921,
      "áĪŃáĪµ": 922,
      "pe": 923,
      "Ã©e": 924,
      "áĪľ": 925,
      "áĬ¤": 926,
      "awa": 927,
      "Ġáīłáī°": 928,
      "uu": 929,
      "áĪĲ": 930,
      "áĭĻ": 931,
      "ort": 932,
      "áĬ®": 933,
      "amar": 934,
      "ayan": 935,
      "ĠbÃŃ": 936,
      "oc": 937,
      "Ġáīħ": 938,
      "ĠWali": 939,
      "áī¤": 940,
      "áĪĭáĪį": 941,
      "tokasi": 942,
      "Ġsun": 943,
      "ĠáĬłáĪµ": 944,
      "Ġ198": 945,
      "Ġ'": 946,
      "ĠáĪ¥": 947,
      "ĠáĬ«": 948,
      "adi": 949,
      "Ġáī¤": 950,
      "Ġsi": 951,
      "iri": 952,
      "ĠáīµáĪŃáĮī": 953,
      "Ġdans": 954,
      "Ġáĭ¨áĪĺ": 955,
      "ais": 956,
      "áĬ©": 957,
      "yan": 958,
      "art": 959,
      "áĪªáĬŃ": 960,
      "ĠáĬ¥áĬķáĭ²": 961,
      "ĠáĮįáĬķ": 962,
      "tÃ©": 963,
      "uc": 964,
      "ĠZ": 965,
      "wo": 966,
      "enye": 967,
      "Ã¡Ãł": 968,
      "ĠáĮĭ": 969,
      "ib": 970,
      "Ġáĭ¨áĬł": 971,
      "ue": 972,
      "áīģ": 973,
      "fin": 974,
      "áĮ¨": 975,
      "oh": 976,
      "man": 977,
      "und": 978,
      "Ġcha": 979,
      "annan": 980,
      "Ġkutoka": 981,
      "Ġune": 982,
      "Ġ197": 983,
      "áī¹": 984,
      "áīłáĪ¨": 985,
      "ano": 986,
      "Ġ|": 987,
      "ĠáĪ²áĪĨáĬķ": 988,
      "ond": 989,
      "Ġmats": 990,
      "ĠItokasi": 991,
      "ran": 992,
      "ĭáĪĭ": 993,
      "áį¡áį¡": 994,
      "Ġ4": 995,
      "sh": 996,
      "áĮĥ": 997,
      "anin": 998,
      "»Į": 999,
      "Ġzuwa": 1000,
      "An": 1001,
      "oni": 1002,
      "»áį": 1003,
      "áĬŃáĪį": 1004,
      "áĪĥ": 1005,
      "Ġ196": 1006,
      "ĠáīµáĪŃáĮīáĪĻ": 1007,
      "ĠrÃ©": 1008,
      "afa": 1009,
      "Ġfar": 1010,
      "ĠáīłáĬł": 1011,
      "Ġdon": 1012,
      "yi": 1013,
      "áĪ´": 1014,
      "ĠáĬłáĬķ": 1015,
      "mi": 1016,
      "ĠfÃºn": 1017,
      "Ġá¹£e": 1018,
      "²áį": 1019,
      "áī´": 1020,
      "ĠáĪ³": 1021,
      "anz": 1022,
      "Ġmut": 1023,
      "áĮŃ": 1024,
      "ĠáĪĺáĬķáĮį": 1025,
      "Ġáĭĭ": 1026,
      "ĠáīĢáĬķ": 1027,
      "ĠáĮĬáĭľ": 1028,
      "ĠáĭĪáĭŃáĪĿ": 1029,
      "ĠtÃ³": 1030,
      "Ġ5": 1031,
      "Ġfi": 1032,
      "ll": 1033,
      "áī³áīµ": 1034,
      "Ã¡n": 1035,
      "Ġch": 1036,
      "tr": 1037,
      "ĠnÃŃn": 1038,
      "Ġso": 1039,
      "Ġtare": 1040,
      "ĠorÃŃ": 1041,
      "ep": 1042,
      "eng": 1043,
      "rit": 1044,
      "ux": 1045,
      "áĪªáĬ«": 1046,
      "yin": 1047,
      "Ġpe": 1048,
      "Ġqui": 1049,
      "ĠThe": 1050,
      "ĠÉĹ": 1051,
      "ity": 1052,
      "be": 1053,
      "Ġbi": 1054,
      "ĠCh": 1055,
      "Ġmatsayin": 1056,
      "200": 1057,
      "ĠáĪµáĪĪ": 1058,
      "ĠáĬĵ": 1059,
      "ĠáĬłáĪĪ": 1060,
      "ĠAr": 1061,
      "áĪ¨áīµáĬĵ": 1062,
      "áĮ»": 1063,
      "ori": 1064,
      "ĠáĪĬ": 1065,
      "Ġáī¢": 1066,
      "ĠáįĪ": 1067,
      "ord": 1068,
      "ĠáĬ¥áĪµáĬ¨": 1069,
      "Ġha": 1070,
      "Ġpour": 1071,
      "áĪĪáĪĿ": 1072,
      "ÃĢ": 1073,
      "pp": 1074,
      "fa": 1075,
      "mu": 1076,
      "ĠáĬķáĮī": 1077,
      "ĠáīłáĬĭáĪĭ": 1078,
      "Ġwatan": 1079,
      "Ġav": 1080,
      "ĠâĢĵ": 1081,
      "ĠLe": 1082,
      "áĪ¥áīµ": 1083,
      "Ġhar": 1084,
      "ĠnÃ¡Ãł": 1085,
      "áį»áį": 1086,
      "uli": 1087,
      "iwa": 1088,
      "Ġsuka": 1089,
      "ĠáĭŃáĪħ": 1090,
      "Ġat": 1091,
      "Ġwali": 1092,
      "ake": 1093,
      "ĠáĭĺáĪĺáĬķ": 1094,
      "ens": 1095,
      "arta": 1096,
      "áĪ¨áĪµ": 1097,
      "Ġlá»į": 1098,
      "áĬķáĪĿ": 1099,
      "ts": 1100,
      "ary": 1101,
      "ala": 1102,
      "jo": 1103,
      "ĠSt": 1104,
      "ira": 1105,
      "Ġad": 1106,
      "Ġáī°áĪ¨áīµáĬĵ": 1107,
      "áĪ®áī½": 1108,
      "áĭĭáĪį": 1109,
      "ces": 1110,
      "ĠáĬŃáįį": 1111,
      "oja": 1112,
      "Ġex": 1113,
      "áĪķ": 1114,
      "áĮ«": 1115,
      "ĠáĬ¨áī°áĪĽ": 1116,
      "Ã©r": 1117,
      "zali": 1118,
      "elle": 1119,
      "Ġmw": 1120,
      "akar": 1121,
      "Ã©s": 1122,
      "usu": 1123,
      "Ġab": 1124,
      "Ġbir": 1125,
      "ĠnÃŃnÃº": 1126,
      "oli": 1127,
      "Ġsur": 1128,
      "erÃ©": 1129,
      "up": 1130,
      "jÃŃ": 1131,
      "áĭİ": 1132,
      "Ġkama": 1133,
      "isha": 1134,
      "áĮĪáĬ": 1135,
      "all": 1136,
      "aban": 1137,
      "io": 1138,
      "wá»į": 1139,
      "abu": 1140,
      "obel": 1141,
      "ins": 1142,
      "ĠáĭĵáĪĺ": 1143,
      "ĠÆĻasar": 1144,
      "Ġgb": 1145,
      "Ġá»įmá»į": 1146,
      "Ġ6": 1147,
      "ĠMat": 1148,
      "ĠNobel": 1149,
      "ĠUn": 1150,
      "ith": 1151,
      "zaliwa": 1152,
      "ash": 1153,
      "Ġ,": 1154,
      "ĠáĪĪáĪĺ": 1155,
      "ard": 1156,
      "Ġáĭķ": 1157,
      "ania": 1158,
      "Ġwasan": 1159,
      "áįĵ": 1160,
      "áĮĢáĪĺ": 1161,
      "áī°áĬĽ": 1162,
      "áĪŃáĭ«": 1163,
      "Ġá»Į": 1164,
      "emi": 1165,
      "ua": 1166,
      "ĠlÃ¡ti": 1167,
      "ques": 1168,
      "The": 1169,
      "uni": 1170,
      "'s": 1171,
      "áĭ´": 1172,
      "ish": 1173,
      "ver": 1174,
      "Ġplus": 1175,
      "ráº¹": 1176,
      "rÃŃÃł": 1177,
      "lá»į": 1178,
      "ĠAd": 1179,
      "Ġhuk": 1180,
      "ass": 1181,
      "tic": 1182,
      "Ġac": 1183,
      "áĮįáĪŀ": 1184,
      "Ġhi": 1185,
      "Ġ195": 1186,
      "ÃłÃ¬": 1187,
      "jÃº": 1188,
      "amm": 1189,
      "anaz": 1190,
      "Ġdi": 1191,
      "áį¦": 1192,
      "Ġáĭ«áĪį": 1193,
      "ore": 1194,
      "Ġki": 1195,
      "Ġbe": 1196,
      "ĠlÃ³": 1197,
      "mo": 1198,
      "urs": 1199,
      "Ġque": 1200,
      "Ġhaif": 1201,
      "uri": 1202,
      "Ġgba": 1203,
      "áĭµáĪŃ": 1204,
      "ence": 1205,
      "ĠSh": 1206,
      "Ġyake": 1207,
      "áĪ¶": 1208,
      "ĠáĮĢ": 1209,
      "Ġjihar": 1210,
      "ĠáĬĲáĮĪ": 1211,
      "Ġpr": 1212,
      "aye": 1213,
      "ĠáĬ¢": 1214,
      "Ġáįį": 1215,
      "Ġkuwa": 1216,
      "ite": 1217,
      "anazarta": 1218,
      "áī³áĭĪ": 1219,
      "iger": 1220,
      "Ã¬ÃŃ": 1221,
      "ĠMar": 1222,
      "Ġáīģ": 1223,
      "Ġnchi": 1224,
      "ĠMa": 1225,
      "so": 1226,
      "áī£áĪį": 1227,
      "Ġ9": 1228,
      "ĠsÃ¬": 1229,
      "ĠAb": 1230,
      "Ġloka": 1231,
      "jÃŃrÃŃÃł": 1232,
      "áīµáĬķ": 1233,
      "ĠáĪķ": 1234,
      "ĠáĮĭáĪŃ": 1235,
      "olog": 1236,
      "ĠNÃłÃ¬": 1237,
      "uniya": 1238,
      "une": 1239,
      "ĠáīłáĪĽ": 1240,
      "kwa": 1241,
      "ola": 1242,
      "Ġkasance": 1243,
      "age": 1244,
      "wam": 1245,
      "iti": 1246,
      "Ġáį¡": 1247,
      "amb": 1248,
      "..": 1249,
      "áĬŃáĪįáīł": 1250,
      "pá»į": 1251,
      "ĠNÃłÃ¬jÃŃrÃŃÃł": 1252,
      "ame": 1253,
      "áīĤ": 1254,
      "Ġms": 1255,
      "Ġ17": 1256,
      "áĪİáī½": 1257,
      "ÌĢ-": 1258,
      "ĠáĭĵáĬŃáĪįáīł": 1259,
      "Ġá»įjá»į": 1260,
      "áĮ¡": 1261,
      "Ġsha": 1262,
      "ene": 1263,
      "áĭ°áĪ¨": 1264,
      "Ġ7": 1265,
      "ida": 1266,
      "Ġagb": 1267,
      "rika": 1268,
      "Ta": 1269,
      "¦áĪŃ": 1270,
      "Ġáĭ°áĮįáĪŀ": 1271,
      "Ġou": 1272,
      "risto": 1273,
      "ansa": 1274,
      "lo": 1275,
      "ĠáĪļ": 1276,
      "ĠáĬłáĬķáĭµ": 1277,
      "Ġfa": 1278,
      "nin": 1279,
      "Ã¨re": 1280,
      "áĪĺáĬĲ": 1281,
      "Ã¨s": 1282,
      "áĭ°áĪŃ": 1283,
      "áī°áĪ¨": 1284,
      "ja": 1285,
      "ĠMare": 1286,
      "apa": 1287,
      "ĠáĬłáĪį": 1288,
      "mp": 1289,
      "uh": 1290,
      "na": 1291,
      "áĮĪáĬĿ": 1292,
      "áĪŃáīµ": 1293,
      "abban": 1294,
      "emp": 1295,
      "rom": 1296,
      "ede": 1297,
      "Ġte": 1298,
      "kÃł": 1299,
      "Ġfarko": 1300,
      "Ġ8": 1301,
      "áĬķáīµ": 1302,
      "ff": 1303,
      "Ġáĭ¨áĬ¢áīµáĭ®áĮµáĭ«": 1304,
      "ofar": 1305,
      "kani": 1306,
      "á¹£Ã¹": 1307,
      "Ġby": 1308,
      "áĬķáĪµ": 1309,
      "ĠáĪĺáĬķáĮįáĪ¥áīµ": 1310,
      "Ã¨dÃ¨": 1311,
      "áĪĶ": 1312,
      "ivers": 1313,
      "uka": 1314,
      "Ġwani": 1315,
      "ĠNe": 1316,
      "ĠÂ»": 1317,
      "ozaliwa": 1318,
      "Ġbiy": 1319,
      "aki": 1320,
      "Ġcomp": 1321,
      "ĠorÃŃláº¹": 1322,
      "ĠáĪĪáĪĽ": 1323,
      "Ġvya": 1324,
      "áīłáĪ©": 1325,
      "Ġawon": 1326,
      "av": 1327,
      "15": 1328,
      "16": 1329,
      "Le": 1330,
      "áĬķáīĭ": 1331,
      "angu": 1332,
      "anan": 1333,
      "ĠTu": 1334,
      "Ġkw": 1335,
      "áĬª": 1336,
      "áī½áĬķ": 1337,
      "Ġst": 1338,
      "ĠNiger": 1339,
      "lis": 1340,
      "Ġáĭ¨áĬĲ": 1341,
      "áĬĵáīµ": 1342,
      "ern": 1343,
      "aya": 1344,
      "Ġmo": 1345,
      "hindi": 1346,
      "ĠáĪĨáĬĲ": 1347,
      "ĠKar": 1348,
      "lÃ¡": 1349,
      "rá»į": 1350,
      "000": 1351,
      "ph": 1352,
      "Ġyana": 1353,
      "ĠNij": 1354,
      "Ġdan": 1355,
      "ĠAs": 1356,
      "Ġ194": 1357,
      "á¹£Ã¨": 1358,
      "uta": 1359,
      "Ãĵ": 1360,
      "Ġranar": 1361,
      "ĠáĪįáĮħ": 1362,
      "Ġbayan": 1363,
      "Ġit": 1364,
      "tá»į": 1365,
      "omin": 1366,
      "che": 1367,
      "Ġson": 1368,
      "yÃłn": 1369,
      "ĠilÃ©": 1370,
      "ĠManazarta": 1371,
      "pÃŃn": 1372,
      "Ba": 1373,
      "Ãª": 1374,
      "ĠáĭĿ": 1375,
      "Ġay": 1376,
      "ĠáĭµáĪ¨áĪµ": 1377,
      "uwar": 1378,
      "ofariki": 1379,
      "áĭļáĭ«": 1380,
      "abi": 1381,
      "Ġwá»įn": 1382,
      "áįī": 1383,
      "ition": 1384,
      "pin": 1385,
      "Ã©es": 1386,
      "int": 1387,
      "17": 1388,
      "Ġáĭ«áĪįáī°": 1389,
      "llon": 1390,
      "jÃ¬": 1391,
      "Ġkus": 1392,
      "az": 1393,
      "ors": 1394,
      "uwan": 1395,
      "ĠTuzo": 1396,
      "isa": 1397,
      "Ġtr": 1398,
      "Ġtana": 1399,
      "iyo": 1400,
      "áĭ°áī¥": 1401,
      "gun": 1402,
      "áī°áĪ¨áĮİ": 1403,
      "ations": 1404,
      "ungiyar": 1405,
      "ill": 1406,
      "inu": 1407,
      "anya": 1408,
      "ht": 1409,
      "ille": 1410,
      "ĠáĪħ": 1411,
      "áĮĬ": 1412,
      "eb": 1413,
      "irin": 1414,
      "Ġhaife": 1415,
      "Ġlokacin": 1416,
      "ĠáĬ¤": 1417,
      "ĠáĪµáĪĿ": 1418,
      "bali": 1419,
      "ishi": 1420,
      "Ġáīĭ": 1421,
      "Ġáĭ¨áĬ¥": 1422,
      "ĠáĪĮ": 1423,
      "ĠÃ¬lÃº": 1424,
      "ugha": 1425,
      "áĪ£": 1426,
      "áĪ¸": 1427,
      "áĪĨáĬĳ": 1428,
      "ĠáĪĢ": 1429,
      "ĠáĬłáĮĪ": 1430,
      "ĠpÃ©": 1431,
      "Ġ15": 1432,
      "Ġsab": 1433,
      "Ġmasu": 1434,
      "ĠMarekani": 1435,
      "Ġ;": 1436,
      "ĠAfrika": 1437,
      "ĠáīłáĬ¥": 1438,
      "kas": 1439,
      "Ġbiyu": 1440,
      "áī³áĪį": 1441,
      "²áį±": 1442,
      "ons": 1443,
      "ast": 1444,
      "áĬķáĭ«": 1445,
      "Ġ/": 1446,
      "ĠáĪĽáĪĪáīµ": 1447,
      "jáº¹": 1448,
      "Ġkasar": 1449,
      "Ġhii": 1450,
      "Ġ16": 1451,
      "kÃ³": 1452,
      "áĬĵáĪį": 1453,
      "lu": 1454,
      "bÃ¡": 1455,
      "ĠWaliozaliwa": 1456,
      "dun": 1457,
      "áĪĬáĭĿ": 1458,
      "Ġsuna": 1459,
      "10": 1460,
      "ubwa": 1461,
      "ĠáĪĥ": 1462,
      "ito": 1463,
      "ande": 1464,
      "áĪłáĪ": 1465,
      "Ġfun": 1466,
      "áī¸áĭįáĬķ": 1467,
      "Ġhu": 1468,
      "Ġita": 1469,
      "ĠáĬķáĮīáĪ¥": 1470,
      "gbe": 1471,
      "alis": 1472,
      "áĬ¨áī°": 1473,
      "anta": 1474,
      "ult": 1475,
      "áĭįáĭ«áĬķ": 1476,
      "áī±áĬķ": 1477,
      "áĪµáī°": 1478,
      "ĠWaliofariki": 1479,
      "Ġáĭ¨áĪļáĭ«": 1480,
      "Ġawá»įn": 1481,
      "Ġzama": 1482,
      "âĢĿ": 1483,
      "14": 1484,
      "áī°áĪ¨áĮİáĪĺ": 1485,
      "ats": 1486,
      "ĠMus": 1487,
      "gbo": 1488,
      "ell": 1489,
      "áįķ": 1490,
      "nÃ¬": 1491,
      "Ġpia": 1492,
      "pÃŃnláº¹": 1493,
      "Ġmata": 1494,
      "ĠKi": 1495,
      "Ġgud": 1496,
      "wÃ©": 1497,
      "áī£áī¢": 1498,
      "Ġwak": 1499,
      "sÃŃ": 1500,
      "áĪĢ": 1501,
      "ĠEn": 1502,
      "Ġ10": 1503,
      "ĠáĬłáĪĺ": 1504,
      "Ġáī³áĪªáĬŃ": 1505,
      "Ġavec": 1506,
      "Ġbirnin": 1507,
      "Ġkáº¹": 1508,
      "Ġsont": 1509,
      "Ġmu": 1510,
      "Ġáĭ«áĪįáī°áī°áĪ¨áĮİáĪĺ": 1511,
      "áĬķáĮ": 1512,
      "tern": 1513,
      "²áį±áį»áį": 1514,
      "ĠáīłáĬłáĪ": 1515,
      "emba": 1516,
      "ĠarÃ¡": 1517,
      "Ġman": 1518,
      "ust": 1519,
      "áĪĦ": 1520,
      "ĠáĮī": 1521,
      "su": 1522,
      "min": 1523,
      "ĠáĪ°áĭį": 1524,
      "ational": 1525,
      "Ġhe": 1526,
      "áĭĽáīµ": 1527,
      "anci": 1528,
      "ĠáīĭáĬķáīĭ": 1529,
      "Ġwith": 1530,
      "Ġtun": 1531,
      "Ġmk": 1532,
      "Ġfara": 1533,
      "áĪŀáī½": 1534,
      "yÃŃ": 1535,
      "Ġfil": 1536,
      "áĮ¥áĪŃ": 1537,
      "Ġnom": 1538,
      "áĪ«áīµ": 1539,
      "Ġpáº¹": 1540,
      "ura": 1541,
      "Ġáĭ³": 1542,
      "ect": 1543,
      "antar": 1544,
      "Ġlati": 1545,
      "mar": 1546,
      "Ġáį£": 1547,
      "ugaban": 1548,
      "lic": 1549,
      "áī£áīµ": 1550,
      "áĪł": 1551,
      "ĠáĬłáĬ«": 1552,
      "áī¥áĪŃ": 1553,
      "Ġmar": 1554,
      "Ġare": 1555,
      "ote": 1556,
      "ru": 1557,
      "irka": 1558,
      "ĠmÃ©": 1559,
      "In": 1560,
      "áĪįáĬŃ": 1561,
      "Ġka": 1562,
      "Ġyawan": 1563,
      "Ġara": 1564,
      "atu": 1565,
      "utar": 1566,
      "gba": 1567,
      "Ġáĭ¨áĪĽ": 1568,
      "ade": 1569,
      "ĠáĬĵáī¸áĭį": 1570,
      "fic": 1571,
      "Ġfrom": 1572,
      "Ġáī¥áĭĻ": 1573,
      "iss": 1574,
      "Ġiláº¹": 1575,
      "ĠâĢľ": 1576,
      "ĠÆĻwa": 1577,
      "Ġuk": 1578,
      "udu": 1579,
      "itÃ©": 1580,
      "áĪĭáīµ": 1581,
      "áĬ¨áĪį": 1582,
      "áĪĿáĪ®": 1583,
      "ĠáĭŃáĮĪ": 1584,
      "Ġcomm": 1585,
      "Ġiya": 1586,
      "one": 1587,
      "rÃ¹n": 1588,
      "Ġ193": 1589,
      "ĠNijeriya": 1590,
      "Ġhan": 1591,
      "ĠáĪŀ": 1592,
      "ry": 1593,
      "isi": 1594,
      "ĠIs": 1595,
      "áĪ³áĭŃ": 1596,
      "atar": 1597,
      "ĠerÃ©": 1598,
      "ĠáĮł": 1599,
      "ĠYor": 1600,
      "Ġká»į": 1601,
      "ĠwÃł": 1602,
      "ÃĮ": 1603,
      "ĠáĪĻ": 1604,
      "Ġile": 1605,
      "Ã©n": 1606,
      "12": 1607,
      "ula": 1608,
      "Baada": 1609,
      "áĪĿáĪħ": 1610,
      "Ġmus": 1611,
      "gbáº¹": 1612,
      "ct": 1613,
      "ĠAmer": 1614,
      "áī³áĭĬ": 1615,
      "Ġny": 1616,
      "era": 1617,
      "ĠáĬłáĪµáī°": 1618,
      "ĠáĮ½": 1619,
      "ĠAg": 1620,
      "anzania": 1621,
      "áĮĤ": 1622,
      "ayo": 1623,
      "ĠIb": 1624,
      "iko": 1625,
      "Ġ=": 1626,
      "yÃ¬n": 1627,
      "ĠáĮİ": 1628,
      "ois": 1629,
      "ľáĪªáĬ«": 1630,
      "âĢĵ": 1631,
      "wamn": 1632,
      "Ġaiki": 1633,
      "áĪĺáĪŃ": 1634,
      "Ġmshindi": 1635,
      "ĠáĭĭáĬĵ": 1636,
      "ĠáĬ¥áĬķáĭ³": 1637,
      "ĠáĪ³áĭŃ": 1638,
      "Ã§": 1639,
      "13": 1640,
      "áĬķáĭ³": 1641,
      "áĭ²áĪµ": 1642,
      "ukio": 1643,
      "att": 1644,
      "land": 1645,
      "Ġid": 1646,
      "ĠáĬ®": 1647,
      "áĮĨ": 1648,
      "Ġci": 1649,
      "ĠáīłáĪļ": 1650,
      "istor": 1651,
      "alin": 1652,
      "ĠSo": 1653,
      "ĠáĪĺáĬķ": 1654,
      "du": 1655,
      "itu": 1656,
      "ĠprÃ©": 1657,
      "ĠáĪĺáĪµ": 1658,
      "wÃ²": 1659,
      "áĮįáĪŃ": 1660,
      "tÃł": 1661,
      "pr": 1662,
      "yáº¹": 1663,
      "áī·": 1664,
      "Ġmag": 1665,
      "áĮłáĪŃ": 1666,
      "Ġus": 1667,
      "Ġinda": 1668,
      "ign": 1669,
      "Ġkasa": 1670,
      "ĠAfirka": 1671,
      "ĠÃ¨dÃ¨": 1672,
      "Ġáį¢": 1673,
      "ĠFr": 1674,
      "Ġáī¤áī°": 1675,
      "áĭĿáī¥": 1676,
      "for": 1677,
      "him": 1678,
      "ous": 1679,
      "ember": 1680,
      "rÃŃkÃł": 1681,
      "áĪĭáĭŃ": 1682,
      "Ġcont": 1683,
      "ĠkÃŃ": 1684,
      "áĮĪáĬĺ": 1685,
      "áįĸ": 1686,
      "ĠOl": 1687,
      "ĠJam": 1688,
      "rÃ²": 1689,
      "uth": 1690,
      "ĠáĪģáĪī": 1691,
      "199": 1692,
      "vel": 1693,
      "Ġkam": 1694,
      "anu": 1695,
      "En": 1696,
      "ĠbÃ¡": 1697,
      "Ġ14": 1698,
      "gáº¹": 1699,
      "ess": 1700,
      "Ġsam": 1701,
      "áĭī": 1702,
      "Ġáĭ¨áĪĨ": 1703,
      "ĠáįĬ": 1704,
      "akati": 1705,
      "ĠolÃ³": 1706,
      "lia": 1707,
      "Ġmá»į": 1708,
      "à¤": 1709,
      "ĠTanzania": 1710,
      "Ġcewa": 1711,
      "ĠMatukio": 1712,
      "uru": 1713,
      "cc": 1714,
      "Ġmili": 1715,
      "ward": 1716,
      "--": 1717,
      "áĬŀ": 1718,
      "ĠPapa": 1719,
      "NÃŃ": 1720,
      "ĠáĬłáĪĿ": 1721,
      "ĠÆĻwallon": 1722,
      "ex": 1723,
      "Ġ12": 1724,
      "cho": 1725,
      "áĮĢáĪĺáĪªáĭ«": 1726,
      "ĠmÃ¡": 1727,
      "Ġáĭ¨áĪĿ": 1728,
      "Ġthat": 1729,
      "ze": 1730,
      "Ġkafa": 1731,
      "áĪŃáĪµáī²": 1732,
      "emb": 1733,
      "tÃ¬": 1734,
      "ĠMas": 1735,
      "Ġalikuwa": 1736,
      "udi": 1737,
      "La": 1738,
      "ĠCom": 1739,
      "ĠHa": 1740,
      "áĪ«áĭĬ": 1741,
      "Ġzam": 1742,
      "ĠáĪĺáĭ°áī¥": 1743,
      "ÃĢwá»įn": 1744,
      "Ġmaj": 1745,
      "ĠNew": 1746,
      "uis": 1747,
      "áĪĨáĬĲ": 1748,
      "pÃ©": 1749,
      "Ġoá¹£Ã¹": 1750,
      "Ġzai": 1751,
      "ĠÃĴ": 1752,
      "ĠyÃ¬ÃŃ": 1753,
      "ide": 1754,
      "ĠkÃ³": 1755,
      "ĠáĪ°áĭİáī½": 1756,
      "Ġduniya": 1757,
      "ingi": 1758,
      "abar": 1759,
      "Ġser": 1760,
      "Ġdake": 1761,
      "Il": 1762,
      "ise": 1763,
      "ĠOk": 1764,
      "ayar": 1765,
      "Ġáīłáĭĺ": 1766,
      "báº¹": 1767,
      "ĠSa": 1768,
      "ogo": 1769,
      "bar": 1770,
      "ĠAfric": 1771,
      "ute": 1772,
      "Ġwad": 1773,
      "nÃ¬yÃłn": 1774,
      "ĠGu": 1775,
      "Éĵ": 1776,
      "ereza": 1777,
      "Ġáī¦": 1778,
      "ĠÆ": 1779,
      "Ġkim": 1780,
      "áįİ": 1781,
      "áĪ«áĪį": 1782,
      "Ġhadi": 1783,
      "Ġdaya": 1784,
      "ĠáĬĲáĮĪáĪŃ": 1785,
      "ĠJihar": 1786,
      "\".": 1787,
      "Ġmul": 1788,
      "ingereza": 1789,
      "Maka": 1790,
      "do": 1791,
      "Ġmji": 1792,
      "iku": 1793,
      "áĬķáĮįáĪĬáĭĿ": 1794,
      "illi": 1795,
      "amba": 1796,
      "Ġbáº¹": 1797,
      "ĠáĭĵáĪĿ": 1798,
      "º¸": 1799,
      "Ġáī°áĪĺ": 1800,
      "onn": 1801,
      "áĪĪáī½": 1802,
      "anga": 1803,
      "Ġyar": 1804,
      "Ġbabban": 1805,
      "enti": 1806,
      "Ġwon": 1807,
      "áī¦áī½": 1808,
      "ĠIng": 1809,
      "ayi": 1810,
      "Ġapp": 1811,
      "áī°áĭį": 1812,
      "Ġwannan": 1813,
      "Ġkwenye": 1814,
      "iz": 1815,
      "áĮ¸": 1816,
      "ĠtÃºn": 1817,
      "ars": 1818,
      "Ġake": 1819,
      "hun": 1820,
      "oro": 1821,
      "ĠLa": 1822,
      "ip": 1823,
      "hine": 1824,
      "ĠÃ¨nÃ¬yÃłn": 1825,
      "Ġninu": 1826,
      "Ġorile": 1827,
      "ĠáĭĵáĪĺáīµ": 1828,
      "fe": 1829,
      "Ġiá¹£áº¹": 1830,
      "áĮłáīĢ": 1831,
      "Ġjama": 1832,
      "áį¥": 1833,
      "amp": 1834,
      "ĠNigeria": 1835,
      "aransa": 1836,
      "ĠKristo": 1837,
      "ction": 1838,
      "áĪĽáĪª": 1839,
      "Ġáĭ¨áĪļáĮĪáĬĿ": 1840,
      "ĠáīĨ": 1841,
      "gbá»į": 1842,
      "enn": 1843,
      "atun": 1844,
      "yÃ¨": 1845,
      "Ġent": 1846,
      "Ġhukum": 1847,
      "ath": 1848,
      "Ġter": 1849,
      "ck": 1850,
      "cl": 1851,
      "akini": 1852,
      "Ġyankin": 1853,
      "Ġlugha": 1854,
      "Ġhis": 1855,
      "áīħáĪĿ": 1856,
      "gbÃ©": 1857,
      "Ġsai": 1858,
      "ike": 1859,
      "Ġlo": 1860,
      "elu": 1861,
      "Ġinah": 1862,
      "áĪ¨áĭį": 1863,
      "gu": 1864,
      "bin": 1865,
      "Ġ13": 1866,
      "ashin": 1867,
      "ome": 1868,
      "Ġmak": 1869,
      "ĠUnivers": 1870,
      "Ġgr": 1871,
      "ian": 1872,
      "kÃ²": 1873,
      "áĮĵ": 1874,
      "áĭŀ": 1875,
      "tre": 1876,
      "Ġbu": 1877,
      "jen": 1878,
      "sÃ¬": 1879,
      "áįĬáīµ": 1880,
      "ouv": 1881,
      "ĠáĬª": 1882,
      "afin": 1883,
      "áĮįáī¥": 1884,
      "dÃŃ": 1885,
      "ette": 1886,
      "ole": 1887,
      "Ġper": 1888,
      "ĠáĪĿáĬŃ": 1889,
      "ĠkÃ²": 1890,
      "Makala": 1891,
      "áĪģáĪĿ": 1892,
      "alla": 1893,
      "Ġinahusu": 1894,
      "Ġ192": 1895,
      "áĬ¢": 1896,
      "áĬĸáī½": 1897,
      "dÃ©": 1898,
      "áĭ±áĪµ": 1899,
      "hari": 1900,
      "Ġgáº¹": 1901,
      "Ġana": 1902,
      "ĠWa": 1903,
      "ĠRe": 1904,
      "áĪĭáĬķáĭµ": 1905,
      "ĠáĬ¥áĭ¨": 1906,
      "áĭ³áĬķ": 1907,
      "ress": 1908,
      "zu": 1909,
      "iji": 1910,
      "Ġkamar": 1911,
      "áįĴ": 1912,
      "kun": 1913,
      "annin": 1914,
      "ĠÆĻafa": 1915,
      "gin": 1916,
      "go": 1917,
      "ĠáĪĭ": 1918,
      "áĬ¥áĬķ": 1919,
      "Ġáī¤áīµ": 1920,
      "áĮ¨áĪ¨": 1921,
      "Ġcomme": 1922,
      "ongo": 1923,
      "áĮĮ": 1924,
      "áī³áī¸áĭį": 1925,
      "Ġamb": 1926,
      "jin": 1927,
      "usi": 1928,
      "tÃ²": 1929,
      "hemu": 1930,
      "Ġáīĥ": 1931,
      "Ġsamu": 1932,
      "wÃ¡": 1933,
      "oun": 1934,
      "Ġup": 1935,
      "áĭŃáĪħ": 1936,
      "ĠII": 1937,
      "áĬłáī¥": 1938,
      "Ġgab": 1939,
      "ĠÃ¬gbÃł": 1940,
      "ohn": 1941,
      "áĪ¨áĮĥ": 1942,
      "áĪ¨áĬķ": 1943,
      "ĠØ": 1944,
      "jÃ¡": 1945,
      "Ġmutane": 1946,
      "arr": 1947,
      "ice": 1948,
      "ĠáĪĲ": 1949,
      "ĠáĪĺáĬ«": 1950,
      "Al": 1951,
      "Ġtsak": 1952,
      "ĠÃ¡": 1953,
      "Ġgbo": 1954,
      "áĮ¦": 1955,
      "sion": 1956,
      "ĠáĬłáī¥": 1957,
      "Ya": 1958,
      "Ġnot": 1959,
      "uke": 1960,
      "ĠáĬ¨áĬł": 1961,
      "Ġwasu": 1962,
      "Ġtáº¹": 1963,
      "ĠUniversity": 1964,
      "áīĨáĮ£": 1965,
      "áī°áĪŃ": 1966,
      "able": 1967,
      "ogra": 1968,
      "ĠIngila": 1969,
      "Ġduk": 1970,
      "ĠáĬĲáīłáĪ¨": 1971,
      "ĠCol": 1972,
      "Ġáī°áīĢ": 1973,
      "ose": 1974,
      "ÌĢ.": 1975,
      "áĪĪáĭ«": 1976,
      "áĭµáĬķ": 1977,
      "dÃ¡": 1978,
      "ĠáĬłáĮĪáĪŃ": 1979,
      "ĠJami": 1980,
      "tÃŃ": 1981,
      "ese": 1982,
      "áĪ°áĭį": 1983,
      "Ġmáº¹": 1984,
      "ĠÃ²á¹£Ã¨": 1985,
      "com": 1986,
      "ĠáĪĨáĬĸ": 1987,
      "ĠdÃ¡": 1988,
      "Ġuli": 1989,
      "mes": 1990,
      "lin": 1991,
      "ku": 1992,
      "anen": 1993,
      "ime": 1994,
      "Ã´": 1995,
      "Ġwaka": 1996,
      "tique": 1997,
      "ost": 1998,
      "Les": 1999,
      "Ġkwan": 2000,
      "Ġmwan": 2001,
      "ĠáīłáĪµ": 2002,
      "áĮĪáĭµ": 2003,
      "áĪĺáĪµ": 2004,
      "ires": 2005,
      "ĠáīłáĬ¢áīµáĭ®áĮµáĭ«": 2006,
      "ĠáĬłáī£": 2007,
      "áĬĲáĭļáĪħ": 2008,
      "áĪīáīµ": 2009,
      "son": 2010,
      "shi": 2011,
      "áĪ¨áĭ³": 2012,
      "fani": 2013,
      "ope": 2014,
      "Â«": 2015,
      "per": 2016,
      "11": 2017,
      "áĪĽáĭĬ": 2018,
      "Ġáįķ": 2019,
      "din": 2020,
      "ĠáĪ´": 2021,
      "áĪ°áī¥": 2022,
      "áĪĶáĪŃ": 2023,
      "áīª": 2024,
      "dÃ¬": 2025,
      "Ġyin": 2026,
      "ĠáĭĺáĬķáĭµ": 2027,
      "Ġwana": 2028,
      "Ġwata": 2029,
      "ĠáĮ¨": 2030,
      "Ġáĭ¨áĪ°": 2031,
      "áīµáĬĵ": 2032,
      "áįħ": 2033,
      "cha": 2034,
      "áĮĪáĬĻ": 2035,
      "Ġib": 2036,
      "umani": 2037,
      "áĭ¥": 2038,
      "ĠPar": 2039,
      "ĠáĮĢáĪĿáĪ®": 2040,
      "Ġdin": 2041,
      "adu": 2042,
      "Ġáī£áĪĪ": 2043,
      "áĪĭáī¸áĭį": 2044,
      "Ġgir": 2045,
      "yÃ©": 2046,
      "ique": 2047,
      "Ġtak": 2048,
      "áĮ½áĪĲ": 2049,
      "Ġme": 2050,
      "ĠáĪ«": 2051,
      "ungu": 2052,
      "alme": 2053,
      "198": 2054,
      "áĪŃáĪ±": 2055,
      "Ġáįĵ": 2056,
      "Ġsy": 2057,
      "erumani": 2058,
      "amoja": 2059,
      "atin": 2060,
      "ĠáĬ¢áīµáĭ®áĮµáĭ«": 2061,
      "ĠGh": 2062,
      "fun": 2063,
      "ziki": 2064,
      "Ġgarin": 2065,
      "ty": 2066,
      "isiwa": 2067,
      "ĠáĮ¦áĪŃ": 2068,
      "tor": 2069,
      "ĠÃĮpÃŃnláº¹": 2070,
      "Ġáĭ«áĪĪáĭį": 2071,
      "Ġaikin": 2072,
      "Ġweng": 2073,
      "ume": 2074,
      "áī¡áī¥": 2075,
      "áĭ¨áĪŃ": 2076,
      "Ġshugaban": 2077,
      "ĠáĮ¸": 2078,
      "Ġáī¥áī»": 2079,
      "umi": 2080,
      "idi": 2081,
      "á¹£e": 2082,
      "áĬķáĬķ": 2083,
      "Ġkai": 2084,
      "Ġmakar": 2085,
      "áĬ¤áĪį": 2086,
      "áĮ£áĪį": 2087,
      "ÙĦ": 2088,
      "fáº¹": 2089,
      "ĠTh": 2090,
      "Ġ2015": 2091,
      "Ġáī°áĭĪ": 2092,
      "ton": 2093,
      "ain": 2094,
      "ele": 2095,
      "Ã³n": 2096,
      "Ùİ": 2097,
      "Ġkab": 2098,
      "ĠÉĹan": 2099,
      "Ġpremi": 2100,
      "áĭµáĪĿ": 2101,
      "ĠáĬ¨áįį": 2102,
      "ĥáĭŃ": 2103,
      "ĠáĭĺáĪĺ": 2104,
      "org": 2105,
      "ule": 2106,
      "Ġáĭ¨áĭĪ": 2107,
      "áĪłáĪ¨": 2108,
      "Ġwake": 2109,
      "já»įba": 2110,
      "Ġdis": 2111,
      "ĠáĬłáĭį": 2112,
      "ĠáĪĺáĪį": 2113,
      "ld": 2114,
      "ĠQ": 2115,
      "gion": 2116,
      "akatifu": 2117,
      "ĠBK": 2118,
      "Ġáĭ«áĪĪ": 2119,
      "áĬĵáĭĬ": 2120,
      "ated": 2121,
      "áĪįáĮ£": 2122,
      "Ġpas": 2123,
      "uba": 2124,
      "Ġgwamn": 2125,
      "ical": 2126,
      "ĠPro": 2127,
      "ants": 2128,
      "Ġob": 2129,
      "áĪĿáĬĵ": 2130,
      "ĠIta": 2131,
      "iaka": 2132,
      "ĠáĬ¦": 2133,
      "Ġáī°áĬ¨": 2134,
      "vi": 2135,
      "akin": 2136,
      "Ġwatu": 2137,
      "Ġann": 2138,
      "Ġut": 2139,
      "Ġkya": 2140,
      "ĠBen": 2141,
      "lÃ¨": 2142,
      "Ġcin": 2143,
      "yÃł": 2144,
      "áį²áį±áį»áį": 2145,
      "Ġgaba": 2146,
      "Ġbin": 2147,
      "ĠTur": 2148,
      "ĠÃĪ": 2149,
      "ĠtÃł": 2150,
      "ĠKarne": 2151,
      "áĪļáĭ«": 2152,
      "Ġcons": 2153,
      "áĬħ": 2154,
      "Ġra": 2155,
      "duc": 2156,
      "Ġaux": 2157,
      "jÃł": 2158,
      "ĠáīģáĮ¥áĪŃ": 2159,
      "ashe": 2160,
      "Ġ2011": 2161,
      "Ġshir": 2162,
      "any": 2163,
      "ĠDe": 2164,
      "bre": 2165,
      "ĠáĪī": 2166,
      "Ġro": 2167,
      "Ġtra": 2168,
      "ĠAmáº¹": 2169,
      "ited": 2170,
      "ĠMe": 2171,
      "Ġsehemu": 2172,
      "Ġhai": 2173,
      "ustr": 2174,
      "ĠáĪ¥áĪŃ": 2175,
      "ende": 2176,
      "orn": 2177,
      "gbÃ¡": 2178,
      "umb": 2179,
      "rÃłn": 2180,
      "ĠHar": 2181,
      "alement": 2182,
      "Ġshine": 2183,
      "ĠwÃ¡": 2184,
      "kasÃŃ": 2185,
      "ĠBr": 2186,
      "Ġ190": 2187,
      "ĠlÃ³rÃŃ": 2188,
      "Ġáĭ®": 2189,
      "gbÃ¨": 2190,
      "ase": 2191,
      "lÃ³": 2192,
      "ĠáĬłáīł": 2193,
      "Ġ2014": 2194,
      "ena": 2195,
      "Ġlit": 2196,
      "Ġáĭ¨áīĢ": 2197,
      "Ġáĭ¨áĪĨáĬĲ": 2198,
      "eshi": 2199,
      "ww": 2200,
      "Ġibi": 2201,
      "ubu": 2202,
      "Ġmkuu": 2203,
      "rie": 2204,
      "ĠáĮ£": 2205,
      "áĪ¥áī³áīµ": 2206,
      "mba": 2207,
      "áĪŃáĬŃ": 2208,
      "eno": 2209,
      "ĠVi": 2210,
      "Ġik": 2211,
      "ĠáīłáĪĿ": 2212,
      "ĠáĭĪáĬķ": 2213,
      "ju": 2214,
      "Ġmf": 2215,
      "50": 2216,
      "ays": 2217,
      "áī¢áĭ«": 2218,
      "Ġtro": 2219,
      "áĬ¦": 2220,
      "Ġlakini": 2221,
      "áĮ¨áĪ¨áĪ»": 2222,
      "áīĥáĪį": 2223,
      "ĠáĭµáĪŃ": 2224,
      "Ġpamoja": 2225,
      "Ġkungiyar": 2226,
      "uhamm": 2227,
      "Ġnd": 2228,
      "áĮ¤": 2229,
      "Ġbaya": 2230,
      "áĮłáĪ«": 2231,
      "Ġray": 2232,
      "Ġ2016": 2233,
      "ashen": 2234,
      "Ġph": 2235,
      "ven": 2236,
      "ĠáĪľ": 2237,
      "ĠáīłáĭļáĪħ": 2238,
      "gÃºn": 2239,
      "21": 2240,
      "Ġsá»į": 2241,
      "usa": 2242,
      "áĪľáĬķ": 2243,
      "Ġmiaka": 2244,
      "der": 2245,
      "Ġáĭ¨áī°áī£": 2246,
      "els": 2247,
      "áĪ³áīµ": 2248,
      "Ġina": 2249,
      "ukan": 2250,
      "ĠRo": 2251,
      "Ġamfani": 2252,
      "Ġfin": 2253,
      "Ġáī¡": 2254,
      "Ġak": 2255,
      "Ġhal": 2256,
      "oda": 2257,
      "Ġhad": 2258,
      "áĬķáĮī": 2259,
      "ĠMay": 2260,
      "áĭİáī¹": 2261,
      "ĠáīłáĭĺáĪĺáĬĲ": 2262,
      "ĠáĬ¨áĪĺ": 2263,
      "iyya": 2264,
      "ĠáīłáĪĭáĭŃ": 2265,
      "chool": 2266,
      "lan": 2267,
      "Ġap": 2268,
      "ept": 2269,
      "eo": 2270,
      "ĠáĪĺáĬ«áĬ¨áĪį": 2271,
      "Ġnje": 2272,
      "Ġhaka": 2273,
      "oir": 2274,
      "Ġgasar": 2275,
      "Ġmafi": 2276,
      "Ġ2019": 2277,
      "istoria": 2278,
      "ĠáīłáĪ°": 2279,
      "idan": 2280,
      "áĮįáĭļ": 2281,
      "Ġshiga": 2282,
      "wÃ³": 2283,
      "áĬ³": 2284,
      "Ġdo": 2285,
      "Ġfim": 2286,
      "ham": 2287,
      "ĠJohn": 2288,
      "áīħáĪŃ": 2289,
      "Ġamba": 2290,
      "use": 2291,
      "áī¥áĪ¨": 2292,
      "Ġjir": 2293,
      "Ġmon": 2294,
      "áĪĽáĭŃ": 2295,
      "ĠBo": 2296,
      "ĠáĬŃáįįáĪĪ": 2297,
      "enne": 2298,
      "Ġaut": 2299,
      "Ġtar": 2300,
      "ĠAmur": 2301,
      "áĪħáĪį": 2302,
      "alisar": 2303,
      "eri": 2304,
      "áĪĿáĪħáĪŃáīµ": 2305,
      "iá¹£áº¹": 2306,
      "ĠÃ²á¹£Ã¨rÃ©": 2307,
      "tt": 2308,
      "Ġkir": 2309,
      "ĠáĬłáĪŃ": 2310,
      "Ġsiya": 2311,
      "kea": 2312,
      "ikia": 2313,
      "ents": 2314,
      "ĠmÃ¡a": 2315,
      "Ġcan": 2316,
      "Ġhak": 2317,
      "ĠGhana": 2318,
      "Ġes": 2319,
      "áĪĺáĪĪ": 2320,
      "kÃ¬": 2321,
      "ora": 2322,
      "uran": 2323,
      "ÌĢ,": 2324,
      "áĭŃáĭĪ": 2325,
      "ĠInd": 2326,
      "ĠdÃ©p": 2327,
      "áįĥ": 2328,
      "áīĦ": 2329,
      "ude": 2330,
      "áĬķáĮįáĪĬáĭĿáĬĽ": 2331,
      "ona": 2332,
      "ĠJanu": 2333,
      "pt": 2334,
      "Ã®": 2335,
      "aul": 2336,
      "ranÃ§": 2337,
      "hu": 2338,
      "ĠyÃŃ": 2339,
      "ĠtÃłbÃŃ": 2340,
      "ĠkÃ©": 2341,
      "ĠáĬ¥áĬķáĭ²áĪģáĪĿ": 2342,
      "aij": 2343,
      "Ġ11": 2344,
      "ĠOr": 2345,
      "insi": 2346,
      "áĬķáĬĵ": 2347,
      "Ġsannan": 2348,
      "ĠÆĻar": 2349,
      "áīĨáĮ£áĮłáĪŃ": 2350,
      "aux": 2351,
      "ĠalÃ¡": 2352,
      "Ġ2012": 2353,
      "ys": 2354,
      "ates": 2355,
      "yana": 2356,
      "ashi": 2357,
      "ĠáĪ½": 2358,
      "Ġcl": 2359,
      "ĠÃ¨yÃŃ": 2360,
      "Ġkwanza": 2361,
      "va": 2362,
      "Ġ)": 2363,
      "Ġáĭ¨áĮį": 2364,
      "Ġtele": 2365,
      "ĠKan": 2366,
      "Ali": 2367,
      "phi": 2368,
      "Ġdif": 2369,
      "ÃłÃ¡": 2370,
      "áĭ°áīµ": 2371,
      "Ġdeux": 2372,
      "Ġáī¦áī³": 2373,
      "ussi": 2374,
      "fuata": 2375,
      "ĠRoma": 2376,
      "áĮģ": 2377,
      "ĠSe": 2378,
      "ĠAmerika": 2379,
      "zini": 2380,
      "ugh": 2381,
      "hili": 2382,
      "áĮįáĭļáĬłáī¥": 2383,
      "iste": 2384,
      "Ġ2018": 2385,
      "gr": 2386,
      "Ġláº¹": 2387,
      "ĠÃłká»į": 2388,
      "Ġáº¹gbáº¹": 2389,
      "ĠAp": 2390,
      "shen": 2391,
      "áĮĪáĬķ": 2392,
      "Ġ2017": 2393,
      "áĭįáĪĿ": 2394,
      "Ã¢": 2395,
      "Ġfir": 2396,
      "cce": 2397,
      "ĠGe": 2398,
      "áĪµáī³": 2399,
      "Ġimp": 2400,
      "30": 2401,
      "ĠáīłáīĢ": 2402,
      "Ġamma": 2403,
      "Ġsiku": 2404,
      "ĠáĬĲáīłáĪ©": 2405,
      "andishi": 2406,
      "Ġmais": 2407,
      "ĠonÃŃ": 2408,
      "áĬŀáī½": 2409,
      "its": 2410,
      "Ġáī°áī¥": 2411,
      "Ġohun": 2412,
      "lah": 2413,
      "kwai": 2414,
      "Ġshekaru": 2415,
      "áĭ¬": 2416,
      "ĠâĢĺ": 2417,
      "//": 2418,
      "áĮĨáī½": 2419,
      "ĠMuhamm": 2420,
      "ema": 2421,
      "áī¤áīµ": 2422,
      "ĠAre": 2423,
      "197": 2424,
      "ures": 2425,
      "196": 2426,
      "ĠOn": 2427,
      "áĪŃáĪµáī²áĭ«áĬķ": 2428,
      "ĠBir": 2429,
      "Ġ[": 2430,
      "Ġ2006": 2431,
      "\",": 2432,
      "áĮ¥áĬķ": 2433,
      "Ġáīħáĭ±áĪµ": 2434,
      "Ġzili": 2435,
      "ĠNov": 2436,
      "://": 2437,
      "Ġco": 2438,
      "áĭķáĪ«": 2439,
      "Ġses": 2440,
      "Ġjami": 2441,
      "Ġeneo": 2442,
      "ikwa": 2443,
      "ambo": 2444,
      "Ġáĭ¨áĪµ": 2445,
      "³áĪµ": 2446,
      "co": 2447,
      "cip": 2448,
      "form": 2449,
      "iria": 2450,
      "Ġ2010": 2451,
      "Ġform": 2452,
      "ĠáĭŃáĮĪáĬĽ": 2453,
      "als": 2454,
      "port": 2455,
      "Ġim": 2456,
      "ks": 2457,
      "ĠMata": 2458,
      "áĭ¶áī½": 2459,
      "ungo": 2460,
      "Ġkaratun": 2461,
      "ĠAmurka": 2462,
      "ĠáĪ¨": 2463,
      "áĮįáĭļáĬłáī¥áĪĶáĪŃ": 2464,
      "yá»į": 2465,
      "áĬŃáīµ": 2466,
      "ales": 2467,
      "Ġnan": 2468,
      "ĠAward": 2469,
      "áĪµáĬĵ": 2470,
      "ĠSept": 2471,
      "ĠáĪĿáĬŃáĬķáĭ«": 2472,
      "ĠMut": 2473,
      "Ġhasa": 2474,
      "ĠolÃ¹": 2475,
      "Ġsana": 2476,
      "str": 2477,
      "chini": 2478,
      "velop": 2479,
      "áĪº": 2480,
      "ĠáĬłáĪī": 2481,
      "Ġmah": 2482,
      "Ġhanyar": 2483,
      "ansu": 2484,
      "áī¥áĪ«": 2485,
      "Da": 2486,
      "Ġyawa": 2487,
      "ĠáĪĿáĬķ": 2488,
      "lÃł": 2489,
      "ĠÃ©t": 2490,
      "tar": 2491,
      "Ġbar": 2492,
      "ree": 2493,
      "92": 2494,
      "ert": 2495,
      "kazini": 2496,
      "Ġbay": 2497,
      "gi": 2498,
      "Ġsan": 2499,
      "ĠJul": 2500,
      "Ġwakazi": 2501,
      "ĠOkto": 2502,
      "ĠJap": 2503,
      "erin": 2504,
      "ves": 2505,
      "Ġ2007": 2506,
      "Ġbuga": 2507,
      "iro": 2508,
      "Ġomo": 2509,
      "ony": 2510,
      "amin": 2511,
      "unan": 2512,
      "ĠjÃ¹": 2513,
      "ĠáĭŃáī£": 2514,
      "ind": 2515,
      "Ġgbogbo": 2516,
      "istan": 2517,
      "Ġáº¸": 2518,
      "Ġabin": 2519,
      "Ġwengi": 2520,
      "ĠlÃ¨": 2521,
      "hariki": 2522,
      "ako": 2523,
      "ĠTar": 2524,
      "mÃ¹": 2525,
      "urin": 2526,
      "Ġparti": 2527,
      "Ni": 2528,
      "áĮĪáĬĵ": 2529,
      "yy": 2530,
      "Ġuku": 2531,
      "áĭŃáĬķ": 2532,
      "ebru": 2533,
      "orld": 2534,
      "ishwa": 2535,
      "kon": 2536,
      "Ġ2013": 2537,
      "kana": 2538,
      "ĠáĬŃáįįáĪį": 2539,
      "Ġáĭ¨áĬĲáīłáĪ¨": 2540,
      "Ġhali": 2541,
      "áĬĴáĭ«": 2542,
      "sib": 2543,
      "ĠGr": 2544,
      "áīĢáīµ": 2545,
      "eni": 2546,
      "áī±áĪĿ": 2547,
      "sc": 2548,
      "áĬĸáĪŃ": 2549,
      "22": 2550,
      "iyan": 2551,
      "uf": 2552,
      "Ġhada": 2553,
      "Ġentre": 2554,
      "ĠnÃŃgbÃł": 2555,
      "Ġáĭ²": 2556,
      "lem": 2557,
      "Ġjina": 2558,
      "Ġzaidi": 2559,
      "ĠBe": 2560,
      "gar": 2561,
      "enda": 2562,
      "ĠSchool": 2563,
      "hich": 2564,
      "ugu": 2565,
      "his": 2566,
      "bÃł": 2567,
      "tu": 2568,
      "mÃŃ": 2569,
      "oth": 2570,
      "Ġmaso": 2571,
      "Ġwh": 2572,
      "ĠáĬłáĬ«áī£áī¢": 2573,
      "Ġalif": 2574,
      "Ġkubwa": 2575,
      "ĠgbÃ©": 2576,
      "áĭ°áĪ¨áĮĪ": 2577,
      "ĠáĪŃ": 2578,
      "Ġdig": 2579,
      "Ġcol": 2580,
      "Ġmp": 2581,
      "Ġnchini": 2582,
      "Ġpos": 2583,
      "áĪĪáī°": 2584,
      "eth": 2585,
      "Ġáįĸ": 2586,
      "ĠáĬ¥áĬķáĮį": 2587,
      "zaji": 2588,
      "áĮ½áĪĲáįį": 2589,
      "amo": 2590,
      "ancin": 2591,
      "Ġakan": 2592,
      "Ġtsakanin": 2593,
      "par": 2594,
      "uti": 2595,
      "agos": 2596,
      "Ġpo": 2597,
      "áĭ¨áīµ": 2598,
      "ĠáĬłáīĨáĮ£áĮłáĪŃ": 2599,
      "Ġsak": 2600,
      "iga": 2601,
      "enya": 2602,
      "ima": 2603,
      "Ġsin": 2604,
      "Ġum": 2605,
      "áĭ®áĬķ": 2606,
      "fanin": 2607,
      "Un": 2608,
      "Ġlili": 2609,
      "á»Į": 2610,
      "olu": 2611,
      "ther": 2612,
      "áĪŃáĭĿ": 2613,
      "ĠáĮįáĭĽáīµ": 2614,
      "ĠhaÉĹ": 2615,
      "ĠáīłáĮį": 2616,
      "ĠOktoba": 2617,
      "áĪ¨áĮį": 2618,
      "Ġmin": 2619,
      "á¹£Ãł": 2620,
      "ukum": 2621,
      "áįĪáĪŃ": 2622,
      "Ġaf": 2623,
      "ĠáĬłáĬķáĭ±": 2624,
      "ela": 2625,
      "Ġtrans": 2626,
      "áĪĿáĬķ": 2627,
      "kÃłn": 2628,
      "Ġrec": 2629,
      "áĪįáīħ": 2630,
      "oi": 2631,
      "áįĢ": 2632,
      "áĬķáĮĭ": 2633,
      "Ġáīłáī¥": 2634,
      "ĠáĬ¥áĭ«": 2635,
      "asu": 2636,
      "Ġwhich": 2637,
      "Ġmi": 2638,
      "áĭµáĪŀ": 2639,
      "ĠAli": 2640,
      "áĮĪáī£": 2641,
      "cy": 2642,
      "ato": 2643,
      "ternational": 2644,
      "áĮİáĪŃ": 2645,
      "ĠAt": 2646,
      "elles": 2647,
      "Ġcour": 2648,
      "Ġáīłáĭ°": 2649,
      "áĮĪáĪĪ": 2650,
      "Ġá»įdun": 2651,
      "ory": 2652,
      "Ġcent": 2653,
      "Ġres": 2654,
      "omi": 2655,
      "Ġyanzu": 2656,
      "ĠáĬ¨áī°áĪŀáī½": 2657,
      "áīĢáĭį": 2658,
      "Ġorin": 2659,
      "old": 2660,
      "afi": 2661,
      "ĠáĬĥáĭŃ": 2662,
      "Ġ30": 2663,
      "ĠáĬłáĪĭ": 2664,
      "ĠáīłáįĬáīµ": 2665,
      "áĭŃáĬĵ": 2666,
      "ĠÃ©c": 2667,
      "Ġrub": 2668,
      "ĠPr": 2669,
      "uv": 2670,
      "ĠáĬ¥áĬķáĭ°áĪļ": 2671,
      "ĠArewa": 2672,
      "ĠáĪ¶": 2673,
      "jerumani": 2674,
      "Ã¬bÃŃ": 2675,
      "ublic": 2676,
      "fÃ©r": 2677,
      "Ġtari": 2678,
      "ĠHe": 2679,
      "tions": 2680,
      "yn": 2681,
      "lÃ¹": 2682,
      "erre": 2683,
      "Ġsama": 2684,
      "ĠáĪĽáĪŃ": 2685,
      "áīµáĪŃ": 2686,
      "áĪĭáĪī": 2687,
      "áīħáīµ": 2688,
      "áĬĺ": 2689,
      "ĠBur": 2690,
      "ĠCon": 2691,
      "tain": 2692,
      "ranÃ§ais": 2693,
      "Ã¹bÃ¡": 2694,
      "ĠáĭŃáī½": 2695,
      "Ġpart": 2696,
      "unci": 2697,
      "ĠNaij": 2698,
      "áī¥áĪµ": 2699,
      "lex": 2700,
      "wi": 2701,
      "Ġlangu": 2702,
      "áĪĽáĬĸ": 2703,
      "áĮ£áĪĿ": 2704,
      "ĠfÃŃ": 2705,
      "Ġhiv": 2706,
      "ĠFebru": 2707,
      "Ãªme": 2708,
      "ĠáĪģáĪĪáīµ": 2709,
      "ĠAfrica": 2710,
      "ett": 2711,
      "ĠAustr": 2712,
      "ĠKas": 2713,
      "igh": 2714,
      "ĠáĭŃáī³": 2715,
      "endele": 2716,
      "áĪĳ": 2717,
      "áĪĪáĭ«áĭ©": 2718,
      "ĠBar": 2719,
      "Ġrep": 2720,
      "aifa": 2721,
      "adar": 2722,
      "áĪı": 2723,
      "ĠFar": 2724,
      "áĬ¬": 2725,
      "áĭĸ": 2726,
      "dá»į": 2727,
      "Ã¬nrin": 2728,
      "Ġáī´": 2729,
      "áĬŃáĪµ": 2730,
      "Ġkm": 2731,
      "Ġbo": 2732,
      "ĠNaijiria": 2733,
      "ĠX": 2734,
      "ĠMaj": 2735,
      "Ġmal": 2736,
      "ĠDuniya": 2737,
      "ĠáĪ¸": 2738,
      "Mwaka": 2739,
      "orth": 2740,
      "Ġmbali": 2741,
      "mma": 2742,
      "áĪĪáĬķ": 2743,
      "ĠáĪĿáĬķáĮ": 2744,
      "wu": 2745,
      "ĠáĭĺáĪĺáĬĲ": 2746,
      "Ġkal": 2747,
      "ilaya": 2748,
      "Ġáĭ©": 2749,
      "ĠáĬłáīłáī£": 2750,
      "tÃłn": 2751,
      "23": 2752,
      "Ġchin": 2753,
      "áĪ«áīħ": 2754,
      "ante": 2755,
      "tiv": 2756,
      "ĠKwa": 2757,
      "ĠáĪĮáĪĭ": 2758,
      "uko": 2759,
      "Ø§": 2760,
      "Ġ25": 2761,
      "Ãºká»į": 2762,
      "Ġtarehe": 2763,
      "ĠDa": 2764,
      "Ġsami": 2765,
      "ĠlÃ©": 2766,
      "ally": 2767,
      "Ġwacce": 2768,
      "Ġsaboda": 2769,
      "adin": 2770,
      "aren": 2771,
      "abe": 2772,
      "áĪĪáĭŃ": 2773,
      "Ġmaka": 2774,
      "áĪ°áĪ«": 2775,
      "áĪįáĮį": 2776,
      "áī£áĭŃ": 2777,
      "ision": 2778,
      "mÃ¬": 2779,
      "³áį": 2780,
      "Ġsamar": 2781,
      "ĠJe": 2782,
      "áĪĺáīµ": 2783,
      "eta": 2784,
      "pinle": 2785,
      "iláº¹": 2786,
      "áĪĿáĪŃ": 2787,
      "ĠáĮ¦áĪŃáĬĲáīµ": 2788,
      "own": 2789,
      "Kati": 2790,
      "áĪ®áįĵ": 2791,
      "Ġguda": 2792,
      "Ġsec": 2793,
      "Ã©c": 2794,
      "Ġkup": 2795,
      "áĪªáĬ«áĭĬ": 2796,
      "aut": 2797,
      "fer": 2798,
      "Ġáĭ¨áĭĵ": 2799,
      "ĠáĪĥáĭŃ": 2800,
      "áĪĺáĪ¨": 2801,
      "ĠáĭĵáĪĺáī³áīµ": 2802,
      "wani": 2803,
      "áĪŃáĪĺáĬķ": 2804,
      "owo": 2805,
      "ambar": 2806,
      "Ġche": 2807,
      "hali": 2808,
      "Ġáĭ¨áĪĺáĮĢáĪĺáĪªáĭ«": 2809,
      "Ã©t": 2810,
      "ĠáĪµáĪ«": 2811,
      "Ġir": 2812,
      "ingine": 2813,
      "Ġji": 2814,
      "Ġju": 2815,
      "Ġnuna": 2816,
      "yen": 2817,
      "ĠDes": 2818,
      "Ġsau": 2819,
      "Ġáĭ¨áĭį": 2820,
      "Ġwato": 2821,
      "ĠáĬłáĪ¨": 2822,
      "Ġ&": 2823,
      "ĠáĪµáĪŃ": 2824,
      "Ġmara": 2825,
      "ĠWar": 2826,
      "Ġjuu": 2827,
      "Ġwakati": 2828,
      "áĪĲáĬķáĪµ": 2829,
      "ĠáĬ¨áĪļ": 2830,
      "ĠáĬłáĭŃáĬĲáīµ": 2831,
      "áĮłáĪ¨": 2832,
      "Ãī": 2833,
      "pos": 2834,
      "ĠáĪ²áĭ«": 2835,
      "cent": 2836,
      "áĮłáīĥ": 2837,
      "atta": 2838,
      "áĪįáĪĿ": 2839,
      "ĠAng": 2840,
      "áī·áĪį": 2841,
      "Ġkafin": 2842,
      "ero": 2843,
      "ĠKano": 2844,
      "ĠMal": 2845,
      "ĠRD": 2846,
      "anni": 2847,
      "ĠwÃŃ": 2848,
      "áīłáī¥": 2849,
      "áĪįáĭµ": 2850,
      "ĠáĭĽ": 2851,
      "joba": 2852,
      "áĪŃáĭµ": 2853,
      "itwa": 2854,
      "ĠfranÃ§ais": 2855,
      "Ġsar": 2856,
      "haribi": 2857,
      "ich": 2858,
      "áĪĭáĪĿ": 2859,
      "Ar": 2860,
      "kÃ¹n": 2861,
      "ĠprÃ©s": 2862,
      "isho": 2863,
      "yp": 2864,
      "Ġpa": 2865,
      "ĠKing": 2866,
      "áī£áī¸áĭį": 2867,
      "ĠnÃŃpa": 2868,
      "ĠdÃ©c": 2869,
      "ĠÃī": 2870,
      "ĠáĬ¨áįįáī°áĬĽ": 2871,
      "Ġáį²áį±áį»áį": 2872,
      "áĭ°áĪį": 2873,
      "ĠáĬ¨áĭļáĭ«": 2874,
      "kÃ¨": 2875,
      "adan": 2876,
      "ĠLagos": 2877,
      "rÃ¨": 2878,
      "Ġ2009": 2879,
      "ĠYorÃ¹bÃ¡": 2880,
      "áĪ¬áīµ": 2881,
      "áĮįáĪ«": 2882,
      "ĠÃłrÃ¹n": 2883,
      "ĠáĬ¥áĪŃ": 2884,
      "ĠáĬłáĭ²áĪµ": 2885,
      "áĬĲáĮĪáĪŃ": 2886,
      "25": 2887,
      "ĠáĪłáĪ": 2888,
      "ences": 2889,
      "ĠMin": 2890,
      "Ġ24": 2891,
      "Ġgame": 2892,
      "ĠTs": 2893,
      "áįįáĪ«": 2894,
      "ĠItalia": 2895,
      "Ġhiyo": 2896,
      "Ġ21": 2897,
      "iyyar": 2898,
      "ĠáĬ³áĪµ": 2899,
      "ĠáĪĽáĪµ": 2900,
      "ĠáĬĲáĮĪáĪ¥áī³áīµ": 2901,
      "Ġdomin": 2902,
      "áī£áĪŃ": 2903,
      "ĠáĭĪáĪŃ": 2904,
      "ikali": 2905,
      "áĭĮ": 2906,
      "ĠPe": 2907,
      "ĠáĪĮáĪİáī½": 2908,
      "Ġmulkin": 2909,
      "Ġfito": 2910,
      "ĠrÃŃ": 2911,
      "áĮĢáĪĺáĪŃáĭ«": 2912,
      "undi": 2913,
      "Ġkul": 2914,
      "Ġtsa": 2915,
      "Ġasili": 2916,
      "Ġmakarantar": 2917,
      "ubli": 2918,
      "Ġaussi": 2919,
      "áĬĲáĭį": 2920,
      "ages": 2921,
      "ĠÆĻasa": 2922,
      "ron": 2923,
      "Ġcar": 2924,
      "Ã¨me": 2925,
      "ĠMt": 2926,
      "ĠáĬ¥áĮħ": 2927,
      "ĠáĪĺáĮł": 2928,
      "ĠáĬ©": 2929,
      "áĭİáī½áĬķ": 2930,
      "ĠMo": 2931,
      "Ġyad": 2932,
      "Ġ189": 2933,
      "Ġ2020": 2934,
      "ĠáĭŃáī£áĪĭáĪį": 2935,
      "ĠáĭĪáīħáīµ": 2936,
      "usini": 2937,
      "áĭĵáīµ": 2938,
      "pÃ²": 2939,
      "okana": 2940,
      "zwa": 2941,
      "ĠUr": 2942,
      "ĠáĪįáĭ©": 2943,
      "ĠjÃ¡": 2944,
      "Ġtu": 2945,
      "kar": 2946,
      "aim": 2947,
      "imbo": 2948,
      "ĠUjerumani": 2949,
      "Ġtsoh": 2950,
      "ĠáĬłáįį": 2951,
      "ĠáĪĿáĭµáĪŃ": 2952,
      "ĠKenya": 2953,
      "áīłáĪĭ": 2954,
      "áĭ°áĭį": 2955,
      "ĠáĪĺáĪ°": 2956,
      "®áī½": 2957,
      "omo": 2958,
      "rod": 2959,
      "ĠUf": 2960,
      "ĠMusul": 2961,
      "Ġsamun": 2962,
      "áįĪáĪ¨áĬķ": 2963,
      "Ġodun": 2964,
      "ĠWak": 2965,
      "Ġpoli": 2966,
      "Bayan": 2967,
      "ger": 2968,
      "anza": 2969,
      "ĠUingereza": 2970,
      "ps": 2971,
      "Ġtake": 2972,
      "ach": 2973,
      "ĠFran": 2974,
      "kokin": 2975,
      "aniya": 2976,
      "ui": 2977,
      "Kwa": 2978,
      "ident": 2979,
      "Ġfam": 2980,
      "ĠÃ©tÃ©": 2981,
      "áī¶áĪµ": 2982,
      "áī³áĭŃ": 2983,
      "ĠáĭķáĪĪáīµ": 2984,
      "ĠÃ©g": 2985,
      "Ġ23": 2986,
      "áĬ¨áĭļáĪħ": 2987,
      "thi": 2988,
      "Ġ2008": 2989,
      "áĬ¥áĪµ": 2990,
      "áī²áĬ«": 2991,
      "Ġsous": 2992,
      "ĠTe": 2993,
      "áįįáīµ": 2994,
      "Ġabo": 2995,
      "ĠbÃŃi": 2996,
      "ĠáĭĻ": 2997,
      "Ġáĭľ": 2998,
      "áī£áĪĪ": 2999,
      "áĭİáĪµ": 3000,
      "gas": 3001,
      "á¹£á»į": 3002,
      "Ġyayin": 3003,
      "rÃ©s": 3004,
      "áįĭáīµ": 3005,
      "Ġilikuwa": 3006,
      "áĪµáĪĪ": 3007,
      "ley": 3008,
      "Ùħ": 3009,
      "áĮ¨áĪĽáĪª": 3010,
      "atoli": 3011,
      "ĠMag": 3012,
      "ative": 3013,
      "ĠAk": 3014,
      "áįĪáĭį": 3015,
      "mer": 3016,
      "onom": 3017,
      "ĠKis": 3018,
      "Ġ2005": 3019,
      "Ġupande": 3020,
      "Ġ188": 3021,
      "Yan": 3022,
      "ĠÃ¬tá»į": 3023,
      "Ġvi": 3024,
      "áĮ¢": 3025,
      "Ġwenye": 3026,
      "Ġnombre": 3027,
      "Ġgar": 3028,
      "ayya": 3029,
      "ĠáĬłáĭµáĪŃ": 3030,
      "atic": 3031,
      "ros": 3032,
      "ĠáĪĽáĭķ": 3033,
      "ĠAmeric": 3034,
      "uki": 3035,
      "Ġwasa": 3036,
      "ĠmÃº": 3037,
      "Ġmod": 3038,
      "áĪĽáīµ": 3039,
      "ici": 3040,
      "nÃł": 3041,
      "ĠkÃº": 3042,
      "ĠáīłáĪŃ": 3043,
      "áĪĭáīħ": 3044,
      "gbÃ²": 3045,
      "ĠÃ¬já»įba": 3046,
      "Ġwajen": 3047,
      "ĠpÃ¨": 3048,
      "dÃŃn": 3049,
      "ĠgÃ©n": 3050,
      "Ġáĭ«áĪµ": 3051,
      "Ġnyingi": 3052,
      "áĬ¨áĪĪ": 3053,
      "ĠÃ¨tÃ²": 3054,
      "rÃ¬": 3055,
      "ĠÃĵ": 3056,
      "Ġilu": 3057,
      "Ġwere": 3058,
      "áĪ¹": 3059,
      "ĠUs": 3060,
      "Ġkoma": 3061,
      "áĭ²áĭ«": 3062,
      "Ġfait": 3063,
      "áĪªáĭİáī½": 3064,
      "ģáĬķ": 3065,
      "ĠSar": 3066,
      "oloni": 3067,
      "áĪĭáĭĬ": 3068,
      "Ġyali": 3069,
      "áī«": 3070,
      "ĠChin": 3071,
      "Ġbaada": 3072,
      "Ġáī¥áĪİ": 3073,
      "ĠáīĥáĪį": 3074,
      "koa": 3075,
      "Ġkil": 3076,
      "ĠáĬłáĪµáī°áĭ³": 3077,
      "erv": 3078,
      "ĠKusini": 3079,
      "áĪĭáĬŃ": 3080,
      "áīłáĪį": 3081,
      "gan": 3082,
      "áĬ¢áīµáĭ®áĮµáĭ«": 3083,
      "Ġprin": 3084,
      "áīłáĭļáĪħ": 3085,
      "áĪ½áĬķ": 3086,
      "ople": 3087,
      "ananan": 3088,
      "áĪĬáĭ«": 3089,
      "ĠáīµáĪĿáĪħáĪŃáīµ": 3090,
      "mbali": 3091,
      "áī¨": 3092,
      "Ġáī£áĪħ": 3093,
      "sáº¹": 3094,
      "ound": 3095,
      "Ġkarne": 3096,
      "Ġbayyana": 3097,
      "áīĢáĪĺ": 3098,
      "Ġhas": 3099,
      "ĠCo": 3100,
      "Ġáį²áį": 3101,
      "Ġpop": 3102,
      "ĠáĬ¨áĬĲ": 3103,
      "orin": 3104,
      "ĠayÃ©": 3105,
      "áĭ®áī½": 3106,
      "áĪ«áĬķ": 3107,
      "ilu": 3108,
      "Ġáī°áĪ«": 3109,
      "ĠáĬłáĪ«": 3110,
      "wÃł": 3111,
      "Ġ2003": 3112,
      "áįĮ": 3113,
      "Ġmanyan": 3114,
      "Ġáĭ¨áī³": 3115,
      "ature": 3116,
      "unia": 3117,
      "ĠBel": 3118,
      "áīĢáĪŃ": 3119,
      "Ġtara": 3120,
      "ĠFrance": 3121,
      "ĠáĬ¨áĭļáĪħ": 3122,
      "Ġcette": 3123,
      "áī³áĭį": 3124,
      "áĭŃáĭĪáīµ": 3125,
      "Ġjam": 3126,
      "Ã¨res": 3127,
      "áĭŃáīµ": 3128,
      "ĠáĪĿáĬŃáĬķáĭ«áīµ": 3129,
      "Ġwadanda": 3130,
      "ms": 3131,
      "edia": 3132,
      "Ġáĭ®áĪĲáĬķáĪµ": 3133,
      "ĠáĪĦ": 3134,
      "Ġye": 3135,
      "Ġchini": 3136,
      "ten": 3137,
      "Ġkawa": 3138,
      "áĪ³áĪį": 3139,
      "illiam": 3140,
      "Ġgina": 3141,
      "ĠSan": 3142,
      "imo": 3143,
      "Ġyadda": 3144,
      "han": 3145,
      "pen": 3146,
      "II": 3147,
      "Ġaká»į": 3148,
      "Ġáº¹láº¹": 3149,
      "ĠÉĹaya": 3150,
      "ĠáĬ¨áĬłáĪ": 3151,
      "Ġele": 3152,
      "oll": 3153,
      "ĠYork": 3154,
      "ĠáĭŃáĮĪáĬĽáĪį": 3155,
      "mÃ¬n": 3156,
      "ĠAug": 3157,
      "Ġras": 3158,
      "áĭ°áĪĿ": 3159,
      "áīłáĪ«": 3160,
      "áĮĬáĭľ": 3161,
      "ĠáīłáĭĪ": 3162,
      "ĠKam": 3163,
      "ĠáīłáĮ£áĪĿ": 3164,
      "Ġpays": 3165,
      "emia": 3166,
      "ĠáĭŃáī³áĭĪ": 3167,
      "ĠáĬłáĪĽ": 3168,
      "Ġuti": 3169,
      "hm": 3170,
      "Ġkud": 3171,
      "Ġáī¥áĪŃ": 3172,
      "imb": 3173,
      "Ġgu": 3174,
      "ĠTr": 3175,
      "Ã³Ã²": 3176,
      "Ġinter": 3177,
      "ukar": 3178,
      "24": 3179,
      "As": 3180,
      "ĠNa": 3181,
      "Ã©d": 3182,
      "ĠkÃ©k": 3183,
      "194": 3184,
      "áīłáī°": 3185,
      "aient": 3186,
      "áĬĸáĪµ": 3187,
      "áĪ³áĭĬ": 3188,
      "He": 3189,
      "Ġmb": 3190,
      "Ġpers": 3191,
      "ĠViungo": 3192,
      "Ġ27": 3193,
      "aribu": 3194,
      "Ġkuna": 3195,
      "Ġgro": 3196,
      "ĠÃ¬pÃŃnláº¹": 3197,
      "ologie": 3198,
      "ĠáĬ£": 3199,
      "Ġmbalimbali": 3200,
      "Ġont": 3201,
      "ĠComm": 3202,
      "áĪ«áĪ±": 3203,
      "sÃłn": 3204,
      "Ġzin": 3205,
      "Ġsp": 3206,
      "Ġconst": 3207,
      "eneo": 3208,
      "Ġakwai": 3209,
      "ology": 3210,
      "Ġ28": 3211,
      "ĠáĪ¥áĪ«": 3212,
      "Ġtas": 3213,
      "áĮĪáĪ©": 3214,
      "aduna": 3215,
      "eme": 3216,
      "ĠAnn": 3217,
      "ĠKáº¹": 3218,
      "Ġ2000": 3219,
      "áĪ³áī¥": 3220,
      "Ġáį¡áį¡": 3221,
      "ĠkÃ©kerÃ©": 3222,
      "páº¹": 3223,
      "áĬķáī²": 3224,
      "ĠBa": 3225,
      "Ġ100": 3226,
      "ente": 3227,
      "Ġmwandishi": 3228,
      "aid": 3229,
      "áĭĪáĭ°": 3230,
      "áĮĭáĪį": 3231,
      "Ġdang": 3232,
      "Ġ22": 3233,
      "ĠJos": 3234,
      "Ġtab": 3235,
      "ĠÃ¬wÃ©": 3236,
      "ĠEng": 3237,
      "umba": 3238,
      "Ġdai": 3239,
      "lege": 3240,
      "áĭĲ": 3241,
      "ĠBan": 3242,
      "unge": 3243,
      "Ġmad": 3244,
      "oman": 3245,
      "áĪ«áĪī": 3246,
      "Ġdama": 3247,
      "uda": 3248,
      "ĠáĬłáīĢ": 3249,
      "áī¥áīµ": 3250,
      "195": 3251,
      "ĠShe": 3252,
      "ĠTa": 3253,
      "Ġgudanar": 3254,
      "ĠáĪ±": 3255,
      "Ġuh": 3256,
      "fan": 3257,
      "Ġgidan": 3258,
      "ĠDar": 3259,
      "ĠDan": 3260,
      "ĠáĬłáĪľáĪªáĬ«": 3261,
      "kali": 3262,
      "ĠáĬłáīµ": 3263,
      "áĮĪáĬĺáĭį": 3264,
      "dÃº": 3265,
      "Ġáĭ¨áĪħ": 3266,
      "ĠAnd": 3267,
      "ondon": 3268,
      "Ġáĭ°áĪ¨áĮĥ": 3269,
      "ĠáĪĺáĮ½áĪĲáįį": 3270,
      "áĮ£áīµ": 3271,
      "ĠáĪª": 3272,
      "urope": 3273,
      "áĬĸáĪ©": 3274,
      "ĠáĭĪáĬķáĭµ": 3275,
      "ĠáĪĺáĪłáĪ¨": 3276,
      "iye": 3277,
      "yoyin": 3278,
      "Ġáĭ¶": 3279,
      "áĪįáĪµ": 3280,
      "ĠUnited": 3281,
      "ĠTi": 3282,
      "Ġdont": 3283,
      "Ġ0": 3284,
      "ĠGo": 3285,
      "áĪįáĮ£áĬķ": 3286,
      "60": 3287,
      "umia": 3288,
      "umo": 3289,
      "umu": 3290,
      "ĠáĪĪáĬł": 3291,
      "Ġsiyasa": 3292,
      "ines": 3293,
      "Ġalso": 3294,
      "ĠáĮ¥áīħáĪĿ": 3295,
      "Ġall": 3296,
      "san": 3297,
      "Ç¹": 3298,
      "Ġkira": 3299,
      "Daga": 3300,
      "Ġáī½": 3301,
      "Ġjag": 3302,
      "amman": 3303,
      "ango": 3304,
      "ĠáīĭáĬķáīĭáĭİáī½": 3305,
      "áīĥáĪµ": 3306,
      "ĠKe": 3307,
      "Ġáĭ¨áĬ¤": 3308,
      "ĠdÃ©part": 3309,
      "ÙĬ": 3310,
      "Ġ2002": 3311,
      "Ġsanya": 3312,
      "rodha": 3313,
      "ĠáĬłáĭ«": 3314,
      "ĠáĬ¥áĮįáĪŃ": 3315,
      "Ġmutum": 3316,
      "amma": 3317,
      "ĠAc": 3318,
      "áĭĪáĪ°": 3319,
      "ĠáĪĽáĬķ": 3320,
      "Ġime": 3321,
      "laya": 3322,
      "Ġvers": 3323,
      "Ġmoja": 3324,
      "Ġkwamba": 3325,
      "eral": 3326,
      "áĬĻ": 3327,
      "Ġzina": 3328,
      "áĪĬáĬŃ": 3329,
      "ĠáĪ¥áĬĲ": 3330,
      "áįĲ": 3331,
      "áĪĽáĬķ": 3332,
      "áĬĵáī¸áĭį": 3333,
      "ĠáĪĿáĪµ": 3334,
      "ĠAllah": 3335,
      "Katika": 3336,
      "ury": 3337,
      "áĪ¨áĪĿ": 3338,
      "gÃ©": 3339,
      "Ġáī°áī¥áĪİ": 3340,
      "Ġfáº¹": 3341,
      "wn": 3342,
      "áĪŃáĪµáī¶áĪµ": 3343,
      "Ġáīłáī³": 3344,
      "28": 3345,
      "áĬ¨áīµ": 3346,
      "âĢİ": 3347,
      "Ġgabatar": 3348,
      "áĪĿáĬĲáīµ": 3349,
      "ĠáĭĪáĬķáĭĿ": 3350,
      "ĠOs": 3351,
      "stáº¹": 3352,
      "ofin": 3353,
      "ular": 3354,
      "arÃŃ": 3355,
      "Ã¬dÃ¬": 3356,
      "ight": 3357,
      "wood": 3358,
      "ĠkÃ³pa": 3359,
      "ĠáĭĿáĪŃáĭĿ": 3360,
      "ĠCar": 3361,
      "Ġ1960": 3362,
      "Ġmwa": 3363,
      "ĠChar": 3364,
      "bá»į": 3365,
      "áĪµáĬķ": 3366,
      "áĭĭáīĤ": 3367,
      "ĠáĮŃ": 3368,
      "ĠEd": 3369,
      "ĠáĪįáĮĨáī½": 3370,
      "antu": 3371,
      "tun": 3372,
      "kÃº": 3373,
      "ĠMic": 3374,
      "rÃ³": 3375,
      "ĠAbd": 3376,
      "Ġsababu": 3377,
      "áĬĵáĬķ": 3378,
      "Ġtaka": 3379,
      "ĠAbu": 3380,
      "nÃŃ": 3381,
      "Ġkamm": 3382,
      "ĠMad": 3383,
      "Ġayy": 3384,
      "ĠGab": 3385,
      "ĠáĬłáįĪ": 3386,
      "Ġ1999": 3387,
      "Ġbut": 3388,
      "urg": 3389,
      "lor": 3390,
      "Ġkad": 3391,
      "ĠáĮįáī¥": 3392,
      "Ġkik": 3393,
      "Ma": 3394,
      "ilo": 3395,
      "ĠÃģ": 3396,
      "itin": 3397,
      "Ġ2004": 3398,
      "Ġmto": 3399,
      "áīŃ": 3400,
      "iru": 3401,
      "Ġcer": 3402,
      "áĭĬáīµ": 3403,
      "Ġpla": 3404,
      "áĪĺáĭį": 3405,
      "tÃ³": 3406,
      "áĭĭáĬķ": 3407,
      "áĪĪáī²áĬ«": 3408,
      "27": 3409,
      "Ġmutu": 3410,
      "pend": 3411,
      "ĠAfrican": 3412,
      "áĪĭáĭį": 3413,
      "Ġmahaif": 3414,
      "kÃ¡": 3415,
      "ĠGre": 3416,
      "Ġáī¥áĪĶ": 3417,
      "Ġ29": 3418,
      "Ġpad": 3419,
      "oire": 3420,
      "oso": 3421,
      "ĠlÃ¡ra": 3422,
      "ĠÃ¡stáº¹": 3423,
      "Ġáĭ¨áĬ¢": 3424,
      "áįĪáĪį": 3425,
      "29": 3426,
      "áĮłáīħ": 3427,
      "áĪŁ": 3428,
      "fiya": 3429,
      "Ġkusini": 3430,
      "ĠáĪ®": 3431,
      "vers": 3432,
      "áĭĪáĪĪ": 3433,
      "chn": 3434,
      "Ġ1990": 3435,
      "wala": 3436,
      "Ã©ri": 3437,
      "ĠUlaya": 3438,
      "ĠáĮ¥áĬĵáīµ": 3439,
      "gn": 3440,
      "ÙĨ": 3441,
      "ĠpÃł": 3442,
      "áĭĪáī½": 3443,
      "ibiyar": 3444,
      "uwanci": 3445,
      "Ġkammala": 3446,
      "ĠáĮ¥áĬķ": 3447,
      "ĠrÃ©gion": 3448,
      "prÃ¨s": 3449,
      "Ġyayi": 3450,
      "Ġsoci": 3451,
      "Ġkilom": 3452,
      "bÃ¹n": 3453,
      "ĠáĪĺáĬķáĮĪáĭµ": 3454,
      "Ġsyst": 3455,
      "ĠáĪĺáĪŃ": 3456,
      "Ġ26": 3457,
      "ive": 3458,
      "Ġwaje": 3459,
      "ĠáĪīáīĥáĪµ": 3460,
      "Ġtemp": 3461,
      "áĪµáįĭ": 3462,
      "anzia": 3463,
      "Ġjirgin": 3464,
      "Ã¡ra": 3465,
      "ĠáĪĪáĪĿ": 3466,
      "osti": 3467,
      "Ġpeut": 3468,
      "ĠMuhammad": 3469,
      "Af": 3470,
      "ĠdÃ©partement": 3471,
      "Ġ*": 3472,
      "aro": 3473,
      "ĠLegas": 3474,
      "Ġbirni": 3475,
      "Ġhukumar": 3476,
      "Ġyamma": 3477,
      "Ġmab": 3478,
      "áĬĶáī³": 3479,
      "ĠEb": 3480,
      "Wá»į": 3481,
      "Ġhann": 3482,
      "Ġsc": 3483,
      "áĭĺáĮĭ": 3484,
      "ĠKaduna": 3485,
      "ĠChi": 3486,
      "Ġáī°áĪ°": 3487,
      "ĠHausa": 3488,
      "Ġgirma": 3489,
      "áĭ«áĪį": 3490,
      "...": 3491,
      "áĮłáĭį": 3492,
      "Ġáĭ¨áĬłáĪľáĪªáĬ«": 3493,
      "Ġdaban": 3494,
      "áĭķáĪ«áī¥": 3495,
      "Ġhivyo": 3496,
      "pÃ¡": 3497,
      "Ġlar": 3498,
      "apo": 3499,
      "atoliki": 3500,
      "91": 3501,
      "Ġáĭ¨áĪķ": 3502,
      "áĪ¾": 3503,
      "Ġfilamu": 3504,
      "Ġáīłáĭ¨": 3505,
      "ĠKik": 3506,
      "Ġkwaikwa": 3507,
      "áįİáī½": 3508,
      "lim": 3509,
      "esi": 3510,
      "áĪ®áĪµ": 3511,
      "BC": 3512,
      "ĠÃĪkÃ³": 3513,
      "Ġcor": 3514,
      "Ġáīłáĭĵ": 3515,
      "Ġsake": 3516,
      "ĠáīħáĪŃ": 3517,
      "26": 3518,
      "Ġdur": 3519,
      "Ġfirst": 3520,
      "ĠwaÉĹ": 3521,
      "Ġbas": 3522,
      "ĠLondon": 3523,
      "Ġjar": 3524,
      "ĠWorld": 3525,
      "Ġsuke": 3526,
      "ĠáĬ¥áĬķáĮĤ": 3527,
      "Ġdir": 3528,
      "igi": 3529,
      "nu": 3530,
      "Ġcap": 3531,
      "áĪİáīµ": 3532,
      "ĠáĮīáĭ³": 3533,
      "ĠKim": 3534,
      "Ġirin": 3535,
      "tes": 3536,
      "Ġáĭ¨áĪļáĪĪáĭį": 3537,
      "Ġexp": 3538,
      "alia": 3539,
      "Ġgida": 3540,
      "ĠEl": 3541,
      "upe": 3542,
      "Ġbak": 3543,
      "ĠáĬ¨áĬ¥": 3544,
      "ĠOb": 3545,
      "atur": 3546,
      "áī°áĬķ": 3547,
      "ĠPart": 3548,
      "Ġtabi": 3549,
      "ĠmÃªme": 3550,
      "sp": 3551,
      "atik": 3552,
      "ĠáĭŃáīĢ": 3553,
      "ĠáĬķáĮį": 3554,
      "atsina": 3555,
      "ĠJamh": 3556,
      "endelea": 3557,
      "ĠáĬŃáĪį": 3558,
      "Ġáĭ¨áīµ": 3559,
      "ĠáĭĪáĭŃ": 3560,
      "Ġleur": 3561,
      "Ġkudu": 3562,
      "ĠUm": 3563,
      "Ġits": 3564,
      "ographi": 3565,
      "ĠáįķáĪ¬": 3566,
      "ĠáĬ¥áĬķáĭ²áĪħ": 3567,
      "Ã¡náº¹": 3568,
      "ĠState": 3569,
      "ĠáĮĮ": 3570,
      "ges": 3571,
      "ĠWas": 3572,
      "ĠáĪĺáĮ¨áĪ¨áĪ»": 3573,
      "Ġáī³áĪªáĬ«áĭĬ": 3574,
      "onde": 3575,
      "ĠáīµáĬķ": 3576,
      "ĠáĪģáĪĪ": 3577,
      "lig": 3578,
      "ĠáĪķáĭĿáī¥": 3579,
      "Ġipa": 3580,
      "ĠPl": 3581,
      "ulo": 3582,
      "Ġkif": 3583,
      "hel": 3584,
      "Ġfannin": 3585,
      "áī¥áĪ¨áīµ": 3586,
      "áĬĲáī±": 3587,
      "áīłáĪ©áīµ": 3588,
      "Wali": 3589,
      "uss": 3590,
      "40": 3591,
      "ĠWest": 3592,
      "ĠInternational": 3593,
      "Ġyao": 3594,
      "Ġos": 3595,
      "imu": 3596,
      "ĠáīłáĬĲ": 3597,
      "áĬŃáĪī": 3598,
      "ife": 3599,
      "ĠjÃ¹lá»į": 3600,
      "ater": 3601,
      "áĪ¨áĪ°": 3602,
      "she": 3603,
      "ijin": 3604,
      "ĠÃ¬dÃŃ": 3605,
      "Ġkili": 3606,
      "áĪŃáī²": 3607,
      "alle": 3608,
      "ĠCl": 3609,
      "arabu": 3610,
      "ĠgbÃł": 3611,
      "ogun": 3612,
      "ĠáĭĿáĪŃáĭĿáĪŃ": 3613,
      "ansi": 3614,
      "Ġmis": 3615,
      "ouver": 3616,
      "80": 3617,
      ")áį£": 3618,
      "70": 3619,
      "Ad": 3620,
      "ayen": 3621,
      "ĠBrit": 3622,
      "Ġtal": 3623,
      "ange": 3624,
      "anzi": 3625,
      "Ġbiyar": 3626,
      "weza": 3627,
      "soci": 3628,
      "Ã¯": 3629,
      "ĠParis": 3630,
      "áĭįáĪ®áįĵ": 3631,
      "ĠCollege": 3632,
      "ĠIpinle": 3633,
      "ĠMk": 3634,
      "ĠBah": 3635,
      "ĠsÃ©": 3636,
      "ĠNational": 3637,
      "áĪĺáĭµ": 3638,
      "cess": 3639,
      "áĬ¨áī°áĪĽ": 3640,
      "ĠBabban": 3641,
      "lie": 3642,
      "áī°áĭĭáĪį": 3643,
      "Ġainsi": 3644,
      "áĪħáĬķ": 3645,
      "ĠÃª": 3646,
      "Ġret": 3647,
      "anc": 3648,
      "ĠáīłáĬ©": 3649,
      "Ġutilis": 3650,
      "lÃŃ": 3651,
      "¶áį": 3652,
      "ĠUfaransa": 3653,
      "áĪĺáĪį": 3654,
      "asara": 3655,
      "Ġáįĭ": 3656,
      "oto": 3657,
      "ĠFil": 3658,
      "ĠYar": 3659,
      "ĠÃ¬gbÃłjÃ¡": 3660,
      "hed": 3661,
      "ĠÃ¬má»į": 3662,
      "Ġarewa": 3663,
      "ĠáĮĬ": 3664,
      "vu": 3665,
      "ild": 3666,
      "ĠBab": 3667,
      "ĠplÃ¡náº¹": 3668,
      "ĠcrÃ©": 3669,
      "uku": 3670,
      "Ġáī»": 3671,
      "áīłáĬł": 3672,
      "Ġkaramar": 3673,
      "Ġmutanen": 3674,
      "illa": 3675,
      "áĪ«áĪ²": 3676,
      "Ġwo": 3677,
      "ĠDis": 3678,
      "ĠáĬłáĪĺáīµ": 3679,
      "áī¤áī°": 3680,
      "rÃ¬n": 3681,
      "esa": 3682,
      "ĠHis": 3683,
      "Ġlong": 3684,
      "Ġáĭ¨áĬ¥áĪµ": 3685,
      "Ġsub": 3686,
      "ado": 3687,
      "riv": 3688,
      "áī»áī¸áĭį": 3689,
      "ĠáĭŃáī½áĪĭáĪį": 3690,
      "ĠAugust": 3691,
      "erb": 3692,
      "ĠáĮįáĭµáĪĿ": 3693,
      "Ġcommun": 3694,
      "Ġgrand": 3695,
      "áĬĲáĪ³": 3696,
      "ĠáĪģáĬĶáī³": 3697,
      "ĠSouth": 3698,
      "gÃ¹n": 3699,
      "yd": 3700,
      "áĭ«áĭĬ": 3701,
      "Ġyenye": 3702,
      "ayyar": 3703,
      "ashara": 3704,
      "met": 3705,
      "wara": 3706,
      "wahili": 3707,
      "Ġáī±": 3708,
      "iriki": 3709,
      "Ġbai": 3710,
      "ĠPet": 3711,
      "ork": 3712,
      "áĪģáĬķ": 3713,
      "fici": 3714,
      "ies": 3715,
      "ulation": 3716,
      "ĠáįĪáĪŃ": 3717,
      "Ab": 3718,
      "ĠMan": 3719,
      "Ġnaa": 3720,
      "ĠáĪĺáĪįáĬŃ": 3721,
      "ode": 3722,
      "áĪ¶áī½": 3723,
      "ĠJanuari": 3724,
      "áĪĪáĪĽ": 3725,
      "ĠPort": 3726,
      "áĭ¨áĪĿ": 3727,
      "áĮĦ": 3728,
      "áĭļáīĥ": 3729,
      "unin": 3730,
      "Ġambayo": 3731,
      "193": 3732,
      "Ġruwa": 3733,
      "ĠáĬĲáĮ»": 3734,
      "fuat": 3735,
      "ĠáĪļáĬĴ": 3736,
      "ĠWilliam": 3737,
      "fÃł": 3738,
      "ÃĴ": 3739,
      "áĮįáĬķ": 3740,
      "ours": 3741,
      "áī´áĭİáĪµ": 3742,
      "ĠCent": 3743,
      "áĭĪáĮ£": 3744,
      "Ġvita": 3745,
      "tait": 3746,
      "Ġsauran": 3747,
      "ĠShugaban": 3748,
      "SB": 3749,
      "jini": 3750,
      "red": 3751,
      "iter": 3752,
      "Ġ1980": 3753,
      "Ġag": 3754,
      "Ġmusul": 3755,
      "ĠáĭŃáĪĺáĪµ": 3756,
      "Ġmita": 3757,
      "Ġáī¢áĪĨáĬķ": 3758,
      "lamu": 3759,
      "ĠdÃŃ": 3760,
      "ones": 3761,
      "ĠAgosti": 3762,
      "ĠáĬŃáĪŃáĪµáī²áĭ«áĬķ": 3763,
      "dÃł": 3764,
      "Ġlui": 3765,
      "utu": 3766,
      "áĭĭáĬĵ": 3767,
      "ĠáĬĲáĮĪáĪ®áī½": 3768,
      "Ġrayuwa": 3769,
      "uo": 3770,
      "Ġel": 3771,
      "ĠUg": 3772,
      "ĠáĭŃáĪħáĪĿ": 3773,
      "ĠmÃ©jÃ¬": 3774,
      "Ġserikali": 3775,
      "Ġáīłáĭį": 3776,
      "ĠYa": 3777,
      ".,": 3778,
      "Ġder": 3779,
      "Ita": 3780,
      "Ġdist": 3781,
      "ĠáĭĺáĪŃ": 3782,
      "ics": 3783,
      "áĬ¸": 3784,
      "Ġáįª": 3785,
      "lam": 3786,
      "áĭ¨áĬł": 3787,
      "ĠgÃ©nÃ©r": 3788,
      "ĠPaul": 3789,
      "áĪĽáĬĸáīµ": 3790,
      "Ġban": 3791,
      "Ġiliyo": 3792,
      "90": 3793,
      "Ġlin": 3794,
      "ĠÃªtre": 3795,
      "ĠáĭµáĪŃáĮħ": 3796,
      "Ġala": 3797,
      "ĠCity": 3798,
      "Ġkaskazini": 3799,
      "ateur": 3800,
      "ĠÐ": 3801,
      "ĠáĭŃáĪĨ": 3802,
      "áĪĤ": 3803,
      "áĮĪáĭ°": 3804,
      "Ġáĭ«áĪħáĪį": 3805,
      "áĪ«áī¸áĭį": 3806,
      "ombe": 3807,
      "Ġáĭ¨áĪĽáĭŃ": 3808,
      "Ã©tÃ©": 3809,
      "lish": 3810,
      "ĠáĬłáĪĪáĭį": 3811,
      "Ġhave": 3812,
      "orun": 3813,
      "áĪīáĪĿ": 3814,
      "áĪĽáĪį": 3815,
      "áįĶ": 3816,
      "áº¸": 3817,
      "ĠorÃºká»į": 3818,
      "ĠkejÃ¬": 3819,
      "Ìģ,": 3820,
      "ĠJulai": 3821,
      "rÃł": 3822,
      "yl": 3823,
      "arar": 3824,
      "ĠáĬ¥áĬĲ": 3825,
      "kashin": 3826,
      "FA": 3827,
      "Ġhukumomin": 3828,
      "ĠÃ©galement": 3829,
      "ĠáĪ¦": 3830,
      "áĮĢáĪŃáĪĺáĬķ": 3831,
      "Ġkarni": 3832,
      "Ġrel": 3833,
      "ĠSec": 3834,
      "áĬ¥áĬķáĮįáĪĬáĭĿáĬĽ": 3835,
      "ĠÃĮtá»į": 3836,
      "awala": 3837,
      "áįĪáĮ¥": 3838,
      "áĮĪáĪį": 3839,
      "Äģ": 3840,
      "ĠáīłáĪĻ": 3841,
      "ĠáĬ¡": 3842,
      "Ġyau": 3843,
      "overn": 3844,
      "Ġilimi": 3845,
      "ĠáīłáĪ½": 3846,
      "Ġmaeneo": 3847,
      "ulu": 3848,
      "lejin": 3849,
      "Ġtsarin": 3850,
      "attalin": 3851,
      "78": 3852,
      "áĪĭáĪ´": 3853,
      "ĠáĪĺáĮĢáĪĺáĪŃáĭ«": 3854,
      "tan": 3855,
      "Ġmwana": 3856,
      "Ġlashe": 3857,
      "ĠKir": 3858,
      "ĠáĪĿáĬķáĪĿ": 3859,
      "ourn": 3860,
      "Ġpartie": 3861,
      "pania": 3862,
      "wai": 3863,
      "rop": 3864,
      "áĪ°áĬķ": 3865,
      "Ġri": 3866,
      "ĠIlÃ©": 3867,
      "ĠgbajÃº": 3868,
      "ĠáĭŃáĭĺ": 3869,
      "Ġmawa": 3870,
      "ĠSal": 3871,
      "risti": 3872,
      "Ġdigiri": 3873,
      "ĠáĪĿáĬķáĮ®áī½": 3874,
      "col": 3875,
      "Ġzab": 3876,
      "Ġáĭ¨áī£": 3877,
      "ĠáĪĿáĪŃ": 3878,
      "Ġ%": 3879,
      "Ġmot": 3880,
      "rÃŃn": 3881,
      "ÙĪ": 3882,
      "áī£áĪĪáĭį": 3883,
      "ĠLes": 3884,
      "ements": 3885,
      "Ġkuh": 3886,
      "áĪ·": 3887,
      "áĭ¨áĪ±": 3888,
      "Ġdara": 3889,
      "Ġáĭĭáī¢": 3890,
      "áĬ¥áĬķáĭ°": 3891,
      "izikia": 3892,
      "ĠFor": 3893,
      "ĠJuni": 3894,
      "ĠáĪł": 3895,
      "Th": 3896,
      "Am": 3897,
      "Ġáĭ¨áĬ«": 3898,
      "ĠáĪĽáĪŃáīĨ": 3899,
      "Ġ1991": 3900,
      "On": 3901,
      "arch": 3902,
      "ĠPol": 3903,
      "áīłáĪĪ": 3904,
      "Ġalors": 3905,
      "Ġnon": 3906,
      "Ġmaji": 3907,
      "ĠáĭŃáĪ°": 3908,
      "ĠáĭŃáĪħáĬķ": 3909,
      "áĬŃáĪŃ": 3910,
      "ĠOgun": 3911,
      "Ġmaza": 3912,
      "Ġáĭ¨áī°áĪ°": 3913,
      "Ġkit": 3914,
      "Ġkum": 3915,
      "·áį": 3916,
      "Ġstr": 3917,
      "¹¢": 3918,
      "yya": 3919,
      "ĠagbÃ¨": 3920,
      "Ġge": 3921,
      "vir": 3922,
      "áĬķáĭ±": 3923,
      "Ã©rÃ©": 3924,
      "ĠnÃŃbi": 3925,
      "ĠFizikia": 3926,
      "Ġwakil": 3927,
      "ĠjÃ¡de": 3928,
      "áĪĺáĪ°": 3929,
      "Ch": 3930,
      "urn": 3931,
      "áīłáĪĺ": 3932,
      "ĠáĪĺáĪĨáĬĳ": 3933,
      "ĠOá¹£Ã¹": 3934,
      "Ġkamfanin": 3935,
      "ĠáĪ¥áĪŃáĭĪ": 3936,
      "ets": 3937,
      "ĠParty": 3938,
      "ĠAhm": 3939,
      "ĠáĮ½áĪĳ": 3940,
      "lÃ³gÃºn": 3941,
      "ĠÆĺ": 3942,
      "ĠáĪłáĪ«": 3943,
      "ĠMachi": 3944,
      "ĠAde": 3945,
      "táº¹": 3946,
      "ĠáĮłáĪ": 3947,
      "akon": 3948,
      "1892": 3949,
      "lá»įpá»į": 3950,
      "ĠwÃŃpÃ©": 3951,
      "eman": 3952,
      "thiop": 3953,
      "Ġmusamman": 3954,
      "Ġkwaikwayo": 3955,
      "ĠáĪµáĪĻ": 3956,
      "ulture": 3957,
      "áĬķáĭ°": 3958,
      "orge": 3959,
      "áĪĭáĪĪ": 3960,
      "Ġsim": 3961,
      "Ġbab": 3962,
      "umma": 3963,
      "Ġtout": 3964,
      "Ġkilomita": 3965,
      "Sa": 3966,
      "ĠAwards": 3967,
      "Ġtaim": 3968,
      "Ġjus": 3969,
      "www": 3970,
      "káº¹": 3971,
      "ĠáĬħ": 3972,
      "ĠPh": 3973,
      "toire": 3974,
      "áĭ³áĪŃ": 3975,
      "ĠáĪĺáĪª": 3976,
      "ĠáĬłáĪ³": 3977,
      "áī¶áī½áĬķ": 3978,
      "ĠNigerian": 3979,
      "Ġáĭ°áĪ´": 3980,
      "Ġlake": 3981,
      "ĠáĪĺáĭµ": 3982,
      "ĠTiba": 3983,
      "áĪĭáĪĽ": 3984,
      "rili": 3985,
      "ĠáĪĿáĪįáĬŃ": 3986,
      "ĠáĪĤ": 3987,
      "Ġmfalme": 3988,
      "Ġáĭ¨áĪ¥": 3989,
      "Ġfina": 3990,
      "áįĪáĪ¨áĬķáĪ³áĭŃ": 3991,
      "ĠYamma": 3992,
      "asihi": 3993,
      "Ġzaman": 3994,
      "ĠMajalisar": 3995,
      "ily": 3996,
      "ĠCor": 3997,
      "áĭļáĪģ": 3998,
      "Ġprincip": 3999,
      "itt": 4000,
      "wanda": 4001,
      "omb": 4002,
      "ĠDec": 4003,
      "igizaji": 4004,
      "ĠáĬĴ": 4005,
      "áĪ¡": 4006,
      "áĪĺáĮ£": 4007,
      "áī½áĭį": 4008,
      "ĠáĭĪáĮĪáĬķ": 4009,
      "áĭķáĪį": 4010,
      "SBN": 4011,
      "Ġáį¤": 4012,
      "ĠBer": 4013,
      "cher": 4014,
      "ĠáĬłáĪĪáīĥ": 4015,
      "áĪłáĪ«": 4016,
      "ĠáĮħ": 4017,
      "ĠÃ©le": 4018,
      "Ġ1970": 4019,
      "ĠáĬĸ": 4020,
      "aifaf": 4021,
      "ĠAare": 4022,
      "Ġhtt": 4023,
      "Ġtangu": 4024,
      "áĪ¯": 4025,
      "Ġkula": 4026,
      "Ġlambar": 4027,
      "ĠLi": 4028,
      "ĠáĭķáĪĪ": 4029,
      "ĠMtakatifu": 4030,
      "Ġjagor": 4031,
      "auti": 4032,
      "Ġlab": 4033,
      "áĪ³áī¸áĭį": 4034,
      "oph": 4035,
      "ÃĪ": 4036,
      "Ìģ.": 4037,
      "ĠKatsina": 4038,
      "ĠSp": 4039,
      "Ġáĭ¨áĭĺ": 4040,
      "Ġhukuma": 4041,
      "cto": 4042,
      "Ġrap": 4043,
      "ete": 4044,
      "ĠChina": 4045,
      "ĠáĭĪáĪ¨áĭ³": 4046,
      "áįĪáīµ": 4047,
      "Ġkarkashin": 4048,
      "ĠáĪ´áīµ": 4049,
      "amment": 4050,
      "ĠMei": 4051,
      "way": 4052,
      "Ãłráº¹": 4053,
      "ings": 4054,
      "áĭĳ": 4055,
      "Sh": 4056,
      "jia": 4057,
      "Ġ2001": 4058,
      "ĠáĬłáĪ¸": 4059,
      "áĬ¹": 4060,
      "áĬ«áĪį": 4061,
      "Ġlabar": 4062,
      "ojÃº": 4063,
      "ĠMashariki": 4064,
      "ĠáĬłáĮ¥": 4065,
      "ĠMak": 4066,
      "sá»į": 4067,
      "ĠSha": 4068,
      "ieurs": 4069,
      "áĮĪáīł": 4070,
      "Ġpeke": 4071,
      "bÃ²": 4072,
      "Ġsunan": 4073,
      "ĠáĭŃáĪĨáĬĵáĪį": 4074,
      "Ġndani": 4075,
      "Ġprof": 4076,
      "áĮįáī¥áĮ½": 4077,
      "Ġbec": 4078,
      "ĠoÃ¹": 4079,
      "ĠáĬ¥áĭį": 4080,
      "ĠáīłáĪĮ": 4081,
      "Ġ1993": 4082,
      "ĠáĪº": 4083,
      "ĠMis": 4084,
      "Ġáī³áĭĭáīĤ": 4085,
      "ĠDesemba": 4086,
      "aik": 4087,
      "áĮ¦áĪŃ": 4088,
      "áĬ®áī½": 4089,
      "Ġlori": 4090,
      "áĪıáĪį": 4091,
      "áĪ©áīµ": 4092,
      "Ġáīłáī°áĪĪáĭŃ": 4093,
      "Ġbang": 4094,
      "áĮĪáī¥": 4095,
      "Ġkaribu": 4096,
      "áĮ¥áĪ¨": 4097,
      "ĠFaransa": 4098,
      "ws": 4099,
      "lÃ²": 4100,
      "áĭ²áĪħ": 4101,
      "ĠáĬłáĭŃáĭ°": 4102,
      "Ġkid": 4103,
      "áĪ±áĪĿ": 4104,
      "ĠáĬŃáįįáĪĭ": 4105,
      "ĠáĬłáĭ°": 4106,
      "Ġkuanzia": 4107,
      "ĠSaint": 4108,
      "Ġacc": 4109,
      "á¹£Ã¨lÃº": 4110,
      "ĠagbÃ¨gbÃ¨": 4111,
      "áĭ³áĪĿ": 4112,
      "Ġzamani": 4113,
      "áĪ¨áī¥": 4114,
      "Ġsani": 4115,
      "áĪĿáĪħáĪŃ": 4116,
      "fÃŃ": 4117,
      "ĠáīĢáĮ¥": 4118,
      "ĠAprili": 4119,
      "ĠAmerican": 4120,
      "áĬĲáĮĪ": 4121,
      "aifaffun": 4122,
      "Ġmam": 4123,
      "ĠdÃ©velop": 4124,
      "ĠIli": 4125,
      "Ġces": 4126,
      "ĠáīłáĪģ": 4127,
      "ĠáĬłáĮĪáĪįáĮį": 4128,
      "rib": 4129,
      "Ġmeng": 4130,
      "Ġeff": 4131,
      "áĪķáĪŃ": 4132,
      "Ġmace": 4133,
      "áĮłáĪ©": 4134,
      "áįĳ": 4135,
      "ĠmÃŃ": 4136,
      "ĠáīłáĮ¥": 4137,
      "Ġno": 4138,
      "ĠÃŃ": 4139,
      "Ġhab": 4140,
      "ander": 4141,
      "Ġnau": 4142,
      "Ġbisa": 4143,
      "ilar": 4144,
      "Ġkwallon": 4145,
      "Ġchake": 4146,
      "atan": 4147,
      "Ġ1998": 4148,
      "ĠEurope": 4149,
      "Ġrais": 4150,
      "El": 4151,
      "áĪĺáī±": 4152,
      "ove": 4153,
      "áįĪáĪµ": 4154,
      "ken": 4155,
      "arci": 4156,
      "Ø±": 4157,
      "Ġdali": 4158,
      "Ġhuko": 4159,
      "Ġed": 4160,
      "Ġkayan": 4161,
      "ĠáĭŃáī³áĭĪáīĥáĪį": 4162,
      "Ġáº¹ni": 4163,
      "ince": 4164,
      "ush": 4165,
      "áĭµáĪ¨áĮį": 4166,
      "ĠáĬ¥áĬķáĮįáĪĬáĭĿ": 4167,
      "ģáĬĳ": 4168,
      "ĠáĬĵáīµ": 4169,
      "ĠáĪ»": 4170,
      "ĠÃłmÃ¬": 4171,
      "ĠSeptemba": 4172,
      "áĭ³áĪį": 4173,
      "rÃº": 4174,
      "ĠKananan": 4175,
      "áĪŃáĭ«áĪĿ": 4176,
      "uld": 4177,
      "AN": 4178,
      "Ġako": 4179,
      "Ġnada": 4180,
      "alo": 4181,
      "Ġ1994": 4182,
      "anna": 4183,
      "Ġind": 4184,
      "Ġtheir": 4185,
      "Ġvari": 4186,
      "ÉĹa": 4187,
      "Ġshirin": 4188,
      "ĠHot": 4189,
      "ĠRob": 4190,
      "Ġfe": 4191,
      "istory": 4192,
      "Ġtsohon": 4193,
      "fanya": 4194,
      "Ġthis": 4195,
      "ĠáĪĺáĪłáĪ¨áīµ": 4196,
      "áįĵáĬķ": 4197,
      "ĠRay": 4198,
      "Ġtit": 4199,
      "Ġwaki": 4200,
      "áĮłáĬĵ": 4201,
      "ĠáĬ¥áĭ¨áī°": 4202,
      "Ġconsid": 4203,
      "score": 4204,
      "áĬĹ": 4205,
      "ĠáĪĽáī´áĭİáĪµ": 4206,
      "ments": 4207,
      "uliwa": 4208,
      "ery": 4209,
      "ĠrÃ¨": 4210,
      "dÃ³": 4211,
      "Ġyabo": 4212,
      "far": 4213,
      "ĠBro": 4214,
      "ĠannÃ©es": 4215,
      "rent": 4216,
      "Ġdep": 4217,
      "ĠTari": 4218,
      "ĠKudu": 4219,
      "isme": 4220,
      "olly": 4221,
      "áĬĥ": 4222,
      "Ġciki": 4223,
      "ĠáĬ¥áĬĲáĭļáĪħ": 4224,
      "yyun": 4225,
      "sÃ¹": 4226,
      "Ġmwigizaji": 4227,
      "ĪáĪĿ": 4228,
      "áį²áį": 4229,
      "esha": 4230,
      "Ã¬mÃ¹": 4231,
      "Ġuhuru": 4232,
      "ft": 4233,
      "áī£áĭĬ": 4234,
      "omen": 4235,
      "190": 4236,
      "opo": 4237,
      "Ġlim": 4238,
      "´áį": 4239,
      "Ġáĭ´": 4240,
      "Ġfilm": 4241,
      "Ġher": 4242,
      "áĪ¨áĮĭ": 4243,
      "Ã³mÃ¬n": 4244,
      "Ġ1996": 4245,
      "Ġpremier": 4246,
      "Ġjerin": 4247,
      "ĠGer": 4248,
      "Ġpá»į": 4249,
      "ĠáĪµáīµ": 4250,
      "Ġkutokana": 4251,
      "ĠáĭķáĪĪáī³áīµ": 4252,
      "Ġsign": 4253,
      "Ġuna": 4254,
      "Ġasalin": 4255,
      "Ġlokaci": 4256,
      "ral": 4257,
      "áĭ°áĮį": 4258,
      "ĠPer": 4259,
      "ĠáīĢáĬĵáīµ": 4260,
      "ĠSud": 4261,
      "Ġproduc": 4262,
      "ĠnÃ©": 4263,
      "ĠRaya": 4264,
      "Ġprop": 4265,
      "ky": 4266,
      "Ġáį³áį": 4267,
      "Ġocc": 4268,
      "âĢº": 4269,
      "Ġwan": 4270,
      "adili": 4271,
      "ĠáĪĺáĭĿ": 4272,
      "ĠtrÃ¨s": 4273,
      "Ġkara": 4274,
      "atique": 4275,
      "Ġáĭįáĭµ": 4276,
      "ĠFebruari": 4277,
      "ca": 4278,
      "htt": 4279,
      "Ġ1995": 4280,
      "bert": 4281,
      "asha": 4282,
      "ĠáĪĺáĬĲ": 4283,
      "45": 4284,
      "ĠMu": 4285,
      "Ġone": 4286,
      "ĠáĬ¬": 4287,
      "ĠEx": 4288,
      "vent": 4289,
      "Ġelle": 4290,
      "yÃ¡": 4291,
      "Ġincl": 4292,
      "oy": 4293,
      "Ġsci": 4294,
      "ĠRep": 4295,
      "ĠdÃ©s": 4296,
      "iyoyin": 4297,
      "Ġmajalisar": 4298,
      "Ġmulki": 4299,
      "ches": 4300,
      "ĠNovemba": 4301,
      "áĮĪáĭį": 4302,
      "raz": 4303,
      "Ġinf": 4304,
      "Ã²rÃ¹n": 4305,
      "ĠRais": 4306,
      "ifa": 4307,
      "ĠJanuary": 4308,
      "ilia": 4309,
      "ĠÃłwon": 4310,
      "áĭ®áĪŃ": 4311,
      "asaha": 4312,
      "ĠYan": 4313,
      "ĠáĭŃáĪĭáĪį": 4314,
      "ulani": 4315,
      "ler": 4316,
      "ĠâĢ¢": 4317,
      "Ġmasana": 4318,
      "ĠMusulunci": 4319,
      "ĠÂ»,": 4320,
      "ĠáĮ¥áĬķáī³áĭĬ": 4321,
      "ĠáĪŀáīµ": 4322,
      "pele": 4323,
      "ĠKya": 4324,
      "ĠáĬłáĪģáĬķ": 4325,
      "áĭ¨áī°": 4326,
      "ĠÃ¬gb": 4327,
      "ĠáīłáĬłáĬķáĭµ": 4328,
      "Ġpres": 4329,
      "Ġ186": 4330,
      "ĠBal": 4331,
      "áĪŃáĪµáī²áĭ«": 4332,
      "ĠáįĵáĪŃáī²": 4333,
      "Ġdiv": 4334,
      "ĠMon": 4335,
      "áĮĪáĪª": 4336,
      "Ġshug": 4337,
      "ĠNi": 4338,
      "unif": 4339,
      "áĪĽáī½": 4340,
      "Ġáĭ¨áĪĻ": 4341,
      "ĠMutane": 4342,
      "/)": 4343,
      "áĪĵ": 4344,
      "áĪ»áĭİáī½": 4345,
      "ĠáĭĵáĪĪáĪĿ": 4346,
      "olution": 4347,
      "Ġmet": 4348,
      "onne": 4349,
      "áĭ®áĪµ": 4350,
      "ĠOrodha": 4351,
      "Ġkaratu": 4352,
      "ism": 4353,
      "ĠáĪĺáĬķáĮįáĪµáīµ": 4354,
      "Har": 4355,
      "Ġpelu": 4356,
      "áĪĽáĪŃ": 4357,
      "ĠyÃ³Ã²": 4358,
      "asiasa": 4359,
      "Åĵ": 4360,
      "indi": 4361,
      "Ġáīłáīµ": 4362,
      "áĪĪáī¥": 4363,
      "ĠAbdul": 4364,
      "áĭĭáīµ": 4365,
      "ÙĲ": 4366,
      "ĠÎ": 4367,
      "áįĦ": 4368,
      "Ġwilaya": 4369,
      "ĠEm": 4370,
      "Ġ1997": 4371,
      "ner": 4372,
      "Ġloc": 4373,
      "hidi": 4374,
      "ĠIle": 4375,
      "ick": 4376,
      "ĠKemia": 4377,
      "ĠSte": 4378,
      "ĠHaifaffun": 4379,
      "ĠEthiop": 4380,
      "Ġaliye": 4381,
      "osai": 4382,
      "áĮįáī£": 4383,
      "ĠsÃŃláº¹": 4384,
      "Ġagbe": 4385,
      "áī³áī¸áĭįáĬķ": 4386,
      "áĭĪáĪŃ": 4387,
      "Ġfit": 4388,
      "omon": 4389,
      "ower": 4390,
      "áįĪáĪĪ": 4391,
      "ĠÃ²á¹£": 4392,
      "ĠáĬłáĬ«áĪį": 4393,
      "áĮ¹": 4394,
      "add": 4395,
      "ack": 4396,
      "ĠáĭŃáĪĺáĪµáĪĭáĪį": 4397,
      "Ġother": 4398,
      "áĮįáĪį": 4399,
      "Ġpartic": 4400,
      "Ġá¹£iá¹£áº¹": 4401,
      "Ġpekee": 4402,
      "ĠáĭĪáĪ¨": 4403,
      "ites": 4404,
      "ĠAsia": 4405,
      "arautar": 4406,
      "áĮłáīĢáĪĿ": 4407,
      "35": 4408,
      "dom": 4409,
      "ĠEle": 4410,
      "ĠáĬłáĬķáĭ³": 4411,
      "aman": 4412,
      "angue": 4413,
      "ĠDav": 4414,
      "Ġshirya": 4415,
      "ĠwaÉĹanda": 4416,
      "ott": 4417,
      "Ġáĭ¨áĬĲáīłáĪ¨áĭį": 4418,
      "azama": 4419,
      "run": 4420,
      "Ġyara": 4421,
      "Ġkuli": 4422,
      "Ġpat": 4423,
      "ĠáĬ¥áĬķáĪµ": 4424,
      "utt": 4425,
      "áĪ«áĭį": 4426,
      "Ġkuj": 4427,
      "Ġáĭ°áī¡áī¥": 4428,
      "Ġilimin": 4429,
      "áĬĵáĪįáī£áīµ": 4430,
      "anti": 4431,
      "Ġtena": 4432,
      "ĠDem": 4433,
      "Ã¹gbá»į": 4434,
      "jeo": 4435,
      "Ġrasmi": 4436,
      "ĠáįĪáĪŃáĭĸ": 4437,
      "áĪįáĭ°": 4438,
      "áĭ¨áĪ±áĪµ": 4439,
      "Ġwote": 4440,
      "akoso": 4441,
      "Ġiko": 4442,
      "áīº": 4443,
      "ocr": 4444,
      "Ġojo": 4445,
      "imÃ¡": 4446,
      "Ġmap": 4447,
      "Ġáī¥áĪĪáĭį": 4448,
      "Ġhttp": 4449,
      "Ġaá¹£": 4450,
      "Ġwho": 4451,
      "Ġ1992": 4452,
      "amad": 4453,
      "ĠMor": 4454,
      "áĪ©áĬķ": 4455,
      "hem": 4456,
      "áī»áĭŃáĬĵ": 4457,
      "ista": 4458,
      "áĪĮáĬŃáīµ": 4459,
      "vyo": 4460,
      "Ġja": 4461,
      "ĠÃłgbÃ©": 4462,
      "ojoi": 4463,
      "ojoibi": 4464,
      "ĠQu": 4465,
      "ĠáĬŃáĪįáĪį": 4466,
      "ĠáĭµáĪĿ": 4467,
      "Ġ1976": 4468,
      "AS": 4469,
      "áī¥áĭĻ": 4470,
      "âĢ¦": 4471,
      "ĠWat": 4472,
      "enc": 4473,
      "ras": 4474,
      "Ġáĭ¨áĪļáĪį": 4475,
      "Ġang": 4476,
      "Ġvol": 4477,
      "Ä«": 4478,
      "ĠDi": 4479,
      "sin": 4480,
      "aru": 4481,
      "Ġhaifi": 4482,
      "Ġrubuta": 4483,
      "Ġemp": 4484,
      "áī¼": 4485,
      "áĬ©áĪį": 4486,
      "ĠáĬķáĮīáĪµ": 4487,
      "ĠØ§": 4488,
      "Ġmasa": 4489,
      "ely": 4490,
      "áĬĲáīłáĪŃ": 4491,
      "ĠDel": 4492,
      "asan": 4493,
      "ĠRayayyun": 4494,
      "ĠHukum": 4495,
      "Ġop": 4496,
      "Ġáĭ¨áĪĿáīµ": 4497,
      "áĮłáīĥáĪĭáĭŃ": 4498,
      "De": 4499,
      "Ġpuis": 4500,
      "Ġgen": 4501,
      "Ġhalarci": 4502,
      "75": 4503,
      "ĠáĪĨáĬĲáĭį": 4504,
      "Ġmagana": 4505,
      "Ġlors": 4506,
      "ĠSin": 4507,
      "ĠdiffÃ©r": 4508,
      "ait": 4509,
      "ĠgÃŃ": 4510,
      "áĪ«áĪµ": 4511,
      "Ġfarkon": 4512,
      "agne": 4513,
      "afu": 4514,
      "Ġjim": 4515,
      "áĪįáīµ": 4516,
      "ĠnÃŃnu": 4517,
      "wana": 4518,
      "uro": 4519,
      "Ġfut": 4520,
      "haa": 4521,
      "Ġduni": 4522,
      "áī³áĭ°": 4523,
      "ĠNorth": 4524,
      "Ġass": 4525,
      "endant": 4526,
      "sÃ¬n": 4527,
      "adem": 4528,
      "Ġimport": 4529,
      "ĠSeptember": 4530,
      "ĠÃ²un": 4531,
      "pas": 4532,
      "áī¬": 4533,
      "lack": 4534,
      "ĠáĪ³áĭŃáĪĨáĬķ": 4535,
      "Ġogun": 4536,
      "Ġanci": 4537,
      "ĠáĪĽáĪµáī³áĭĪ": 4538,
      "Ġáīłáīħ": 4539,
      "Ġgwamnatin": 4540,
      "áĮ³": 4541,
      "áĭ«áĭį": 4542,
      "wezi": 4543,
      "elon": 4544,
      "áī²áĬķ": 4545,
      "ĠÃłkÃ³": 4546,
      "amuziki": 4547,
      "Ġmkubwa": 4548,
      "Tare": 4549,
      "Ġmm": 4550,
      "ĠId": 4551,
      "Ġing": 4552,
      "cep": 4553,
      "Ġatt": 4554,
      "Ġvile": 4555,
      "Ã©m": 4556,
      "adaye": 4557,
      "ĠáĪĽáĪħ": 4558,
      "teur": 4559,
      "ĠDecember": 4560,
      "yr": 4561,
      "ĠáĬĳ": 4562,
      "Ġcutar": 4563,
      "ÆĻa": 4564,
      "áĮłáįĭ": 4565,
      "Ġtarihi": 4566,
      "ford": 4567,
      "ĠáĭĲ": 4568,
      "ĠáĪĺáĮ»": 4569,
      "áĪĦáĭµ": 4570,
      "taniya": 4571,
      "Ùı": 4572,
      "ĠIbadan": 4573,
      "µáį": 4574,
      "ital": 4575,
      "Ġkwall": 4576,
      "wararr": 4577,
      "áĪĥáĬķ": 4578,
      "Ġdari": 4579,
      "ĠáĬłáī£áĪį": 4580,
      "usta": 4581,
      "Ġ50": 4582,
      "CO": 4583,
      "Ġáĭ¨áĮĪ": 4584,
      "Ġnu": 4585,
      "Ġsosai": 4586,
      "ando": 4587,
      "Ġharshen": 4588,
      "Or": 4589,
      "itÃ©s": 4590,
      "ĠAlex": 4591,
      "ĠTazama": 4592,
      "Ġáĭ¨áĭ°": 4593,
      "gbon": 4594,
      "ĠáĪĪáĭį": 4595,
      "ĠBib": 4596,
      "eli": 4597,
      "áĭ¨áĭį": 4598,
      "Ġáĭ¨áī°áĪĪáĭ«áĭ©": 4599,
      "ĠáīłáĬ¥áĬķáĮįáĪĬáĭĿáĬĽ": 4600,
      "ĠÂ».": 4601,
      "ĠáĪĢáĮĪáĪŃ": 4602,
      "Ġbinc": 4603,
      "áĪµáī±": 4604,
      "ĠáĬłáĭµ": 4605,
      "Ġáī°áĬĲ": 4606,
      "ington": 4607,
      "Ġáī³áĪĭáīħ": 4608,
      "ĠIII": 4609,
      "ĠBenin": 4610,
      "wali": 4611,
      "Ġkasuwanci": 4612,
      "Ġitace": 4613,
      "rÃ¡": 4614,
      "Ġhim": 4615,
      "ica": 4616,
      "Ð°": 4617,
      "ense": 4618,
      "ĠGir": 4619,
      "gozi": 4620,
      "ctober": 4621,
      "Ġáīłáĭļáĭ«": 4622,
      "ĠÃ©tait": 4623,
      "áĬĲáīµáĬķ": 4624,
      "fs": 4625,
      "wiki": 4626,
      "ĠáĪ©": 4627,
      "Ġplusieurs": 4628,
      "áĪİáĬķ": 4629,
      "kÃ¹nrin": 4630,
      "Ġli": 4631,
      "Ġsans": 4632,
      "Ġlafiya": 4633,
      "Ġabub": 4634,
      "Ġáĭ¨áī°áī£áĪĪáĭį": 4635,
      "ishin": 4636,
      "ukuu": 4637,
      "á¹£u": 4638,
      "ĠgbajÃºmá»į": 4639,
      "rig": 4640,
      "ollywood": 4641,
      "Tana": 4642,
      "Ġfon": 4643,
      "ÆĻin": 4644,
      "Ġzaben": 4645,
      "Ġterrit": 4646,
      "igne": 4647,
      "áĮ¥áĬķáī³áĭĬ": 4648,
      "ĠáĭĻáĪªáĭ«": 4649,
      "bÃº": 4650,
      "Ġsud": 4651,
      "ĠAir": 4652,
      "adhi": 4653,
      "áĬŃáĪĪ": 4654,
      "ĠsinimÃ¡": 4655,
      "ĠBahari": 4656,
      "ĠáĮĨ": 4657,
      "áįįáĬĵ": 4658,
      "phy": 4659,
      "Ġ1989": 4660,
      "shir": 4661,
      "pÃ¨": 4662,
      "ĠIl": 4663,
      "ubakar": 4664,
      "Ġá¹£áº¹": 4665,
      "Ġáĭ¨áĪĮ": 4666,
      "áīłáĪĮ": 4667,
      "amawa": 4668,
      "oup": 4669,
      "áĪ²áĬķ": 4670,
      "Ġ|-": 4671,
      "áĮłáĪį": 4672,
      "Ġpáº¹lu": 4673,
      "rahim": 4674,
      "áī¶áī¹": 4675,
      "tive": 4676,
      "áĭ¨áĪĺ": 4677,
      "áĪ±áĬķ": 4678,
      "Ġkila": 4679,
      "Ġneman": 4680,
      "Ġshida": 4681,
      "ĠKwalejin": 4682,
      "31": 4683,
      "falme": 4684,
      "ĠáĭŃáĭĪ": 4685,
      "ĠfÃŃÃ¬mÃ¹": 4686,
      "ĠpadÃł": 4687,
      "uve": 4688,
      "ĠMakar": 4689,
      "áĭĺáī¥": 4690,
      "áĬ«áī£áī¢": 4691,
      "Ġrest": 4692,
      "ĠojÃº": 4693,
      "ilos": 4694,
      "alitÃ©": 4695,
      "Ġprov": 4696,
      "Ġbara": 4697,
      "eld": 4698,
      "ĠTo": 4699,
      "ĠAll": 4700,
      "Ġkun": 4701,
      "áĪŃáĪĭáĬķáĭµ": 4702,
      "áīłáĭį": 4703,
      "oselu": 4704,
      "ĠáįĢ": 4705,
      "áĭŃáĬĲáīµ": 4706,
      "áĪŃáĮį": 4707,
      "Ġbila": 4708,
      "áĬ¨áĪŃ": 4709,
      "ĠáĬ«áĪį": 4710,
      "ĠpremiÃ¨re": 4711,
      "ils": 4712,
      "illes": 4713,
      "Ġint": 4714,
      "ĠMai": 4715,
      "2005": 4716,
      "ĠNijar": 4717,
      "áī¨áĪŃ": 4718,
      "ĠKa": 4719,
      "Ġkwam": 4720,
      "ĠMto": 4721,
      "wÃ¡jÃº": 4722,
      "assi": 4723,
      "Ġfond": 4724,
      "Ġnord": 4725,
      "uts": 4726,
      "ĠHer": 4727,
      "endo": 4728,
      "Ġutawala": 4729,
      "ĠáĬ¥áĮħáĮį": 4730,
      "áĪªáī³": 4731,
      "Ġaj": 4732,
      "ago": 4733,
      "ĠáĪĺáĪ¨áĮĥ": 4734,
      "ock": 4735,
      "Ġ1967": 4736,
      "76": 4737,
      "Ġijoba": 4738,
      "áĬĲáīłáĪ¨": 4739,
      "Dans": 4740,
      "Ġ1987": 4741,
      "ÃłÃł": 4742,
      "Ġmt": 4743,
      "áĮĪáĬĽ": 4744,
      "aria": 4745,
      "áĬŃáĪŃáĪµáī²áĭ«áĬķ": 4746,
      "ennes": 4747,
      "ĠÃ¬tÃłn": 4748,
      "ĠlÃ¡Ãł": 4749,
      "Ġidadi": 4750,
      "áĬ½": 4751,
      "rew": 4752,
      "ĠÆĻungiyar": 4753,
      "áī²áĬŃ": 4754,
      "dinin": 4755,
      "dÃ¹": 4756,
      "Ġduniani": 4757,
      "48": 4758,
      "áĭĺáĬķ": 4759,
      "Ġrashin": 4760,
      "veau": 4761,
      "ĠArm": 4762,
      "ĠAnnabi": 4763,
      "Ã©lÃ©": 4764,
      "ĠMed": 4765,
      "ĠwÃ³n": 4766,
      "ĠKiingereza": 4767,
      "Ġnotamment": 4768,
      "gal": 4769,
      "ĠáĭŃáī»": 4770,
      "angi": 4771,
      "iran": 4772,
      "ĠGwamn": 4773,
      "ĠáĪĽáĮ£": 4774,
      "tics": 4775,
      "rÃ²yÃ¬n": 4776,
      "áĪĪáī°áĬĽáĭį": 4777,
      "Ġdunia": 4778,
      "Ġwe": 4779,
      "áĪ³áī°": 4780,
      "ellement": 4781,
      "Ġbeen": 4782,
      "antes": 4783,
      "ĠÃłÃ¬": 4784,
      "ĠHan": 4785,
      "ulikana": 4786,
      "ĠáīłáĬ©áĪį": 4787,
      "Ġáī°áįĪ": 4788,
      "ĠáīłáĪį": 4789,
      "Ġ1975": 4790,
      "ĠáĬłáĬĲ": 4791,
      "ĠComp": 4792,
      "ĠMart": 4793,
      "Ġkazi": 4794,
      "gent": 4795,
      "ĠKati": 4796,
      "ĠáĪĺáĪĪ": 4797,
      "Ġlangue": 4798,
      "atikana": 4799,
      "áĪ«áĪĿ": 4800,
      "Ġoffici": 4801,
      "áĬķáĮ«": 4802,
      "Wannan": 4803,
      "Ġkuk": 4804,
      "Ġbayar": 4805,
      "keo": 4806,
      "the": 4807,
      "áīµáĪĿ": 4808,
      "áīłáĬĽ": 4809,
      "36": 4810,
      "ĠáĬ¥áĭµ": 4811,
      "Ġáī°áīĭ": 4812,
      "Ġere": 4813,
      "app": 4814,
      "ĠáĬ¥áĬķáĭ°áĪĨáĬĲ": 4815,
      "Åį": 4816,
      "áĬ¾": 4817,
      "Ġáĭ¨áĪĨáĬĳ": 4818,
      "Ġáĭ©áĬĴ": 4819,
      "osa": 4820,
      "áī¸áĭĭáĪį": 4821,
      "Ġáĭ¨áĪĭ": 4822,
      "áĭ«áĪµ": 4823,
      "Ġ185": 4824,
      "áī¥áĪĬáĬŃ": 4825,
      "ĠÉĹa": 4826,
      "áĮ¼": 4827,
      "Ġáĭ«áĪī": 4828,
      "Ġleo": 4829,
      "áĬĭáĪĭ": 4830,
      "cer": 4831,
      "eph": 4832,
      "emble": 4833,
      "bÃŃláº¹": 4834,
      "Ġkifo": 4835,
      "inta": 4836,
      "áįĵáĬķáĭ«": 4837,
      "Ġáīłáĭ°áī¡áī¥": 4838,
      "Ġ31": 4839,
      "Ġadd": 4840,
      "Ġnum": 4841,
      "Ġ1983": 4842,
      "ouse": 4843,
      "Ġmur": 4844,
      "ames": 4845,
      "ĠFI": 4846,
      "áĭĽáĪ¬": 4847,
      "Ġten": 4848,
      "ĠáĬ«áĪĮ": 4849,
      "ĠMp": 4850,
      "ĠFasihi": 4851,
      "áīģáĪŃ": 4852,
      "rid": 4853,
      "áĭ«áĭ«": 4854,
      "ĠáĪĺáĭĭ": 4855,
      "Ġiye": 4856,
      "áĪ©áĪĿ": 4857,
      "Láº¹": 4858,
      "emple": 4859,
      "ĠÆ´": 4860,
      "ĠáĪĺáī¶": 4861,
      "34": 4862,
      "ĠMil": 4863,
      "Ġrik": 4864,
      "áĬ¡": 4865,
      "Ġmn": 4866,
      "onge": 4867,
      "ĠWan": 4868,
      "cis": 4869,
      "Ġkn": 4870,
      "áĬĲáī¶áī½": 4871,
      "Ã¼": 4872,
      "Ã¡Ã¬": 4873,
      "ĠáīłáĬ¨": 4874,
      "áįĪáĬķ": 4875,
      "Ġ1988": 4876,
      "áĮ¥áĪĿ": 4877,
      "arab": 4878,
      "Ġdro": 4879,
      "ĠáĭĵáĪĺáī±": 4880,
      "ikukuu": 4881,
      "istr": 4882,
      "áī¢áīµ": 4883,
      "ĠIm": 4884,
      "áįįáĪªáĬ«": 4885,
      "áĬłáĭŃ": 4886,
      "Ġforme": 4887,
      "rise": 4888,
      "ved": 4889,
      "ĠáīłáĪ¨": 4890,
      "áīĢáĪį": 4891,
      "Ġsaur": 4892,
      "áĭ°áĪ¨áĮī": 4893,
      "Ġáĭ¨áįĸ": 4894,
      "Ġsupp": 4895,
      "lÃ¬": 4896,
      "tim": 4897,
      "Ġáĭ¨áī°áĬŃáĪī": 4898,
      "ĠAdam": 4899,
      "gen": 4900,
      "áĪĪáĭ°": 4901,
      "áĪĬáĭ®áĬķ": 4902,
      "ĠGeorge": 4903,
      "ĠNuwa": 4904,
      "áĬĳáĪµ": 4905,
      "Ġ1982": 4906,
      "Ġlitta": 4907,
      "Ġtarihin": 4908,
      "Ġnyingine": 4909,
      "It": 4910,
      "oo": 4911,
      "stit": 4912,
      "Ġ40": 4913,
      "Ġtsawon": 4914,
      "ĠPi": 4915,
      "burg": 4916,
      "ĠáĮĪáī¥": 4917,
      "ĠPress": 4918,
      "áĮłáĪĭ": 4919,
      "Ġgoma": 4920,
      "áī³áī½áĬķ": 4921,
      "ayansi": 4922,
      "Ġambao": 4923,
      "fia": 4924,
      "ĠCoun": 4925,
      "Ġmilli": 4926,
      "ĠBBC": 4927,
      "áĭ¨áĬłáĪ": 4928,
      "ĠØ§ÙĦ": 4929,
      "ĠaprÃ¨s": 4930,
      "Ġáį«": 4931,
      "Ġtattalin": 4932,
      "ĠJana": 4933,
      "Ġ1979": 4934,
      "Ġbiashara": 4935,
      "Ġlabarai": 4936,
      "Par": 4937,
      "Ġfus": 4938,
      "gaj": 4939,
      "ieu": 4940,
      "Ġaki": 4941,
      "ĠMah": 4942,
      "áĪĪáĭĭáĪį": 4943,
      "Ġtrad": 4944,
      "unga": 4945,
      "áĬ¨áĪ«": 4946,
      "chumi": 4947,
      "uck": 4948,
      "itions": 4949,
      "ĠáĪľáīµáĪŃ": 4950,
      "ĠáįķáĪ¬áĭļ": 4951,
      "Manazarta": 4952,
      "Ġshirye": 4953,
      "Ġused": 4954,
      "Ġbakwai": 4955,
      "DP": 4956,
      "áĮĪáĬĲ": 4957,
      "áĪªáīµ": 4958,
      "ĠOrÃŃ": 4959,
      "Ġorig": 4960,
      "lla": 4961,
      "pi": 4962,
      "Ġnjia": 4963,
      "Ġigb": 4964,
      "áīħáĪµ": 4965,
      "ĠáĭįáĮ¤": 4966,
      "Ġoloselu": 4967,
      "uct": 4968,
      "Ġkuhusu": 4969,
      "Ġnou": 4970,
      "ĠáĭŃáĮłáīĢ": 4971,
      "finai": 4972,
      "Ġbabbar": 4973,
      "ĠinÃº": 4974,
      "ĠáĪ¥áĪĭáĪ´": 4975,
      "áĭ£": 4976,
      "ĠsÃ¡": 4977,
      "fo": 4978,
      "ĠSun": 4979,
      "hen": 4980,
      "Ġdubu": 4981,
      "ĠáĬłáĪ°": 4982,
      "ĠáĪĺáĮłáĬķ": 4983,
      "yal": 4984,
      "Ġwurin": 4985,
      "áĭµáĪµáīµ": 4986,
      "Ġconf": 4987,
      "Ġ1984": 4988,
      "Ġyote": 4989,
      "uses": 4990,
      "ĠHen": 4991,
      "osi": 4992,
      "Ġenc": 4993,
      "Ġáĭ¨áĪ°áĭį": 4994,
      "Ġinto": 4995,
      "áĬ¥áĮįáĭļáĬłáī¥áĪĶáĪŃ": 4996,
      "ĠáĪķáĭĿ": 4997,
      "áī£áĪī": 4998,
      "ĠDola": 4999,
      "ĠKanisa": 5000,
      "sha": 5001,
      "tains": 5002,
      "ĠJames": 5003,
      "ĠFebruary": 5004,
      "ĠKib": 5005,
      "eda": 5006,
      "áĭķáĭĿ": 5007,
      "Ġ1985": 5008,
      "ĠáĮįáī¥áĮ½": 5009,
      "ĠáĭŃáī»áĪĭáĪį": 5010,
      "himu": 5011,
      "Ġdepuis": 5012,
      "bÃ¬nrin": 5013,
      "gá»į": 5014,
      "ĠBorn": 5015,
      "iew": 5016,
      "okuwa": 5017,
      "tal": 5018,
      "Ġáĭ±": 5019,
      "Ġbaba": 5020,
      "ĠNovember": 5021,
      "ĠáīµáĪįáīħ": 5022,
      "Ġ1986": 5023,
      "ĠSc": 5024,
      "Ġcompos": 5025,
      "gy": 5026,
      "áĪµáī°áĬĽ": 5027,
      "ĠKiswahili": 5028,
      "ĠUganda": 5029,
      "Ġtayi": 5030,
      "Ġhankali": 5031,
      "lima": 5032,
      "áĬķáĭ³áĪŃ": 5033,
      "dÃ²": 5034,
      "anisha": 5035,
      "ĠMac": 5036,
      "iver": 5037,
      "hard": 5038,
      "ĠáīģáĮ¥": 5039,
      "á¹£i": 5040,
      "ribu": 5041,
      "ĠÃĢÃłráº¹": 5042,
      "Ġhut": 5043,
      "Ġinc": 5044,
      "áĭ³áĮħ": 5045,
      "áĬ¨áī°áĪĪáĭį": 5046,
      "áĬłáĬķ": 5047,
      "pl": 5048,
      "Ġáĭŀ": 5049,
      "Ġ()": 5050,
      "Ġvisiwa": 5051,
      "Ġayyukan": 5052,
      "37": 5053,
      "ĠISBN": 5054,
      "ĠagbÃ¡": 5055,
      "ÙĴ": 5056,
      "ĠzaÉĵ": 5057,
      "Ġkung": 5058,
      "ambu": 5059,
      "Ġgre": 5060,
      "ĠShi": 5061,
      "ĠáĬ¥áĬķáĭ°áī°": 5062,
      "Ã³mÃ¬nÃł": 5063,
      "Ġhata": 5064,
      "ĠáĬ¨áĪĽ": 5065,
      "Ġeniyan": 5066,
      "sÃŃláº¹": 5067,
      "áĪ¥áī±": 5068,
      "ĠSoci": 5069,
      "omas": 5070,
      "áĭ³áĬķáīµ": 5071,
      "ĠHistoria": 5072,
      "ĠdÃ©b": 5073,
      "Ġá¹£ÃŃ": 5074,
      "Ġáĭ¨áĪĺáĮĢáĪĺáĪªáĭ«áĭį": 5075,
      "ĠáĮ½áĪĳáįį": 5076,
      "ĠáīłáĪĺáĪĨáĬĳ": 5077,
      "ĠAbubakar": 5078,
      "ĠEbun": 5079,
      "ĠáĭµáĬķ": 5080,
      "esh": 5081,
      "Ġgwamnati": 5082,
      "ĠMayu": 5083,
      "ĠÃłgbÃł": 5084,
      "áĮİáĪŃáĮİáĪŃ": 5085,
      "ĠáĭµáĪŃáĮħáīµ": 5086,
      "áĪŀáīµ": 5087,
      "ĠMusa": 5088,
      "2004": 5089,
      "pril": 5090,
      "ĠáĪĿáĬķáĮŃ": 5091,
      "ĠáĪµáĪĪáĭļáĪħ": 5092,
      "Ġpwani": 5093,
      "adio": 5094,
      "Ġkimanin": 5095,
      "torÃŃ": 5096,
      "áĮ¾": 5097,
      "ĠáįĬáĭ°áĪį": 5098,
      "áī½áĪį": 5099,
      "ĠSi": 5100,
      "ĠáĪĪáī°": 5101,
      "overnment": 5102,
      "nes": 5103,
      "áī§": 5104,
      "áĭĽáĭĿ": 5105,
      "Ġ||": 5106,
      "áĬ³áĬķ": 5107,
      "áįĪáĮ¥áĪ®": 5108,
      "ĠáĪ«áĪµ": 5109,
      "Ġ1966": 5110,
      "rÃ¡n": 5111,
      "ĠMungu": 5112,
      "áĪĪáĪģ": 5113,
      "ĠáĬłáī£áīµ": 5114,
      "Ġnasara": 5115,
      "Ġkasashen": 5116,
      "himman": 5117,
      "fika": 5118,
      "Ġ1974": 5119,
      "eria": 5120,
      "ĠAcadem": 5121,
      "Ġáĭ¨áĬĸ": 5122,
      "oko": 5123,
      "Ġtur": 5124,
      "Ġise": 5125,
      "ĠTurai": 5126,
      "Ġ(Â«": 5127,
      "áĬłáĪį": 5128,
      "Ġkirk": 5129,
      "Ġrem": 5130,
      "ĠáĬłáĭ¨áĪŃ": 5131,
      "ĠáĬłáĪĿáĪĭáĬŃ": 5132,
      "ĠÃīt": 5133,
      "ĠáĪĽáĪŃáīĨáĪµ": 5134,
      "ĠDr": 5135,
      "Ġkawaida": 5136,
      "daban": 5137,
      "áĬ¨áī¥": 5138,
      "ĠáĪħáĭĿáī¥": 5139,
      "inst": 5140,
      "let": 5141,
      "Ġaji": 5142,
      "ret": 5143,
      "tiques": 5144,
      "ĠáĬłáĭŃáĭ°áĪĪáĪĿ": 5145,
      "jet": 5146,
      "áī£áī¥": 5147,
      "ĠOctober": 5148,
      "áĬĿáĬĲáīµ": 5149,
      "2006": 5150,
      "Ġdini": 5151,
      "ĠCal": 5152,
      "ĠáīłáĪĨ": 5153,
      "ĠáĬŃáĪŃáĪµáī¶áĪµ": 5154,
      "Ġolu": 5155,
      "Ġjusqu": 5156,
      "por": 5157,
      "Ġpublic": 5158,
      "ID": 5159,
      "oa": 5160,
      "Ġsoj": 5161,
      "áĪĭáĬķ": 5162,
      "Ġmbili": 5163,
      "ĠSw": 5164,
      "ĠMaris": 5165,
      "áĪįáĬķ": 5166,
      "apá»į": 5167,
      "ĠCap": 5168,
      "ĠáīłáĪ«": 5169,
      "ĠFM": 5170,
      "áĮ¡áīµ": 5171,
      "áĭĿáĪĽáī½": 5172,
      "ĠÆ³": 5173,
      "áĪ«áĬ¤áĪį": 5174,
      "áīłáĪ¬": 5175,
      "Ġsome": 5176,
      "ĠMarch": 5177,
      "ĠáĬłáĬķáĭ³áĬķáĭµ": 5178,
      "ĠáĬ¨áī°áĪĽáĭį": 5179,
      "Ġzote": 5180,
      "istori": 5181,
      "ĠáĪĺáĮ¥": 5182,
      "áĪŃáĬķ": 5183,
      "aja": 5184,
      "ĠKongo": 5185,
      "Ġbahari": 5186,
      "ĠáĪĺáĪ³": 5187,
      "Ġsakand": 5188,
      "áĭ«áĭĿ": 5189,
      "icha": 5190,
      "Ġsitu": 5191,
      "ĠJean": 5192,
      "ĠCharles": 5193,
      "kÃ¹": 5194,
      "tum": 5195,
      "áĪµáī¶": 5196,
      "áĬ«áī³": 5197,
      "Ġidan": 5198,
      "áīłáī³áĪį": 5199,
      "volution": 5200,
      "ĠáĬ¨áĪ°": 5201,
      "ĠCan": 5202,
      "ĠáĬ«áĪĮáĬķáĭ³áĪŃ": 5203,
      "ĠáīłáĬ¢": 5204,
      "Ã¤": 5205,
      "Ġdawo": 5206,
      "ĠáīłáĪ½áī³": 5207,
      "alu": 5208,
      "ĠáĬ¥áĬķáĭ°áĮĪáĬĵ": 5209,
      "ateurs": 5210,
      "ĠáįķáĪ®": 5211,
      "Ġvit": 5212,
      "ĠÆĻid": 5213,
      "ĠEthiopia": 5214,
      "Ne": 5215,
      "ĠRa": 5216,
      "Ġvo": 5217,
      "lÃ©wÃ²": 5218,
      "guzi": 5219,
      "zama": 5220,
      "irc": 5221,
      "ĠLib": 5222,
      "áĮİáĪŃáĮİáĪŃáĭ«áĬķ": 5223,
      "Ġâ": 5224,
      "chuk": 5225,
      "áĪŀáĬŃ": 5226,
      "áĮ£áĪįáĭ«áĬķ": 5227,
      "ĠáīłáĪĻáĪī": 5228,
      "zer": 5229,
      "ĠáĪĺáĮ£": 5230,
      "ĠTan": 5231,
      "Ġáī°áĬĵ": 5232,
      "Ġsune": 5233,
      "Ġmwanamuziki": 5234,
      "áīĭáĬķáīĭ": 5235,
      "áĬķáĭ³áĬķáĭµ": 5236,
      "ĠkÃ¡": 5237,
      "ĠRÃ©": 5238,
      "Ġreg": 5239,
      "nÃ¹": 5240,
      "ĠbÃł": 5241,
      "Ġigba": 5242,
      "rip": 5243,
      "ĠgÃŃga": 5244,
      "mai": 5245,
      "abijin": 5246,
      "Ġwadda": 5247,
      "ĠáĪİ": 5248,
      "ĠáĬłáĪĪáĪĿ": 5249,
      "áĪįáįį": 5250,
      "áĪįáĮħ": 5251,
      "ĠâĢĶ": 5252,
      "Ġmagharibi": 5253,
      "gra": 5254,
      "abo": 5255,
      "ĠSat": 5256,
      "áĪµáīµáĬĵ": 5257,
      "ĠáĬĹ": 5258,
      "ÆĻi": 5259,
      "ĠIndiya": 5260,
      "ĠAz": 5261,
      "áĪ«áĪ½": 5262,
      "Ġiliy": 5263,
      "Ġatom": 5264,
      "ather": 5265,
      "ĠreprÃ©s": 5266,
      "ĠáĪĽáĮ£áīĢ": 5267,
      "áĭ³áĬķáĭ±": 5268,
      "ĠEnglish": 5269,
      "áī°áĬĽáĭį": 5270,
      "ĠOba": 5271,
      "Ġwalio": 5272,
      "áĭ´áīµ": 5273,
      "Ġafter": 5274,
      "ĠAbuja": 5275,
      "áĭ®áĪŃáĮĬ": 5276,
      "áĪĺáĪ«": 5277,
      "uman": 5278,
      "ĠNor": 5279,
      "Ġ1950": 5280,
      "mÃ©": 5281,
      "bila": 5282,
      "Ġpi": 5283,
      "Ġáīłáįį": 5284,
      "2003": 5285,
      "ĠWaz": 5286,
      "Ġlanguage": 5287,
      "Ã¶": 5288,
      "Ġmost": 5289,
      "áīłáĪ°": 5290,
      "ĠáĪįáĭ°áīµ": 5291,
      "ĠKil": 5292,
      "mÃº": 5293,
      "Ġact": 5294,
      "Ġcika": 5295,
      "ĠáĪĿáĬĵáĪįáī£áīµ": 5296,
      "áĬłáĪĿ": 5297,
      "Ġ1978": 5298,
      "Ġrayuwar": 5299,
      "Ġáīłáī¥áĭĽáīµ": 5300,
      "ºáį": 5301,
      "ino": 5302,
      "ĠmÃ¬ÃŃ": 5303,
      "áī½áĪģ": 5304,
      "áĬªáĭ«": 5305,
      "Ġhuo": 5306,
      "Ġáĭ¨áĭĵáĪĪáĪĿ": 5307,
      "Se": 5308,
      "áĪįáīģ": 5309,
      "olo": 5310,
      "Ġmiliyan": 5311,
      "Ġtrois": 5312,
      "ĠTarayyar": 5313,
      "ĠAfr": 5314,
      "ĠolÃ³rin": 5315,
      "http": 5316,
      "isation": 5317,
      "Ġtwo": 5318,
      "Ġkin": 5319,
      "idd": 5320,
      "Ġ1965": 5321,
      "ĠáįĪáĪ¨áĬķ": 5322,
      "Ġáĭ¨áīĢáĬķ": 5323,
      "Ġcas": 5324,
      "gawa": 5325,
      "ĠAcademy": 5326,
      "Ġori": 5327,
      "Ġáīµáĭį": 5328,
      "ĠVol": 5329,
      "áĮİáĬķ": 5330,
      "Ġáī°áĭĭ": 5331,
      "ĠáīłáĪķ": 5332,
      "Ġbien": 5333,
      "gÃ¡": 5334,
      "áĮĪáīµ": 5335,
      "Ġ1981": 5336,
      "nÃ©": 5337,
      "¹áį": 5338,
      "áĪ¥áĪ«áīħ": 5339,
      "Ġ~": 5340,
      "39": 5341,
      "Ki": 5342,
      "ĠáĪ¹": 5343,
      "uniyar": 5344,
      "Ġchi": 5345,
      "ĠGl": 5346,
      "ots": 5347,
      "ef": 5348,
      "ĠáĪĽáĪµáī³áĭĪáĪ»áĭİáī½": 5349,
      "áĪµáĪĿ": 5350,
      "ĠKaskazini": 5351,
      "ĠáĬłáĮĪáĪ«áīµ": 5352,
      "Ġtalla": 5353,
      "ĠáīłáĮİáĪŃáĮİáĪŃáĭ«áĬķ": 5354,
      "ĠYe": 5355,
      "dÃłn": 5356,
      "áīłáĪī": 5357,
      "Ġmwenye": 5358,
      "ĠmÃ¬ÃŃrÃłn": 5359,
      "oloj": 5360,
      "Ġpopulation": 5361,
      "áĭĺáĪĺ": 5362,
      "day": 5363,
      "Ġans": 5364,
      "ĠPeople": 5365,
      "Ġfonction": 5366,
      "Ø¨": 5367,
      "urop": 5368,
      "ĠáĪįáī¥": 5369,
      "alth": 5370,
      "ĠJapan": 5371,
      "Ġáĭ¨áĪŀ": 5372,
      "Ġáĭ¨áĪļáĭ«áĪµ": 5373,
      "ĠBay": 5374,
      "inea": 5375,
      "71": 5376,
      "ask": 5377,
      "asashen": 5378,
      "Ġkofin": 5379,
      "gajiya": 5380,
      "Ġáĭ¨áī¥": 5381,
      "Ġpass": 5382,
      "áĭĪáĪ¨": 5383,
      "ĠRic": 5384,
      "peci": 5385,
      "ĠáĮ³": 5386,
      "oss": 5387,
      "áī¦áīµ": 5388,
      "áĭ«áĬķáĭ³áĬķáĭ±": 5389,
      "ĠobÃ¬nrin": 5390,
      "ĠáĮ«": 5391,
      "Ġjin": 5392,
      "áĪ³áĬķ": 5393,
      "ĠLou": 5394,
      "ĠáĭµáĬķáĮĭ": 5395,
      "ench": 5396,
      "act": 5397,
      "arly": 5398,
      "ĠáĬŃáįįáĪİáī½": 5399,
      "---": 5400,
      "¸áį": 5401,
      "Ġsouv": 5402,
      "ĠMov": 5403,
      "ĠáĭĪáĪįáĭ°": 5404,
      "Ġ180": 5405,
      "Ġ1971": 5406,
      "Ġáĭ³áĪŃ": 5407,
      "ĠNchi": 5408,
      "olojia": 5409,
      "Ġcara": 5410,
      "Ġport": 5411,
      "Ġmore": 5412,
      "Ġáĭ¨áĮ¥": 5413,
      "ĠFab": 5414,
      "áĭĵáĬķ": 5415,
      "nia": 5416,
      "rÃºn": 5417,
      "amai": 5418,
      "Ġpre": 5419,
      "áĬĲáī±áĬķ": 5420,
      "áĬłáīµ": 5421,
      "ĠIbrahim": 5422,
      "Ġkis": 5423,
      "ĠPrin": 5424,
      "Ġáĭ¨áĬ®": 5425,
      "ĠFir": 5426,
      "Ġchar": 5427,
      "ĠBi": 5428,
      "ãĥ": 5429,
      "ĠMkoa": 5430,
      "áĪ³áĪ³áĭŃ": 5431,
      "Ġá¹£Ãł": 5432,
      "ĠKiarabu": 5433,
      "dÃºgbÃ²": 5434,
      "ĠÆ³an": 5435,
      "Ce": 5436,
      "ered": 5437,
      "áĪĪáĪĺ": 5438,
      "ĠáĬ¨áĪģ": 5439,
      "Ġáī¶": 5440,
      "unk": 5441,
      "ĠáĬłáī¶": 5442,
      "wun": 5443,
      "ĠáĪĽáĪŃáĭ«áĪĿ": 5444,
      "áĮĪáĪªáī±": 5445,
      "dáº¹": 5446,
      "Ġkisiwa": 5447,
      "ĠJi": 5448,
      "ĠÃ¬á¹£áº¹": 5449,
      "ĠpÃ©ri": 5450,
      "ĠHispania": 5451,
      "Ġáī¥áĭĽáīµ": 5452,
      "Ġáī¡áĭµáĬķ": 5453,
      "ĠáĪĪáĪĿáĪ³áĪĮ": 5454,
      "ĠSch": 5455,
      "Ã®t": 5456,
      "77": 5457,
      "ware": 5458,
      "ĠipÃ²": 5459,
      "berg": 5460,
      "ĠrÃ©p": 5461,
      "ald": 5462,
      "anne": 5463,
      "ĠáĬ¥áĬķáĭ²áĭ«": 5464,
      "Ġhudu": 5465,
      "hÃ¹n": 5466,
      "led": 5467,
      "ĠAlakoso": 5468,
      "ĠEs": 5469,
      "Ġart": 5470,
      "Ġmonde": 5471,
      "Ġáī¢áĪĨáĬķáĪĿ": 5472,
      "omme": 5473,
      "Ġ2091": 5474,
      "Ġhakan": 5475,
      "Ġtabb": 5476,
      "Elle": 5477,
      "kÃŃ": 5478,
      "Ġdar": 5479,
      "ataifa": 5480,
      "Ġpili": 5481,
      "ĠGar": 5482,
      "Ġagbegbe": 5483,
      "áĪŃáī±": 5484,
      "ĠáĭĿáĪŃáĭ«": 5485,
      "áĬķáĭ¶": 5486,
      "Ġomi": 5487,
      "46": 5488,
      "ĠUk": 5489,
      "Ġlangues": 5490,
      "ross": 5491,
      "áī¾": 5492,
      "Ġáĭ¨áĪĪáĭį": 5493,
      "ĠBritish": 5494,
      "áĬķáĪ³áĭĬ": 5495,
      "ĠStates": 5496,
      "Ġáĭ¨áĬ¦": 5497,
      "ĠMarejeo": 5498,
      "sÃ¬kÃ²": 5499,
      "ĠHukumar": 5500,
      "ĠMont": 5501,
      "ĠMoh": 5502,
      "lement": 5503,
      "ĠOm": 5504,
      "ĠEk": 5505,
      "ĠrÃ©s": 5506,
      "Ġpubli": 5507,
      "ĠAj": 5508,
      "Ġaga": 5509,
      "áĪµáĪĽ": 5510,
      "ĠáĮĪáĭ°": 5511,
      "áĪĮáĬŃáīµáĪªáĬŃ": 5512,
      "Ã©ric": 5513,
      "Ġasali": 5514,
      "ĠJuly": 5515,
      "Ġmiji": 5516,
      "ety": 5517,
      "ĠPat": 5518,
      "assan": 5519,
      "ĠáĮłáīħ": 5520,
      "Ġáĭ¨áĭ«": 5521,
      "Ġnaf": 5522,
      "Ġ1977": 5523,
      "ĠIndia": 5524,
      "usawa": 5525,
      "cÃ©": 5526,
      "ĠáĬĥáĭŃáĪĪ": 5527,
      "ĠFIFA": 5528,
      "ood": 5529,
      "Ð¸": 5530,
      "Ġáĭ¨áīĨ": 5531,
      "abin": 5532,
      "ictor": 5533,
      "\")": 5534,
      "vid": 5535,
      "Ġlik": 5536,
      "ĠáĭŃáĪĦ": 5537,
      "Ġáīłáī°áĮ¨áĪĽáĪª": 5538,
      "áī¥áĪ«áĭŃ": 5539,
      "Tarehe": 5540,
      "vo": 5541,
      "Ġkowa": 5542,
      "Ġkare": 5543,
      "Ġáī°áīĥ": 5544,
      "vient": 5545,
      "Ġhawa": 5546,
      "áĬ¨áĭļáĭ«": 5547,
      "Ġáĭ¨áĭįáĮŃ": 5548,
      "zung": 5549,
      "gbegbe": 5550,
      "ject": 5551,
      "Ġáĭĺáĭ´": 5552,
      "áĪĻáīµ": 5553,
      "Au": 5554,
      "ĠáĬ¥áĬĶ": 5555,
      "ĠGro": 5556,
      "Ġprogr": 5557,
      "ĠKit": 5558,
      "32": 5559,
      "vision": 5560,
      "ĠáĮĪáĬķ": 5561,
      "áĪĲáįĬ": 5562,
      "ĠáĭľáĬĵ": 5563,
      "Mar": 5564,
      "Ġgaban": 5565,
      "Ġabinci": 5566,
      "ĠhaÉĹa": 5567,
      "Ġhannu": 5568,
      "Ġgwa": 5569,
      "Ġáĭ¨áĪļáī³áĭĪ": 5570,
      "ressi": 5571,
      "áĪŃáī£": 5572,
      "Ġáĭ¨áĪĢ": 5573,
      "autres": 5574,
      "''": 5575,
      "85": 5576,
      "Ġáī£áĪį": 5577,
      "=\"": 5578,
      "ĠMari": 5579,
      "áĪŃáĪ±áĪĿ": 5580,
      "ĠGerman": 5581,
      "idar": 5582,
      "Ġmoins": 5583,
      "ĠÆĻidayar": 5584,
      "fauti": 5585,
      "ament": 5586,
      "Ġinay": 5587,
      "riban": 5588,
      "iongozi": 5589,
      "ĠShug": 5590,
      "Cette": 5591,
      "fois": 5592,
      "ĠáĮįáĭĽ": 5593,
      "áĭ¨áĪļ": 5594,
      "mpire": 5595,
      "Ð¾": 5596,
      "tiki": 5597,
      "Ġ1973": 5598,
      "yu": 5599,
      "Ġbet": 5600,
      "Ġbikin": 5601,
      "ĠáĬłáīħ": 5602,
      "ĠCibiyar": 5603,
      "Ġmashariki": 5604,
      "Ġwu": 5605,
      "ĠáĪĺáĪ¬áīµ": 5606,
      "ĠáĪĪáĬ¥": 5607,
      "47": 5608,
      "áĬ«áĪĿ": 5609,
      "Ġáĭ¨áĬŃ": 5610,
      "ĠDavid": 5611,
      "Ġdhidi": 5612,
      "Ġthey": 5613,
      "ĠáĪµáĪĪáĪļ": 5614,
      "tÃłkÃ¬": 5615,
      "ĠÃģf": 5616,
      "áĭĽáĬĽáĭį": 5617,
      "ĠHotuna": 5618,
      "ĠMakarantar": 5619,
      "ĠNuwamba": 5620,
      "ii": 5621,
      "ĠKasa": 5622,
      "Ġwar": 5623,
      "ĠáĬ¨áĪĮ": 5624,
      "Ġika": 5625,
      "ĠLove": 5626,
      "áĭĺáĭį": 5627,
      "99": 5628,
      "ĠTun": 5629,
      "Tangu": 5630,
      "ĠNÃŃ": 5631,
      "ĠWe": 5632,
      "Ġila": 5633,
      "aje": 5634,
      "áįĭáĪį": 5635,
      "ographie": 5636,
      "ĠáĬ¥áĬķáĮįáĪĬáĭĿáĬĽ": 5637,
      "ĠhaÉĹin": 5638,
      "ĠáĪĺáĪįáĬŃáĭĵ": 5639,
      "áĭµáĬĵ": 5640,
      "Ġif": 5641,
      "Ġville": 5642,
      "yon": 5643,
      "ĠolÃº": 5644,
      "umwa": 5645,
      "ĠáĬłáĪħ": 5646,
      "Ġinayo": 5647,
      "ĠAtlan": 5648,
      "Ġkadhaa": 5649,
      "unifÃ¡": 5650,
      "amaduni": 5651,
      "ĠáĪĺáĮ»áĪķ": 5652,
      "ĠUmar": 5653,
      "Ġmil": 5654,
      "Ġred": 5655,
      "áīłáīħ": 5656,
      "Ġ1962": 5657,
      "áī°áīµ": 5658,
      "jÃ²": 5659,
      "Ø¯": 5660,
      "Ġsasa": 5661,
      "Ġyaani": 5662,
      "Ġwao": 5663,
      "ĠáīĢáĭ³": 5664,
      "irefu": 5665,
      "Ġ1969": 5666,
      "Ġáī¥áĪĶáĪ«áĭĬ": 5667,
      "ĠKh": 5668,
      "Ġáĭ¨áī°áĪĺ": 5669,
      "Ġautres": 5670,
      "win": 5671,
      "Ġ<": 5672,
      "áĬķáī³": 5673,
      "áĭµáĪ¨áĪµ": 5674,
      "ella": 5675,
      "ĠFin": 5676,
      "áĬĵáĭŃáīµ": 5677,
      "áīłáĪ³": 5678,
      "Â²": 5679,
      "Ġá¹¢": 5680,
      "amakon": 5681,
      "ĠApril": 5682,
      "ikan": 5683,
      "ĠTV": 5684,
      "Ġá¹£Ã¹gbá»į": 5685,
      "ĠáĬłáĮĪáĪ®áī½": 5686,
      "Ġpet": 5687,
      "ĠMer": 5688,
      "ĠIr": 5689,
      "Ã¨ne": 5690,
      "Ġconc": 5691,
      "Ġabout": 5692,
      "ĠáĭĪáĭŃáĬķáĪĿ": 5693,
      "atre": 5694,
      "tokea": 5695,
      "Ġáī£áĭŃ": 5696,
      "ography": 5697,
      "áĭ°áĪ¨áĮĪáĭį": 5698,
      "ĠáĬĥáĭŃáĪį": 5699,
      "ĠÃģfrÃŃkÃł": 5700,
      "áīĢáĭµáĪŀ": 5701,
      "ube": 5702,
      "ĠVal": 5703,
      "SA": 5704,
      "Ġover": 5705,
      "akan": 5706,
      "áĭįáĬķáīµ": 5707,
      "Ġ1964": 5708,
      "ĠJapani": 5709,
      "áĬ¨áī³": 5710,
      "áīłáĪµ": 5711,
      "ĠJamhuri": 5712,
      "islamu": 5713,
      ");": 5714,
      "Ana": 5715,
      "Â°": 5716,
      "hiyar": 5717,
      "Ġ1972": 5718,
      "áĪĪáĪĿáĪ³áĪĮ": 5719,
      "Ġshe": 5720,
      "ĠSak": 5721,
      "anzishwa": 5722,
      "ĠáĪĻáĪī": 5723,
      "xt": 5724,
      "áĬŃáĬķ": 5725,
      "áĬĳáĬķ": 5726,
      "TA": 5727,
      "Ġappel": 5728,
      "Ġpersonn": 5729,
      "ĠáīĢáĮ¥áĪİ": 5730,
      "86": 5731,
      "ĠSer": 5732,
      "Ġáįİ": 5733,
      "Ġosere": 5734,
      "Ġpu": 5735,
      "96": 5736,
      "áĮĪáĪ«áīµ": 5737,
      "Ġsuch": 5738,
      "Ġmjini": 5739,
      "áīłáīĥ": 5740,
      "rag": 5741,
      "anzibar": 5742,
      "Ġlat": 5743,
      "unda": 5744,
      "Ġconn": 5745,
      "Ġáī£áĪħáĪŃ": 5746,
      "áĮĪáī¡": 5747,
      "Ġcontr": 5748,
      "ĠBank": 5749,
      "áī¥áĬķ": 5750,
      "bihi": 5751,
      "áĪ¸áĬĲ": 5752,
      "ĠÃ²á¹£erÃ©": 5753,
      "Ġnatur": 5754,
      "ĠáĬ¥áĮįáĭļáĬłáī¥áĪĶáĪŃ": 5755,
      "agen": 5756,
      "Ġkanta": 5757,
      "Ġtaimaka": 5758,
      "ides": 5759,
      "ĠáĭŃáĭ©": 5760,
      "Ġkuu": 5761,
      "Ġkur": 5762,
      "esse": 5763,
      "áĭĪáīħ": 5764,
      "ĠdÃ¡ra": 5765,
      "Ġmpya": 5766,
      "2015": 5767,
      "aimakin": 5768,
      "Ġfili": 5769,
      "Itokasi": 5770,
      "áĬĵáĮĪ": 5771,
      "ĠLugha": 5772,
      "ister": 5773,
      "bÃłdÃłn": 5774,
      "Ġconstitu": 5775,
      "cle": 5776,
      "áĪ°áĪŃ": 5777,
      "ĠáĪĽáĮ£áīĢáĪ»": 5778,
      "Ġfur": 5779,
      "ĠBello": 5780,
      "Ġtaf": 5781,
      "sociation": 5782,
      "pÃ¹": 5783,
      "ĠnÃ¬": 5784,
      "Ġáĭ¨áįĪ": 5785,
      "entomon": 5786,
      "ÃŃnÃŃ": 5787,
      "pace": 5788,
      "áīħáĭ«": 5789,
      "ĠEnugu": 5790,
      "ĠBraz": 5791,
      "rique": 5792,
      "áĬ®áīµ": 5793,
      "ĠIsland": 5794,
      "ĠáįĸáĪĪáī²áĬ«": 5795,
      "áĬĺáīµ": 5796,
      "Ġpartir": 5797,
      "áĬłáĬķáĭµ": 5798,
      "ĠKaramar": 5799,
      "ĠFilm": 5800,
      "Ġsouvent": 5801,
      "At": 5802,
      "ues": 5803,
      "ĠMuhammadu": 5804,
      "ĠMap": 5805,
      "otes": 5806,
      "ĠMiji": 5807,
      "alli": 5808,
      "ÃºsÃ¹": 5809,
      "iction": 5810,
      "ukumbu": 5811,
      "ĠáĬłáįįáĪªáĬ«": 5812,
      "ĠÃłgbÃ©lÃ©wÃ²": 5813,
      "hairi": 5814,
      "ĠJune": 5815,
      "Ġaddinin": 5816,
      "ĠGuinea": 5817,
      "Ġderni": 5818,
      "33": 5819,
      "ctr": 5820,
      "áĭ©áĪµ": 5821,
      "Ùĩ": 5822,
      "áī³áĬķ": 5823,
      "hind": 5824,
      "ĠáĮ¥áĪ©": 5825,
      "ĠAla": 5826,
      "Ġer": 5827,
      "ĠáīłáĪħ": 5828,
      "ojin": 5829,
      "áĬłáĪĪ": 5830,
      "ĠthÃ©": 5831,
      "Kuna": 5832,
      "ĠPak": 5833,
      "Ġ1963": 5834,
      "Ġkawo": 5835,
      "Ġrawar": 5836,
      "ĠOpen": 5837,
      "Ġalb": 5838,
      "2007": 5839,
      "Ġkáº¹ta": 5840,
      "ĠDo": 5841,
      "ĠáīłáĪĽáĪĪáīµ": 5842,
      "áĮįáī£áĪŃ": 5843,
      "áĪªáĪµ": 5844,
      "Ġsuiv": 5845,
      "Ġtime": 5846,
      "áĪŃáī¶": 5847,
      "ĠAlÃ¡": 5848,
      "Ġá»Įjá»į": 5849,
      "sÃł": 5850,
      "Î±": 5851,
      "aso": 5852,
      "Ġpermet": 5853,
      "Ġkaf": 5854,
      "Ġvis": 5855,
      "odes": 5856,
      "áī¥áĪ«áĭŃáĪµáĮ¥": 5857,
      "ĠáĬ¥áĬķáĭ³áĭŃ": 5858,
      "Ġkumb": 5859,
      "Ġnasar": 5860,
      "ĠnÃŃtorÃŃ": 5861,
      "ĠUmoja": 5862,
      "ÃłÃłyÃ¨": 5863,
      "ĠáĬłáĭ³": 5864,
      "áĭµáĪ®": 5865,
      "ĠEast": 5866,
      "Ġ1961": 5867,
      "áīĤáīµ": 5868,
      "Ġkusan": 5869,
      "Ġhaih": 5870,
      "ĠáĮīáĭ³áĭŃ": 5871,
      "áĭ®áĪŃáĮĬáĪµ": 5872,
      "49": 5873,
      "via": 5874,
      "Ġede": 5875,
      "ount": 5876,
      "ĠáĪ¬": 5877,
      "ĠÃ¬wá»į": 5878,
      "Ġtofauti": 5879,
      "ĠalÃłÃłyÃ¨": 5880,
      "gbÃ¡yÃ©": 5881,
      "ĠáĭĽáĪ¬": 5882,
      "ball": 5883,
      "ĠMaka": 5884,
      "Ġgargajiya": 5885,
      "Ġkawai": 5886,
      "ĠIlimi": 5887,
      "Ġmen": 5888,
      "ĠáĪ³áĭŃáĬķáĪ³áĭĬ": 5889,
      "ĠBorno": 5890,
      "nement": 5891,
      "ĠArab": 5892,
      "Ġsecond": 5893,
      "Wakati": 5894,
      "ĠAgba": 5895,
      "ĠÃ¬bÃŃláº¹": 5896,
      "ague": 5897,
      "Ġkabisa": 5898,
      "ĠpÃłtÃłkÃ¬": 5899,
      "vis": 5900,
      "tical": 5901,
      "ĠSah": 5902,
      "allaka": 5903,
      "nam": 5904,
      "umla": 5905,
      "Ġexemple": 5906,
      "áĮ«áĭĪ": 5907,
      "áĪłáĪ¨áī°": 5908,
      "anyika": 5909,
      "cs": 5910,
      "hÃłn": 5911,
      "ĠGáº¹": 5912,
      "Ġmaf": 5913,
      "ween": 5914,
      "chaguzi": 5915,
      "Ġáī°áĬ¨áī³": 5916,
      "yÃłwÃ³": 5917,
      "79": 5918,
      "lymp": 5919,
      "Ġinclud": 5920,
      "mon": 5921,
      "ĠáĪµáī¥áĪµ": 5922,
      "Ġáį»áį": 5923,
      "áĪľáīµ": 5924,
      "ĠáĪļáĪĬáĭ®áĬķ": 5925,
      "Ġgwamnan": 5926,
      "Ġáĭ¨áĪļáĮĪáĬĻ": 5927,
      "42": 5928,
      "bit": 5929,
      "Ġáīłáī£": 5930,
      "Ġreli": 5931,
      "áĬ®áĬĸ": 5932,
      "elui": 5933,
      "Ġur": 5934,
      "unic": 5935,
      "áĪµáī´": 5936,
      "ĠKo": 5937,
      "ingia": 5938,
      "imes": 5939,
      "inguis": 5940,
      "ĠdÃ©velopp": 5941,
      "áĬ¨áĪĭ": 5942,
      "warar": 5943,
      "obe": 5944,
      "ĠáĪļáĬĴáĪµáīµ": 5945,
      "BA": 5946,
      "ĠMali": 5947,
      "Ġout": 5948,
      "ĠáĭŃáĮł": 5949,
      "eder": 5950,
      "ourt": 5951,
      "°áį»áį": 5952,
      "struc": 5953,
      "Mji": 5954,
      "oot": 5955,
      "ĠkÃ¬": 5956,
      "Ġvie": 5957,
      "ĠCha": 5958,
      "áĮŃáĪŃ": 5959,
      "tÃ¡": 5960,
      "Ġáĭ¨áįį": 5961,
      "Ġca": 5962,
      "áĪİáĮĤ": 5963,
      "Ġkale": 5964,
      "Ġmuda": 5965,
      "ĠáĭįáĮŃ": 5966,
      "Ġáĭ°áĪ«áĪ²": 5967,
      "Ġmuhimu": 5968,
      "Ġmwanasiasa": 5969,
      "ĠáīłáĪµáī°": 5970,
      "Ġtemps": 5971,
      "ĠgÃ©": 5972,
      "ĠáĪĺáīħ": 5973,
      "Ġyanki": 5974,
      "Î¿": 5975,
      "ĠáĬ¨áĪĨáĬĲ": 5976,
      "poque": 5977,
      "ĠdÃł": 5978,
      "áĮħáĪĿ": 5979,
      "Ġserv": 5980,
      "áĭµáĪĺ": 5981,
      "áĪĭáīģ": 5982,
      "Ġ1968": 5983,
      "formation": 5984,
      "Ġng": 5985,
      "Ġ(\"": 5986,
      "âĢľ": 5987,
      "Ġáĭ¨áĪļáĪ°": 5988,
      "ĠáĪĥáĭŃáĪĽáĬĸáīµ": 5989,
      "jec": 5990,
      "yth": 5991,
      "Ġaina": 5992,
      "Ġiá¹£": 5993,
      "ĠáĬķáĮīáĪł": 5994,
      "Å«": 5995,
      "áĪĭáĮĬ": 5996,
      "áĬ«áĪŃ": 5997,
      "ĠáīħáĪŃáĪµ": 5998,
      "01": 5999,
      "Ġmik": 6000,
      "ĠáĪ²áīĢ": 6001,
      "áĪĻáĬķ": 6002,
      "ĠWomen": 6003,
      "oju": 6004,
      "ĠáĮ¸áī£áĭŃ": 6005,
      "Ġáĭ«áĪ³": 6006,
      "Ġá»ĮdÃºn": 6007,
      "Ġkusa": 6008,
      "38": 6009,
      "ĠáīłáĬ®": 6010,
      "kwas": 6011,
      "ĠáīµáĪŃáĮīáĪĿ": 6012,
      "ĠBas": 6013,
      "Ġá»įká»į": 6014,
      "áĬŀáī¹": 6015,
      "ĠWakristo": 6016,
      "This": 6017,
      "imi": 6018,
      "áĬĵáĭŃáīµáĭµ": 6019,
      "sÃ³": 6020,
      "ĠGeorg": 6021,
      "Ġresp": 6022,
      "ĠáĬ¥áĪĿáĬĲáīµ": 6023,
      "ĠNo": 6024,
      "ĠÃ¬l": 6025,
      "amani": 6026,
      "áĪĭáĪµ": 6027,
      "Ġavant": 6028,
      "andan": 6029,
      "ords": 6030,
      "ĠáĬłáĮĭ": 6031,
      "uto": 6032,
      "Ġ--": 6033,
      "Ġ1957": 6034,
      "ĠolÃ³á¹£Ã¨lÃº": 6035,
      "Ġmilima": 6036,
      "pasáº¹": 6037,
      "irgin": 6038,
      "ĠáĪ²áĪĨáĬĳ": 6039,
      "2016": 6040,
      "line": 6041,
      "áĪ°áĪį": 6042,
      "okar": 6043,
      "Ġgrande": 6044,
      "Ġknown": 6045,
      "ĠdÃº": 6046,
      "estiv": 6047,
      "Ġmwisho": 6048,
      "74": 6049,
      "Ġsal": 6050,
      "AC": 6051,
      "abawa": 6052,
      "ĠáĪĺáĪĨáĬĳáĬķ": 6053,
      "Wak": 6054,
      "Ðµ": 6055,
      "Ġplace": 6056,
      "ĠáĭŃáīĢáĪ«áĪī": 6057,
      "ES": 6058,
      "wili": 6059,
      "zing": 6060,
      "Ġhili": 6061,
      "ĠáĭĪáī³áĭ°": 6062,
      "Ġmilioni": 6063,
      "Ġkyautar": 6064,
      "ĠBiranen": 6065,
      "pata": 6066,
      "áĬķáĭ²": 6067,
      "urch": 6068,
      "ĠOlymp": 6069,
      "ĠáīłáĬ¦": 6070,
      "Ġprob": 6071,
      "PC": 6072,
      "Ġgur": 6073,
      "Ġaure": 6074,
      "aire": 6075,
      "wÃ¹": 6076,
      "Ġlog": 6077,
      "ĠAwá»įn": 6078,
      "istes": 6079,
      "ĠáĮįáĬķáĬĻ": 6080,
      "ĠáĪĿáĪįáĬŃáīµ": 6081,
      "cul": 6082,
      "áīħáĬĵ": 6083,
      "ĠYoh": 6084,
      "ĠáĪµáĪĪáĪĨáĬĲ": 6085,
      "pro": 6086,
      "ren": 6087,
      "ison": 6088,
      "Ġcal": 6089,
      "agn": 6090,
      "Ġprodu": 6091,
      "binrin": 6092,
      "Ray": 6093,
      "áĬķáĬŃ": 6094,
      "Ġpouv": 6095,
      "irun": 6096,
      "Ġnew": 6097,
      "ĠVer": 6098,
      "Ġdonc": 6099,
      "áĪĺáĪ©": 6100,
      "áĬ¨áĪ¨áĪĿ": 6101,
      "ministr": 6102,
      "ĠáĮİáĬķ": 6103,
      "áĬŃáĪ²": 6104,
      "áĬ«áĬ¨áĪĪ": 6105,
      "áĮ£áĬķ": 6106,
      "Ġarziki": 6107,
      "ĠDisamba": 6108,
      "ĠÉĵ": 6109,
      "esu": 6110,
      "Ġáĭ¨áīħ": 6111,
      "ĠáĭµáĪį": 6112,
      "ĠáĪ¥áįįáĪ«": 6113,
      "rÃ¹": 6114,
      "áĪĨáĬĸ": 6115,
      "áĬłáĪµ": 6116,
      "ĠáĭĺáĪĺáĬĵáĭĬ": 6117,
      "88": 6118,
      "ices": 6119,
      "Ġáĭĺáįĭ": 6120,
      "ĠDelta": 6121,
      "jan": 6122,
      "ĠGÃ³mÃ¬nÃł": 6123,
      "Ġkoyar": 6124,
      "Ġcours": 6125,
      "ĠowÃ³": 6126,
      "Ã¡Ã¬sÃŃ": 6127,
      "ĠJuli": 6128,
      "áĮĢáīµ": 6129,
      "ĠChristi": 6130,
      "ĠáĪ¦áĪµáīµ": 6131,
      "pedia": 6132,
      "ĠMos": 6133,
      "qui": 6134,
      "55": 6135,
      "áĮĭáīµ": 6136,
      "Ġshari": 6137,
      "Ġ1945": 6138,
      "uropÃ©": 6139,
      "Ġkij": 6140,
      "Ġbá»į": 6141,
      "Ġgari": 6142,
      "ayÃ©": 6143,
      "Ġyanayin": 6144,
      "ĠapÃ¡": 6145,
      "ĠArewacin": 6146,
      "dÃŃnlÃ³gÃºn": 6147,
      "Ġwork": 6148,
      "ĠáĪµáĪŀáī½": 6149,
      "ouest": 6150,
      "áī¨áĪŃáĪ²": 6151,
      "áĬķáĮİ": 6152,
      "Ġsoit": 6153,
      "Ġ1952": 6154,
      "ushe": 6155,
      "áī£áī³": 6156,
      "Ġpoint": 6157,
      "Ge": 6158,
      "Ġmch": 6159,
      "ĠIjoba": 6160,
      "áīĢáĪ¨": 6161,
      "Ġmaana": 6162,
      "áīłáīµáĬķ": 6163,
      "Ġ1959": 6164,
      "ĠPo": 6165,
      "Ġyammacin": 6166,
      "ĠRepublic": 6167,
      "Ġada": 6168,
      "áĪµáĭ«": 6169,
      "à¤ķ": 6170,
      "adhim": 6171,
      "ĠWatu": 6172,
      "fuatana": 6173,
      "Ġkumbukumbu": 6174,
      "Ġmer": 6175,
      "ĠMex": 6176,
      "áĭ°áĬķ": 6177,
      "áīħáĪµáīĥ": 6178,
      "ument": 6179,
      "ĠáīµáĪĿáĪħáĪŃ": 6180,
      "iques": 6181,
      "áĮª": 6182,
      "orÃŃ": 6183,
      "ĠGold": 6184,
      "áīĢáĮ¥": 6185,
      "Ġáĭ«áĪĪáĭįáĬķ": 6186,
      "Ġindi": 6187,
      "áĭ²áĭ®": 6188,
      "ĠáĪĺáĪ°áĪ¨áīµ": 6189,
      "ĠDen": 6190,
      "áĭĪáĭŃáĪĿ": 6191,
      "abab": 6192,
      "ĠSci": 6193,
      "áĪµáĪĪáĭļáĪħ": 6194,
      "áīħáĪµáīĥáĪ´": 6195,
      "Ġphilos": 6196,
      "Ġlilikuwa": 6197,
      "hara": 6198,
      "Ġfois": 6199,
      "áĮĪáĪ«": 6200,
      "mis": 6201,
      "bele": 6202,
      "Ġ60": 6203,
      "other": 6204,
      "Ġmapo": 6205,
      "Ġkashe": 6206,
      "ĠFabra": 6207,
      "ĠáĬ¨áĭĪ": 6208,
      "ĠáĪĿáĭķáĪ«áī¥": 6209,
      "ĠÃītats": 6210,
      "ables": 6211,
      "ĠKij": 6212,
      "Ġáīłáī°áĪĪ": 6213,
      "Awon": 6214,
      "iles": 6215,
      "áĪĽáĪ½": 6216,
      "Ġip": 6217,
      "Ġorgan": 6218,
      "Ġmirefu": 6219,
      "áĪĿáįĴ": 6220,
      "orte": 6221,
      "alÃ¡Ã¬sÃŃ": 6222,
      "Ġhuu": 6223,
      "ĠáĮ½áĪķ": 6224,
      "Ġajili": 6225,
      "Ġnafasi": 6226,
      "irar": 6227,
      "araka": 6228,
      "ĠáĬŃáĪŃáĪµáī²áĭ«": 6229,
      "Ġtaron": 6230,
      "Ġtalabijin": 6231,
      "Ġáī°áĪ«áĪ«": 6232,
      "Ġencore": 6233,
      "onais": 6234,
      "áĪĿáī¥": 6235,
      "72": 6236,
      "áĬ¥áĬĲáĭļáĪħ": 6237,
      "ney": 6238,
      "atho": 6239,
      "ogin": 6240,
      "ĠáĬĲáĮĪáĪł": 6241,
      "Kar": 6242,
      "Ġinv": 6243,
      "ĠLin": 6244,
      "limu": 6245,
      "ĠKin": 6246,
      "atif": 6247,
      "ĠáĭŃáĭŀ": 6248,
      "áĪ°áīµ": 6249,
      "Ãªte": 6250,
      "Ġliv": 6251,
      "ĠáĮĪáĮ½": 6252,
      "Ġaz": 6253,
      "Ġtakwas": 6254,
      "Ġáĭ¨áĪ´": 6255,
      "Ġkarshe": 6256,
      "Papa": 6257,
      "Ġmkoa": 6258,
      "Ġáį©": 6259,
      "Ġá»įba": 6260,
      "Ġwalikuwa": 6261,
      "áĬ¥áĬķáĭ²": 6262,
      "Ġmengine": 6263,
      "ĠTanbihi": 6264,
      "Ġmapokeo": 6265,
      "urt": 6266,
      "ĠáīµáĪŃ": 6267,
      "Ġcontre": 6268,
      "adiyya": 6269,
      "Â»)": 6270,
      "95": 6271,
      "Ġdab": 6272,
      "amban": 6273,
      "ĠIgb": 6274,
      "ĠAdÃ©": 6275,
      "ĠáįĪáĪŃáĭĸáĬķ": 6276,
      "darÃŃ": 6277,
      "Ġtá»į": 6278,
      "Ġmemba": 6279,
      "Ġmemb": 6280,
      "Ġdamar": 6281,
      "Ġhizi": 6282,
      "Ġáĭ¨áĪ®": 6283,
      "Ġkashi": 6284,
      "Ġkundi": 6285,
      "ĠáĪµáĪĭ": 6286,
      "fazi": 6287,
      "ĠOlÃ³": 6288,
      "kur": 6289,
      "Ġáĭ¨áĪĪáĪĿ": 6290,
      "onekana": 6291,
      "Ġsamo": 6292,
      "ĠáĬĽ": 6293,
      "áĪĺáĬĵ": 6294,
      "Ġacikin": 6295,
      "ĠAct": 6296,
      "ĠTarihi": 6297,
      "rist": 6298,
      "áĭ°áĪµ": 6299,
      "ĠIsa": 6300,
      "ĠáĮĭáĪ«": 6301,
      "ografia": 6302,
      "ĠJoseph": 6303,
      "irÃŃ": 6304,
      "ĠLim": 6305,
      "á¹£Ã²": 6306,
      "Ġegbe": 6307,
      "Ġbaadaye": 6308,
      "ĠáįįáĪ¬": 6309,
      "Ġfilin": 6310,
      "ĠáĬłáĪīáīµ": 6311,
      "ĠMs": 6312,
      "ĠKai": 6313,
      "ĠreprÃ©sent": 6314,
      "Ġquel": 6315,
      "ĠInstit": 6316,
      "áĬķáĮĮ": 6317,
      "Awá»įn": 6318,
      "ĠkÃł": 6319,
      "Ġáĭ¨áĬ¨": 6320,
      "ĠáĭįáĪĢ": 6321,
      "ultur": 6322,
      "sÃŃtÃ¬": 6323,
      "fen": 6324,
      "Ġgra": 6325,
      "Ġjinsi": 6326,
      "Ġáĭ¨áĪ±": 6327,
      "áĮłáĪĪ": 6328,
      "umar": 6329,
      "ĠáĪĺáĮį": 6330,
      "ĠáĭķáĪĪáī°": 6331,
      "velopment": 6332,
      "Ġmont": 6333,
      "ĬáĭľáĪĿ": 6334,
      "engo": 6335,
      "ĠArt": 6336,
      "ĠQue": 6337,
      "Ġsauransu": 6338,
      "áĮłáīµ": 6339,
      "ĠáĪįáĮģ": 6340,
      "áĬĽáĭįáĪĿ": 6341,
      "ollow": 6342,
      "áĭ³áĭµ": 6343,
      "zon": 6344,
      "áĬ£": 6345,
      "Ġáĭ¨áīł": 6346,
      "Ġwrit": 6347,
      "anth": 6348,
      "neo": 6349,
      "Ġcro": 6350,
      "ĠBau": 6351,
      "áī¥áĪŃáĪĥ": 6352,
      "mÃ²": 6353,
      "Ġjeshi": 6354,
      "ĠÃłp": 6355,
      "ĠáĭŃáĪĺ": 6356,
      "ĠWá»į": 6357,
      "ĠÃ¬dÃ¡": 6358,
      "Ġakoko": 6359,
      "Ġáīª": 6360,
      "unt": 6361,
      "quement": 6362,
      "ĠJar": 6363,
      "2010": 6364,
      "eren": 6365,
      "Ġáĭ¨áĮĭ": 6366,
      "uter": 6367,
      "Ġkuf": 6368,
      "ĠZanzibar": 6369,
      "ĠYoruba": 6370,
      "73": 6371,
      "ĠBu": 6372,
      "ĠPa": 6373,
      "áĭĿáĪĿ": 6374,
      "omm": 6375,
      "Ġiwe": 6376,
      "kofu": 6377,
      "ĠáīłáĪĺáĪĨáĬķ": 6378,
      "ĠÃĮbÃłdÃłn": 6379,
      "Ġkáº¹rin": 6380,
      "Ġgid": 6381,
      "yota": 6382,
      "kunan": 6383,
      "Ġbro": 6384,
      "ĠáĬ¨áĪĿ": 6385,
      "Ġdesc": 6386,
      "áĪ²áĭ«": 6387,
      "Ġpolitique": 6388,
      "Ġáī°áĮĪ": 6389,
      "2009": 6390,
      "Ġáī¢áĭ«": 6391,
      "Ġtaken": 6392,
      "estival": 6393,
      "ĠlÃ²": 6394,
      "Ã¬má»į": 6395,
      "ĠOff": 6396,
      "áĪİáī¹": 6397,
      "Ġthan": 6398,
      "Ġwengine": 6399,
      "ĠBlack": 6400,
      "Ġ1958": 6401,
      "Ġkabila": 6402,
      "Duk": 6403,
      "ututt": 6404,
      "Ġbetween": 6405,
      "áīłáĬĭáĪĭ": 6406,
      "ĠGen": 6407,
      "Ġáĭ«áĭĺ": 6408,
      "Lakini": 6409,
      "ĠÃłÃł": 6410,
      "ĠNd": 6411,
      "ĠIk": 6412,
      "ĠlÃ¡báº¹": 6413,
      "pindi": 6414,
      "Ġ),": 6415,
      "Ġname": 6416,
      "áįįáĬķ": 6417,
      "áĬ«áĬ¤áĪį": 6418,
      "Ġáĭ¨áĬłáĭ¨áĪŃ": 6419,
      "yst": 6420,
      "Ġani": 6421,
      "ĠáĭįáĪĥ": 6422,
      "ists": 6423,
      "áīĤáĭ«": 6424,
      "NA": 6425,
      "sar": 6426,
      "amia": 6427,
      "uriyar": 6428,
      "ĠRed": 6429,
      "ĠáīłáĬ¤": 6430,
      "ÉĹu": 6431,
      "Ġwhen": 6432,
      "Ġhilo": 6433,
      "Ġgroup": 6434,
      "jÃ³": 6435,
      "ating": 6436,
      "Ġáī£áĪķáĪŃ": 6437,
      "ĠfranÃ§aise": 6438,
      "ĠSu": 6439,
      "ĠBest": 6440,
      "insu": 6441,
      "ĠáĪłáĪ«áĭĬáīµ": 6442,
      "ĠRobert": 6443,
      "áī¨áĪŃáĪ²áī²": 6444,
      "ĠKal": 6445,
      "ĠáĪĪáĪļ": 6446,
      "Ġshekarun": 6447,
      "Ġayáº¹": 6448,
      "Ġabubuwan": 6449,
      "icin": 6450,
      "Ġtour": 6451,
      "ek": 6452,
      "gor": 6453,
      "Ġmuk": 6454,
      "áĭ«áĪľ": 6455,
      "ĠáīłáĪĭ": 6456,
      "Ġ2021": 6457,
      "Ġx": 6458,
      "Agbegbe": 6459,
      "Ġham": 6460,
      "Ġgbe": 6461,
      "Ġvili": 6462,
      "ĠáĮĥ": 6463,
      "Ġwasannin": 6464,
      "ĠJamus": 6465,
      "Ġáįªáį»áį": 6466,
      "ried": 6467,
      "ĠGabas": 6468,
      "ville": 6469,
      "Ġtatu": 6470,
      "áīłáĬłáĪ": 6471,
      "Ġzake": 6472,
      "Ġáī°áĮ½": 6473,
      "Ġcentury": 6474,
      "ĠUrusi": 6475,
      "áĬ¨áī°áĪĽáĭį": 6476,
      "Ġiki": 6477,
      "Ġpeople": 6478,
      "ories": 6479,
      "ĠIbn": 6480,
      "ĠáĪĿáĬķáĮĬáĭľáĪĿ": 6481,
      "2014": 6482,
      "rement": 6483,
      "Ġparticuli": 6484,
      "esab": 6485,
      "lit": 6486,
      "Ġhistoria": 6487,
      "Ġnipa": 6488,
      "ĠáĭŃáīĨ": 6489,
      "ester": 6490,
      "ĠYohane": 6491,
      "Ġfound": 6492,
      "ĠáĬłáĭĭ": 6493,
      "ombo": 6494,
      "âĢ¹": 6495,
      "sÃ¨": 6496,
      "Ġcelui": 6497,
      "ĠPal": 6498,
      "ions": 6499,
      "Ġáĭ¨áįĬ": 6500,
      "ĠáĪ²áĪį": 6501,
      "lished": 6502,
      "ĠIbile": 6503,
      "ĠáĬłáĪ«áīµ": 6504,
      "Ġsakandare": 6505,
      "hol": 6506,
      "Ġkina": 6507,
      "Ġcig": 6508,
      "ÃºÃºsÃ¹": 6509,
      "ĠCong": 6510,
      "Ġambako": 6511,
      "Ġdisc": 6512,
      "Ġmfano": 6513,
      "áĪĨáĬĸáĪĿ": 6514,
      "mani": 6515,
      "áĪªáīĥ": 6516,
      "ĠáĬłáĪįáī°": 6517,
      "64": 6518,
      "Vi": 6519,
      "uel": 6520,
      "iken": 6521,
      "ĠBC": 6522,
      "ĠOf": 6523,
      "ĠáĪĬáīĥ": 6524,
      "Ġlib": 6525,
      "ĠWal": 6526,
      "dio": 6527,
      "ĠáĪ°áĬĲ": 6528,
      "áī¸áĭī": 6529,
      "aisari": 6530,
      "ĠMagharibi": 6531,
      "assa": 6532,
      "wane": 6533,
      "áĬķáĮīáĪ¥": 6534,
      "áĬķáī¥": 6535,
      "irika": 6536,
      "utan": 6537,
      "ĠTai": 6538,
      "áĪīáĬķ": 6539,
      "ĠáīĦ": 6540,
      "áĭŃáĪģ": 6541,
      "ĠáĬĲáĮ¥": 6542,
      "CC": 6543,
      "ĠSab": 6544,
      "Ġjimbo": 6545,
      "áī¡áĬķ": 6546,
      "ĠrÃ©fÃ©r": 6547,
      "ĠMkuu": 6548,
      "inc": 6549,
      "Ġnation": 6550,
      "ĠáįĮ": 6551,
      "áīģáīµ": 6552,
      "Ġhaifar": 6553,
      "Ġtsohuwar": 6554,
      "viron": 6555,
      "ual": 6556,
      "Ġwur": 6557,
      "ĠNollywood": 6558,
      "tsu": 6559,
      "áĬķáīĢ": 6560,
      "Ġ(;": 6561,
      "utes": 6562,
      "ĠáĮĬáĭ®áĪŃáĮĬáĪµ": 6563,
      "ĠDemocr": 6564,
      "áī¥áĬĽ": 6565,
      "tawala": 6566,
      "áĬķáĮįáĪį": 6567,
      "anzisha": 6568,
      "ĠáīĨáĭŃ": 6569,
      "esabiwa": 6570,
      "ĠáĭĪáĮ¥": 6571,
      "áĪįáĪµáįįáĬĵ": 6572,
      "ĠPakistan": 6573,
      "Ġaff": 6574,
      "Ġjiki": 6575,
      "lafazi": 6576,
      "ĠÉĹin": 6577,
      "alaam": 6578,
      "iyoyi": 6579,
      "ĠáĬłáĪĺáī³áīµ": 6580,
      "Ġyears": 6581,
      "Ġhannun": 6582,
      "Ġdirect": 6583,
      "ĠáĮĮáī³": 6584,
      "Ġáī°áĬŃáĪį": 6585,
      "áĪĬáĬķ": 6586,
      "Ġsour": 6587,
      "Ġjá»į": 6588,
      "entes": 6589,
      "ĠáĪĺáĮ»áĪķáįįáīµ": 6590,
      "ĠPop": 6591,
      "Ġpeu": 6592,
      "ĠáĪĬáīĢ": 6593,
      "zation": 6594,
      "tein": 6595,
      "ĠáĮĪáĭ¥": 6596,
      "Ġ1956": 6597,
      "::": 6598,
      "áĪĺáĮ¥": 6599,
      "áĪĽáĭįáĭ«áĬķ": 6600,
      "ĠáĪĨáĬĳ": 6601,
      "Ġiyaka": 6602,
      "adarwa": 6603,
      "ful": 6604,
      "mfuata": 6605,
      "ĠáĬłáĭĺ": 6606,
      "ĠSikukuu": 6607,
      "áĪªáĬ®áī½": 6608,
      "áĬ«áĪĦ": 6609,
      "Ġagba": 6610,
      "tak": 6611,
      "Ġmay": 6612,
      "amed": 6613,
      "ĠRiver": 6614,
      "Ġleurs": 6615,
      "ternet": 6616,
      "amare": 6617,
      "áĪĪáīĢ": 6618,
      "ĠIsra": 6619,
      "las": 6620,
      "áĪ¨áĪŃ": 6621,
      "chni": 6622,
      "ĠáĭŃáĮĪáĬĽáĪī": 6623,
      "ĠAustralia": 6624,
      "Jina": 6625,
      "ĠáĬĥ": 6626,
      "Ġkaya": 6627,
      "Ġganin": 6628,
      "ties": 6629,
      "ĠKale": 6630,
      "ĠÃłjá»į": 6631,
      "Ġharkokin": 6632,
      "Ġgbá»į": 6633,
      "Ġhuadhim": 6634,
      "áī·áĬķ": 6635,
      "Ġfitar": 6636,
      "Ġmnamo": 6637,
      "Ġáĭ¨áĪļáĮĪáĬĿáīłáīµ": 6638,
      "ĠáĬ¥áĬ©áĪį": 6639,
      "Ġáĭ¨áīĢáĭµáĪŀ": 6640,
      "----": 6641,
      "ĠMw": 6642,
      "ĠCali": 6643,
      "Ġmahali": 6644,
      "ĠtÃŃtÃŃ": 6645,
      "áĬĴáĪįáĬŃ": 6646,
      "Ġ+": 6647,
      "oly": 6648,
      "Ġáĭķáĭµ": 6649,
      "ĠáīłáĬłáĪģáĬĳ": 6650,
      "ĠSoko": 6651,
      "áĭŃáĪħáĪĿ": 6652,
      "Ġdukkan": 6653,
      "65": 6654,
      "Mah": 6655,
      "Ġmort": 6656,
      "ĠáįĴ": 6657,
      "ĠáīłáĪĢ": 6658,
      "Ġunder": 6659,
      "ĠáĪĺáĬķáĮįáĪ¥áī³áīµ": 6660,
      "Ġtous": 6661,
      "89": 6662,
      "Ġsáº¹": 6663,
      "odo": 6664,
      "áįĬáĭ«": 6665,
      "áĪ°áĪĽ": 6666,
      "ĠBauchi": 6667,
      "cia": 6668,
      "Ġdest": 6669,
      "ĠáīĤ": 6670,
      "áĬĲáĮį": 6671,
      "Ġsyn": 6672,
      "Ġkudancin": 6673,
      "ĠáĬłáīĢáįį": 6674,
      "Ġnufin": 6675,
      "abba": 6676,
      "ĠáĬ¨áī£": 6677,
      "taire": 6678,
      "ĠáīłáĪŀ": 6679,
      "Ġterme": 6680,
      "áĭŀáī½": 6681,
      "Ġkansa": 6682,
      "Ġkoloni": 6683,
      "ishe": 6684,
      "stitu": 6685,
      "Ġselon": 6686,
      "Ġáĭ¨áĪģ": 6687,
      "ilishi": 6688,
      "Ġáī¥áĪĶáĪŃ": 6689,
      "Ġgirm": 6690,
      "ĠáĬłáĮĪáĪįáĮįáĪİáīµ": 6691,
      "ambia": 6692,
      "áĭ°áĪŃáĮį": 6693,
      "ĠUsman": 6694,
      "Waliozaliwa": 6695,
      "Wa": 6696,
      "Ġáī°áĮ«": 6697,
      "ĠáĬŃáĪĪáī¥": 6698,
      "ĠáĮĪáī¥áĪ¨": 6699,
      "orm": 6700,
      "hael": 6701,
      "áĭ¨áĪ©": 6702,
      "áĮĬáĭľáĭį": 6703,
      "To": 6704,
      "Ġoko": 6705,
      "ieux": 6706,
      "ĠáĬĲáĮĪáĪ¥áīµ": 6707,
      "Ġáĭ¨áĭĵáĪĺáī±": 6708,
      "Ġsystem": 6709,
      "áįı": 6710,
      "Ġwatsa": 6711,
      "ĠhuÉĹu": 6712,
      "Ġsaman": 6713,
      "ĠBrazil": 6714,
      "ĠAkin": 6715,
      "Ġonly": 6716,
      "Ġáĭ¨áĬĲáĮĪ": 6717,
      "áĮĬáĭ«": 6718,
      "uvent": 6719,
      "44": 6720,
      "áĭ·": 6721,
      "aika": 6722,
      "Ġáĭ¨áĬĲáīłáĪ©áīµ": 6723,
      "Ġjap": 6724,
      "enta": 6725,
      "ĠáĬ¥áĬķáīħáĪµáīĥáĪ´": 6726,
      "opa": 6727,
      "....": 6728,
      "ĠÃ©crit": 6729,
      "view": 6730,
      "ĠáīłáĪĺáī£áĪį": 6731,
      "undin": 6732,
      "ĠgboyÃ¨": 6733,
      "Ġibile": 6734,
      "Ġáĭ¨áī°áī£áĪĪ": 6735,
      "Ġtiti": 6736,
      "Ġnahiyar": 6737,
      "Ġáĭ¨áĪļáĪ°áĪ«": 6738,
      "ĠBurtaniya": 6739,
      "ĠáĬ¨áĮį": 6740,
      "áĬ¨áĬĵ": 6741,
      "xim": 6742,
      "omina": 6743,
      "ĠyÃłn": 6744,
      "ĠâĢ¹": 6745,
      "):": 6746,
      ")áį¢": 6747,
      "áĭŃáĪį": 6748,
      "áĪ³áĪ°": 6749,
      "row": 6750,
      "ĠOrÃŃláº¹": 6751,
      "ĠLouis": 6752,
      "Ġáĭ¨áĮĢáĪŃáĪĺáĬķ": 6753,
      "ĠáĬłáĬĵ": 6754,
      "lÃ©e": 6755,
      "tÃ©r": 6756,
      "Ġibn": 6757,
      "Ġimani": 6758,
      "ĠGrand": 6759,
      "Ġorigin": 6760,
      "ĠáĪĺáĬ®": 6761,
      "haji": 6762,
      "ĠGasar": 6763,
      "Ġáĭ«áĪĭáī¸áĭį": 6764,
      "Ġsuite": 6765,
      "ĠáĬłáĪµáįĪ": 6766,
      "Ġ×": 6767,
      "áĬĵáĮĪáĪŃ": 6768,
      "ĠRoyal": 6769,
      "ĠáĬ¨áĮ¥": 6770,
      "jÃ¡de": 6771,
      "ĠáĬłáĮł": 6772,
      "adun": 6773,
      "ĠáĪºáĪħ": 6774,
      "Ġnational": 6775,
      "ĠáĬ¨áĪµ": 6776,
      "áĭ±áīµ": 6777,
      "Ġáī°áĪĺáĪ³áĪ³áĭŃ": 6778,
      "wiwa": 6779,
      "inin": 6780,
      "abaki": 6781,
      "Ġtafi": 6782,
      "ĠáĪĺáĪ£": 6783,
      "ĠáĪĽáĬħ": 6784,
      "ĠÉĹari": 6785,
      "ĠMaria": 6786,
      "Ġsabon": 6787,
      "tÃº": 6788,
      "ĠáĬ¥áĪĿ": 6789,
      "eland": 6790,
      "Ġáĭ¨áĪĨáĬĲáĭį": 6791,
      "ayensi": 6792,
      "ĠIV": 6793,
      "ĠáĪĬáĭ«": 6794,
      "ĠNews": 6795,
      "nÃ©es": 6796,
      "atis": 6797,
      "ĠKab": 6798,
      "Ġ1951": 6799,
      "ĠáĮĢáĪŃáĪĺáĬķ": 6800,
      "áĬ®áĬĸáĪļ": 6801,
      "Ġgouver": 6802,
      "umm": 6803,
      "Ġgroupe": 6804,
      "ace": 6805,
      "ĠKÃ¡": 6806,
      "gbÃ³": 6807,
      "ĠGod": 6808,
      "jejen": 6809,
      "ĠwÃ¡yÃ©": 6810,
      "ĠáīµáĬķáĪ½": 6811,
      "John": 6812,
      "áĪįáĮĭ": 6813,
      "ĠspÃ©": 6814,
      "ĠáĪµáĬķ": 6815,
      "áĪ¥áĪ«": 6816,
      "hoto": 6817,
      "ĠáĪĪáĪĽáĪµ": 6818,
      "sible": 6819,
      "ĠMary": 6820,
      "ĠDunia": 6821,
      "ĠáĬłáī£áĪĭáīµ": 6822,
      "Ġduring": 6823,
      "Ġáĭ°áĪ´áīµ": 6824,
      "hÃ¬n": 6825,
      "ĠtÃ¬": 6826,
      "Ġdem": 6827,
      "ĠCO": 6828,
      "ĠJama": 6829,
      "ĠÃ¬rÃ²yÃ¬n": 6830,
      "ĠlÃ³rÃŃláº¹": 6831,
      "Ġgege": 6832,
      "Babban": 6833,
      "Jihar": 6834,
      "Ø©": 6835,
      "ĠcÃ´": 6836,
      "ict": 6837,
      "áĭ³áĪª": 6838,
      "07": 6839,
      "ĠAba": 6840,
      "Ġrah": 6841,
      "áĪĭáĪĭ": 6842,
      "Ġáĭ¨áĬłáĭįáĪ®áįĵ": 6843,
      "Ġtradition": 6844,
      "jáº¹s": 6845,
      "ĠFrench": 6846,
      "ĠBook": 6847,
      "áĬĲáĬĽ": 6848,
      "ĠáĬłáĪĿáī£": 6849,
      "Ġcibiyar": 6850,
      "orig": 6851,
      "chÃ©": 6852,
      "Ġcommer": 6853,
      "Ġtabbatar": 6854,
      "áĬĲáĪ£": 6855,
      "ĠáĮįáĭµ": 6856,
      "Ġgabas": 6857,
      "Ġdim": 6858,
      "Ġciv": 6859,
      "ĠáĬłáĮį": 6860,
      "áĬŃáĪŃáĪµáī¶áĪµ": 6861,
      "Ġmaisha": 6862,
      "ĠAustria": 6863,
      "Ġdoc": 6864,
      "ĠáĬ¥áĪ«áĪ±": 6865,
      "Ġran": 6866,
      "Ġáĭ¨áĬ¡": 6867,
      "Ġ1948": 6868,
      "illar": 6869,
      "ĠáīĥáĪĭáīµ": 6870,
      "98": 6871,
      "ged": 6872,
      "mb": 6873,
      "sÃ¡": 6874,
      "ĠBak": 6875,
      "ĠHo": 6876,
      "ĠáĬŃáįįáĪĭáĮĪáĪŃ": 6877,
      "Ġmallaka": 6878,
      "Ġren": 6879,
      "oles": 6880,
      "Ġsakamakon": 6881,
      "ator": 6882,
      "ĠyÃł": 6883,
      "ĠÃ¬f": 6884,
      "Ġplay": 6885,
      "ĠáĮĢáĪĺáĪ¨": 6886,
      "ulaire": 6887,
      "TV": 6888,
      "ĠLaf": 6889,
      "imba": 6890,
      "ĠáĭĵáĭŃáĬĲáīµ": 6891,
      "¢áīµáĭ®áĮµáĭ«áĬķ": 6892,
      "Ġ1940": 6893,
      "56": 6894,
      "con": 6895,
      "uj": 6896,
      "olowo": 6897,
      "okuta": 6898,
      "áī£áī¢áĪİáĬķ": 6899,
      "Ġáī°áĬ¨áī³áĭŃ": 6900,
      "áĪ¯áĪį": 6901,
      "ĠMy": 6902,
      "Ã¬wÃ©": 6903,
      "Ġeyi": 6904,
      "Ġzaune": 6905,
      "áĪİáĪµ": 6906,
      "Ġami": 6907,
      "ĠHausawa": 6908,
      "ĠTer": 6909,
      "Ġend": 6910,
      "ĠJapon": 6911,
      "ĠUb": 6912,
      "Ġmajor": 6913,
      "ĠáĮ£áĪį": 6914,
      "Far": 6915,
      "geme": 6916,
      "Ġáĭ¨áĪ«áĪ±": 6917,
      "Ġáī°áĭ°áĪŃ": 6918,
      "ĠáĪ°áĪŃ": 6919,
      "áĮİáī½": 6920,
      "ĠáĮĦ": 6921,
      "Ġá»įlá»į": 6922,
      "ĠáīĢáĭŃ": 6923,
      "Ġwatakatifu": 6924,
      "ĠGirl": 6925,
      "ĠpÃ©riode": 6926,
      "áĬķáĮ»": 6927,
      "ĠáīłáĬ«": 6928,
      "koki": 6929,
      "Ġyanayi": 6930,
      "Ġ1930": 6931,
      "Ġlittafin": 6932,
      "ĠOyo": 6933,
      "angwa": 6934,
      "Ġtrava": 6935,
      "Ġclass": 6936,
      "tÃºn": 6937,
      "Ġmani": 6938,
      "isan": 6939,
      "ĠHigh": 6940,
      "ĠáĪµáĭ«áĪľ": 6941,
      "áĬķáĮįáĪ¥áīµ": 6942,
      "Ġhistori": 6943,
      "Ġyo": 6944,
      "ĠáĪĿáĪħ": 6945,
      "ull": 6946,
      "rain": 6947,
      "2008": 6948,
      "Ġkimataifa": 6949,
      "ctions": 6950,
      "Ġcheo": 6951,
      "Ġmambo": 6952,
      "ĠMusic": 6953,
      "Ġáĭ¨áĪħáĭĿáī¥": 6954,
      "sy": 6955,
      "Ġzane": 6956,
      "ĠWais": 6957,
      "ĠRec": 6958,
      "okacin": 6959,
      "ĠáĪĺáĪįáĬ©": 6960,
      "Ġsaba": 6961,
      "onin": 6962,
      "ught": 6963,
      "2011": 6964,
      "ammed": 6965,
      "julo": 6966,
      "liwa": 6967,
      "ĠoyÃ¨": 6968,
      "ĠKwam": 6969,
      "2017": 6970,
      "áĭµáĪ¨": 6971,
      "41": 6972,
      "áĪĽáī¸áĭį": 6973,
      "Ġáĭ°áī¥": 6974,
      "ĠFarans": 6975,
      "emo": 6976,
      "ĠPres": 6977,
      "áī³áĪĿ": 6978,
      "rian": 6979,
      "ĠYuni": 6980,
      "áīĭáīĭ": 6981,
      "unifÃ¡sÃŃtÃ¬": 6982,
      "ple": 6983,
      "ĠáĬŃáĪŃ": 6984,
      "áĪªáī³áĬķáĭ«": 6985,
      "áĪĪáī±": 6986,
      "Ġfac": 6987,
      "Ġáī¤áī¶áī½": 6988,
      "ĠIslam": 6989,
      "ĠAw": 6990,
      "usin": 6991,
      "ĠGa": 6992,
      "rix": 6993,
      "ÉĹin": 6994,
      "Ġkok": 6995,
      "Ġmuziki": 6996,
      "Ġkyau": 6997,
      "Ġjamii": 6998,
      "Ġjiho": 6999,
      "ĠáĮ¤": 7000,
      "Ġ1954": 7001,
      "Ġmall": 7002,
      "ĠáĬĽáĭį": 7003,
      "áĪŃáĬĵ": 7004,
      "Ġáĭ¨áĪĻáĭļáīĥ": 7005,
      "ĠáĮįáĬķáĬĻáĬĲáīµ": 7006,
      "%)": 7007,
      "ĠáīłáĭŃ": 7008,
      "ĠjÃ©": 7009,
      "ĠOlÃº": 7010,
      "Ġfadin": 7011,
      "tif": 7012,
      "oule": 7013,
      "Ġshafi": 7014,
      "áįĲáī¥áĪĬáĬŃ": 7015,
      "ĠsystÃ¨me": 7016,
      "Ġlanga": 7017,
      "áĮįáĪĽáĭĬ": 7018,
      "stan": 7019,
      "áĪµáīµáĪª": 7020,
      "ĠáĬ¥áĪµáĬ«": 7021,
      "try": 7022,
      "Ġabu": 7023,
      "Ãºpá»į": 7024,
      "áĮįáĬĵ": 7025,
      "ĠBl": 7026,
      "Ġ1947": 7027,
      "Tari": 7028,
      "ĠKur": 7029,
      "Ġmaa": 7030,
      "tÃłgÃ©": 7031,
      "Ġcelle": 7032,
      "ĠáĪĿáĭķáĪ«": 7033,
      "ĠáĬ¥áĬķáĭ´áīµ": 7034,
      "ities": 7035,
      "ĠAgusta": 7036,
      "ĠdÃ©but": 7037,
      "Is": 7038,
      "Ġrike": 7039,
      "atia": 7040,
      "otun": 7041,
      "Ã´le": 7042,
      "ĠKingdom": 7043,
      "ĠInstitute": 7044,
      "43": 7045,
      "tra": 7046,
      "hudi": 7047,
      "historia": 7048,
      "Ġrangi": 7049,
      "LÃ¡": 7050,
      "kk": 7051,
      "ĠWam": 7052,
      "ĠamÃ©ric": 7053,
      "ĠáĭĭáĮĭ": 7054,
      "Ġ70": 7055,
      "ĠSudan": 7056,
      "Ġáĭ¨áĪį": 7057,
      "ĠDon": 7058,
      "áįĸáĪŃáīµ": 7059,
      "ĠChamp": 7060,
      "Ġá»Įba": 7061,
      "alsafa": 7062,
      "Ġcertain": 7063,
      "100": 7064,
      "Ġnit": 7065,
      "urar": 7066,
      "ĠLab": 7067,
      "áĮ»áįĪ": 7068,
      "Ġzilizo": 7069,
      "Ġwenyewe": 7070,
      "61": 7071,
      "áĮłáī¥": 7072,
      "Ġsuc": 7073,
      "áī¢áĭŃ": 7074,
      "ĠáĪģáĪĪáī°áĬĽ": 7075,
      "abili": 7076,
      "Ġáĭ©áĬĴáī¨áĪŃáĪ²áī²": 7077,
      "Ġnde": 7078,
      "ikisho": 7079,
      "ederal": 7080,
      "ĠWilaya": 7081,
      "ÉĹi": 7082,
      "Ġonimo": 7083,
      "Ġyawancin": 7084,
      "ĠáĬłáĭįáĪ«": 7085,
      "ĠMichael": 7086,
      "ird": 7087,
      "áĮĭáĮĪáĪŃ": 7088,
      "ĠáĬ¨áĭļáĭ«áĪĿ": 7089,
      "Ġbuk": 7090,
      "ĠKid": 7091,
      "ico": 7092,
      "ĠáĮ¨áĪĿáĪ®": 7093,
      "ĠRichard": 7094,
      "gÃ³": 7095,
      "gine": 7096,
      "ĠSup": 7097,
      "ĠÃłgbÃ¡yÃ©": 7098,
      "2002": 7099,
      "Ġambapo": 7100,
      "jáº¹sÃ¡ra": 7101,
      "PP": 7102,
      "gne": 7103,
      "Ġdashi": 7104,
      "Ġyakin": 7105,
      "áįĬáĭİáī½": 7106,
      "Ġwadannan": 7107,
      "yyuka": 7108,
      "áīĢáĪĺáĮ«": 7109,
      "ĠáĮ½áĪķáįĪáīµ": 7110,
      "Ġidi": 7111,
      "áīħáĭ«áĬĸáĪµ": 7112,
      "Ġfl": 7113,
      "Ġru": 7114,
      "Ġáī°áĪĺáĪį": 7115,
      "His": 7116,
      "ĠRoman": 7117,
      "ĠYo": 7118,
      "Ġanti": 7119,
      "áī¹áĬķ": 7120,
      "áĭ°áī¥áĪ¨": 7121,
      "03": 7122,
      "68": 7123,
      "enga": 7124,
      "ĠAwon": 7125,
      "ĠáĬłáĬŃ": 7126,
      "áĬŃáĪĿáĬĵ": 7127,
      "ĠáīłáĪ¥": 7128,
      "ĠAnamb": 7129,
      "htm": 7130,
      "Ġáīłáī¥áĭĻ": 7131,
      "ĠsociÃ©tÃ©": 7132,
      "ªáĭ«": 7133,
      "ĠáĮ¥áīłáī¥": 7134,
      "ublique": 7135,
      "Ġbangaren": 7136,
      "OR": 7137,
      "áĪ¦": 7138,
      "áĪ¬áĬķ": 7139,
      "Lugha": 7140,
      "ced": 7141,
      "ĠáĬłáī¡": 7142,
      "áĪĲáĪ´": 7143,
      "artar": 7144,
      "ĠKijerumani": 7145,
      "Ġayáº¹yáº¹": 7146,
      "Ġyaki": 7147,
      "ĠáīłáĮĭ": 7148,
      "áĭµáīħ": 7149,
      "áĪ³áĭį": 7150,
      "ourd": 7151,
      "áĮ½áĭĭáīµ": 7152,
      "ĠáĬłáĪµáī°áĭ³áĭ°áĮį": 7153,
      "bon": 7154,
      "Ġgo": 7155,
      "vement": 7156,
      "Ġyanke": 7157,
      "atsayin": 7158,
      "ĠáįĪáĪ¨áĬķáĪ³áĭŃ": 7159,
      "Ġmtu": 7160,
      "ĠTal": 7161,
      "ĠGree": 7162,
      "Ġká»įkÃłn": 7163,
      "fore": 7164,
      "Ġdog": 7165,
      "ayari": 7166,
      "ĠáĮĪáĬĵ": 7167,
      "áĭ«áīĦ": 7168,
      "Ġhana": 7169,
      "ĠSalaam": 7170,
      "ĠáĪĺáī¥": 7171,
      "ĠáĪĺáĬĸ": 7172,
      "áĪ«áĭįáĭ«áĬķ": 7173,
      "Ġzo": 7174,
      "Ġáī²": 7175,
      "áĪŃáī³": 7176,
      "enia": 7177,
      "Ġcho": 7178,
      "ophi": 7179,
      "Ġáĭĺáĭį": 7180,
      "Ġguerre": 7181,
      "ĠCongress": 7182,
      "ĠAth": 7183,
      "Ġband": 7184,
      "ĠWil": 7185,
      "ashington": 7186,
      "Ġshahar": 7187,
      "Ãªt": 7188,
      "áĪµáī°áĪŃ": 7189,
      "ĠáĬĲáįĥ": 7190,
      "ĠEr": 7191,
      "ĠáĭĵáĪĭáĪĽ": 7192,
      "áĮĭáī¢áīµ": 7193,
      "ection": 7194,
      "ĠrÃ©g": 7195,
      "ĠlÃ©g": 7196,
      "ctÃ©": 7197,
      "asc": 7198,
      "ĠáĪĿáĬĴáĪįáĬŃ": 7199,
      "ĠAssociation": 7200,
      "ĠáĮłáīħáĪĭáĭŃ": 7201,
      "pond": 7202,
      "áī°áĬĵ": 7203,
      "áĪĺáĬĵáĭĬ": 7204,
      "Ġosu": 7205,
      "ĠÃ¬p": 7206,
      "ĠMpaka": 7207,
      "ĠáĪļáĬĴáĪµáīµáĪŃ": 7208,
      "Kuma": 7209,
      "cept": 7210,
      "ĠáĪ¥áĮĭ": 7211,
      "Ġpeup": 7212,
      "ĠThomas": 7213,
      "Ġnombreux": 7214,
      "shiryen": 7215,
      "ĠáĪĺáĮĢáĪĺáĪªáĭ«": 7216,
      "Ġáĭķáĭį": 7217,
      "ĠÙ": 7218,
      "ĠAbi": 7219,
      "ĠHistory": 7220,
      "2018": 7221,
      "Ġáĭ¨áĪĺáĮ£": 7222,
      "ĠáĪľáĭ³": 7223,
      "Ġinflu": 7224,
      "Ġgi": 7225,
      "ĠSom": 7226,
      "ĠPoli": 7227,
      "ĠUN": 7228,
      "2013": 7229,
      "engene": 7230,
      "Ġwakifuata": 7231,
      "áĭ«áĭįáĭ«áĬķ": 7232,
      "ĠáĪĺáĪĭ": 7233,
      "rough": 7234,
      "ĠArts": 7235,
      "mark": 7236,
      "ĠáĬªáĭ³áĬķ": 7237,
      "ĠKanada": 7238,
      "Åĵuv": 7239,
      "AR": 7240,
      "Ġsanar": 7241,
      "áĬķáĭµáĪµáĬĵ": 7242,
      "áĬķáĮįáĪµáīµ": 7243,
      "áĬĴáīµ": 7244,
      "entifi": 7245,
      "Ġinganta": 7246,
      "dan": 7247,
      "elli": 7248,
      "ĠáĪĪáĭĪ": 7249,
      "acc": 7250,
      "aiss": 7251,
      "ĠáĪĬáĪĨáĬķ": 7252,
      "ĠáĬ¢áĬķ": 7253,
      "ype": 7254,
      "ĠAsh": 7255,
      "áĪĪáĪį": 7256,
      "ĠPers": 7257,
      "chungu": 7258,
      "Ġuishe": 7259,
      "endre": 7260,
      "Ġabáº¹": 7261,
      "Ġstate": 7262,
      "Ġhuadhimisha": 7263,
      "áĪĪáīłáīµ": 7264,
      "Ġdev": 7265,
      "edi": 7266,
      "ĠáĪįáĪĽ": 7267,
      "bai": 7268,
      "kn": 7269,
      "wari": 7270,
      "yam": 7271,
      "Ġweb": 7272,
      "áĮ»áįį": 7273,
      "ĠáĪļáĬ«áĬ¤áĪį": 7274,
      "Ġlau": 7275,
      "Ġsiyasan": 7276,
      "áĪĿáīłáĪŃ": 7277,
      "ĠpÃłÃ¡": 7278,
      "ĠIá¹£áº¹": 7279,
      "áīłáĪ®": 7280,
      "NÃŃgbÃł": 7281,
      "Ġtakriban": 7282,
      "áĭ°áĪŃáĪµ": 7283,
      "andard": 7284,
      "ige": 7285,
      "rict": 7286,
      "ĠPoland": 7287,
      "Ġhigh": 7288,
      "ĠKif": 7289,
      "áĮ¥áĬĲáīµ": 7290,
      "áī¤áī±": 7291,
      "lov": 7292,
      "Ġmor": 7293,
      "ĠApp": 7294,
      "akana": 7295,
      "ĠWh": 7296,
      "rich": 7297,
      "áĮĥáĭĿáĪĽáī½": 7298,
      "Ġ1953": 7299,
      "58": 7300,
      "</": 7301,
      "ĠfÃ¬": 7302,
      "Ġzao": 7303,
      "exp": 7304,
      "ubuce": 7305,
      "áĪµáī³áĬķ": 7306,
      "ĠáĬłáĪµáī°áĭ³áĭ°áĪŃ": 7307,
      "Ġzinabaki": 7308,
      "ÃĴun": 7309,
      "ababisha": 7310,
      "rad": 7311,
      "Ġzabe": 7312,
      "áĭ¨áĪµ": 7313,
      "ĠPremi": 7314,
      "ĠMovie": 7315,
      "br": 7316,
      "ĠáĮ¸áĪĲáįĬ": 7317,
      "ĠSokoto": 7318,
      "ulin": 7319,
      "ĠáĭĪáĭĺ": 7320,
      "Ġáĭ«áĭį": 7321,
      "udes": 7322,
      "ĠáĪĻáĭļáīĥ": 7323,
      "ĠáĬªáĪİ": 7324,
      "Ãīt": 7325,
      "ĠáīłáĪŃáĬ«áī³": 7326,
      "ĠáĬłáĪĽáĬ«": 7327,
      "ĠDemocratic": 7328,
      "Ko": 7329,
      "Ġzar": 7330,
      "Ġkwenda": 7331,
      "ĠÃ²á¹£Ã¨lÃº": 7332,
      "yle": 7333,
      "áĪĿáĪĮ": 7334,
      "áĮįáĬĺáīµ": 7335,
      "ĠNaz": 7336,
      "Ġcertains": 7337,
      "ĠáĬĹáĪª": 7338,
      "ĠAfrilu": 7339,
      "93": 7340,
      "Ku": 7341,
      "insa": 7342,
      "ston": 7343,
      "áįīáīµ": 7344,
      "ouvelle": 7345,
      "ĠáĪĨáĬĸáĪĿ": 7346,
      "áĮ£áĪª": 7347,
      "comp": 7348,
      "Ġjaponais": 7349,
      "áĬ»": 7350,
      "áĬ«áĬķ": 7351,
      "iriwa": 7352,
      "Ġndogo": 7353,
      "ĠáĬłáĭµáĪŃáĮİ": 7354,
      "inter": 7355,
      "atini": 7356,
      "Ġhuma": 7357,
      "Ġ80": 7358,
      "ĠSarkin": 7359,
      "áĮ©": 7360,
      "Ġrana": 7361,
      "ĠFulani": 7362,
      "áĪĬáĭ«áĬķ": 7363,
      "Ġtsakiyar": 7364,
      "alled": 7365,
      "ĠJanairu": 7366,
      "Ġnasarar": 7367,
      "Ø³": 7368,
      "Ġruk": 7369,
      "ious": 7370,
      "ĠáĪŃáĭķ": 7371,
      "mia": 7372,
      "ĠKaisari": 7373,
      "teurs": 7374,
      "Ġmakuu": 7375,
      "dÃŃnlá»į": 7376,
      "fuatwa": 7377,
      "97": 7378,
      "ĠáĮĪáĬķáĭĺáī¥": 7379,
      "ble": 7380,
      "Ġtan": 7381,
      "ĠSara": 7382,
      "Ġmain": 7383,
      "Ġlead": 7384,
      "bÃ©": 7385,
      "nÃº": 7386,
      "ĠáĬ¦áĪŃ": 7387,
      "Ġtir": 7388,
      "áĪ¨áįĪ": 7389,
      "áĪ«áĪª": 7390,
      "Ġkananan": 7391,
      "áĪĲáĭŃ": 7392,
      "Ġwhere": 7393,
      "Ġstruct": 7394,
      "ria": 7395,
      "ĠpÃ¡": 7396,
      "áĪĪáĪ°": 7397,
      "Ġfollow": 7398,
      "ĠáĬ¥áĬķáĭµ": 7399,
      "áĭ²áĪ±": 7400,
      "ĠsiÃ¨": 7401,
      "áĮ¨áīµ": 7402,
      "wÃ²rÃ¡n": 7403,
      "Ġcity": 7404,
      "áīĥáĪī": 7405,
      "ĠÃ©v": 7406,
      "ĠFrank": 7407,
      "ĠáĪļáĬĴáĪµáī´": 7408,
      "oshi": 7409,
      "ĠEli": 7410,
      "áĪĽáĭŃáĪµáĮ¥": 7411,
      "eries": 7412,
      "||": 7413,
      "Ġhalin": 7414,
      "ĠÃłá¹£Ãł": 7415,
      "elf": 7416,
      "ĠHars": 7417,
      "rÃŃwÃ¡": 7418,
      "ĠVictor": 7419,
      "Ġtsara": 7420,
      "áī¦áĪŃ": 7421,
      "ĠáĪķáĭŃáĭĪáīµ": 7422,
      "wamna": 7423,
      "Ġmpaka": 7424,
      "kÃ©": 7425,
      "Ġanal": 7426,
      "ĠáīłáĪĺáĪµ": 7427,
      "undu": 7428,
      "ĠAngel": 7429,
      "by": 7430,
      "ĠNg": 7431,
      "Ġáĭ¨áĪļáī£áĪį": 7432,
      "ĠAlexander": 7433,
      "Ġsoja": 7434,
      "áĮĭáĪª": 7435,
      "BÃŃ": 7436,
      "ĠdÃ¬": 7437,
      "Ġliss": 7438,
      "ĠPhili": 7439,
      "ĠLatin": 7440,
      "Ã©sÃŃ": 7441,
      "ĠAsiya": 7442,
      "Ġkabla": 7443,
      "ĠGood": 7444,
      "unar": 7445,
      "Ġruwan": 7446,
      "hip": 7447,
      "ĠáĭĪáĮ£": 7448,
      "ĠTuranci": 7449,
      "Ġtant": 7450,
      "Ġthere": 7451,
      "Ġmarub": 7452,
      "Ġáīłáī°áĪĪáĭŃáĪĿ": 7453,
      "Na": 7454,
      "Ã»": 7455,
      "Ġneno": 7456,
      "ĠáĬ¥áĪŃáĪ±": 7457,
      "Ġipo": 7458,
      "olf": 7459,
      "ĠWah": 7460,
      "áĮłáĬķ": 7461,
      "áĬĶáīµ": 7462,
      "Ġmakabila": 7463,
      "tro": 7464,
      "ĠMand": 7465,
      "ĠáĪĺáī¥áīµ": 7466,
      "ohann": 7467,
      "ĠáĪģáĪīáĪĿ": 7468,
      "Ġwould": 7469,
      "63": 7470,
      "2012": 7471,
      "Ġshawara": 7472,
      "Ġ1946": 7473,
      "Ġmany": 7474,
      "ĠMul": 7475,
      "1998": 7476,
      "She": 7477,
      "kÃ¡láº¹": 7478,
      "Wakristo": 7479,
      "Ġbase": 7480,
      "ĠDin": 7481,
      "Î¹": 7482,
      "ono": 7483,
      "lique": 7484,
      "áĭĿáĬĵ": 7485,
      "agun": 7486,
      "Ġáĭ°áĮĭ": 7487,
      "áī²áīµ": 7488,
      "Akwai": 7489,
      "áĭ«áīµ": 7490,
      "Ġtawa": 7491,
      "ĠCam": 7492,
      "Ġkasuwa": 7493,
      "Ġamince": 7494,
      "ĠáįįáīħáĪŃ": 7495,
      "áį²áį±áį»áį¶áį": 7496,
      "ĠáĭµáĬķáĮĭáĭŃ": 7497,
      "ĠKK": 7498,
      "áĭ°áĮĪ": 7499,
      "Ġdevient": 7500,
      "Ġeto": 7501,
      "ĠTrans": 7502,
      "ning": 7503,
      "áĮĲ": 7504,
      "Ġfasaha": 7505,
      "áī£áī±": 7506,
      "Ġref": 7507,
      "Ġbata": 7508,
      "05": 7509,
      "kad": 7510,
      "ĠáĮĵ": 7511,
      "ĠFestival": 7512,
      "dian": 7513,
      "áĪĬáĪµ": 7514,
      "Bi": 7515,
      "Re": 7516,
      "xes": 7517,
      "âĢĶ": 7518,
      "ĠOá¹£u": 7519,
      "á¹£irÃŃ": 7520,
      "depend": 7521,
      "Ġmasarautar": 7522,
      "Ġmahaifiyar": 7523,
      "áĪįáĪĿáĬĵ": 7524,
      "áĭĭáĪŃáĭ«": 7525,
      "áĭļáĭ«áĬķ": 7526,
      "áĭ°áī¡áī¥": 7527,
      "áī³áĪªáĬŃ": 7528,
      "istry": 7529,
      "ypti": 7530,
      "ĠrÃ©alis": 7531,
      "Ġtuntun": 7532,
      "Ġáī¤áī°áĬŃáĪŃáĪµáī²áĭ«áĬķ": 7533,
      "ĠáĮłáĪĭ": 7534,
      "Ġbecame": 7535,
      "500": 7536,
      "ĠKu": 7537,
      "áĮ¥áĪ¨áīµ": 7538,
      "enegal": 7539,
      "Ġaká»įrin": 7540,
      "ĠLiber": 7541,
      "Ġá¹£ÃŃá¹£e": 7542,
      "ĠáīłáĭļáĪģ": 7543,
      "ĠáīłáĬłáĭ²áĪµ": 7544,
      "áį²áį±áį»áį·áį": 7545,
      "Ġarewacin": 7546,
      "Ġáĭ¨áįĸáĪĪáī²áĬ«": 7547,
      "origine": 7548,
      "Ib": 7549,
      "ĠáĬĶ": 7550,
      "Ġyasa": 7551,
      "áĬĲáĪµ": 7552,
      "ĠSil": 7553,
      "ĠáīłáĪ®": 7554,
      "áĭ¨áĬķ": 7555,
      "áĬ«áĭµ": 7556,
      "ÉĻ": 7557,
      "Ġaye": 7558,
      "Ġins": 7559,
      "áĭ®áīµ": 7560,
      "2019": 7561,
      "ĠáĬłáĪįáįĭ": 7562,
      "Ġ1939": 7563,
      "gressi": 7564,
      "hab": 7565,
      "asayansi": 7566,
      "Ġá»įwá»į": 7567,
      "ivyo": 7568,
      "AM": 7569,
      "Ġgano": 7570,
      "Ġáĭ¨áī°áīĢ": 7571,
      "auc": 7572,
      "Unis": 7573,
      "ints": 7574,
      "Ġfiye": 7575,
      "ĠRom": 7576,
      "ĠáĪµáī´": 7577,
      "lahi": 7578,
      "ression": 7579,
      "Ġmmoja": 7580,
      "ĠHanyoyin": 7581,
      "abwe": 7582,
      "Ġmatan": 7583,
      "ĠMartin": 7584,
      "nyÃŃ": 7585,
      "ÑĢ": 7586,
      "áĪĿáĪµ": 7587,
      "Ġfer": 7588,
      "Ã¬lÃº": 7589,
      "ĠPan": 7590,
      "kejÃ¬": 7591,
      "áī¡áĪŃ": 7592,
      "Ġáīłáī°áĪĪáĭ«áĭ©": 7593,
      "áĭ¨áĬ¢áīµáĭ®áĮµáĭ«": 7594,
      "ĠáĬłáĬķáĭ°": 7595,
      "Ġactu": 7596,
      "Ġáĭ¨áĬĲáīłáĪ©": 7597,
      "ĠTechn": 7598,
      "Une": 7599,
      "Ġunivers": 7600,
      "ĠáĪķáĮį": 7601,
      "ĠAnambra": 7602,
      "Ġauri": 7603,
      "ĠMb": 7604,
      "attle": 7605,
      "Ġtransl": 7606,
      "ĠáīłáĭĵáĪĪáĪĿ": 7607,
      "cen": 7608,
      "owe": 7609,
      "ĠdÃ©fin": 7610,
      "Ġfaire": 7611,
      "ĠáįĬáĪį": 7612,
      "ĠáįĬáĭ°": 7613,
      "ĠolÃ¹darÃŃ": 7614,
      "áĮĪáĪĪáĮį": 7615,
      "ĠdÃ©veloppement": 7616,
      "gani": 7617,
      "Ġáĭ¨áĮ¦áĪŃ": 7618,
      "akta": 7619,
      "áīĢáĪĿ": 7620,
      "ĠáĪªáįĲáī¥áĪĬáĬŃ": 7621,
      "áĭįáĬĵ": 7622,
      "áįįáī°áĬĽ": 7623,
      "uge": 7624,
      "ĠáĭŃáī½áĪĭáĪī": 7625,
      "02": 7626,
      "Ġáĭ¨áĭķ": 7627,
      "Ġbid": 7628,
      "áĪħáĪŃ": 7629,
      "Ġmach": 7630,
      "unawa": 7631,
      "Ġmash": 7632,
      "Ġtechni": 7633,
      "NN": 7634,
      "Ġáĭ¨áī°áĬĲáĪ³": 7635,
      "Ġmshairi": 7636,
      "ĠolÃ¹ká»į": 7637,
      "Ġbincike": 7638,
      "ĠbÃłbÃ¡": 7639,
      "zed": 7640,
      "áĬĲáĭĵáĬķ": 7641,
      "áĪ«áĬĴ": 7642,
      "ĠáīłáĪĺáĮ¨áĪ¨áĪ»": 7643,
      "Ġpropos": 7644,
      "ootball": 7645,
      "Shi": 7646,
      "ling": 7647,
      "áĬķáĮĢ": 7648,
      "Ġnoma": 7649,
      "Ġsite": 7650,
      "áĭįáĪµ": 7651,
      "áĭĵáĪĪáĪĿ": 7652,
      "ĠFrancis": 7653,
      "áįĵáĬķáĬĽ": 7654,
      "SO": 7655,
      "ĠáīłáĬŃ": 7656,
      "irs": 7657,
      "ĠáĬ¢áĭ¨áĪ±áĪµ": 7658,
      "áĪĺáĪĪáĪµ": 7659,
      "lementi": 7660,
      "Ġterritoire": 7661,
      "gement": 7662,
      "site": 7663,
      "Ġngu": 7664,
      "Ìģ-": 7665,
      "ador": 7666,
      "áĪŀáĬķ": 7667,
      "ĠáĬ¥áĬķáĭ°áĬĲáīłáĪŃ": 7668,
      "Ġáĭ¨áĬłáĪŃ": 7669,
      "ĠáĬłáĪµáī°áĭĭ": 7670,
      "Ġmakubwa": 7671,
      "Ġpataki": 7672,
      "ĠáĪĬáīĥáĭįáĬķáīµ": 7673,
      "AF": 7674,
      "zikin": 7675,
      "Ġáĭ°áĪŃ": 7676,
      "Ġáĭ°áī¥áĪ¨": 7677,
      "Ġwasanni": 7678,
      "oku": 7679,
      "imbabwe": 7680,
      "ĠYammacin": 7681,
      "arabci": 7682,
      "Ġáĭ¨áĪĪáĭįáĪĿ": 7683,
      "ĠAgb": 7684,
      "ĠFasaha": 7685,
      "jÃ¹": 7686,
      "Ġval": 7687,
      "Ã©ration": 7688,
      "Ġ1949": 7689,
      "emu": 7690,
      "Ġnigba": 7691,
      "ĠLeague": 7692,
      "ĠáīłáĬłáĪľáĪªáĬ«": 7693,
      "ĠÃº": 7694,
      "adamu": 7695,
      "ĠáīłáĪ±": 7696,
      "áĭ³áĭĬ": 7697,
      "ĠUnion": 7698,
      "ĠáĪħáĮį": 7699,
      "áĬ¨áī°áĪį": 7700,
      "ĠCalifor": 7701,
      "cil": 7702,
      "fiki": 7703,
      "ĠeuropÃ©": 7704,
      "áĭĽáĪį": 7705,
      "uciya": 7706,
      "ardin": 7707,
      "Ġjimillar": 7708,
      "Ġtaba": 7709,
      "ĠáĬ¥áĮ½áĭĭáīµ": 7710,
      "ĠáĬ¥áĬķáĬ³áĬķ": 7711,
      "ĠáĬłáĪĭáī¸áĭį": 7712,
      "Son": 7713,
      "à¥": 7714,
      "Ġsaf": 7715,
      "Ġmv": 7716,
      "ĠSol": 7717,
      "áĬ«áīµ": 7718,
      "ovuti": 7719,
      "ĠáĪ¥áĪŃáĭĵáīµ": 7720,
      "hamia": 7721,
      "Ã¡Ã¡": 7722,
      "ĠáĮįáĪ«": 7723,
      "ĠáĭĪáĭĺáī°": 7724,
      "lus": 7725,
      "áĭ°áĮĭ": 7726,
      "ĠEmpire": 7727,
      "ĠUt": 7728,
      "ĠáĮīáĪį": 7729,
      "Ġmondi": 7730,
      "ĠChristian": 7731,
      "Ġáĭ¨áįĭ": 7732,
      "Ġculture": 7733,
      "Ġgani": 7734,
      "olin": 7735,
      "Ġkarshen": 7736,
      "ĠAlf": 7737,
      "áĪłáī¥": 7738,
      "Ã´t": 7739,
      "Ġmwezi": 7740,
      "ĠKuma": 7741,
      "Ġjo": 7742,
      "atiques": 7743,
      "aih": 7744,
      "áĪ³áī¸áĭįáĬķ": 7745,
      "Ġáĭ¨áĪ¶": 7746,
      "ĠâĢİ": 7747,
      "Ġhalafu": 7748,
      "Ġbaki": 7749,
      "áĪĺáĬĵáĪį": 7750,
      "ception": 7751,
      "Ġsaka": 7752,
      "áī°áĬŀáī½": 7753,
      "ĠáĮ»": 7754,
      "hinda": 7755,
      "ray": 7756,
      "ãĤ": 7757,
      "Ġmit": 7758,
      "Ġáĭ¨áįĪáĪ¨áĬķáĪ³áĭŃ": 7759,
      "Ã©li": 7760,
      "ĠMc": 7761,
      "áįĪáĪ«": 7762,
      "igo": 7763,
      "ĠItali": 7764,
      "Ã©rique": 7765,
      "66": 7766,
      "ĠBern": 7767,
      "akazi": 7768,
      "ĠáĭŃáĮĪáĪĺ": 7769,
      "ĠkÃºrÃ²": 7770,
      "ÏĤ": 7771,
      "Ġdivers": 7772,
      "ĠáĮįáĪį": 7773,
      "ĠÃ©lÃ©": 7774,
      "ĠShek": 7775,
      "áĪķáĪį": 7776,
      "ĠSahara": 7777,
      "ĠáĪµáī¥áĪµáī¥": 7778,
      "Hak": 7779,
      "ithi": 7780,
      "omp": 7781,
      "ands": 7782,
      "ĠDay": 7783,
      "áīħáĪį": 7784,
      "Ġvid": 7785,
      "ogi": 7786,
      "Ġsera": 7787,
      "Ġ(,": 7788,
      "ĠáīłáĪ³": 7789,
      "ĠWab": 7790,
      "áĭĿáī¡": 7791,
      "Ã¡nÃ¬": 7792,
      "Ġhizo": 7793,
      "Ġzinazo": 7794,
      "ĠáĪĺáĭĭáĭķáĪį": 7795,
      "gemea": 7796,
      "á¹£irÃŃá¹£i": 7797,
      "oji": 7798,
      "zani": 7799,
      "áĮ®": 7800,
      "ĠOli": 7801,
      "áĭ©áīµ": 7802,
      "ĠTarayya": 7803,
      "Ġcre": 7804,
      "ĠHenry": 7805,
      "ĠMiss": 7806,
      "ĠáĬĲáī½": 7807,
      "ĠHouse": 7808,
      "osp": 7809,
      "Ġdisp": 7810,
      "04": 7811,
      "Ġtype": 7812,
      "ĠsÃ¬n": 7813,
      "ĠLÃ¡": 7814,
      "lais": 7815,
      "pewa": 7816,
      "áĪ´áīµ": 7817,
      "2000": 7818,
      "fication": 7819,
      "ĠáĭĺáĪĺáī»": 7820,
      "gari": 7821,
      "áįĪáĪ¨": 7822,
      "anguage": 7823,
      "ram": 7824,
      "áĭ¢": 7825,
      "ensa": 7826,
      "ovi": 7827,
      "Ġshugabar": 7828,
      "ĠSatumba": 7829,
      "ĠWashington": 7830,
      "reg": 7831,
      "Ġarm": 7832,
      "ĠáĬĲáīłáĪ¨áī½": 7833,
      "Pro": 7834,
      "eau": 7835,
      "etu": 7836,
      "Ġipinle": 7837,
      "Ġinternational": 7838,
      "tit": 7839,
      "ariya": 7840,
      "Ġsens": 7841,
      "Ġcrit": 7842,
      "Ġ35": 7843,
      "ows": 7844,
      "ĠáĪĺáĬķáĮĪ": 7845,
      "ĠáīłáĪ°áĪľáĬķ": 7846,
      "Mut": 7847,
      "unta": 7848,
      "Ġdauke": 7849,
      "áĭŃáīħ": 7850,
      "Ġworld": 7851,
      "ĠáīħáĬĿ": 7852,
      "Ġhaya": 7853,
      "ecture": 7854,
      "Ġfamille": 7855,
      "Ġsou": 7856,
      "Ġoun": 7857,
      "umika": 7858,
      "umiwa": 7859,
      "Ġ''": 7860,
      "Ġambazo": 7861,
      "Ġkuliko": 7862,
      "Ġpouvoir": 7863,
      "Ïģ": 7864,
      "enz": 7865,
      "ĠáĬłáĪ¥": 7866,
      "Ġ1955": 7867,
      "Ġáĭĳ": 7868,
      "ĠáĪĿáĬŃáĪŃ": 7869,
      "ĠáĬłáĭįáĪ®áįĵ": 7870,
      "ussia": 7871,
      "ĠJac": 7872,
      "áĪ®áĪŀ": 7873,
      "Ġroya": 7874,
      "ĠáīłáĪĮáĪĭ": 7875,
      "Ġkakar": 7876,
      "ĠSir": 7877,
      "imar": 7878,
      "Ġcewar": 7879,
      "Ġmatakin": 7880,
      "ĠáĪ¥áĪįáĮ£áĬķ": 7881,
      "uwancin": 7882,
      "ĠolÃ³rÃŃ": 7883,
      "Ġgabashin": 7884,
      "Ġtakarar": 7885,
      "ĠKamusi": 7886,
      "ĠShehu": 7887,
      "ĠÆ´ar": 7888,
      "val": 7889,
      "Ġmes": 7890,
      "Ġmamaye": 7891,
      "ĠáĭŃáĮĪáĪĺáī³áĪį": 7892,
      "87": 7893,
      "ĠKig": 7894,
      "ĠáĪĺáīĢáĪĺáĮ«": 7895,
      "Ġáī°áĪĽáĪª": 7896,
      "ules": 7897,
      "Ġavoir": 7898,
      "ĠAcc": 7899,
      "áĭ°áĪŃáĮī": 7900,
      "ĠGud": 7901,
      "Ġ90": 7902,
      "ĠBirnin": 7903,
      "ĠáĪĺáĬĲáĪ»": 7904,
      "andika": 7905,
      "Ġtoute": 7906,
      "ĠáĮįáĪªáĬŃ": 7907,
      "Ġáĭ¨áĬłáĪĪáĪĿ": 7908,
      "ĠáĮ¥áĭ«áīĦ": 7909,
      "kÃ³so": 7910,
      "ÆĻo": 7911,
      "Ts": 7912,
      "Ġdoma": 7913,
      "ĠIya": 7914,
      "áĬ¨áĪ°": 7915,
      "ticle": 7916,
      "angaza": 7917,
      "Bisa": 7918,
      "áĭįáĪį": 7919,
      "áĪµáī²": 7920,
      "ĠáĪĺáī³": 7921,
      "rey": 7922,
      "ensis": 7923,
      "áĪµáī³áīµ": 7924,
      "lection": 7925,
      "áĪĭáĮħ": 7926,
      "ĠYesu": 7927,
      "Ġkutumia": 7928,
      "Ġwatumwa": 7929,
      "Ġhivi": 7930,
      "ĠÃłÃ¬sÃłn": 7931,
      "ĠWaislamu": 7932,
      "html": 7933,
      "ey": 7934,
      "Ġlater": 7935,
      "áĪµáĪĬ": 7936,
      "isto": 7937,
      "tient": 7938,
      "áīĢáĪµ": 7939,
      "Ġáĭ¨áī°áĭĪáĪ°": 7940,
      "Ãªtre": 7941,
      "kara": 7942,
      "áĭ°áĬķáīµ": 7943,
      "Ġjou": 7944,
      "ĠOmo": 7945,
      "Ġáĭ¨áĪļáĪĺ": 7946,
      "áĭ¥áĬķ": 7947,
      "Rayuwar": 7948,
      "Ġáĭ¨áĮİ": 7949,
      "ĠCa": 7950,
      "áĪ£áĭŃ": 7951,
      "ultani": 7952,
      "wÃłÃ¡": 7953,
      "áī°áĭ³": 7954,
      "áĪĪáĭ±": 7955,
      "atives": 7956,
      "ĠáĪµáī¥": 7957,
      "issance": 7958,
      "duction": 7959,
      "arufu": 7960,
      "áĭŃáĪŃáĪĭáĬķáĭµ": 7961,
      "áĭķáīĨ": 7962,
      "ĠAmani": 7963,
      "ĠPeter": 7964,
      "áĬĹáĪį": 7965,
      "bÃ³": 7966,
      "van": 7967,
      "Ġdauki": 7968,
      "ikh": 7969,
      "Ġjumla": 7970,
      "Ġáī°áĮĪáĬĿ": 7971,
      "ĠJon": 7972,
      "respond": 7973,
      "Ġaddini": 7974,
      "ĠáĪĺáĪ£áĪªáĭ«": 7975,
      "atÃ©": 7976,
      "áº¹ráº¹": 7977,
      "ĠMwaka": 7978,
      "Ġhayo": 7979,
      "áī½áĬ¹": 7980,
      "áĪĽáĪ¨": 7981,
      "ĠáĭĪáĭ²áĭ«": 7982,
      "áīłáĪ»": 7983,
      "ĠÃ²kÃ¨": 7984,
      "Ġ400": 7985,
      "uhari": 7986,
      "ominira": 7987,
      "Ġáī°áīĢáĪĿ": 7988,
      "ĠirÃº": 7989,
      "]]": 7990,
      "enant": 7991,
      "ĠáĮ¨áĭĭ": 7992,
      "Mat": 7993,
      "ilÃ©": 7994,
      "tice": 7995,
      "áĪ¨áī°": 7996,
      "ĠBad": 7997,
      "ĠáĬłáĪįáįİ": 7998,
      "Ġáĭ¨áĬ¥áĬķáĮįáĪĬáĭĿ": 7999,
      "áī¥áĪ¨áī°": 8000,
      "ĠGreg": 8001,
      "ĠDut": 8002,
      "áīħáĭ±áĪµ": 8003,
      "áĪµáī°áĬĽáĭį": 8004,
      "Ġlarge": 8005,
      "wikipedia": 8006,
      "ĠWaf": 8007,
      "Ġkuji": 8008,
      "Ġaskofu": 8009,
      "ĠInternet": 8010,
      "Ġkowane": 8011,
      "yoyi": 8012,
      "Ġmengi": 8013,
      "Yana": 8014,
      "Ġcirc": 8015,
      "iaf": 8016,
      "ĠáĪ½áĪį": 8017,
      "ports": 8018,
      "ĠMohammed": 8019,
      "à¤ķà¤": 8020,
      "mÃ¡": 8021,
      "vin": 8022,
      "Ġdare": 8023,
      "enu": 8024,
      "Ġáĭ¨áĪ«": 8025,
      "Ġwit": 8026,
      "áįİáĪŃ": 8027,
      "Ġáī°áĭĪáĪĪáĭ°": 8028,
      "Ġfamilia": 8029,
      "IC": 8030,
      "hawa": 8031,
      "rÃ©e": 8032,
      "Ġáĭ¶áĪ®": 8033,
      "Iá¹£áº¹": 8034,
      "áīłáĭ«": 8035,
      "team": 8036,
      "ĠÃĮlÃº": 8037,
      "rican": 8038,
      "ĠáĪµáĪĿáĪĿáĬĲáīµ": 8039,
      "1997": 8040,
      "emaji": 8041,
      "chukua": 8042,
      "áī®": 8043,
      "áĪĪáĪµ": 8044,
      "antake": 8045,
      "áī¶áĭ¶": 8046,
      "ster": 8047,
      "stant": 8048,
      "Ġyarjejen": 8049,
      "ĠáĭŃáī³áĪĺáĬĵáĪį": 8050,
      "dhi": 8051,
      "ËĪ": 8052,
      "áĪ©áĬŃ": 8053,
      "ĠáĭµáĬķáĮįáĪį": 8054,
      "ĠáĬ¨áĬłáĬķáĭµ": 8055,
      "gro": 8056,
      "Ð½": 8057,
      "Ġfulani": 8058,
      "Ġ1920": 8059,
      "áĬ¥áĬķáĭ²áĪģáĪĿ": 8060,
      "kia": 8061,
      "tta": 8062,
      "áī¿": 8063,
      "áĮĪáĭĽ": 8064,
      "Ġdeven": 8065,
      "ĠÃłÃ¡": 8066,
      "Ġáĭ«áĭ°áĪŃ": 8067,
      "Ġthree": 8068,
      "ĠMisri": 8069,
      "83": 8070,
      "Ces": 8071,
      "ĠáĭĬ": 8072,
      "ĠFer": 8073,
      "ĠLaw": 8074,
      "ĠáĪµáĪŃáĭĵáīµ": 8075,
      "kw": 8076,
      "oris": 8077,
      "ÆĻe": 8078,
      "áĪ³áĪĮáĪĿ": 8079,
      "ĠAlhaji": 8080,
      "tÃ©s": 8081,
      "attun": 8082,
      "Ġkamfan": 8083,
      "áī§áĪį": 8084,
      "á¹¢": 8085,
      "Ġpap": 8086,
      "ĠLar": 8087,
      "sions": 8088,
      "ĠáĬłáĪµáįĪáĪĭáĮĬ": 8089,
      "lab": 8090,
      "Ùĳ": 8091,
      "ĠÃłjáº¹sÃ¡ra": 8092,
      "ĠFound": 8093,
      "áĭĭáī¸áĭį": 8094,
      "jenga": 8095,
      "áĪŁáĪį": 8096,
      "Ġsignif": 8097,
      "VID": 8098,
      "áĮĪáĪ¨": 8099,
      "ĠIt": 8100,
      "ydro": 8101,
      "ĠáĪĽáĪ¨": 8102,
      "over": 8103,
      "Ġcontin": 8104,
      "Ġáī°áĮ«áĭĭ": 8105,
      "Nchi": 8106,
      "áĬķáĪ°": 8107,
      "Ġáĭ¨áĪĺáĬķ": 8108,
      "ĠMala": 8109,
      "ĠLife": 8110,
      "athan": 8111,
      "Ġkiran": 8112,
      "Ġrubutu": 8113,
      "ĠGroup": 8114,
      "sÃ¡n": 8115,
      "Ġmd": 8116,
      "áĪĺáĪĿ": 8117,
      "umin": 8118,
      "áī¥áĪĭ": 8119,
      "Ã¬yÃłn": 8120,
      "lav": 8121,
      "Ġactiv": 8122,
      "ĠMaur": 8123,
      "ĠKejÃ¬": 8124,
      "Ġáīłáī³áĪªáĬŃ": 8125,
      "Ġsing": 8126,
      "kai": 8127,
      "Ġáī£áĪħáĪį": 8128,
      "áĪŃáīµáĪ«": 8129,
      "Ġclassi": 8130,
      "Ġhuwa": 8131,
      "Ġhij": 8132,
      "ĠáīłáĪ¶": 8133,
      "oton": 8134,
      "ovu": 8135,
      "ker": 8136,
      "utÃ©": 8137,
      "áī£áī£": 8138,
      "ĠEdo": 8139,
      "ĠáĪ°áįĬ": 8140,
      "ĠáĬķáĮ¥áĪ¨": 8141,
      "ĠáĭĭáĬķáĮ«": 8142,
      "áĪ£áĪ¥": 8143,
      "áĬķáĮīáĪł": 8144,
      "áĪ¨áĮĭáĮĪ": 8145,
      "Ġmatasa": 8146,
      "Ġyankunan": 8147,
      "III": 8148,
      "áī¥áī»": 8149,
      "Ġáĭ¨áī°áĭĪáĪĪ": 8150,
      "ĠArgent": 8151,
      "Ġáī°áĪ«áĪ®áī½": 8152,
      "Ġsol": 8153,
      "ĠImo": 8154,
      "ĠGra": 8155,
      "udo": 8156,
      "áĪģáįį": 8157,
      "Sc": 8158,
      "lar": 8159,
      "áīłáĬ¥": 8160,
      "ĠFa": 8161,
      "ĠRadio": 8162,
      "Ġáĭ¨áĪļáī£áĪĪáĭį": 8163,
      "ĠAnt": 8164,
      "»áįī": 8165,
      "irobi": 8166,
      "Ġproduction": 8167,
      "Hivyo": 8168,
      "xford": 8169,
      "akh": 8170,
      "Ġalip": 8171,
      "ÃŃnÃº": 8172,
      "ĠolÃ³gun": 8173,
      "Ġikan": 8174,
      "Ġquelques": 8175,
      "Ġcr": 8176,
      "Ġfem": 8177,
      "ĠBayan": 8178,
      "áĬŃáĬĸ": 8179,
      "ĠJo": 8180,
      "Ġáĭ¨áĪļáĬĸáĪŃ": 8181,
      "ĠÆĻir": 8182,
      "ĠáĬ¥áĬĵáīµ": 8183,
      "ĠáĪ°áĪĽ": 8184,
      "Ġáĭįáīħáĭ«áĬĸáĪµ": 8185,
      "eu": 8186,
      "Ġdam": 8187,
      "ĠAma": 8188,
      "ĠStr": 8189,
      "Ġ1918": 8190,
      "Ġáĭ«áĪµáī°": 8191,
      "áĭ°áĪ¨áĮį": 8192,
      "udies": 8193,
      "ĠJohnson": 8194,
      "ĠáĭįáĮ¤áīµ": 8195,
      "áĪŀáĬŃáĪ«áĪ²": 8196,
      "Niger": 8197,
      "Ġáĭ¨áī´": 8198,
      "taka": 8199,
      "áįįáī°": 8200,
      "áīĢáĮ½": 8201,
      "áĪ»áĪ»": 8202,
      "Ġalbum": 8203,
      "kiri": 8204,
      "Ġáī«": 8205,
      "Ġcad": 8206,
      "Ġcalled": 8207,
      "itÃ¬": 8208,
      "itation": 8209,
      "ĠáĬłáĭĪ": 8210,
      "eto": 8211,
      "áĭ³áīµ": 8212,
      "ridge": 8213,
      "lad": 8214,
      "áĪĪáĭµ": 8215,
      "Ġperm": 8216,
      "áĬķáī°": 8217,
      "Ġáĭ¨áĭļáĪħ": 8218,
      "áĭµáĪį": 8219,
      "ĠGi": 8220,
      "ĠÆĻwararr": 8221,
      "Ġcigaba": 8222,
      "AL": 8223,
      "wahi": 8224,
      "Ġsara": 8225,
      "Ġgas": 8226,
      "ĠáĭĪáĮĪ": 8227,
      "áĮĭáĬķ": 8228,
      "ĠYou": 8229,
      "áĪłáĪ©": 8230,
      "bia": 8231,
      "Ġtyp": 8232,
      "áĭ²áīµ": 8233,
      "ĠáĪ°áĭĵáīµ": 8234,
      "Ġtáº¹li": 8235,
      "wÃ¹já»į": 8236,
      "gua": 8237,
      "ĠSim": 8238,
      "hah": 8239,
      "áĬ«áĪ«": 8240,
      "áī±áĪŃáĬŃ": 8241,
      "áįĭáĬķ": 8242,
      "ĠáĪļáĪµáīµ": 8243,
      "ĠSenegal": 8244,
      "utun": 8245,
      "ĠDist": 8246,
      "áĬłáĪŃ": 8247,
      "1999": 8248,
      "ĠáĬłáĪįáįĭáī¤áīµ": 8249,
      "Mas": 8250,
      "wÃº": 8251,
      "tie": 8252,
      "áĪ«áĪŃ": 8253,
      "ĠáīłáĪĪ": 8254,
      "ĠJanar": 8255,
      "áĭĺáĪŃ": 8256,
      "ĠAmerica": 8257,
      "ĠÃºn": 8258,
      "Ġsayensi": 8259,
      "Ġtaifa": 8260,
      "rick": 8261,
      "ĠbÃŃbÃŃ": 8262,
      "ĠTurk": 8263,
      "onyesha": 8264,
      "áĬĺáĭį": 8265,
      "Ġmakao": 8266,
      "ĠBiblia": 8267,
      "rans": 8268,
      "áĪµáĮ¡": 8269,
      "áĮłáĪ«áĪį": 8270,
      "Ġmillion": 8271,
      "áĬĽáĭįáĬķ": 8272,
      "Äĵ": 8273,
      "ĠáīłáĮ¥áĬķáī³áĭĬ": 8274,
      "áīĥáīµ": 8275,
      "ĠáĬ¥áĪµáĭ«": 8276,
      "face": 8277,
      "ĠáīłáĬ¥áĪµ": 8278,
      "áĮĪáĬĻáīµ": 8279,
      "Ġtrouve": 8280,
      "Ġnumber": 8281,
      "Orodha": 8282,
      "Ġ$": 8283,
      "Ġáĭī": 8284,
      "Ġtashi": 8285,
      "uncin": 8286,
      "Ġcoun": 8287,
      "ĠDam": 8288,
      "Ġá»įgá»į": 8289,
      "udio": 8290,
      "ccen": 8291,
      "Ġdigirin": 8292,
      "Ġtashar": 8293,
      "ĠÃ¬dÃŃje": 8294,
      "Ġmusulunci": 8295,
      "Ġkwallaye": 8296,
      "Ġoluilu": 8297,
      "81": 8298,
      "bobi": 8299,
      "ĠAss": 8300,
      "ĠWilliams": 8301,
      "Ġnouveau": 8302,
      "Ġspeci": 8303,
      "Ġfr": 8304,
      "occ": 8305,
      "áĪ«áĭĬáīµ": 8306,
      "histoire": 8307,
      "So": 8308,
      "tin": 8309,
      "Ġjan": 8310,
      "ĠáĪĺáĪĨáĬķ": 8311,
      "Ġáī°áĭĽ": 8312,
      "ĠáĭŃáĬĸ": 8313,
      "Ġáĭ¨áĪ©": 8314,
      "ication": 8315,
      "ĠGombe": 8316,
      "ĠChurch": 8317,
      "hui": 8318,
      "ĠâĢ¹âĢ¹": 8319,
      "52": 8320,
      "julikana": 8321,
      "yÃ¬ÃŃ": 8322,
      "Ã©ro": 8323,
      "quent": 8324,
      "ĠPÃ³": 8325,
      "ĠOko": 8326,
      "ĠHam": 8327,
      "ĠáĪįáĬŃ": 8328,
      "ĠAnti": 8329,
      "ĠáĪĨáĭŃ": 8330,
      "ologique": 8331,
      "Ġsupport": 8332,
      "asse": 8333,
      "imary": 8334,
      "yote": 8335,
      "okan": 8336,
      "dÃ©pend": 8337,
      "Ġjagoranci": 8338,
      "Kam": 8339,
      "test": 8340,
      "Ġlieu": 8341,
      "ajo": 8342,
      "saka": 8343,
      "Ġcond": 8344,
      "áĮĥáĪĿ": 8345,
      "áĬħáĪ£áĪ¥": 8346,
      "Mal": 8347,
      "ĠWag": 8348,
      "ĠprÃ©sent": 8349,
      "áīłáī°áĮ¨áĪĽáĪª": 8350,
      "Hasa": 8351,
      "UN": 8352,
      "ym": 8353,
      "Ġkitu": 8354,
      "ĠÃłdÃºgbÃ²": 8355,
      "ĠBuhari": 8356,
      "ĠTang": 8357,
      "ĠUS": 8358,
      "Ġkufuatana": 8359,
      "ĠZimbabwe": 8360,
      "Ġtex": 8361,
      "ĠSociety": 8362,
      "ĠdÃºrÃ³": 8363,
      "áĭįáĪ®": 8364,
      "Ġhor": 8365,
      "rier": 8366,
      "ugal": 8367,
      "ĠáīĢáĪ¨": 8368,
      "áĪģáĪĪáīµ": 8369,
      "ĠáįĵáĪŃáī²áĭİáī½": 8370,
      "ĠáĭŀáĬķ": 8371,
      "ĠáĪ²áīĢáĪ©": 8372,
      "Pour": 8373,
      "Ġkansu": 8374,
      "Ġáĭ¨áī»áĭŃáĬĵ": 8375,
      "ÆĻar": 8376,
      "abuwar": 8377,
      "Ġfiramare": 8378,
      "Ġáī¬": 8379,
      "áĬ¨áĪĿ": 8380,
      "ĠáĪĿáĮįáī¥": 8381,
      "sie": 8382,
      "82": 8383,
      "aribi": 8384,
      "Ġkiasi": 8385,
      "Waliofariki": 8386,
      "ĠÃ¬dÃŃlÃ©": 8387,
      "ĠmÃŃrÃłn": 8388,
      "ĠKibantu": 8389,
      "ix": 8390,
      "eter": 8391,
      "ĠHab": 8392,
      "Ġ1944": 8393,
      "Ø¹": 8394,
      "Ġwaya": 8395,
      "áĮįáĭµáĪĿ": 8396,
      "ĠFÃ¡": 8397,
      "áįįáĪ¬": 8398,
      "rice": 8399,
      "Ġatta": 8400,
      "Ġ1942": 8401,
      "Ġuse": 8402,
      "struction": 8403,
      "usiness": 8404,
      "St": 8405,
      "Tun": 8406,
      "onia": 8407,
      "ĠAbe": 8408,
      "Ġriga": 8409,
      "ĠáĪĺáīĢ": 8410,
      "rait": 8411,
      "ĠáĪ°áī¥": 8412,
      "áĪĬáīµ": 8413,
      "áĬķáĮįáĭµ": 8414,
      "Ġáĭ¨áĬłáĬķáĭµ": 8415,
      "Ġhars": 8416,
      "ĠJamhuriyar": 8417,
      "ournal": 8418,
      "Des": 8419,
      "áĮ§": 8420,
      "tier": 8421,
      "ĠCr": 8422,
      "Ġá»įpá»į": 8423,
      "Ġfiimu": 8424,
      "ĠAtlantiki": 8425,
      "ĠKifaransa": 8426,
      "Ġsanda": 8427,
      "Ã¨rent": 8428,
      "ĠáĭįáĭµáĭµáĪŃ": 8429,
      "94": 8430,
      "gwa": 8431,
      "ĠNations": 8432,
      "ector": 8433,
      "ĠáĬłáĪµáī°áĪ³": 8434,
      "Ġversion": 8435,
      "ĠáĬ¥áĬķáĪµáĪ³": 8436,
      "Ã£": 8437,
      "inf": 8438,
      "áīłáīł": 8439,
      "ĠHindi": 8440,
      "Ġtsar": 8441,
      "uche": 8442,
      "ĠáįĬáīµ": 8443,
      "onnement": 8444,
      "ĠáĬ¢áīµáĭ®áĮµáĭ«áĭĬ": 8445,
      "Ġáī¥áĪŃáĪĥáĬķ": 8446,
      "Ġkudi": 8447,
      "Ġmta": 8448,
      "ĠNic": 8449,
      "aku": 8450,
      "áĬĽáĪį": 8451,
      "áĭ©áĬĵáĭŃáīµáĭµ": 8452,
      "duzi": 8453,
      "Ġshahararr": 8454,
      "Ġbada": 8455,
      "áīħáĪ¨áī¥": 8456,
      "Maj": 8457,
      "¹áĪŃ": 8458,
      "áĬĢ": 8459,
      "Ġclim": 8460,
      "Ġpin": 8461,
      "ĠGal": 8462,
      "Ġáĭ¨áī°áĮĪáĬĺ": 8463,
      "Ġáī¥áĪĭ": 8464,
      "oft": 8465,
      "Ġpeuvent": 8466,
      "ĠSecond": 8467,
      "IN": 8468,
      "áĪĭáĪĽáĭĬ": 8469,
      "áįĪáĮ¸": 8470,
      "2001": 8471,
      "Ġremp": 8472,
      "ukuma": 8473,
      "ĠÃ¬gbÃ©": 8474,
      "Ġáº¹ran": 8475,
      "endera": 8476,
      "engwa": 8477,
      "Ġakiwa": 8478,
      "Ġdat": 8479,
      "Ġsashen": 8480,
      "haria": 8481,
      "Ġkalmar": 8482,
      "Ġcorrespond": 8483,
      "aikatar": 8484,
      "áĭ«áĭ«áĭ£": 8485,
      "Ġdak": 8486,
      "ĠáĪĺáĭ°": 8487,
      "ĠáĭĪáĪ°": 8488,
      "owever": 8489,
      "Ùĥ": 8490,
      "ĠáĪµáĪľáĬķ": 8491,
      "Ġáī£áĪĪáĭį": 8492,
      "Ġassoci": 8493,
      "ĠáĬŃáįįáĪĭáĮĪáĪ«áīµ": 8494,
      "Ġlina": 8495,
      "Ġáī°áĪ¸": 8496,
      "ĠJáº¹": 8497,
      "Ġáĭ«áĪĭ": 8498,
      "áĪ®áĬķ": 8499,
      "ĠáĬĲáĭįáį¢": 8500,
      "Ġl'": 8501,
      "Ġd'": 8502,
      "Ìģn": 8503,
      "Ġjáº¹Ìģ": 8504,
      "ĠáĪĿáĪ³áĪĮĠáĬĲáĭįáį¢": 8505,
      "Ġáĭ¨áĬłáĪĽáĪŃáĬĽĠáĪĿáĪ³áĪĮĠáĬĲáĭįáį¢": 8506,
      "ĠtÃŃĠÃ³": 8507,
      "ĠdeĠla": 8508,
      "ĠshekaraĠta": 8509,
      "Ġwá»įÌģn": 8510,
      "Ġráº¹ÌĢ": 8511,
      "ĠaĠcikin": 8512,
      "ĠofĠthe": 8513,
      "ĠáĬĲáīłáĪŃáį¢": 8514,
      ".áĪĿ": 8515,
      "Ġáĭ¨áĬłáĪĽáĪŃáĬĽĠáĪĿáĪ³áĪĮĠáĬĲáĭįáį¢ĠáīµáĪŃáĮīáĪĻ": 8516,
      "ĠdaĠkuma": 8517,
      "Ġáĭĵ.áĪĿ": 8518,
      "áº¹ÌĢ": 8519,
      "Ġáº¹ÌĢ": 8520,
      "Ġáī°áĪ¨áīµáĬĵĠáĪĿáĪ³áĪĮ": 8521,
      "ĠdeĠl'": 8522,
      ".ĠItokasi": 8523,
      "Ġá»įÌĢ": 8524,
      "Ġáĭĵ.áĪĿ.": 8525,
      "ĠaĠmatsayin": 8526,
      "'a": 8527,
      "ká»įÌģ": 8528,
      ",Ġa": 8529,
      "ĠtareĠda": 8530,
      "ĠáĭĵáĬŃáĪįáīł.": 8531,
      ",Ġda": 8532,
      "ĠaĠshekaraĠta": 8533,
      "Ġá»įjá»įÌģ": 8534,
      "á»įÌģ": 8535,
      "ĠTuzoĠya": 8536,
      "ÌĢ-Ã¨dÃ¨": 8537,
      "ĠtÃŃĠwá»įÌģn": 8538,
      "ĠTuzoĠyaĠNobel": 8539,
      "ĠTuzoĠyaĠNobelĠya": 8540,
      "Ġáĭ«áĪįáī°áī°áĪ¨áĮİáĪĺĠáĪĿáĪ³áĪĮ": 8541,
      "Ġáĭ¨áĬłáĪĽáĪŃáĬĽĠáĪĿáĪ³áĪĮĠáĬĲáĭįáį¢ĠáīµáĪŃáĮīáĪĻĠáĭ«áĪįáī°áī°áĪ¨áĮİáĪĺĠáĪĿáĪ³áĪĮ": 8542,
      "ĠaĠshekarar": 8543,
      "ĠmwakaĠwa": 8544,
      "/áĪĿ": 8545,
      "á»įÌĢ": 8546,
      "Ġáĭĵ/áĪĿ": 8547,
      ",Ġkuma": 8548,
      "áº¹Ìģ": 8549,
      "BaadaĠya": 8550,
      "ĠwaĠTuzoĠyaĠNobelĠya": 8551,
      "ĠdagaĠcikin": 8552,
      ",Ġle": 8553,
      "láº¹ÌĢ": 8554,
      "ĠdaĠaka": 8555,
      "Ġiláº¹ÌĢ": 8556,
      "ĠinĠthe": 8557,
      ",Ġand": 8558,
      ",Ġta": 8559,
      "ĠgaĠwatan": 8560,
      ".áĬł": 8561,
      "ĠorÃŃláº¹ÌĢ-Ã¨dÃ¨": 8562,
      "-ede": 8563,
      ",000": 8564,
      "ĠtiĠo": 8565,
      "ĠmshindiĠwaĠTuzoĠyaĠNobelĠya": 8566,
      ",Ġwanda": 8567,
      "ĠshiĠne": 8568,
      "waĠna": 8569,
      "ĠÃłĠla": 8570,
      "Ġáĭ¨áĬłáĪĽáĪŃáĬĽĠáĪĿáĪ³áĪĮĠáĬĲáĭįáį¢ĠáīµáĪŃáĮīáĪĻĠáĭ«áĪįáī°áī°áĪ¨áĮİáĪĺĠáĪĿáĪ³áĪĮĠáī°áĪ¨áīµáĬĵĠáĪĿáĪ³áĪĮ": 8571,
      "ĠlâĢĻ": 8572,
      "ĠdaĠke": 8573,
      "'ar": 8574,
      "Ġ(an": 8575,
      "ĠáĪĺáĭ°áī¥Ġ:": 8576,
      "MakalaĠhii": 8577,
      "MakalaĠhiiĠinahusu": 8578,
      "MakalaĠhiiĠinahusuĠmwaka": 8579,
      "Ġ(anĠhaife": 8580,
      ".áĬ¤": 8581,
      ").ĠMatukio": 8582,
      ",ĠÃ³": 8583,
      "ĠÆĻwallonĠÆĻafa": 8584,
      "gáº¹Ìģ": 8585,
      "Ġorile-ede": 8586,
      "ĠKristo).ĠMatukio": 8587,
      "Ġ(BaadaĠya": 8588,
      "Ġ(BaadaĠyaĠKristo).ĠMatukio": 8589,
      "ĠÃłĠl'": 8590,
      ",Ġna": 8591,
      ".áĬł.": 8592,
      ",Ġet": 8593,
      "ĠáĬĵáī¸áĭįáį¢": 8594,
      ",Ġla": 8595,
      "Ġpáº¹ÌĢ": 8596,
      ",ĠmshindiĠwaĠTuzoĠyaĠNobelĠya": 8597,
      "pá»įÌĢ": 8598,
      "ĠaĠranar": 8599,
      "Ġlá»įÌģ": 8600,
      "Ġs'": 8601,
      "ĠkatiĠya": 8602,
      ".ĠManazarta": 8603,
      "ĠÃĮpÃŃnláº¹ÌĢ": 8604,
      "ĠnÃŃĠá»įdÃºn": 8605,
      "Ġgáº¹Ìģ": 8606,
      ",Ġthe": 8607,
      ",Ġya": 8608,
      ".ĠItokasiĠÃĢwá»įn": 8609,
      "ráº¹ÌĢ": 8610,
      ")Ġje": 8611,
      "ĠdaĠta": 8612,
      ",Ġil": 8613,
      "Ġgáº¹Ìģgáº¹Ìģ": 8614,
      "ĠáĬ¥.áĬ¤": 8615,
      "Ġiá¹£áº¹Ìģ": 8616,
      "Ġpáº¹ÌĢlÃº": 8617,
      "ĠKarneĠya": 8618,
      "ĠwasanĠÆĻwallonĠÆĻafa": 8619,
      "Ġqu'": 8620,
      "áĪīáį¢": 8621,
      ",ĠS": 8622,
      "Ġjama'a": 8623,
      "Ġ(BaadaĠyaĠKristo).ĠMatukioĠWaliozaliwa": 8624,
      "áĪįáį¢": 8625,
      "ĠAmáº¹Ìģ": 8626,
      "ĠáĪĺáĭ°áī¥Ġ:Ġáī°áĪ¨áīµáĬĵĠáĪĿáĪ³áĪĮ": 8627,
      "ĠAmáº¹ÌģrÃŃkÃł": 8628,
      "s,": 8629,
      "es,": 8630,
      "Ġ'yan": 8631,
      "ĠnaĠfarko": 8632,
      "Ġmáº¹Ìģ": 8633,
      ",Ġan": 8634,
      "ĠtaĠÆĻasar": 8635,
      "-áº¹ÌĢ": 8636,
      "ĠdaĠsuka": 8637,
      "ĠdaĠya": 8638,
      "ĠdâĢĻ": 8639,
      "ÌĢráº¹ÌĢ": 8640,
      "Ġal'": 8641,
      "ÌģkasÃŃ": 8642,
      ",ĠM": 8643,
      "ĠtoĠthe": 8644,
      "ĠwasanĠÆĻwallonĠÆĻafaĠtaĠÆĻasar": 8645,
      "ká»įÌĢ": 8646,
      "ĠáĬ¥.áĬ¤.áĬł.": 8647,
      ",ĠK": 8648,
      "ĠkutokaĠMarekani": 8649,
      "Ġáĭĵ/áĪĿĠ-": 8650,
      "ĠbaĠda": 8651,
      "ĠaĠNajeriya": 8652,
      "s.": 8653,
      ")Ġni": 8654,
      "ĠpamojaĠna": 8655,
      ",ĠB": 8656,
      ",Ġles": 8657,
      "Ġd'un": 8658,
      "ĠdansĠle": 8659,
      "ĠniĠÃ³": 8660,
      "ĠtanaĠda": 8661,
      ")Ġ(": 8662,
      "ĠnaĠku": 8663,
      "áĭĭáĪįáį¢": 8664,
      "Ġ(M": 8665,
      "Ġ(anĠhaifeĠshi": 8666,
      "ĠneĠa": 8667,
      "Ġá»ĮÌĢ": 8668,
      "ĠtÃŃĠa": 8669,
      "1-": 8670,
      "ĠJami'ar": 8671,
      "ĠamfaniĠda": 8672,
      "jáº¹Ìģ": 8673,
      "o,": 8674,
      "rá»įÌĢ": 8675,
      "'est": 8676,
      "Ġd'une": 8677,
      "Ġ(C": 8678,
      ".ĠÃĢwá»įn": 8679,
      "Ġ(BaadaĠyaĠKristo).ĠMatukioĠWaliozaliwaĠWaliofariki": 8680,
      "wá»įÌģ": 8681,
      "Ìģká»įÌģ": 8682,
      ",ĠO": 8683,
      "Ġ(S": 8684,
      "ĠtaĠyi": 8685,
      "áĪĿáį¢": 8686,
      "AĠcikin": 8687,
      "er,": 8688,
      "ĠwasanĠÆĻwallonĠÆĻafaĠtaĠÆĻasarĠIngila": 8689,
      "Ġáº¹ÌĢká»įÌģ": 8690,
      "ÌĢn": 8691,
      ",Ġen": 8692,
      "ĠáĬĲáīłáĪ¨áį¢": 8693,
      "Ġal-": 8694,
      ",ĠA": 8695,
      "Ġ(A": 8696,
      ".ĠA": 8697,
      "ÌģyÃ¬n": 8698,
      "Ġá»įjá»įÌģÃ¬bÃŃ": 8699,
      "es.": 8700,
      "ĠitaĠce": 8701,
      "ĠwÃłĠnÃŃ": 8702,
      "má»įÌĢ": 8703,
      "ĠáĪĽáĪĪáīµĠáĬĲáĭįáį¢": 8704,
      "Ġne.": 8705,
      "áį¢Ġáīł": 8706,
      "ĠwandaĠya": 8707,
      "anaĠna": 8708,
      "Ġgáº¹Ìģgáº¹ÌģĠbÃŃ": 8709,
      ",Ġqui": 8710,
      "L'": 8711,
      ",Ġinda": 8712,
      "Ġá»įjá»įÌģÃ¬bÃŃĠnÃŃ": 8713,
      ",Ġm": 8714,
      "já»įÌģ": 8715,
      "Ìģáº¹ÌĢ": 8716,
      ",Ġo": 8717,
      "ÌĢĠÃ¨dÃ¨": 8718,
      ",ĠD": 8719,
      "ĠdaĠake": 8720,
      "ĠyaĠkasance": 8721,
      "ĠvyaĠnje": 8722,
      "on,": 8723,
      "Ġáº¹gbáº¹Ìģ": 8724,
      "áī³áĪįáį¢": 8725,
      "ĠnchiĠya": 8726,
      "ĠNÃłÃ¬jÃŃrÃŃÃł.": 8727,
      "Ġmá»įÌģ": 8728,
      "Ġ(m": 8729,
      ",ĠN": 8730,
      "ĠdansĠla": 8731,
      "edĠby": 8732,
      "Ġ(18": 8733,
      "ĠetĠde": 8734,
      "rá»įÌģ": 8735,
      "ĠgameĠda": 8736,
      "ĠyaĠyi": 8737,
      "ĠyanaĠda": 8738,
      "Ġ(B": 8739,
      "ĠbaadaĠya": 8740,
      ",ĠT": 8741,
      "ĠmkuuĠwa": 8742,
      "Ġ(áĬ¨": 8743,
      "áį£Ġáīł": 8744,
      ",Ġl'": 8745,
      "ĠÃ¬pÃŃnláº¹ÌĢ": 8746,
      "ĠNajeriya.": 8747,
      ",ĠC": 8748,
      "ĠandĠthe": 8749,
      "ĠaĠkan": 8750,
      "ĠciĠgaba": 8751,
      ",ĠL": 8752,
      "ĠupandeĠwa": 8753,
      "ĠkumaĠta": 8754,
      "wa.": 8755,
      "ĠsamarĠda": 8756,
      "áį£Ġáĭ¨": 8757,
      "ĠniĠwá»įÌģn": 8758,
      "ĠniĠa": 8759,
      ")Ġalikuwa": 8760,
      "Ġ|ĠRD": 8761,
      "Ġlá»įĠsÃŃ": 8762,
      ",ĠI": 8763,
      "ĠaĠjihar": 8764,
      "áĪĪáī½áį¢": 8765,
      "ĠáĬŃáįįáĪĪĠáĭĺáĪĺáĬķ": 8766,
      ",ĠdaĠkuma": 8767,
      "ĠdansĠles": 8768,
      "Ìģrá»įÌģ": 8769,
      "-áº¹ÌĢká»įÌģ": 8770,
      "'in": 8771,
      "ziĠwa": 8772,
      "ingĠthe": 8773,
      "Ìģrá»įÌģÃ¬dÃ¬": 8774,
      "ĠáĬĲáīłáĪ©áį¢": 8775,
      "lá»įÌģ": 8776,
      "ĠNijeriya.": 8777,
      "Ġ(anĠhaifeĠshiĠaĠshekaraĠta": 8778,
      "ĠÃ¡stáº¹Ìģrá»įÌģÃ¬dÃ¬": 8779,
      "Ġma'": 8780,
      "-m": 8781,
      ")Ġjáº¹Ìģ": 8782,
      "Ġ(N": 8783,
      "ĠhadaĠda": 8784,
      "ĠkumaĠya": 8785,
      "ĠnÃŃĠibi": 8786,
      "ĠdaĠyawa": 8787,
      "ĠáĭŃáī£áĪĭáĪįáį¢": 8788,
      "ĠtaĠhanyar": 8789,
      "a.": 8790,
      "Wá»įÌģn": 8791,
      "ĠáĪĨáĬĲáį¢": 8792,
      "edĠto": 8793,
      "ĠtaĠkasance": 8794,
      "Ġáº¹láº¹Ìģ": 8795,
      ",ĠR": 8796,
      "ĠlughaĠya": 8797,
      "ĠilÃ©-": 8798,
      "Ġ(P": 8799,
      "u,": 8800,
      "ĠmÃ¡aĠÅĦ": 8801,
      "Ġ1.": 8802,
      "fáº¹Ìģ": 8803,
      "Ġ(BaadaĠyaĠKristo).ĠMatukioĠWaliozaliwaĠWaliofarikiĠKarneĠya": 8804,
      ",ĠF": 8805,
      "ĠetĠla": 8806,
      "wa,": 8807,
      "ĠneĠdaga": 8808,
      "ĠViungoĠvyaĠnje": 8809,
      "Ġ1,": 8810,
      "NÃŃĠá»įdÃºn": 8811,
      "ÌģtÃ¬": 8812,
      "ĠetĠle": 8813,
      "ĠáĬĲáĭįáį¡áį¡": 8814,
      ".com": 8815,
      "á¹£áº¹Ìģ": 8816,
      "ĠáĭĭáĬĵĠáĬ¨áī°áĪĽ": 8817,
      "y,": 8818,
      "AĠshekarar": 8819,
      "Ġtáº¹Ìģ": 8820,
      "ÌģtÃ¬ĠkÃ©kerÃ©": 8821,
      "ĠnaĠbiyu": 8822,
      "ĠdayaĠdagaĠcikin": 8823,
      "ĠNewĠYork": 8824,
      "ĠorÃŃláº¹ÌĢĠÃ¨dÃ¨": 8825,
      "ĠkarneĠya": 8826,
      "Ġbáº¹ÌĢráº¹ÌĢ": 8827,
      "ĠchiniĠya": 8828,
      "ĠnÃŃĠibiĠÃ¬gbÃłjÃ¡": 8829,
      "ĠplÃ¡náº¹ÌģtÃ¬ĠkÃ©kerÃ©": 8830,
      "ĠtiĠa": 8831,
      "ĠnÃŃĠibiĠÃ¬gbÃłjÃ¡ĠÃ¡stáº¹Ìģrá»įÌģÃ¬dÃ¬": 8832,
      "ĠbabbanĠbirnin": 8833,
      "Ġ(d": 8834,
      ",ĠG": 8835,
      "ĠplÃ¡náº¹ÌģtÃ¬ĠkÃ©kerÃ©ĠnÃŃĠibiĠÃ¬gbÃłjÃ¡ĠÃ¡stáº¹Ìģrá»įÌģÃ¬dÃ¬": 8836,
      "e,": 8837,
      ")ĠshiĠne": 8838,
      "jiĠwa": 8839,
      "ĠyawanĠjama'a": 8840,
      "ia,": 8841,
      "a,": 8842,
      "ĠdaĠdama": 8843,
      "ĠfromĠthe": 8844,
      "Ġ(F": 8845,
      "en,": 8846,
      ".ĠM": 8847,
      "ĠjinaĠla": 8848,
      "ĠáĭŃáĮĪáĬĽáĪįáį¢": 8849,
      "-M": 8850,
      "áī½áį¢": 8851,
      "\"Ġ(": 8852,
      "ĠneĠna": 8853,
      "wá»įÌĢ": 8854,
      ",Ġamma": 8855,
      "ĠeneoĠla": 8856,
      "áī·áĪįáį¢": 8857,
      "ĠÃ¬tá»įÌģkasÃŃ": 8858,
      ",ĠH": 8859,
      "ĠonĠthe": 8860,
      "-B": 8861,
      "áį£ĠáĬ¨": 8862,
      "k.": 8863,
      "-d": 8864,
      "jáº¹ÌģĠplÃ¡náº¹ÌģtÃ¬ĠkÃ©kerÃ©ĠnÃŃĠibiĠÃ¬gbÃłjÃ¡ĠÃ¡stáº¹Ìģrá»įÌģÃ¬dÃ¬": 8865,
      "Ã©Ġpar": 8866,
      "Ġ(198": 8867,
      "ĠwaĠMarekani": 8868,
      "Ġ(áĭ¨": 8869,
      ",ĠE": 8870,
      "ĠáĬ¥áĮįáĪŃĠáĬ³áĪµ": 8871,
      "Ġ(19": 8872,
      "edĠthe": 8873,
      "Ġ(K": 8874,
      "www.": 8875,
      "ĠarÃ¡ĠAmáº¹ÌģrÃŃkÃł": 8876,
      "ĠtÃŃĠÃ³ĠsÃ¬": 8877,
      "en.": 8878,
      "-C": 8879,
      ",ĠdaĠke": 8880,
      "waĠda": 8881,
      "ĠaĠwatan": 8882,
      "Ġmá»įÌĢ": 8883,
      "2.": 8884,
      "Ã©eĠpar": 8885,
      "Ġba.": 8886,
      "áĪ«áĪįáį¢": 8887,
      "ĠkwaĠsababu": 8888,
      "ĠyaĠK": 8889,
      "us,": 8890,
      "ĠetĠles": 8891,
      "ĠÂ«áĭ¨": 8892,
      "Ġbáº¹Ìģáº¹ÌĢ": 8893,
      "ĠaĠlokacin": 8894,
      "ĠtaĠfarko": 8895,
      "1892Ġáĭĵ.áĪĿ.": 8896,
      "jáº¹ÌģĠplÃ¡náº¹ÌģtÃ¬ĠkÃ©kerÃ©ĠnÃŃĠibiĠÃ¬gbÃłjÃ¡ĠÃ¡stáº¹Ìģrá»įÌģÃ¬dÃ¬.ĠItokasi": 8897,
      "oĠwa": 8898,
      "ia.": 8899,
      "://www.": 8900,
      "o.": 8901,
      "ĠnÃŃĠá»įjá»įÌģ": 8902,
      "ĠaĠfannin": 8903,
      "ĠkarniĠna": 8904,
      "áĬĽáį¦": 8905,
      "1.": 8906,
      "ĠwaĠni": 8907,
      ",Ġati": 8908,
      "ĠestĠun": 8909,
      "u.": 8910,
      "ĠUniversityĠof": 8911,
      "-áĬł": 8912,
      "má»įÌģ": 8913,
      ",Ġb": 8914,
      "ĠyaĠm": 8915,
      "âĢĻar": 8916,
      ",Ġni": 8917,
      "áĪĿáį¡": 8918,
      ",Ġde": 8919,
      "Ġ(s": 8920,
      "ĠÃ¬má»įÌĢ": 8921,
      "Ġn.": 8922,
      "áī£áĪįáį¢": 8923,
      "ĠÃłká»įÌģká»įÌģ": 8924,
      "ĠnÃŃĠÃ¬lÃº": 8925,
      ",Ġin": 8926,
      "ĠharĠzuwa": 8927,
      "ĠdakeĠa": 8928,
      ",ĠJ": 8929,
      "ĠaĠgasar": 8930,
      "ĠforĠthe": 8931,
      "ĠkÃŃĠÃ³": 8932,
      "esĠde": 8933,
      "ĠÃĮtá»įÌģkasÃŃ": 8934,
      "Ġ'yar": 8935,
      "-O": 8936,
      "ĠtÃŃĠÃłwá»įn": 8937,
      "-s": 8938,
      ",Ġmais": 8939,
      ")Ġ-": 8940,
      "ĠwasanĠkwaikwayo": 8941,
      "Ġ(199": 8942,
      "Ġfina-": 8943,
      "Ġ(T": 8944,
      "ĠdaĠna": 8945,
      "2-": 8946,
      "ĠsehemuĠya": 8947,
      ",ĠÃłti": 8948,
      "ĠatĠthe": 8949,
      "Ġá»įÌĢpá»įÌĢ": 8950,
      "ká»įÌĢá»įÌģ": 8951,
      ",ĠÃł": 8952,
      "e.": 8953,
      "sáº¹ÌĢ": 8954,
      "ĠniĠo": 8955,
      "Ġ(D": 8956,
      "edĠin": 8957,
      "-A": 8958,
      "taĠna": 8959,
      "ĠáĪ¥áĪŃáĭĪĠáĪĺáĬķáĮįáĪ¥áīµ": 8960,
      "ĠtÃŃĠÃ³Ġti": 8961,
      "er.": 8962,
      "ĠáīĢáĬķĠáīłáĬ¢áīµáĭ®áĮµáĭ«": 8963,
      "ĠnÃŃĠÃĮpÃŃnláº¹ÌĢ": 8964,
      ",Ġto": 8965,
      "ĠyaĠku": 8966,
      "ĠofĠa": 8967,
      "ĠciĠgabaĠda": 8968,
      "Ġ'Yan": 8969,
      "i.": 8970,
      "ĠsurĠle": 8971,
      "ĠdanĠwasanĠÆĻwallonĠÆĻafaĠtaĠÆĻasarĠIngila": 8972,
      "ĠnÃ¡Ãł.": 8973,
      "ĠkutokanaĠna": 8974,
      "áĪĿáį£": 8975,
      "ĠtaĠzama": 8976,
      ",Ġun": 8977,
      ":ĠThe": 8978,
      "tá»įÌĢ": 8979,
      ",Ġsai": 8980,
      "Ġ(L": 8981,
      "ĠjuuĠya": 8982,
      ",Ġsannan": 8983,
      "ĠyaĠzama": 8984,
      ")Ġna": 8985,
      ",Ġc": 8986,
      "ĠdagaĠbaya": 8987,
      "Ġ2.": 8988,
      "ĠáĬ¥áĬĵĠáĭ¨": 8989,
      "ĠáĭĵáĬŃáĪįáīł.ĠáĮįáĭµáĪĿ": 8990,
      ",ĠP": 8991,
      "AĠwatan": 8992,
      "Ġ(G": 8993,
      "ĠilÃ©-áº¹ÌĢká»įÌģ": 8994,
      "ĠaĠyankin": 8995,
      "-S": 8996,
      "3.": 8997,
      "ĠáĮĢáĪĿáĪ®ĠáĬ¥áĪµáĬ¨": 8998,
      ",ĠtareĠda": 8999,
      "ĠdaĠshi": 9000,
      "Ġ-ĠMtakatifu": 9001,
      "4.": 9002,
      ",Ġs": 9003,
      "c.": 9004,
      "-I": 9005,
      "Ġáº¹láº¹ÌģbÃ¹n": 9006,
      ".ĠK": 9007,
      "Ġáĭ¨áĬłáĪĽáĪŃáĬĽĠáĪĿáĪ³áĪĮĠáĬĲáĭįáį¢ĠáīµáĪŃáĮīáĪĻĠáĪĺáĭ°áī¥Ġ:Ġáī°áĪ¨áīµáĬĵĠáĪĿáĪ³áĪĮ": 9008,
      "ĠmaiĠsuna": 9009,
      "ĠyaĠk": 9010,
      "ĠceĠta": 9011,
      "Ġ(p": 9012,
      "báº¹ÌĢráº¹ÌĢ": 9013,
      "Ġ(ojoibi": 9014,
      ",ĠW": 9015,
      "y.": 9016,
      "ĠOrodhaĠya": 9017,
      "ĠnaĠm": 9018,
      "ĠgabatarĠda": 9019,
      "ĠTazamaĠpia": 9020,
      ".ĠH": 9021,
      "-Ã¬": 9022,
      "Ġáº¸ÌĢ": 9023,
      "ĠyaĠmwaka": 9024,
      "ĠáĬ¥áĬĵĠáīł": 9025,
      "ĠsurĠla": 9026,
      "-19": 9027,
      "ĠdeĠlâĢĻ": 9028,
      "ĠnÃŃnÃºĠÃłwá»įn": 9029,
      ",Ġ\"": 9030,
      "ĠtÃŃĠÃ³Ġjáº¹Ìģ": 9031,
      "áī°áĭĭáĪįáį¢": 9032,
      ",Ġmwandishi": 9033,
      "sa.": 9034,
      "ĠwakatiĠwa": 9035,
      "Ġqu'il": 9036,
      "ĠgbajÃºmá»įÌĢ": 9037,
      "Ġráº¹ÌĢ.": 9038,
      "ĠáĮį.": 9039,
      ")Ġa": 9040,
      "ĠnaĠshekarar": 9041,
      "ĠfimĠdin": 9042,
      "-R": 9043,
      "báº¹ÌĢ": 9044,
      ".ĠI": 9045,
      "Ġ(I": 9046,
      "ĠtoĠgba": 9047,
      "AĠranar": 9048,
      "ĠáĭŃáī½áĪĭáĪįáį¢": 9049,
      "ĠnÃŃĠÃ¬": 9050,
      "Ġ(n": 9051,
      "Ġfáº¹Ìģ": 9052,
      "ĠfÃºnĠÃłwá»įn": 9053,
      "áĬķáį¡": 9054,
      "waĠa": 9055,
      "ĠKanananĠhukumomin": 9056,
      "ĠmjiĠwa": 9057,
      "ĠáĭŃáī³áĭĪáīĥáĪįáį¢": 9058,
      "-1": 9059,
      "Ġ(J": 9060,
      "ĠnÃŃnÃºĠerÃ©": 9061,
      "gbá»įÌĢn": 9062,
      "ĠparĠle": 9063,
      "ĠhukumaĠce": 9064,
      "ĠtÃŃĠÃ³ĠÅĦ": 9065,
      ",Ġt": 9066,
      "ĠáĭįáĪµáĮ¥Ġáĭ¨áĪļáĮĪáĬĿ": 9067,
      "-K": 9068,
      "Ġ2,": 9069,
      "Ġ(R": 9070,
      "lá»įpá»įÌĢ": 9071,
      "áĪĭáĪįáį¢": 9072,
      "an,": 9073,
      "zoĠya": 9074,
      "'i": 9075,
      "Ġáīł18": 9076,
      "ÌĢáº¹Ìģ": 9077,
      "ĠetĠdes": 9078,
      "Ġáī¤áī°ĠáĬŃáĪŃáĪµáī²áĭ«áĬķ": 9079,
      "Ġtele.ĠItokasiĠÃĢwá»įn": 9080,
      "Ġáº¹ÌĢyÃł": 9081,
      ",Ġk": 9082,
      "on.": 9083,
      "ĠdeĠson": 9084,
      ",Ġlakini": 9085,
      "ĠwaĠfilamu": 9086,
      "Ġ(E": 9087,
      ",Ġko": 9088,
      "ĠáīłáĭĺáĪĺáĬĲĠáĭ®áĪĲáĬķáĪµ": 9089,
      "A.": 9090,
      "ĠdansĠl'": 9091,
      "ta.": 9092,
      "ĠaĠduniya": 9093,
      "Ġ(áīł": 9094,
      "ĠyaĠmutu": 9095,
      "áĬĽáĭįĠáĬŃáįįáĪĪĠáĭĺáĪĺáĬķ": 9096,
      "ĠkulaĠda": 9097,
      "Ġ(U": 9098,
      "ĠaĠkasar": 9099,
      "ĠtiĠwon": 9100,
      "ĠwithĠthe": 9101,
      "-P": 9102,
      "ĠmaĠÅĦ": 9103,
      "MwakaĠwa": 9104,
      ",ĠmshindiĠwaĠTuzoĠyaĠNobelĠyaĠTiba": 9105,
      "ĠtaĠfara": 9106,
      "ĠasĠa": 9107,
      "Ġkáº¹Ìģ": 9108,
      "-18": 9109,
      ".ĠL": 9110,
      "ĠaikiĠa": 9111,
      "gbáº¹Ìģ": 9112,
      "Ġ|ĠRD1-": 9113,
      ",Ġp": 9114,
      "ĠAfrikaĠya": 9115,
      "Ġáº¹láº¹ÌģbÃ¹nĠNobel": 9116,
      "ĠáĪ²áĪĨáĬķáį£": 9117,
      "ĠáĪ²áĪĨáĬķĠáĭŃáĪħ": 9118,
      "-Ãł": 9119,
      "ĠRoma,": 9120,
      "Ġpá»įÌĢ": 9121,
      "ĠorÃŃláº¹ÌĢ-Ã¨dÃ¨ĠNÃłÃ¬jÃŃrÃŃÃł": 9122,
      "Ġ(O": 9123,
      "ĠasĠthe": 9124,
      "Ġ(b": 9125,
      ",ĠU": 9126,
      "S.": 9127,
      "iá¹£áº¹Ìģ": 9128,
      "ya.": 9129,
      "ĠwaĠTanzania": 9130,
      "ĠpÃ¨ĠnÃŃ": 9131,
      ",Ġg": 9132,
      "Ġ(197": 9133,
      "áĪĿĠáīł": 9134,
      ")Ġet": 9135,
      "áī¸áĭįáį¢": 9136,
      "5.": 9137,
      ",Ġmwigizaji": 9138,
      "ani.": 9139,
      "ĠlokacinĠda": 9140,
      "ĠwaĠkwanza": 9141,
      "in,": 9142,
      "Ġ(W": 9143,
      "-daban": 9144,
      "ĠyaĠfara": 9145,
      "ĠaikiĠaĠmatsayin": 9146,
      "Ġláº¹ÌģyÃ¬n": 9147,
      "ĠsikuĠya": 9148,
      "Ġn'": 9149,
      "ĠparĠles": 9150,
      "ĠÃłwá»įnĠá»įjá»įÌģÃ¬bÃŃĠnÃŃ": 9151,
      "Ġdaban-daban": 9152,
      "Ġá¹£iá¹£áº¹Ìģ": 9153,
      "i,": 9154,
      "an.": 9155,
      "ĠÃłtiĠÃłwá»įn": 9156,
      "7.": 9157,
      "ĠtaĠsamu": 9158,
      "ĠgudanarĠda": 9159,
      "Ġ(anĠhaifeĠta": 9160,
      "1,": 9161,
      "ráº¹Ìģ": 9162,
      "ĠyayinĠda": 9163,
      "Ġn.k.": 9164,
      "ĠisĠa": 9165,
      "ĠkutokaĠnchiĠya": 9166,
      "Ġne,ĠdaĠke": 9167,
      "áĬĵĠáĬ¨": 9168,
      "ya,": 9169,
      "láº¹Ìģ": 9170,
      "Ġá¹£eĠÃł": 9171,
      "ĠbaĠta": 9172,
      "Ã©Ġen": 9173,
      ",ĠwandaĠya": 9174,
      "ĠÃłká»įÌģ": 9175,
      ".ĠS": 9176,
      ")Ġáĭ¨": 9177,
      ",Ġwá»įÌģn": 9178,
      "arĠda": 9179,
      "ĠáĬłáĭ²áĪµĠáĬłáīłáī£": 9180,
      "Ġá»įÌĢkan": 9181,
      ".org": 9182,
      "sÃŃláº¹ÌĢ": 9183,
      "ĠkuduĠmaso": 9184,
      "ĠáīłáĮİáĪŃáĮİáĪŃáĭ«áĬķĠáĬ«áĪĮáĬķáĭ³áĪŃ": 9185,
      "Ġne,": 9186,
      "dá»įÌĢ": 9187,
      "áį¡áĭ¨": 9188,
      "ĠsamaĠda": 9189,
      "ĠsÃŃláº¹ÌĢ": 9190,
      "9.": 9191,
      "ation.": 9192,
      "ĠáīĢáĬķĠáį²áį±áį»áį": 9193,
      "ĠwaĠK": 9194,
      "áĪıáĪįáį¢": 9195,
      "ĠtaraĠda": 9196,
      "Ġjam'": 9197,
      "Ġ(áĬ¥áĬķáĮįáĪĬáĭĿáĬĽ": 9198,
      "áĬĵĠáĭ¨": 9199,
      "ĠqueĠle": 9200,
      "ĠáĪµáĪĿĠáīłáĬ¥áĬķáĮįáĪĬáĭĿáĬĽ": 9201,
      "ĠBKĠ(BaadaĠyaĠKristo).ĠMatukioĠWaliozaliwaĠWaliofarikiĠKarneĠya": 9202,
      ".ĠB": 9203,
      "áĪĿĠáĬ¨": 9204,
      "ĠnaĠu": 9205,
      "ĠpourĠla": 9206,
      "ĠAfirkaĠta": 9207,
      "Ġ2091Ġáĭĵ.áĪĿ.": 9208,
      "ĠáĬłáīĨáĮ£áĮłáĪŃĠ(áĬ¨": 9209,
      "1892Ġáĭĵ.áĪĿ.ĠáĮĢáĪĿáĪ®ĠáĬ¥áĪµáĬ¨": 9210,
      "ĠáīĢáĬķĠáīłáĬ¢áīµáĭ®áĮµáĭ«ĠáĬłáīĨáĮ£áĮłáĪŃĠ(áĬ¨": 9211,
      "1892Ġáĭĵ.áĪĿ.ĠáĮĢáĪĿáĪ®ĠáĬ¥áĪµáĬ¨Ġ2091Ġáĭĵ.áĪĿ.": 9212,
      "ĠáīĢáĬķĠáīłáĬ¢áīµáĭ®áĮµáĭ«ĠáĬłáīĨáĮ£áĮłáĪŃĠ(áĬ¨1892Ġáĭĵ.áĪĿ.ĠáĮĢáĪĿáĪ®ĠáĬ¥áĪµáĬ¨Ġ2091Ġáĭĵ.áĪĿ.": 9213,
      "-E": 9214,
      "ĠáīĢáĬķĠáĪĽáĪĪáīµĠáĬĲáĭįáį¢": 9215,
      "ĠtaĠNajeriya": 9216,
      "ĠkwallonĠkafa": 9217,
      "Ġshirye-": 9218,
      "-G": 9219,
[...]
