{
  "version": "1.0",
  "truncation": null,
  "padding": null,
  "added_tokens": [
    {
      "id": 0,
      "content": "<pad>",
      "single_word": false,
      "lstrip": false,
      "rstrip": false,
      "normalized": false,
      "special": true
    },
    {
      "id": 1,
      "content": "<bos>",
      "single_word": false,
      "lstrip": false,
      "rstrip": false,
      "normalized": false,
      "special": true
    },
    {
      "id": 2,
      "content": "<eos>",
      "single_word": false,
      "lstrip": false,
      "rstrip": false,
      "normalized": false,
      "special": true
    }
  ],
  "normalizer": null,
  "pre_tokenizer": {
    "type": "ByteLevel",
    "add_prefix_space": false,
    "trim_offsets": true,
    "use_regex": false
  },
  "post_processor": {
    "type": "TemplateProcessing",
    "single": [
      {
        "SpecialToken": {
          "id": "<bos>",
          "type_id": 0
        }
      },
      {
        "Sequence": {
          "id": "A",
          "type_id": 0
        }
      },
      {
        "SpecialToken": {
          "id": "<eos>",
          "type_id": 0
        }
      }
    ],
    "pair": [
      {
        "SpecialToken": {
          "id": "<bos>",
          "type_id": 0
        }
      },
      {
        "Sequence": {
          "id": "A",
          "type_id": 0
        }
      },
      {
        "SpecialToken": {
          "id": "<eos>",
          "type_id": 0
        }
      },
      {
        "SpecialToken": {
          "id": "<bos>",
          "type_id": 0
        }
      },
      {
        "Sequence": {
          "id": "B",
          "type_id": 0
        }
      },
      {
        "SpecialToken": {
          "id": "<eos>",
          "type_id": 0
        }
      }
    ],
    "special_tokens": {
      "<bos>": {
        "id": "<bos>",
        "ids": [
          1
        ],
        "tokens": [
          "<bos>"
        ]
      },
      "<eos>": {
        "id": "<eos>",
        "ids": [
          2
        ],
        "tokens": [
          "<eos>"
        ]
      }
    }
  },
  "decoder": {
    "type": "ByteLevel",
    "add_prefix_space": true,
    "trim_offsets": true,
    "use_regex": true
  },
  "model": {
    "type": "BPE",
    "dropout": null,
    "unk_token": null,
    "continuing_subword_prefix": null,
    "end_of_word_suffix": null,
    "fuse_unk": false,
    "byte_fallback": false,
    "ignore_merges": false,
    "vocab": {
      "<pad>": 0,
      "<bos>": 1,
      "<eos>": 2,
      "!": 3,
      "\"": 4,
      "#": 5,
      "$": 6,
      "%": 7,
      "&": 8,
      "'": 9,
      "(": 10,
      ")": 11,
      "*": 12,
      "+": 13,
      ",": 14,
      "-": 15,
      ".": 16,
      "/": 17,
      "0": 18,
      "1": 19,
      "2": 20,
      "3": 21,
      "4": 22,
      "5": 23,
      "6": 24,
      "7": 25,
      "8": 26,
      "9": 27,
      ":": 28,
      ";": 29,
      "<": 30,
      "=": 31,
      ">": 32,
      "?": 33,
      "@": 34,
      "A": 35,
      "B": 36,
      "C": 37,
      "D": 38,
      "E": 39,
      "F": 40,
      "G": 41,
      "H": 42,
      "I": 43,
      "J": 44,
      "K": 45,
      "L": 46,
      "M": 47,
      "N": 48,
      "O": 49,
      "P": 50,
      "Q": 51,
      "R": 52,
      "S": 53,
      "T": 54,
      "U": 55,
      "V": 56,
      "W": 57,
      "X": 58,
      "Y": 59,
      "Z": 60,
      "[": 61,
      "\\": 62,
      "]": 63,
      "^": 64,
      "_": 65,
      "`": 66,
      "a": 67,
      "b": 68,
      "c": 69,
      "d": 70,
      "e": 71,
      "f": 72,
      "g": 73,
      "h": 74,
      "i": 75,
      "j": 76,
      "k": 77,
      "l": 78,
      "m": 79,
      "n": 80,
      "o": 81,
      "p": 82,
      "q": 83,
      "r": 84,
      "s": 85,
      "t": 86,
      "u": 87,
      "v": 88,
      "w": 89,
      "x": 90,
      "y": 91,
      "z": 92,
      "{": 93,
      "|": 94,
      "}": 95,
      "~": 96,
      "¡": 97,
      "¢": 98,
      "£": 99,
      "¤": 100,
      "¥": 101,
      "¦": 102,
      "§": 103,
      "¨": 104,
      "©": 105,
      "ª": 106,
      "«": 107,
      "¬": 108,
      "®": 109,
      "¯": 110,
      "°": 111,
      "±": 112,
      "²": 113,
      "³": 114,
      "´": 115,
      "µ": 116,
      "¶": 117,
      "·": 118,
      "¸": 119,
      "¹": 120,
      "º": 121,
      "»": 122,
      "¼": 123,
      "½": 124,
      "¾": 125,
      "¿": 126,
      "À": 127,
      "Á": 128,
      "Â": 129,
      "Ã": 130,
      "Ä": 131,
      "Å": 132,
      "Æ": 133,
      "Ç": 134,
      "È": 135,
      "É": 136,
      "Ê": 137,
      "Ë": 138,
      "Ì": 139,
      "Í": 140,
      "Î": 141,
      "Ï": 142,
      "Ð": 143,
      "Ñ": 144,
      "Ò": 145,
      "Ó": 146,
      "Ô": 147,
      "Õ": 148,
      "Ö": 149,
      "×": 150,
      "Ø": 151,
      "Ù": 152,
      "Ú": 153,
      "Û": 154,
      "Ü": 155,
      "Ý": 156,
      "Þ": 157,
      "ß": 158,
      "à": 159,
      "á": 160,
      "â": 161,
      "ã": 162,
      "ä": 163,
      "å": 164,
      "æ": 165,
      "ç": 166,
      "è": 167,
      "é": 168,
      "ê": 169,
      "ë": 170,
      "ì": 171,
      "í": 172,
      "î": 173,
      "ï": 174,
      "ð": 175,
      "ñ": 176,
      "ò": 177,
      "ó": 178,
      "ô": 179,
      "õ": 180,
      "ö": 181,
      "÷": 182,
      "ø": 183,
      "ù": 184,
      "ú": 185,
      "û": 186,
      "ü": 187,
      "ý": 188,
      "þ": 189,
      "ÿ": 190,
      "Ā": 191,
      "ā": 192,
      "Ă": 193,
      "ă": 194,
      "Ą": 195,
      "ą": 196,
      "Ć": 197,
      "ć": 198,
      "Ĉ": 199,
      "ĉ": 200,
      "Ċ": 201,
      "ċ": 202,
      "Č": 203,
      "č": 204,
      "Ď": 205,
      "ď": 206,
      "Đ": 207,
      "đ": 208,
      "Ē": 209,
      "ē": 210,
      "Ĕ": 211,
      "ĕ": 212,
      "Ė": 213,
      "ė": 214,
      "Ę": 215,
      "ę": 216,
      "Ě": 217,
      "ě": 218,
      "Ĝ": 219,
      "ĝ": 220,
      "Ğ": 221,
      "ğ": 222,
      "Ġ": 223,
      "ġ": 224,
      "Ģ": 225,
      "ģ": 226,
      "Ĥ": 227,
      "ĥ": 228,
      "Ħ": 229,
      "ħ": 230,
      "Ĩ": 231,
      "ĩ": 232,
      "Ī": 233,
      "ī": 234,
      "Ĭ": 235,
      "ĭ": 236,
      "Į": 237,
      "į": 238,
      "İ": 239,
      "ı": 240,
      "Ĳ": 241,
      "ĳ": 242,
      "Ĵ": 243,
      "ĵ": 244,
      "Ķ": 245,
      "ķ": 246,
      "ĸ": 247,
      "Ĺ": 248,
      "ĺ": 249,
      "Ļ": 250,
      "ļ": 251,
      "Ľ": 252,
      "ľ": 253,
      "Ŀ": 254,
      "ŀ": 255,
      "Ł": 256,
      "ł": 257,
      "Ń": 258,
      "áĪ": 259,
      "Ġá": 260,
      "áī": 261,
      "áĬ": 262,
      "áĭ": 263,
      "an": 264,
      "ar": 265,
      "áĮ": 266,
      "Ġáĭ": 267,
      "ĠáĬ": 268,
      "in": 269,
      "ĠáĪ": 270,
      "áį": 271,
      "áĬķ": 272,
      "Ġd": 273,
      "Ġáī": 274,
      "Ġk": 275,
      "wa": 276,
      "Ġt": 277,
      "Ġa": 278,
      "Ġn": 279,
      "Ġs": 280,
      "áīµ": 281,
      "Ġm": 282,
      "ya": 283,
      "áĪŃ": 284,
      "on": 285,
      "ĠÃ": 286,
      "»į": 287,
      "ÃŃ": 288,
      "en": 289,
      "er": 290,
      "Ġáĭ¨": 291,
      "áĭį": 292,
      "Ġl": 293,
      "at": 294,
      "es": 295,
      "á»į": 296,
      "un": 297,
      "łáĪ": 298,
      "li": 299,
      "Ġda": 300,
      "áĪĿ": 301,
      "º¹": 302,
      "áĪį": 303,
      "Ã©": 304,
      "áĪµ": 305,
      "ka": 306,
      "áº¹": 307,
      "am": 308,
      "Ġya": 309,
      "is": 310,
      "as": 311,
      "ĠA": 312,
      "Ġc": 313,
      "Ġwa": 314,
      "or": 315,
      "Ġb": 316,
      "Ġ(": 317,
      "Ġp": 318,
      "áį¢": 319,
      "he": 320,
      "ĠM": 321,
      "Ġ1": 322,
      "áĬĵ": 323,
      "Ìģ": 324,
      "it": 325,
      "Ġáīł": 326,
      "áī°": 327,
      "áĪĪ": 328,
      "áĭ«": 329,
      "ĠáĮ": 330,
      "Ãł": 331,
      "ÌĢ": 332,
      "al": 333,
      "ur": 334,
      "Ġf": 335,
      "áĭŃ": 336,
      "áĪĺ": 337,
      "ĠáĬ¥": 338,
      "Ġh": 339,
      "Ġna": 340,
      "ir": 341,
      "Ã¡": 342,
      "áī½": 343,
      "Ġo": 344,
      "Ġg": 345,
      "il": 346,
      "ĠáĬł": 347,
      "Ġr": 348,
      "ab": 349,
      "ĠK": 350,
      "áĭ°": 351,
      "áĬĲ": 352,
      "ik": 353,
      "Ġku": 354,
      "Ġw": 355,
      "Ġta": 356,
      "ĠS": 357,
      "ti": 358,
      "áī¥": 359,
      "áĮĪ": 360,
      "áĪ¨": 361,
      "ma": 362,
      "áĭµ": 363,
      "Ãº": 364,
      "us": 365,
      "áĪĭ": 366,
      "ĠáĬĲ": 367,
      "áĮį": 368,
      "Ġj": 369,
      "Ã¬": 370,
      "da": 371,
      "ĠáĪĺ": 372,
      "hi": 373,
      "le": 374,
      "ĠN": 375,
      "ĠÃł": 376,
      "áīł": 377,
      "áĪ«": 378,
      "ta": 379,
      "áī³": 380,
      "ĠB": 381,
      "ĠáĬ¨": 382,
      "ati": 383,
      "Ġ2": 384,
      "ia": 385,
      "ĠI": 386,
      "áĬŃ": 387,
      "Ġde": 388,
      "om": 389,
      "ba": 390,
      "Ġ19": 391,
      "ai": 392,
      "Ã¨": 393,
      "ĠT": 394,
      "áĪĽ": 395,
      "áĪ³": 396,
      "ana": 397,
      "áī£": 398,
      "ha": 399,
      "el": 400,
      "Ġáį": 401,
      "ĠC": 402,
      "et": 403,
      "Ġni": 404,
      "Ġz": 405,
      "ara": 406,
      "ent": 407,
      "Ġy": 408,
      "Ġi": 409,
      "áĬĽ": 410,
      "Ġáī°": 411,
      "Ġla": 412,
      "áĪª": 413,
      "ĠáĭŃ": 414,
      "to": 415,
      "¹£": 416,
      "ĠáīłáĪ": 417,
      "and": 418,
      "Ã³": 419,
      "Ġáĭ¨áĪ": 420,
      "ay": 421,
      "em": 422,
      "ed": 423,
      "ĠáĬłáĪ": 424,
      "gb": 425,
      "ut": 426,
      "áĪħ": 427,
      "áĮ¥": 428,
      "áĬ¨": 429,
      "ĠP": 430,
      "áį£": 431,
      "Ġma": 432,
      "di": 433,
      "ĠáĪĿ": 434,
      "Ġ20": 435,
      "ĠnÃŃ": 436,
      "ĠW": 437,
      "Ġin": 438,
      "um": 439,
      "á»įn": 440,
      "âĢ": 441,
      "ol": 442,
      "Ġáĭ¨áĬ": 443,
      "ga": 444,
      "ani": 445,
      "Ġthe": 446,
      "qu": 447,
      "ic": 448,
      "ĠL": 449,
      "ĠD": 450,
      "ĠáĭĪ": 451,
      "áį¡": 452,
      "ĠG": 453,
      "ĠJ": 454,
      "áįį": 455,
      "ĠO": 456,
      "áĭ³": 457,
      "ĠáĬĲáĭį": 458,
      "áīĢ": 459,
      "ĠF": 460,
      "áĭ¨": 461,
      "ĠÃ¬": 462,
      "ĠáĬ¥áĬķ": 463,
      "ke": 464,
      "wá»įn": 465,
      "áĭĪ": 466,
      "ul": 467,
      "Ã¹": 468,
      "Ġof": 469,
      "re": 470,
      "ing": 471,
      "ĠH": 472,
      "ce": 473,
      "si": 474,
      "ĠR": 475,
      "áĪ°": 476,
      "ro": 477,
      "áīħ": 478,
      "Ġá»į": 479,
      "Ã²": 480,
      "áĪĮ": 481,
      "áĬ«": 482,
      "ĠáĪĪ": 483,
      "uk": 484,
      "iya": 485,
      "á¹£": 486,
      "la": 487,
      "Ġ-": 488,
      "sa": 489,
      "áĬł": 490,
      "ari": 491,
      "ch": 492,
      "ali": 493,
      "ad": 494,
      "im": 495,
      "ÆĻ": 496,
      "ĠáĪµ": 497,
      "áī¸": 498,
      "os": 499,
      "Ġáĭ«": 500,
      "iy": 501,
      "ĠE": 502,
      "Ãºn": 503,
      "áĪī": 504,
      "Ġáĭĵ": 505,
      "ĠU": 506,
      "Ġv": 507,
      "ci": 508,
      "ĠtÃŃ": 509,
      "ri": 510,
      "uwa": 511,
      "áīłáĪ": 512,
      "áĭĬ": 513,
      "are": 514,
      "áĭĭ": 515,
      "áĪ®": 516,
      "áī±": 517,
      "İáī½": 518,
      "ra": 519,
      "áī¸áĭį": 520,
      "áįĪ": 521,
      "ak": 522,
      "Ġkuma": 523,
      "Ġáĭ¨áĪļ": 524,
      "áĭĿ": 525,
      "áĮ£": 526,
      "hek": 527,
      "ama": 528,
      "áĪĨ": 529,
      "ĠáĪĽ": 530,
      "ji": 531,
      "ant": 532,
      "00": 533,
      "áĭļ": 534,
      "áī¶": 535,
      "áĪ³áĪĮ": 536,
      "Ġle": 537,
      "Ġshek": 538,
      "áĮł": 539,
      "ko": 540,
      "áĮī": 541,
      "Ġti": 542,
      "ation": 543,
      "Ġne": 544,
      "de": 545,
      "Ġto": 546,
      "te": 547,
      "ĠÆĻ": 548,
      "ig": 549,
      "áĮĭ": 550,
      "ikin": 551,
      "ĠáīłáĬ": 552,
      "áĭ®": 553,
      "ĠáĪĿáĪ³áĪĮ": 554,
      "19": 555,
      "est": 556,
      "Ġkwa": 557,
      "Ġet": 558,
      "iki": 559,
      "hin": 560,
      "fa": 561,
      "ye": 562,
      "Ġsu": 563,
      "ĠáĪ²": 564,
      "ann": 565,
      "ĠÃ³": 566,
      "áĭ²": 567,
      "ug": 568,
      "ang": 569,
      "áĬķáĭµ": 570,
      "ĠáĮį": 571,
      "Ġen": 572,
      "Ġáīµ": 573,
      "Ġor": 574,
      "láº¹": 575,
      "Ġand": 576,
      "áĭİáī½": 577,
      "Ġáĭĺ": 578,
      "ini": 579,
      "áĮįáĪ": 580,
      "pa": 581,
      "ili": 582,
      "áīĥ": 583,
      "wan": 584,
      "Ġun": 585,
      "Ġkas": 586,
      "áĬĸ": 587,
      "áĭĺ": 588,
      "ĠY": 589,
      "Ġil": 590,
      "Ġba": 591,
      "za": 592,
      "Ġ201": 593,
      "ata": 594,
      "ec": 595,
      "Ġáĭ¨áī°": 596,
      "op": 597,
      "ĠáĬ¥áĬĵ": 598,
      "áĬĲáīµ": 599,
      "ĠáĪ°": 600,
      "og": 601,
      "har": 602,
      "rÃŃ": 603,
      "Ġáī¥": 604,
      "áĬ¥": 605,
      "ag": 606,
      "bi": 607,
      "Ġal": 608,
      "jer": 609,
      "Ġe": 610,
      "ina": 611,
      "Ġáĭį": 612,
      "áĪĻ": 613,
      "war": 614,
      "zi": 615,
      "Ġ\"": 616,
      "Ġcikin": 617,
      "ans": 618,
      "áĪ©": 619,
      "ĠÃĢ": 620,
      "Ġza": 621,
      "que": 622,
      "ot": 623,
      "ĠáīĢ": 624,
      "Ġu": 625,
      "ers": 626,
      "me": 627,
      "toka": 628,
      ").": 629,
      "Ãłn": 630,
      "ub": 631,
      "áīłáĪŃ": 632,
      "ung": 633,
      "Ġáĭ°": 634,
      "ĭáĭŃ": 635,
      "ĠÂ": 636,
      "st": 637,
      "ĠÃłwá»įn": 638,
      "ká»į": 639,
      "ĠáĬ¥áĬķáĭ°": 640,
      "Ġdaga": 641,
      "Ġdes": 642,
      "áĭĽ": 643,
      "Ġáĭ¨áĬłáĪ": 644,
      "anda": 645,
      "bo": 646,
      "ĠâĢ": 647,
      "Ġha": 648,
      "ist": 649,
      "Ġshi": 650,
      "áĪļ": 651,
      "ne": 652,
      "ĠáĬŃ": 653,
      "Ġwas": 654,
      "Ġce": 655,
      "Ġkati": 656,
      "iv": 657,
      "una": 658,
      "Ġáº¹": 659,
      "áī²": 660,
      "áĮħ": 661,
      "áī¢": 662,
      "our": 663,
      "Ġam": 664,
      "áĬĳ": 665,
      "fi": 666,
      "cin": 667,
      "),": 668,
      "yo": 669,
      "áįĭ": 670,
      "ĠáĪį": 671,
      "ki": 672,
      "áĪİ": 673,
      "Ġsa": 674,
      "jeriya": 675,
      "fu": 676,
      "Ġkar": 677,
      "Ġjáº¹": 678,
      "já»į": 679,
      "ÉĹ": 680,
      "ita": 681,
      "Ġ200": 682,
      "du": 683,
      "áĬĿ": 684,
      "Ġga": 685,
      "Ġali": 686,
      "Ġmat": 687,
      "Ġá¹£": 688,
      "Ġko": 689,
      "waka": 690,
      "áĪ±": 691,
      "Ġpar": 692,
      "áĪŀ": 693,
      "áį¤": 694,
      "áĪĨáĬķ": 695,
      "Ġshekar": 696,
      "Ġdu": 697,
      "áĪ½": 698,
      "ine": 699,
      "iyar": 700,
      "id": 701,
      "ĠAf": 702,
      "ĠNa": 703,
      "áĮİ": 704,
      "ĠV": 705,
      "kin": 706,
      "we": 707,
      "ja": 708,
      "asa": 709,
      "áĭ«áĬķ": 710,
      "áĪĬ": 711,
      "Ġles": 712,
      "ĠáĪĭáĭŃ": 713,
      "fin": 714,
      "áĪĪáĭį": 715,
      "Ġáī³": 716,
      "âĢĻ": 717,
      "Ġáĭµ": 718,
      "má»į": 719,
      "ou": 720,
      "áĪŃáĬĽ": 721,
      "Ġka": 722,
      "Ġkan": 723,
      "áĭ±": 724,
      "Ġáī£": 725,
      "rÃ©": 726,
      "áĪģ": 727,
      "ere": 728,
      "ge": 729,
      "Ġcon": 730,
      "ter": 731,
      "ĠÃ¨": 732,
      "áĪ¥": 733,
      "áĭļáĪħ": 734,
      "¢áīµ": 735,
      "ĠÃłti": 736,
      "ho": 737,
      "ĽáĪŃáĬĽ": 738,
      "¢áīµáĭ®": 739,
      "áĮµ": 740,
      "Ġkatika": 741,
      "Ġan": 742,
      "áĬĴ": 743,
      "áĭķ": 744,
      "kan": 745,
      "ĠIn": 746,
      "Ġ.": 747,
      "áīĨ": 748,
      "áĮĢ": 749,
      "áĪĺáĬķ": 750,
      "Ġau": 751,
      "ĠáīłáĪĺ": 752,
      "¢áīµáĭ®áĮµ": 753,
      "Ġmas": 754,
      "ĠÂ«": 755,
      "ob": 756,
      "ĠÃĮ": 757,
      "ion": 758,
      "áĪĪáīµ": 759,
      "tion": 760,
      "ĠAm": 761,
      "Ġ18": 762,
      "zo": 763,
      "Ġráº¹": 764,
      "Ġon": 765,
      "dÃºn": 766,
      "áĮ½": 767,
      "áĮĪáĪŃ": 768,
      "po": 769,
      "je": 770,
      "chi": 771,
      "áĪ¬": 772,
      "áī¡": 773,
      "ance": 774,
      "yar": 775,
      "áĪµáĮ¥": 776,
      "Ã¬n": 777,
      "¢áīµáĭ®áĮµáĭ«": 778,
      "ĠAl": 779,
      "res": 780,
      "Ġ3": 781,
      "lÃº": 782,
      "aba": 783,
      "Ġáĭ¨áĬłáĪĽáĪŃáĬĽ": 784,
      "ĠÃĢwá»įn": 785,
      "th": 786,
      "Ġmwaka": 787,
      "ie": 788,
      "ĠMa": 789,
      "áĪ¨áīµ": 790,
      "ĠsÃŃ": 791,
      "ÅĦ": 792,
      "rin": 793,
      "Ġar": 794,
      "Ġ:": 795,
      "Ġre": 796,
      "ĠÃ©": 797,
      "áĭľ": 798,
      "áīłáīµ": 799,
      "ĠáĬĲáīłáĪŃ": 800,
      "Ġse": 801,
      "ĠlÃ¡": 802,
      "ĠAn": 803,
      "20": 804,
      "ĠáĮ¥": 805,
      "ov": 806,
      "Ġke": 807,
      "Ġsh": 808,
      "Ġshekara": 809,
      "ĠÃ²": 810,
      "ĠáĪĺáĬķ": 811,
      "Ġcom": 812,
      "Ã¹n": 813,
      "áĪ»": 814,
      "Ġmai": 815,
      "Ġyi": 816,
      "ĠáĭĪáĭ°": 817,
      "Ġshekarar": 818,
      "ile": 819,
      "Ġwat": 820,
      "ĠáĪĨ": 821,
      "ĠáĮĪ": 822,
      "áĪµáīµ": 823,
      "Ġje": 824,
      "ĠáĬ¨áī°": 825,
      "Ġqu": 826,
      "áī»": 827,
      "ud": 828,
      "Ġlo": 829,
      "ement": 830,
      "ami": 831,
      "se": 832,
      "ire": 833,
      "ĠNajeriya": 834,
      "ĠáĬķ": 835,
      "Ġ199": 836,
      "ila": 837,
      "ni": 838,
      "asar": 839,
      "od": 840,
      "Ġaka": 841,
      "áĭ©": 842,
      "Ġili": 843,
      "wo": 844,
      "ap": 845,
      "Ġest": 846,
      "lÃ©": 847,
      "Ġwá»į": 848,
      "áĭĵ": 849,
      "áĭįáĬķ": 850,
      "áįĬ": 851,
      "ika": 852,
      "kuwa": 853,
      "Ġas": 854,
      "bu": 855,
      "áī¶áī½": 856,
      "Ġol": 857,
      "Ġfor": 858,
      "amu": 859,
      "ban": 860,
      "Ġis": 861,
      "won": 862,
      "ÃŃn": 863,
      "ĠdÃ©": 864,
      "Â»": 865,
      "ĠÅĦ": 866,
      "ĠáĬ¥áĪµ": 867,
      "ĠáĬłáĭŃ": 868,
      "ĠáĭįáĪµáĮ¥": 869,
      "ris": 870,
      "áĪŃáĮī": 871,
      "Ġá»įdÃºn": 872,
      "á¹£áº¹": 873,
      "Ĭáĭľ": 874,
      "arin": 875,
      "ber": 876,
      "áĮłáĪ": 877,
      "anz": 878,
      "alio": 879,
      "áĪªáĭ«": 880,
      "áĬĶ": 881,
      "dÃ¨": 882,
      "Ġpro": 883,
      "ly": 884,
      "ve": 885,
      "anar": 886,
      "áīĭ": 887,
      "ihar": 888,
      "ĠáĪģ": 889,
      "fe": 890,
      "áĭ¶": 891,
      "ku": 892,
      "ayan": 893,
      "lo": 894,
      "far": 895,
      "áĪ²": 896,
      "Ġcha": 897,
      "áĬłáĪ": 898,
      "áĬĽáĭį": 899,
      "Ġwanda": 900,
      "Ġati": 901,
      "ah": 902,
      "ate": 903,
      "18": 904,
      "gbÃł": 905,
      "áī¦": 906,
      "ong": 907,
      "áĭŃáĪĿ": 908,
      "jo": 909,
      "au": 910,
      "ane": 911,
      "bÃŃ": 912,
      "ada": 913,
      "áĪŃáĪµ": 914,
      "Ġth": 915,
      "áĬ¤": 916,
      "say": 917,
      "áĪľ": 918,
      "Ġáīłáī°": 919,
      "áĭĻ": 920,
      "áĪĲ": 921,
      "áĬ®": 922,
      "Ġsi": 923,
      "so": 924,
      "Ġki": 925,
      "Ġpl": 926,
      "yan": 927,
      "áī¤": 928,
      "Ġáīħ": 929,
      "ĠbÃŃ": 930,
      "yi": 931,
      "tokasi": 932,
      "áĪĭáĪį": 933,
      "ĠáĬłáĪµ": 934,
      "amar": 935,
      "Ġ'": 936,
      "Ġsun": 937,
      "ĠWalio": 938,
      "ĠáĪ¥": 939,
      "Ġáī¤": 940,
      "ĠáĬ«": 941,
      "pe": 942,
      "iri": 943,
      "les": 944,
      "ric": 945,
      "ĠáīµáĪŃáĮī": 946,
      "ct": 947,
      "áĬ©": 948,
      "Ġdon": 949,
      "ĠáĮįáĬķ": 950,
      "Ġ198": 951,
      "áĪªáĬŃ": 952,
      "ĠáĬ¥áĬķáĭ²": 953,
      "ure": 954,
      "enye": 955,
      "Ġso": 956,
      "Ã¡Ãł": 957,
      "ĠZ": 958,
      "ĠáĮĭ": 959,
      "Ġáĭ¨áĬł": 960,
      "áīģ": 961,
      "áĮ¨": 962,
      "ort": 963,
      "ano": 964,
      "ff": 965,
      "annan": 966,
      "Ġkutoka": 967,
      "man": 968,
      "ale": 969,
      "áī¹": 970,
      "Ġhai": 971,
      "Ġáĭ¨áĪĺ": 972,
      "yin": 973,
      "oni": 974,
      "áīłáĪ¨": 975,
      "sh": 976,
      "ĠáĪ²áĪĨáĬķ": 977,
      "áį¡áį¡": 978,
      "ĭáĪĭ": 979,
      "ĠItokasi": 980,
      "end": 981,
      "Ġ|": 982,
      "ment": 983,
      "mi": 984,
      "Ġ197": 985,
      "áĬŃáĪį": 986,
      "»Į": 987,
      "áĮĥ": 988,
      "Ġzuwa": 989,
      "»áį": 990,
      "Ġ4": 991,
      "ĠáīµáĪŃáĮīáĪĻ": 992,
      "Ġdi": 993,
      "áĪĥ": 994,
      "ĠáĬłáĬķ": 995,
      "An": 996,
      "art": 997,
      "sayin": 998,
      "Ġ196": 999,
      "mo": 1000,
      "Ġfi": 1001,
      "ĠáīłáĬł": 1002,
      "ala": 1003,
      "áĪ´": 1004,
      "Ġfar": 1005,
      "ĠfÃºn": 1006,
      "ĠáĪ³": 1007,
      "Ġá¹£e": 1008,
      "áī´": 1009,
      "²áį": 1010,
      "mu": 1011,
      "áĮįáĪ¥": 1012,
      "kar": 1013,
      "Ġmut": 1014,
      "áĮŃ": 1015,
      "ĠáĮĬáĭľ": 1016,
      "ĠáīĢáĬķ": 1017,
      "Ġhu": 1018,
      "Ġbi": 1019,
      "be": 1020,
      "ĠáĭĪáĭŃáĪĿ": 1021,
      "Ġtare": 1022,
      "ĠtÃ³": 1023,
      "ran": 1024,
      "Ġáĭĭ": 1025,
      "Ġson": 1026,
      "áī³áīµ": 1027,
      "ĠnÃŃn": 1028,
      "Ã¡n": 1029,
      "hu": 1030,
      "ĠorÃŃ": 1031,
      "ham": 1032,
      "Ã©e": 1033,
      "sÃŃ": 1034,
      "Ġ5": 1035,
      "eng": 1036,
      "ond": 1037,
      "áĪªáĬ«": 1038,
      "ue": 1039,
      "und": 1040,
      "Ġyan": 1041,
      "ity": 1042,
      "ĠÉĹ": 1043,
      "tr": 1044,
      "oma": 1045,
      "ĠThe": 1046,
      "Ġmatsayin": 1047,
      "ĠáĪµáĪĪ": 1048,
      "ira": 1049,
      "ĠáĬĵ": 1050,
      "ll": 1051,
      "ĠáĬłáĪĪ": 1052,
      "uni": 1053,
      "200": 1054,
      "áĪ¨áīµáĬĵ": 1055,
      "ep": 1056,
      "ĠáĪĬ": 1057,
      "áĮ»": 1058,
      "jÃº": 1059,
      "ori": 1060,
      "Ġáī¢": 1061,
      "ĠáįĪ": 1062,
      "ais": 1063,
      "ĠáĬ¥áĪµáĬ¨": 1064,
      "áĪĪáĪĿ": 1065,
      "Ġdans": 1066,
      "ĠAr": 1067,
      "ĠáīłáĬĭáĪĭ": 1068,
      "asi": 1069,
      "Ġwatan": 1070,
      "ĠáĬķáĮī": 1071,
      "ĠâĢĵ": 1072,
      "ĠnÃ¡Ãł": 1073,
      "ib": 1074,
      "Ġsuka": 1075,
      "ĠáĭŃáĪħ": 1076,
      "áį»áį": 1077,
      "ÃĢ": 1078,
      "Ġwali": 1079,
      "su": 1080,
      "ĠáĭĺáĪĺáĬķ": 1081,
      "Ġhar": 1082,
      "áĬķáĪĿ": 1083,
      "Ġpe": 1084,
      "Ġhi": 1085,
      "áĪ¨áĪµ": 1086,
      "Ġlá»į": 1087,
      "Ġmw": 1088,
      "arta": 1089,
      "tÃ©": 1090,
      "ary": 1091,
      "rit": 1092,
      "ĠáĬŃáįį": 1093,
      "Ġune": 1094,
      "isi": 1095,
      "áĭĭáĪį": 1096,
      "isha": 1097,
      "Ġyana": 1098,
      "áĪ®áī½": 1099,
      "Ġáī°áĪ¨áīµáĬĵ": 1100,
      "ĠLe": 1101,
      "áĪķ": 1102,
      "usu": 1103,
      "áĮ«": 1104,
      "ĠáĬ¨áī°áĪĽ": 1105,
      "zali": 1106,
      "aban": 1107,
      "uku": 1108,
      "jÃŃ": 1109,
      "ĠnÃŃnÃº": 1110,
      "Ġbir": 1111,
      "erÃ©": 1112,
      "Ġat": 1113,
      "Ġgb": 1114,
      "abu": 1115,
      "Ġkama": 1116,
      "áĮĪáĬ": 1117,
      "ĠrÃ©": 1118,
      "ĠSt": 1119,
      "wá»į": 1120,
      "áĭİ": 1121,
      "ac": 1122,
      "Ġwasan": 1123,
      "pá»į": 1124,
      "ord": 1125,
      "aka": 1126,
      "ĠáĭĵáĪĺ": 1127,
      "ĠÆĻasar": 1128,
      "obel": 1129,
      "Ġá»įmá»į": 1130,
      "ux": 1131,
      "pp": 1132,
      "shin": 1133,
      "Ġmo": 1134,
      "Ġab": 1135,
      "ĠNobel": 1136,
      "zaliwa": 1137,
      "ces": 1138,
      "abi": 1139,
      "áĪŃáĭ«": 1140,
      "ĠMat": 1141,
      "Ġáĭķ": 1142,
      "áĮĢáĪĺ": 1143,
      "ania": 1144,
      "áįĵ": 1145,
      "Ġ6": 1146,
      "Ġá»Į": 1147,
      "áī°áĬĽ": 1148,
      "ĠUn": 1149,
      "ĠáĪĺáĬķáĮįáĪ¥": 1150,
      "ĠáĪĪáĪĺ": 1151,
      "ĠlÃ¡ti": 1152,
      "ráº¹": 1153,
      "The": 1154,
      "áĭ´": 1155,
      "'s": 1156,
      "Ġmu": 1157,
      "uri": 1158,
      "fan": 1159,
      "rÃŃÃł": 1160,
      "lá»į": 1161,
      "ith": 1162,
      "áĮįáĪŀ": 1163,
      "ĠNi": 1164,
      "ÃłÃ¬": 1165,
      "amo": 1166,
      "ash": 1167,
      "áį¦": 1168,
      "anaz": 1169,
      "Ġgba": 1170,
      "Ġáĭ«áĪį": 1171,
      "ver": 1172,
      "oli": 1173,
      "ĠlÃ³": 1174,
      "Ġ195": 1175,
      "Ġad": 1176,
      "Ġqui": 1177,
      "Ġex": 1178,
      "Ġsha": 1179,
      "Ġbe": 1180,
      "áĭµáĪŃ": 1181,
      "kwa": 1182,
      "Ġyake": 1183,
      "anazarta": 1184,
      "ĠáĮĢ": 1185,
      "ĠKi": 1186,
      "áĪ¶": 1187,
      "ĠáĬĲáĮĪ": 1188,
      "Ġáįį": 1189,
      "Ġjihar": 1190,
      "ĠAd": 1191,
      "ĠáĬ¢": 1192,
      "io": 1193,
      "ish": 1194,
      "Ġkuwa": 1195,
      "áīµáĬķ": 1196,
      "ow": 1197,
      "Ã¬ÃŃ": 1198,
      "áī³áĭĪ": 1199,
      "áī£áĪį": 1200,
      "ru": 1201,
      "tic": 1202,
      "iger": 1203,
      "Ġáīģ": 1204,
      "emi": 1205,
      "Ġnchi": 1206,
      "jÃŃrÃŃÃł": 1207,
      "iti": 1208,
      "ĠsÃ¬": 1209,
      "Ġloka": 1210,
      "ens": 1211,
      "ore": 1212,
      "ida": 1213,
      "ĠáĪķ": 1214,
      "ĠáĮĭáĪŃ": 1215,
      "ĠNÃłÃ¬": 1216,
      "ĠáīłáĪĽ": 1217,
      "oc": 1218,
      "Ġpour": 1219,
      "uniya": 1220,
      "Ġ9": 1221,
      "Ġkasance": 1222,
      "áĬŃáĪįáīł": 1223,
      "Ġ,": 1224,
      "Ġáį¡": 1225,
      "wam": 1226,
      "Ta": 1227,
      "ĠNÃłÃ¬jÃŃrÃŃÃł": 1228,
      "rom": 1229,
      "Ġav": 1230,
      "ola": 1231,
      "áĮ¡": 1232,
      "ĠáĭĵáĬŃáĪįáīł": 1233,
      "áīĤ": 1234,
      "ĠPa": 1235,
      "áĭ°áĪ¨": 1236,
      "ĠMar": 1237,
      "uli": 1238,
      "ÌĢ-": 1239,
      "..": 1240,
      "Ġá»įjá»į": 1241,
      "gbe": 1242,
      "ok": 1243,
      "nin": 1244,
      "áĪİáī½": 1245,
      "risto": 1246,
      "rika": 1247,
      "ard": 1248,
      "¦áĪŃ": 1249,
      "ene": 1250,
      "Ġáĭ°áĮįáĪŀ": 1251,
      "Ġfa": 1252,
      "ĠáĪļ": 1253,
      "Ġ17": 1254,
      "ĠWa": 1255,
      "áĬķáĮį": 1256,
      "ts": 1257,
      "Ġ7": 1258,
      "áĭ°áĪŃ": 1259,
      "ĠáĬłáĬķáĭµ": 1260,
      "elle": 1261,
      "Ġsur": 1262,
      "ĠáĬłáĪį": 1263,
      "ame": 1264,
      "gba": 1265,
      "áī°áĪ¨": 1266,
      "áĪĺáĬĲ": 1267,
      "ĠMare": 1268,
      "oh": 1269,
      "Ġts": 1270,
      "kani": 1271,
      "áĮĪáĬĿ": 1272,
      "abban": 1273,
      "ence": 1274,
      "áĪŃáīµ": 1275,
      "ĠCh": 1276,
      "Ġkw": 1277,
      "Ã©r": 1278,
      "ede": 1279,
      "kÃł": 1280,
      "ĠTu": 1281,
      "na": 1282,
      "Ġfarko": 1283,
      "jin": 1284,
      "bar": 1285,
      "lu": 1286,
      "áĬķáīµ": 1287,
      "ite": 1288,
      "Ġáĭ¨áĬ¢áīµáĭ®áĮµáĭ«": 1289,
      "á¹£Ã¹": 1290,
      "Ã¨dÃ¨": 1291,
      "Ġby": 1292,
      "áĪĶ": 1293,
      "Ġwani": 1294,
      "ĠáĪĺáĬķáĮįáĪ¥áīµ": 1295,
      "anan": 1296,
      "all": 1297,
      "fariki": 1298,
      "Ġ8": 1299,
      "ĠáĪĪáĪĽ": 1300,
      "Ġbiy": 1301,
      "ukum": 1302,
      "ĠorÃŃláº¹": 1303,
      "Ġvya": 1304,
      "ele": 1305,
      "gun": 1306,
      "pin": 1307,
      "Ġawon": 1308,
      "ĠNe": 1309,
      "áīłáĪ©": 1310,
      "che": 1311,
      "áĬķáīĭ": 1312,
      "áĬ¥áĬķ": 1313,
      "Ġdan": 1314,
      "áī½áĬķ": 1315,
      "áĬª": 1316,
      "ĠNiger": 1317,
      "Ġkam": 1318,
      "16": 1319,
      "15": 1320,
      "áĬĵáīµ": 1321,
      "ĠáĪĨáĬĲ": 1322,
      "Ġáĭ¨áĬĲ": 1323,
      "Ba": 1324,
      "up": 1325,
      "áĮįáĪĬ": 1326,
      "lÃ¡": 1327,
      "rá»į": 1328,
      "ques": 1329,
      "isa": 1330,
      "Ġbayan": 1331,
      "ĠManazarta": 1332,
      "ĠáĪįáĮħ": 1333,
      "á¹£Ã¨": 1334,
      "angu": 1335,
      "Ãĵ": 1336,
      "ass": 1337,
      "Ġranar": 1338,
      "une": 1339,
      "000": 1340,
      "Ġtana": 1341,
      "tá»į": 1342,
      "ĠilÃ©": 1343,
      "Ġplus": 1344,
      "yÃłn": 1345,
      "mp": 1346,
      "Ġtsa": 1347,
      "pÃŃn": 1348,
      "Ã©s": 1349,
      "ubu": 1350,
      "Ġay": 1351,
      "áĬķáĪµ": 1352,
      "ĠKar": 1353,
      "lis": 1354,
      "ins": 1355,
      "ĠáĭµáĪ¨áĪµ": 1356,
      "áĭļáĭ«": 1357,
      "ĠáĭĿ": 1358,
      "Ġit": 1359,
      "urs": 1360,
      "Ġwá»įn": 1361,
      "Ġhaife": 1362,
      "anta": 1363,
      "áįī": 1364,
      "Ġ194": 1365,
      "ern": 1366,
      "ction": 1367,
      "Ġáĭ«áĪįáī°": 1368,
      "ĠSh": 1369,
      "jÃ¬": 1370,
      "ua": 1371,
      "llon": 1372,
      "Ġque": 1373,
      "olog": 1374,
      "ivers": 1375,
      "ph": 1376,
      "ĠTuzo": 1377,
      "omin": 1378,
      "ura": 1379,
      "dun": 1380,
      "17": 1381,
      "jáº¹": 1382,
      "irin": 1383,
      "áĭ°áī¥": 1384,
      "ungiyar": 1385,
      "áī°áĪ¨áĮİ": 1386,
      "ht": 1387,
      "inu": 1388,
      "Ġch": 1389,
      "ĠáĪħ": 1390,
      "áĮĬ": 1391,
      "ĠáĪµáĪĿ": 1392,
      "Ġlokacin": 1393,
      "ĠáĪĮ": 1394,
      "ĠáĬ¤": 1395,
      "ishi": 1396,
      "bali": 1397,
      "uka": 1398,
      "Ġáīĭ": 1399,
      "gbo": 1400,
      "Ġáĭ¨áĬ¥": 1401,
      "áĪĨáĬĳ": 1402,
      "ĠÃ¬lÃº": 1403,
      "Ġst": 1404,
      "ugha": 1405,
      "iku": 1406,
      "áī³áĪį": 1407,
      "mar": 1408,
      "Ġmasu": 1409,
      "ĠáīłáĬ¥": 1410,
      "eb": 1411,
      "áĪ¸": 1412,
      "Ġra": 1413,
      "ĠMarekani": 1414,
      "ĠáĪĢ": 1415,
      "ĠáĬłáĮĪ": 1416,
      "ĠAfrika": 1417,
      "áĪ£": 1418,
      "Ġbiyu": 1419,
      "ito": 1420,
      "Ġsab": 1421,
      "ck": 1422,
      "²áį±": 1423,
      "áĬķáĭ«": 1424,
      "kÃ³": 1425,
      "Ġsuna": 1426,
      "min": 1427,
      "ĠáĪĽáĪĪáīµ": 1428,
      "Ġkasar": 1429,
      "Ġhii": 1430,
      "áĬĵáĪį": 1431,
      "Ġ15": 1432,
      "bÃ¡": 1433,
      "ĠWaliozaliwa": 1434,
      "Ġamba": 1435,
      "rÃ¨": 1436,
      "Ġita": 1437,
      "kun": 1438,
      "ast": 1439,
      "áī¸áĭįáĬķ": 1440,
      "ĠáĪĥ": 1441,
      "Ġ/": 1442,
      "áĪłáĪ": 1443,
      "ĠAb": 1444,
      "do": 1445,
      "Ġ16": 1446,
      "Ġmata": 1447,
      "ill": 1448,
      "áī±áĬķ": 1449,
      "Ġfun": 1450,
      "áĬ¨áī°": 1451,
      "áĭįáĭ«áĬķ": 1452,
      "ĠáĬķáĮīáĪ¥": 1453,
      "áĪµáī°": 1454,
      "10": 1455,
      "ĠWaliofariki": 1456,
      "áįķ": 1457,
      "âĢĿ": 1458,
      "Ġawá»įn": 1459,
      "Ġzama": 1460,
      "Ġhan": 1461,
      "áī°áĪ¨áĮİáĪĺ": 1462,
      "usa": 1463,
      "nÃ¬": 1464,
      "ĠHa": 1465,
      "áĪĢ": 1466,
      "Ġpia": 1467,
      "pÃŃnláº¹": 1468,
      "Ġou": 1469,
      "emp": 1470,
      "Ġáĭ¨áĪļáĭ«": 1471,
      "wÃ©": 1472,
      "ĠpÃ©": 1473,
      "14": 1474,
      "áī£áī¢": 1475,
      "áĮįáĪĬáĭĿ": 1476,
      "lia": 1477,
      "ĠáĬłáĪĺ": 1478,
      "Ġbirnin": 1479,
      "kati": 1480,
      "Ġáī³áĪªáĬŃ": 1481,
      "Ġkáº¹": 1482,
      "ĠáīłáĬłáĪ": 1483,
      "Ġáĭ«áĪįáī°áī°áĪ¨áĮİáĪĺ": 1484,
      "ition": 1485,
      "Ġ10": 1486,
      "iko": 1487,
      "ĠarÃ¡": 1488,
      "áĪĦ": 1489,
      "emba": 1490,
      "²áį±áį»áį": 1491,
      "int": 1492,
      "Ġcomp": 1493,
      "ĠáĮī": 1494,
      "ĠáĪ°áĭį": 1495,
      "Le": 1496,
      "ĠSo": 1497,
      "Ġfara": 1498,
      "uru": 1499,
      "cc": 1500,
      "áĮĤ": 1501,
      "Ġwith": 1502,
      "ĠáīĭáĬķáīĭ": 1503,
      "áĭĽáīµ": 1504,
      "ĠEn": 1505,
      "áĪŀáī½": 1506,
      "ations": 1507,
      "yÃŃ": 1508,
      "Baada": 1509,
      "ansa": 1510,
      "sion": 1511,
      "Ġtun": 1512,
      "ors": 1513,
      "Ġman": 1514,
      "áĮ¥áĪŃ": 1515,
      "Ã¨re": 1516,
      "Ġhe": 1517,
      "Ġpáº¹": 1518,
      "Ġáĭ³": 1519,
      "shindi": 1520,
      "áĪ«áīµ": 1521,
      "Ġlati": 1522,
      "antar": 1523,
      "ust": 1524,
      "ugaban": 1525,
      "Ġfil": 1526,
      "Ġyawan": 1527,
      "áī£áīµ": 1528,
      "áī¥áĪŃ": 1529,
      "Ġara": 1530,
      "ĠáĬłáĬ«": 1531,
      "Ġáį£": 1532,
      "atu": 1533,
      "Ġare": 1534,
      "irka": 1535,
      "áĪł": 1536,
      "ĠÂ»": 1537,
      "Ġáī¥áĭĻ": 1538,
      "ande": 1539,
      "ult": 1540,
      "ĠáĬĵáī¸áĭį": 1541,
      "Ġáĭ¨áĪĽ": 1542,
      "ational": 1543,
      "áĬ¨áĪį": 1544,
      "utar": 1545,
      "gbáº¹": 1546,
      "ĠâĢľ": 1547,
      "Ġiláº¹": 1548,
      "ĠÆĻwa": 1549,
      "áĪĿáĪ®": 1550,
      "áĪįáĬŃ": 1551,
      "ĠáĭŃáĮĪ": 1552,
      "áĪĭáīµ": 1553,
      "Ġiya": 1554,
      "Ġpr": 1555,
      "Ġfrom": 1556,
      "tern": 1557,
      "rÃ¹n": 1558,
      "ĠLa": 1559,
      "age": 1560,
      "ĠNijeriya": 1561,
      "ĠáĪŀ": 1562,
      "ĠáĮł": 1563,
      "ĠáĪĿáĬķ": 1564,
      "ĠáĪĻ": 1565,
      "ĠerÃ©": 1566,
      "Ãª": 1567,
      "áĪ³áĭŃ": 1568,
      "iyo": 1569,
      "Ġká»į": 1570,
      "ĠwÃł": 1571,
      "ÃĮ": 1572,
      "áĮĨ": 1573,
      "Ġile": 1574,
      "In": 1575,
      "ĠYor": 1576,
      "alis": 1577,
      "áī³áĭĬ": 1578,
      "ju": 1579,
      "erika": 1580,
      "áĪĿáĪħ": 1581,
      "Ġ193": 1582,
      "ĠAs": 1583,
      "anci": 1584,
      "ĠáĬłáĪµáī°": 1585,
      "12": 1586,
      "ĠáĮ½": 1587,
      "anzania": 1588,
      "ry": 1589,
      "atar": 1590,
      "Ġny": 1591,
      "anin": 1592,
      "Ġ;": 1593,
      "Ã©es": 1594,
      "ĠáĮİ": 1595,
      "yÃ¬n": 1596,
      "Ġaiki": 1597,
      "Ġmi": 1598,
      "av": 1599,
      "ell": 1600,
      "wamn": 1601,
      "one": 1602,
      "Ġ=": 1603,
      "ect": 1604,
      "ĠáĪ³áĭŃ": 1605,
      "ille": 1606,
      "Ġmshindi": 1607,
      "ľáĪªáĬ«": 1608,
      "ĠáĬ¥áĬķáĭ³": 1609,
      "âĢĵ": 1610,
      "áĪĺáĪŃ": 1611,
      "din": 1612,
      "itu": 1613,
      "Ġkasa": 1614,
      "fo": 1615,
      "ĠáĭĭáĬĵ": 1616,
      "alin": 1617,
      "ĠáĬ®": 1618,
      "use": 1619,
      "gu": 1620,
      "ote": 1621,
      "ukio": 1622,
      "áĭ²áĪµ": 1623,
      "land": 1624,
      "ĠáīłáĪļ": 1625,
      "Ġci": 1626,
      "ĠIs": 1627,
      "alla": 1628,
      "ĠmÃ©": 1629,
      "13": 1630,
      "áĮįáĪŃ": 1631,
      "lic": 1632,
      "istor": 1633,
      "wÃ²": 1634,
      "Ġju": 1635,
      "áī·": 1636,
      "aya": 1637,
      "tÃł": 1638,
      "ĠáĪĺáĪµ": 1639,
      "gbÃ©": 1640,
      "yáº¹": 1641,
      "Ġmar": 1642,
      "Ġinda": 1643,
      "era": 1644,
      "Ġáī¤áī°": 1645,
      "cho": 1646,
      "ĠAfirka": 1647,
      "áĮłáĪŃ": 1648,
      "ĠÃ¨dÃ¨": 1649,
      "gbÃ¨": 1650,
      "áĪĭáĭŃ": 1651,
      "fic": 1652,
      "Ġáį¢": 1653,
      "áĭĿáī¥": 1654,
      "ĠMu": 1655,
      "Ġmus": 1656,
      "ember": 1657,
      "áĮĪáĬĺ": 1658,
      "rÃŃkÃł": 1659,
      "att": 1660,
      "ĠkÃŃ": 1661,
      "anu": 1662,
      "kuu": 1663,
      "him": 1664,
      "kon": 1665,
      "Ġkafa": 1666,
      "áĮĮ": 1667,
      "áįĸ": 1668,
      "Ġbu": 1669,
      "gáº¹": 1670,
      "rÃ²": 1671,
      "afa": 1672,
      "ĠJam": 1673,
      "ĠáĪģáĪī": 1674,
      "ex": 1675,
      "Ġmag": 1676,
      "hari": 1677,
      "ĠbÃ¡": 1678,
      "áĭī": 1679,
      "áĬķáĭ³": 1680,
      "Ġáĭ¨áĪĨ": 1681,
      "gbÃ¡": 1682,
      "199": 1683,
      "ĠolÃ³": 1684,
      "Ġmá»į": 1685,
      "ĠTanzania": 1686,
      "Ġcewa": 1687,
      "ĠMatukio": 1688,
      "ĠPapa": 1689,
      "uwan": 1690,
      "ĠAg": 1691,
      "Ġ14": 1692,
      "ont": 1693,
      "jen": 1694,
      "áĬŀ": 1695,
      "ĠáįĬ": 1696,
      "ze": 1697,
      "kana": 1698,
      "ward": 1699,
      "NÃŃ": 1700,
      "ĠÆĻwallon": 1701,
      "aki": 1702,
      "uth": 1703,
      "ĠáĬłáĪĿ": 1704,
      "for": 1705,
      "eri": 1706,
      "ĠmÃ¡": 1707,
      "áĮĢáĪĺáĪªáĭ«": 1708,
      "Ġáĭ¨áĪĿ": 1709,
      "ĠMas": 1710,
      "Ġcomm": 1711,
      "Ġthat": 1712,
      "ise": 1713,
      "à¤": 1714,
      "ats": 1715,
      "Ġavec": 1716,
      "tÃ¬": 1717,
      "áĪŃáĪµáī²": 1718,
      "Ġalikuwa": 1719,
      "Ġ12": 1720,
      "dÃ©": 1721,
      "Ġsont": 1722,
      "--": 1723,
      "áĪĨáĬĲ": 1724,
      "ÃĢwá»įn": 1725,
      "ĠáĪĺáĭ°áī¥": 1726,
      "áĪ«áĭĬ": 1727,
      "Ġgu": 1728,
      "ogo": 1729,
      "Ġana": 1730,
      "Ġnom": 1731,
      "Ġoá¹£Ã¹": 1732,
      "Ġzai": 1733,
      "ĠÃĴ": 1734,
      "ĠyÃ¬ÃŃ": 1735,
      "Ġwata": 1736,
      "ĠkÃ³": 1737,
      "ĠáĪ°áĭİáī½": 1738,
      "ĠNew": 1739,
      "ingi": 1740,
      "Ġduniya": 1741,
      "báº¹": 1742,
      "áĮĵ": 1743,
      "Ġmili": 1744,
      "Ġdake": 1745,
      "uko": 1746,
      "dan": 1747,
      "lÃ³": 1748,
      "abar": 1749,
      "hun": 1750,
      "ons": 1751,
      "oro": 1752,
      "amba": 1753,
      "Ġáīłáĭĺ": 1754,
      "ĠSa": 1755,
      "Ġdo": 1756,
      "Ġhadi": 1757,
      "nÃ¬yÃłn": 1758,
      "ĠAfric": 1759,
      "Maka": 1760,
      "Ġáī¦": 1761,
      "Éĵ": 1762,
      "ereza": 1763,
      "ĠáĬĲáĮĪáĪŃ": 1764,
      "áįİ": 1765,
      "ĠÆ": 1766,
      "yÃ¨": 1767,
      "vel": 1768,
      "Ġdaya": 1769,
      "uwar": 1770,
      "áĪ«áĪį": 1771,
      "ĠGu": 1772,
      "ĠJihar": 1773,
      "ĠCom": 1774,
      "ingereza": 1775,
      "\".": 1776,
      "Ġmji": 1777,
      "áĮ¸": 1778,
      "Ġbay": 1779,
      "Ġáī°áĪĺ": 1780,
      "ĠáĭĵáĪĿ": 1781,
      "Ġbáº¹": 1782,
      "º¸": 1783,
      "áĪĪáī½": 1784,
      "áī¦áī½": 1785,
      "itÃ©": 1786,
      "áī°áĭį": 1787,
      "Ġbabban": 1788,
      "Ġwon": 1789,
      "Ġtr": 1790,
      "Ġsan": 1791,
      "Ġwannan": 1792,
      "Ġkwenye": 1793,
      "ĠIng": 1794,
      "ĠtÃºn": 1795,
      "Ġmul": 1796,
      "kÃ²": 1797,
      "Ġake": 1798,
      "Ġyar": 1799,
      "gbá»į": 1800,
      "go": 1801,
      "ĠáĭĵáĪĺáīµ": 1802,
      "ĠFr": 1803,
      "bin": 1804,
      "gi": 1805,
      "ĠÃ¨nÃ¬yÃłn": 1806,
      "Ġwad": 1807,
      "Ġninu": 1808,
      "Ġorile": 1809,
      "áį¥": 1810,
      "Ġmaj": 1811,
      "áĮłáīĢ": 1812,
      "usi": 1813,
      "Ġiá¹£áº¹": 1814,
      "ĠKu": 1815,
      "anga": 1816,
      "ĠNigeria": 1817,
      "ĠKristo": 1818,
      "gin": 1819,
      "áĪĽáĪª": 1820,
      "sÃ¬": 1821,
      "Ã©n": 1822,
      "ĠáīĨ": 1823,
      "ome": 1824,
      "Ġáĭ¨áĪļáĮĪáĬĿ": 1825,
      "atun": 1826,
      "Ġhukum": 1827,
      "ike": 1828,
      "áĮ¦": 1829,
      "Ġjama": 1830,
      "áīħáĪĿ": 1831,
      "Ġyankin": 1832,
      "ĠMus": 1833,
      "Ġzam": 1834,
      "Ġlugha": 1835,
      "ars": 1836,
      "áĪ¨áĭį": 1837,
      "ashin": 1838,
      "Ġsai": 1839,
      "Ġinah": 1840,
      "illi": 1841,
      "iversity": 1842,
      "Ġkim": 1843,
      "hine": 1844,
      "Ġhis": 1845,
      "dÃŃ": 1846,
      "áĭŀ": 1847,
      "Ã§": 1848,
      "wi": 1849,
      "áįĬáīµ": 1850,
      "Ġ13": 1851,
      "áĭ±áĪµ": 1852,
      "ĠáĬª": 1853,
      "Ġme": 1854,
      "amb": 1855,
      "ĠkÃ²": 1856,
      "Makala": 1857,
      "ĠáĪĿáĬŃ": 1858,
      "uis": 1859,
      "pÃ©": 1860,
      "cha": 1861,
      "áĬ¢": 1862,
      "Ġinahusu": 1863,
      "áĮįáī¥": 1864,
      "áĪģáĪĿ": 1865,
      "ĠáĬ¥áĭ¨": 1866,
      "Ġgáº¹": 1867,
      "áĬĸáī½": 1868,
      "shi": 1869,
      "annin": 1870,
      "umi": 1871,
      "áįĴ": 1872,
      "áĭ³áĬķ": 1873,
      "áĪĭáĬķáĭµ": 1874,
      "ĠÆĻafa": 1875,
      "Ġwana": 1876,
      "ongo": 1877,
      "Ġkamar": 1878,
      "ĠMo": 1879,
      "uti": 1880,
      "elu": 1881,
      "ath": 1882,
      "ess": 1883,
      "áĪ¨áĬķ": 1884,
      "áĮįáĪĬáĭĿáĬĽ": 1885,
      "tre": 1886,
      "áĮ¨áĪ¨": 1887,
      "ĠáĪĭ": 1888,
      "Ġáī¤áīµ": 1889,
      "En": 1890,
      "Ġáīĥ": 1891,
      "ĠprÃ©": 1892,
      "aifa": 1893,
      "jÃ¡": 1894,
      "ĠTa": 1895,
      "aye": 1896,
      "ĠRe": 1897,
      "áĬłáī¥": 1898,
      "wÃ¡": 1899,
      "áī³áī¸áĭį": 1900,
      "Ya": 1901,
      "tÃ²": 1902,
      "hemu": 1903,
      "Ġ192": 1904,
      "ĠFar": 1905,
      "Ġsamu": 1906,
      "lin": 1907,
      "Ġup": 1908,
      "áĭŃáĪħ": 1909,
      "ĠÃ¬gbÃł": 1910,
      "ĠáĪĺáĬ«": 1911,
      "La": 1912,
      "enti": 1913,
      "Ġmutane": 1914,
      "ĠØ": 1915,
      "ress": 1916,
      "yya": 1917,
      "ĠáĪĲ": 1918,
      "áĪ¨áĮĥ": 1919,
      "fal": 1920,
      "Ġgbo": 1921,
      "ĠÃ¡": 1922,
      "ute": 1923,
      "Ġsam": 1924,
      "ĠII": 1925,
      "Ġwaka": 1926,
      "ĠáĬłáī¥": 1927,
      "Ġus": 1928,
      "ost": 1929,
      "Ġwasu": 1930,
      "Ġtáº¹": 1931,
      "Ġap": 1932,
      "ĠUniversity": 1933,
      "ĠOk": 1934,
      "ĠVi": 1935,
      "vi": 1936,
      "Ġáī°áīĢ": 1937,
      "ĠIngila": 1938,
      "áī°áĪŃ": 1939,
      "áĪĪáĭ«": 1940,
      "ĠáĬ¨áĬł": 1941,
      "ohn": 1942,
      "ĠáĬĲáīłáĪ¨": 1943,
      "áīĨáĮ£": 1944,
      "dÃ¡": 1945,
      "Ġduk": 1946,
      "ÌĢ.": 1947,
      "ĠJami": 1948,
      "ĠáĪĨáĬĸ": 1949,
      "áĮĪáĭµ": 1950,
      "tÃŃ": 1951,
      "Ġuli": 1952,
      "anen": 1953,
      "ĠÃ²á¹£Ã¨": 1954,
      "Ġmáº¹": 1955,
      "fani": 1956,
      "ĠdÃ¡": 1957,
      "Ġvi": 1958,
      "ĠáĬłáĮĪáĪŃ": 1959,
      "ĠáĬĲáĮĪáĪ¥": 1960,
      "ese": 1961,
      "ĠIb": 1962,
      "ĠAp": 1963,
      "emb": 1964,
      "son": 1965,
      "ĠáīłáĪµ": 1966,
      "dÃ¬": 1967,
      "ĠáĬłáī£": 1968,
      "áĪ¨áĭ³": 1969,
      "ĠáīłáĬ¢áīµáĭ®áĮµáĭ«": 1970,
      "Ġgab": 1971,
      "áīµáĬĵ": 1972,
      "áĭµáĬķ": 1973,
      "áĪ°áī¥": 1974,
      "áĬĲáĭļáĪħ": 1975,
      "áĪĺáĪµ": 1976,
      "áĪĽáĭĬ": 1977,
      "ĠCol": 1978,
      "áĪ°áĭį": 1979,
      "áĪĶáĪŃ": 1980,
      "ld": 1981,
      "co": 1982,
      "áĪīáīµ": 1983,
      "fáº¹": 1984,
      "ĠáĭĪáĬķ": 1985,
      "ĠáĪ´": 1986,
      "Ġkus": 1987,
      "áīª": 1988,
      "Ġyin": 1989,
      "ĠáĭĺáĬķáĭµ": 1990,
      "áĮĪáĬĻ": 1991,
      "Ġina": 1992,
      "ula": 1993,
      "Ġáįķ": 1994,
      "11": 1995,
      "ĠáĮĢáĪĿáĪ®": 1996,
      "Ġáĭ¨áĪ°": 1997,
      "áįħ": 1998,
      "ungu": 1999,
      "ose": 2000,
      "áĪĭáī¸áĭį": 2001,
      "enn": 2002,
      "yÃ©": 2003,
      "ĠáĮ¨": 2004,
      "umani": 2005,
      "Ġdin": 2006,
      "ĠáĪ«": 2007,
      "áĮ½áĪĲ": 2008,
      "arr": 2009,
      "Ġáī£áĪĪ": 2010,
      "áĪŃáĪ±": 2011,
      "Ġco": 2012,
      "áĭ¥": 2013,
      "Ġgir": 2014,
      "ziki": 2015,
      "Ġáįĵ": 2016,
      "Ġapp": 2017,
      "Il": 2018,
      "der": 2019,
      "jerumani": 2020,
      "amoja": 2021,
      "ĠáĬ¢áīµáĭ®áĮµáĭ«": 2022,
      "Ùİ": 2023,
      "Ġgarin": 2024,
      "Â«": 2025,
      "isiwa": 2026,
      "ĠáĮ¦áĪŃ": 2027,
      "198": 2028,
      "tawa": 2029,
      "ime": 2030,
      "jÃł": 2031,
      "Ġáī¥áī»": 2032,
      "ĠÃĮpÃŃnláº¹": 2033,
      "Ġter": 2034,
      "Al": 2035,
      "Ġkai": 2036,
      "Ġáĭ«áĪĪáĭį": 2037,
      "Ġshugaban": 2038,
      "Ġaikin": 2039,
      "Ġweng": 2040,
      "ĠáĮ¸": 2041,
      "áī¡áī¥": 2042,
      "áĬ¤áĪį": 2043,
      "ÙĦ": 2044,
      "á¹£e": 2045,
      "Ġmakar": 2046,
      "eno": 2047,
      "áĮ£áĪį": 2048,
      "áĭ¨áĪŃ": 2049,
      "kini": 2050,
      "per": 2051,
      "ogra": 2052,
      "atin": 2053,
      "áĭµáĪĿ": 2054,
      "ton": 2055,
      "Ġáī°áĭĪ": 2056,
      "áĪłáĪ¨": 2057,
      "Ġnot": 2058,
      "ope": 2059,
      "áĬķáĬķ": 2060,
      "ice": 2061,
      "ĥáĭŃ": 2062,
      "Ġ2015": 2063,
      "ĠÉĹan": 2064,
      "Ġkab": 2065,
      "ty": 2066,
      "wanza": 2067,
      "Ġent": 2068,
      "já»įba": 2069,
      "Ġwake": 2070,
      "Ġáĭ«áĪĪ": 2071,
      "ĠáĬ¨áįį": 2072,
      "Ã³n": 2073,
      "ĠáĭĺáĪĺ": 2074,
      "Ġmwan": 2075,
      "ĠáĪĺáĪį": 2076,
      "áĪĿáĬĵ": 2077,
      "ĠCo": 2078,
      "ĠBK": 2079,
      "iz": 2080,
      "ated": 2081,
      "Ġhad": 2082,
      "Ġgwamn": 2083,
      "ĠáĬłáĭį": 2084,
      "áĪįáĮ£": 2085,
      "iss": 2086,
      "áĬĵáĭĬ": 2087,
      "Ġáĭ¨áĭĪ": 2088,
      "ĠIta": 2089,
      "ĠáĬ¦": 2090,
      "iaka": 2091,
      "ĠRo": 2092,
      "Ġwatu": 2093,
      "rÃ¨s": 2094,
      "hana": 2095,
      "Ġkya": 2096,
      "falme": 2097,
      "Ġáī°áĬ¨": 2098,
      "yÃł": 2099,
      "Ġgaba": 2100,
      "able": 2101,
      "ian": 2102,
      "ĠMe": 2103,
      "áį²áį±áį»áį": 2104,
      "áĪļáĭ«": 2105,
      "ĠÃĪ": 2106,
      "ĠtÃł": 2107,
      "mes": 2108,
      "áĬħ": 2109,
      "ĠKarne": 2110,
      "Ġro": 2111,
      "ette": 2112,
      "mba": 2113,
      "Ġgr": 2114,
      "com": 2115,
      "Ġshir": 2116,
      "ena": 2117,
      "ĠáīģáĮ¥áĪŃ": 2118,
      "ashe": 2119,
      "ĠQ": 2120,
      "ĠáĪī": 2121,
      "ĠAmáº¹": 2122,
      "ende": 2123,
      "ĠPro": 2124,
      "Ġ2011": 2125,
      "Ġsehemu": 2126,
      "ited": 2127,
      "eo": 2128,
      "oda": 2129,
      "rÃłn": 2130,
      "ĠáĪ¥áĪŃ": 2131,
      "ubwa": 2132,
      "Ġib": 2133,
      "ume": 2134,
      "eshi": 2135,
      "Ġshine": 2136,
      "kasÃŃ": 2137,
      "ĠwÃ¡": 2138,
      "Ġáĭ¨áīĢ": 2139,
      "ĠBo": 2140,
      "ĠlÃ³rÃŃ": 2141,
      "orn": 2142,
      "ĠTh": 2143,
      "ron": 2144,
      "ww": 2145,
      "Ġji": 2146,
      "Ġibi": 2147,
      "eric": 2148,
      "ĠáĮ£": 2149,
      "ĠDe": 2150,
      "ase": 2151,
      "Ġáĭ¨áĪĨáĬĲ": 2152,
      "Ġáĭ®": 2153,
      "ĠáĬłáīł": 2154,
      "ouv": 2155,
      "Ġmkuu": 2156,
      "ĠBen": 2157,
      "ustr": 2158,
      "cl": 2159,
      "Ma": 2160,
      "áī¢áĭ«": 2161,
      "Ġ2014": 2162,
      "Ġac": 2163,
      "ĠáīłáĪĿ": 2164,
      "ora": 2165,
      "áĬ¦": 2166,
      "Ġ190": 2167,
      "áĪŃáĬŃ": 2168,
      "ĠHar": 2169,
      "Ġlakini": 2170,
      "áĮ¨áĪ¨áĪ»": 2171,
      "áĮ¤": 2172,
      "Ġpamoja": 2173,
      "Ġkungiyar": 2174,
      "Ġbaya": 2175,
      "áĮłáĪ«": 2176,
      "Ġray": 2177,
      "ashen": 2178,
      "org": 2179,
      "Ġgud": 2180,
      "gÃºn": 2181,
      "kanin": 2182,
      "ĠáĭµáĪŃ": 2183,
      "jir": 2184,
      "áĪ³áīµ": 2185,
      "erv": 2186,
      "Ġcin": 2187,
      "ign": 2188,
      "Ġsá»į": 2189,
      "lÃ¨": 2190,
      "ĠáīłáĭļáĪħ": 2191,
      "áīĥáĪį": 2192,
      "Ġcomme": 2193,
      "Ġ2016": 2194,
      "anzu": 2195,
      "áĪľáĬķ": 2196,
      "Ġmiaka": 2197,
      "onn": 2198,
      "lim": 2199,
      "Ġbin": 2200,
      "Ġáī¡": 2201,
      "Ġsy": 2202,
      "ĠáĪľ": 2203,
      "uran": 2204,
      "ĠMay": 2205,
      "Ġamfani": 2206,
      "ĠáĪĺáĬ«áĬ¨áĪį": 2207,
      "Ġáĭ¨áī°áī£": 2208,
      "ĠTur": 2209,
      "hamma": 2210,
      "áĮĬáĭľ": 2211,
      "Ġnje": 2212,
      "Ġsana": 2213,
      "ĠáīłáĭĺáĪĺáĬĲ": 2214,
      "tu": 2215,
      "ĠáīłáĪĭáĭŃ": 2216,
      "wÃ³": 2217,
      "ĠPar": 2218,
      "ukan": 2219,
      "50": 2220,
      "Ġhaka": 2221,
      "chool": 2222,
      "Ġob": 2223,
      "áĮįáĭļ": 2224,
      "áĭİáī¹": 2225,
      "21": 2226,
      "dar": 2227,
      "Ġgasar": 2228,
      "áĬķáĮī": 2229,
      "Ġmafi": 2230,
      "áĪĺáĪĪ": 2231,
      "Ġasi": 2232,
      "áĬ³": 2233,
      "istoria": 2234,
      "Ġshiga": 2235,
      "Ġper": 2236,
      "ĠDa": 2237,
      "ĠáīłáĪ°": 2238,
      "Ã´": 2239,
      "akar": 2240,
      "Ġfim": 2241,
      "kea": 2242,
      "Ġjir": 2243,
      "Ġlit": 2244,
      "idan": 2245,
      "ĠAbu": 2246,
      "ept": 2247,
      "ikia": 2248,
      "ĠáĬŃáįįáĪĪ": 2249,
      "Ġ2019": 2250,
      "áīħáĪŃ": 2251,
      "áĪĽáĭŃ": 2252,
      "áī¥áĪ¨": 2253,
      "áĪħáĪį": 2254,
      "ĠAmur": 2255,
      "alisar": 2256,
      "yen": 2257,
      "ĠÃ²á¹£Ã¨rÃ©": 2258,
      "Ġsiya": 2259,
      "iá¹£áº¹": 2260,
      "áĪĿáĪħáĪŃáīµ": 2261,
      "ĠmÃ¡a": 2262,
      "ĠáĬłáĪŃ": 2263,
      "Ġdis": 2264,
      "ven": 2265,
      "ato": 2266,
      "Ġtara": 2267,
      "ires": 2268,
      "kÃ¬": 2269,
      "ĠGhana": 2270,
      "fuata": 2271,
      "Les": 2272,
      "áįĥ": 2273,
      "ÌĢ,": 2274,
      "Ġmaka": 2275,
      "ĠJohn": 2276,
      "áīĦ": 2277,
      "áĮģ": 2278,
      "áĭŃáĭĪ": 2279,
      "ĠáĬ¨áĪĺ": 2280,
      "yana": 2281,
      "Ġik": 2282,
      "ĠJanu": 2283,
      "gn": 2284,
      "Ġhak": 2285,
      "áĬķáĬĵ": 2286,
      "Ġpas": 2287,
      "ĠyÃŃ": 2288,
      "ĠtÃłbÃŃ": 2289,
      "ĠkÃ©": 2290,
      "Ġsannan": 2291,
      "ĠÆĻar": 2292,
      "bwa": 2293,
      "gion": 2294,
      "Ġkir": 2295,
      "olo": 2296,
      "ĠalÃ¡": 2297,
      "áīĨáĮ£áĮłáĪŃ": 2298,
      "uma": 2299,
      "tique": 2300,
      "ĠáĬ¥áĬķáĭ²áĪģáĪĿ": 2301,
      "va": 2302,
      "ĠáĪ½": 2303,
      "ical": 2304,
      "ĠÃ¨yÃŃ": 2305,
      "uba": 2306,
      "Ġáī¦áī³": 2307,
      "Ġkwanza": 2308,
      "Ġ11": 2309,
      "áĮįáĭļáĬłáī¥": 2310,
      "ys": 2311,
      "Ġtele": 2312,
      "shen": 2313,
      "zini": 2314,
      "ÃłÃ¡": 2315,
      "Ġbaada": 2316,
      "Ġ2012": 2317,
      "ashi": 2318,
      "Ġann": 2319,
      "ĠAmerika": 2320,
      "ona": 2321,
      "lÃ¹": 2322,
      "áĭ°áīµ": 2323,
      "ĠRoma": 2324,
      "ants": 2325,
      "áĮĨáī½": 2326,
      "Ġláº¹": 2327,
      "áĭįáĪĿ": 2328,
      "áĮĪáĬķ": 2329,
      "ĠÃłká»į": 2330,
      "Ġáº¹gbáº¹": 2331,
      "Ġcan": 2332,
      "ĠáīłáīĢ": 2333,
      "áĪµáī³": 2334,
      "áĮ¥áĬķ": 2335,
      "cce": 2336,
      "tp": 2337,
      "ates": 2338,
      "Ġamma": 2339,
      "hai": 2340,
      "Ġsiku": 2341,
      "ĠOr": 2342,
      "omi": 2343,
      "Ġ2018": 2344,
      "Da": 2345,
      "áĬŀáī½": 2346,
      "andishi": 2347,
      "Ġáĭ¨áĮį": 2348,
      "ĠonÃŃ": 2349,
      "kwai": 2350,
      "Ġmon": 2351,
      "ĠáĬĲáīłáĪ©": 2352,
      "bre": 2353,
      "Ġ)": 2354,
      "pt": 2355,
      "Ġfir": 2356,
      "áī¤áīµ": 2357,
      "Ġohun": 2358,
      "ade": 2359,
      "//": 2360,
      "Ġ2017": 2361,
      "ĠSe": 2362,
      "Ġshekaru": 2363,
      "30": 2364,
      "Ġáīħáĭ±áĪµ": 2365,
      "áĭ¬": 2366,
      "Ġáī°áī¥": 2367,
      "tar": 2368,
      "ĠâĢĺ": 2369,
      "ĠAre": 2370,
      "hili": 2371,
      "ambo": 2372,
      "áĪŃáĪµáī²áĭ«áĬķ": 2373,
      "://": 2374,
      "Ġte": 2375,
      "Ġes": 2376,
      "ĠMata": 2377,
      "Ġuku": 2378,
      "Ġzili": 2379,
      "yá»į": 2380,
      "ĠBir": 2381,
      "áĭķáĪ«": 2382,
      "ayo": 2383,
      "Ġjami": 2384,
      "áĮįáĭļáĬłáī¥áĪĶáĪŃ": 2385,
      "Ġeneo": 2386,
      "ikwa": 2387,
      "gar": 2388,
      "ĠNov": 2389,
      "áĪµáĬĵ": 2390,
      "\",": 2391,
      "ĠáĭŃáĮĪáĬĽ": 2392,
      "Ġ2006": 2393,
      "katifu": 2394,
      "ungo": 2395,
      "Ġph": 2396,
      "ĠOn": 2397,
      "Ġpremi": 2398,
      "Ġ[": 2399,
      "197": 2400,
      "áĪµáĪ«": 2401,
      "Ġtra": 2402,
      "Ġkaratun": 2403,
      "ĠAmurka": 2404,
      "Ġres": 2405,
      "196": 2406,
      "³áĪµ": 2407,
      "ĠáĪ¨": 2408,
      "áĬŃáīµ": 2409,
      "ĠáĪĿáĬŃáĬķáĭ«": 2410,
      "ĠAward": 2411,
      "Ġhasa": 2412,
      "ĠolÃ¹": 2413,
      "ĠMut": 2414,
      "áĭ¶áī½": 2415,
      "chini": 2416,
      "Ġnan": 2417,
      "áī¥áĪ«": 2418,
      "ulo": 2419,
      "Ġomo": 2420,
      "Ġ2010": 2421,
      "Ġhanyar": 2422,
      "áĪº": 2423,
      "Ġyawa": 2424,
      "eni": 2425,
      "Ġhada": 2426,
      "ĠGe": 2427,
      "Ġpa": 2428,
      "ĠáĬłáĪī": 2429,
      "rie": 2430,
      "kazini": 2431,
      "92": 2432,
      "Ġwakazi": 2433,
      "ree": 2434,
      "lÃł": 2435,
      "lah": 2436,
      "áĪĿáĬķ": 2437,
      "ĠOkto": 2438,
      "ram": 2439,
      "els": 2440,
      "ĠSept": 2441,
      "ĠAt": 2442,
      "Ġbuga": 2443,
      "iro": 2444,
      "ule": 2445,
      "ĠjÃ¹": 2446,
      "urin": 2447,
      "ĠJul": 2448,
      "Ġabin": 2449,
      "Ġgbogbo": 2450,
      "tor": 2451,
      "erin": 2452,
      "Ġwak": 2453,
      "Ġáº¸": 2454,
      "Ġwengi": 2455,
      "uta": 2456,
      "wai": 2457,
      "cy": 2458,
      "ĠlÃ¨": 2459,
      "ĠáĭŃáī£": 2460,
      "hariki": 2461,
      "dio": 2462,
      "ĠMuhamma": 2463,
      "mÃ¹": 2464,
      "áĮĪáĬĵ": 2465,
      "Ġ2007": 2466,
      "Ġri": 2467,
      "ĠáĬŃáįįáĪį": 2468,
      "istan": 2469,
      "áĭŃáĬķ": 2470,
      "ishwa": 2471,
      "ĠNai": 2472,
      "orld": 2473,
      "ebru": 2474,
      "enda": 2475,
      "Ġhali": 2476,
      "áīĢáīµ": 2477,
      "Ġáĭ¨áĬĲáīłáĪ¨": 2478,
      "Ġpo": 2479,
      "Ġaux": 2480,
      "asu": 2481,
      "ansu": 2482,
      "ĠFran": 2483,
      "áĬĸáĪŃ": 2484,
      "ima": 2485,
      "Ġ2013": 2486,
      "ks": 2487,
      "ero": 2488,
      "áĬĴáĭ«": 2489,
      "ugu": 2490,
      "Ġcl": 2491,
      "áĭ°áĪ¨áĮĪ": 2492,
      "ĠnÃŃgbÃł": 2493,
      "faransa": 2494,
      "ĠáĪŃ": 2495,
      "Ġjina": 2496,
      "Ġzaidi": 2497,
      "ents": 2498,
      "mÃŃ": 2499,
      "hich": 2500,
      "bÃł": 2501,
      "ĠSchool": 2502,
      "Ġáĭ²": 2503,
      "áĭ¨áīµ": 2504,
      "áī±áĪĿ": 2505,
      "Ġmaso": 2506,
      "Ni": 2507,
      "Ġwh": 2508,
      "Ġkubwa": 2509,
      "ĠgbÃ©": 2510,
      "Ġcont": 2511,
      "Ġakan": 2512,
      "yy": 2513,
      "Ġdig": 2514,
      "áĮ½áĪĲáįį": 2515,
      "Ġnchini": 2516,
      "alement": 2517,
      "ĠáĬłáĬ«áī£áī¢": 2518,
      "22": 2519,
      "áĪĪáī°": 2520,
      "zaji": 2521,
      "Ġtro": 2522,
      "Ġáįĸ": 2523,
      "ĠBa": 2524,
      "ĠBe": 2525,
      "ĠLag": 2526,
      "Ġtsakanin": 2527,
      "ĠáĬłáīĨáĮ£áĮłáĪŃ": 2528,
      "fiya": 2529,
      "sc": 2530,
      "ert": 2531,
      "Ġtso": 2532,
      "áĭ®áĬķ": 2533,
      "Ġtu": 2534,
      "ril": 2535,
      "ĠáĬłáĬķáĭ±": 2536,
      "form": 2537,
      "enya": 2538,
      "áĮ®": 2539,
      "insi": 2540,
      "ĠJap": 2541,
      "fanin": 2542,
      "Ġlili": 2543,
      "Ġbo": 2544,
      "á»Į": 2545,
      "áĭµáĪŀ": 2546,
      "Ġkal": 2547,
      "áĬķáĮĭ": 2548,
      "ĠhaÉĹ": 2549,
      "kÃłn": 2550,
      "ĠáĬ¥áĭ«": 2551,
      "ther": 2552,
      "ĠáĮįáĭĽáīµ": 2553,
      "ĠOktoba": 2554,
      "áĪ¨áĮį": 2555,
      "áĮİáĪŃ": 2556,
      "gas": 2557,
      "á¹£Ãł": 2558,
      "áĪŃáĭĿ": 2559,
      "áįĪáĪŃ": 2560,
      "Ġum": 2561,
      "ory": 2562,
      "áĪįáīħ": 2563,
      "Ġrep": 2564,
      "anni": 2565,
      "Ġwhich": 2566,
      "kÃ¹n": 2567,
      "áīĢáĭį": 2568,
      "ĠáĬłáĪĭ": 2569,
      "its": 2570,
      "any": 2571,
      "wu": 2572,
      "Ġá»įdun": 2573,
      "ony": 2574,
      "ĠáĬ¥áĬķáĭ°áĪļ": 2575,
      "unt": 2576,
      "ĠáīłáĮį": 2577,
      "áĮĪáī£": 2578,
      "Ġnd": 2579,
      "Ġáīłáī¥": 2580,
      "áįĢ": 2581,
      "ela": 2582,
      "ĠáĬ¨áī°áĪŀáī½": 2583,
      "Ġyanzu": 2584,
      "iyan": 2585,
      "mma": 2586,
      "áĭŃáĬĵ": 2587,
      "Ġorin": 2588,
      "Ġáīłáĭ°": 2589,
      "ĠHausa": 2590,
      "oth": 2591,
      "ĠáĭŃáī½": 2592,
      "Ġform": 2593,
      "phi": 2594,
      "ici": 2595,
      "ĠArewa": 2596,
      "áĬĺ": 2597,
      "áĮĪáĪĪ": 2598,
      "ĠáĬĥáĭŃ": 2599,
      "Ã¬bÃŃ": 2600,
      "Ġfo": 2601,
      "Ġsama": 2602,
      "ĠáīłáįĬáīµ": 2603,
      "Ġfin": 2604,
      "ĠáĪ¶": 2605,
      "Ġtari": 2606,
      "Ġ30": 2607,
      "ures": 2608,
      "jiria": 2609,
      "áĪĭáĪī": 2610,
      "jia": 2611,
      "old": 2612,
      "áĪĽáĬĸ": 2613,
      "ĠAfrica": 2614,
      "unci": 2615,
      "áīħáīµ": 2616,
      "ĠfÃŃ": 2617,
      "ĠáĪģáĪĪáīµ": 2618,
      "ĠFebru": 2619,
      "dá»į": 2620,
      "ĠCon": 2621,
      "ĠáĪĽáĪŃ": 2622,
      "Ã¹bÃ¡": 2623,
      "Ġhal": 2624,
      "áĮ£áĪĿ": 2625,
      "áīµáĪŃ": 2626,
      "áĪĪáĭ«áĭ©": 2627,
      "áĬ¬": 2628,
      "endele": 2629,
      "Ġhiv": 2630,
      "áĪĳ": 2631,
      "Ġaf": 2632,
      "ĠáĭŃáī³": 2633,
      "Ġmara": 2634,
      "low": 2635,
      "ĠOl": 2636,
      "áĬŃáĪµ": 2637,
      "velop": 2638,
      "ĠHe": 2639,
      "uki": 2640,
      "dha": 2641,
      "Ã¬nrin": 2642,
      "ĠNaijiria": 2643,
      "tain": 2644,
      "ĠAustr": 2645,
      "ĠBur": 2646,
      "ĠDuniya": 2647,
      "ĠKas": 2648,
      "Ġkm": 2649,
      "Ġsin": 2650,
      "ays": 2651,
      "Mwaka": 2652,
      "ĠBr": 2653,
      "áĪĪáĬķ": 2654,
      "Ġáī´": 2655,
      "Ġmbali": 2656,
      "ĠRa": 2657,
      "Ġáĭ©": 2658,
      "ĠáĪ¸": 2659,
      "ternational": 2660,
      "Ali": 2661,
      "ken": 2662,
      "ussi": 2663,
      "áī¥áĪµ": 2664,
      "Ã®": 2665,
      "aren": 2666,
      "ilaya": 2667,
      "tÃłn": 2668,
      "ally": 2669,
      "ĠáĬłáīłáī£": 2670,
      "áĭĸ": 2671,
      "ĠáĪĮáĪĭ": 2672,
      "oir": 2673,
      "Ġmin": 2674,
      "ĠBar": 2675,
      "Ø§": 2676,
      "áĪĪáĭŃ": 2677,
      "ĠWak": 2678,
      "áĪ°áĪ«": 2679,
      "Ġtarehe": 2680,
      "Ġsami": 2681,
      "igh": 2682,
      "Ġwacce": 2683,
      "Ġsaboda": 2684,
      "Ġguda": 2685,
      "Ġimp": 2686,
      "amp": 2687,
      "ĠdÃ©p": 2688,
      "Th": 2689,
      "ĠáĭĺáĪĺáĬĲ": 2690,
      "rÃ¬": 2691,
      "joba": 2692,
      "mÃ¬": 2693,
      "Ġsamar": 2694,
      "23": 2695,
      "ĠKwa": 2696,
      "áī£áĭŃ": 2697,
      "olu": 2698,
      "Ġ25": 2699,
      "pinle": 2700,
      "³áį": 2701,
      "áĪĿáĪŃ": 2702,
      "áĪĺáĪ¨": 2703,
      "ĠáĮ¦áĪŃáĬĲáīµ": 2704,
      "Kati": 2705,
      "ales": 2706,
      "ular": 2707,
      "ĠX": 2708,
      "áĪĺáīµ": 2709,
      "ves": 2710,
      "áĪ®áįĵ": 2711,
      "Ġáĭ¨áĪµ": 2712,
      "ĠáĭĵáĪĺáī³áīµ": 2713,
      "lish": 2714,
      "áĪŃáĪĺáĬķ": 2715,
      "ĠáĪµáĪŃ": 2716,
      "ugh": 2717,
      "wani": 2718,
      "abe": 2719,
      "ĠáĪĥáĭŃ": 2720,
      "iláº¹": 2721,
      "Ġalif": 2722,
      "áĪªáĬ«áĭĬ": 2723,
      "Ãºká»į": 2724,
      "ambar": 2725,
      "Ġáĭ¨áĭį": 2726,
      "Ġkup": 2727,
      "ĠáĪµáĪ«": 2728,
      "Ã¢": 2729,
      "ingine": 2730,
      "yn": 2731,
      "Ġnuna": 2732,
      "Ġchin": 2733,
      "ĠáĬ¨áĪļ": 2734,
      "Ġáĭ¨áĪĺáĮĢáĪĺáĪªáĭ«": 2735,
      "tawala": 2736,
      "Ġwato": 2737,
      "zama": 2738,
      "ĠáĬłáĭŃáĬĲáīµ": 2739,
      "iste": 2740,
      "Ġáĭ¨áĭĵ": 2741,
      "Ġwakati": 2742,
      "ĠáĪ²áĭ«": 2743,
      "Ġjuu": 2744,
      "lex": 2745,
      "ĠáĬłáĪ¨": 2746,
      "dda": 2747,
      "Ġdeux": 2748,
      "Ġkuto": 2749,
      "áĮłáīĥ": 2750,
      "Ġbar": 2751,
      "áĮłáĪ¨": 2752,
      "áĪĲáĬķáĪµ": 2753,
      "omo": 2754,
      "ĠKano": 2755,
      "Ġele": 2756,
      "áĪįáĭµ": 2757,
      "hali": 2758,
      "ĠLi": 2759,
      "áī·áĪį": 2760,
      "oloni": 2761,
      "ft": 2762,
      "Ġmais": 2763,
      "áĪįáĪĿ": 2764,
      "Ġ&": 2765,
      "áīłáī¥": 2766,
      "ublic": 2767,
      "ĠWar": 2768,
      "áĮįáĪ«": 2769,
      "ĠDes": 2770,
      "Ġkafin": 2771,
      "isho": 2772,
      "haribi": 2773,
      "ĠRD": 2774,
      "ĠwÃŃ": 2775,
      "áī£áī¸áĭį": 2776,
      "ĠAli": 2777,
      "lan": 2778,
      "ĠáĭĽ": 2779,
      "ĠPr": 2780,
      "Ġak": 2781,
      "itwa": 2782,
      "ĠpÃ¨": 2783,
      "ĠáĬ¨áĭļáĭ«": 2784,
      "áī£áĪŃ": 2785,
      "ĠáĭĪáĪŃ": 2786,
      "áĪĭáĪĿ": 2787,
      "ĠnÃŃpa": 2788,
      "kÃ¨": 2789,
      "áĪ¬áīµ": 2790,
      "pÃ²": 2791,
      "ĠMin": 2792,
      "áįįáĪ«": 2793,
      "áĭ°áĪį": 2794,
      "áĬĲáĮĪáĪŃ": 2795,
      "par": 2796,
      "Ġáį²áį±áį»áį": 2797,
      "ĠYorÃ¹bÃ¡": 2798,
      "ĠNor": 2799,
      "ĠáĬłáĭ²áĪµ": 2800,
      "ĠáĬ¨áįįáī°áĬĽ": 2801,
      "ĠÃłrÃ¹n": 2802,
      "unan": 2803,
      "ĠLagos": 2804,
      "ĠáĪĮáĪİáī½": 2805,
      "ĠáĬ¥áĪŃ": 2806,
      "25": 2807,
      "Ġtrans": 2808,
      "Ġgame": 2809,
      "Ġrec": 2810,
      "ĠáĬĲáĮĪáĪ¥áī³áīµ": 2811,
      "ĠItalia": 2812,
      "Ġlangu": 2813,
      "Ġhiyo": 2814,
      "áĪı": 2815,
      "áĬĲáĭį": 2816,
      "ĠáĪłáĪ": 2817,
      "Ġala": 2818,
      "dia": 2819,
      "áĮĢáĪĺáĪŃáĭ«": 2820,
      "Ġ21": 2821,
      "Ġ2009": 2822,
      "ĠKa": 2823,
      "Ġmulkin": 2824,
      "yp": 2825,
      "Ġfito": 2826,
      "áĪŃáĭµ": 2827,
      "ĠáĬ³áĪµ": 2828,
      "ĠrÃŃ": 2829,
      "ĠMal": 2830,
      "ĠáĬ©": 2831,
      "ĠáĪĺáĮł": 2832,
      "ĠAng": 2833,
      "Ġmakarantar": 2834,
      "Ġkoma": 2835,
      "Ġtaka": 2836,
      "thi": 2837,
      "ĠáĬ¥áĮħ": 2838,
      "Ġ24": 2839,
      "ĠÆĻasa": 2840,
      "own": 2841,
      "ĠKing": 2842,
      "áĮ¢": 2843,
      "zwa": 2844,
      "áįĪáĪ¨áĬķ": 2845,
      "Ġses": 2846,
      "áĭĮ": 2847,
      "ĠáĬłáįį": 2848,
      "ĠáĪĽáĪµ": 2849,
      "áĭİáī½áĬķ": 2850,
      "fun": 2851,
      "ĠPe": 2852,
      "ision": 2853,
      "Ġbak": 2854,
      "ĠáĪĺáĪ°": 2855,
      "usini": 2856,
      "Ġmal": 2857,
      "enne": 2858,
      "Ġfran": 2859,
      "áĭ°áĭį": 2860,
      "ĠjÃ¡": 2861,
      "ĠáĭŃáī£áĪĭáĪį": 2862,
      "ĠlÃ©": 2863,
      "ĠáĭĪáīħáīµ": 2864,
      "ĠUjerumani": 2865,
      "port": 2866,
      "ĠTi": 2867,
      "Ġparti": 2868,
      "ger": 2869,
      "ĠáĪįáĭ©": 2870,
      "Ġgida": 2871,
      "áīłáĪĭ": 2872,
      "áĭĵáīµ": 2873,
      "ĠMusul": 2874,
      "Ġsamun": 2875,
      "Ġdomin": 2876,
      "Ġodun": 2877,
      "ĠKenya": 2878,
      "ĠUr": 2879,
      "anza": 2880,
      "ĠáĪĿáĭµáĪŃ": 2881,
      "Ġ2020": 2882,
      "Bayan": 2883,
      "ĠTe": 2884,
      "Ġtake": 2885,
      "ĠUingereza": 2886,
      "hon": 2887,
      "kokin": 2888,
      "uc": 2889,
      "Ġcent": 2890,
      "áī²áĬ«": 2891,
      "han": 2892,
      "Un": 2893,
      "Ġabo": 2894,
      "Ġáĭľ": 2895,
      "Kwa": 2896,
      "aniya": 2897,
      "Ġir": 2898,
      "áī¶áĪµ": 2899,
      "ett": 2900,
      "áįįáīµ": 2901,
      "áī£áĪĪ": 2902,
      "imbo": 2903,
      "áī³áĭŃ": 2904,
      "Ġ189": 2905,
      "Ġwasa": 2906,
      "Ġzina": 2907,
      "ĠáĭķáĪĪáīµ": 2908,
      "ĠKan": 2909,
      "cip": 2910,
      "Ġkut": 2911,
      "Ġ23": 2912,
      "Ùħ": 2913,
      "ĠbÃŃi": 2914,
      "áĪµáĪĪ": 2915,
      "sib": 2916,
      "ĠMaj": 2917,
      "amin": 2918,
      "áĬ¨áĭļáĪħ": 2919,
      "á¹£á»į": 2920,
      "Ġyayin": 2921,
      "Ġilikuwa": 2922,
      "ĠáĭĻ": 2923,
      "gbÃ²": 2924,
      "ĠJe": 2925,
      "áįĪáĪį": 2926,
      "áĮ¨áĪĽáĪª": 2927,
      "áĭİáĪµ": 2928,
      "áįĭáīµ": 2929,
      "tiv": 2930,
      "atoli": 2931,
      "Ġim": 2932,
      "Ġupande": 2933,
      "áįĪáĭį": 2934,
      "Ġ2008": 2935,
      "Ġdiff": 2936,
      "Ġwajen": 2937,
      "ĠÃ¬tá»į": 2938,
      "Ġwenye": 2939,
      "ĠáĬłáĭµáĪŃ": 2940,
      "ĠáīłáĪŃ": 2941,
      "áĪĭáīħ": 2942,
      "dÃŃn": 2943,
      "nÃł": 2944,
      "ĠKis": 2945,
      "ĠAla": 2946,
      "ĠMag": 2947,
      "ĠmÃº": 2948,
      "Ġche": 2949,
      "Ġ2005": 2950,
      "umo": 2951,
      "Ġmoja": 2952,
      "ĠAmeric": 2953,
      "ĠkÃº": 2954,
      "ĠÃ¬já»įba": 2955,
      "áĬ¨áĪĪ": 2956,
      "ĠáĪĽáĭķ": 2957,
      "áĭ²áĭ«": 2958,
      "Ġentre": 2959,
      "áĪĽáīµ": 2960,
      "Ġnyingi": 2961,
      "Ġáĭ«áĪµ": 2962,
      "ĠÃ¨tÃ²": 2963,
      "áĮįáĪµáīµ": 2964,
      "med": 2965,
      "Ġwere": 2966,
      "Ġilu": 2967,
      "áĪ¹": 2968,
      "ĠÃĵ": 2969,
      "aro": 2970,
      "Ġpos": 2971,
      "ley": 2972,
      "iyyar": 2973,
      "erre": 2974,
      "ĠáīĥáĪį": 2975,
      "áĪĭáĭĬ": 2976,
      "sáº¹": 2977,
      "uv": 2978,
      "pen": 2979,
      "atta": 2980,
      "iwa": 2981,
      "áī¨": 2982,
      "Ġyali": 2983,
      "atic": 2984,
      "Ġáī¥áĪİ": 2985,
      "Ġconst": 2986,
      "áĪ½áĬķ": 2987,
      "Ġcol": 2988,
      "áĪĭáĬŃ": 2989,
      "áīłáĪį": 2990,
      "eth": 2991,
      "koa": 2992,
      "ģáĬķ": 2993,
      "ĠKusini": 2994,
      "Ġcour": 2995,
      "áĪªáĭİáī½": 2996,
      "áī«": 2997,
      "imo": 2998,
      "ĠChin": 2999,
      "Ġ188": 3000,
      "ĠáĬłáĪµáī°áĭ³": 3001,
      "Ġpart": 3002,
      "ananan": 3003,
      "áī³áĭį": 3004,
      "ĠáīµáĪĿáĪħáĪŃáīµ": 3005,
      "Ġkarne": 3006,
      "Ġbayyana": 3007,
      "Ġáī£áĪħ": 3008,
      "mbali": 3009,
      "ĠáĬ¨áĬĲ": 3010,
      "ople": 3011,
      "Ġkum": 3012,
      "áīłáĭļáĪħ": 3013,
      "Ġáį²áį": 3014,
      "Ġhas": 3015,
      "Ġsec": 3016,
      "umb": 3017,
      "áĭ®áī½": 3018,
      "áĬ¢áīµáĭ®áĮµáĭ«": 3019,
      "ĠayÃ©": 3020,
      "kÃ¡": 3021,
      "Ġáī°áĪ«": 3022,
      "áĪ«áĬķ": 3023,
      "Ġmanyan": 3024,
      "ĠáĬłáĪ«": 3025,
      "wÃł": 3026,
      "Yan": 3027,
      "áĪĬáĭ«": 3028,
      "Ġkil": 3029,
      "áĪ³áĪį": 3030,
      "unia": 3031,
      "áīĢáĪĺ": 3032,
      "iyya": 3033,
      "Ġexp": 3034,
      "ges": 3035,
      "Ġáĭ¨áī³": 3036,
      "cent": 3037,
      "undi": 3038,
      "ĠGo": 3039,
      "Ar": 3040,
      "ĠáĬ¨áĭļáĪħ": 3041,
      "áįĮ": 3042,
      "ten": 3043,
      "san": 3044,
      "ative": 3045,
      "áīĢáĪŃ": 3046,
      "áĭ°áĪĿ": 3047,
      "ĠáĪĿáĬŃáĬķáĭ«áīµ": 3048,
      "Ġ2003": 3049,
      "Ġjam": 3050,
      "ĠComm": 3051,
      "áĭŃáĭĪáīµ": 3052,
      "Ġwadanda": 3053,
      "Ġgar": 3054,
      "ĠKo": 3055,
      "Ġchini": 3056,
      "kali": 3057,
      "Ġgina": 3058,
      "Ġáĭ®áĪĲáĬķáĪµ": 3059,
      "áĭŃáīµ": 3060,
      "urg": 3061,
      "Ġyadda": 3062,
      "elles": 3063,
      "orin": 3064,
      "Ġye": 3065,
      "ĠUs": 3066,
      "adar": 3067,
      "ĠáĭŃáĮĪáĬĽáĪį": 3068,
      "áīłáĪ«": 3069,
      "ĠáĬ¨áĬłáĪ": 3070,
      "Ġaká»į": 3071,
      "Ġáº¹láº¹": 3072,
      "ĠÉĹaya": 3073,
      "erikali": 3074,
      "ante": 3075,
      "ĠáīłáĭĪ": 3076,
      "ich": 3077,
      "ukuma": 3078,
      "ĠáĪĦ": 3079,
      "mÃ¬n": 3080,
      "Ġms": 3081,
      "Ġras": 3082,
      "ĠBel": 3083,
      "Ġdama": 3084,
      "ĠKam": 3085,
      "emia": 3086,
      "aux": 3087,
      "ĠáīłáĮ£áĪĿ": 3088,
      "páº¹": 3089,
      "eral": 3090,
      "Ġja": 3091,
      "umba": 3092,
      "ĠSan": 3093,
      "Ġáī¥áĪŃ": 3094,
      "Ġáį¡áį¡": 3095,
      "illiam": 3096,
      "Ġaut": 3097,
      "ĠAug": 3098,
      "eme": 3099,
      "ĠáīłáĬ¥áĬķ": 3100,
      "ukar": 3101,
      "Ġmk": 3102,
      "ĠáĬłáĪĽ": 3103,
      "ĠYork": 3104,
      "Ġkuna": 3105,
      "ĠáĭŃáī³áĭĪ": 3106,
      "ĠTr": 3107,
      "áĪ³áĭĬ": 3108,
      "ĠkÃ©k": 3109,
      "af": 3110,
      "áĪµáĬķ": 3111,
      "Ã§ais": 3112,
      "Ãªme": 3113,
      "ĠViungo": 3114,
      "II": 3115,
      "áīłáī°": 3116,
      "ĠáĬ£": 3117,
      "ĠÃ¬pÃŃnláº¹": 3118,
      "Ġkira": 3119,
      "eneo": 3120,
      "He": 3121,
      "áĮĪáĪ©": 3122,
      "gan": 3123,
      "aribu": 3124,
      "Ġmbalimbali": 3125,
      "áĪ«áĪ±": 3126,
      "sÃłn": 3127,
      "Ġ27": 3128,
      "24": 3129,
      "Ġakwai": 3130,
      "áĭĪáĭ°": 3131,
      "aduna": 3132,
      "ind": 3133,
      "ĠKáº¹": 3134,
      "yoyin": 3135,
      "Ġtas": 3136,
      "Ġprodu": 3137,
      "edia": 3138,
      "imb": 3139,
      "ĠkÃ©kerÃ©": 3140,
      "áĪ³áī¥": 3141,
      "ĠáĪ¥áĪ«": 3142,
      "takatifu": 3143,
      "Ġmwandishi": 3144,
      "áī¥áīµ": 3145,
      "áĮĭáĪį": 3146,
      "Ġmb": 3147,
      "Ġpoli": 3148,
      "ĠáĪ±": 3149,
      "ĠKe": 3150,
      "fanya": 3151,
      "dÃº": 3152,
      "Ġ28": 3153,
      "ĠEng": 3154,
      "ences": 3155,
      "amma": 3156,
      "ĠÃ¬wÃ©": 3157,
      "Ġsar": 3158,
      "Ġmp": 3159,
      "gbÃ¨gbÃ¨": 3160,
      "vu": 3161,
      "194": 3162,
      "con": 3163,
      "áĮĪáĬĺáĭį": 3164,
      "Ġáĭ¶": 3165,
      "Ġdai": 3166,
      "lege": 3167,
      "unge": 3168,
      "ibi": 3169,
      "Ġgudanar": 3170,
      "Ġ100": 3171,
      "áĪ«áĪī": 3172,
      "áĭĲ": 3173,
      "Ġgidan": 3174,
      "gbegbe": 3175,
      "ĠáĪĺáĮ½áĪĲáįį": 3176,
      "wn": 3177,
      "ĠáĪĺáĪłáĪ¨": 3178,
      "ĠáĪĪáĬł": 3179,
      "Ã³Ã²": 3180,
      "Ġdang": 3181,
      "ĠáĬłáīĢ": 3182,
      "ology": 3183,
      "Ġcar": 3184,
      "Ġime": 3185,
      "ique": 3186,
      "yyar": 3187,
      "Ãī": 3188,
      "Ġ22": 3189,
      "ĠBan": 3190,
      "ĠáĭĪáĬķáĭµ": 3191,
      "áĬĸáĪ©": 3192,
      "áĬķáī²": 3193,
      "áĮ£áīµ": 3194,
      "ondon": 3195,
      "ĠShe": 3196,
      "ĠáĬłáĪľáĪªáĬ«": 3197,
      "fer": 3198,
      "ĠAnn": 3199,
      "ilo": 3200,
      "ĠáĬłáīµ": 3201,
      "ĠGr": 3202,
      "ĠUnited": 3203,
      "ĠáĪĽáĬķ": 3204,
      "umia": 3205,
      "Ġ2000": 3206,
      "ÙĬ": 3207,
      "ĠáĮ¥áīħáĪĿ": 3208,
      "áĪįáĮ£áĬķ": 3209,
      "Ġalso": 3210,
      "Ġsiyasa": 3211,
      "ĠáīĭáĬķáīĭáĭİáī½": 3212,
      "Ġáĭ¨áĪħ": 3213,
      "Ġáĭ°áĪ¨áĮĥ": 3214,
      "ĠáĪª": 3215,
      "Ġdara": 3216,
      "Ġáī½": 3217,
      "ango": 3218,
      "ĠáĬłáĭ«": 3219,
      "Ġgro": 3220,
      "Ç¹": 3221,
      "Ġjag": 3222,
      "ĠÃī": 3223,
      "áĪĽáĬķ": 3224,
      "Daga": 3225,
      "Ã¨s": 3226,
      "Ġfam": 3227,
      "áĪįáĪµ": 3228,
      "áĪĬáĬŃ": 3229,
      "rodha": 3230,
      "Ġsanya": 3231,
      "ĠDan": 3232,
      "áĬ¨áīµ": 3233,
      "Ġmutum": 3234,
      "Ġsak": 3235,
      "áĭĪáĪ°": 3236,
      "áĬĵáī¸áĭį": 3237,
      "ĠáĬ¥áĮįáĪŃ": 3238,
      "áĮĪáĪį": 3239,
      "Ġáĭ¨áĬ¤": 3240,
      "áīĥáĪµ": 3241,
      "Ġkwamba": 3242,
      "Am": 3243,
      "isp": 3244,
      "ĠSha": 3245,
      "laya": 3246,
      "195": 3247,
      "60": 3248,
      "ous": 3249,
      "áĪ¨áĪĿ": 3250,
      "ĠAllah": 3251,
      "Katika": 3252,
      "áĬ¥áĪµ": 3253,
      "oman": 3254,
      "ĠJos": 3255,
      "Ġ0": 3256,
      "áįĲ": 3257,
      "Ġfáº¹": 3258,
      "âĢİ": 3259,
      "mala": 3260,
      "áĪŃáĪµáī¶áĪµ": 3261,
      "áĪĿáĬĲáīµ": 3262,
      "Ġgabatar": 3263,
      "ĠáĪ¥áĬĲ": 3264,
      "kÃº": 3265,
      "áĬĻ": 3266,
      "stáº¹": 3267,
      "áĬĵáĬķ": 3268,
      "ĠáĪįáĮĨáī½": 3269,
      "ĠAnd": 3270,
      "áĬĸáĪµ": 3271,
      "ĠáĭĪáĬķáĭĿ": 3272,
      "Ã¬dÃ¬": 3273,
      "Ġáī°áī¥áĪİ": 3274,
      "kiya": 3275,
      "ury": 3276,
      "nÃŃ": 3277,
      "Ġáīłáī³": 3278,
      "áĭĭáīĤ": 3279,
      "oso": 3280,
      "als": 3281,
      "Ġ2002": 3282,
      "ĠkÃ³pa": 3283,
      "bá»į": 3284,
      "Ġmwa": 3285,
      "ines": 3286,
      "amman": 3287,
      "Ġmahai": 3288,
      "ĠáĮŃ": 3289,
      "antu": 3290,
      "wood": 3291,
      "lem": 3292,
      "rÃ³": 3293,
      "Ġtab": 3294,
      "Ġwo": 3295,
      "ĠáĭĿáĪŃáĭĿ": 3296,
      "aut": 3297,
      "ĠAh": 3298,
      "áīŃ": 3299,
      "Ġsababu": 3300,
      "ui": 3301,
      "28": 3302,
      "Ġmf": 3303,
      "gÃ©": 3304,
      "iru": 3305,
      "Ġayy": 3306,
      "ĠTara": 3307,
      "áĪĪáī²áĬ«": 3308,
      "áĭĭáĬķ": 3309,
      "Ġwan": 3310,
      "Ġmwana": 3311,
      "ature": 3312,
      "ĠáĬłáįĪ": 3313,
      "itin": 3314,
      "ĠfranÃ§ais": 3315,
      "Ġmto": 3316,
      "sent": 3317,
      "umu": 3318,
      "ĠÃģ": 3319,
      "Ġpop": 3320,
      "áĪĺáĭį": 3321,
      "Ġiliyo": 3322,
      "ĠAbd": 3323,
      "áĪĭáĭį": 3324,
      "tun": 3325,
      "áĪ¥áĪ«": 3326,
      "ĠáĮįáī¥": 3327,
      "Ġáĭ¨áĬ¢": 3328,
      "tÃ³": 3329,
      "aron": 3330,
      "iga": 3331,
      "ĠáĮ¥áĬķ": 3332,
      "ĠáĪĺáĬķáĮĪáĭµ": 3333,
      "Ġkammala": 3334,
      "ayi": 3335,
      "ight": 3336,
      "Ġirin": 3337,
      "ĠGab": 3338,
      "ĠáĪĺáĪŃ": 3339,
      "Ġmutu": 3340,
      "ĠAfrican": 3341,
      "ĠlÃ¡ra": 3342,
      "ĠÃ¡stáº¹": 3343,
      "ĠAc": 3344,
      "Ġpad": 3345,
      "áĭĬáīµ": 3346,
      "Ġ1960": 3347,
      "esi": 3348,
      "Ġáī¥áĪĶ": 3349,
      "ÙĨ": 3350,
      "áĭĪáī½": 3351,
      "Ġ1999": 3352,
      "Ġid": 3353,
      "Ġ2004": 3354,
      "Ġkusini": 3355,
      "áĮłáīħ": 3356,
      "Ġaussi": 3357,
      "ĠUlaya": 3358,
      "ĠáĪ®": 3359,
      "ulu": 3360,
      "ĠpÃł": 3361,
      "Ġyayi": 3362,
      "27": 3363,
      "Ġ29": 3364,
      "áĮ®áī½": 3365,
      "Ã¨me": 3366,
      "ĠáĮ¥áĬĵáīµ": 3367,
      "uwanci": 3368,
      "áĪµáįĭ": 3369,
      "icha": 3370,
      "bÃ¹n": 3371,
      "pÃ¡": 3372,
      "áĭĺáĮĭ": 3373,
      "áĬĶáī³": 3374,
      "áĭĪáĪĪ": 3375,
      "ĠáĪĪáĪĿ": 3376,
      "Ġwaje": 3377,
      "Ġrubu": 3378,
      "Ġjirgin": 3379,
      "Wak": 3380,
      "anzia": 3381,
      "ibiyar": 3382,
      "urope": 3383,
      "ĠGre": 3384,
      "Ġmod": 3385,
      "jini": 3386,
      "ĠáĪīáīĥáĪµ": 3387,
      "Ġ*": 3388,
      "ĠLegas": 3389,
      "Ġbirni": 3390,
      "Ġhukumar": 3391,
      "Ġyamma": 3392,
      "áĪ¾": 3393,
      "ĠYa": 3394,
      "29": 3395,
      "Wá»į": 3396,
      "Ġhann": 3397,
      "Ġgirma": 3398,
      "ĠMuhammad": 3399,
      "áĭ«áĪį": 3400,
      "ĠKaduna": 3401,
      "Ġáī°áĪ°": 3402,
      "Ġsp": 3403,
      "moja": 3404,
      "pos": 3405,
      "Ġ26": 3406,
      "ps": 3407,
      "áĪŁ": 3408,
      "ĠEd": 3409,
      "Ġdaban": 3410,
      "áĮłáĭį": 3411,
      "Ġhivyo": 3412,
      "oka": 3413,
      "ĠEb": 3414,
      "Ġáīłáĭ¨": 3415,
      "Ġinter": 3416,
      "atoliki": 3417,
      "ĠAk": 3418,
      "Ġbut": 3419,
      "Ġfilamu": 3420,
      "Ġkwaikwa": 3421,
      "Ġsake": 3422,
      "Ġ1990": 3423,
      "91": 3424,
      "ĠáīħáĪŃ": 3425,
      "Ġáĭ¨áĪļáĪĪáĭį": 3426,
      "ĠÃĪkÃ³": 3427,
      "áĭķáĪ«áī¥": 3428,
      "Ġáĭ¨áĪķ": 3429,
      "Ġáīłáĭĵ": 3430,
      "Ġuh": 3431,
      "áįİáī½": 3432,
      "ĠáĬ¥áĬķáĮĤ": 3433,
      "BC": 3434,
      "Ġáĭ¨áĬłáĪľáĪªáĬ«": 3435,
      "ĠwaÉĹ": 3436,
      "áĪ®áĪµ": 3437,
      "Ġsuke": 3438,
      "Ġfirst": 3439,
      "gne": 3440,
      "ĠLondon": 3441,
      "ĠÃ©tÃ©": 3442,
      "Ġprin": 3443,
      "iji": 3444,
      "ĠWorld": 3445,
      "ĠChi": 3446,
      "ĠáĬŃáĪį": 3447,
      "ĠáĮīáĭ³": 3448,
      "asara": 3449,
      "ĠChar": 3450,
      "Ġkudu": 3451,
      "ĠCar": 3452,
      "áī°áĬķ": 3453,
      "osti": 3454,
      "igi": 3455,
      "ĠÃ©g": 3456,
      "Ġsous": 3457,
      "chn": 3458,
      "...": 3459,
      "Ġtabi": 3460,
      "ach": 3461,
      "Ġfina": 3462,
      "ĠJamh": 3463,
      "atsina": 3464,
      "endelea": 3465,
      "she": 3466,
      "ĠáĭĪáĭŃ": 3467,
      "ĠFrance": 3468,
      "atik": 3469,
      "fiyar": 3470,
      "Ġáĭ¨áīµ": 3471,
      "vo": 3472,
      "ĠPart": 3473,
      "ĠáĭŃáīĢ": 3474,
      "paka": 3475,
      "Ġits": 3476,
      "ĠáĬ¥áĬķáĭ²áĪħ": 3477,
      "Ġkad": 3478,
      "lie": 3479,
      "Ġli": 3480,
      "Ġact": 3481,
      "ĠáĮĮ": 3482,
      "26": 3483,
      "Af": 3484,
      "hel": 3485,
      "Ġkula": 3486,
      "ayen": 3487,
      "Ã¡náº¹": 3488,
      "Ġipa": 3489,
      "ĠIndi": 3490,
      "ĠState": 3491,
      "ĠáĪģáĪĪ": 3492,
      "ĠFo": 3493,
      "led": 3494,
      "áĬĲáī±": 3495,
      "Ġáī³áĪªáĬ«áĭĬ": 3496,
      "ĠáįķáĪ¬": 3497,
      "áī¥áĪ¨áīµ": 3498,
      "dadi": 3499,
      "jar": 3500,
      "Ġfannin": 3501,
      "ĠáīµáĬķ": 3502,
      "ĠáĪĺáĮ¨áĪ¨áĪ»": 3503,
      "ĠgÃ©n": 3504,
      "Ġnombre": 3505,
      "ĠáĪķáĭĿáī¥": 3506,
      "ĠWat": 3507,
      "Ġfait": 3508,
      "ogun": 3509,
      "esa": 3510,
      "Ġyao": 3511,
      "áĬŃáĪī": 3512,
      "Ġpers": 3513,
      "uf": 3514,
      "ĠjÃ¹lá»į": 3515,
      "ĠInternational": 3516,
      "áĮĦ": 3517,
      "husu": 3518,
      "ĠÃ¬dÃŃ": 3519,
      "joibi": 3520,
      "Ġkili": 3521,
      "ĠáīłáĬĲ": 3522,
      "arabu": 3523,
      "ĠgbÃł": 3524,
      "ĠsÃ©": 3525,
      "ĠWest": 3526,
      ")áį£": 3527,
      "áīłáĪ©áīµ": 3528,
      "ĠáĬłáĮĪáĪį": 3529,
      "áĪ¨áĪ°": 3530,
      "soci": 3531,
      "áĪĺáĪį": 3532,
      "ĠEl": 3533,
      "áĪŃáī²": 3534,
      "40": 3535,
      "áī°áĭĭáĪį": 3536,
      "Ġmutanen": 3537,
      "anzi": 3538,
      "ive": 3539,
      "weza": 3540,
      "red": 3541,
      "Ġbiyar": 3542,
      "Ġos": 3543,
      "ĠdÃ©c": 3544,
      "áĪĺáĭµ": 3545,
      "ros": 3546,
      "ĠáĭĿáĪŃáĭĿáĪŃ": 3547,
      "ĠIpinle": 3548,
      "lÃŃ": 3549,
      "ĠBabban": 3550,
      "Ġzin": 3551,
      "ĠáīłáĬ©": 3552,
      "ĠCollege": 3553,
      "ca": 3554,
      "Ġáįĭ": 3555,
      "ĠáĭŃáī½áĪĭáĪį": 3556,
      "áĭįáĪ®áįĵ": 3557,
      "ĠBrit": 3558,
      "áĬ¨áī°áĪĽ": 3559,
      "Ġáī»": 3560,
      "ĠUfaransa": 3561,
      "80": 3562,
      "¶áį": 3563,
      "ĠáĮįáĭµáĪĿ": 3564,
      "ĠNational": 3565,
      "ĠÃ¬gbÃłjÃ¡": 3566,
      "uss": 3567,
      "unin": 3568,
      "áĪ«áĪ²": 3569,
      "Ġkilom": 3570,
      "áīłáĬł": 3571,
      "ĠÃ¬má»į": 3572,
      "fuat": 3573,
      "ĠáĬłáĪĺáīµ": 3574,
      "Ġarewa": 3575,
      "áĮįáĬķ": 3576,
      "ĠáĮĬ": 3577,
      "ĠáĬĲáĮ»": 3578,
      "ĠáĪģáĬĶáī³": 3579,
      "ĠplÃ¡náº¹": 3580,
      "utu": 3581,
      "Ġkaramar": 3582,
      "áī¤áī°": 3583,
      "áĭ«áĭĬ": 3584,
      "des": 3585,
      "nu": 3586,
      "Ġlar": 3587,
      "uro": 3588,
      "áī»áī¸áĭį": 3589,
      "áĪħáĬķ": 3590,
      "ĠOs": 3591,
      "rÃ¬n": 3592,
      "ĠDo": 3593,
      "ĠBah": 3594,
      "áĬĲáĪ³": 3595,
      "70": 3596,
      "ĠYuni": 3597,
      "fÃł": 3598,
      "wara": 3599,
      "ĠMai": 3600,
      "gÃ¹n": 3601,
      "Ġyenye": 3602,
      "Ġmad": 3603,
      "ler": 3604,
      "ashara": 3605,
      "ĠAugust": 3606,
      "áĪģáĬķ": 3607,
      "Ġcette": 3608,
      "Ã¨res": 3609,
      "dÃł": 3610,
      "wahili": 3611,
      "ĠFil": 3612,
      "áĪ¶áī½": 3613,
      "Ġwalio": 3614,
      "tions": 3615,
      "iriki": 3616,
      "áĭ¨áĪĿ": 3617,
      "adu": 3618,
      "ĠBu": 3619,
      "ĠCha": 3620,
      "Ġnaa": 3621,
      "ĠDi": 3622,
      "ĠKim": 3623,
      "ĠJanuari": 3624,
      "Ġambayo": 3625,
      "Ġuti": 3626,
      "Ġruwa": 3627,
      "ĠHo": 3628,
      "áĪĪáĪĽ": 3629,
      "ĠMan": 3630,
      "ĠáĪļáĬĴ": 3631,
      "lam": 3632,
      "ÃĴ": 3633,
      "Ġáī±": 3634,
      "ĠáįĪáĪŃ": 3635,
      "Ġsau": 3636,
      "ork": 3637,
      "ĠShugaban": 3638,
      "Ġshug": 3639,
      "Ġvita": 3640,
      "áĭļáīĥ": 3641,
      "áĬ¸": 3642,
      "ĠáĪĺáĪįáĬŃ": 3643,
      "Ġsauran": 3644,
      "Ġbai": 3645,
      "Ġmita": 3646,
      "áĭĪáĮ£": 3647,
      "lamu": 3648,
      "ĠáĬŃáĪŃáĪµáī²áĭ«áĬķ": 3649,
      "ĠáĬĲáĮĪáĪ®áī½": 3650,
      "ĠAgosti": 3651,
      "ĠdÃŃ": 3652,
      "alo": 3653,
      "áĬ¥áĬķáĮįáĪĬáĭĿáĬĽ": 3654,
      "Ġrayuwa": 3655,
      "áĭ¨áĬł": 3656,
      "Ġáī¢áĪĨáĬķ": 3657,
      "ĠWas": 3658,
      "ĠmÃ©jÃ¬": 3659,
      "ms": 3660,
      "col": 3661,
      "ild": 3662,
      "ĠUg": 3663,
      "Ġserikali": 3664,
      "áī´áĭİáĪµ": 3665,
      "kiyar": 3666,
      "Ġáīłáĭį": 3667,
      "SB": 3668,
      "ĠáĭŃáĪĺáĪµ": 3669,
      "ĠDis": 3670,
      "ĠOb": 3671,
      "fÃ¡": 3672,
      "Ġban": 3673,
      "cess": 3674,
      "Ġmusul": 3675,
      "áĭĭáĬĵ": 3676,
      "orun": 3677,
      "ĠáĭĺáĪŃ": 3678,
      "udi": 3679,
      "ĠWilliam": 3680,
      "ĠSouth": 3681,
      "Ġáĭ¨áĪĽáĭŃ": 3682,
      "ĠPet": 3683,
      "Ġkaskazini": 3684,
      "ced": 3685,
      "ĠáĭŃáĪĨ": 3686,
      "Ġel": 3687,
      "áĪĤ": 3688,
      "pend": 3689,
      "áĪĽáĬĸáīµ": 3690,
      "aima": 3691,
      "Ġbas": 3692,
      "ĠPort": 3693,
      "193": 3694,
      "ĠSar": 3695,
      "Ġáĭ«áĪħáĪį": 3696,
      "ĠáĬ¥áĬĲ": 3697,
      "áĪĽáĪį": 3698,
      "ĠáĭŃáĪħáĪĿ": 3699,
      "yon": 3700,
      "Sa": 3701,
      "ĠáĪ¦": 3702,
      "Ġhave": 3703,
      "Ġacc": 3704,
      "ange": 3705,
      "ĠáĬ¡": 3706,
      "ĠCity": 3707,
      "Ġhukumomin": 3708,
      "Ġáįª": 3709,
      "Ġ1980": 3710,
      "áĮĪáĭ°": 3711,
      "áº¸": 3712,
      "ĠÐ": 3713,
      "ĠorÃºká»į": 3714,
      "ĠkejÃ¬": 3715,
      "ĠáīłáĪĻ": 3716,
      "áĪīáĪĿ": 3717,
      ".,": 3718,
      "Ita": 3719,
      "Ġuna": 3720,
      "ĠáĬłáĪĪáĭį": 3721,
      "Ġsyst": 3722,
      "fia": 3723,
      "Ìģ,": 3724,
      "ĠJulai": 3725,
      "90": 3726,
      "Ġmab": 3727,
      "ĠBab": 3728,
      "ĠáĭµáĪŃáĮħ": 3729,
      "rÃł": 3730,
      "cri": 3731,
      "ÙĪ": 3732,
      "áįĶ": 3733,
      "Ġmaji": 3734,
      "ĠáĭŃáĭĺ": 3735,
      "Ġkarni": 3736,
      "áĮĢáĪŃáĪĺáĬķ": 3737,
      "FA": 3738,
      "ĠÃĮtá»į": 3739,
      "Ġmak": 3740,
      "ĠáĪĿáĬķáĪĿ": 3741,
      "kashin": 3742,
      "aben": 3743,
      "Ġyau": 3744,
      "lejin": 3745,
      "Ġilimi": 3746,
      "attalin": 3747,
      "ĠPl": 3748,
      "Ġmaeneo": 3749,
      "overn": 3750,
      "áĪ«áī¸áĭį": 3751,
      "Ġont": 3752,
      "Ġtsarin": 3753,
      "ĠáĪĺáĮĢáĪĺáĪŃáĭ«": 3754,
      "sid": 3755,
      "Ġuk": 3756,
      "Ġlashe": 3757,
      "Ġpla": 3758,
      "ombe": 3759,
      "ĠáīłáĪ½": 3760,
      "Ġmaza": 3761,
      "ĠIlÃ©": 3762,
      "ĠgbajÃº": 3763,
      "ispania": 3764,
      "Äģ": 3765,
      "Ġmawa": 3766,
      "Ġáĭ¨áī£": 3767,
      "iye": 3768,
      "Ġdigiri": 3769,
      "rÃŃn": 3770,
      "az": 3771,
      "Ġver": 3772,
      "Ġdont": 3773,
      "ĠáĪĿáĬķáĮ®áī½": 3774,
      "78": 3775,
      "urn": 3776,
      "Ġáī°áįĪ": 3777,
      "áĭ¨áĪ±": 3778,
      "ĠáĪł": 3779,
      "ĠáĭŃáĪ°": 3780,
      "ĠáĭŃáĪħáĬķ": 3781,
      "áī£áĪĪáĭį": 3782,
      "ologie": 3783,
      "umma": 3784,
      "Ġáĭ¨áĬ«": 3785,
      "áīłáĪĪ": 3786,
      "ĠKir": 3787,
      "izikia": 3788,
      "áĪ·": 3789,
      "ĠJuni": 3790,
      "áĬ¥áĬķáĭ°": 3791,
      "áĪĭáĪ´": 3792,
      "ĠáĪĿáĪŃ": 3793,
      "Ġáĭ¨áī°áĪ°": 3794,
      "lig": 3795,
      "áĪĺáĪ°": 3796,
      "áĪĭáĪĪ": 3797,
      "tan": 3798,
      "ĠAde": 3799,
      "ics": 3800,
      "Ġcer": 3801,
      "ĠOgun": 3802,
      "áīłáĪĺ": 3803,
      "Ġsoci": 3804,
      "Ġáĭĭáī¢": 3805,
      "ĠYar": 3806,
      "mer": 3807,
      "Ġdir": 3808,
      "1892": 3809,
      "áĬŃáĪŃ": 3810,
      "Ġcons": 3811,
      "isto": 3812,
      "As": 3813,
      "¹¢": 3814,
      "ĠMon": 3815,
      "áĬķáĭ±": 3816,
      "ĠáĪĽáĪŃáīĨ": 3817,
      "Ġtal": 3818,
      "ĠáĪĺáĪĨáĬĳ": 3819,
      "ĠnÃŃbi": 3820,
      "ĠFizikia": 3821,
      "ages": 3822,
      "lÃ³gÃºn": 3823,
      "ĠjÃ¡de": 3824,
      "Ġge": 3825,
      "illa": 3826,
      "ĠCent": 3827,
      "ĠOá¹£Ã¹": 3828,
      "Ġkamfanin": 3829,
      "Ġwakil": 3830,
      "Ġ1991": 3831,
      "ĠáĮ½áĪĳ": 3832,
      "ĠSp": 3833,
      "·áį": 3834,
      "Ġkit": 3835,
      "ĠTiba": 3836,
      "ĠáĪµáĪĻ": 3837,
      "ĠÆĺ": 3838,
      "kama": 3839,
      "ĠMachi": 3840,
      "ĠParty": 3841,
      "hed": 3842,
      "táº¹": 3843,
      "lá»įpá»į": 3844,
      "ĠwÃŃpÃ©": 3845,
      "Ġmusamman": 3846,
      "www": 3847,
      "Ġkwaikwayo": 3848,
      "Ġag": 3849,
      "káº¹": 3850,
      "Ġno": 3851,
      "ĠSec": 3852,
      "thiop": 3853,
      "ĠáĪłáĪ«": 3854,
      "Ġkilomita": 3855,
      "ĠCl": 3856,
      "eman": 3857,
      "Ġvo": 3858,
      "ĠáĬħ": 3859,
      "Ġmis": 3860,
      "áĬķáĭ°": 3861,
      "ĠAwards": 3862,
      "ĠáĮłáĪ": 3863,
      "ĠáĪ¥áĪŃáĭĪ": 3864,
      "ĠáĪĺáĭµ": 3865,
      "ĠáĬłáĪ³": 3866,
      "Ġwaki": 3867,
      "ĠNigerian": 3868,
      "áĭ³áĪŃ": 3869,
      "ĠáĪĺáĪª": 3870,
      "Ġcor": 3871,
      "Ġlake": 3872,
      "ĠSal": 3873,
      "Ġmam": 3874,
      "Ġtaima": 3875,
      "rili": 3876,
      "ĠdÃ©part": 3877,
      "ĠáĭĪáĮĪáĬķ": 3878,
      "ws": 3879,
      "ĠáĪĤ": 3880,
      "Ġmfalme": 3881,
      "liwa": 3882,
      "ĠFor": 3883,
      "Ġáĭ°áĪ´": 3884,
      "áĪĭáĪĽ": 3885,
      "Ġtemp": 3886,
      "Ġáĭ¨áĪ¥": 3887,
      "ĠYamma": 3888,
      "asihi": 3889,
      "Ġzaman": 3890,
      "ĠMajalisar": 3891,
      "Ġpays": 3892,
      "ĠáĭĪáĪ¨áĭ³": 3893,
      "áĭļáĪģ": 3894,
      "iter": 3895,
      "Ã¡ra": 3896,
      "ĠáĪĿáĪįáĬŃ": 3897,
      "men": 3898,
      "ater": 3899,
      "áī¶áī½áĬķ": 3900,
      "Ġht": 3901,
      "Ġsim": 3902,
      "Ã©ri": 3903,
      "Ġáį¤": 3904,
      "ĠDec": 3905,
      "Ġall": 3906,
      "ĠáĬ¨áĬ¥": 3907,
      "Ġsub": 3908,
      "áįĪáĪ¨áĬķáĪ³áĭŃ": 3909,
      "igizaji": 3910,
      "ĠÃ©ta": 3911,
      "áĪĺáĮ£": 3912,
      "áī½áĭį": 3913,
      "ete": 3914,
      "ip": 3915,
      "ĠáĬĴ": 3916,
      "áĪ°áĬķ": 3917,
      "jan": 3918,
      "áĭķáĪį": 3919,
      "sá»į": 3920,
      "ily": 3921,
      "ĠParis": 3922,
      "Ġhttp": 3923,
      "ĠáĬĸ": 3924,
      "aifaff": 3925,
      "ĠAare": 3926,
      "ulation": 3927,
      "SBN": 3928,
      "ling": 3929,
      "áĪ¡": 3930,
      "Ġtangu": 3931,
      "upe": 3932,
      "áĮ¥áĪ¨": 3933,
      "risti": 3934,
      "Ġlambar": 3935,
      "ĠMtakatifu": 3936,
      "ĠáĬłáĪĪáīĥ": 3937,
      "ĠFaransa": 3938,
      "Ġjagor": 3939,
      "Ġáĭ¨áĭĺ": 3940,
      "áĭĳ": 3941,
      "ĠáĮħ": 3942,
      "ĠáĭķáĪĪ": 3943,
      "áĪłáĪ«": 3944,
      "Ìģ.": 3945,
      "ĠKatsina": 3946,
      "áĮ¥áĪ®": 3947,
      "Ġhukuma": 3948,
      "ÃĪ": 3949,
      "tes": 3950,
      "orge": 3951,
      "ĠMei": 3952,
      "ĠPer": 3953,
      "ĠáĪ´áīµ": 3954,
      "ĠChina": 3955,
      "fs": 3956,
      "Ġbab": 3957,
      "ĠáĬłáĪ¸": 3958,
      "asha": 3959,
      "Ġkarkashin": 3960,
      "ements": 3961,
      "sin": 3962,
      "Ãłráº¹": 3963,
      "ancin": 3964,
      "ain": 3965,
      "ĠMad": 3966,
      "áĮĪáīł": 3967,
      "áĬ®áī½": 3968,
      "ĠáĪº": 3969,
      "ĠPol": 3970,
      "áĪ³áī¸áĭį": 3971,
      "Ġlabar": 3972,
      "ĠMashariki": 3973,
      "ĠBer": 3974,
      "Ġáī³áĭĭáīĤ": 3975,
      "ĠáĭŃáĪĨáĬĵáĪį": 3976,
      "bÃ²": 3977,
      "ĠáĬ¥áĭį": 3978,
      "ĠáĬłáĮ¥": 3979,
      "ĠáīłáĪĮ": 3980,
      "ographi": 3981,
      "cto": 3982,
      "Ġáīłáī°áĪĪáĭŃ": 3983,
      "Ġpeke": 3984,
      "adin": 3985,
      "Ġsunan": 3986,
      "ĠáĬŃáįįáĪĭ": 3987,
      "ĠTs": 3988,
      "áĮ¦áĪŃ": 3989,
      "Ġndani": 3990,
      "esha": 3991,
      "ista": 3992,
      "wanda": 3993,
      "Ġbec": 3994,
      "áĬ«áĪį": 3995,
      "áĭ²áĪħ": 3996,
      "ĠDesemba": 3997,
      "áĮįáī¥áĮ½": 3998,
      "áĮĪáī¥": 3999,
      "Ġlori": 4000,
      "Ġtak": 4001,
      "áĪ±áĪĿ": 4002,
      "áĭ³áĪĿ": 4003,
      "Ġkaribu": 4004,
      "Ġbang": 4005,
      "badan": 4006,
      "arch": 4007,
      "fÃŃ": 4008,
      "lÃ²": 4009,
      "Ã©t": 4010,
      "itt": 4011,
      "ĠáĬłáĭŃáĭ°": 4012,
      "Ġkuanzia": 4013,
      "á¹£o": 4014,
      "áĬ¹": 4015,
      "ĠrÃ©gion": 4016,
      "ĠáīłáĪģ": 4017,
      "hen": 4018,
      "ÉĹa": 4019,
      "Ġasalin": 4020,
      "ĠagbÃ¨gbÃ¨": 4021,
      "á¹£Ã¨lÃº": 4022,
      "Ġ2001": 4023,
      "zer": 4024,
      "Ġut": 4025,
      "Ġjari": 4026,
      "Ġzamani": 4027,
      "Ġsani": 4028,
      "lect": 4029,
      "ĠáīłáĮ¥": 4030,
      "Ġpeut": 4031,
      "ĠAprili": 4032,
      "Ġ1993": 4033,
      "aifaffun": 4034,
      "Ġlab": 4035,
      "ĠáĬłáĭ°": 4036,
      "Ġdur": 4037,
      "Ġstr": 4038,
      "áĮįáĪį": 4039,
      "áĪĺáī±": 4040,
      "Ġmalla": 4041,
      "onde": 4042,
      "ĠAmerican": 4043,
      "Ġlong": 4044,
      "Ġmeng": 4045,
      "ĠIli": 4046,
      "áįĪáīµ": 4047,
      "Ġher": 4048,
      "áĪ¨áī¥": 4049,
      "ĠáĪ»": 4050,
      "Ġdist": 4051,
      "Ġkayan": 4052,
      "Ġmace": 4053,
      "ĠáīĢáĮ¥": 4054,
      "ikuu": 4055,
      "Ġder": 4056,
      "ĠmÃŃ": 4057,
      "áĬĲáĮĪ": 4058,
      "ĠÃŃ": 4059,
      "Ġbisa": 4060,
      "Ġkwallon": 4061,
      "Ġchake": 4062,
      "áĪŃáĭ«áĪĿ": 4063,
      "áįĳ": 4064,
      "áĭ³áĪį": 4065,
      "rop": 4066,
      "Ġ1970": 4067,
      "áĪĿáĪħáĪŃ": 4068,
      "opo": 4069,
      "áĮłáĪ©": 4070,
      "Ø±": 4071,
      "Ġhuko": 4072,
      "áįĪáĪµ": 4073,
      "ilar": 4074,
      "arci": 4075,
      "vyo": 4076,
      "Ġdali": 4077,
      "ove": 4078,
      "aik": 4079,
      "Ġnau": 4080,
      "ĠáĬĵáīµ": 4081,
      "Ġáº¹ni": 4082,
      "áĭµáĪ¨áĮį": 4083,
      "way": 4084,
      "lima": 4085,
      "ĠÃłmÃ¬": 4086,
      "ander": 4087,
      "Ġaliye": 4088,
      "ĠSeptemba": 4089,
      "ĠMak": 4090,
      "rÃº": 4091,
      "Ġako": 4092,
      "ĠKananan": 4093,
      "ĠTari": 4094,
      "ģáĬĳ": 4095,
      "ets": 4096,
      "ĠPh": 4097,
      "áĪķáĪŃ": 4098,
      "Ġnada": 4099,
      "dÃ³": 4100,
      "huwar": 4101,
      "ĠmÃªme": 4102,
      "ĠáĪĺáĪłáĪ¨áīµ": 4103,
      "Ġtheir": 4104,
      "áĮįáĪİ": 4105,
      "yd": 4106,
      "ĠBro": 4107,
      "ĠáĬ¥áĭ¨áī°": 4108,
      "áĮłáĬĵ": 4109,
      "Ġshirin": 4110,
      "Ġcommun": 4111,
      "ĠMis": 4112,
      "anna": 4113,
      "Ġtsohon": 4114,
      "ĠáĭŃáī³áĭĪáīĥáĪį": 4115,
      "âĢº": 4116,
      "ĠHot": 4117,
      "áĬĹ": 4118,
      "ĠagbÃ¡": 4119,
      "Ġthis": 4120,
      "ĠáĬ¥áĬĲáĭļáĪħ": 4121,
      "score": 4122,
      "áĬĥ": 4123,
      "Ġyabo": 4124,
      "Ġleur": 4125,
      "istory": 4126,
      "Ġkara": 4127,
      "áĪ¨áĮĭ": 4128,
      "ĠTo": 4129,
      "Ġoffic": 4130,
      "ourn": 4131,
      "sÃ¹": 4132,
      "Ġrel": 4133,
      "ĠRay": 4134,
      "ones": 4135,
      "ĠKudu": 4136,
      "áĪ©áīµ": 4137,
      "Ġ1998": 4138,
      "Ġciki": 4139,
      "yyun": 4140,
      "yl": 4141,
      "Ġmwigizaji": 4142,
      "Ã¯": 4143,
      "ĠáĪĽáī´áĭİáĪµ": 4144,
      "áįĵáĬķ": 4145,
      "Ã¬mÃ¹": 4146,
      "Ġ1994": 4147,
      "Ġuhuru": 4148,
      "Ġiko": 4149,
      "áī£áĭĬ": 4150,
      "ĠáĪµáīµ": 4151,
      "ism": 4152,
      "ĠDar": 4153,
      "Ab": 4154,
      "Ġret": 4155,
      "ĠáĪĺáĬĲ": 4156,
      "Ġáĭįáĭµ": 4157,
      "ĠáĬ¬": 4158,
      "Ġjerin": 4159,
      "ĠáĭķáĪĪáī³áīµ": 4160,
      "´áį": 4161,
      "uld": 4162,
      "http": 4163,
      "On": 4164,
      "ĪáĪĿ": 4165,
      "Ġpá»į": 4166,
      "Ġkutokana": 4167,
      "Ġsc": 4168,
      "ĠBal": 4169,
      "olly": 4170,
      "Ġlokaci": 4171,
      "AN": 4172,
      "Walio": 4173,
      "Ġlin": 4174,
      "ctions": 4175,
      "áį²áį": 4176,
      "áĭ°áĮį": 4177,
      "ĠRaya": 4178,
      "ĠáĪĺáĭĿ": 4179,
      "wana": 4180,
      "ino": 4181,
      "Ġcal": 4182,
      "190": 4183,
      "ouver": 4184,
      "ĠFebruari": 4185,
      "áĪ¯": 4186,
      "kawa": 4187,
      "Ã©c": 4188,
      "rÃ¡": 4189,
      "áĮ¹": 4190,
      "day": 4191,
      "omen": 4192,
      "Ġáĭ´": 4193,
      "ĠWan": 4194,
      "ĠCor": 4195,
      "yÃ¡": 4196,
      "Ġone": 4197,
      "ral": 4198,
      "Ġfe": 4199,
      "Ġáį³áį": 4200,
      "áĮĪáĭį": 4201,
      "cÃ©": 4202,
      "Ġpuis": 4203,
      "ĠLes": 4204,
      "Ġmulki": 4205,
      "Ġmajalisar": 4206,
      "ÙĲ": 4207,
      "ĠSi": 4208,
      "ĠJanuary": 4209,
      "45": 4210,
      "Ġmot": 4211,
      "Ġ1996": 4212,
      "ĠNovemba": 4213,
      "ĠáĮ¥áĬķáī³áĭĬ": 4214,
      "ĠRob": 4215,
      "ĠEurope": 4216,
      "ĠâĢ¢": 4217,
      "Ã²rÃ¹n": 4218,
      "Ġutilis": 4219,
      "ulture": 4220,
      "ĠRais": 4221,
      "indi": 4222,
      "ĠÃłwon": 4223,
      "asaha": 4224,
      "ĠáīĢáĬĵáīµ": 4225,
      "ĠáĬłáĪģáĬķ": 4226,
      "ulani": 4227,
      "Ġgrand": 4228,
      "Ġmasana": 4229,
      "pele": 4230,
      "iyoyin": 4231,
      "ĠMusulunci": 4232,
      "ĠÃª": 4233,
      "iver": 4234,
      "jiya": 4235,
      "osai": 4236,
      "vent": 4237,
      "ĠKya": 4238,
      "áĪĽáī½": 4239,
      "ĠáĪĿáĪµ": 4240,
      "ĠáĪŀáīµ": 4241,
      "áĮĪáĪª": 4242,
      "ilu": 4243,
      "áĭ®áĪŃ": 4244,
      "ĠáĭĪáĪ¨": 4245,
      "áĭ¨áī°": 4246,
      "ĠáĭŃáĪĭáĪį": 4247,
      "ĠGer": 4248,
      "rid": 4249,
      "cer": 4250,
      "Ġainsi": 4251,
      "áĪŃáĪµáī²áĭ«": 4252,
      "áĭĪáĪŃ": 4253,
      "/)": 4254,
      "ĠcrÃ©": 4255,
      "Ġcap": 4256,
      "omb": 4257,
      "aru": 4258,
      "atur": 4259,
      "ĠRep": 4260,
      "Ġáĭ¨áĪĻ": 4261,
      "pi": 4262,
      "ĠMutane": 4263,
      "Ġ1995": 4264,
      "ĠáĭĵáĪĪáĪĿ": 4265,
      "áįĪáĪĪ": 4266,
      "met": 4267,
      "Ġaki": 4268,
      "Ġnon": 4269,
      "ĠOrodha": 4270,
      "Ġkaratu": 4271,
      "ĠáįĵáĪŃáī²": 4272,
      "áĪ»áĭİáī½": 4273,
      "Ġkik": 4274,
      "Ġpelu": 4275,
      "ĠyÃ³Ã²": 4276,
      "áĭ®áĪµ": 4277,
      "asiasa": 4278,
      "áī³áī¸áĭįáĬķ": 4279,
      "ĠáĬłáĬķáĭ³": 4280,
      "áĮįáī£": 4281,
      "ings": 4282,
      "hidi": 4283,
      "áĪĽáĪŃ": 4284,
      "Ku": 4285,
      "ĠáīłáĬłáĬķáĭµ": 4286,
      "ĠEm": 4287,
      "ĠSaint": 4288,
      "Ġáīłáīµ": 4289,
      "ĠIle": 4290,
      "Ġáĭ¨áĬ¥áĪµ": 4291,
      "Ġwilaya": 4292,
      "ĠEx": 4293,
      "ĠKemia": 4294,
      "ĠHaifaffun": 4295,
      "áįĦ": 4296,
      "áĪĵ": 4297,
      "ĠsÃŃláº¹": 4298,
      "imu": 4299,
      "Ġ186": 4300,
      "ĠáĬłáĬ«áĪį": 4301,
      "áī¥áĭĻ": 4302,
      "ĠáĪĺáĬķáĮįáĪµáīµ": 4303,
      "Ġyara": 4304,
      "vers": 4305,
      "Ġed": 4306,
      "Ġá¹£iá¹£áº¹": 4307,
      "ĠÃ²á¹£": 4308,
      "ĠAsia": 4309,
      "Ġpekee": 4310,
      "ĠEthiop": 4311,
      "áĭĭáīµ": 4312,
      "ours": 4313,
      "por": 4314,
      "Ä«": 4315,
      "alia": 4316,
      "Ġother": 4317,
      "arautar": 4318,
      "Ġrais": 4319,
      "Ġilimin": 4320,
      "ĠAbdul": 4321,
      "Ġshirya": 4322,
      "ĠwaÉĹanda": 4323,
      "áīº": 4324,
      "Ġlui": 4325,
      "amad": 4326,
      "raz": 4327,
      "Ġáĭ°áī¡áī¥": 4328,
      "ient": 4329,
      "ĠáĭŃáĪĺáĪµáĪĭáĪį": 4330,
      "ĠÎ": 4331,
      "omon": 4332,
      "cher": 4333,
      "áĮłáīĢáĪĿ": 4334,
      "ĠáĬŃáĪįáĪį": 4335,
      "Ġmasa": 4336,
      "Ã¹gbá»į": 4337,
      "ilia": 4338,
      "jeo": 4339,
      "Ġrasmi": 4340,
      "anada": 4341,
      "Ġ1997": 4342,
      "áī»áĭŃáĬĵ": 4343,
      "ateur": 4344,
      "ince": 4345,
      "Ġtena": 4346,
      "áĬĵáĪįáī£áīµ": 4347,
      "Ġrubuta": 4348,
      "Ġwote": 4349,
      "Ġáĭ¨áĬĲáīłáĪ¨áĭį": 4350,
      "ĠSte": 4351,
      "áĭ¨áĪ±áĪµ": 4352,
      "yu": 4353,
      "Ã©tÃ©": 4354,
      "cal": 4355,
      "imÃ¡": 4356,
      "Ġáī¥áĪĪáĭį": 4357,
      "ĠáĭµáĪĿ": 4358,
      "ĠgÃ©nÃ©r": 4359,
      "35": 4360,
      "Ġada": 4361,
      "atan": 4362,
      "ĠÃłgbÃ©": 4363,
      "áĮįáĪµ": 4364,
      "juli": 4365,
      "ojoibi": 4366,
      "Ġ%": 4367,
      "Ġwho": 4368,
      "utt": 4369,
      "ĠÃªtre": 4370,
      "oph": 4371,
      "ĠáįĪáĪŃáĭĸ": 4372,
      "pas": 4373,
      "áĪĮáĬŃáīµ": 4374,
      "finai": 4375,
      "ĠÃ©t": 4376,
      "áĪıáĪį": 4377,
      "ĠrÃ¨": 4378,
      "Ġasa": 4379,
      "asan": 4380,
      "áĪĺáĪ«": 4381,
      "ĠDem": 4382,
      "ments": 4383,
      "Ki": 4384,
      "áī¼": 4385,
      "lor": 4386,
      "my": 4387,
      "Ġprof": 4388,
      "Ġhaifi": 4389,
      "kunan": 4390,
      "áĬĲáīłáĪŃ": 4391,
      "Ġmagana": 4392,
      "Ġfit": 4393,
      "áĪĪáī¥": 4394,
      "Ġáĭ¨áĪļáĪį": 4395,
      "bert": 4396,
      "Ġáĭ¨áĪĿáīµ": 4397,
      "ubli": 4398,
      "Ġfarkon": 4399,
      "ĠáĪĨáĬĲáĭį": 4400,
      "áĮłáīĥáĪĭáĭŃ": 4401,
      "ĠRayayyun": 4402,
      "dom": 4403,
      "ely": 4404,
      "ĠHukum": 4405,
      "aria": 4406,
      "áĪįáĭ°": 4407,
      "Ġ1976": 4408,
      "ĠáĬķáĮīáĪµ": 4409,
      "Ġasili": 4410,
      "lob": 4411,
      "Har": 4412,
      "Ġhalarci": 4413,
      "Pa": 4414,
      "ĠØ§": 4415,
      "Ġpartie": 4416,
      "ĠgÃŃ": 4417,
      "ĠáĪ³áĭŃáĪĨáĬķ": 4418,
      "ĠDav": 4419,
      "áī³áĭ°": 4420,
      "ĠAgba": 4421,
      "áĬ©áĪį": 4422,
      "Ġ1992": 4423,
      "ĠnÃŃnu": 4424,
      "dini": 4425,
      "sÃ¬n": 4426,
      "Ġduni": 4427,
      "áĪįáīµ": 4428,
      "fauti": 4429,
      "ĠSun": 4430,
      "Ùı": 4431,
      "Ġvari": 4432,
      "áĭ«áĭį": 4433,
      "ÆĻa": 4434,
      "usta": 4435,
      "ado": 4436,
      "ĠNorth": 4437,
      "ĠáĬłáī£áĪį": 4438,
      "ĠáĪĺáĮ»": 4439,
      "ĠSeptember": 4440,
      "áī²áĬķ": 4441,
      "AS": 4442,
      "Ġpres": 4443,
      "ĠMor": 4444,
      "ĠáĪĪáĭį": 4445,
      "ĠÃ²un": 4446,
      "Ġharshen": 4447,
      "ĠÃ©galement": 4448,
      "ĠáĬ¥áĬķáĪµ": 4449,
      "ĠáĬĳ": 4450,
      "lla": 4451,
      "Ġogun": 4452,
      "Tare": 4453,
      "ĠDel": 4454,
      "áĮłáįĭ": 4455,
      "Ġgwamnatin": 4456,
      "ando": 4457,
      "wezi": 4458,
      "75": 4459,
      "ĠÃłkÃ³": 4460,
      "ĠáĪĽáĪħ": 4461,
      "amuziki": 4462,
      "Ġmkubwa": 4463,
      "Sh": 4464,
      "Ha": 4465,
      "ĠDecember": 4466,
      "dÃ¹": 4467,
      "Ġáīłáīħ": 4468,
      "ĠKik": 4469,
      "áĪ«áĪµ": 4470,
      "Ġvile": 4471,
      "âĢ¦": 4472,
      "run": 4473,
      "Ġmay": 4474,
      "Ġáī°áĬĲ": 4475,
      "adem": 4476,
      "ĠáīłáĬ¥áĬķáĮįáĪĬáĭĿáĬĽ": 4477,
      "ide": 4478,
      "Ġcutar": 4479,
      "Ġtarihi": 4480,
      "Ġáī³áĪĭáīħ": 4481,
      "ĠáĭĲ": 4482,
      "angi": 4483,
      "taniya": 4484,
      "wiki": 4485,
      "anti": 4486,
      "ĠIbadan": 4487,
      "gbon": 4488,
      "shir": 4489,
      "let": 4490,
      "Ġzaben": 4491,
      "áĪĥáĬķ": 4492,
      "Ġdari": 4493,
      "áĪĦáĭµ": 4494,
      "ĠáĪĽáĪµáī³áĭĪ": 4495,
      "akin": 4496,
      "áī¬": 4497,
      "Ġsosai": 4498,
      "Ġáĭ¨áī°áĪĪáĭ«áĭ©": 4499,
      "vir": 4500,
      "Ġáĭ¨áĭ°": 4501,
      "áĪİáĬķ": 4502,
      "gbÃ³": 4503,
      "ĠTazama": 4504,
      "zu": 4505,
      "Ġáĭ¨áĮĪ": 4506,
      "ĠSud": 4507,
      "Ġjim": 4508,
      "Tana": 4509,
      "Ġinayo": 4510,
      "ĠáĬłáĭµ": 4511,
      "áĮ³": 4512,
      "Ġbinc": 4513,
      "Ġpri": 4514,
      "á¹£u": 4515,
      "lack": 4516,
      "Ġfilm": 4517,
      "ĠdÃ©partement": 4518,
      "ĠBenin": 4519,
      "Ġkuli": 4520,
      "áĮ¥áĬķáī³áĭĬ": 4521,
      "áīµáĪĿ": 4522,
      "hal": 4523,
      "Ġkasuwanci": 4524,
      "Ġalors": 4525,
      "Ġitace": 4526,
      "ner": 4527,
      "Ġeff": 4528,
      "CO": 4529,
      "Ġáīłáĭļáĭ«": 4530,
      "ĠáĪĢáĮĪáĪŃ": 4531,
      "Ġ50": 4532,
      "kÃ¹nrin": 4533,
      "Ġáĭ¨áĪĺáĬķ": 4534,
      "ÆĻin": 4535,
      "ĠáĪ©": 4536,
      "ishin": 4537,
      "ctober": 4538,
      "rent": 4539,
      "wararr": 4540,
      "Ġrap": 4541,
      "áĮłáĪį": 4542,
      "Ġlafiya": 4543,
      "Ġigba": 4544,
      "ukuu": 4545,
      "ĠQu": 4546,
      "ĠgbajÃºmá»į": 4547,
      "µáį": 4548,
      "Ġnu": 4549,
      "Ġtout": 4550,
      "Ġprog": 4551,
      "Ġhudu": 4552,
      "Ġáĭ¨áī°áī£áĪĪáĭį": 4553,
      "haa": 4554,
      "Ġlim": 4555,
      "ĠAlex": 4556,
      "ĠIII": 4557,
      "ĠBahari": 4558,
      "Ġhab": 4559,
      "Ġjus": 4560,
      "áĬ¨áĪ«": 4561,
      "áĪ²áĬķ": 4562,
      "Ġbara": 4563,
      "hem": 4564,
      "ital": 4565,
      "Ġindi": 4566,
      "áī¶áī¹": 4567,
      "bÃº": 4568,
      "gozi": 4569,
      "ĠsinimÃ¡": 4570,
      "áī¨áĪŃ": 4571,
      "dinin": 4572,
      "áĭŃáĬĲáīµ": 4573,
      "bakar": 4574,
      "áĮįáĪ¥áīµ": 4575,
      "Ġá¹£áº¹": 4576,
      "ĠáĭĻáĪªáĭ«": 4577,
      "koso": 4578,
      "áįįáĬĵ": 4579,
      "áīłáĪĮ": 4580,
      "Ġshida": 4581,
      "Ġwe": 4582,
      "issa": 4583,
      "ĠHer": 4584,
      "Ġpáº¹lu": 4585,
      "Ð°": 4586,
      "áīłáĭį": 4587,
      "rahim": 4588,
      "Ġinc": 4589,
      "ollywood": 4590,
      "Ġkila": 4591,
      "Ġneman": 4592,
      "amawa": 4593,
      "ĠKwalejin": 4594,
      "áĪŃáĪĭáĬķáĭµ": 4595,
      "ĠáĮĨ": 4596,
      "ĠYan": 4597,
      "ĠfÃŃÃ¬mÃ¹": 4598,
      "ĠpadÃł": 4599,
      "31": 4600,
      "áĪªáī³": 4601,
      "Ġáĭ¨áĪĮ": 4602,
      "ĠáĭŃáĭĪ": 4603,
      "ĠAir": 4604,
      "áĪ±áĬķ": 4605,
      "phy": 4606,
      "ĠojÃº": 4607,
      "ĠSin": 4608,
      "ĠMakar": 4609,
      "ford": 4610,
      "áĪŃáĮį": 4611,
      "áĭĺáī¥": 4612,
      "áĬĲáīµáĬķ": 4613,
      "Ġbila": 4614,
      "oselu": 4615,
      "áĭ¨áĭį": 4616,
      "ĠáĬ¥áĮħáĮį": 4617,
      "áĬ¨áĪŃ": 4618,
      "ĠNijar": 4619,
      "Ġkwam": 4620,
      "ĠáĬ«áĪį": 4621,
      "Ġtit": 4622,
      "ĠMto": 4623,
      "áĬŃáĪĪ": 4624,
      "wÃ¡jÃº": 4625,
      "áĬĲáīłáĪ¨": 4626,
      "ĠáĪĺáĪ¨áĮĥ": 4627,
      "áĪ©áĬķ": 4628,
      "ĠáįĢ": 4629,
      "Ġutawala": 4630,
      "Ġgo": 4631,
      "ras": 4632,
      "ĠGir": 4633,
      "áĬ«áī£áī¢": 4634,
      "Ġijoba": 4635,
      "ĠáĪĽáĮ£": 4636,
      "2005": 4637,
      "ÃłÃł": 4638,
      "ches": 4639,
      "áĮĪáĬĽ": 4640,
      "Ġ1989": 4641,
      "Ġidadi": 4642,
      "ĠÃ¬tÃłn": 4643,
      "ĠlÃ¡Ãł": 4644,
      "Ch": 4645,
      "Ġrashin": 4646,
      "ĠÆĻungiyar": 4647,
      "Ġ|-": 4648,
      "áī²áĬŃ": 4649,
      "Ġduniani": 4650,
      "Ġkun": 4651,
      "burg": 4652,
      "ĠAnnabi": 4653,
      "eli": 4654,
      "ĠwÃ³n": 4655,
      "ĠKiingereza": 4656,
      "ĠáĪĺáĪĪ": 4657,
      "rew": 4658,
      "idi": 4659,
      "Ġdep": 4660,
      "ĠGwamn": 4661,
      "rÃ²yÃ¬n": 4662,
      "ole": 4663,
      "áĬŃáĪŃáĪµáī²áĭ«áĬķ": 4664,
      "ĠáĭŃáī»": 4665,
      "Ġdunia": 4666,
      "Ġpat": 4667,
      "ĠáĬ¥áĭµ": 4668,
      "áĪ³áī°": 4669,
      "Ġbeen": 4670,
      "áĪĪáī°áĬĽáĭį": 4671,
      "ĠAsi": 4672,
      "Ġáĭ©áĬĴ": 4673,
      "ky": 4674,
      "ĠÃłÃ¬": 4675,
      "Ġáĭ«áĪī": 4676,
      "julikana": 4677,
      "34": 4678,
      "Ġmet": 4679,
      "Ġvol": 4680,
      "Ġ1967": 4681,
      "ĠáīłáĬ©áĪį": 4682,
      "El": 4683,
      "áĭ«áĪµ": 4684,
      "ĠHan": 4685,
      "Ġkazi": 4686,
      "ĠÃ©c": 4687,
      "atikana": 4688,
      "keo": 4689,
      "tics": 4690,
      "mani": 4691,
      "Ġsci": 4692,
      "ĠKati": 4693,
      "ĠOlÃ³": 4694,
      "Ġ1987": 4695,
      "76": 4696,
      "Ġáĭ¨áĪĨáĬĳ": 4697,
      "olution": 4698,
      "ĠoÃ¹": 4699,
      "Wannan": 4700,
      "ĠáĬłáĬĲ": 4701,
      "Ġbayar": 4702,
      "amment": 4703,
      "Ġinf": 4704,
      "eld": 4705,
      "ĠáīłáĪį": 4706,
      "áĬĭáĪĭ": 4707,
      "áī¸áĭĭáĪį": 4708,
      "Ġere": 4709,
      "áĬ½": 4710,
      "áīłáĬĽ": 4711,
      "ode": 4712,
      "Ġgen": 4713,
      "áĭ¨áĪĺ": 4714,
      "ĠáĬ¥áĬķáĭ°áĪĨáĬĲ": 4715,
      "eries": 4716,
      "fen": 4717,
      "ption": 4718,
      "áĬ¾": 4719,
      "Ġáĭ¨áĪĭ": 4720,
      "áī¥áĪĬáĬŃ": 4721,
      "áĭĺáĬķ": 4722,
      "endo": 4723,
      "but": 4724,
      "Ġleo": 4725,
      "áįĵáĬķáĭ«": 4726,
      "áĭ«áĭ«": 4727,
      "Ġkifo": 4728,
      "Ġ1975": 4729,
      "ĠMed": 4730,
      "ieurs": 4731,
      "bÃŃláº¹": 4732,
      "ĠAll": 4733,
      "ĠáĬ«áĪĮ": 4734,
      "áĬ¡": 4735,
      "Ġagba": 4736,
      "Ġáī°áīĭ": 4737,
      "Ġkawa": 4738,
      "36": 4739,
      "áīģáĪŃ": 4740,
      "ĠFasihi": 4741,
      "aman": 4742,
      "áĬķáĮ«": 4743,
      "Ġiye": 4744,
      "ĠFI": 4745,
      "áįĪáĬķ": 4746,
      "Ġing": 4747,
      "Ġáīłáĭ°áī¡áī¥": 4748,
      "Láº¹": 4749,
      "isme": 4750,
      "ĠáĪĺáĭĭ": 4751,
      "cid": 4752,
      "áĭĽáĪ¬": 4753,
      "áĪ«áĪĿ": 4754,
      "áĮ¥áĪĿ": 4755,
      "Ġ31": 4756,
      "áĭ°áĪ¨áĮī": 4757,
      "ĠÆ´": 4758,
      "ĠáīłáĬ¨": 4759,
      "áĬĲáī¶áī½": 4760,
      "adhi": 4761,
      "Ġmn": 4762,
      "ĠMusa": 4763,
      "Ġbaba": 4764,
      "Ad": 4765,
      "ret": 4766,
      "áĮ¼": 4767,
      "Ġáĭ¨áįĸ": 4768,
      "áĪĪáĭ°": 4769,
      "abo": 4770,
      "ĠáĪĺáī¶": 4771,
      "áī¢áīµ": 4772,
      "Ġ185": 4773,
      "Ġáĭ¨áĬ¥áĬķ": 4774,
      "ikukuu": 4775,
      "ĠBib": 4776,
      "áīĢáĪį": 4777,
      "cia": 4778,
      "gen": 4779,
      "iran": 4780,
      "ĠdÃ©velop": 4781,
      "Ġkn": 4782,
      "Ġces": 4783,
      "Ġáĭ¨áī°áĬŃáĪī": 4784,
      "Ġsaur": 4785,
      "lÃ¬": 4786,
      "onge": 4787,
      "ĠNuwa": 4788,
      "ĠEs": 4789,
      "Ġlitta": 4790,
      "Ġtarihin": 4791,
      "ĠáĭŃáĮłáīĢ": 4792,
      "á¹£i": 4793,
      "á¹£Ã²": 4794,
      "Ġnyingine": 4795,
      "Ġmur": 4796,
      "unga": 4797,
      "tive": 4798,
      "Ġáĭ¨áĪ°áĭį": 4799,
      "Ġang": 4800,
      "ĠMart": 4801,
      "Ġrik": 4802,
      "Ġtakar": 4803,
      "Ġtsawon": 4804,
      "Ġdubu": 4805,
      "ambu": 4806,
      "Ġhim": 4807,
      "áī³áī½áĬķ": 4808,
      "áĬłáĭŃ": 4809,
      "áĪĬáĭ®áĬķ": 4810,
      "áĮłáĪĭ": 4811,
      "Manazarta": 4812,
      "Or": 4813,
      "Ġtattalin": 4814,
      "áĪĪáĭĭáĪį": 4815,
      "Ġgoma": 4816,
      "bai": 4817,
      "ÙĴ": 4818,
      "áĭ£": 4819,
      "Ã¡Ã¬": 4820,
      "ayansi": 4821,
      "Ġhuo": 4822,
      "Ġambao": 4823,
      "gal": 4824,
      "áĬĳáĪµ": 4825,
      "mai": 4826,
      "Ġ1983": 4827,
      "48": 4828,
      "sance": 4829,
      "inst": 4830,
      "áīħáĪµ": 4831,
      "ĠáĭĵáĪĺáī±": 4832,
      "arab": 4833,
      "Ġwurin": 4834,
      "ĠBBC": 4835,
      "Ġbiashara": 4836,
      "Ġlabarai": 4837,
      "ĠIl": 4838,
      "ĠDola": 4839,
      "ĠJana": 4840,
      "ĠáĮĪáī¥": 4841,
      "It": 4842,
      "pÃ¨": 4843,
      "Ġten": 4844,
      "áĪªáīµ": 4845,
      "ĠáĬłáĪ°": 4846,
      "Ġáĭ±": 4847,
      "ĠáīłáĪ¨": 4848,
      "áįįáĪªáĬ«": 4849,
      "chumi": 4850,
      "áĬłáĬķ": 4851,
      "Ġpartic": 4852,
      "Ġshirye": 4853,
      "Ġbakwai": 4854,
      "ĠØ§ÙĦ": 4855,
      "anisha": 4856,
      "áĭµáĪµáīµ": 4857,
      "ĠOrÃŃ": 4858,
      "áĭ¨áĬłáĪ": 4859,
      "huo": 4860,
      "Ġused": 4861,
      "áĮ¾": 4862,
      "Ġnjia": 4863,
      "Ġkuhusu": 4864,
      "Ġolu": 4865,
      "Ġoloselu": 4866,
      "mon": 4867,
      "áĪ©áĪĿ": 4868,
      "Ġ1988": 4869,
      "Ġbabbar": 4870,
      "ĠinÃº": 4871,
      "Ġinto": 4872,
      "De": 4873,
      "ĠsÃ¡": 4874,
      "ĠáįķáĪ¬áĭļ": 4875,
      "Ġrub": 4876,
      "Ġpremier": 4877,
      "dÃ²": 4878,
      "fika": 4879,
      "DP": 4880,
      "ĠáĪĺáĮłáĬķ": 4881,
      "bÃ¬nrin": 4882,
      "the": 4883,
      "Ġyote": 4884,
      "ĠPress": 4885,
      "Ġjo": 4886,
      "Ġ1982": 4887,
      "ĠáĪķáĭĿ": 4888,
      "ĠáĭįáĮ¤": 4889,
      "ĠáīµáĪįáīħ": 4890,
      "ĠKanisa": 4891,
      "ĠSat": 4892,
      "Ġáĭŀ": 4893,
      "áĬ¥áĮįáĭļáĬłáī¥áĪĶáĪŃ": 4894,
      "áĪŀáīµ": 4895,
      "ĠannÃ©es": 4896,
      "ĠFebruary": 4897,
      "himu": 4898,
      "gá»į": 4899,
      "gent": 4900,
      "Ġ40": 4901,
      "áĬķáĭ³áĪŃ": 4902,
      "ĠáĪľáīµáĪŃ": 4903,
      "Ã¼": 4904,
      "ĠRic": 4905,
      "ĠNovember": 4906,
      "ites": 4907,
      "áĮĪáĬĲ": 4908,
      "ĠáĭŃáī»áĪĭáĪį": 4909,
      "Ġmap": 4910,
      "uke": 4911,
      "ĠAdam": 4912,
      "ĠKiswahili": 4913,
      "ĠUganda": 4914,
      "Ġgaban": 4915,
      "Ġtayi": 4916,
      "ĠBorn": 4917,
      "ĠáĬ¨áĪĽ": 4918,
      "ĠáĪ¥áĪĭáĪ´": 4919,
      "Ġhankali": 4920,
      "ĠGeorge": 4921,
      "ĠtrÃ¨s": 4922,
      "áĬ¨áī°áĪĪáĭį": 4923,
      "mÃ¬nÃł": 4924,
      "ĠnÃ©": 4925,
      "Ġhata": 4926,
      "ĠSara": 4927,
      "ĠáĭµáĬķ": 4928,
      "gy": 4929,
      "Ġáį«": 4930,
      "ĠáĮįáī¥áĮ½": 4931,
      "ĠÃĢÃłráº¹": 4932,
      "Ġ1984": 4933,
      "Ġ1979": 4934,
      "áī£áĪī": 4935,
      "áĮİáĪŃáĮİáĪŃ": 4936,
      "ĠOba": 4937,
      "ĠPi": 4938,
      "Ġvisiwa": 4939,
      "Ġkasashen": 4940,
      "Ġayyukan": 4941,
      "ĠáĪĪáī°": 4942,
      "eph": 4943,
      "tokea": 4944,
      "ĠáīłáĪĺáĪĨáĬĳ": 4945,
      "iew": 4946,
      "ĠáĮ½áĪĳáįį": 4947,
      "ĠzaÉĵ": 4948,
      "Ġkung": 4949,
      "áĭ³áĮħ": 4950,
      "ĠáĬ¥áĬķáĭ°áī°": 4951,
      "Ġeniyan": 4952,
      "sÃŃláº¹": 4953,
      "ush": 4954,
      "hindi": 4955,
      "Ġatt": 4956,
      "ĠJames": 4957,
      "ĠAhma": 4958,
      "ĠHistoria": 4959,
      "Ġá¹£ÃŃ": 4960,
      "áĭķáĭĿ": 4961,
      "37": 4962,
      "ĠISBN": 4963,
      "ĠAbubakar": 4964,
      "ĠEbun": 4965,
      "áĬłáĪį": 4966,
      "Ġgwamnati": 4967,
      "ĠMayu": 4968,
      "rÃ¡n": 4969,
      "Ġelle": 4970,
      "ĠÃłgbÃł": 4971,
      "Ġnum": 4972,
      "2004": 4973,
      "Ġserv": 4974,
      "áĪĪáĪģ": 4975,
      "assi": 4976,
      "atique": 4977,
      "ente": 4978,
      "ĠáĪµáĪĪáĭļáĪħ": 4979,
      "áī§": 4980,
      "Ġdiv": 4981,
      "áĪįáĬķ": 4982,
      "Ġcika": 4983,
      "Ġpwani": 4984,
      "ĠShi": 4985,
      "Ġkimanin": 4986,
      "torÃŃ": 4987,
      "áĭ³áĬķáīµ": 4988,
      "ington": 4989,
      "Ġ1986": 4990,
      "Ġfus": 4991,
      "mÃ©": 4992,
      "dai": 4993,
      "Ġ1985": 4994,
      "áĭĽáĭĿ": 4995,
      "ĠáĪħáĭĿáī¥": 4996,
      "ĠáĪĿáĬķáĮŃ": 4997,
      "Ġáĭ¨áĪĺáĮĢáĪĺáĪªáĭ«áĭį": 4998,
      "overnment": 4999,
      "yal": 5000,
      "ĠáĬłáī£áīµ": 5001,
      "áĬ³áĬķ": 5002,
      "ĠMungu": 5003,
      "ĠáĭµáĪŃáĮħáīµ": 5004,
      "Ġnasara": 5005,
      "himman": 5006,
      "ĠÂ»,": 5007,
      "Ġemp": 5008,
      "áī£áī¥": 5009,
      "ĠáĪ«áĪµ": 5010,
      "ĠAcadem": 5011,
      "omas": 5012,
      "Ã³mÃ¬nÃł": 5013,
      "áĪµáī°áĬĽ": 5014,
      "ĠáīłáĪ«": 5015,
      "ĠáĬŃáĪŃáĪµáī¶áĪµ": 5016,
      "Ġise": 5017,
      "ĠáįĬáĭ°áĪį": 5018,
      "ĠTurai": 5019,
      "alu": 5020,
      "áĮ¡áīµ": 5021,
      "ĠáĬłáĪĿáĪĭáĬŃ": 5022,
      "Ġkirk": 5023,
      "cis": 5024,
      "Åĵ": 5025,
      "áĪĭáĬķ": 5026,
      "hard": 5027,
      "ĠáīģáĮ¥": 5028,
      "Ġimport": 5029,
      "ois": 5030,
      "ĠáĬłáĬķáĭ³áĬķáĭµ": 5031,
      "Ġkawaida": 5032,
      "daban": 5033,
      "ĠHen": 5034,
      "angue": 5035,
      "áĬ¨áī¥": 5036,
      "áĭĿáĪĽáī½": 5037,
      "ĠáĬłáĭ¨áĪŃ": 5038,
      "Ġáĭ¨áĬĸ": 5039,
      "ĠáĬłáĭŃáĭ°áĪĪáĪĿ": 5040,
      "dition": 5041,
      "Ġaji": 5042,
      "Ġint": 5043,
      "áĬĿáĬĲáīµ": 5044,
      "Ġdini": 5045,
      "ĠáīłáĪĨ": 5046,
      "2006": 5047,
      "ĠáĬ¨áī°áĪĽáĭį": 5048,
      "ilos": 5049,
      "ĠOctober": 5050,
      "ved": 5051,
      "áīłáī³áĪį": 5052,
      "ĠMarch": 5053,
      "Ġmbili": 5054,
      "lÃ©wÃ²": 5055,
      "ĠMaris": 5056,
      "áĪµáĪ«áīħ": 5057,
      "Ġprincip": 5058,
      "ĠáĬ¨áĪ°": 5059,
      "ĠáīłáĪĻáĪī": 5060,
      "áĪŃáĬķ": 5061,
      "Ġca": 5062,
      "áī½áĪį": 5063,
      "Ġ1966": 5064,
      "ĠÆ³": 5065,
      "ĠFM": 5066,
      "fara": 5067,
      "ĠáĪĺáĮ¥": 5068,
      "ĠáīłáĬ¢": 5069,
      "ago": 5070,
      "ĠáĬ«áĪĮáĬķáĭ³áĪŃ": 5071,
      "kÃ¹": 5072,
      "Ġsome": 5073,
      "ames": 5074,
      "Ġzote": 5075,
      "áĮİáĪŃáĮİáĪŃáĭ«áĬķ": 5076,
      "ĠSoci": 5077,
      "ĠáĪĽáĪŃáīĨáĪµ": 5078,
      "Ġshe": 5079,
      "áĪįáĮħ": 5080,
      "ID": 5081,
      "Wa": 5082,
      "áĪµáī¶": 5083,
      "Ġbahari": 5084,
      "ĠáĬ¥áĬķáĭ°áĮĪáĬĵ": 5085,
      "Ġsakand": 5086,
      "ria": 5087,
      "ĠMic": 5088,
      "áĬ«áī³": 5089,
      "ĠáĪĺáĪ³": 5090,
      "ĠKongo": 5091,
      "ĠáĪĽáĮ£áīĢ": 5092,
      "wala": 5093,
      "Ġanci": 5094,
      "áīĭáĬķáīĭ": 5095,
      "ĠBay": 5096,
      "Ġaj": 5097,
      "Ġdawo": 5098,
      "Ġ1974": 5099,
      "guzi": 5100,
      "áīłáĪ¬": 5101,
      "Ġkusa": 5102,
      "ĠáĪĺáĮ£": 5103,
      "áĪŀáĬŃ": 5104,
      "ĠáįĪáĪ¨áĬķ": 5105,
      "arÃŃ": 5106,
      "ĠIt": 5107,
      "ĠáīłáĪ½áī³": 5108,
      "if": 5109,
      "ĠJac": 5110,
      "Ġsune": 5111,
      "Ġmwanamuziki": 5112,
      "ĠgÃŃga": 5113,
      "áĭ«áĭĿ": 5114,
      "Ġfut": 5115,
      "ĠComp": 5116,
      "ĠEthiopia": 5117,
      "nÃ¹": 5118,
      "ĠáĬĹ": 5119,
      "ĠbÃł": 5120,
      "ĠÃ¬gb": 5121,
      "ÆĻi": 5122,
      "abijin": 5123,
      "Ġwadda": 5124,
      "áĮ£áĪįáĭ«áĬķ": 5125,
      "ĠkÃ¡": 5126,
      "ĠáĬłáĪĪáĪĿ": 5127,
      "áĬķáĭ³áĬķáĭµ": 5128,
      "aj": 5129,
      "Ġáī°áĬĵ": 5130,
      "áĭ´áīµ": 5131,
      "ĠáįķáĪ®": 5132,
      "Ġterrit": 5133,
      "mÃº": 5134,
      "Ġsay": 5135,
      "Ġidan": 5136,
      "Ġmagharibi": 5137,
      "pata": 5138,
      "hara": 5139,
      "ĠáĪİ": 5140,
      "ĠIndiya": 5141,
      "Ġamb": 5142,
      "ott": 5143,
      "áĪ«áĪ½": 5144,
      "gÃ¡": 5145,
      "Ġáīłáįį": 5146,
      "ather": 5147,
      "ĠEnglish": 5148,
      "bila": 5149,
      "Ġfon": 5150,
      "áĮİáĬķ": 5151,
      "uliwa": 5152,
      "ĠAbuja": 5153,
      "áĪįáįį": 5154,
      "rig": 5155,
      "Ġafter": 5156,
      "ĠCal": 5157,
      "áĭ³áĬķáĭ±": 5158,
      "Ġáĭ¨áīĢáĬķ": 5159,
      "clud": 5160,
      "yama": 5161,
      "áī°áĬĽáĭį": 5162,
      "ĠPaul": 5163,
      "áī½áĪģ": 5164,
      "Ġoffici": 5165,
      "Ġmost": 5166,
      "Ġlanguage": 5167,
      "Ne": 5168,
      "ĠáĪĿáĬĵáĪįáī£áīµ": 5169,
      "Ġinst": 5170,
      "áĪµáīµáĬĵ": 5171,
      "ĠSer": 5172,
      "áĬłáĪĿ": 5173,
      "áĭ®áĪŃáĮĬ": 5174,
      "Ġjin": 5175,
      "Ġrayuwar": 5176,
      "Ġmahaifin": 5177,
      "Ġtwo": 5178,
      "ĠTan": 5179,
      "hamp": 5180,
      "dÃłn": 5181,
      "ĠMaka": 5182,
      "ĠmÃ¬ÃŃ": 5183,
      "¹áį": 5184,
      "ĠWaz": 5185,
      "áĪįáīģ": 5186,
      "Ġmiliyan": 5187,
      "ĠTarayyar": 5188,
      "Ġsupp": 5189,
      "2003": 5190,
      "ĠáīłáĪķ": 5191,
      "ĠolÃ³rin": 5192,
      "ĠKib": 5193,
      "gawa": 5194,
      "áĪ¥áĪ«áīħ": 5195,
      "áĮĪáīµ": 5196,
      "Ġáī°áĭĭ": 5197,
      "Ġconf": 5198,
      "Ġ||": 5199,
      "Ġgarga": 5200,
      "ĠáīłáĮİáĪŃáĮİáĪŃáĭ«áĬķ": 5201,
      "ĠKil": 5202,
      "ĠCap": 5203,
      "áīłáĪī": 5204,
      "Ġren": 5205,
      "áĬªáĭ«": 5206,
      "áīłáĪ°": 5207,
      "ĠAcademy": 5208,
      "endant": 5209,
      "ĠáĪįáī¥": 5210,
      "elon": 5211,
      "Ġáīµáĭį": 5212,
      "Ġáīłáī¥áĭĽáīµ": 5213,
      "Ġmilli": 5214,
      "ils": 5215,
      "ĠáĪįáĭ°áīµ": 5216,
      "Ġop": 5217,
      "over": 5218,
      "uniyar": 5219,
      "áĪµáĪĿ": 5220,
      "Ġmarubu": 5221,
      "Ø¨": 5222,
      "Ġorig": 5223,
      "ºáį": 5224,
      "ĠáĪ¹": 5225,
      "ĠKaskazini": 5226,
      "Ġtalla": 5227,
      "Ġsans": 5228,
      "asashen": 5229,
      "ĠáĭµáĬķáĮĭ": 5230,
      "Ġáĭ¨áĭĵáĪĪáĪĿ": 5231,
      "ĠYe": 5232,
      "zung": 5233,
      "Ġáĭ¨áĬ®": 5234,
      "Ġmwenye": 5235,
      "ĠmÃ¬ÃŃrÃłn": 5236,
      "áĭĪáĪ¨": 5237,
      "Ġ1978": 5238,
      "Ġáī¶": 5239,
      "áĪ³áĬķ": 5240,
      "áĭĺáĪĺ": 5241,
      "ubuwan": 5242,
      "cle": 5243,
      "dáº¹": 5244,
      "Ġ()": 5245,
      "áĬĲáī±áĬķ": 5246,
      "ĠVer": 5247,
      "ĠdiffÃ©r": 5248,
      "sha": 5249,
      "ĠPeople": 5250,
      "ren": 5251,
      "Ġlors": 5252,
      "inea": 5253,
      "ĠVol": 5254,
      "ĠáĪĽáĪµáī³áĭĪáĪ»áĭİáī½": 5255,
      "umwa": 5256,
      "Ġkofin": 5257,
      "idayar": 5258,
      "Ġáĭ¨áī¥": 5259,
      "ĠSw": 5260,
      "ĠáĬłáĮĪáĪ«áīµ": 5261,
      "Ġâ": 5262,
      "Ġvit": 5263,
      "ĠCharles": 5264,
      "ĠáĮ«": 5265,
      "Ġáĭ¨áĪŀ": 5266,
      "istr": 5267,
      "ĠobÃ¬nrin": 5268,
      "ĠJapan": 5269,
      "Ġyo": 5270,
      "teur": 5271,
      "Ġ~": 5272,
      "Ġ1965": 5273,
      "ĠáĬłáĮĪáĪįáĮįáĪİ": 5274,
      "Ġ1981": 5275,
      "ĠáĬŃáįįáĪİáī½": 5276,
      "Se": 5277,
      "ĠSc": 5278,
      "áĭ«áĬķáĭ³áĬķáĭ±": 5279,
      "app": 5280,
      "Ġáĭ³áĪŃ": 5281,
      "Ġáī¡áĭµáĬķ": 5282,
      "áĭĵáĬķ": 5283,
      "Ã¤": 5284,
      "Åį": 5285,
      "hes": 5286,
      "illes": 5287,
      "ĠNchi": 5288,
      "olojia": 5289,
      "arly": 5290,
      "ĠMov": 5291,
      "cen": 5292,
      "diyya": 5293,
      "áī¦áīµ": 5294,
      "ĠJi": 5295,
      "Ġconsi": 5296,
      "peci": 5297,
      "hÃ¹n": 5298,
      "rÃºn": 5299,
      "áī¾": 5300,
      "ĠáĮ³": 5301,
      "ĠIbrahim": 5302,
      "abin": 5303,
      "ĠáĪĽáĪŃáĭ«áĪĿ": 5304,
      "Ana": 5305,
      "71": 5306,
      "Ġmore": 5307,
      "aso": 5308,
      "Ġáĭ¨áĪļáĭ«áĪµ": 5309,
      "Ġ2091": 5310,
      "Ġáī¥áĭĽáīµ": 5311,
      "ĠáĬ¢áĬķ": 5312,
      "ĠMkoa": 5313,
      "ĠFir": 5314,
      "Ġá¹£Ãł": 5315,
      "ĠKiarabu": 5316,
      "dÃºgbÃ²": 5317,
      "ĠÆ³an": 5318,
      "ĠáĬ¨áĪģ": 5319,
      "uman": 5320,
      "ãĥ": 5321,
      "Ġkis": 5322,
      "assa": 5323,
      "nia": 5324,
      "ĠáĪĪáĪĿáĪ³áĪĮ": 5325,
      "kÃŃ": 5326,
      "Ġkisiwa": 5327,
      "ĠÃ¬á¹£áº¹": 5328,
      "Ġ1950": 5329,
      "39": 5330,
      "ĠáĬ¥áĬķáĭ²áĭ«": 5331,
      "ennes": 5332,
      "ĠhaÉĹa": 5333,
      "ĠáĬłáī¶": 5334,
      "ĠHispania": 5335,
      "áĮĪáĪªáī±": 5336,
      "Ã¶": 5337,
      "áĪ³áĪ³áĭŃ": 5338,
      "ĠipÃ²": 5339,
      "ĠFab": 5340,
      "Ġáĭ¨áĮ¥": 5341,
      "Ġáĭ¨áĪĪáĭį": 5342,
      "ĠCoun": 5343,
      "ĠÃ©tait": 5344,
      "¸áį": 5345,
      "ataifa": 5346,
      "Ġomi": 5347,
      "ĠAlakoso": 5348,
      "áĬłáīµ": 5349,
      "ĠEle": 5350,
      "tim": 5351,
      "ĠáĭĿáĪŃáĭ«": 5352,
      "Ġhakan": 5353,
      "Ġtabb": 5354,
      "Ġagbegbe": 5355,
      "Ġaga": 5356,
      "ĠÂ».": 5357,
      "Ġáĭ¨áĭ«": 5358,
      "itÃ©s": 5359,
      "áĬķáĪ³áĭĬ": 5360,
      "ĠEk": 5361,
      "ĠBritish": 5362,
      "uve": 5363,
      "ĠáĭĪáĪįáĭ°": 5364,
      "ware": 5365,
      "Ġ(Â«": 5366,
      "Ġpili": 5367,
      "ĠLib": 5368,
      "áĪŃáĪ±áĪĿ": 5369,
      "Ġáī¢áĪĨáĬķáĪĿ": 5370,
      "ĠMarejeo": 5371,
      "---": 5372,
      "sÃ¬kÃ²": 5373,
      "ĠáĮłáīħ": 5374,
      "ĠHukumar": 5375,
      "Ġpre": 5376,
      "ĠKasa": 5377,
      "Ġ180": 5378,
      "Ġáĭ¨áĭįáĮŃ": 5379,
      "sÃ¨": 5380,
      "eria": 5381,
      "alth": 5382,
      "ĠWe": 5383,
      "oup": 5384,
      "Ġáī°áīĥ": 5385,
      "Ġáĭ¨áĬ¦": 5386,
      "Ġ1971": 5387,
      "ĠStates": 5388,
      "ĠPrin": 5389,
      "log": 5390,
      "Ġgre": 5391,
      "Ġáĭĺáĭ´": 5392,
      "77": 5393,
      "Ġasali": 5394,
      "áĭµáĬĵ": 5395,
      "Ġmiji": 5396,
      "áī¥áĪ«áĭŃ": 5397,
      "sp": 5398,
      "Ġáĭ¨áĪĢ": 5399,
      "ĠFIFA": 5400,
      "Ġkare": 5401,
      "áĪŃáī±": 5402,
      "ĠIndia": 5403,
      "ĠShug": 5404,
      "Ġplusieurs": 5405,
      "ĠáĭľáĬĵ": 5406,
      "Ġgas": 5407,
      "ĠJuly": 5408,
      "áĪĮáĬŃáīµáĪªáĬŃ": 5409,
      "áĪµáĪĽ": 5410,
      "assan": 5411,
      "Tarehe": 5412,
      "Ġáĭ¨áīĨ": 5413,
      "unda": 5414,
      "áĪĪáĪĺ": 5415,
      "Ġkowa": 5416,
      "Ġwu": 5417,
      "ĠáĭŃáĪĦ": 5418,
      "Ġáĭ¨áĪļáī³áĭĪ": 5419,
      "stit": 5420,
      "\")": 5421,
      "ety": 5422,
      "Ġila": 5423,
      "Ġndi": 5424,
      "ĠáĬ¥áĬĶ": 5425,
      "ĠáĬ¨áĪĮ": 5426,
      "áĪĻáīµ": 5427,
      "veau": 5428,
      "Ġáīłáī°áĮ¨áĪĽáĪª": 5429,
      "ĠpremiÃ¨re": 5430,
      "ĠâĢĶ": 5431,
      "Ġhawa": 5432,
      "ĠáĮĪáĭ°": 5433,
      "46": 5434,
      "ĠApril": 5435,
      "Ġabinci": 5436,
      "Ġhannu": 5437,
      "bia": 5438,
      "berg": 5439,
      "dhi": 5440,
      "ĠáĪĺáĪ¬áīµ": 5441,
      "ĠáĮįáĭĽ": 5442,
      "ĠáĪĺáĮ»áĪķ": 5443,
      "ikan": 5444,
      "áĬ¨áĭļáĭ«": 5445,
      "ister": 5446,
      "áĪŃáī£": 5447,
      "ĠÆĻidayar": 5448,
      "wun": 5449,
      "Ġgwa": 5450,
      "riban": 5451,
      "ĠáĮĪáĬķ": 5452,
      "áĪĲáįĬ": 5453,
      "ĠáĬĥáĭŃáĪĪ": 5454,
      "ĠLou": 5455,
      "ĠáĬ¥áĬķáĮįáĪĬáĭĿáĬĽ": 5456,
      "áĬ«áĪĿ": 5457,
      "Ġreg": 5458,
      "Ġprop": 5459,
      "Ġatom": 5460,
      "ĠFa": 5461,
      "áĭĺáĭį": 5462,
      "85": 5463,
      "zing": 5464,
      "Ġbikin": 5465,
      "aient": 5466,
      "ĠCibiyar": 5467,
      "ĠLove": 5468,
      "ots": 5469,
      "Ġmashariki": 5470,
      "gra": 5471,
      "vision": 5472,
      "Ġlangue": 5473,
      "ĠáĬłáīħ": 5474,
      "anne": 5475,
      "nes": 5476,
      "Ð¸": 5477,
      "gon": 5478,
      "Ġáĭ¨áīł": 5479,
      "ĠSch": 5480,
      "áĭµáĪ¨áĪµ": 5481,
      "Ġ1977": 5482,
      "ject": 5483,
      "Ġdhidi": 5484,
      "islamu": 5485,
      "Ġbet": 5486,
      "Ġfond": 5487,
      "Ġover": 5488,
      "Ġthey": 5489,
      "antes": 5490,
      "ĠáĪµáĪĪáĪļ": 5491,
      "tÃłkÃ¬": 5492,
      "ĠÃģf": 5493,
      "32": 5494,
      "Ġáī£áĪį": 5495,
      "ĠHotuna": 5496,
      "ĠMakarantar": 5497,
      "ĠNuwamba": 5498,
      "ictor": 5499,
      "ĠáĪĻáĪī": 5500,
      "Ã©lÃ©": 5501,
      "Ġsud": 5502,
      "''": 5503,
      "Tangu": 5504,
      "áī°áīµ": 5505,
      "ĠNÃŃ": 5506,
      "tains": 5507,
      "=\"": 5508,
      "ĠáĬ¥áĮįáĭļáĬłáī¥áĪĶáĪŃ": 5509,
      "Dans": 5510,
      "Ø¯": 5511,
      "Ġpi": 5512,
      "áĬŃáĬķ": 5513,
      "ĠhaÉĹin": 5514,
      "Ġnord": 5515,
      "Ġwao": 5516,
      "áĬĵáĭŃáīµ": 5517,
      "ĠolÃº": 5518,
      "hoto": 5519,
      "Ġkadhaa": 5520,
      "amaduni": 5521,
      "At": 5522,
      "áīĢáĭµáĪŀ": 5523,
      "ĠUmar": 5524,
      "ĠGa": 5525,
      "áĭ¨áĪļ": 5526,
      "ĠAfril": 5527,
      "jÃ²": 5528,
      "Ġsasa": 5529,
      "Ġyaani": 5530,
      "Ġáĭ¨áī°áĪĺ": 5531,
      "áĭĽáĬĽáĭį": 5532,
      "iongozi": 5533,
      "irefu": 5534,
      "Ġáī¥áĪĶáĪ«áĭĬ": 5535,
      "ĠUk": 5536,
      "via": 5537,
      "ĠáĬłáĪħ": 5538,
      "ica": 5539,
      "Ġ1973": 5540,
      "sociation": 5541,
      "Ġá¹¢": 5542,
      "áīħáĬĵ": 5543,
      "Ġá¹£Ã¹gbá»į": 5544,
      "Ð¾": 5545,
      "Ã©rÃ©": 5546,
      "ĠGro": 5547,
      "áĭĿáĪĿ": 5548,
      "ĠáīĢáĭ³": 5549,
      "áįĭáĪį": 5550,
      "kuta": 5551,
      "Ġnotamment": 5552,
      "Ġsig": 5553,
      "Ġáĭ¨áĬŃ": 5554,
      "ribu": 5555,
      "ĠáĬĥáĭŃáĪį": 5556,
      "Na": 5557,
      "áĬ¨áī³": 5558,
      "ĠÃģfrÃŃkÃł": 5559,
      "ĠáĪĺáĪįáĬŃáĭĵ": 5560,
      "Â²": 5561,
      "Ġ<": 5562,
      "Ġáĭ¨áī°áįĪ": 5563,
      "áĭ°áĪ¨áĮĪáĭį": 5564,
      "ĠJapani": 5565,
      "ĠáĭĪáĭŃáĬķáĪĿ": 5566,
      "ography": 5567,
      "ĠJamhuri": 5568,
      "ĠKit": 5569,
      "áī¥áĬķ": 5570,
      "áĪ¸áĬĲ": 5571,
      "ĠáĪĪáĬ¥": 5572,
      "áīłáĪ³": 5573,
      "Par": 5574,
      "warar": 5575,
      "áĬĳáĬķ": 5576,
      "Ġaddinin": 5577,
      "ĠáĬłáĮĪáĪ®áī½": 5578,
      "ĠAtl": 5579,
      "ĠáīĢáĮ¥áĪİ": 5580,
      "áī³áĬķ": 5581,
      "ĠTV": 5582,
      "anzishwa": 5583,
      "emple": 5584,
      ");": 5585,
      "99": 5586,
      "Ġout": 5587,
      "Ġvers": 5588,
      "áĪĪáĪĿáĪ³áĪĮ": 5589,
      "áĮĪáī¡": 5590,
      "rise": 5591,
      "ĠáĪĽáĮ£áīĢáĪ»": 5592,
      "47": 5593,
      "Ġnor": 5594,
      "Ġosere": 5595,
      "sÃł": 5596,
      "ĠNo": 5597,
      "Ġsuch": 5598,
      "Ġáī£áĭŃ": 5599,
      "áĭįáĬķáīµ": 5600,
      "ait": 5601,
      "win": 5602,
      "Ġdro": 5603,
      "Ġsara": 5604,
      "áĮĪáĪ«áīµ": 5605,
      "áīłáĪµ": 5606,
      "Ġ1962": 5607,
      "ellement": 5608,
      "Ġcompos": 5609,
      "ĠVal": 5610,
      "Ġmjini": 5611,
      "Ġ1964": 5612,
      "ross": 5613,
      "abab": 5614,
      "Ġpublic": 5615,
      "anzibar": 5616,
      "adition": 5617,
      "bihi": 5618,
      "ĠÃ²á¹£erÃ©": 5619,
      "hiyar": 5620,
      "taire": 5621,
      "Ġkanta": 5622,
      "Ġáī£áĪħáĪŃ": 5623,
      "aimakin": 5624,
      "ella": 5625,
      "aract": 5626,
      "ĠBank": 5627,
      "agen": 5628,
      "zarin": 5629,
      "Ġagb": 5630,
      "ĠáĭŃáĭ©": 5631,
      "ĠdÃ¡ra": 5632,
      "Ġmpya": 5633,
      "ef": 5634,
      "Â°": 5635,
      "uses": 5636,
      "ĠDr": 5637,
      "Ġ1969": 5638,
      "áĬĺáīµ": 5639,
      "Ġabout": 5640,
      "ĠJean": 5641,
      "ĠBello": 5642,
      "Itokasi": 5643,
      "ĠPo": 5644,
      "ĠLugha": 5645,
      "bÃłdÃłn": 5646,
      "áĪµáī±": 5647,
      "alitÃ©": 5648,
      "áĬłáĬķáĭµ": 5649,
      "ĠáįĸáĪĪáī²áĬ«": 5650,
      "pÃ¹": 5651,
      "ĠnÃ¬": 5652,
      "entomon": 5653,
      "ÃŃnÃŃ": 5654,
      "ĠáīłáĪĽáĪĪáīµ": 5655,
      "emble": 5656,
      "ĠEnugu": 5657,
      "96": 5658,
      "pl": 5659,
      "ĠMari": 5660,
      "áĮįáī£áĪŃ": 5661,
      "2015": 5662,
      "Ġass": 5663,
      "ĠDemoc": 5664,
      "volution": 5665,
      "Ġáįİ": 5666,
      "ĠáĬ¥áĬķáĮį": 5667,
      "Ùĩ": 5668,
      "ĠKaramar": 5669,
      "Ġlik": 5670,
      "ĠAba": 5671,
      "ĠTun": 5672,
      "hairi": 5673,
      "áĪ°áĪŃ": 5674,
      "ĠDavid": 5675,
      "SA": 5676,
      "wari": 5677,
      "Ġkid": 5678,
      "Ġáĭ¨áįĪ": 5679,
      "Ġnaf": 5680,
      "ĠBraz": 5681,
      "áĪªáĪµ": 5682,
      "ĠMuhammadu": 5683,
      "ĠáĬłáįįáĪªáĬ«": 5684,
      "86": 5685,
      "ies": 5686,
      "sar": 5687,
      "Ġtar": 5688,
      "ĠMiji": 5689,
      "ÃºsÃ¹": 5690,
      "áīħáĭ«": 5691,
      "áĮ«áĭĪ": 5692,
      "Ġkáº¹ta": 5693,
      "ĠÃłgbÃ©lÃ©wÃ²": 5694,
      "TA": 5695,
      "ĠáĮ¥áĪ©": 5696,
      "ĠÉĹa": 5697,
      "ĠGuinea": 5698,
      "áĬĵáĮĪ": 5699,
      "ĠJune": 5700,
      "limu": 5701,
      "ĠáīłáĪħ": 5702,
      "ĠPat": 5703,
      "áĭ©áĪµ": 5704,
      "dili": 5705,
      "Kuna": 5706,
      "Ġkawo": 5707,
      "Ġrawar": 5708,
      "ĠáĬ¥áĬķáĭ³áĭŃ": 5709,
      "Ġkin": 5710,
      "Ġnou": 5711,
      "áĬ®áĬĸ": 5712,
      "Ġ1972": 5713,
      "sions": 5714,
      "Mar": 5715,
      "kta": 5716,
      "Ġred": 5717,
      "2007": 5718,
      "ieu": 5719,
      "ick": 5720,
      "áī¥áĪ«áĭŃáĪµáĮ¥": 5721,
      "Ġtime": 5722,
      "futa": 5723,
      "ĠáĬłáĭ³": 5724,
      "ĠEast": 5725,
      "ĠAlÃ¡": 5726,
      "Ġá»Įjá»į": 5727,
      "ĠIsland": 5728,
      "ĠSy": 5729,
      "áĪłáĪ¨áī°": 5730,
      "ĠáĪ³áĭŃáĬķáĪ³áĭĬ": 5731,
      "Ġnasar": 5732,
      "ĠnÃŃtorÃŃ": 5733,
      "ĠUmoja": 5734,
      "áĬ®áīµ": 5735,
      "ÃłÃłyÃ¨": 5736,
      "áĬķáī³": 5737,
      "áĬłáĪĪ": 5738,
      "Ġkusan": 5739,
      "ĠGar": 5740,
      "Ġforme": 5741,
      "nam": 5742,
      "Ġede": 5743,
      "ĠOpen": 5744,
      "ĠáĮīáĭ³áĭŃ": 5745,
      "Ġojo": 5746,
      "ĠÃ¬wá»į": 5747,
      "Ġtofauti": 5748,
      "ĠalÃłÃłyÃ¨": 5749,
      "gbÃ¡yÃ©": 5750,
      "Ġkumb": 5751,
      "istoire": 5752,
      "Ġkawai": 5753,
      "Ġ1963": 5754,
      "ĠIlimi": 5755,
      "Ġgargajiya": 5756,
      "33": 5757,
      "Ã©m": 5758,
      "ĠPak": 5759,
      "ĠGerman": 5760,
      "ĠBorno": 5761,
      "bit": 5762,
      "ench": 5763,
      "Ġkina": 5764,
      "Ġocc": 5765,
      "ayin": 5766,
      "ĠÃ¬bÃŃláº¹": 5767,
      "áĭĪáīħ": 5768,
      "áīĤáīµ": 5769,
      "Ġkabisa": 5770,
      "ĠpÃłtÃłkÃ¬": 5771,
      "Wakati": 5772,
      "ĠaprÃ¨s": 5773,
      "áĪŃáī¶": 5774,
      "umla": 5775,
      "áĭ®áĪŃáĮĬáĪµ": 5776,
      "hÃłn": 5777,
      "Ġchi": 5778,
      "ĠáĬ¨áĪĨáĬĲ": 5779,
      "ĠGáº¹": 5780,
      "chaguzi": 5781,
      "yÃłwÃ³": 5782,
      "Ġdepuis": 5783,
      "ĠáĪ¬": 5784,
      "oss": 5785,
      "ĠFilm": 5786,
      "ĠSak": 5787,
      "ween": 5788,
      "ĠáĪļáĪĬáĭ®áĬķ": 5789,
      "Ġáĭ¨áįį": 5790,
      "Ġloc": 5791,
      "ĠáīłáĪµáī°": 5792,
      "Ġgwamnan": 5793,
      "Ġpopulation": 5794,
      "Ko": 5795,
      "Ġinclud": 5796,
      "Î±": 5797,
      "Ġfili": 5798,
      "áĭµáĪ®": 5799,
      "ĠáīłáĬ®": 5800,
      "ĠáĪļáĬĴáĪµáīµ": 5801,
      "ingia": 5802,
      "ĠáĭĽáĪ¬": 5803,
      "tum": 5804,
      "tical": 5805,
      "ukumbu": 5806,
      "Ġ1961": 5807,
      "áĬ¨áĪĭ": 5808,
      "lymp": 5809,
      "Ġáī°áĬ¨áī³": 5810,
      "Mji": 5811,
      "ĠkÃ¬": 5812,
      "Ġáīłáī£": 5813,
      "Ġáį»áį": 5814,
      "papá»į": 5815,
      "ĠáīħáĪŃáĪµ": 5816,
      "ĠArab": 5817,
      "ĠAdÃ©": 5818,
      "°áį»áį": 5819,
      "áīłáīħ": 5820,
      "áĪİáĮĤ": 5821,
      "ĠáīµáĪŃáĮīáĪĿ": 5822,
      "áĪµáī´": 5823,
      "akini": 5824,
      "áĪľáīµ": 5825,
      "julo": 5826,
      "Ġkale": 5827,
      "Ġkuj": 5828,
      "Ġáĭ¨áĪļáĪ°": 5829,
      "Ġmuda": 5830,
      "Ġmuhimu": 5831,
      "Ġmwanasiasa": 5832,
      "ĠáĭŃáĮł": 5833,
      "áĮŃáĪŃ": 5834,
      "Ġáĭ°áĪ«áĪ²": 5835,
      "Ġyanki": 5836,
      "âĢľ": 5837,
      "ĠáĮ¸áī£áĭŃ": 5838,
      "rÃ¹": 5839,
      "ĠdÃł": 5840,
      "ĠMer": 5841,
      "Ġáĭ¨áĪļáĮĪáĬĻ": 5842,
      "Ġenc": 5843,
      "ague": 5844,
      "Ġart": 5845,
      "49": 5846,
      "onne": 5847,
      "ĠáĬłáĮĭ": 5848,
      "vis": 5849,
      "Î¿": 5850,
      "Ġáĭ«áĪ³": 5851,
      "Ġaina": 5852,
      "rodu": 5853,
      "istori": 5854,
      "ĠMk": 5855,
      "áĮħáĪĿ": 5856,
      "áĬĵáĭŃáīµáĭµ": 5857,
      "ĠWomen": 5858,
      "ĠáĬķáĮį": 5859,
      "Au": 5860,
      "jet": 5861,
      "Ġ(\"": 5862,
      "áĭµáĪĺ": 5863,
      "ĠáĪĺáīħ": 5864,
      "ĠáĮİáĬķ": 5865,
      "42": 5866,
      "Ġsakama": 5867,
      "Ġá»ĮdÃºn": 5868,
      "pasáº¹": 5869,
      "ĠCa": 5870,
      "ĠáĪµáī¥áĪµ": 5871,
      "ĠYo": 5872,
      "ĠáĭįáĮŃ": 5873,
      "ĠAj": 5874,
      "ĠSah": 5875,
      "áĪĭáĮĬ": 5876,
      "ĠRÃ©": 5877,
      "BA": 5878,
      "cs": 5879,
      "Ġá»įká»į": 5880,
      "imes": 5881,
      "ĠWakristo": 5882,
      "79": 5883,
      "áĪĭáīģ": 5884,
      "ayya": 5885,
      "áĬ«áĪŃ": 5886,
      "ĠáīłáĬ¦": 5887,
      "ĠáĪ²áĪĨáĬĳ": 5888,
      "áĬŀáī¹": 5889,
      "sÃ³": 5890,
      "ĠáĪ²áīĢ": 5891,
      "01": 5892,
      "oire": 5893,
      "ĠáĬ¥áĪĿáĬĲáīµ": 5894,
      "This": 5895,
      "ball": 5896,
      "áĮª": 5897,
      "ĠMali": 5898,
      "ock": 5899,
      "ĠáĪĺáĪĨáĬĳáĬķ": 5900,
      "aly": 5901,
      "andan": 5902,
      "ĠáĪµáĪĭ": 5903,
      "ĠEmp": 5904,
      "kwas": 5905,
      "ĠáĪĥáĭŃáĪĽáĬĸáīµ": 5906,
      "ĠáĪ¦áĪµáīµ": 5907,
      "ĠSu": 5908,
      "áĪ«áĭį": 5909,
      "Ġ--": 5910,
      "ĠolÃ³á¹£Ã¨lÃº": 5911,
      "Ġmilima": 5912,
      "Mo": 5913,
      "ful": 5914,
      "ĠáĭĪáī³áĭ°": 5915,
      "áĪ°áĪį": 5916,
      "ĠdÃº": 5917,
      "ĠBi": 5918,
      "Ġmwisho": 5919,
      "ĠIsa": 5920,
      "áĪĻáĬķ": 5921,
      "ĠáĪ¥áįįáĪ«": 5922,
      "ower": 5923,
      "Ġknown": 5924,
      "Ġsal": 5925,
      "abawa": 5926,
      "áī¨áĪŃáĪ²": 5927,
      "Ġkuu": 5928,
      "tiques": 5929,
      "dic": 5930,
      "2016": 5931,
      "Ġsitu": 5932,
      "Ġhili": 5933,
      "Ġ1968": 5934,
      "Ġmilioni": 5935,
      "Ġkyautar": 5936,
      "áĮĬáĭľáĪĿ": 5937,
      "ĠBiranen": 5938,
      "38": 5939,
      "To": 5940,
      "wili": 5941,
      "ĠMy": 5942,
      "ĠJo": 5943,
      "ako": 5944,
      "ĠáĪµáĪĪáĪĨáĬĲ": 5945,
      "ĠáĬķáĮīáĪł": 5946,
      "Ġer": 5947,
      "rÃ©sent": 5948,
      "Ġaure": 5949,
      "Ġgur": 5950,
      "wÃ¹": 5951,
      "ĠAwá»įn": 5952,
      "ĠAct": 5953,
      "ĠFin": 5954,
      "ĠÃ¬l": 5955,
      "Ðµ": 5956,
      "tali": 5957,
      "dancin": 5958,
      "binrin": 5959,
      "ĠÃīt": 5960,
      "Ġchar": 5961,
      "áĮ£áĬķ": 5962,
      "ĠOlymp": 5963,
      "áĮĢáīµ": 5964,
      "fuatana": 5965,
      "Ġjusqu": 5966,
      "Ray": 5967,
      "áĬ¨áĪ¨áĪĿ": 5968,
      "ourt": 5969,
      "ĠAbi": 5970,
      "urch": 5971,
      "áī£áī³": 5972,
      "áĮĭáīµ": 5973,
      "Ġarziki": 5974,
      "ĠáĮįáĬķáĬĻ": 5975,
      "ĠDisamba": 5976,
      "ĠáĪĿáĪįáĬŃáīµ": 5977,
      "ĠÉĵ": 5978,
      "Ġng": 5979,
      "ĠMil": 5980,
      "sive": 5981,
      "74": 5982,
      "irun": 5983,
      "pokeo": 5984,
      "áĬłáĪµ": 5985,
      "Ġáīłáī°áĪĪ": 5986,
      "Ġ1957": 5987,
      "ĠGÃ³mÃ¬nÃł": 5988,
      "ĠowÃ³": 5989,
      "ĠYoh": 5990,
      "Ã¡Ã¬sÃŃ": 5991,
      "áĪµáĭ«": 5992,
      "Ġgari": 5993,
      "ĠLu": 5994,
      "áĬ«áĬ¨áĪĪ": 5995,
      "hammed": 5996,
      "ĠDelta": 5997,
      "fÃ©r": 5998,
      "áĬķáĬŃ": 5999,
      "ĠId": 6000,
      "ĠáĭŃáīĢáĪ«áĪī": 6001,
      "tho": 6002,
      "áĪĺáĪ©": 6003,
      "Ġshari": 6004,
      "Ġbá»į": 6005,
      "Ġkoyar": 6006,
      "ĠáĭµáĪį": 6007,
      "Ġyanayin": 6008,
      "ĠapÃ¡": 6009,
      "ĠArewacin": 6010,
      "dÃŃnlÃ³gÃºn": 6011,
      "Ġáĭ¨áīħ": 6012,
      "oll": 6013,
      "Ġalb": 6014,
      "pedia": 6015,
      "esu": 6016,
      "irgin": 6017,
      "áīĢáĪ¨": 6018,
      "áĭĪáĭŃáĪĿ": 6019,
      "ĠáĪµáĪŀáī½": 6020,
      "Ġáĭĺáįĭ": 6021,
      "ondo": 6022,
      "ĠáĭĺáĪĺáĬĵáĭĬ": 6023,
      "huwa": 6024,
      "Ġwork": 6025,
      "ushe": 6026,
      "ĠIjoba": 6027,
      "Ġmaana": 6028,
      "áīĢáĮ¥": 6029,
      "áīłáīµáĬķ": 6030,
      "arar": 6031,
      "Ġdaida": 6032,
      "araka": 6033,
      "fofin": 6034,
      "ichael": 6035,
      "Ġyammacin": 6036,
      "áĭ°áĬķ": 6037,
      "Ġwar": 6038,
      "áīĥáĪ´": 6039,
      "áĪĨáĬĸ": 6040,
      "ison": 6041,
      "ĠBas": 6042,
      "áĬŃáĪ²": 6043,
      "ĠWatu": 6044,
      "Ġkumbukumbu": 6045,
      "Ġport": 6046,
      "ĠáĬ¥áĪĿ": 6047,
      "pace": 6048,
      "Ġtaron": 6049,
      "ateurs": 6050,
      "ĠáĪĺáĪ°áĪ¨áīµ": 6051,
      "áīħáĪµáīĥáĪ´": 6052,
      "sim": 6053,
      "angany": 6054,
      "Ġáĭ«áĪĪáĭįáĬķ": 6055,
      "88": 6056,
      "orÃŃ": 6057,
      "uel": 6058,
      "áĪµáĪĪáĭļáĪħ": 6059,
      "ĠRepublic": 6060,
      "ĠJuli": 6061,
      "Ġmuka": 6062,
      "à¤ķ": 6063,
      "áĪĽáĪ½": 6064,
      "Ġcontr": 6065,
      "ĠáĬĲáĮĪáĪł": 6066,
      "ĠChristi": 6067,
      "Ġlilikuwa": 6068,
      "ĠáĬ¨áĭĪ": 6069,
      "ĠáīµáĪŃ": 6070,
      "bele": 6071,
      "ogin": 6072,
      "Ġ1952": 6073,
      "Ġáĭ¨áĪ®": 6074,
      "áĭ²áĭ®": 6075,
      "Ġkashe": 6076,
      "onekana": 6077,
      "ĠFabra": 6078,
      "ĠKin": 6079,
      "ĠáĪĿáĭķáĪ«áī¥": 6080,
      "Awon": 6081,
      "llo": 6082,
      "ĠáīµáĪĿáĪħáĪŃ": 6083,
      "Ġmirefu": 6084,
      "estiv": 6085,
      "alÃ¡Ã¬sÃŃ": 6086,
      "ĠGold": 6087,
      "adhim": 6088,
      "Ġnafasi": 6089,
      "áĬķáĮİ": 6090,
      "isation": 6091,
      "Ġtalabijin": 6092,
      "Ġáĭ¨áĪĪáĪĿ": 6093,
      "Ġcas": 6094,
      "Ġ1959": 6095,
      "Ġáĭ¨áĪ´": 6096,
      "Ġhuu": 6097,
      "darÃŃ": 6098,
      "other": 6099,
      "Ġajili": 6100,
      "Ġsamo": 6101,
      "áĮĪáĪ«": 6102,
      "áĪ°áīµ": 6103,
      "ĠáĮĭáĪ«": 6104,
      "line": 6105,
      "áĪĿáįĴ": 6106,
      "ĠMos": 6107,
      "55": 6108,
      "usin": 6109,
      "Ġáī°áĪ«áĪ«": 6110,
      "ES": 6111,
      "ĠDen": 6112,
      "áĬ¥áĬĲáĭļáĪħ": 6113,
      "ĠáĮĪáĮ½": 6114,
      "Ġtakwas": 6115,
      "Ġkarshe": 6116,
      "Ġ1945": 6117,
      "Ġmkoa": 6118,
      "Ġmapokeo": 6119,
      "Ġá»įba": 6120,
      "ĠáĬŃáĪŃáĪµáī²áĭ«": 6121,
      "Ġwalikuwa": 6122,
      "Ġmengine": 6123,
      "ĠTanbihi": 6124,
      "ĠSci": 6125,
      "áĮłáĬķ": 6126,
      "Papa": 6127,
      "AC": 6128,
      "Vi": 6129,
      "uts": 6130,
      "fazi": 6131,
      "Ġbien": 6132,
      "Ġru": 6133,
      "ĠáĭŃáĭŀ": 6134,
      "áĭ³áĭµ": 6135,
      "ĠáĭįáĪĢ": 6136,
      "Ġtá»į": 6137,
      "Ġmemba": 6138,
      "Ġáĭ¨áĬ¨": 6139,
      "Ġdamar": 6140,
      "áĪĭáĪµ": 6141,
      "ĠFed": 6142,
      "Ġhizi": 6143,
      "ĠáįĪáĪŃáĭĸáĬķ": 6144,
      "Ġkashi": 6145,
      "áĪķáįĪáīµ": 6146,
      "jÃ³": 6147,
      "Ġmen": 6148,
      "amban": 6149,
      "Ġkundi": 6150,
      "ĠKai": 6151,
      "Ġáį©": 6152,
      "engo": 6153,
      "ĠNews": 6154,
      "Ġiki": 6155,
      "Ġmch": 6156,
      "Ġaz": 6157,
      "áī¥áĪŃáĪĥ": 6158,
      "Ġacikin": 6159,
      "PC": 6160,
      "Ġáī¢áĭ«": 6161,
      "ĠTarihi": 6162,
      "ĠBau": 6163,
      "ografia": 6164,
      "72": 6165,
      "mÃ²": 6166,
      "irÃŃ": 6167,
      "Ġigb": 6168,
      "Ġegbe": 6169,
      "Ġfilin": 6170,
      "Ġbaadaye": 6171,
      "Ġsecond": 6172,
      "yota": 6173,
      "Ġ60": 6174,
      "ĠáįįáĪ¬": 6175,
      "áĬ¥áĬķáĭ²": 6176,
      "atre": 6177,
      "koki": 6178,
      "ĠÉĹin": 6179,
      "ĠArt": 6180,
      "Ġtrois": 6181,
      "Mu": 6182,
      "rim": 6183,
      "áĬ£": 6184,
      "ĠáĬĽ": 6185,
      "Awá»įn": 6186,
      "ĠkÃł": 6187,
      "ĠSala": 6188,
      "sÃŃtÃ¬": 6189,
      "ĠáĬłáĪīáīµ": 6190,
      "áĭ°áĪµ": 6191,
      "Ġjinsi": 6192,
      "áīłáīĥ": 6193,
      "ester": 6194,
      "ney": 6195,
      "Â»)": 6196,
      "Ġdab": 6197,
      "Ġreli": 6198,
      "áĬĽáĭįáĪĿ": 6199,
      "Ġtura": 6200,
      "áĬ«áĬ¤áĪį": 6201,
      "Ġsauransu": 6202,
      "hod": 6203,
      "ollow": 6204,
      "Ġáĭ«áĭĺ": 6205,
      "áī¨áĪŃáĪ²áī²": 6206,
      "ĠWal": 6207,
      "áĮłáĪĪ": 6208,
      "Ce": 6209,
      "áĪĺáĬĵ": 6210,
      "Ġwrit": 6211,
      "Ġáī°áĮĪ": 6212,
      "ĠáĪįáĮģ": 6213,
      "ple": 6214,
      "Ġjeshi": 6215,
      "ĠWá»į": 6216,
      "áįįáĬķ": 6217,
      "ĠÃ¬dÃ¡": 6218,
      "kofu": 6219,
      "neo": 6220,
      "ĠáĭķáĪĪáī°": 6221,
      "ĠYoruba": 6222,
      "Ġakoko": 6223,
      "Ġáĭ¨áĮĭ": 6224,
      "ĠáĭįáĪĥ": 6225,
      "ĠQue": 6226,
      "dad": 6227,
      "Ġáĭ¨áĪ±": 6228,
      "velopment": 6229,
      "áīłáĬĭáĪĭ": 6230,
      "ĠOf": 6231,
      "áĪİáī¹": 6232,
      "95": 6233,
      "Ġans": 6234,
      "Ġiwe": 6235,
      "ĠÃĮbÃłdÃłn": 6236,
      "ĠZanzibar": 6237,
      "Ġkáº¹rin": 6238,
      "cul": 6239,
      "zon": 6240,
      "otes": 6241,
      "ÉĹu": 6242,
      "Ġtaken": 6243,
      "ĠáĭŃáĪĺ": 6244,
      "áĪ²áĭ«": 6245,
      "ĠlÃ²": 6246,
      "Ã¬má»į": 6247,
      "Ġwengine": 6248,
      "Ġmil": 6249,
      "ords": 6250,
      "Ġkabila": 6251,
      "Duk": 6252,
      "Ge": 6253,
      "cus": 6254,
      "Å«": 6255,
      "Ġáīª": 6256,
      "ututt": 6257,
      "umar": 6258,
      "ĠáīłáĪĺáĪĨáĬķ": 6259,
      "Ġidi": 6260,
      "ĠáīłáĬ¤": 6261,
      "Ġbetween": 6262,
      "Lakini": 6263,
      "Ġname": 6264,
      "ĠÃłÃł": 6265,
      "Ġáī°áĮ½": 6266,
      "ists": 6267,
      "ĠlÃ¡báº¹": 6268,
      "2009": 6269,
      "pindi": 6270,
      "onal": 6271,
      "Ġfur": 6272,
      "Ġthan": 6273,
      "Ġdonn": 6274,
      "hol": 6275,
      "Ġhilo": 6276,
      "ĠáĪĺáĮį": 6277,
      "Ġáĭ¨áĬłáĭ¨áĪŃ": 6278,
      "uriyar": 6279,
      "Ġwasannin": 6280,
      "ĠáĪĪáĪļ": 6281,
      "2010": 6282,
      "Ġiliy": 6283,
      "Ġkij": 6284,
      "áīĤáĭ«": 6285,
      "ĠpÃ©ri": 6286,
      "Ġwhen": 6287,
      "formation": 6288,
      "ĠáĮĥ": 6289,
      "kur": 6290,
      "áĬķáĭ¶": 6291,
      "ating": 6292,
      "icin": 6293,
      "rica": 6294,
      "ĠáĪ²áĪį": 6295,
      "Ġshekarun": 6296,
      "kubali": 6297,
      "Ġabubuwan": 6298,
      "Ġayáº¹": 6299,
      "âĢ¹": 6300,
      "73": 6301,
      "wali": 6302,
      "Ġbro": 6303,
      "ĠáĬłáĭĭ": 6304,
      "omme": 6305,
      "ĠreprÃ©sent": 6306,
      "Ġconstru": 6307,
      "ĠBest": 6308,
      "Agbegbe": 6309,
      "ged": 6310,
      "Ġgbe": 6311,
      "Ġvili": 6312,
      "ĠrÃ©p": 6313,
      "ii": 6314,
      "abba": 6315,
      "ĠJamus": 6316,
      "ĠJoseph": 6317,
      "ĠáĪĿáĬķáĮĬáĭľáĪĿ": 6318,
      "Ġcentury": 6319,
      "ĠGabas": 6320,
      "áĬķáĭ²": 6321,
      "Ġtatu": 6322,
      "ĠMont": 6323,
      "áĪīáĬķ": 6324,
      "áĮİáī½": 6325,
      "ĠáīłáĪĭ": 6326,
      "ĠRed": 6327,
      "Ġzake": 6328,
      "Ġáī£áĪķáĪŃ": 6329,
      "Ġ1958": 6330,
      "Ġmonde": 6331,
      "ĠUrusi": 6332,
      "NA": 6333,
      "Ã®t": 6334,
      "ĠáīĦ": 6335,
      "áĭ«áĪľ": 6336,
      "ombo": 6337,
      "Ġpeople": 6338,
      "ĠGeorg": 6339,
      "ĠMex": 6340,
      "áĭŃáĪģ": 6341,
      "áīłáĬłáĪ": 6342,
      "Ġhistoria": 6343,
      "ĠBlack": 6344,
      "Ġnipa": 6345,
      "Ġip": 6346,
      "áĮłáīµ": 6347,
      "lished": 6348,
      "Ġzilizo": 6349,
      "áĬ¨áī°áĪĽáĭį": 6350,
      "ĠYohane": 6351,
      "Ġmik": 6352,
      "ĠLin": 6353,
      "Ġconc": 6354,
      "Elle": 6355,
      "ĠáĬ¨áĪĿ": 6356,
      "áī¡áĬķ": 6357,
      "Far": 6358,
      "yam": 6359,
      "áĪªáīĥ": 6360,
      "áī¸áĭī": 6361,
      "ried": 6362,
      "2014": 6363,
      "ĠáĬłáĪįáī°": 6364,
      "ĠIbile": 6365,
      "Ġfound": 6366,
      "Ġsakandare": 6367,
      "ĠáĪĺáĮ»áĪķáįįáīµ": 6368,
      "ÃºÃºsÃ¹": 6369,
      "Ġambako": 6370,
      "Ġmfano": 6371,
      "Ġáįªáį»áį": 6372,
      "ĠáĪłáĪ«áĭĬáīµ": 6373,
      "iken": 6374,
      "ĠIbn": 6375,
      "ratic": 6376,
      "ĠKale": 6377,
      "huri": 6378,
      "tÃ¡": 6379,
      "Ġcig": 6380,
      "áĬķáĮīáĪ¥": 6381,
      "Ġlangues": 6382,
      "Ġsojo": 6383,
      "abiwa": 6384,
      "ĠMagharibi": 6385,
      "ĠáĮĮáī³": 6386,
      "zation": 6387,
      "áī¥áĬĽ": 6388,
      "ĠBC": 6389,
      "Ġáī°áĬŃáĪį": 6390,
      "wane": 6391,
      "Ġpet": 6392,
      "áī·áĬķ": 6393,
      "ĠMkuu": 6394,
      "Ġjiki": 6395,
      "Ġjimbo": 6396,
      "ĠáĪ°áĬĲ": 6397,
      "ĠInstit": 6398,
      "van": 6399,
      "chuku": 6400,
      "ĠInd": 6401,
      "ĠZam": 6402,
      "Ġhaifar": 6403,
      "Ġtsohuwar": 6404,
      "::": 6405,
      "fiki": 6406,
      "jec": 6407,
      "ĠMt": 6408,
      "ĠNollywood": 6409,
      "ayÃ©": 6410,
      "utan": 6411,
      "áĪįáĪµáįįáĬĵ": 6412,
      "Ġ(;": 6413,
      "ĠRiver": 6414,
      "ube": 6415,
      "ĠáĬłáĪ«áīµ": 6416,
      "ĠAma": 6417,
      "áĪªáĬ®áī½": 6418,
      "anzisha": 6419,
      "áīģáīµ": 6420,
      "hudi": 6421,
      "estival": 6422,
      "vient": 6423,
      "lafazi": 6424,
      "Ġhannun": 6425,
      "ĠáĮĬáĭ®áĪŃáĮĬáĪµ": 6426,
      "áĪĨáĬĸáĪĿ": 6427,
      "ament": 6428,
      "aika": 6429,
      "áĪĽáĭįáĭ«áĬķ": 6430,
      "koto": 6431,
      "ĠáĪĬáīĢ": 6432,
      "áĪĺáĮ¥": 6433,
      "Ġjá»į": 6434,
      "ĠáĭŃáīĨ": 6435,
      "ĠáĪĬáīĥ": 6436,
      "ĠáīĨáĭŃ": 6437,
      "Ġyears": 6438,
      "Ġáĭ¨áįĬ": 6439,
      "áĪĪáīĢ": 6440,
      "vin": 6441,
      "ery": 6442,
      "ĠáĬĲáĮ¥": 6443,
      "ĠáįĮ": 6444,
      "Ġmaa": 6445,
      "Ġresp": 6446,
      "ĠCong": 6447,
      "ĠGen": 6448,
      "Ġkwall": 6449,
      "áĪĬáĬķ": 6450,
      "Ġiyaka": 6451,
      "áĬķáī¥": 6452,
      "Ġnatur": 6453,
      "ĠSikukuu": 6454,
      "Ġsouv": 6455,
      "Ġ2021": 6456,
      "ĠáĪµáĬķ": 6457,
      "ministr": 6458,
      "Ġáĭ¨áīĢáĭµáĪŀ": 6459,
      "amare": 6460,
      "ĠAustralia": 6461,
      "vid": 6462,
      "áĪ¨áĪŃ": 6463,
      "Ġmahali": 6464,
      "ĠáĪĺáĬķáĮįáĪ¥áī³áīµ": 6465,
      "ĠáĬłáĪĺáī³áīµ": 6466,
      "Cette": 6467,
      "Jina": 6468,
      "ĠáīĤ": 6469,
      "Ġganin": 6470,
      "ĠÃłjá»į": 6471,
      "Ġhuadhim": 6472,
      "Ġharkokin": 6473,
      "Ġgbá»į": 6474,
      "Ġfitar": 6475,
      "Ġmnamo": 6476,
      "ĠáĬĥ": 6477,
      "Ġho": 6478,
      "ĠKal": 6479,
      "Ġwur": 6480,
      "áĬ«áĪĦ": 6481,
      "Ġáĭ¨áĪģ": 6482,
      "fois": 6483,
      "ĠáĭŃáĮĪáĬĽáĪī": 6484,
      "Ġconstitu": 6485,
      "56": 6486,
      "Ġcaract": 6487,
      "ĠáĭĪáĮ¥": 6488,
      "ĠtÃŃtÃŃ": 6489,
      "Ġmoins": 6490,
      "ĠRobert": 6491,
      "uct": 6492,
      "mah": 6493,
      "ĠáĮĪáĭ¥": 6494,
      "ĠPakistan": 6495,
      "esse": 6496,
      "áĭŀáī½": 6497,
      "CC": 6498,
      "ville": 6499,
      "Ġunder": 6500,
      "áĪİáīµ": 6501,
      "sy": 6502,
      "Ġsáº¹": 6503,
      "ishe": 6504,
      "áĭ¨áĪ©": 6505,
      "ories": 6506,
      "sal": 6507,
      "ĠáįĴ": 6508,
      "ĠOff": 6509,
      "ĠIsra": 6510,
      "ĠBauchi": 6511,
      "ĠáĬ¥áĬ©áĪį": 6512,
      "ĠáĬłáĭĺ": 6513,
      "Ġkudancin": 6514,
      "ĠáĬ¨áī£": 6515,
      "ĠáīłáĪĢ": 6516,
      "ĠâĢ¹": 6517,
      "Ġconn": 6518,
      "áįĬáĭ«": 6519,
      "áĬķáĮįáĪį": 6520,
      "ĠprÃ©sent": 6521,
      "adarwa": 6522,
      "Ġnufin": 6523,
      "44": 6524,
      "ĠOmo": 6525,
      "áĬĴáĪįáĬŃ": 6526,
      "186": 6527,
      "Ġkoloni": 6528,
      "ĠTai": 6529,
      "áĪĽáī¸áĭį": 6530,
      "Ġkaya": 6531,
      "Ġkansa": 6532,
      "Ġprob": 6533,
      "Ġautres": 6534,
      "autres": 6535,
      "fÃ¡sÃŃtÃ¬": 6536,
      "Ġáī°áĮ«": 6537,
      "Ġville": 6538,
      "ĠáīłáĪĺáī£áĪį": 6539,
      "Ġáĭķáĭµ": 6540,
      "amia": 6541,
      "haji": 6542,
      "ilishi": 6543,
      "iyoyi": 6544,
      "áĭŃáĪħáĪĿ": 6545,
      "can": 6546,
      "áįı": 6547,
      "ĠáīłáĬłáĪģáĬĳ": 6548,
      "Ġáĭ¨áĪļáĮĪáĬĿáīłáīµ": 6549,
      "ambia": 6550,
      "ĠUsman": 6551,
      "Waliozaliwa": 6552,
      "wer": 6553,
      "Ġtiti": 6554,
      "abaki": 6555,
      "rique": 6556,
      "Ġ1956": 6557,
      "ker": 6558,
      "Ġgroup": 6559,
      "Ġáĭ¨áĪļáĪ°áĪ«": 6560,
      "Ġur": 6561,
      "Ġlina": 6562,
      "ĠAkin": 6563,
      "ĠáĬ¥áĬķáīħáĪµáīĥáĪ´": 6564,
      "Ġwatsa": 6565,
      "ĠáĪĨáĬĳ": 6566,
      "ĠhuÉĹu": 6567,
      "Ġsaman": 6568,
      "ographie": 6569,
      "ĠBrazil": 6570,
      "Ġx": 6571,
      "atho": 6572,
      "ĠPop": 6573,
      "urt": 6574,
      "ĠáīłáĪŀ": 6575,
      "Ġáĭ¨áĭĵáĪĺáī±": 6576,
      ")áį¢": 6577,
      "ek": 6578,
      "ariya": 6579,
      "Ġoko": 6580,
      "áĮĬáĭ«": 6581,
      "ĠáĪºáĪħ": 6582,
      "Ġprogram": 6583,
      "89": 6584,
      "rist": 6585,
      "Ġnam": 6586,
      "ties": 6587,
      "Ġvis": 6588,
      "ĠgboyÃ¨": 6589,
      "Ġibile": 6590,
      "Ġáĭ¨áī°áī£áĪĪ": 6591,
      "ĠáĬłáīĢáįį": 6592,
      "view": 6593,
      "Ġ),": 6594,
      "Ġmt": 6595,
      "Ġnahiyar": 6596,
      "Ġonly": 6597,
      "ĠBurtaniya": 6598,
      "anya": 6599,
      "ĠáĪĬáĭ«": 6600,
      "inin": 6601,
      "enta": 6602,
      "ĠyÃłn": 6603,
      "ĠáĮĪáī¥áĪ¨": 6604,
      "----": 6605,
      "....": 6606,
      "jÃ¡de": 6607,
      "Ġappel": 6608,
      "ĠOrÃŃláº¹": 6609,
      "áĬ®áĬĸáĪļ": 6610,
      "omina": 6611,
      "emo": 6612,
      "undin": 6613,
      "Ġtradition": 6614,
      "áĮĬáĭľáĭį": 6615,
      "Ġimani": 6616,
      "Ġtafi": 6617,
      "ĠáĪĺáĪ£": 6618,
      "ĠGasar": 6619,
      "Yana": 6620,
      "áĮįáĬĵ": 6621,
      "ĠIm": 6622,
      "Ġibn": 6623,
      "Ġtur": 6624,
      "ĠáĪĽáĬħ": 6625,
      "Ka": 6626,
      "Ġáĭ¨áĮĢáĪŃáĪĺáĬķ": 6627,
      "áĭŃáĪį": 6628,
      "akati": 6629,
      "ĠáĬŃáĪĪáī¥": 6630,
      "Ġáĭ¨áĬĲáīłáĪ©áīµ": 6631,
      "ĠáĬłáĮĪáĪįáĮįáĪİáīµ": 6632,
      "gani": 6633,
      "rad": 6634,
      "áĪĿáī¥": 6635,
      "maji": 6636,
      "Ġáī¥áĪĶáĪŃ": 6637,
      "irika": 6638,
      "Ġrana": 6639,
      "áĮįáĪªáĬŃ": 6640,
      "ukun": 6641,
      "ĠUt": 6642,
      "ĠÉĹari": 6643,
      "Ġsabon": 6644,
      "wiwa": 6645,
      "Ã©d": 6646,
      "áĪ³áĪ°": 6647,
      "oly": 6648,
      "ayensi": 6649,
      "Ġsystem": 6650,
      "áĬĵáĮĪáĪŃ": 6651,
      "ĠáĪĺáĬ®": 6652,
      "ĠáĬ¨áĮ¥": 6653,
      "ĠáĮĢáĪŃáĪĺáĬķ": 6654,
      "):": 6655,
      "Ġáī°áĪĺáĪ³áĪ³áĭŃ": 6656,
      "mis": 6657,
      "ĠáĬłáĪµáįĪ": 6658,
      "ĠRoyal": 6659,
      "eland": 6660,
      "Ġáĭ«áĪĭáī¸áĭį": 6661,
      "opÃ©": 6662,
      "jejen": 6663,
      "ĠMaria": 6664,
      "Ġáĭ¨áĬĲáĮĪ": 6665,
      "áī£áī¢áĪİáĬķ": 6666,
      "ĠwÃ¡yÃ©": 6667,
      "ĠáĬłáĬĵ": 6668,
      "ĠKÃ¡": 6669,
      "áĭ±áīµ": 6670,
      "ĠáĬłáĮł": 6671,
      "áĬ¨áĬĵ": 6672,
      "ĠáĬĲáĮĪáĪ¥áīµ": 6673,
      "Ġphilos": 6674,
      "Ġtex": 6675,
      "ural": 6676,
      "ĠDunia": 6677,
      "hÃ¬n": 6678,
      "ĠtÃ¬": 6679,
      "ĠÃ¬rÃ²yÃ¬n": 6680,
      "ĠáīĥáĪĭáīµ": 6681,
      "ĠáĬłáī£áĪĭáīµ": 6682,
      "ĠlÃ³rÃŃláº¹": 6683,
      "Ġáĭ¨áĪĨáĬĲáĭį": 6684,
      "Ġplace": 6685,
      "Ġgege": 6686,
      "akatifu": 6687,
      "Babban": 6688,
      "Hak": 6689,
      "Jihar": 6690,
      "yth": 6691,
      "gor": 6692,
      "Ġduring": 6693,
      "Ap": 6694,
      "Ġabu": 6695,
      "ĠáīłáĬ«": 6696,
      "ĠIV": 6697,
      "ĠCali": 6698,
      "ĠáĪĪáĪĽáĪµ": 6699,
      "ĠáīµáĬķáĪ½": 6700,
      "sÃ¡": 6701,
      "Ø©": 6702,
      "ĠáĭĵáĭŃáĬĲáīµ": 6703,
      "ĠáĮĢáĪĺáĪ¨": 6704,
      "Ġderni": 6705,
      "ĠKais": 6706,
      "ĠPal": 6707,
      "áĭ°áĪŃáĮį": 6708,
      "ĠFrench": 6709,
      "áĭ·": 6710,
      "Ġcibiyar": 6711,
      "áĬĲáĪ£": 6712,
      "Ġáī°áĭ°áĪŃ": 6713,
      "qui": 6714,
      "Ġtabbatar": 6715,
      "07": 6716,
      "Ġgabas": 6717,
      "ĠáĬŃáįįáĪĭáĮĪáĪŃ": 6718,
      "John": 6719,
      "jwa": 6720,
      "Ġmaisha": 6721,
      "ĠJama": 6722,
      "ĠÃ¬gbÃ©": 6723,
      "jáº¹s": 6724,
      "ĠAustria": 6725,
      "ĠáĬ¥áĪ«áĪ±": 6726,
      "ĠDu": 6727,
      "ĠthÃ©": 6728,
      "taka": 6729,
      "Ġnew": 6730,
      "ĠáĮįáĭµ": 6731,
      "Ġáĭ¨áĬ¡": 6732,
      "ĠBook": 6733,
      "Ġmallaka": 6734,
      "Ġsakamakon": 6735,
      "kuna": 6736,
      "ĠCO": 6737,
      "ĠyÃł": 6738,
      "tein": 6739,
      "Ġeyi": 6740,
      "dis": 6741,
      "Ġ×": 6742,
      "liya": 6743,
      "row": 6744,
      "Ġáĭ¨áĪ«áĪ±": 6745,
      "Ġsuiv": 6746,
      "TV": 6747,
      "áĬĲáĬĽ": 6748,
      "ĠáĪĺáĪįáĬ©": 6749,
      "Ġáī°áĬ¨áī³áĭŃ": 6750,
      "olowo": 6751,
      "ense": 6752,
      "ĠgÃ©": 6753,
      "Ã¬wÃ©": 6754,
      "Ã¨ne": 6755,
      "áĭ³áĪª": 6756,
      "Ġvie": 6757,
      "Ġzaune": 6758,
      "Ġgirm": 6759,
      "Ġpermet": 6760,
      "ĠHausawa": 6761,
      "áīĢáĪ³": 6762,
      "imi": 6763,
      "sayi": 6764,
      "val": 6765,
      "áĪĭáĪĭ": 6766,
      "ĠáīĢáĭŃ": 6767,
      "¢áīµáĭ®áĮµáĭ«áĬķ": 6768,
      "ĠGirl": 6769,
      "41": 6770,
      "Kar": 6771,
      "geme": 6772,
      "Ġani": 6773,
      "Ġá»įlá»į": 6774,
      "ĠáĪ°áĪŃ": 6775,
      "illar": 6776,
      "Ġwatakatifu": 6777,
      "Ġkimataifa": 6778,
      "kam": 6779,
      "ĠáĪĿáĪħ": 6780,
      "anth": 6781,
      "áīĭáīĭ": 6782,
      "Ġyanayi": 6783,
      "shiryen": 6784,
      "Ġlittafin": 6785,
      "onin": 6786,
      "ĠjÃ©": 6787,
      "áĬŃáĪŃáĪµáī¶áĪµ": 6788,
      "ĠOyo": 6789,
      "igne": 6790,
      "Ġpartir": 6791,
      "áĪªáī³áĬķáĭ«": 6792,
      "tÃº": 6793,
      "fá»į": 6794,
      "Ġáĭ¨áĪį": 6795,
      "ĠMw": 6796,
      "angwa": 6797,
      "Ġalipo": 6798,
      "Ġáĭ¨áĬłáĭįáĪ®áįĵ": 6799,
      "Ġcheo": 6800,
      "Ġmambo": 6801,
      "áĪŃáĬĵ": 6802,
      "áĪĪáī±": 6803,
      "ĠáĮĦ": 6804,
      "ĠSab": 6805,
      "Ġzane": 6806,
      "ĠWais": 6807,
      "ĠHigh": 6808,
      "áĪİáĪµ": 6809,
      "Ġsouvent": 6810,
      "98": 6811,
      "áĬķáĮ»": 6812,
      "Ġtaba": 6813,
      "ĠáĪµáĭ«áĪľ": 6814,
      "ĠáĮįáĪį": 6815,
      "Ġsaba": 6816,
      "Ġmes": 6817,
      "ĠoyÃ¨": 6818,
      "ĠKwam": 6819,
      "ĠáĬłáĪĿáī£": 6820,
      "ĠáĮ£áĪį": 6821,
      "Ġmemb": 6822,
      "áī³áĪĿ": 6823,
      "ĠáīłáĪ®": 6824,
      "Ġinv": 6825,
      "Ġ1951": 6826,
      "Ġliv": 6827,
      "Ġplay": 6828,
      "Ġáĭ°áĪ´áīµ": 6829,
      "by": 6830,
      "safa": 6831,
      "áīłáĪ®": 6832,
      "ught": 6833,
      "yoyi": 6834,
      "ÉĹin": 6835,
      "2011": 6836,
      "ĠMusic": 6837,
      "Ġgra": 6838,
      "ĠLim": 6839,
      "2017": 6840,
      "Ġpersonn": 6841,
      "Ġtemps": 6842,
      "Mah": 6843,
      "áĮ©": 6844,
      "Ġáĭ©áĬĴáī¨áĪŃáĪ²áī²": 6845,
      "tal": 6846,
      "iles": 6847,
      "Ġ+": 6848,
      "Ġmmoja": 6849,
      "isan": 6850,
      "ĠMary": 6851,
      "duc": 6852,
      "gine": 6853,
      "ĠáĬŃáĪŃ": 6854,
      "2008": 6855,
      "Ġmuziki": 6856,
      "Ġexemple": 6857,
      "Ġkyau": 6858,
      "Ġjiho": 6859,
      "Ġjamii": 6860,
      "Ġáĭ¨áĪħáĭĿáī¥": 6861,
      "43": 6862,
      "try": 6863,
      "ĠIslam": 6864,
      "ĠáĬĽáĭį": 6865,
      "ĠáīłáĭŃ": 6866,
      "ĠáĬ¥áĬķáĭ´áīµ": 6867,
      "áĪ°áĪĽ": 6868,
      "Ġlog": 6869,
      "áĭµáĪ¨": 6870,
      "%)": 6871,
      "Tari": 6872,
      "Ġkuk": 6873,
      "ĠáĬ¨áĪµ": 6874,
      "ĠOlÃº": 6875,
      "Ġáĭ°áī¥": 6876,
      "Ġonimo": 6877,
      "ĠáĬ¨áĭļáĭ«áĪĿ": 6878,
      "Ġdirect": 6879,
      "Ġfadin": 6880,
      "Ġshafi": 6881,
      "Ġpoint": 6882,
      "Ġáĭ¨áĪĻáĭļáīĥ": 6883,
      "ridge": 6884,
      "tÃºn": 6885,
      "Ãºpá»į": 6886,
      "lewa": 6887,
      "ĠTer": 6888,
      "ĠPres": 6889,
      "ĠGod": 6890,
      "Ġ1948": 6891,
      "áįĲáī¥áĪĬáĬŃ": 6892,
      "ĠáĪģáĪĪáī°áĬĽ": 6893,
      "áĮįáĪĽáĭĬ": 6894,
      "Ġáī¤áī¶áī½": 6895,
      "ities": 6896,
      "tÃłgÃ©": 6897,
      "Ġzinazo": 6898,
      "ĠáĪĿáĭķáĪ«": 6899,
      "fication": 6900,
      "ĠAgusta": 6901,
      "Ġorigin": 6902,
      "Mat": 6903,
      "Ġrike": 6904,
      "Ġáī°áĪĺáĪį": 6905,
      "ĠKingdom": 6906,
      "ĠIk": 6907,
      "ĠáĬ¥áĪµáĬ«": 6908,
      "Ġá»Įba": 6909,
      "historia": 6910,
      "Ġrangi": 6911,
      "atia": 6912,
      "ĠáīłáĪ¥": 6913,
      "poque": 6914,
      "ĠáĮįáĬķáĬĻáĬĲáīµ": 6915,
      "LÃ¡": 6916,
      "ĠÙ": 6917,
      "ator": 6918,
      "Ġami": 6919,
      "Ġapa": 6920,
      "ĠáĮ¤": 6921,
      "irar": 6922,
      "Ġjar": 6923,
      "áĮłáī¥": 6924,
      "Ġ1940": 6925,
      "ble": 6926,
      "ĠTar": 6927,
      "ternet": 6928,
      "ĠdÃ©velopp": 6929,
      "iction": 6930,
      "fawa": 6931,
      "áī¢áĭŃ": 6932,
      "Ġkok": 6933,
      "áĪµáīµáĪª": 6934,
      "Ġwenyewe": 6935,
      "Ġmer": 6936,
      "uter": 6937,
      "ĠWh": 6938,
      "rian": 6939,
      "sible": 6940,
      "ij": 6941,
      "xim": 6942,
      "áĬŃáĪĿáĬĵ": 6943,
      "otun": 6944,
      "ĠamÃ©": 6945,
      "ĠLiber": 6946,
      "Ġnde": 6947,
      "ĠáĬłáĮį": 6948,
      "ikisho": 6949,
      "ĠáĪĺáĬĸ": 6950,
      "ĠWilaya": 6951,
      "ÉĹi": 6952,
      "ĠáĭĭáĮĭ": 6953,
      "Ġyawancin": 6954,
      "ĠGrand": 6955,
      "Ġser": 6956,
      "Ġyaki": 6957,
      "áĪµáī°áĪŃ": 6958,
      "ublique": 6959,
      "ĠInstitute": 6960,
      "umm": 6961,
      "ices": 6962,
      "Ġáĭ«áĬķ": 6963,
      "áĪĲáĪ´": 6964,
      "áĮ»áįĪ": 6965,
      "elui": 6966,
      "ĠSudan": 6967,
      "áįĸáĪŃáīµ": 6968,
      "gÃ³": 6969,
      "ĠÃłgbÃ¡yÃ©": 6970,
      "Ġipo": 6971,
      "Ġ1954": 6972,
      "Ġambapo": 6973,
      "jáº¹sÃ¡ra": 6974,
      "03": 6975,
      "Ġsign": 6976,
      "Ġdashi": 6977,
      "Ġyakin": 6978,
      "ĠIr": 6979,
      "áĮĭáĮĪáĪŃ": 6980,
      "Ġwadannan": 6981,
      "yyuka": 6982,
      "Ġbangaren": 6983,
      "htm": 6984,
      "Ġ1930": 6985,
      "ird": 6986,
      "ident": 6987,
      "áįĬáĭİáī½": 6988,
      "Ġhana": 6989,
      "Ġend": 6990,
      "Ġavant": 6991,
      "05": 6992,
      "ĠAwon": 6993,
      "áĭ«áīĦ": 6994,
      "ĠAnamb": 6995,
      "ĠáĮłáīħáĪĭáĭŃ": 6996,
      "lit": 6997,
      "Ġáĭĺáĭį": 6998,
      "ĠLouis": 6999,
      "tra": 7000,
      "Ġdog": 7001,
      "Ġsho": 7002,
      "ĠáīłáĮĭ": 7003,
      "ĠáĬĲáįĥ": 7004,
      "Ġzo": 7005,
      "Lugha": 7006,
      "So": 7007,
      "ĠLab": 7008,
      "ĠáĪĪáĭĪ": 7009,
      "oshi": 7010,
      "áĮĭáī¢áīµ": 7011,
      "ĠKijerumani": 7012,
      "ĠáĮ¨áĪĿáĪ®": 7013,
      "ĠáįĪáĪ¨áĬķáĪ³áĭŃ": 7014,
      "Ġayáº¹yáº¹": 7015,
      "áĮ½áĭĭáīµ": 7016,
      "ĠáĮĪáĬĵ": 7017,
      "artar": 7018,
      "ĠáĪļáĬ«áĬ¤áĪį": 7019,
      "ĠBak": 7020,
      "ĠáĮ¥áīłáī¥": 7021,
      "áī¹áĬķ": 7022,
      "2002": 7023,
      "100": 7024,
      "bon": 7025,
      "áĪĪáĪį": 7026,
      "áĭ°áĪŃáĪµ": 7027,
      "omp": 7028,
      "imba": 7029,
      "ĠáĪ¥áĮĭ": 7030,
      "Ġyanke": 7031,
      "ĠáĬłáĭįáĪ«": 7032,
      "pro": 7033,
      "Ġmtu": 7034,
      "ĠMichael": 7035,
      "ĠáĬłáĬŃ": 7036,
      "ĠGree": 7037,
      "pindu": 7038,
      "Ġká»įkÃłn": 7039,
      "umiwa": 7040,
      "PP": 7041,
      "fore": 7042,
      "Ġbuk": 7043,
      "Ġrem": 7044,
      "áī¤áī±": 7045,
      "áĭ°áī¥áĪ¨": 7046,
      "yer": 7047,
      "ĠAw": 7048,
      "Ġ1947": 7049,
      "ĠáĬłáĪµáī°áĭ³áĭ°áĮį": 7050,
      "ĠSalaam": 7051,
      "ĠTsa": 7052,
      "ources": 7053,
      "áĬĴáīµ": 7054,
      "ĠáĮ½áĪķáįĪáīµ": 7055,
      "ĠprÃ©sid": 7056,
      "ĠFarans": 7057,
      "Kuma": 7058,
      "nement": 7059,
      "áĪĪáīłáīµ": 7060,
      "ĠáĪĺáĮĢáĪĺáĪªáĭ«": 7061,
      "ĠáĪĬáĪĨáĬķ": 7062,
      "Ġshahar": 7063,
      "Ġáīłáī¥áĭĻ": 7064,
      "hesabiwa": 7065,
      "Ġzabe": 7066,
      "áĮ¥áĬĲáīµ": 7067,
      "Ġáī²": 7068,
      "ulin": 7069,
      "OR": 7070,
      "áĪ«áĭįáĭ«áĬķ": 7071,
      "utun": 7072,
      "Ġcours": 7073,
      "ĠCongress": 7074,
      "ĠMpaka": 7075,
      "áĭ«áĭįáĭ«áĬķ": 7076,
      "Ġosu": 7077,
      "áĭµáīħ": 7078,
      "Ġáĭķáĭį": 7079,
      "limfuata": 7080,
      "áĪµáī³áĬķ": 7081,
      "Ġdest": 7082,
      "áī°áĬĵ": 7083,
      "ĠáĪĺáĪĭ": 7084,
      "Ġáĭ«áĭį": 7085,
      "ĠáĪįáĪĽ": 7086,
      "Ġgrande": 7087,
      "ĠáĪļáĬĴáĪµáīµáĪŃ": 7088,
      "ªáĭ«": 7089,
      "áĪŃáī³": 7090,
      "ĠWil": 7091,
      "stan": 7092,
      "Ġjiha": 7093,
      "ĠáĪĺáī¥": 7094,
      "Ġáĭ¨áĪĺáĮ£": 7095,
      "ĠRichard": 7096,
      "ĠRoman": 7097,
      "áĮ£áĪª": 7098,
      "engene": 7099,
      "Ġwakifuata": 7100,
      "las": 7101,
      "ĠáĬłáī¡": 7102,
      "ĠKanada": 7103,
      "ĠSup": 7104,
      "ĠáĬłáĪµáī°áĭ³áĭ°áĪŃ": 7105,
      "ket": 7106,
      "Ġsanar": 7107,
      "Ġpouv": 7108,
      "áĪĺáĬĵáĭĬ": 7109,
      "Ġlau": 7110,
      "okacin": 7111,
      "Ġinganta": 7112,
      "áĪĿáīłáĪŃ": 7113,
      "Ġyasa": 7114,
      "alle": 7115,
      "Ġgi": 7116,
      "áĮĥáĭĿáĪĽáī½": 7117,
      "ĠAssociation": 7118,
      "ĠáĪŃáĭķ": 7119,
      "Ø³": 7120,
      "ĠáĭĪáĭĺ": 7121,
      "ĠHistory": 7122,
      "chungu": 7123,
      "ĠUN": 7124,
      "Ġuishe": 7125,
      "Ġabáº¹": 7126,
      "ĠáĪĨáĬĸáĪĿ": 7127,
      "áīĢáĪĺáĮ«": 7128,
      "ĠáĬłáĪĽáĬ«": 7129,
      "fuatwa": 7130,
      "Ġhuadhimisha": 7131,
      "ĠWam": 7132,
      "ĠáĭĵáĪĭáĪĽ": 7133,
      "Ġstate": 7134,
      "ĠáĬªáĭ³áĬķ": 7135,
      "rement": 7136,
      "kai": 7137,
      "Ġpu": 7138,
      "add": 7139,
      "ĠPoland": 7140,
      "jÃ¹": 7141,
      "Ġpap": 7142,
      "irc": 7143,
      "áĬ«áĬķ": 7144,
      "áĬķáĭµáĪµáĬĵ": 7145,
      "áĮ»áįį": 7146,
      "Ġsiyasan": 7147,
      "ix": 7148,
      "ĠpÃłÃ¡": 7149,
      "ĠIá¹£áº¹": 7150,
      "ĠÃ¬p": 7151,
      "Ġdonc": 7152,
      "alafu": 7153,
      "NÃŃgbÃł": 7154,
      "Ġtakriban": 7155,
      "ababisha": 7156,
      "Ġhigh": 7157,
      "ĠáĪĿáĬĴáĪįáĬŃ": 7158,
      "ĠrÃ©s": 7159,
      "ĠáīłáĪŃáĬ«áī³": 7160,
      "bes": 7161,
      "áĭ¨áĬķ": 7162,
      "rough": 7163,
      "ĠUm": 7164,
      "2018": 7165,
      "Ġáīłáī°áĪĪáĭŃáĪĿ": 7166,
      "ĠAth": 7167,
      "2013": 7168,
      "ĠáĬłáĭµáĪŃáĮİ": 7169,
      "</": 7170,
      "ĠfÃ¬": 7171,
      "áĮįáĬĺáīµ": 7172,
      "Ġzao": 7173,
      "ĠáĪľáĭ³": 7174,
      "Ġzinabaki": 7175,
      "ÃĴun": 7176,
      "Ġnoma": 7177,
      "ict": 7178,
      "ashington": 7179,
      "kia": 7180,
      "uropÃ©": 7181,
      "áĭ²áĪ±": 7182,
      "istes": 7183,
      "ĠSokoto": 7184,
      "ĠMovie": 7185,
      "ument": 7186,
      "Ġanti": 7187,
      "Ġsigni": 7188,
      "bÃ©": 7189,
      "Ġran": 7190,
      "Ġkwenda": 7191,
      "ĠÃ²á¹£Ã¨lÃº": 7192,
      "dÃŃnlá»į": 7193,
      "áĬ»": 7194,
      "ĠáĬ¦áĪŃ": 7195,
      "Ġdim": 7196,
      "atini": 7197,
      "ables": 7198,
      "ĠAfrilu": 7199,
      "ĠDemocratic": 7200,
      "ico": 7201,
      "ĠRec": 7202,
      "66": 7203,
      "AR": 7204,
      "ĠPoli": 7205,
      "ull": 7206,
      "ĠUb": 7207,
      "áįīáīµ": 7208,
      "ĠáĮ¸áĪĲáįĬ": 7209,
      "ĠThomas": 7210,
      "áĪ³áĭį": 7211,
      "iriwa": 7212,
      "Ġndogo": 7213,
      "ĠSarkin": 7214,
      "02": 7215,
      "ĠFulani": 7216,
      "odo": 7217,
      "áĪĲáĭŃ": 7218,
      "Ġtsakiyar": 7219,
      "ĠJanairu": 7220,
      "Ġnasarar": 7221,
      "nÃº": 7222,
      "atis": 7223,
      "Ġ1953": 7224,
      "kad": 7225,
      "Ġmakuu": 7226,
      "áīĥáĪī": 7227,
      "ĠáĬªáĪİ": 7228,
      "Ġsyn": 7229,
      "ĠÃītats": 7230,
      "ĠKaisari": 7231,
      "Ġif": 7232,
      "ĠáĭĪáĮ£": 7233,
      "ĠáĬĹáĪª": 7234,
      "orte": 7235,
      "rict": 7236,
      "Ġwhere": 7237,
      "Ġelect": 7238,
      "Ġcity": 7239,
      "Ġfada": 7240,
      "Ġruwan": 7241,
      "áĪ¨áįĪ": 7242,
      "ĠáĬ¥áĬķáĭµ": 7243,
      "áĪĬáĭ«áĬķ": 7244,
      "Ġkananan": 7245,
      "ĠáĪģáĪīáĪĿ": 7246,
      "onais": 7247,
      "ĠpÃ¡": 7248,
      "Ġfollow": 7249,
      "Ġham": 7250,
      "Ġinay": 7251,
      "wÃ²rÃ¡n": 7252,
      "Ġencore": 7253,
      "atif": 7254,
      "áī¦áĪŃ": 7255,
      "ĠArts": 7256,
      "ĠáĪĻáĭļáīĥ": 7257,
      "áī³áĪªáĬŃ": 7258,
      "ĠTal": 7259,
      "Ġfois": 7260,
      "ifa": 7261,
      "zed": 7262,
      "ĠáĬ¥áĪŃáĪ±": 7263,
      "hip": 7264,
      "áĪ«áĪª": 7265,
      "Ġzar": 7266,
      "Ġáĭ¨áĪļáī£áĪį": 7267,
      "ĠáĮĪáĬķáĭĺáī¥": 7268,
      "oko": 7269,
      "Ġmpaka": 7270,
      "áĪįáĪĿáĬĵ": 7271,
      "Ġhalin": 7272,
      "ĠÃłá¹£Ãł": 7273,
      "Ġind": 7274,
      "áĭļáĭ«áĬķ": 7275,
      "rÃŃwÃ¡": 7276,
      "ouest": 7277,
      "Ġsoit": 7278,
      "hamia": 7279,
      "wamna": 7280,
      "Ġtsara": 7281,
      "áĪĽáĭŃáĪµáĮ¥": 7282,
      "esh": 7283,
      "áĭ«áīµ": 7284,
      "Ġlead": 7285,
      "áĮ¨áīµ": 7286,
      "Ġhalit": 7287,
      "She": 7288,
      "ning": 7289,
      "inc": 7290,
      "elf": 7291,
      "Ġmajor": 7292,
      "ĠáĭµáĬķáĮĭáĭŃ": 7293,
      "áīħáĭ«áĬĸáĪµ": 7294,
      "BÃŃ": 7295,
      "ĠdÃ¬": 7296,
      "ĠEr": 7297,
      "ivyo": 7298,
      "Ġsoja": 7299,
      "Ġkabla": 7300,
      "viron": 7301,
      "ĠAsiya": 7302,
      "kÃ©": 7303,
      "Ġkur": 7304,
      "Ġnational": 7305,
      "áĮ¥áĪ¨áīµ": 7306,
      "Ġtour": 7307,
      "Ġáĭ°áĮĭ": 7308,
      "áį²áį±áį»áį¶áį": 7309,
      "ĠTuranci": 7310,
      "Ġkuf": 7311,
      "áī£áī±": 7312,
      "áĭĿáĬĵ": 7313,
      "Ġthere": 7314,
      "ĠáĪķáĭŃáĭĪáīµ": 7315,
      "ĠáĪļáĬĴáĪµáī´": 7316,
      "ĠHars": 7317,
      "Ġneno": 7318,
      "emu": 7319,
      "Ãªte": 7320,
      "ĠProg": 7321,
      "Ġmakabila": 7322,
      "ĠGood": 7323,
      "93": 7324,
      "iques": 7325,
      "wor": 7326,
      "unar": 7327,
      "ĠLatin": 7328,
      "áĭĭáĪŃáĭ«": 7329,
      "akana": 7330,
      "face": 7331,
      "Ġwould": 7332,
      "áĮĲ": 7333,
      "Ġlissa": 7334,
      "áĪ¬áĬķ": 7335,
      "Ġshawara": 7336,
      "ĠAlexander": 7337,
      "Ġáĭ¨áįĸáĪĪáī²áĬ«": 7338,
      "oun": 7339,
      "áĪĿáĪĮ": 7340,
      "áĪĪáĪ°": 7341,
      "áĪ¯áĪį": 7342,
      "Ġband": 7343,
      "baki": 7344,
      "Ġnigba": 7345,
      "ĠáĭŃáįĪ": 7346,
      "Ġeto": 7347,
      "Ġcontre": 7348,
      "kÃ¡láº¹": 7349,
      "Wakristo": 7350,
      "ĠAz": 7351,
      "ĠWah": 7352,
      "ĠáĪĺáī¥áīµ": 7353,
      "ĠEli": 7354,
      "ĠVictor": 7355,
      "Ġquel": 7356,
      "97": 7357,
      "Akwai": 7358,
      "hab": 7359,
      "Ġnation": 7360,
      "áĭ°áĮĪ": 7361,
      "Ġtawa": 7362,
      "Ġkasuwa": 7363,
      "Ġamince": 7364,
      "Ġ35": 7365,
      "áĬĶáīµ": 7366,
      "Ġmany": 7367,
      "ues": 7368,
      "||": 7369,
      "ĠáĮĵ": 7370,
      "Ġweb": 7371,
      "áĮĭáĪª": 7372,
      "Ġmanu": 7373,
      "04": 7374,
      "kara": 7375,
      "yr": 7376,
      "wal": 7377,
      "Ġfasaha": 7378,
      "ĠKK": 7379,
      "die": 7380,
      "ĠDara": 7381,
      "ĠMac": 7382,
      "2012": 7383,
      "Î¹": 7384,
      "Ġcult": 7385,
      "áĭ°áī¡áī¥": 7386,
      "áī²áīµ": 7387,
      "olin": 7388,
      "obe": 7389,
      "yle": 7390,
      "Ġtri": 7391,
      "Ġcro": 7392,
      "Ġiá¹£": 7393,
      "ĠOá¹£u": 7394,
      "á¹£irÃŃ": 7395,
      "rain": 7396,
      "Ġmasarautar": 7397,
      "áĪµáĪ«áĬ¤áĪį": 7398,
      "ĠáĭŃáī½áĪĭáĪī": 7399,
      "Ġpolitique": 7400,
      "Ġmahaifiyar": 7401,
      "áĭįáĬĵ": 7402,
      "Ġorgan": 7403,
      "ĠáĪµáī´": 7404,
      "ĠáįįáīħáĪŃ": 7405,
      "Ġtuntun": 7406,
      "Ġbecame": 7407,
      "br": 7408,
      "elli": 7409,
      "enegal": 7410,
      "Ġáĭ¨áĬĲáīłáĪ©": 7411,
      "1998": 7412,
      "Ġaká»įrin": 7413,
      "Ġá¹£ÃŃá¹£e": 7414,
      "Ġauri": 7415,
      "abwe": 7416,
      "âĢĶ": 7417,
      "depend": 7418,
      "Ġáīłáī°áĪĪáĭ«áĭ©": 7419,
      "Ġarewacin": 7420,
      "ĠMand": 7421,
      "áĪĬáĪµ": 7422,
      "ĠáīłáĬłáĭ²áĪµ": 7423,
      "ĠáĪķáĮį": 7424,
      "Ġclass": 7425,
      "kn": 7426,
      "zuri": 7427,
      "Ġaye": 7428,
      "áĪ«áĬĴ": 7429,
      "ĠCam": 7430,
      "dian": 7431,
      "quement": 7432,
      "Ġsuc": 7433,
      "istry": 7434,
      "87": 7435,
      "Ġngu": 7436,
      "asayansi": 7437,
      "lement": 7438,
      "ĠPri": 7439,
      "áĭ¨áĪµ": 7440,
      "Ġá»įwá»į": 7441,
      "hampion": 7442,
      "Ġgano": 7443,
      "ĠKur": 7444,
      "olf": 7445,
      "chni": 7446,
      "pagn": 7447,
      "ohann": 7448,
      "Ġfiye": 7449,
      "áĬ¨áī°áĪį": 7450,
      "ĠHanyoyin": 7451,
      "Ġcikak": 7452,
      "of": 7453,
      "otball": 7454,
      "Ġmatan": 7455,
      "ĠáĬłáĪįáįĭ": 7456,
      "Ġdisc": 7457,
      "ĠáĮłáĪĭ": 7458,
      "nyÃŃ": 7459,
      "Ġnit": 7460,
      "ĠMul": 7461,
      "Ã¬lÃº": 7462,
      "ĠDuba": 7463,
      "kejÃ¬": 7464,
      "Ġáī¤áī°áĬŃáĪŃáĪµáī²áĭ«áĬķ": 7465,
      "Ġciv": 7466,
      "áĬĲáĪµ": 7467,
      "áĭ¨áĬ¢áīµáĭ®áĮµáĭ«": 7468,
      "áĪĺáĪĪáĪµ": 7469,
      "áĬĲáĭĵáĬķ": 7470,
      "áįįáī°áĬĽ": 7471,
      "ĠHai": 7472,
      "2019": 7473,
      "ĠAnambra": 7474,
      "lahi": 7475,
      "áī¡áĪŃ": 7476,
      "ĠáīłáĭĵáĪĪáĪĿ": 7477,
      "Re": 7478,
      "ĠáĬĶ": 7479,
      "ĠApp": 7480,
      "ĠáīłáĭļáĪģ": 7481,
      "Ġruk": 7482,
      "Ġáĭ¨áī°áīĢ": 7483,
      "finan": 7484,
      "ĠáĬłáĬķáĭ°": 7485,
      "jenga": 7486,
      "ĠáįĬáĭ°": 7487,
      "ĠolÃ¹darÃŃ": 7488,
      "Ġast": 7489,
      "Ġáĭ¨áĭķ": 7490,
      "ĠáīłáĪĺáĪµ": 7491,
      "mark": 7492,
      "áĬ«áĭµ": 7493,
      "áĮĭáĭŃ": 7494,
      "oud": 7495,
      "ĠáīłáĪĺáĮ¨áĪ¨áĪ»": 7496,
      "áĪ®áĪŀ": 7497,
      "unawa": 7498,
      "Ġáĭ¨áĬłáĪŃ": 7499,
      "ĠáīłáĬłáĪľáĪªáĬ«": 7500,
      "áīĢáĪĿ": 7501,
      "ĠFestival": 7502,
      "ÆĻo": 7503,
      "áĭĵáĪĪáĪĿ": 7504,
      "Ġ1946": 7505,
      "ĠolÃ¹ká»į": 7506,
      "Ġmshairi": 7507,
      "Ġmakubwa": 7508,
      "Ġbincike": 7509,
      "ĠbÃłbÃ¡": 7510,
      "rich": 7511,
      "attle": 7512,
      "áį²áį±áį»áį·áį": 7513,
      "ĠAngel": 7514,
      "ÑĢ": 7515,
      "ĠáīłáĬŃ": 7516,
      "ĠJa": 7517,
      "áĭĿáī¡": 7518,
      "áĭ®áīµ": 7519,
      "ĠáĬ¢áĭ¨áĪ±áĪµ": 7520,
      "ĠáĪªáįĲáī¥áĪĬáĬŃ": 7521,
      "ray": 7522,
      "Ġáĭ¨áĮ¦áĪŃ": 7523,
      "ĠSil": 7524,
      "Ġáĭ¨áĪ¶": 7525,
      "utes": 7526,
      "cil": 7527,
      "site": 7528,
      "Ġaff": 7529,
      "Ġpass": 7530,
      "Ìģ-": 7531,
      "áī°áĬŀáī½": 7532,
      "Ġmain": 7533,
      "áĪ®áĬķ": 7534,
      "ĠáįĬáĪį": 7535,
      "Ġpataki": 7536,
      "ĠáĭĪáĭĺáī°": 7537,
      "Shi": 7538,
      "zikin": 7539,
      "áĪħáĪŃ": 7540,
      "Ġáĭ°áĪŃ": 7541,
      "Ġwasanni": 7542,
      "Ġkarshen": 7543,
      "ĠYammacin": 7544,
      "arabci": 7545,
      "ĠMet": 7546,
      "ĠNg": 7547,
      "ĠPan": 7548,
      "ĠFasaha": 7549,
      "áĭĪáĬķ": 7550,
      "adun": 7551,
      "ctor": 7552,
      "andard": 7553,
      "ĠDin": 7554,
      "ĠáĬ¥áĬķáĬ³áĬķ": 7555,
      "ĠáĪħáĮį": 7556,
      "ĠáĮīáĪį": 7557,
      "à¥": 7558,
      "áĭįáĪµ": 7559,
      "áĪĺáĬĵáĪį": 7560,
      "áīħáĪį": 7561,
      "áĪłáī¥": 7562,
      "áĪ¦": 7563,
      "ĠLeague": 7564,
      "ĠáĬłáĪĭáī¸áĭį": 7565,
      "Ġáĭ¨áĪĪáĭįáĪĿ": 7566,
      "Ġpub": 7567,
      "áĪ³áī¸áĭįáĬķ": 7568,
      "Ġtransl": 7569,
      "Ġjimillar": 7570,
      "ĠÃº": 7571,
      "ĠKab": 7572,
      "áĬ«áīµ": 7573,
      "ophi": 7574,
      "Ġáĭ°áī¥áĪ¨": 7575,
      "imbabwe": 7576,
      "mir": 7577,
      "zani": 7578,
      "ĠáĬ¥áĮ½áĭĭáīµ": 7579,
      "rÃ©s": 7580,
      "exp": 7581,
      "ĠFrank": 7582,
      "áįĵáĬķáĬĽ": 7583,
      "áĭ°áĮĭ": 7584,
      "Ġ1939": 7585,
      "ĠTechn": 7586,
      "ĠJari": 7587,
      "ĠUnion": 7588,
      "áĮĪáĪĪáĮį": 7589,
      "Ġlib": 7590,
      "Ġgani": 7591,
      "inguis": 7592,
      "ĠáĬ¥áĬķáĭ°áĬĲáīłáĪŃ": 7593,
      "ĠáĬłáĪµáī°áĭĭ": 7594,
      "Is": 7595,
      "ÉĻ": 7596,
      "Ġmwezi": 7597,
      "Ġhalafu": 7598,
      "ĠSir": 7599,
      "áĭ³áĭĬ": 7600,
      "ĠRu": 7601,
      "ĠâĢİ": 7602,
      "ĠáīłáĪĺáĬķ": 7603,
      "ovuti": 7604,
      "ĠdÃ©but": 7605,
      "pewa": 7606,
      "ĠáĭŃáĮĪáĪĺ": 7607,
      "ĠKuma": 7608,
      "ĠfranÃ§aise": 7609,
      "ĠAsh": 7610,
      "Ġbaki": 7611,
      "ithi": 7612,
      "ĠKig": 7613,
      "ĠáīłáĪ±": 7614,
      "ĠPhili": 7615,
      "ĠáĪĬáīĥáĭįáĬķáīµ": 7616,
      "AF": 7617,
      "ĠáĮ»": 7618,
      "ĠNd": 7619,
      "ĠOt": 7620,
      "ĠrÃ©fÃ©r": 7621,
      "Ġáĭ¨áįĪáĪ¨áĬķáĪ³áĭŃ": 7622,
      "amai": 7623,
      "ĠáĮįáĪ«": 7624,
      "NN": 7625,
      "ãĤ": 7626,
      "atsayin": 7627,
      "ĠÆĻa": 7628,
      "áĭ©áīµ": 7629,
      "ĠkÃºrÃ²": 7630,
      "ĠáĪĺáĭĭáĭķáĪį": 7631,
      "Ġáĭ¨áī°áĬĲáĪ³": 7632,
      "ĠáĭĺáĪĺáī»": 7633,
      "Ġparticuli": 7634,
      "lov": 7635,
      "inter": 7636,
      "ĠSol": 7637,
      "ĠShek": 7638,
      "ĠDay": 7639,
      "ĠJu": 7640,
      "ĠRom": 7641,
      "ĠáĪ¥áĪŃáĭĵáīµ": 7642,
      "ÏĤ": 7643,
      "áĪŀáĬķ": 7644,
      "Ġleurs": 7645,
      "ides": 7646,
      "ĠÃ©le": 7647,
      "Ã¡nÃ¬": 7648,
      "Ġhizo": 7649,
      "gemea": 7650,
      "á¹£irÃŃá¹£i": 7651,
      "omm": 7652,
      "ĠTarayya": 7653,
      "Ġcho": 7654,
      "ĠáīłáĪ³": 7655,
      "sili": 7656,
      "ston": 7657,
      "ardin": 7658,
      "ĠChristian": 7659,
      "áĪ´áīµ": 7660,
      "Ġ1949": 7661,
      "ĠáīłáĪ°áĪľáĬķ": 7662,
      "Ġuse": 7663,
      "ĠsÃ¬n": 7664,
      "ĠMala": 7665,
      "abili": 7666,
      "ĠLÃ¡": 7667,
      "ĠHam": 7668,
      "Ġaro": 7669,
      "ĠPremi": 7670,
      "Ġmort": 7671,
      "Ġbata": 7672,
      "ĠGi": 7673,
      "ual": 7674,
      "osp": 7675,
      "áĭĽáĪį": 7676,
      "Ġshugabar": 7677,
      "ĠáīłáĪĮáĪĭ": 7678,
      "ĠSatumba": 7679,
      "ĠHouse": 7680,
      "Ġcelui": 7681,
      "ĠMiss": 7682,
      "Ġipinle": 7683,
      "ogi": 7684,
      "áĭ¢": 7685,
      "ĠáĬĲáī½": 7686,
      "ĠáĮ¥áĭ«áīĦ": 7687,
      "ĠMartin": 7688,
      "Ġfonction": 7689,
      "ĠSahara": 7690,
      "SO": 7691,
      "xt": 7692,
      "Ġáĭ¨áįĭ": 7693,
      "Ġdasu": 7694,
      "Ġdauke": 7695,
      "ĠOli": 7696,
      "Ġtous": 7697,
      "Ġori": 7698,
      "Ġ''": 7699,
      "2000": 7700,
      "áĪķáĪį": 7701,
      "Ġ80": 7702,
      "58": 7703,
      "500": 7704,
      "Ġoun": 7705,
      "Ġkuji": 7706,
      "eto": 7707,
      "umika": 7708,
      "ĠáĮįáĪªáĬŃ": 7709,
      "kÃ³so": 7710,
      "Ġambazo": 7711,
      "Ġkuliko": 7712,
      "irs": 7713,
      "Ġworld": 7714,
      "Ġhaya": 7715,
      "ĠPeter": 7716,
      "ĠáĭŃáĮĪáĪĺáī³áĪį": 7717,
      "AM": 7718,
      "enga": 7719,
      "ection": 7720,
      "Ġ36": 7721,
      "Ġ70": 7722,
      "Ġcommer": 7723,
      "ĠáĬłáĭįáĪ®áįĵ": 7724,
      "ĠMb": 7725,
      "áī°áĭ³": 7726,
      "jiji": 7727,
      "áĮįáĪ©": 7728,
      "ĠáĪ¥áĪįáĮ£áĬķ": 7729,
      "uvent": 7730,
      "ussia": 7731,
      "Ġáĭĳ": 7732,
      "Ġkakar": 7733,
      "Ġáĭ¨áĬķ": 7734,
      "áĭŃáīħ": 7735,
      "Ã¡jÃº": 7736,
      "ĠIra": 7737,
      "Ġáī°áĪĽáĪª": 7738,
      "ĠáĬłáĪ¥": 7739,
      "cept": 7740,
      "Ġcewar": 7741,
      "Ġmatakin": 7742,
      "Ġpeu": 7743,
      "anguage": 7744,
      "ĠolÃ³rÃŃ": 7745,
      "uwancin": 7746,
      "Ġgabashin": 7747,
      "ĠKamusi": 7748,
      "ĠShehu": 7749,
      "ĠÆ´ar": 7750,
      "Ġtakarar": 7751,
      "Mas": 7752,
      "gari": 7753,
      "Ïģ": 7754,
      "Ġmamaye": 7755,
      "Ġika": 7756,
      "áĬĹáĪį": 7757,
      "Ġselon": 7758,
      "áĭŃáĪŃáĪĭáĬķáĭµ": 7759,
      "áĬ¨áĪ°": 7760,
      "áĪĬáĪĿ": 7761,
      "ĠáĬłáĪįáįİ": 7762,
      "ĠBirnin": 7763,
      "ĠFrancis": 7764,
      "ĠTrans": 7765,
      "ĠáĪĺáĬĲáĪ»": 7766,
      "ĠáĪĺáĪ£áĪªáĭ«": 7767,
      "áĭįáĪį": 7768,
      "andika": 7769,
      "ĠáĪµáī¥": 7770,
      "Ġsaka": 7771,
      "akazi": 7772,
      "Mut": 7773,
      "Ġmit": 7774,
      "ession": 7775,
      "orig": 7776,
      "papa": 7777,
      "ĠáĬĲáīłáĪ¨áī½": 7778,
      "html": 7779,
      "bÃ³": 7780,
      "aid": 7781,
      "áīħáĭ±áĪµ": 7782,
      "angaza": 7783,
      "ĠáĪĿáĬŃáĪŃ": 7784,
      "Bisa": 7785,
      "Ġcre": 7786,
      "Ġáĭ¨áĬłáĪĪáĪĿ": 7787,
      "ĠáīħáĬĿ": 7788,
      "limia": 7789,
      "Ġinflu": 7790,
      "83": 7791,
      "ĠMc": 7792,
      "embo": 7793,
      "áīłáĪ»": 7794,
      "ĠYesu": 7795,
      "Ġuwan": 7796,
      "Ġwatumwa": 7797,
      "Ġ1955": 7798,
      "Ġhivi": 7799,
      "Ġkutumia": 7800,
      "ĠÃłÃ¬sÃłn": 7801,
      "ĠáĪµáī¥áĪµáī¥": 7802,
      "ĠWaislamu": 7803,
      "]]": 7804,
      "anc": 7805,
      "Ġlater": 7806,
      "etu": 7807,
      "chÃ©": 7808,
      "Ġáĭ¨áī°áĭĪáĪ°": 7809,
      "conom": 7810,
      "ĠCalifor": 7811,
      "ĠáĭĪáĭ²áĭ«": 7812,
      "Ġáī°áīĢáĪĿ": 7813,
      "Rayuwar": 7814,
      "gro": 7815,
      "ĠWashington": 7816,
      "ieux": 7817,
      "áĪ£áĭŃ": 7818,
      "ultani": 7819,
      "Ġáī°áĭĪáĪĪáĭ°": 7820,
      "wÃłÃ¡": 7821,
      "ĠMwaka": 7822,
      "rey": 7823,
      "Ġterme": 7824,
      "arufu": 7825,
      "gr": 7826,
      "onom": 7827,
      "ĠGud": 7828,
      "ĠAmani": 7829,
      "mb": 7830,
      "áĭ°áĬķáīµ": 7831,
      "ĠGida": 7832,
      "áĭĽáĪĿ": 7833,
      "áĭķáīĨ": 7834,
      "lÃ©e": 7835,
      "áī®": 7836,
      "Ġdauki": 7837,
      "Ġhistori": 7838,
      "áĭ°áĪŃáĮī": 7839,
      "Ġjumla": 7840,
      "ĠáĪĺáī³": 7841,
      "áįĪáĪ«": 7842,
      "Ġsuite": 7843,
      "Ġaddini": 7844,
      "áī¥áĪ¨áī°": 7845,
      "Ġ(,": 7846,
      "Ġhayo": 7847,
      "Ġkuta": 7848,
      "Ġáĭ«áĭ°áĪŃ": 7849,
      "antiki": 7850,
      "ĠÃ²kÃ¨": 7851,
      "ominira": 7852,
      "à¤ĺ": 7853,
      "ĠirÃº": 7854,
      "ĠEmpire": 7855,
      "ĠFal": 7856,
      "áĮĮáĪį": 7857,
      "ĠáĬ¨áĬłáĬķáĭµ": 7858,
      "ĠáĭŃáī³áĪĺáĬĵáĪį": 7859,
      "mÃ¡": 7860,
      "Ùĳ": 7861,
      "kewa": 7862,
      "ĠAlf": 7863,
      "áĪµáī°áĬĽáĭį": 7864,
      "Ã´te": 7865,
      "ĠÃ©crit": 7866,
      "ĠáĪĺáīĢáĪĺáĮ«": 7867,
      "ĠWo": 7868,
      "ĠDut": 7869,
      "áĪĭáĮħ": 7870,
      "Ġkowane": 7871,
      "Ġaskofu": 7872,
      "Ġgroupe": 7873,
      "Ġmengi": 7874,
      "wikipedia": 7875,
      "áĪĪáĪµ": 7876,
      "urar": 7877,
      "áĪ³áĪĮáĪĿ": 7878,
      "ensis": 7879,
      "áĪŃáīµáĪ«": 7880,
      "Ġdare": 7881,
      "áĪ¨áī°": 7882,
      "áĪĽáĪ¨": 7883,
      "áĭ³áīµ": 7884,
      "ĠdÃ©si": 7885,
      "ĠáĮ¨áĭĭ": 7886,
      "ĠGreg": 7887,
      "Ġwit": 7888,
      "Ġáī°áĮĪáĬĿ": 7889,
      "ĠáĪĺáĬķáĮĪ": 7890,
      "Iá¹£áº¹": 7891,
      "pande": 7892,
      "áĬķáĮĢ": 7893,
      "ĠÃĮlÃº": 7894,
      "rican": 7895,
      "Ġ90": 7896,
      "ĠáĪµáĪĿáĪĿáĬĲáīµ": 7897,
      "ĠáĪ½áĪį": 7898,
      "chukua": 7899,
      "ĠáĭĬ": 7900,
      "ined": 7901,
      "ensa": 7902,
      "Ġjap": 7903,
      "dua": 7904,
      "ĠáĪĺáĬķáĮįáĪµ": 7905,
      "Ġyarjejen": 7906,
      "ĠMohammed": 7907,
      "Ġfamilia": 7908,
      "áī¿": 7909,
      "Ġmani": 7910,
      "Ġ400": 7911,
      "áĪ£áĪ¥": 7912,
      "áįİáĪŃ": 7913,
      "Ġcertain": 7914,
      "Ġáĭ¨áĬ¥áĬķáĮįáĪĬáĭĿ": 7915,
      "Ġfulani": 7916,
      "áīĢáĪµ": 7917,
      "áī¶áĭ¶": 7918,
      "team": 7919,
      "áĬķáĪ°": 7920,
      "áº¹ráº¹": 7921,
      "ĠÃłÃ¡": 7922,
      "áĪ©áĬŃ": 7923,
      "ster": 7924,
      "ĠMisri": 7925,
      "ĠJon": 7926,
      "ĠHenry": 7927,
      "eren": 7928,
      "áī£áī£": 7929,
      "hawa": 7930,
      "ĠáīłáĪ¶": 7931,
      "ÆĻe": 7932,
      "ĠAlhaji": 7933,
      "Ġthree": 7934,
      "Ġkamfan": 7935,
      "attun": 7936,
      "kiri": 7937,
      "á¹¢": 7938,
      "wahi": 7939,
      "áĪĪáĭ±": 7940,
      "ĠBern": 7941,
      "ands": 7942,
      "ĠáĪĽáĪ¨": 7943,
      "ĠáĪµáĪŃáĭĵáīµ": 7944,
      "Ġáī°áĮ«áĭĭ": 7945,
      "sÃ¡n": 7946,
      "waju": 7947,
      "Ġáĭ¨áĪ«": 7948,
      "Ġáĭ¨áĮİ": 7949,
      "áĮĪáĪ¨": 7950,
      "ĠÃłjáº¹sÃ¡ra": 7951,
      "áīłáĭ«": 7952,
      "Ġref": 7953,
      "VID": 7954,
      "1997": 7955,
      "áĪ¨áĮĭáĮĪ": 7956,
      "kw": 7957,
      "Ġdat": 7958,
      "Ġgouver": 7959,
      "áĪ«áĪŃ": 7960,
      "rÃ©e": 7961,
      "Ġáī°áĪ«áĪ®áī½": 7962,
      "áī§áĪį": 7963,
      "Nchi": 7964,
      "pal": 7965,
      "áīĢáĮ½": 7966,
      "áĭ¥áĬķ": 7967,
      "Ġkiran": 7968,
      "Ġrubutu": 7969,
      "ĠáĬłáĪµáįĪáĪĭáĮĬ": 7970,
      "ËĪ": 7971,
      "áĪĺáĪĿ": 7972,
      "áĮįáĪª": 7973,
      "Ã¬yÃłn": 7974,
      "ĠEdo": 7975,
      "onyesha": 7976,
      "ĠKejÃ¬": 7977,
      "ype": 7978,
      "Ð½": 7979,
      "ĠIya": 7980,
      "oule": 7981,
      "Ġáī£áĪħáĪį": 7982,
      "Äĵ": 7983,
      "Ġlanga": 7984,
      "Ġhuwa": 7985,
      "áī½áĬ¹": 7986,
      "ikh": 7987,
      "ĠáĬ¥áĬĵáīµ": 7988,
      "oton": 7989,
      "áĪģáįį": 7990,
      "tÃ©r": 7991,
      "ĠCommun": 7992,
      "áĬ¥áĬķáĭ²áĪģáĪĿ": 7993,
      "gement": 7994,
      "vement": 7995,
      "Ġmatasa": 7996,
      "ĠáĬķáĮ¥áĪ¨": 7997,
      "Ġyankunan": 7998,
      "ccen": 7999,
      "Ġmeji": 8000,
      "áĮĪáĬĻáīµ": 8001,
      "ĠFound": 8002,
      "Ġstruct": 8003,
      "ints": 8004,
      "áī¥áĪĭ": 8005,
      "ression": 8006,
      "»áįī": 8007,
      "ĠLaw": 8008,
      "ĠLife": 8009,
      "áĪŀáĬŃáĪ«áĪ²": 8010,
      "sta": 8011,
      "athan": 8012,
      "Ã¡lÃŃ": 8013,
      "ĠImo": 8014,
      "saka": 8015,
      "áįĭáĬķ": 8016,
      "Hivyo": 8017,
      "ĠspÃ©": 8018,
      "Ġáĭ¨áĭļáĪħ": 8019,
      "itÃ¬": 8020,
      "ĠáīłáĮ¥áĬķáī³áĭĬ": 8021,
      "uruki": 8022,
      "áĬŃáĬĸ": 8023,
      "ĠáĪ°áĪĽ": 8024,
      "ÃŃnÃº": 8025,
      "fany": 8026,
      "ĠolÃ³gun": 8027,
      "Ġikan": 8028,
      "ĠGroup": 8029,
      "vant": 8030,
      "ĠBayan": 8031,
      "ĠÆĻir": 8032,
      "irobi": 8033,
      "ĠáīłáĪĪ": 8034,
      "áįįáī°": 8035,
      "áĮĭáĬķ": 8036,
      "ĠAnt": 8037,
      "lisha": 8038,
      "áĬķáĮīáĪł": 8039,
      "nÃ©": 8040,
      "Ġáī«": 8041,
      "Kam": 8042,
      "Niger": 8043,
      "gwa": 8044,
      "enza": 8045,
      "ĠáĬłáĭĪ": 8046,
      "áĭĭáī¸áĭį": 8047,
      "ĠáĭµáĬķáĮįáĪį": 8048,
      "Ġulio": 8049,
      "áĬĺáĭį": 8050,
      "ĠRadio": 8051,
      "Ġáīłáī³áĪªáĬŃ": 8052,
      "Ġcalled": 8053,
      "Ġsite": 8054,
      "Ġáĭ¨áī´": 8055,
      "ĠDam": 8056,
      "ĠGra": 8057,
      "rag": 8058,
      "Ġáĭ¨áĪļáĬĸáĪŃ": 8059,
      "Ġáĭ¨áī°áĭĪáĪĪ": 8060,
      "ĠáĪļáĪµáīµ": 8061,
      "ĠJohnson": 8062,
      "Ġtrava": 8063,
      "ĠáĭįáĮ¤áīµ": 8064,
      "Ġáī¬": 8065,
      "ĠAcc": 8066,
      "ĠJapon": 8067,
      "Ġcigaba": 8068,
      "fai": 8069,
      "ĠKari": 8070,
      "Ġwi": 8071,
      "ĠáĭĪáĮĪ": 8072,
      "Ġáĭ¨áĪļáī£áĪĪáĭį": 8073,
      "áĬ¥áĬĶ": 8074,
      "81": 8075,
      "ĠYou": 8076,
      "ĠáĪ°áįĬ": 8077,
      "ĠArgent": 8078,
      "áĭ°áĪ¨áĮį": 8079,
      "Ġtáº¹li": 8080,
      "wÃ¹já»į": 8081,
      "ĠpÃ©riode": 8082,
      "IC": 8083,
      "kata": 8084,
      "pha": 8085,
      "Ġáĭī": 8086,
      "ĠAu": 8087,
      "Ġáĭ¨áĪ©": 8088,
      "umin": 8089,
      "áĬłáĪŃ": 8090,
      "III": 8091,
      "ĠSenegal": 8092,
      "áĬ«áĪ«": 8093,
      "ĠáĪ°áĭĵáīµ": 8094,
      "áĬħáĪ£áĪ¥": 8095,
      "ĠáĭŀáĬķ": 8096,
      "bal": 8097,
      "wÃº": 8098,
      "áī¥áī»": 8099,
      "entes": 8100,
      "áĬ¨áĪĿ": 8101,
      "ĠJanar": 8102,
      "entifi": 8103,
      "ulaire": 8104,
      "áĪŁáĪį": 8105,
      "ĠÃºn": 8106,
      "Ġsayensi": 8107,
      "ĠMs": 8108,
      "Ġtaifa": 8109,
      "ĠbÃŃbÃŃ": 8110,
      "Ġmakao": 8111,
      "ĠsystÃ¨me": 8112,
      "ĠBiblia": 8113,
      "Ġtir": 8114,
      "ĠáĭŃáĬĸ": 8115,
      "ypti": 8116,
      "Ġmor": 8117,
      "áĪĪáĭµ": 8118,
      "áĭµáĪį": 8119,
      "áĭĺáĪŃ": 8120,
      "1999": 8121,
      "ĠAmerica": 8122,
      "vy": 8123,
      "áĪµáĮ¡": 8124,
      "áĮłáĪ«áĪį": 8125,
      "Orodha": 8126,
      "xford": 8127,
      "Ġuko": 8128,
      "Ġtashi": 8129,
      "Ġmv": 8130,
      "Ġlat": 8131,
      "Ġcelle": 8132,
      "Ġá»įgá»į": 8133,
      "áīĥáīµ": 8134,
      "Ġcoun": 8135,
      "Ġdigirin": 8136,
      "Ġtashar": 8137,
      "Ġáĭ¶áĪ®": 8138,
      "ĠÃ¬dÃŃje": 8139,
      "Ġmusulunci": 8140,
      "Ġoluilu": 8141,
      "Ġnumber": 8142,
      "Ġkwallaye": 8143,
      "ilÃ©": 8144,
      "áĬĽáĭįáĬķ": 8145,
      "Ġáĭ«áĪµáī°": 8146,
      "áĭ²áīµ": 8147,
      "áĪłáĪ©": 8148,
      "Bi": 8149,
      "áĮĪáĭĽ": 8150,
      "áĮĥáĪĿ": 8151,
      "ĠáĬłáĪįáįĭáī¤áīµ": 8152,
      "52": 8153,
      "áĪµáī²": 8154,
      "ĠGombe": 8155,
      "áĪģáĪĪáīµ": 8156,
      "udies": 8157,
      "ĠâĢ¹âĢ¹": 8158,
      "yÃ¬ÃŃ": 8159,
      "Ġ$": 8160,
      "ĠPÃ³": 8161,
      "áįįáĪ¬": 8162,
      "ĠOko": 8163,
      "bio": 8164,
      "ovi": 8165,
      "ĠáĪĨáĭŃ": 8166,
      "AL": 8167,
      "pond": 8168,
      "Ġfal": 8169,
      "iaf": 8170,
      "ĠÆĻwararr": 8171,
      "wever": 8172,
      "Ġdangin": 8173,
      "Ġjagoranci": 8174,
      "ace": 8175,
      "kya": 8176,
      "Ġáĭ¨áī±": 8177,
      "Ġhor": 8178,
      "ĠáĪįáĬŃ": 8179,
      "ovu": 8180,
      "ĠáĬ¥áĪµáĭ«": 8181,
      "Ġáĭ¨áĬłáĬķáĭµ": 8182,
      "Ã´le": 8183,
      "áīłáī°áĮ¨áĪĽáĪª": 8184,
      "gua": 8185,
      "áĮįáĭµáĪĿ": 8186,
      "Ġ1918": 8187,
      "Ġmach": 8188,
      "áĪĬáīµ": 8189,
      "áĪ»áĪ»": 8190,
      "áī¤áĪį": 8191,
      "ĠChurch": 8192,
      "ĠWilliams": 8193,
      "Ġkitu": 8194,
      "áĭįáĪ®": 8195,
      "Ġkufuatana": 8196,
      "ĠÃłdÃºgbÃ²": 8197,
      "ĠDon": 8198,
      "ĠáĪ°áī¥": 8199,
      "Ġkiasi": 8200,
      "ĠBuhari": 8201,
      "ĠdÃºrÃ³": 8202,
      "Hasa": 8203,
      "¹áĪŃ": 8204,
      "Ø¹": 8205,
      "zz": 8206,
      "Ġkansu": 8207,
      "Ġáĭ¨áī»áĭŃáĬĵ": 8208,
      "Ġrest": 8209,
      "áīłáīł": 8210,
      "ÆĻar": 8211,
      "Ġáĭ¨áī°áĮĪáĬĺ": 8212,
      "chie": 8213,
      "áĭ©áĬĵáĭŃáīµáĭµ": 8214,
      "ĠáĭĭáĬķáĮ«": 8215,
      "abuwar": 8216,
      "Ġzamanta": 8217,
      "Ġfiramare": 8218,
      "Ġspeci": 8219,
      "Ġpin": 8220,
      "ĠáĪĺáīĢ": 8221,
      "ĠáĪĺáĪĨáĬķ": 8222,
      "Ġ1920": 8223,
      "udo": 8224,
      "ĠáĬłáĪµáī°áĪ³": 8225,
      "Ġmillion": 8226,
      "Ġmd": 8227,
      "ĠLo": 8228,
      "ĠÃ¬dÃŃlÃ©": 8229,
      "ĠmÃŃrÃłn": 8230,
      "ĠáĭįáĭµáĭµáĪŃ": 8231,
      "Waliofariki": 8232,
      "ĠáįĵáĪŃáī²áĭİáī½": 8233,
      "ĠKibantu": 8234,
      "ĠZe": 8235,
      "áĬķáĮįáĭµ": 8236,
      "Ġwaya": 8237,
      "Ġkudi": 8238,
      "ĠLit": 8239,
      "ĠFÃ¡": 8240,
      "ĠZimbabwe": 8241,
      "áĭ«áĭ«áĭ£": 8242,
      "inent": 8243,
      "diyo": 8244,
      "ĠáĪĿáĮįáī¥": 8245,
      "Ġhars": 8246,
      "Ġriga": 8247,
      "ĠJamhuriyar": 8248,
      "ĠDist": 8249,
      "Ġá»įpá»į": 8250,
      "ĠUS": 8251,
      "igu": 8252,
      "Ġbada": 8253,
      "ĠInternet": 8254,
      "Ġfiimu": 8255,
      "ĠKifaransa": 8256,
      "mÃ¬nira": 8257,
      "ydro": 8258,
      "ĠSociety": 8259,
      "ĠAtlantiki": 8260,
      "ĠAri": 8261,
      "ĠáīĢáĪ¨": 8262,
      "ĠÃ©lect": 8263,
      "áĮłáĪī": 8264,
      "kula": 8265,
      "Ġsanda": 8266,
      "ĠAbe": 8267,
      "ĠHindi": 8268,
      "Ġáĭ«áĪĭ": 8269,
      "ĠáĬŃáįįáĪĭáĮĪáĪ«áīµ": 8270,
      "Ùĥ": 8271,
      "áĮ§": 8272,
      "Ġtatta": 8273,
      "Ġhut": 8274,
      "áĪĭáĪĽáĭĬ": 8275,
      "ĠLar": 8276,
      "ĠáĮĭáĭľ": 8277,
      "ĠáĪ²áīĢáĪ©": 8278,
      "Ġshahararr": 8279,
      "lab": 8280,
      "pia": 8281,
      "Ġáī¥áĪĭ": 8282,
      "poli": 8283,
      "ĠáĬªáĬķáĮį": 8284,
      "Ġsing": 8285,
      "ĠMah": 8286,
      "position": 8287,
      "59": 8288,
      "amini": 8289,
      "Ġkida": 8290,
      "ĠáįĬáīµ": 8291,
      "áĪ«áĭĬáīµ": 8292,
      "cole": 8293,
      "82": 8294,
      "Ġáī°áĪ¸": 8295,
      "Ġáº¹ran": 8296,
      "endera": 8297,
      "engwa": 8298,
      "Ġakiwa": 8299,
      "usiness": 8300,
      "Tun": 8301,
      "Ġsashen": 8302,
      "ĠMara": 8303,
      "Ġgan": 8304,
      "Ġkalmar": 8305,
      "aikatar": 8306,
      "mw": 8307,
      "Ġtant": 8308,
      "tice": 8309,
      "ĠáĭĪáĪ°": 8310,
      "ugal": 8311,
      "áĪļáĬķ": 8312,
      "lot": 8313,
      "ĠáĪµáĪľáĬķ": 8314,
      "haria": 8315,
      "joko": 8316,
      "Ãªt": 8317,
      "ector": 8318,
      "ĠáĬ¢áīµáĭ®áĮµáĭ«áĭĬ": 8319,
      "Ġáī¥áĪŃáĪĥáĬķ": 8320,
      "ĠáĪĪáĭįáĮ¥": 8321,
      "UN": 8322,
      "patikana": 8323,
      "Ã£": 8324,
      "Ġkak": 8325,
      "ĠAkwa": 8326,
      "ĠJáº¹": 8327,
      "áĬ¥áĬĵ": 8328,
      "Ġáī£áĪĪáĭį": 8329,
      "ĠÃ²bÃŃ": 8330,
      "áĮ½áĪĲáįĪ": 8331,
      "Ġyaliyo": 8332,
      "firi": 8333,
      "fesa": 8334,
      "áī½áĪī": 8335,
      "ĠáĪĪáĬłáĪ": 8336,
      "ĠWag": 8337,
      "áīħáĪ¨áī¥": 8338,
      "pain": 8339,
      "Ġearly": 8340,
      "Ġamatsayin": 8341,
      "2001": 8342,
      "ticle": 8343,
      "Ġbude": 8344,
      "ĠOsun": 8345,
      "ĠáĬ¥áĬķáĪµáĪ³": 8346,
      "Ġmade": 8347,
      "Ġule": 8348,
      "ĠAngola": 8349,
      "Ġfai": 8350,
      "ĠÃ¬bÃ¡": 8351,
      "Ġchama": 8352,
      "ĠConst": 8353,
      "Ġnombreux": 8354,
      "ĠWatakatifu": 8355,
      "ĠSecond": 8356,
      "enu": 8357,
      "kasa": 8358,
      "ĠIgb": 8359,
      "Ġval": 8360,
      "ĠáĬ¥áĬķáĭ°áĪļáĭ«": 8361,
      "Ġikon": 8362,
      "ĠáĭĪáĪ¨áĪ«": 8363,
      "ĠCOVID": 8364,
      "Ġbabu": 8365,
      "ĠMana": 8366,
      "ĠKol": 8367,
      "áĬĲáĪ±": 8368,
      "Ġwell": 8369,
      "imary": 8370,
      "Ġ1942": 8371,
      "ouvelle": 8372,
      "Ġáĭ¨áĮ¥áĬķ": 8373,
      "embe": 8374,
      "Ġtarayya": 8375,
      "Åĵuv": 8376,
      "IN": 8377,
      "ĠÙħ": 8378,
      "Ġsame": 8379,
      "Ġbun": 8380,
      "ĠIbi": 8381,
      "Ġyáº¹": 8382,
      "áĬĽáĪį": 8383,
      "ĠáĭŃáĬĲáĮĪ": 8384,
      "ĠHab": 8385,
      "Ġáĭ¨áĪļáĮł": 8386,
      "antun": 8387,
      "Ġpeup": 8388,
      "shinda": 8389,
      "Ġ1944": 8390,
      "Ġáĭ¨áĬ¥áĮįáĪŃ": 8391,
      "ĠáīłáĪļáĪį": 8392,
      "ĠsociÃ©tÃ©": 8393,
      "cident": 8394,
      "mas": 8395,
      "xes": 8396,
      "ØŃ": 8397,
      "Ġbase": 8398,
      "Ġfata": 8399,
      "ĠáĪµáī³": 8400,
      "cr": 8401,
      "áĬĢ": 8402,
      "áĬķáī°": 8403,
      "ĠStr": 8404,
      "ĠTri": 8405,
      "Ġáĭ«áĪīáīµ": 8406,
      "Ġáīµáĭķ": 8407,
      "yote": 8408,
      "Ġguerre": 8409,
      "áįĪáĪ¨": 8410,
      "Ġáĭ¨áĪļáĮĪáĬĺáĭį": 8411,
      "ĠáīłáĬłáĪĽáĪŃáĬĽ": 8412,
      "âĢºâĢº": 8413,
      "06": 8414,
      "54": 8415,
      "lar": 8416,
      "Ġdaular": 8417,
      "Ġfer": 8418,
      "Ġjan": 8419,
      "ĠáīĢáĭ°áĪĿ": 8420,
      "ĠrÃ©g": 8421,
      "Ġmuhimman": 8422,
      "jinta": 8423,
      "ĠáĮłáĬķ": 8424,
      "Pro": 8425,
      "bas": 8426,
      "ĠFer": 8427,
      "ĠáĬŃáī¥": 8428,
      "ource": 8429,
      "cep": 8430,
      "test": 8431,
      "Ġáĭ¨áĮįáī¥áĮ½": 8432,
      "Ġprom": 8433,
      "áĭ«áī°": 8434,
      "ĠSau": 8435,
      "áĭĺáĪĺáĬĲ": 8436,
      "Ġaá¹£o": 8437,
      "Ġwame": 8438,
      "áĭ«áī¸áĭį": 8439,
      "Ġkuzaliwa": 8440,
      "Ġnipasáº¹": 8441,
      "ĠWab": 8442,
      "ĠÃ¬yÃ¡": 8443,
      "endre": 8444,
      "Ġhuma": 8445,
      "Ġbeing": 8446,
      "icial": 8447,
      "ĠlÃ©g": 8448,
      "ĠdÃŃáº¹": 8449,
      "Ġtsib": 8450,
      "ĠáĭŃáĪįáīħ": 8451,
      "Ġáĭįáīħáĭ«áĬĸáĪµ": 8452,
      "ĠAnti": 8453,
      "Ġyarda": 8454,
      "Ġsarra": 8455,
      "car": 8456,
      "Ġkiya": 8457,
      "ĠSim": 8458,
      "ĠáĪĺáĭ°": 8459,
      "ĠRasha": 8460,
      "lav": 8461,
      "ĠáĪĽáĬŃ": 8462,
      "ĠáĬłáĪĿáĪµáīµ": 8463,
      "âĢİâĢİ": 8464,
      "Ġlarge": 8465,
      "ĠáĪ£": 8466,
      "áĪĿáĬķáīµ": 8467,
      "Ġáį³": 8468,
      "áĬ¨áĪ¨": 8469,
      "ules": 8470,
      "ĠYuli": 8471,
      "ĠáĮ¥áĪŃ": 8472,
      "ĠáĪĽáĪĪáīµáĪĿ": 8473,
      "áĬŃáĬĸáĪİáĮĤ": 8474,
      "ĠKÃ²": 8475,
      "Ġáĭ¨áĪļáī³": 8476,
      "ĠáĪĢáī¥": 8477,
      "New": 8478,
      "Ġjaponais": 8479,
      "mond": 8480,
      "Ġcrit": 8481,
      "ĠKid": 8482,
      "ĠFe": 8483,
      "ourd": 8484,
      "áĭ°áĪ¨áĪ°": 8485,
      "ĠáĪĺáĬ®áĬķáĬķ": 8486,
      "ciya": 8487,
      "gÃŃ": 8488,
      "áįĪáĪ©": 8489,
      "uge": 8490,
      "ĠáĪĪáĪĺáĮĢáĪĺáĪªáĭ«": 8491,
      "Ġtaimaka": 8492,
      "ĠáĪļáĬĴáĪµáī´áĪŃ": 8493,
      "84": 8494,
      "ĠMaur": 8495,
      "Ġkwana": 8496,
      "igawa": 8497,
      "áī¶áĭ¶áĬŃáĪµ": 8498,
      "áīµáĪį": 8499,
      "ĠáĬĲáĭįáį¢": 8500,
      "Ġl'": 8501,
      "Ìģn": 8502,
      "Ġd'": 8503,
      "Ġjáº¹Ìģ": 8504,
      "ĠáĪĿáĪ³áĪĮĠáĬĲáĭįáį¢": 8505,
      "ĠtÃŃĠÃ³": 8506,
      "Ġáĭ¨áĬłáĪĽáĪŃáĬĽĠáĪĿáĪ³áĪĮĠáĬĲáĭįáį¢": 8507,
      "ĠshekaraĠta": 8508,
      "ĠdeĠla": 8509,
      "Ġwá»įÌģn": 8510,
      "Ġráº¹ÌĢ": 8511,
      "ĠaĠcikin": 8512,
      "ĠofĠthe": 8513,
      "ĠáĬĲáīłáĪŃáį¢": 8514,
      ".áĪĿ": 8515,
      "Ġáĭ¨áĬłáĪĽáĪŃáĬĽĠáĪĿáĪ³áĪĮĠáĬĲáĭįáį¢ĠáīµáĪŃáĮīáĪĻ": 8516,
      "ĠdaĠkuma": 8517,
      "Ġáĭĵ.áĪĿ": 8518,
      "Ġáº¹ÌĢ": 8519,
      "áº¹ÌĢ": 8520,
      "Ġáī°áĪ¨áīµáĬĵĠáĪĿáĪ³áĪĮ": 8521,
      ".ĠItokasi": 8522,
      "'a": 8523,
      "Ġáĭĵ.áĪĿ.": 8524,
      "Ġá»įÌĢ": 8525,
      "ĠaĠmatsayin": 8526,
      "ká»įÌģ": 8527,
      ",Ġa": 8528,
      "ĠtareĠda": 8529,
      "ĠáĭĵáĬŃáĪįáīł.": 8530,
      "ĠdeĠl'": 8531,
      ",Ġda": 8532,
      "ĠaĠshekaraĠta": 8533,
      "Ġá»įjá»įÌģ": 8534,
      "á»įÌģ": 8535,
      "ĠTuzoĠya": 8536,
      "ÌĢ-Ã¨dÃ¨": 8537,
      "ĠtÃŃĠwá»įÌģn": 8538,
      "ĠTuzoĠyaĠNobel": 8539,
      "ĠTuzoĠyaĠNobelĠya": 8540,
      "Ġáĭ«áĪįáī°áī°áĪ¨áĮİáĪĺĠáĪĿáĪ³áĪĮ": 8541,
      "Ġáĭ¨áĬłáĪĽáĪŃáĬĽĠáĪĿáĪ³áĪĮĠáĬĲáĭįáį¢ĠáīµáĪŃáĮīáĪĻĠáĭ«áĪįáī°áī°áĪ¨áĮİáĪĺĠáĪĿáĪ³áĪĮ": 8542,
      "ĠaĠshekarar": 8543,
      "ĠmwakaĠwa": 8544,
      "/áĪĿ": 8545,
      "Ġáĭĵ/áĪĿ": 8546,
      ",Ġkuma": 8547,
      "BaadaĠya": 8548,
      "ĠwaĠTuzoĠyaĠNobelĠya": 8549,
      "ĠdagaĠcikin": 8550,
      "áº¹Ìģ": 8551,
      "á»įÌĢ": 8552,
      "láº¹ÌĢ": 8553,
      "ĠdaĠaka": 8554,
      "Ġiláº¹ÌĢ": 8555,
      "ĠinĠthe": 8556,
      ",Ġand": 8557,
      ",Ġta": 8558,
      "ĠgaĠwatan": 8559,
      ".áĬł": 8560,
      "ĠorÃŃláº¹ÌĢ-Ã¨dÃ¨": 8561,
      "-ede": 8562,
      ",000": 8563,
      "ĠtiĠo": 8564,
      "ĠmshindiĠwaĠTuzoĠyaĠNobelĠya": 8565,
      ",Ġwanda": 8566,
      "ĠshiĠne": 8567,
      "Ġáĭ¨áĬłáĪĽáĪŃáĬĽĠáĪĿáĪ³áĪĮĠáĬĲáĭįáį¢ĠáīµáĪŃáĮīáĪĻĠáĭ«áĪįáī°áī°áĪ¨áĮİáĪĺĠáĪĿáĪ³áĪĮĠáī°áĪ¨áīµáĬĵĠáĪĿáĪ³áĪĮ": 8568,
      "ĠdaĠke": 8569,
      "'ar": 8570,
      "Ġ(an": 8571,
      "waĠna": 8572,
      ",Ġle": 8573,
      "Ġ(anĠhaife": 8574,
      "ĠáĪĺáĭ°áī¥Ġ:": 8575,
      "MakalaĠhii": 8576,
      "MakalaĠhiiĠinahusu": 8577,
      "MakalaĠhiiĠinahusuĠmwaka": 8578,
      ".áĬ¤": 8579,
      ").ĠMatukio": 8580,
      ",ĠÃ³": 8581,
      "ĠÆĻwallonĠÆĻafa": 8582,
      "gáº¹Ìģ": 8583,
      "Ġorile-ede": 8584,
      "ĠKristo).ĠMatukio": 8585,
      "Ġ(BaadaĠya": 8586,
      "Ġ(BaadaĠyaĠKristo).ĠMatukio": 8587,
      ",Ġna": 8588,
      ".áĬł.": 8589,
      "ĠáĬĵáī¸áĭįáį¢": 8590,
      "Ġpáº¹ÌĢ": 8591,
      "ĠÃłĠla": 8592,
      ",ĠmshindiĠwaĠTuzoĠyaĠNobelĠya": 8593,
      "pá»įÌĢ": 8594,
      "ĠlâĢĻ": 8595,
      "ĠnaĠku": 8596,
      "ĠaĠranar": 8597,
      "Ġlá»įÌģ": 8598,
      "ĠdaĠta": 8599,
      ".ĠManazarta": 8600,
      "ráº¹ÌĢ": 8601,
      "ĠkatiĠya": 8602,
      "ĠÃĮpÃŃnláº¹ÌĢ": 8603,
      "ĠnÃŃĠá»įdÃºn": 8604,
      ",Ġthe": 8605,
      "Ġgáº¹Ìģ": 8606,
      ",Ġya": 8607,
      ".ĠItokasiĠÃĢwá»įn": 8608,
      ")Ġje": 8609,
      "Ġgáº¹Ìģgáº¹Ìģ": 8610,
      "ĠáĬ¥.áĬ¤": 8611,
      "áĪįáį¢": 8612,
      "s,": 8613,
      "Ġiá¹£áº¹Ìģ": 8614,
      "Ġpáº¹ÌĢlÃº": 8615,
      "ĠKarneĠya": 8616,
      "ĠwasanĠÆĻwallonĠÆĻafa": 8617,
      "áĪīáį¢": 8618,
      "Ġjama'a": 8619,
      "Ġ(BaadaĠyaĠKristo).ĠMatukioĠWaliozaliwa": 8620,
      "ĠAmáº¹Ìģ": 8621,
      "ĠáĪĺáĭ°áī¥Ġ:Ġáī°áĪ¨áīµáĬĵĠáĪĿáĪ³áĪĮ": 8622,
      "ĠAmáº¹ÌģrÃŃkÃł": 8623,
      "Ġ'yan": 8624,
      "ĠnaĠfarko": 8625,
      "Ġmáº¹Ìģ": 8626,
      ",Ġan": 8627,
      "ĠtaĠÆĻasar": 8628,
      "ĠÃłĠl'": 8629,
      "-áº¹ÌĢ": 8630,
      "ĠdaĠya": 8631,
      "ĠdaĠsuka": 8632,
      ",Ġet": 8633,
      ",Ġla": 8634,
      "ÌĢráº¹ÌĢ": 8635,
      ",ĠS": 8636,
      "Ġal'": 8637,
      "ÌģkasÃŃ": 8638,
      "ĠwasanĠÆĻwallonĠÆĻafaĠtaĠÆĻasar": 8639,
      "ĠtoĠthe": 8640,
      "s.": 8641,
      "ká»įÌĢ": 8642,
      "ĠáĬ¥.áĬ¤.áĬł.": 8643,
      "ĠkutokaĠMarekani": 8644,
      "Ġáĭĵ/áĪĿĠ-": 8645,
      "ĠaĠNajeriya": 8646,
      "Ġs'": 8647,
      "ĠbaĠda": 8648,
      "es,": 8649,
      ")Ġni": 8650,
      ",ĠB": 8651,
      ",Ġil": 8652,
      "ĠniĠÃ³": 8653,
      "ĠtanaĠda": 8654,
      "ĠpamojaĠna": 8655,
      ",ĠM": 8656,
      "Ġqu'": 8657,
      "áĭĭáĪįáį¢": 8658,
      ",ĠK": 8659,
      ")Ġ(": 8660,
      ",ĠO": 8661,
      "Ġ(anĠhaifeĠshi": 8662,
      "1-": 8663,
      "ĠneĠa": 8664,
      "ĠtÃŃĠa": 8665,
      "Ġá»ĮÌĢ": 8666,
      "ĠJami'ar": 8667,
      "jáº¹Ìģ": 8668,
      "wá»įÌģ": 8669,
      "rá»įÌĢ": 8670,
      ",Ġm": 8671,
      "anaĠna": 8672,
      "Ġ(S": 8673,
      ".ĠÃĢwá»įn": 8674,
      "Ġ(BaadaĠyaĠKristo).ĠMatukioĠWaliozaliwaĠWaliofariki": 8675,
      "ĠdâĢĻ": 8676,
      "Ġ(C": 8677,
      "Ġ(M": 8678,
      "Ìģká»įÌģ": 8679,
      "ĠtaĠyi": 8680,
      ".ĠA": 8681,
      "áĪĿáį¢": 8682,
      "AĠcikin": 8683,
      "ĠamfaniĠda": 8684,
      "ÌĢn": 8685,
      "ĠwasanĠÆĻwallonĠÆĻafaĠtaĠÆĻasarĠIngila": 8686,
      "Ġáº¹ÌĢká»įÌģ": 8687,
      "ĠáĬĲáīłáĪ¨áį¢": 8688,
      "Ġal-": 8689,
      ",ĠA": 8690,
      "ĠyaĠku": 8691,
      "ÌģyÃ¬n": 8692,
      "Ġá»įjá»įÌģÃ¬bÃŃ": 8693,
      "ĠitaĠce": 8694,
      "ĠwÃłĠnÃŃ": 8695,
      "ĠáĪĽáĪĪáīµĠáĬĲáĭįáį¢": 8696,
      "má»įÌĢ": 8697,
      "Ġne.": 8698,
      ",Ġinda": 8699,
      "ĠwandaĠya": 8700,
      "Ġgáº¹Ìģgáº¹ÌģĠbÃŃ": 8701,
      "áį¢Ġáīł": 8702,
      "Ġá»įjá»įÌģÃ¬bÃŃĠnÃŃ": 8703,
      ",Ġo": 8704,
      ",Ġles": 8705,
      "já»įÌģ": 8706,
      "Ìģáº¹ÌĢ": 8707,
      "ÌĢĠÃ¨dÃ¨": 8708,
      "Ġd'un": 8709,
      "Ġ(m": 8710,
      "ĠdansĠle": 8711,
      ",ĠC": 8712,
      "ĠdaĠake": 8713,
      "ĠyaĠkasance": 8714,
      "ĠvyaĠnje": 8715,
      "er,": 8716,
      "Ġáº¹gbáº¹Ìģ": 8717,
      "áī³áĪįáį¢": 8718,
      "Ġ(A": 8719,
      "ĠnchiĠya": 8720,
      "ĠNÃłÃ¬jÃŃrÃŃÃł.": 8721,
      "Ġmá»įÌģ": 8722,
      "o,": 8723,
      "rá»įÌģ": 8724,
      "ĠyaĠyi": 8725,
      "ĠgameĠda": 8726,
      "ĠyanaĠda": 8727,
      "Ġ(áĬ¨": 8728,
      "áį£Ġáīł": 8729,
      "ĠmkuuĠwa": 8730,
      ",ĠN": 8731,
      "'est": 8732,
      "edĠby": 8733,
      "Ġd'une": 8734,
      "ĠÃ¬pÃŃnláº¹ÌĢ": 8735,
      "Ġ(B": 8736,
      "ĠNajeriya.": 8737,
      "ĠandĠthe": 8738,
      "ĠaĠkan": 8739,
      ",ĠT": 8740,
      "ĠciĠgaba": 8741,
      "ĠupandeĠwa": 8742,
      "ĠkumaĠta": 8743,
      ",ĠD": 8744,
      "es.": 8745,
      "wa.": 8746,
      "'in": 8747,
      "arĠda": 8748,
      "ĠsamarĠda": 8749,
      "ĠniĠwá»įÌģn": 8750,
      ",Ġen": 8751,
      ")Ġalikuwa": 8752,
      "ziĠwa": 8753,
      "Ġ|ĠRD": 8754,
      "Ġlá»įĠsÃŃ": 8755,
      "ĠaĠjihar": 8756,
      ",ĠI": 8757,
      "áĪĪáī½áį¢": 8758,
      "ĠáĬŃáįįáĪĪĠáĭĺáĪĺáĬķ": 8759,
      ",ĠdaĠkuma": 8760,
      "Ìģrá»įÌģ": 8761,
      "-áº¹ÌĢká»įÌģ": 8762,
      "ĠniĠa": 8763,
      "Ìģrá»įÌģÃ¬dÃ¬": 8764,
      "ĠNijeriya.": 8765,
      "ĠáĬĲáīłáĪ©áį¢": 8766,
      "Ġ(anĠhaifeĠshiĠaĠshekaraĠta": 8767,
      "ĠÃ¡stáº¹Ìģrá»įÌģÃ¬dÃ¬": 8768,
      "lá»įÌģ": 8769,
      ")Ġjáº¹Ìģ": 8770,
      "fáº¹Ìģ": 8771,
      "Ġma'": 8772,
      "ĠhadaĠda": 8773,
      "áį£Ġáĭ¨": 8774,
      "ĠkumaĠya": 8775,
      "Ġ(18": 8776,
      "ĠnÃŃĠibi": 8777,
      "ĠdaĠyawa": 8778,
      "ĠtaĠhanyar": 8779,
      "ĠáĭŃáī£áĪĭáĪįáį¢": 8780,
      "Wá»įÌģn": 8781,
      "ĠáĪĨáĬĲáį¢": 8782,
      ",Ġqui": 8783,
      "ingĠthe": 8784,
      "ĠtaĠkasance": 8785,
      "Ġáº¹láº¹Ìģ": 8786,
      "on,": 8787,
      "edĠto": 8788,
      "ĠilÃ©-": 8789,
      "ĠetĠde": 8790,
      "Ġ(N": 8791,
      "ĠlughaĠya": 8792,
      "ĠmÃ¡aĠÅĦ": 8793,
      "wa,": 8794,
      "Ġ(BaadaĠyaĠKristo).ĠMatukioĠWaliozaliwaĠWaliofarikiĠKarneĠya": 8795,
      "Ġ1.": 8796,
      "ĠáĬĲáĭįáį¡áį¡": 8797,
      "ĠneĠdaga": 8798,
      "ĠViungoĠvyaĠnje": 8799,
      "y,": 8800,
      "NÃŃĠá»įdÃºn": 8801,
      ".com": 8802,
      "ÌģtÃ¬": 8803,
      "L'": 8804,
      "Ġ1,": 8805,
      "ĠbaadaĠya": 8806,
      "á¹£áº¹Ìģ": 8807,
      ",ĠG": 8808,
      "AĠshekarar": 8809,
      "waĠda": 8810,
      "Ġ(P": 8811,
      "Ġtáº¹Ìģ": 8812,
      "ÌģtÃ¬ĠkÃ©kerÃ©": 8813,
      "ĠáĭĭáĬĵĠáĬ¨áī°áĪĽ": 8814,
      "ĠdansĠla": 8815,
      "ĠnaĠbiyu": 8816,
      "ĠdayaĠdagaĠcikin": 8817,
      "ĠorÃŃláº¹ÌĢĠÃ¨dÃ¨": 8818,
      "Ġbáº¹ÌĢráº¹ÌĢ": 8819,
      "ĠkarneĠya": 8820,
      "ĠbabbanĠbirnin": 8821,
      "a.": 8822,
      "ĠchiniĠya": 8823,
      "ĠnÃŃĠibiĠÃ¬gbÃłjÃ¡": 8824,
      "ĠtiĠa": 8825,
      "ĠplÃ¡náº¹ÌģtÃ¬ĠkÃ©kerÃ©": 8826,
      "ĠnÃŃĠibiĠÃ¬gbÃłjÃ¡ĠÃ¡stáº¹Ìģrá»įÌģÃ¬dÃ¬": 8827,
      "ĠNewĠYork": 8828,
      "ĠplÃ¡náº¹ÌģtÃ¬ĠkÃ©kerÃ©ĠnÃŃĠibiĠÃ¬gbÃłjÃ¡ĠÃ¡stáº¹Ìģrá»įÌģÃ¬dÃ¬": 8829,
      "jiĠwa": 8830,
      ")ĠshiĠne": 8831,
      ",ĠL": 8832,
      ",ĠE": 8833,
      "ĠyawanĠjama'a": 8834,
      "k.": 8835,
      "\"Ġ(": 8836,
      "ĠfromĠthe": 8837,
      "áī½áį¢": 8838,
      "ĠjinaĠla": 8839,
      ",Ġl'": 8840,
      ",Ġamma": 8841,
      "áį£ĠáĬ¨": 8842,
      "ĠdaĠdama": 8843,
      "ĠáĭŃáĮĪáĬĽáĪįáį¢": 8844,
      "ĠneĠna": 8845,
      "wá»įÌĢ": 8846,
      "oĠwa": 8847,
      "a,": 8848,
      "áī·áĪįáį¢": 8849,
      "ĠeneoĠla": 8850,
      "ĠÃ¬tá»įÌģkasÃŃ": 8851,
      "ĠonĠthe": 8852,
      ",ĠR": 8853,
      "jáº¹ÌģĠplÃ¡náº¹ÌģtÃ¬ĠkÃ©kerÃ©ĠnÃŃĠibiĠÃ¬gbÃłjÃ¡ĠÃ¡stáº¹Ìģrá»įÌģÃ¬dÃ¬": 8854,
      "ia,": 8855,
      "ĠwaĠMarekani": 8856,
      "Ġ(áĭ¨": 8857,
      "edĠthe": 8858,
      "www.": 8859,
      "ĠarÃ¡ĠAmáº¹ÌģrÃŃkÃł": 8860,
      "ĠtÃŃĠÃ³ĠsÃ¬": 8861,
      "Ġ(F": 8862,
      ",ĠF": 8863,
      ",ĠdaĠke": 8864,
      "i.": 8865,
      "ĠáĬ¥áĮįáĪŃĠáĬ³áĪµ": 8866,
      "áĪ«áĪįáį¢": 8867,
      "Ġ(198": 8868,
      "ĠaĠwatan": 8869,
      "Ġba.": 8870,
      "Ġmá»įÌĢ": 8871,
      "ĠkwaĠsababu": 8872,
      "us,": 8873,
      "1892Ġáĭĵ.áĪĿ.": 8874,
      "ĠdansĠles": 8875,
      "ĠÂ«áĭ¨": 8876,
      "Ġbáº¹Ìģáº¹ÌĢ": 8877,
      "ĠaĠlokacin": 8878,
      "1.": 8879,
      "ĠtaĠfarko": 8880,
      "jáº¹ÌģĠplÃ¡náº¹ÌģtÃ¬ĠkÃ©kerÃ©ĠnÃŃĠibiĠÃ¬gbÃłjÃ¡ĠÃ¡stáº¹Ìģrá»įÌģÃ¬dÃ¬.ĠItokasi": 8881,
      ",Ġati": 8882,
      "://www.": 8883,
      "taĠna": 8884,
      "2.": 8885,
      "ĠnÃŃĠá»įjá»įÌģ": 8886,
      "Ġ(19": 8887,
      "ĠaĠfannin": 8888,
      "ĠkarniĠna": 8889,
      "i,": 8890,
      "-áĬł": 8891,
      "áĬĽáį¦": 8892,
      "ĠUniversityĠof": 8893,
      "ĠwaĠni": 8894,
      "má»įÌģ": 8895,
      "-B": 8896,
      "en,": 8897,
      "ta.": 8898,
      "-M": 8899,
      "âĢĻar": 8900,
      "en.": 8901,
      "u,": 8902,
      "áĪĿáį¡": 8903,
      "ĠÃ¬má»įÌĢ": 8904,
      "Ġ(K": 8905,
      "áī£áĪįáį¢": 8906,
      "ia.": 8907,
      "Ġn.": 8908,
      "ĠÃłká»įÌģká»įÌģ": 8909,
      "ĠnÃŃĠÃ¬lÃº": 8910,
      "e,": 8911,
      "ĠharĠzuwa": 8912,
      "ĠdakeĠa": 8913,
      "ĠsehemuĠya": 8914,
      "ĠaĠgasar": 8915,
      "-C": 8916,
      "ĠforĠthe": 8917,
      "ĠkÃŃĠÃ³": 8918,
      "ĠÃĮtá»įÌģkasÃŃ": 8919,
      "Ġ'yar": 8920,
      "Ġ'Yan": 8921,
      "ĠtÃŃĠÃłwá»įn": 8922,
      "ĠetĠla": 8923,
      ",Ġni": 8924,
      "ta,": 8925,
      "ĠetĠle": 8926,
      "ĠjuuĠya": 8927,
      "ĠwasanĠkwaikwayo": 8928,
      "Ġfina-": 8929,
      ")Ġ-": 8930,
      ",Ġin": 8931,
      "ĠdaĠna": 8932,
      ",ĠH": 8933,
      "ĠatĠthe": 8934,
      "sáº¹ÌĢ": 8935,
      "Ġá»įÌĢpá»įÌĢ": 8936,
      "Ġ(199": 8937,
      "ká»įÌĢá»įÌģ": 8938,
      "c.": 8939,
      ",ĠÃłti": 8940,
      "2-": 8941,
      "ĠáīĢáĬķĠáīłáĬ¢áīµáĭ®áĮµáĭ«": 8942,
      "Ġ(T": 8943,
      "ĠniĠo": 8944,
      "ĠtÃŃĠÃ³Ġti": 8945,
      "sa.": 8946,
      "ĠnÃŃĠÃĮpÃŃnláº¹ÌĢ": 8947,
      "-O": 8948,
      "edĠin": 8949,
      "ĠOrodhaĠya": 8950,
      "ĠáĪ¥áĪŃáĭĪĠáĪĺáĬķáĮįáĪ¥áīµ": 8951,
      "ĠciĠgabaĠda": 8952,
      "-I": 8953,
      "ĠnaĠm": 8954,
      "ĠdanĠwasanĠÆĻwallonĠÆĻafaĠtaĠÆĻasarĠIngila": 8955,
      "waĠa": 8956,
      "o.": 8957,
      ",Ġto": 8958,
      "ĠnÃ¡Ãł.": 8959,
      "ĠtaĠzama": 8960,
      ":ĠThe": 8961,
      ",Ġsai": 8962,
      "tá»įÌĢ": 8963,
      ",Ġde": 8964,
      "ĠyaĠK": 8965,
      "ĠofĠa": 8966,
      "Ġ(D": 8967,
      "ĠyaĠzama": 8968,
      "áĪĿáį£": 8969,
      "ĠáĭĵáĬŃáĪįáīł.ĠáĮįáĭµáĪĿ": 8970,
      "3.": 8971,
      "ĠdagaĠbaya": 8972,
      ",Ġb": 8973,
      "ziĠya": 8974,
      "e.": 8975,
      ",Ġsannan": 8976,
      "AĠwatan": 8977,
      "ĠilÃ©-áº¹ÌĢká»įÌģ": 8978,
      "ĠáĮĢáĪĿáĪ®ĠáĬ¥áĪµáĬ¨": 8979,
      "4.": 8980,
      "Ġ2.": 8981,
      ")Ġna": 8982,
      "Ġ(I": 8983,
      "Ġ-ĠMtakatifu": 8984,
      "ĠkutokanaĠna": 8985,
      ",ĠtareĠda": 8986,
      "báº¹ÌĢráº¹ÌĢ": 8987,
      "ĠgabatarĠda": 8988,
      "-S": 8989,
      "Ġ(L": 8990,
      "Ġáº¹láº¹ÌģbÃ¹n": 8991,
      "Ġáĭ¨áĬłáĪĽáĪŃáĬĽĠáĪĿáĪ³áĪĮĠáĬĲáĭįáį¢ĠáīµáĪŃáĮīáĪĻĠáĪĺáĭ°áī¥Ġ:Ġáī°áĪ¨áīµáĬĵĠáĪĿáĪ³áĪĮ": 8992,
      "Ġ(d": 8993,
      "ĠmaiĠsuna": 8994,
      "ĠceĠta": 8995,
      "Ġ(G": 8996,
      "ĠparĠle": 8997,
      "Ġ(ojoibi": 8998,
      "ĠáĬ¥áĬĵĠáĭ¨": 8999,
      ".ĠI": 9000,
      "ĠaĠyankin": 9001,
      ",ĠJ": 9002,
      ",ĠP": 9003,
      ".ĠM": 9004,
      "ĠTazamaĠpia": 9005,
      "-Ã¬": 9006,
      "Ġáº¸ÌĢ": 9007,
      ",ĠÃł": 9008,
      "áī°áĭĭáĪįáį¢": 9009,
      "báº¹ÌĢ": 9010,
      "ĠáĬ¥áĬĵĠáīł": 9011,
      "ĠnÃŃnÃºĠÃłwá»įn": 9012,
      ",Ġmwandishi": 9013,
      "ĠtÃŃĠÃ³Ġjáº¹Ìģ": 9014,
      "ĠetĠles": 9015,
      ",Ġ\"": 9016,
      "ĠáĮį.": 9017,
      "ĠyaĠmwaka": 9018,
      "ĠwakatiĠwa": 9019,
      "er.": 9020,
      "ĠgbajÃºmá»įÌĢ": 9021,
      "-A": 9022,
      "Ġráº¹ÌĢ.": 9023,
      "ĠyaĠm": 9024,
      "ĠnaĠshekarar": 9025,
      "ĠfimĠdin": 9026,
      "ĠáĭŃáī½áĪĭáĪįáį¢": 9027,
      "ĠtoĠgba": 9028,
      "-19": 9029,
      "u.": 9030,
      "AĠranar": 9031,
      "Ġfáº¹Ìģ": 9032,
      "ĠfÃºnĠÃłwá»įn": 9033,
      "ĠKanananĠhukumomin": 9034,
      "ĠmjiĠwa": 9035,
      "ĠestĠun": 9036,
      "gbá»įÌĢn": 9037,
      "esĠde": 9038,
      "an,": 9039,
      "ĠnÃŃnÃºĠerÃ©": 9040,
      ")Ġa": 9041,
      "zoĠya": 9042,
      "ĠhukumaĠce": 9043,
      "ĠtÃŃĠÃ³ĠÅĦ": 9044,
      "áĬķáį¡": 9045,
      "ĠáĭįáĪµáĮ¥Ġáĭ¨áĪļáĮĪáĬĿ": 9046,
      "ĠáĭŃáī³áĭĪáīĥáĪįáį¢": 9047,
      ",Ġc": 9048,
      "ya,": 9049,
      "ĠkulaĠda": 9050,
      "-1": 9051,
      "Ġ(áīł": 9052,
      "áĪĭáĪįáį¢": 9053,
      "lá»įpá»įÌĢ": 9054,
      ",Ġko": 9055,
      "ÌĢáº¹Ìģ": 9056,
      "Ġtele.ĠItokasiĠÃĢwá»įn": 9057,
      "Ġáº¹ÌĢyÃł": 9058,
      "-s": 9059,
      "Ġ(J": 9060,
      "ĠwaĠfilamu": 9061,
      "Ġáī¤áī°ĠáĬŃáĪŃáĪµáī²áĭ«áĬķ": 9062,
      "Ġ2,": 9063,
      "5.": 9064,
      ",Ġlakini": 9065,
      "'i": 9066,
      "A.": 9067,
      "ĠáīłáĭĺáĪĺáĬĲĠáĭ®áĪĲáĬķáĪµ": 9068,
      "ĠaĠduniya": 9069,
      "y.": 9070,
      "ĠnÃŃĠÃ¬": 9071,
      "ĠparĠles": 9072,
      "ya.": 9073,
      "ĠaĠkasar": 9074,
      "ĠyaĠmutu": 9075,
      "áĬĽáĭįĠáĬŃáįįáĪĪĠáĭĺáĪĺáĬķ": 9076,
      "Ġ(s": 9077,
      "ĠnaĠu": 9078,
      "ĠtiĠwon": 9079,
      "ĠparĠla": 9080,
      "ĠwithĠthe": 9081,
      "Ġ(n": 9082,
      "ĠmaĠÅĦ": 9083,
      "gbáº¹Ìģ": 9084,
      ",ĠU": 9085,
      "ĠáĪ²áĪĨáĬķáį£": 9086,
      "MwakaĠwa": 9087,
      ",ĠmshindiĠwaĠTuzoĠyaĠNobelĠyaĠTiba": 9088,
      "Ġ(R": 9089,
      "ĠtaĠfara": 9090,
      "ĠáĪ²áĪĨáĬķĠáĭŃáĪħ": 9091,
      "Ġkáº¹Ìģ": 9092,
      ".S": 9093,
      "ĠasĠa": 9094,
      "Ġ(U": 9095,
      "ĠaikiĠa": 9096,
      "Ġ(E": 9097,
      "Ġ|ĠRD1-": 9098,
      "-R": 9099,
      "ĠAfrikaĠya": 9100,
      "Ġáº¹láº¹ÌģbÃ¹nĠNobel": 9101,
      "ĠdaĠshi": 9102,
      "ĠRoma,": 9103,
      "Ġpá»įÌĢ": 9104,
      "ĠorÃŃláº¹ÌĢ-Ã¨dÃ¨ĠNÃłÃ¬jÃŃrÃŃÃł": 9105,
      "-m": 9106,
      "ĠasĠthe": 9107,
      "ĠlokacinĠda": 9108,
      "iá¹£áº¹Ìģ": 9109,
      "ĠwaĠTanzania": 9110,
      "ĠpÃ¨ĠnÃŃ": 9111,
      ",Ġmais": 9112,
      "áĪĿĠáīł": 9113,
      "1,": 9114,
      "Ġ(O": 9115,
      ",ĠwandaĠya": 9116,
      "áĬĵĠáĬ¨": 9117,
      ".ĠK": 9118,
      ",Ġmwigizaji": 9119,
      ",Ġs": 9120,
      "-K": 9121,
      "-daban": 9122,
      "Ġne,": 9123,
      "ĠaikiĠaĠmatsayin": 9124,
      "ĠwaĠkwanza": 9125,
      "Ġláº¹ÌģyÃ¬n": 9126,
      "ĠsikuĠya": 9127,
      "ĠÃłwá»įnĠá»įjá»įÌģÃ¬bÃŃĠnÃŃ": 9128,
      "Ġdaban-daban": 9129,
      "Ġá¹£iá¹£áº¹Ìģ": 9130,
      "ĠtaĠsamu": 9131,
      "Ġ(anĠhaifeĠta": 9132,
      ".org": 9133,
      "ĠsurĠle": 9134,
      "ĠÃłtiĠÃłwá»įn": 9135,
      "ráº¹Ìģ": 9136,
      "Ġn.k.": 9137,
      "Ġá¹£eĠÃł": 9138,
      "ĠyaĠfara": 9139,
      "ĠyayinĠda": 9140,
      "ĠgudanarĠda": 9141,
      "7.": 9142,
      "ĠisĠa": 9143,
      "Ġ(W": 9144,
      "ani.": 9145,
      "áī¸áĭįáį¢": 9146,
      "ka.": 9147,
      "ĠkutokaĠnchiĠya": 9148,
      "Ġne,ĠdaĠke": 9149,
      "Ġ(197": 9150,
      ",Ġt": 9151,
      "láº¹Ìģ": 9152,
      ",Ġun": 9153,
      "ĠbaĠta": 9154,
      "ĠÃłká»įÌģ": 9155,
      "ĠáīłáĮİáĪŃáĮİáĪŃáĭ«áĬķĠáĬ«áĪĮáĬķáĭ³áĪŃ": 9156,
      "Ġá»įÌĢkan": 9157,
      "ĠáĬłáĭ²áĪµĠáĬłáīłáī£": 9158,
      "sÃŃláº¹ÌĢ": 9159,
      "ation.": 9160,
      "an.": 9161,
      "ĠkuduĠmaso": 9162,
      ",Ġwá»įÌģn": 9163,
      "áį¡áĭ¨": 9164,
      "Ġáīł18": 9165,
      "dá»įÌĢ": 9166,
      ",Ġp": 9167,
      "ĠsÃŃláº¹ÌĢ": 9168,
      "ĠsamaĠda": 9169,
      "ĠáĪµáĪĿĠáīłáĬ¥áĬķáĮįáĪĬáĭĿáĬĽ": 9170,
      "Ġjam'": 9171,
      ".ĠH": 9172,
      "-Ãł": 9173,
      "ĠtaraĠda": 9174,
      "Ġ2091Ġáĭĵ.áĪĿ.": 9175,
      "ĠbyĠthe": 9176,
      ".ĠB": 9177,
      ".ĠL": 9178,
      "ĠáīĢáĬķĠáį²áį±áį»áį": 9179,
      "ĠáĬłáīĨáĮ£áĮłáĪŃĠ(áĬ¨": 9180,
      "1892Ġáĭĵ.áĪĿ.ĠáĮĢáĪĿáĪ®ĠáĬ¥áĪµáĬ¨": 9181,
      "ĠáīĢáĬķĠáīłáĬ¢áīµáĭ®áĮµáĭ«ĠáĬłáīĨáĮ£áĮłáĪŃĠ(áĬ¨": 9182,
      "1892Ġáĭĵ.áĪĿ.ĠáĮĢáĪĿáĪ®ĠáĬ¥áĪµáĬ¨Ġ2091Ġáĭĵ.áĪĿ.": 9183,
      "ĠáīĢáĬķĠáīłáĬ¢áīµáĭ®áĮµáĭ«ĠáĬłáīĨáĮ£áĮłáĪŃĠ(áĬ¨1892Ġáĭĵ.áĪĿ.ĠáĮĢáĪĿáĪ®ĠáĬ¥áĪµáĬ¨Ġ2091Ġáĭĵ.áĪĿ.": 9184,
      "ĠBKĠ(BaadaĠyaĠKristo).ĠMatukioĠWaliozaliwaĠWaliofarikiĠKarneĠya": 9185,
      ".ĠÃĮ": 9186,
      "Ġáĭ¨áīĢáĬķĠáĪµáĪĿĠáīłáĬ¥áĬķáĮįáĪĬáĭĿáĬĽ": 9187,
      "ĠáĪ²áĪĨáĬķĠáĭŃáĪħĠáīĢáĬķĠáīłáĬ¢áīµáĭ®áĮµáĭ«ĠáĬłáīĨáĮ£áĮłáĪŃĠ(áĬ¨1892Ġáĭĵ.áĪĿ.ĠáĮĢáĪĿáĪ®ĠáĬ¥áĪµáĬ¨Ġ2091Ġáĭĵ.áĪĿ.": 9188,
      "ĠáīłáĮİáĪŃáĮİáĪŃáĭ«áĬķĠáĬ«áĪĮáĬķáĭ³áĪŃĠáĭ¨áīĢáĬķĠáĪµáĪĿĠáīłáĬ¥áĬķáĮįáĪĬáĭĿáĬĽ": 9189,
      "ĠáīłáĮİáĪŃáĮİáĪŃáĭ«áĬķĠáĬ«áĪĮáĬķáĭ³áĪŃĠáĭ¨áīĢáĬķĠáĪµáĪĿĠáīłáĬ¥áĬķáĮįáĪĬáĭĿáĬĽĠáĪ²áĪĨáĬķĠáĭŃáĪħĠáīĢáĬķĠáīłáĬ¢áīµáĭ®áĮµáĭ«ĠáĬłáīĨáĮ£áĮłáĪŃĠ(áĬ¨1892Ġáĭĵ.áĪĿ.ĠáĮĢáĪĿáĪ®ĠáĬ¥áĪµáĬ¨Ġ2091Ġáĭĵ.áĪĿ.": 9190,
      "ĠáīĢáĬķĠáĪĽáĪĪáīµĠáĬĲáĭįáį¢": 9191,
[...]
