{
  "version": "1.0",
  "truncation": null,
  "padding": null,
  "added_tokens": [
    {
      "id": 0,
      "content": "<pad>",
      "single_word": false,
      "lstrip": false,
      "rstrip": false,
      "normalized": false,
      "special": true
    },
    {
      "id": 1,
      "content": "<bos>",
      "single_word": false,
      "lstrip": false,
      "rstrip": false,
      "normalized": false,
      "special": true
    },
    {
      "id": 2,
      "content": "<eos>",
      "single_word": false,
      "lstrip": false,
      "rstrip": false,
      "normalized": false,
      "special": true
    }
  ],
  "normalizer": {
    "type": "Sequence",
    "normalizers": [
      {
        "type": "NFC"
      },
      {
        "type": "Prepend",
        "prepend": " "
      }
    ]
  },
  "pre_tokenizer": {
    "type": "Sequence",
    "pretokenizers": [
      {
        "type": "Metaspace",
        "replacement": "▁",
        "prepend_scheme": "never",
        "split": true
      },
      {
        "type": "ByteLevel",
        "add_prefix_space": false,
        "trim_offsets": true,
        "use_regex": false
      }
    ]
  },
  "post_processor": {
    "type": "TemplateProcessing",
    "single": [
      {
        "SpecialToken": {
          "id": "<bos>",
          "type_id": 0
        }
      },
      {
        "Sequence": {
          "id": "A",
          "type_id": 0
        }
      },
      {
        "SpecialToken": {
          "id": "<eos>",
          "type_id": 0
        }
      }
    ],
    "pair": [
      {
        "SpecialToken": {
          "id": "<bos>",
          "type_id": 0
        }
      },
      {
        "Sequence": {
          "id": "A",
          "type_id": 0
        }
      },
      {
        "SpecialToken": {
          "id": "<eos>",
          "type_id": 0
        }
      },
      {
        "SpecialToken": {
          "id": "<bos>",
          "type_id": 0
        }
      },
      {
        "Sequence": {
          "id": "B",
          "type_id": 0
        }
      },
      {
        "SpecialToken": {
          "id": "<eos>",
          "type_id": 0
        }
      }
    ],
    "special_tokens": {
      "<bos>": {
        "id": "<bos>",
        "ids": [
          1
        ],
        "tokens": [
          "<bos>"
        ]
      },
      "<eos>": {
        "id": "<eos>",
        "ids": [
          2
        ],
        "tokens": [
          "<eos>"
        ]
      }
    }
  },
  "decoder": {
    "type": "Sequence",
    "decoders": [
      {
        "type": "ByteLevel",
        "add_prefix_space": true,
        "trim_offsets": true,
        "use_regex": true
      },
      {
        "type": "Strip",
        "content": "▁",
        "start": 1,
        "stop": 0
      },
      {
        "type": "Replace",
        "pattern": {
          "String": "▁"
        },
        "content": " "
      }
    ]
  },
  "model": {
    "type": "Unigram",
    "unk_id": null,
    "vocab": [
      [
        "<pad>",
        0.0
      ],
      [
        "<bos>",
        0.0
      ],
      [
        "<eos>",
        0.0
      ],
      [
        "âĸģ",
        -2.889297176711448
      ],
      [
        ",",
        -4.12056392000885
      ],
      [
        ".",
        -4.219206029206928
      ],
      [
        "s",
        -4.330347534615482
      ],
      [
        "âĸģa",
        -4.854573216729811
      ],
      [
        "n",
        -4.982499520271906
      ],
      [
        "âĸģáĭ¨",
        -4.990225321895611
      ],
      [
        "âĸģáīł",
        -5.107354836560175
      ],
      [
        "e",
        -5.1920993486834455
      ],
      [
        "âĸģthe",
        -5.204503629729576
      ],
      [
        "âĸģya",
        -5.24646147464553
      ],
      [
        "âĸģde",
        -5.2818696739774555
      ],
      [
        "âĸģda",
        -5.301210351961014
      ],
      [
        "áĬķ",
        -5.332453266537668
      ],
      [
        ")",
        -5.367682904826895
      ],
      [
        "áĪĿ",
        -5.484169715716311
      ],
      [
        "a",
        -5.531521825609913
      ],
      [
        "r",
        -5.536012463590772
      ],
      [
        "âĸģna",
        -5.538764375408357
      ],
      [
        "âĸģof",
        -5.556455134946313
      ],
      [
        "áĬĵ",
        -5.609650245604042
      ],
      [
        "-",
        -5.6441293187961765
      ],
      [
        "âĸģla",
        -5.655111681098196
      ],
      [
        "âĸģ(",
        -5.6621091947875115
      ],
      [
        "o",
        -5.687962794459006
      ],
      [
        "âĸģwa",
        -5.711851550808419
      ],
      [
        "t",
        -5.730977361800726
      ],
      [
        "áį£",
        -5.837738286396851
      ],
      [
        "âĸģta",
        -5.871801123720829
      ],
      [
        "âĸģA",
        -5.929570937553015
      ],
      [
        "âĸģáĬ¨",
        -5.955918953715599
      ],
      [
        "âĸģin",
        -5.964179456690532
      ],
      [
        "âĸģand",
        -5.980881934734056
      ],
      [
        "áį¢",
        -5.9823546924847335
      ],
      [
        "i",
        -5.984850165344573
      ],
      [
        "áīµ",
        -6.009871557907447
      ],
      [
        "áĭį",
        -6.017947001354319
      ],
      [
        "âĸģni",
        -6.055205890981936
      ],
      [
        "áĪµ",
        -6.0783064662296
      ],
      [
        "d",
        -6.084784937203972
      ],
      [
        "áĪį",
        -6.100578527968089
      ],
      [
        "âĸģáĬł",
        -6.110438805114407
      ],
      [
        "u",
        -6.114617810629412
      ],
      [
        "âĸģto",
        -6.151717990398346
      ],
      [
        "âĸģáĬĲáĭįáį¢",
        -6.1892051885627914
      ],
      [
        "y",
        -6.199075968723195
      ],
      [
        "âĸģet",
        -6.245908908919036
      ],
      [
        "âĸģle",
        -6.255274256289697
      ],
      [
        "âĸģÃł",
        -6.290270836986778
      ],
      [
        "áĪŃ",
        -6.332243493894362
      ],
      [
        "wa",
        -6.344907621867666
      ],
      [
        "ta",
        -6.350694284448302
      ],
      [
        "ra",
        -6.383708941167139
      ],
      [
        "ed",
        -6.39226004003009
      ],
      [
        "c",
        -6.397222469274382
      ],
      [
        "le",
        -6.410491272915795
      ],
      [
        "l",
        -6.421054182917903
      ],
      [
        "ri",
        -6.446313581203757
      ],
      [
        "âĸģ-",
        -6.462016474443631
      ],
      [
        "re",
        -6.487376628411825
      ],
      [
        "âĸģáĪĿáĪ³áĪĮ",
        -6.5029667441676455
      ],
      [
        "ma",
        -6.521898265883872
      ],
      [
        ":",
        -6.54400441209023
      ],
      [
        "âĸģáĪĪ",
        -6.545416957246658
      ],
      [
        "âĸģnÃŃ",
        -6.546516196515125
      ],
      [
        "na",
        -6.548841917544097
      ],
      [
        "âĸģen",
        -6.55938692527017
      ],
      [
        "la",
        -6.563028695442835
      ],
      [
        "áĪĪ",
        -6.56836037574144
      ],
      [
        "ni",
        -6.58055159147912
      ],
      [
        "m",
        -6.615111822037422
      ],
      [
        "âĸģdes",
        -6.630265981834251
      ],
      [
        "ka",
        -6.644566097930129
      ],
      [
        "âĸģdu",
        -6.655961797551035
      ],
      [
        "áĪĭ",
        -6.657421310523974
      ],
      [
        "âĸģtÃŃ",
        -6.66493017809529
      ],
      [
        "al",
        -6.675862062610122
      ],
      [
        "áĪ¨",
        -6.689522955058946
      ],
      [
        "âĸģáī°",
        -6.690387507894446
      ],
      [
        "te",
        -6.691450751601227
      ],
      [
        "áĭµ",
        -6.700970301190591
      ],
      [
        "li",
        -6.705077171690304
      ],
      [
        "âĸģáĬ¥áĬĵ",
        -6.707229227512428
      ],
      [
        "âĸģáĭŃ",
        -6.715383210122539
      ],
      [
        "in",
        -6.716386106848548
      ],
      [
        "âĸģles",
        -6.730942894299952
      ],
      [
        "âĸģti",
        -6.739511082980577
      ],
      [
        "sa",
        -6.744896190138823
      ],
      [
        "áį¡",
        -6.764642005630785
      ],
      [
        "áīł",
        -6.765460641259557
      ],
      [
        "âĸģO",
        -6.771064185873323
      ],
      [
        "âĸģáĪĺ",
        -6.7858602172125035
      ],
      [
        "es",
        -6.787446398834355
      ],
      [
        "áī¥",
        -6.793449118499378
      ],
      [
        "s,",
        -6.793758558529632
      ],
      [
        "di",
        -6.799979216018478
      ],
      [
        "áīĢ",
        -6.812484568762185
      ],
      [
        "âĸģI",
        -6.819388569436942
      ],
      [
        "ti",
        -6.820049078669488
      ],
      [
        "g",
        -6.8270986572988726
      ],
      [
        "âĸģma",
        -6.828683398483191
      ],
      [
        "áĭ«",
        -6.833634501103747
      ],
      [
        "ba",
        -6.838071799339273
      ],
      [
        "âĸģThe",
        -6.843186959047031
      ],
      [
        "áī³",
        -6.843589990942819
      ],
      [
        "áĪĺ",
        -6.851178367745758
      ],
      [
        "k",
        -6.858030851627072
      ],
      [
        "mi",
        -6.859367044282163
      ],
      [
        "áĬŃ",
        -6.862191327187002
      ],
      [
        "p",
        -6.87140631796847
      ],
      [
        "âĸģku",
        -6.882245945590338
      ],
      [
        "to",
        -6.902573249922456
      ],
      [
        "áĮĪ",
        -6.911434477208388
      ],
      [
        "âĸģáĬ¥áĬķáĭ°",
        -6.917875537004665
      ],
      [
        "áĭŃ",
        -6.920021588578358
      ],
      [
        "ing",
        -6.922049648033486
      ],
      [
        "da",
        -6.928225134791928
      ],
      [
        "áĪ«",
        -6.933056738044659
      ],
      [
        "âĸģkuma",
        -6.935979629407107
      ],
      [
        "er",
        -6.941606529149935
      ],
      [
        "âĸģÃ³",
        -6.946494255578134
      ],
      [
        "áĮį",
        -6.9579187222684045
      ],
      [
        "ro",
        -6.962263729349452
      ],
      [
        "áĪĽ",
        -6.965878646978542
      ],
      [
        "áīħ",
        -6.9689421127305256
      ],
      [
        "áĪ°",
        -6.977814463262376
      ],
      [
        "âĸģis",
        -6.983717717752427
      ],
      [
        "áī°",
        -6.991346955571297
      ],
      [
        "áįį",
        -6.9998153367663765
      ],
      [
        "áį¤",
        -7.008285255733732
      ],
      [
        "âĸģest",
        -7.025522209341268
      ],
      [
        "âĸģne",
        -7.0271828216827235
      ],
      [
        "de",
        -7.029665744926275
      ],
      [
        "âĸģáĪĭáĭŃ",
        -7.032108981881281
      ],
      [
        "âĸģáĭ¨áĪļ",
        -7.034932205251641
      ],
      [
        "âĸģkwa",
        -7.0459174357127505
      ],
      [
        "âĸģun",
        -7.046964229680727
      ],
      [
        "áĬĲ",
        -7.047848302169424
      ],
      [
        "âĸģre",
        -7.055308341029855
      ],
      [
        "âĸģpar",
        -7.058651649881579
      ],
      [
        "âĸģMa",
        -7.061112984871155
      ],
      [
        "âĸģba",
        -7.0669815914639
      ],
      [
        "áĭĭ",
        -7.069423102414611
      ],
      [
        "ya",
        -7.071098953125171
      ],
      [
        "áĮ¥",
        -7.078647678923801
      ],
      [
        "si",
        -7.080960303307396
      ],
      [
        "áĬ¨",
        -7.08744301705868
      ],
      [
        "),",
        -7.088186228591631
      ],
      [
        "âĸģza",
        -7.090031648704661
      ],
      [
        "ly",
        -7.091970551429091
      ],
      [
        "âĸģse",
        -7.10060198765507
      ],
      [
        ").",
        -7.102060087867441
      ],
      [
        "Ã©",
        -7.103013502892036
      ],
      [
        "áĭ³",
        -7.103079947891828
      ],
      [
        "\"",
        -7.111503304276326
      ],
      [
        "âĸģE",
        -7.11766912348601
      ],
      [
        "h",
        -7.118102445807606
      ],
      [
        "ko",
        -7.118969245934755
      ],
      [
        "me",
        -7.1222260998386115
      ],
      [
        "âĸģS",
        -7.126195433887791
      ],
      [
        "áĭİáī½",
        -7.1283300482591105
      ],
      [
        "âĸģ\"",
        -7.13423257567368
      ],
      [
        "áĪ³",
        -7.137684297841831
      ],
      [
        "áĭ°",
        -7.138581299223313
      ],
      [
        "áĬ¢áīµáĭ®áĮµáĭ«",
        -7.140009640913103
      ],
      [
        "se",
        -7.140834479899921
      ],
      [
        "bi",
        -7.143924090988868
      ],
      [
        "âĸģÂ«",
        -7.144786908111868
      ],
      [
        "âĸģau",
        -7.1603558768216775
      ],
      [
        "áĬĽ",
        -7.161422858128471
      ],
      [
        "áĬ«",
        -7.1646225038023985
      ],
      [
        "âĸģ:",
        -7.170179815905252
      ],
      [
        "áĪħ",
        -7.1770261416387875
      ],
      [
        "áī£",
        -7.183143120212506
      ],
      [
        "áĭ¨áĬłáĪĽáĪŃáĬĽ",
        -7.18470492854536
      ],
      [
        "âĸģan",
        -7.18848610742665
      ],
      [
        "âĸģsa",
        -7.188870863146729
      ],
      [
        "âĸģÃłwá»įn",
        -7.191617986351746
      ],
      [
        "âĸģwas",
        -7.197752372658117
      ],
      [
        "âĸģo",
        -7.199260029288105
      ],
      [
        "ci",
        -7.199838484193952
      ],
      [
        "âĸģas",
        -7.2037303142742175
      ],
      [
        "âĸģ18",
        -7.206819866778794
      ],
      [
        "th",
        -7.213340545405938
      ],
      [
        "ke",
        -7.217521873523214
      ],
      [
        "en",
        -7.221833869948789
      ],
      [
        "ji",
        -7.222662070726599
      ],
      [
        "âĸģáĭĪáĭ°",
        -7.2266090340184235
      ],
      [
        "âĸģm",
        -7.231524178281987
      ],
      [
        "áĪª",
        -7.232195366531199
      ],
      [
        "ki",
        -7.2335493312042125
      ],
      [
        "áī±",
        -7.235804629139448
      ],
      [
        "s.",
        -7.236447714700814
      ],
      [
        "âĸģáĬ",
        -7.238041202824149
      ],
      [
        "âĸģga",
        -7.238062579870945
      ],
      [
        "âĸģÃ¬",
        -7.238582792617162
      ],
      [
        "âĸģLa",
        -7.239134268717734
      ],
      [
        "áĮł",
        -7.254604414618017
      ],
      [
        "âĸģáĬ¥",
        -7.258995898129831
      ],
      [
        "lo",
        -7.262071563659248
      ],
      [
        "áĭĿ",
        -7.262934745082591
      ],
      [
        "us",
        -7.266671203317912
      ],
      [
        "âĸģM",
        -7.271677225538744
      ],
      [
        "st",
        -7.280050381857679
      ],
      [
        "âĸģfor",
        -7.28649666326384
      ],
      [
        "po",
        -7.287210166717438
      ],
      [
        "mo",
        -7.2910390245128465
      ],
      [
        "an",
        -7.29183641323011
      ],
      [
        "zi",
        -7.297040102130172
      ],
      [
        "ce",
        -7.300089081354113
      ],
      [
        "áĪ½",
        -7.308492826051035
      ],
      [
        "âĸģáĭ«",
        -7.309784654971562
      ],
      [
        "âĸģC",
        -7.311832094705387
      ],
      [
        "áĮ£",
        -7.3128779650862
      ],
      [
        "/",
        -7.316703282911076
      ],
      [
        "ga",
        -7.317021670419312
      ],
      [
        "âĸģÃĢwá»įn",
        -7.319856645720421
      ],
      [
        "áĪī",
        -7.322923127543163
      ],
      [
        "ye",
        -7.324384798924456
      ],
      [
        "b",
        -7.328407034567803
      ],
      [
        "âĸģU",
        -7.332034673601255
      ],
      [
        "áĪļ",
        -7.3411317261880065
      ],
      [
        "âĸģby",
        -7.345310988864398
      ],
      [
        "âĸģcikin",
        -7.3502279771138745
      ],
      [
        "âĸģl'",
        -7.353550217482697
      ],
      [
        "áĭĪ",
        -7.355791069694396
      ],
      [
        "âĸģTa",
        -7.357458587699913
      ],
      [
        "âĸģáĭįáĪµáĮ¥",
        -7.360424594912905
      ],
      [
        "f",
        -7.36530184007831
      ],
      [
        "Â»",
        -7.3671166222505775
      ],
      [
        "áįĪ",
        -7.3674468448422505
      ],
      [
        "ment",
        -7.373204348751928
      ],
      [
        "âĸģWa",
        -7.374665265780244
      ],
      [
        "áĭ¨",
        -7.376987958748581
      ],
      [
        "áī½",
        -7.377774018618853
      ],
      [
        "ne",
        -7.379893715679563
      ],
      [
        "áĬĲáīµ",
        -7.389559990542452
      ],
      [
        "áĪ®",
        -7.395880787451663
      ],
      [
        "âĸģson",
        -7.3966531441802825
      ],
      [
        ";",
        -7.401479702570898
      ],
      [
        "tu",
        -7.404021427053779
      ],
      [
        "'",
        -7.404307157412754
      ],
      [
        "w",
        -7.405793620913659
      ],
      [
        "áīłáīµ",
        -7.419200114328476
      ],
      [
        "âĸģLe",
        -7.420517795789035
      ],
      [
        "âĸģdans",
        -7.421797629211808
      ],
      [
        "âĸģdaga",
        -7.436487229713183
      ],
      [
        "âĸģáĭ¨áī°",
        -7.436753872996217
      ],
      [
        "áĮĭ",
        -7.436878239464665
      ],
      [
        "âĸģjáº¹Ìģ",
        -7.439457200986132
      ],
      [
        "âĸģki",
        -7.450832946372911
      ],
      [
        "do",
        -7.461861017008621
      ],
      [
        "âĸģkatika",
        -7.471698868016748
      ],
      [
        "âĸģáĪĽ",
        -7.4722483695006705
      ],
      [
        "âĸģwith",
        -7.4725361432608235
      ],
      [
        "âĸģune",
        -7.473254245606832
      ],
      [
        "âĸģÃłti",
        -7.474593014301876
      ],
      [
        "âĸģK",
        -7.474833282589142
      ],
      [
        "ge",
        -7.474834964766542
      ],
      [
        "âĸģi",
        -7.474992863972474
      ],
      [
        "pa",
        -7.479228526528601
      ],
      [
        "âĸģon",
        -7.479964971001527
      ],
      [
        "âĸģáĪ²",
        -7.483752886655818
      ],
      [
        "x",
        -7.484216164243225
      ],
      [
        "âĸģbe",
        -7.485137524189286
      ],
      [
        "áĪ©",
        -7.485562877206146
      ],
      [
        "fa",
        -7.486015483828242
      ],
      [
        "fi",
        -7.494740033203831
      ],
      [
        "'s",
        -7.509190434877992
      ],
      [
        "âĸģce",
        -7.512519682869517
      ],
      [
        "âĸģIn",
        -7.513344904078034
      ],
      [
        "ku",
        -7.5149294997834115
      ],
      [
        "âĸģkan",
        -7.5160344709500695
      ],
      [
        "ar",
        -7.519396220470293
      ],
      [
        "gi",
        -7.525575994181487
      ],
      [
        "á",
        -7.535547402664649
      ],
      [
        "z",
        -7.536309936771243
      ],
      [
        "âĸģqui",
        -7.547304593416625
      ],
      [
        "or",
        -7.548188749175688
      ],
      [
        "bu",
        -7.548577446592256
      ],
      [
        "áī¶",
        -7.550106695471525
      ],
      [
        "âĸģfi",
        -7.552279229589864
      ],
      [
        "du",
        -7.553936969784784
      ],
      [
        "mu",
        -7.554260415088136
      ],
      [
        "âĸģcha",
        -7.554754182195076
      ],
      [
        "ru",
        -7.5566131389411755
      ],
      [
        "áĪĬ",
        -7.556765630347222
      ],
      [
        "áĪİ",
        -7.562174881062349
      ],
      [
        "ja",
        -7.562262361227694
      ],
      [
        "âĸģmwaka",
        -7.563355676411662
      ],
      [
        "âĸģsi",
        -7.564645659709427
      ],
      [
        "it",
        -7.566899711837602
      ],
      [
        "ur",
        -7.5688901526925925
      ],
      [
        "be",
        -7.57819585257789
      ],
      [
        "un",
        -7.582457160400912
      ],
      [
        "âĸģje",
        -7.5839087989344804
      ],
      [
        "ation",
        -7.588991004624578
      ],
      [
        "âĸģáīµáĪŃáĮīáĪĻ",
        -7.5895333095543265
      ],
      [
        "za",
        -7.591802096242935
      ],
      [
        "âĸģG",
        -7.596410327060028
      ],
      [
        "âĸģN",
        -7.598821511202605
      ],
      [
        "áīĥ",
        -7.59930098391551
      ],
      [
        "rin",
        -7.600780036633775
      ],
      [
        "go",
        -7.602266777621503
      ],
      [
        "âĸģthat",
        -7.607158819932735
      ],
      [
        "âĸģáĬĲáīłáĪŃáį¢",
        -7.6084382798600885
      ],
      [
        "âĸģSa",
        -7.609033570764012
      ],
      [
        "âĸģáĪ²áĪĨáĬķ",
        -7.614293736322278
      ],
      [
        "vi",
        -7.616747282154215
      ],
      [
        "no",
        -7.620668056381167
      ],
      [
        "âĸģáīĢáĬķ",
        -7.624171600707664
      ],
      [
        "âĸģâĢĵ",
        -7.626550066031239
      ],
      [
        "âĸģKi",
        -7.627868495202211
      ],
      [
        "âĸģpour",
        -7.636181978130228
      ],
      [
        "âĸģáĮįáĬķ",
        -7.639757451376061
      ],
      [
        "su",
        -7.640168272415059
      ],
      [
        "âĸģdi",
        -7.645005844675138
      ],
      [
        "lu",
        -7.6456092889877105
      ],
      [
        "âĸģshi",
        -7.646314586900667
      ],
      [
        "áĬł",
        -7.646452501069751
      ],
      [
        "âĸģT",
        -7.648507222038404
      ],
      [
        "áĬĿ",
        -7.648749232570093
      ],
      [
        "âĸģáĭĪáĭŃáĪĿ",
        -7.6542976869560935
      ],
      [
        "âĸģáĮĬáĭľ",
        -7.659385912094589
      ],
      [
        "áĭĽ",
        -7.664711199851531
      ],
      [
        "âĸģfrom",
        -7.667843804956197
      ],
      [
        "âĸģBa",
        -7.6766861613789885
      ],
      [
        "ha",
        -7.678011445418667
      ],
      [
        "we",
        -7.679334302775322
      ],
      [
        "âĸģB",
        -7.6801892102502745
      ],
      [
        "áĬ¥",
        -7.683448753025138
      ],
      [
        "je",
        -7.686196573700636
      ],
      [
        "ent",
        -7.687961377546872
      ],
      [
        "áīĨ",
        -7.690959439496943
      ],
      [
        "áĪĻ",
        -7.697487306489087
      ],
      [
        "on",
        -7.699264594788751
      ],
      [
        "áĭĺ",
        -7.70103972705402
      ],
      [
        "kan",
        -7.702410960137232
      ],
      [
        "âĸģáīłáĬĭáĪĭ",
        -7.704911194864861
      ],
      [
        "âĸģáĬ¥áĪµáĬ¨",
        -7.712819602022465
      ],
      [
        "ter",
        -7.716365426316987
      ],
      [
        "âĸģsÃŃ",
        -7.721077924601145
      ],
      [
        "hi",
        -7.722572414082036
      ],
      [
        "áĬĴ",
        -7.727382672216809
      ],
      [
        "âĸģor",
        -7.727927804879771
      ],
      [
        "man",
        -7.730644805929332
      ],
      [
        "áĪŀ",
        -7.7379057283491015
      ],
      [
        "âĸģWali",
        -7.738667052702276
      ],
      [
        "âĸģÅĦ",
        -7.739219584842099
      ],
      [
        "áĭįáĬķ",
        -7.7444897492195945
      ],
      [
        "âĸģsu",
        -7.745363521917472
      ],
      [
        "âĸģhis",
        -7.748313320134542
      ],
      [
        "âĸģd'",
        -7.749891330435698
      ],
      [
        "âĸģráº¹ÌĢ",
        -7.751657592763179
      ],
      [
        "âĸģá»įdÃºn",
        -7.754000016001957
      ],
      [
        "âĸģ1",
        -7.760774956427019
      ],
      [
        "âĸģáĭĺáĪĺáĬķ",
        -7.765102958610935
      ],
      [
        "âĸģko",
        -7.767871285058066
      ],
      [
        "âĸģsur",
        -7.770447086030094
      ],
      [
        "âĸģAn",
        -7.7736881550948524
      ],
      [
        "bo",
        -7.7739578083530105
      ],
      [
        "âĸģmai",
        -7.777353786204639
      ],
      [
        "âĸģáī°áĪ¨áīµ",
        -7.777684040902198
      ],
      [
        "âĸģKa",
        -7.779042587739577
      ],
      [
        "áĬ©",
        -7.780332628928782
      ],
      [
        "âĸģáĬĲáĭį",
        -7.781643766115257
      ],
      [
        "v",
        -7.787937353341812
      ],
      [
        "âĸģfa",
        -7.7946373614837245
      ],
      [
        "âĸģshekara",
        -7.801995306038137
      ],
      [
        "ck",
        -7.802503374033774
      ],
      [
        "áĪ»",
        -7.8030369541011435
      ],
      [
        "âĸģhe",
        -7.805082168503624
      ],
      [
        "âĸģyi",
        -7.808918070343285
      ],
      [
        "áĪĮ",
        -7.811198143273836
      ],
      [
        "il",
        -7.817440840498115
      ],
      [
        "áĮī",
        -7.820165810407751
      ],
      [
        "âĸģkutoka",
        -7.822839375068279
      ],
      [
        "âĸģAl",
        -7.827541252633575
      ],
      [
        "âĸģke",
        -7.828354104023186
      ],
      [
        "âĸģdÃ©",
        -7.829489793785081
      ],
      [
        "âĸģP",
        -7.831763770251621
      ],
      [
        "áįĭ",
        -7.8322469836672735
      ],
      [
        "âĸģati",
        -7.832728539641025
      ],
      [
        "pe",
        -7.834047254094898
      ],
      [
        "âĸģ|",
        -7.8392940788700916
      ],
      [
        "nt",
        -7.843910552123614
      ],
      [
        "âĸģque",
        -7.844777101094497
      ],
      [
        "âĸģáĭĵ.áĪĿ.",
        -7.845006593204928
      ],
      [
        "âĸģshekarar",
        -7.851978022751354
      ],
      [
        "A",
        -7.866068281254414
      ],
      [
        "shi",
        -7.8670460245439315
      ],
      [
        "áĭ±",
        -7.869420469612484
      ],
      [
        "lÃ©",
        -7.869627652001034
      ],
      [
        "âĸģcon",
        -7.8705194474791185
      ],
      [
        "âĸģaka",
        -7.873181769042462
      ],
      [
        "âĸģwá»įÌģn",
        -7.873331826218889
      ],
      [
        "ll",
        -7.87408832588898
      ],
      [
        "Itokasi",
        -7.874152404253168
      ],
      [
        "âĸģka",
        -7.87488676059127
      ],
      [
        "âĸģF",
        -7.875302625239101
      ],
      [
        "ve",
        -7.882036703308355
      ],
      [
        "âĸģáĬłáĭŃ",
        -7.885167805332214
      ],
      [
        "âĸģáīłáĪĺ",
        -7.88770939719363
      ],
      [
        "ch",
        -7.8888586799065
      ],
      [
        "áį¡áį¡",
        -7.890264852029418
      ],
      [
        "áĬĶ",
        -7.890424972799902
      ],
      [
        "is",
        -7.89198402019643
      ],
      [
        "nu",
        -7.8956386281428195
      ],
      [
        "âĸģat",
        -7.896891790590066
      ],
      [
        "âĸģvi",
        -7.898506329702794
      ],
      [
        "áĬĳ",
        -7.906437107563946
      ],
      [
        "áĭĬ",
        -7.910337594162646
      ],
      [
        "âĸģil",
        -7.9134876771144675
      ],
      [
        "áĪ",
        -7.915297472455288
      ],
      [
        "áĬĸ",
        -7.915652627220462
      ],
      [
        "âĸģou",
        -7.919381171510313
      ],
      [
        "áī²",
        -7.922400586523446
      ],
      [
        "âĸģáĭŃáĪħ",
        -7.9260758850720165
      ],
      [
        "âĸģáĬ¨áī°áĪĽ",
        -7.92753856577383
      ],
      [
        "âĸģÃĢ",
        -7.928409232280956
      ],
      [
        "âĸģ(19",
        -7.931044650591648
      ],
      [
        "âĸģáĭ¨áĬł",
        -7.932382337389734
      ],
      [
        "che",
        -7.9334011807800024
      ],
      [
        "âĸģáĪµáĪĪ",
        -7.936177095158005
      ],
      [
        "que",
        -7.9387785907879245
      ],
      [
        "âĸģplus",
        -7.944132080195969
      ],
      [
        "el",
        -7.944452069629929
      ],
      [
        "âĸģpro",
        -7.945088602066949
      ],
      [
        "áĪ¬",
        -7.945858061195281
      ],
      [
        "âĸģáĮĭáĪŃ",
        -7.95201106096666
      ],
      [
        "fu",
        -7.953718435987339
      ],
      [
        "áĪĥ",
        -7.955431333515351
      ],
      [
        "âĸģso",
        -7.956613011092841
      ],
      [
        "âĸģ3",
        -7.960934990517556
      ],
      [
        "áĮİ",
        -7.962060084376983
      ],
      [
        "ran",
        -7.963133082359386
      ],
      [
        "âĸģáĬłáĬķáĭµ",
        -7.963841052774914
      ],
      [
        "co",
        -7.966240927687663
      ],
      [
        "19",
        -7.966793515969076
      ],
      [
        "ic",
        -7.967246511045406
      ],
      [
        "áĬĽáĭį",
        -7.968340935854931
      ],
      [
        "ir",
        -7.969187502358164
      ],
      [
        "áĬ®",
        -7.970374374667241
      ],
      [
        "áį",
        -7.972384892799601
      ],
      [
        "ng",
        -7.974214901496817
      ],
      [
        "áĪĺáĬķáĮįáĪ¥áīµ",
        -7.97451850814873
      ],
      [
        "âĸģáĭ°áĮįáĪŀ",
        -7.976957955742851
      ],
      [
        "âĸģpa",
        -7.977423873933269
      ],
      [
        "Ãł",
        -7.979810400716088
      ],
      [
        "áīģ",
        -7.980575623573911
      ],
      [
        "âĸģ17",
        -7.984202310082901
      ],
      [
        "Ã¬",
        -7.987352738732113
      ],
      [
        "1",
        -7.987846990592255
      ],
      [
        "sha",
        -7.992842759765567
      ],
      [
        "ant",
        -7.9943869289310125
      ],
      [
        "áĭ¶",
        -7.995043741107066
      ],
      [
        "wi",
        -7.99843142828712
      ],
      [
        "áĪ²",
        -7.998661579828234
      ],
      [
        "2",
        -8.00063047797146
      ],
      [
        "zo",
        -8.002703433092215
      ],
      [
        "âĸģá¹£e",
        -8.004962029421684
      ],
      [
        "âĸģÃĮ",
        -8.00739298279125
      ],
      [
        "âĸģfÃºn",
        -8.008308022212084
      ],
      [
        "âĸģáĭĵáĬŃáĪįáīł.",
        -8.011247885843051
      ],
      [
        "âĸģHa",
        -8.011546907083712
      ],
      [
        "âĸģáĭµáĪ¨áĪµ",
        -8.011824768736192
      ],
      [
        "áĮħ",
        -8.01563271685863
      ],
      [
        "rÃ©",
        -8.019678426950653
      ],
      [
        "áī¡",
        -8.023246007429487
      ],
      [
        "gu",
        -8.023714721965277
      ],
      [
        "yo",
        -8.024177441279397
      ],
      [
        "mp",
        -8.028742305651427
      ],
      [
        "âĸģwanda",
        -8.03243998491971
      ],
      [
        "âĸģbi",
        -8.032868986151856
      ],
      [
        "âĸģDe",
        -8.037340581147308
      ],
      [
        "áī¢",
        -8.039762365968308
      ],
      [
        "âĸģtÃ³",
        -8.045575160275996
      ],
      [
        "pi",
        -8.04709173434297
      ],
      [
        "ver",
        -8.04844357117914
      ],
      [
        "âĸģu",
        -8.049854459841807
      ],
      [
        "âĸģare",
        -8.053972523860223
      ],
      [
        "âĸģáĭĪ",
        -8.054833636613798
      ],
      [
        "âĸģhu",
        -8.059101527158774
      ],
      [
        "va",
        -8.060346184790065
      ],
      [
        "E",
        -8.060351452743413
      ],
      [
        "wo",
        -8.060667209908054
      ],
      [
        "ry",
        -8.06069609864034
      ],
      [
        "jo",
        -8.0610539554826
      ],
      [
        "Ã¡",
        -8.070697475263819
      ],
      [
        "âĸģEn",
        -8.07172328219023
      ],
      [
        "âĸģáĪįáĮħ",
        -8.071869783511712
      ],
      [
        "âĸģ2",
        -8.073232781997156
      ],
      [
        "âĸģSe",
        -8.079046311118374
      ],
      [
        "áĭķ",
        -8.085252665889056
      ],
      [
        "ad",
        -8.089016418762116
      ],
      [
        "âĸģHe",
        -8.089176350680294
      ],
      [
        "áĭ",
        -8.089691857597016
      ],
      [
        "áĪįáį¢",
        -8.090681532732516
      ],
      [
        "ine",
        -8.0909009329736
      ],
      [
        "âĸģD",
        -8.094819558720328
      ],
      [
        "âĸģÂ»",
        -8.097827815058324
      ],
      [
        "avec",
        -8.103004947615288
      ],
      [
        "âĸģBo",
        -8.10479283923858
      ],
      [
        "ca",
        -8.105816104426747
      ],
      [
        "mba",
        -8.110144854600165
      ],
      [
        "âĸģNa",
        -8.110238660144613
      ],
      [
        "âĸģMo",
        -8.119642399065182
      ],
      [
        "nd",
        -8.122377914035374
      ],
      [
        "âĸģ4",
        -8.124067560000247
      ],
      [
        "âĸģha",
        -8.127408984204873
      ],
      [
        "âĸģáĬ«",
        -8.128048394330735
      ],
      [
        "âĸģIl",
        -8.128083139373421
      ],
      [
        "D",
        -8.128890483250558
      ],
      [
        "âĸģRe",
        -8.129206513363668
      ],
      [
        "âĸģmi",
        -8.131378464591226
      ],
      [
        "um",
        -8.132458810738992
      ],
      [
        "yi",
        -8.138742715985414
      ],
      [
        "áĭ²",
        -8.139376541720416
      ],
      [
        "áĮŃ",
        -8.139507265537167
      ],
      [
        "âĸģPa",
        -8.139712452409077
      ],
      [
        "âĸģali",
        -8.14732104243526
      ],
      [
        "C",
        -8.147488045512558
      ],
      [
        "âĸģbÃŃ",
        -8.14805664270583
      ],
      [
        "âĸģkama",
        -8.149666264672902
      ],
      [
        "fin",
        -8.151637203912287
      ],
      [
        "âĸģáī¢",
        -8.153303422300338
      ],
      [
        "âĸģdon",
        -8.161279920296657
      ],
      [
        "ion",
        -8.162316598717954
      ],
      [
        "âĸģáĪĽáĪĪáīµ",
        -8.167970002084145
      ],
      [
        "áĪ±",
        -8.168021569056847
      ],
      [
        "âĸģzuwa",
        -8.170566676450242
      ],
      [
        "âĸģrÃ©",
        -8.171476156431197
      ],
      [
        "âĸģáīłáĬł",
        -8.174009240547623
      ],
      [
        "âĸģwhich",
        -8.176457695215184
      ],
      [
        "áī¶áī½",
        -8.177294591794999
      ],
      [
        "âĸģex",
        -8.179471152722506
      ],
      [
        "âĸģDa",
        -8.180282786218823
      ],
      [
        "âĸģlo",
        -8.180633115599985
      ],
      [
        "âĸģal",
        -8.184245830832568
      ],
      [
        "âĸģnÃŃnÃº",
        -8.185083365724338
      ],
      [
        "âĸģVi",
        -8.185878174593336
      ],
      [
        "âĸģra",
        -8.19304125248463
      ],
      [
        "âĸģ16",
        -8.193259997988543
      ],
      [
        "âĸģNobel",
        -8.195774797457855
      ],
      [
        "âĸģáĬķáĮīáĪ¥",
        -8.196157461970765
      ],
      [
        "áį¦",
        -8.199839005290778
      ],
      [
        "âĸģá»įmá»į",
        -8.201485125812223
      ],
      [
        "ts",
        -8.202566008568798
      ],
      [
        "áĪķ",
        -8.20671808301507
      ],
      [
        "âĸģáī³áĪªáĬŃ",
        -8.210180423572785
      ],
      [
        "âĸģáĪ°áĭį",
        -8.212620813935525
      ],
      [
        "I",
        -8.21318901008091
      ],
      [
        "âĸģYa",
        -8.214713034176992
      ],
      [
        "áĭ®",
        -8.217355281255726
      ],
      [
        "ī°áī°áĪ¨áĮİáĪĺ",
        -8.218506961281758
      ],
      [
        "áī´",
        -8.219806320799504
      ],
      [
        "âĸģáĪĪáĪĺ",
        -8.220708755116185
      ],
      [
        "âĸģNajeriya",
        -8.222789758516232
      ],
      [
        "âĸģMi",
        -8.224832085513235
      ],
      [
        "µ",
        -8.225320927411703
      ],
      [
        "âĸģáĪ°",
        -8.225799957591498
      ],
      [
        "âĸģRa",
        -8.227021358732468
      ],
      [
        "âĸģáĭ«áĪįá",
        -8.231615550575981
      ],
      [
        "âĸģáī¥áĭĻ",
        -8.2317363725723
      ],
      [
        "Ã©e",
        -8.233318094109526
      ],
      [
        "ju",
        -8.236824249993944
      ],
      [
        "âĸģÃĵ",
        -8.239350294242026
      ],
      [
        "ho",
        -8.239515043328757
      ],
      [
        "áĮ«",
        -8.240351960009722
      ],
      [
        "âĸģd'un",
        -8.242928697567176
      ],
      [
        "âĸģ;",
        -8.245032271133558
      ],
      [
        "sta",
        -8.245468437856848
      ],
      [
        "âĸģlÃ¡ti",
        -8.246365635085402
      ],
      [
        "âĸģ15",
        -8.24777347492885
      ],
      [
        "âĸģÃ©",
        -8.251321128602617
      ],
      [
        "âĸģnot",
        -8.252047833485948
      ],
      [
        "áĬª",
        -8.255009932520808
      ],
      [
        "áĬķáĮį",
        -8.269647732107629
      ],
      [
        "âĸģR",
        -8.270007085122097
      ],
      [
        "rÃŃ",
        -8.274497385095298
      ],
      [
        "âĸģnÃ¡Ãł",
        -8.275291844606029
      ],
      [
        "âĸģL",
        -8.278396750482708
      ],
      [
        "6",
        -8.281391335730826
      ],
      [
        "ique",
        -8.282010936215963
      ],
      [
        "áĭ©",
        -8.282128233328296
      ],
      [
        "S",
        -8.284953291514249
      ],
      [
        "âĸģ5",
        -8.2854884374591
      ],
      [
        "son",
        -8.28550183371798
      ],
      [
        "id",
        -8.290283342092401
      ],
      [
        "âĸģco",
        -8.29216114782363
      ],
      [
        "M",
        -8.292609404617528
      ],
      [
        "Ã²",
        -8.293442364200377
      ],
      [
        "e,",
        -8.29489576145251
      ],
      [
        "chi",
        -8.296218035331702
      ],
      [
        "áĪ¶",
        -8.297971331872358
      ],
      [
        "áī¦",
        -8.298748167487549
      ],
      [
        "âĸģwatan",
        -8.299074861258145
      ],
      [
        "tÃ©",
        -8.302686918940452
      ],
      [
        "O",
        -8.303395291535022
      ],
      [
        "âĸģáĬĲáĮĪáĪŃ",
        -8.303694569330112
      ],
      [
        "âĸģmatsayin",
        -8.304666207980816
      ],
      [
        "âĸģsÃ¬",
        -8.305078789578562
      ],
      [
        "at",
        -8.305226373401208
      ],
      [
        "âĸģÃ²",
        -8.307537711861784
      ],
      [
        "âĸģáĭĵ/áĪĿ",
        -8.308307748244959
      ],
      [
        "âĸģLi",
        -8.308597857233234
      ],
      [
        "âĸģáĪµáĪĿ",
        -8.30905211351459
      ],
      [
        "âĸģDi",
        -8.309161040253063
      ],
      [
        "ron",
        -8.31066536731585
      ],
      [
        "âĸģsuka",
        -8.312268824927667
      ],
      [
        "âĸģsun",
        -8.31291719879081
      ],
      [
        "âĢĿ",
        -8.31344041790638
      ],
      [
        "áī¸áĭį",
        -8.315728173133209
      ],
      [
        "âĸģdo",
        -8.316065381392587
      ],
      [
        "hu",
        -8.316102411174292
      ],
      [
        "âĸģnchi",
        -8.319131568787048
      ],
      [
        "âĸģLes",
        -8.320925436629352
      ],
      [
        "yar",
        -8.322349013468546
      ],
      [
        "âĸģSi",
        -8.322580663246391
      ],
      [
        "âĸģMe",
        -8.324927562140989
      ],
      [
        "im",
        -8.326650146952328
      ],
      [
        "P",
        -8.328271332866183
      ],
      [
        "âĸģit",
        -8.330297473610862
      ],
      [
        "âĸģáĭĭáĬĵ",
        -8.331052445563197
      ],
      [
        "3",
        -8.331132085835108
      ],
      [
        "âĸģ10",
        -8.33121909082958
      ],
      [
        "fe",
        -8.33350760569549
      ],
      [
        "âĸģNi",
        -8.333550099205304
      ],
      [
        "âĸģáĪĬ",
        -8.333889861884764
      ],
      [
        "áĪ¸",
        -8.333933206489187
      ],
      [
        "5",
        -8.33495837986112
      ],
      [
        "áĬ",
        -8.335266736955855
      ],
      [
        "dÃ©",
        -8.335338635390176
      ],
      [
        "war",
        -8.338359739812852
      ],
      [
        "cha",
        -8.338743694776836
      ],
      [
        "ton",
        -8.341823213099643
      ],
      [
        "ul",
        -8.341900517104605
      ],
      [
        "Į",
        -8.342242381206786
      ],
      [
        "âĸģNÃłÃ¬jÃŃrÃŃÃł",
        -8.343647346473457
      ],
      [
        "áº¹Ìģ",
        -8.344779160578605
      ],
      [
        "7",
        -8.346273823960345
      ],
      [
        "âĸģâĢľ",
        -8.35167645033626
      ],
      [
        "ure",
        -8.352158732280984
      ],
      [
        "kin",
        -8.352597530515832
      ],
      [
        "âĸģáĪµ",
        -8.353549565693472
      ],
      [
        "âĸģwasan",
        -8.353852523545633
      ],
      [
        "âĸģkuwa",
        -8.354131464843867
      ],
      [
        "âĸģmata",
        -8.354199859965092
      ],
      [
        "âĸģáī£",
        -8.356865792172336
      ],
      [
        "âĸģCa",
        -8.358045922568223
      ],
      [
        "âĸģáĬ¢",
        -8.359430695511954
      ],
      [
        "âĸģwere",
        -8.359754467280412
      ],
      [
        "Ã¨",
        -8.362862723525154
      ],
      [
        "âĸģáĪ",
        -8.363017421317096
      ],
      [
        "et",
        -8.363555418875645
      ],
      [
        "áº¹",
        -8.364826267429237
      ],
      [
        "vo",
        -8.365203005743059
      ],
      [
        "âĸģRo",
        -8.36772394219887
      ],
      [
        "áĪľ",
        -8.369923992176952
      ],
      [
        "tion",
        -8.370140516764767
      ],
      [
        "tes",
        -8.370245898915211
      ],
      [
        "yan",
        -8.373138908060666
      ],
      [
        "B",
        -8.373145601241227
      ],
      [
        "âĸģyake",
        -8.373774288930402
      ],
      [
        "áº¹ÌĢ",
        -8.377569257403582
      ],
      [
        "áĮ½",
        -8.380033590658423
      ],
      [
        "âĸģ20",
        -8.382639527015284
      ],
      [
        "âĸģcomme",
        -8.384282464040247
      ],
      [
        "áĪµáīµ",
        -8.385253809259538
      ],
      [
        "4",
        -8.386947331322066
      ],
      [
        "áĭĵ",
        -8.388043982130235
      ],
      [
        "ia",
        -8.38960150024322
      ],
      [
        "he",
        -8.390242203654664
      ],
      [
        "âĸģcom",
        -8.391090613247904
      ],
      [
        "âĢĻ",
        -8.391193240765237
      ],
      [
        "lla",
        -8.392817150261008
      ],
      [
        "j",
        -8.393101817513745
      ],
      [
        "âĸģ6",
        -8.395406926656712
      ],
      [
        "âĸģTo",
        -8.399022116060543
      ],
      [
        "âĸģH",
        -8.404212781778941
      ],
      [
        "(",
        -8.40651123954547
      ],
      [
        "au",
        -8.407954047525713
      ],
      [
        "der",
        -8.41333923962286
      ],
      [
        "âĸģW",
        -8.414420960979088
      ],
      [
        "áĪĪáĭį",
        -8.414442834574164
      ],
      [
        "âĸģBi",
        -8.415783560413942
      ],
      [
        "ity",
        -8.415860059704453
      ],
      [
        "âĸģáīłáĭļáĪħ",
        -8.416448896947365
      ],
      [
        "ers",
        -8.417716503088993
      ],
      [
        "20",
        -8.42523429227376
      ],
      [
        "lÃ¡",
        -8.426124468539097
      ],
      [
        "les",
        -8.426512040038677
      ],
      [
        "L",
        -8.4272705517939
      ],
      [
        "tro",
        -8.430377702165124
      ],
      [
        "áįķ",
        -8.431574158928896
      ],
      [
        "op",
        -8.433822486115123
      ],
      [
        "ozaliwa",
        -8.434387046655704
      ],
      [
        "âĸģvya",
        -8.435414253666028
      ],
      [
        "R",
        -8.435755934064886
      ],
      [
        "âĸģáĭĺ",
        -8.436194718162517
      ],
      [
        "âĸģáĬłáĪį",
        -8.436397152946732
      ],
      [
        "âĸģKo",
        -8.436796497780069
      ],
      [
        "âĸģmo",
        -8.436899610538918
      ],
      [
        "mar",
        -8.437158869333286
      ],
      [
        "á»įÌģ",
        -8.439767577522385
      ],
      [
        "T",
        -8.43983278935566
      ],
      [
        "âĸģÆĻasar",
        -8.440788907874543
      ],
      [
        "ou",
        -8.444342039793021
      ],
      [
        "am",
        -8.445253674889335
      ],
      [
        "âĸģawon",
        -8.445440345896902
      ],
      [
        "âĸģáĮį",
        -8.44685807125984
      ],
      [
        "sh",
        -8.447579733580465
      ],
      [
        "áįĬ",
        -8.448087455342058
      ],
      [
        "tic",
        -8.44909829264998
      ],
      [
        "lle",
        -8.451276562291651
      ],
      [
        "láº¹ÌĢ",
        -8.453645625096767
      ],
      [
        "áĬ¨áī°",
        -8.454309420204261
      ],
      [
        "âĸģCo",
        -8.455787326173937
      ],
      [
        "nta",
        -8.456711847233148
      ],
      [
        "N",
        -8.458739272001011
      ],
      [
        "âĸģáĪĺáĭ°áī¥",
        -8.461393581159196
      ],
      [
        "Ã³",
        -8.461513678982715
      ],
      [
        "âĸģJa",
        -8.462110497230823
      ],
      [
        "âĸģFa",
        -8.464139252560745
      ],
      [
        "nce",
        -8.465404206247836
      ],
      [
        "âĸģGa",
        -8.46654646059888
      ],
      [
        "âĸģKu",
        -8.466704935204511
      ],
      [
        "âĸģáĪ°áĭİáī½",
        -8.466809767813327
      ],
      [
        "gun",
        -8.466893803882982
      ],
      [
        "H",
        -8.467890952834932
      ],
      [
        "ty",
        -8.471703235116856
      ],
      [
        "ÃŃ",
        -8.472374466583172
      ],
      [
        "âĸģ/",
        -8.474263024137628
      ],
      [
        "Ã¹",
        -8.474302654374089
      ],
      [
        "áĪĢ",
        -8.475691956161839
      ],
      [
        "áĮĢ",
        -8.475883122010863
      ],
      [
        "âĸģHo",
        -8.476043936413785
      ],
      [
        "áĪģ",
        -8.481286496057338
      ],
      [
        "âĸģáĬ¥áĬķáĭ²",
        -8.482432133803869
      ],
      [
        "est",
        -8.48305476929351
      ],
      [
        "ofariki",
        -8.48756704560433
      ],
      [
        "âĸģMat",
        -8.491088184914446
      ],
      [
        "âĸģyana",
        -8.4931540559887
      ],
      [
        "áį¥",
        -8.49363860969764
      ],
      [
        "kar",
        -8.495450004914161
      ],
      [
        "áĪĲ",
        -8.496968579351853
      ],
      [
        "âĢĵ",
        -8.497540541309814
      ],
      [
        "âĸģáīłáĪĽ",
        -8.497974530370374
      ],
      [
        "âĸģáĭ¨áĪĺ",
        -8.500176857679994
      ],
      [
        "áĪ´",
        -8.500457349489077
      ],
      [
        "âĸģwá»įn",
        -8.504861268733304
      ],
      [
        "âĸģci",
        -8.504861769572074
      ],
      [
        "âĸģ12",
        -8.506743444020886
      ],
      [
        "âĸģgba",
        -8.50915907508805
      ],
      [
        "áĪļáĭ«",
        -8.512390334166177
      ],
      [
        "kun",
        -8.512697842173417
      ],
      [
        "âĸģáĭĵáĪĿ",
        -8.513372607183364
      ],
      [
        "áĭ´",
        -8.516093868167353
      ],
      [
        "land",
        -8.516401258756499
      ],
      [
        "âĸģ14",
        -8.520865736086773
      ],
      [
        "âĸģáĭĵáĪĺáīµ",
        -8.524095451242845
      ],
      [
        "âĸģalso",
        -8.52411394552531
      ],
      [
        "âĸģáĭ",
        -8.524141007689535
      ],
      [
        "âĸģAfrika",
        -8.527000978299608
      ],
      [
        "âĸģjihar",
        -8.529944834114293
      ],
      [
        "âĸģManazarta",
        -8.530387040860546
      ],
      [
        "âĸģ7",
        -8.530984694855645
      ],
      [
        "áĪªáĭ«",
        -8.531454504524403
      ],
      [
        "tar",
        -8.53346990748673
      ],
      [
        "itÃ©",
        -8.53449644156486
      ],
      [
        "âĸģTuz",
        -8.536110529451722
      ],
      [
        "âĸģili",
        -8.536574214737954
      ],
      [
        "âĸģp",
        -8.53851515263351
      ],
      [
        "âĸģfun",
        -8.538529218879162
      ],
      [
        "âĸģÃ¬lÃº",
        -8.538754828704555
      ],
      [
        "âĸģMarekani",
        -8.541500695238081
      ],
      [
        "ze",
        -8.541877059197631
      ],
      [
        "âĸģáĪģáĪī",
        -8.545025652848997
      ],
      [
        "âĸģpia",
        -8.545041079971924
      ],
      [
        "âĸģáĬ¨áĭļáĪħ",
        -8.545127924493599
      ],
      [
        "âĸģ11",
        -8.545773557541747
      ],
      [
        "âĸģcan",
        -8.54771276671046
      ],
      [
        "âĸģlati",
        -8.547857056147823
      ],
      [
        "âĸģhad",
        -8.55031409403371
      ],
      [
        "âĸģlâĢĻ",
        -8.551840961327544
      ],
      [
        "G",
        -8.552047048027706
      ],
      [
        "âĸģf",
        -8.552507238002185
      ],
      [
        "âĸģtare",
        -8.553045308336397
      ],
      [
        "áĮĥ",
        -8.55431326665031
      ],
      [
        "âĸģ=",
        -8.554894042725248
      ],
      [
        "áĪµáī°",
        -8.555153557992181
      ],
      [
        "min",
        -8.556338764617353
      ],
      [
        "ted",
        -8.55723760472416
      ],
      [
        "áī¹",
        -8.557583630027821
      ],
      [
        "âĸģhii",
        -8.558747818179906
      ],
      [
        "em",
        -8.558979352500224
      ],
      [
        "âĸģáĬĲ",
        -8.559997494514718
      ],
      [
        "âĸģg",
        -8.56000503545613
      ],
      [
        "âĸģli",
        -8.561659265084645
      ],
      [
        "ut",
        -8.562698786965282
      ],
      [
        "âĸģpas",
        -8.564641233825835
      ],
      [
        "âĸģkasance",
        -8.564688390061796
      ],
      [
        "áĮĮ",
        -8.564784294890393
      ],
      [
        "âĸģca",
        -8.565103745377538
      ],
      [
        "âĸģáį¡",
        -8.566644436817763
      ],
      [
        "ian",
        -8.56800730559821
      ],
      [
        "¥",
        -8.568646478902286
      ],
      [
        "âĸģáĮĪ",
        -8.569356157359923
      ],
      [
        "âĸģCon",
        -8.569447346151371
      ],
      [
        "âĸģáĪĪáĪĽ",
        -8.57061802888067
      ],
      [
        "âĸģMar",
        -8.571034348392601
      ],
      [
        "áĭįáĭ«áĬķ",
        -8.574416277492436
      ],
      [
        "ement",
        -8.576767416743479
      ],
      [
        "áī»",
        -8.57853883879869
      ],
      [
        "áĪĪáīµ",
        -8.581730998385748
      ],
      [
        "áīµáĬķ",
        -8.58432950597241
      ],
      [
        "áī°áĭį",
        -8.58441141004053
      ],
      [
        "âĸģáĬ¤",
        -8.58572830881758
      ],
      [
        "âĸģNew",
        -8.586036983719655
      ],
      [
        "gen",
        -8.587282011832157
      ],
      [
        "áįī",
        -8.587432082796845
      ],
      [
        "áī¤",
        -8.588375158340263
      ],
      [
        "âĸģ8",
        -8.5888884713162
      ],
      [
        "áĪĺáĬķ",
        -8.590483992757953
      ],
      [
        "âĸģmu",
        -8.590819968103226
      ],
      [
        "F",
        -8.591831112851795
      ],
      [
        "age",
        -8.595284154419321
      ],
      [
        "âĸģfirst",
        -8.598554679190233
      ],
      [
        "áīĤ",
        -8.598765376713871
      ],
      [
        "âĸģbo",
        -8.601695381802898
      ],
      [
        "âĸģarÃ¡",
        -8.602224849959953
      ],
      [
        "sse",
        -8.602645626784314
      ],
      [
        "âĸģáī¤áīµ",
        -8.605593553273746
      ],
      [
        "ight",
        -8.606383657364201
      ],
      [
        "yin",
        -8.607340870614292
      ],
      [
        "âĸģja",
        -8.607342739794444
      ],
      [
        "âĸģsha",
        -8.607896338474404
      ],
      [
        "âĸģhar",
        -8.608669833496688
      ],
      [
        "_",
        -8.60998705314223
      ],
      [
        "awá»įn",
        -8.613749474851886
      ],
      [
        "âĸģáīĭáĬķáīĭ",
        -8.618029932365094
      ],
      [
        "âĸģpo",
        -8.622274101777053
      ],
      [
        "ction",
        -8.622667900982178
      ],
      [
        "ff",
        -8.627113018150645
      ],
      [
        "U",
        -8.6272023166251
      ],
      [
        "âĸģáĭ«áĪĪ",
        -8.628423297360804
      ],
      [
        "áĪĺáĮĢáĪĺáĪªáĭ«",
        -8.628967280884627
      ],
      [
        "âĸģáĮĢáĪĿáĪ®",
        -8.629040425590691
      ],
      [
        "áĪīáį¢",
        -8.629040769425679
      ],
      [
        "ise",
        -8.630609491884382
      ],
      [
        "âĸģfarko",
        -8.63152680028784
      ],
      [
        "âĸģJ",
        -8.631759393577425
      ],
      [
        "âĸģPapa",
        -8.631906739984583
      ],
      [
        "]",
        -8.631966899227217
      ],
      [
        "ster",
        -8.632336593356257
      ],
      [
        "'a",
        -8.634854202498452
      ],
      [
        "cu",
        -8.636312779436537
      ],
      [
        "18",
        -8.63832518257643
      ],
      [
        "pp",
        -8.642693252782923
      ],
      [
        "\".",
        -8.643065680017653
      ],
      [
        "?",
        -8.64416640953295
      ],
      [
        "âĸģina",
        -8.646258251902985
      ],
      [
        "âĸģbut",
        -8.649287089625709
      ],
      [
        "âĸģl'a",
        -8.64958863299594
      ],
      [
        "âĸģc",
        -8.649758600725995
      ],
      [
        "mshindi",
        -8.650869992952193
      ],
      [
        "âĸģbayan",
        -8.65540281208652
      ],
      [
        "âĸģ9",
        -8.655909819122233
      ],
      [
        "âĸģara",
        -8.656134407107608
      ],
      [
        "âĸģáĬłáĮĪáĪŃ",
        -8.65661027597374
      ],
      [
        "âĸģáĭ¨áĪļáĮĪáĬĿ",
        -8.657771064981185
      ],
      [
        "âĸģáīµ",
        -8.65851397745531
      ],
      [
        "âĸģáĬŃ",
        -8.659752566660952
      ],
      [
        "âĸģáĬĵáī¸áĭįáį¢",
        -8.661357332794328
      ],
      [
        "âĸģáĭĺáĬķáĭµ",
        -8.66357857623493
      ],
      [
        "lin",
        -8.663906719695408
      ],
      [
        "já»į",
        -8.665155351774265
      ],
      [
        "âĸģáĬ¥áĭ¨",
        -8.666358279938848
      ],
      [
        "áĭī",
        -8.666752011633555
      ],
      [
        "ous",
        -8.667670494975276
      ],
      [
        "áīłáĪŃ",
        -8.66814430415619
      ],
      [
        "mb",
        -8.669011372645276
      ],
      [
        "ate",
        -8.669624228916096
      ],
      [
        "san",
        -8.670038858046727
      ],
      [
        "âĸģhave",
        -8.670105670606041
      ],
      [
        "âĸģLo",
        -8.67075585628802
      ],
      [
        "mbo",
        -8.670966720313125
      ],
      [
        "ie",
        -8.671470379663857
      ],
      [
        "âĸģho",
        -8.673353220396233
      ],
      [
        "âĸģwani",
        -8.677060687161411
      ],
      [
        "âĸģSo",
        -8.677218452130228
      ],
      [
        "áĮĪáī£",
        -8.678454651174095
      ],
      [
        "âĸģáĬ¥áĬķáĭ³",
        -8.678583693005404
      ],
      [
        "âĸģhaife",
        -8.679630662619724
      ],
      [
        "âĸģlá»į",
        -8.680660056996448
      ],
      [
        "8",
        -8.681622654478891
      ],
      [
        "âĸģpÃ©",
        -8.682644539303986
      ],
      [
        "she",
        -8.682873303343785
      ],
      [
        "tan",
        -8.683232285449847
      ],
      [
        "âĸģpe",
        -8.68351629710508
      ],
      [
        "ana",
        -8.689397470617608
      ],
      [
        "âĸģAm",
        -8.689813388045733
      ],
      [
        "âĸģwho",
        -8.69216143546777
      ],
      [
        "âĸģerÃ©",
        -8.693360246202296
      ],
      [
        "Ã©s",
        -8.693708760030152
      ],
      [
        "âĸģranar",
        -8.69455791669062
      ],
      [
        "âĸģNÃŃ",
        -8.695600720772799
      ],
      [
        "âĸģáĬłáĬķ",
        -8.6956994305279
      ],
      [
        "áĪ£",
        -8.696127506698707
      ],
      [
        "âĸģáīħ",
        -8.696404327753477
      ],
      [
        "ika",
        -8.696516812740619
      ],
      [
        "âĸģwali",
        -8.696780293712848
      ],
      [
        "âĸģ13",
        -8.698753909491796
      ],
      [
        "âĸģsuna",
        -8.699182185356607
      ],
      [
        "0",
        -8.699526628284547
      ],
      [
        "áĪ®áī½",
        -8.70177541757021
      ],
      [
        "ris",
        -8.703492917258806
      ],
      [
        "âĸģPo",
        -8.703531124524755
      ],
      [
        "âĸģb",
        -8.703578770484462
      ],
      [
        "âĸģáī¥áī»",
        -8.707548351369063
      ],
      [
        "cho",
        -8.707716712777955
      ],
      [
        "°",
        -8.70773009963121
      ],
      [
        "áĭĪáĮ£",
        -8.708286816192988
      ],
      [
        "áĬ¥áĬķáĭ²áĪģáĪĿ",
        -8.70829945585361
      ],
      [
        "âĸģtana",
        -8.712076979065834
      ],
      [
        "âĸģits",
        -8.712124346709203
      ],
      [
        "sion",
        -8.712607831655625
      ],
      [
        "âĸģju",
        -8.714116139670235
      ],
      [
        "lan",
        -8.714860709150567
      ],
      [
        "áĪĭáī¸áĭį",
        -8.715738073144072
      ],
      [
        "W",
        -8.71627202018103
      ],
      [
        "âĸģBu",
        -8.716943804106357
      ],
      [
        "âĸģLu",
        -8.717261143605842
      ],
      [
        "âĸģAr",
        -8.717317925470695
      ],
      [
        "âĸģhas",
        -8.71830100296254
      ],
      [
        "âĸģwÃł",
        -8.718616095433752
      ],
      [
        "âĸģDo",
        -8.719131378151431
      ],
      [
        "âĸģáī³",
        -8.719477475029562
      ],
      [
        "âĸģtsa",
        -8.720328151228358
      ],
      [
        "âĸģhadi",
        -8.720816711705213
      ],
      [
        "âĸģaux",
        -8.721045500331545
      ],
      [
        "âĸģá»į",
        -8.723816437969452
      ],
      [
        "âĸģáĭ°",
        -8.726512974717167
      ],
      [
        "âĸģÃĴ",
        -8.729737169084501
      ],
      [
        "nga",
        -8.731419874897846
      ],
      [
        "âĸģiláº¹ÌĢ",
        -8.731644960818171
      ],
      [
        "âĸģSu",
        -8.73238747228125
      ],
      [
        "âĸģ(A",
        -8.73251989278468
      ],
      [
        "âĸģBe",
        -8.735106305966301
      ],
      [
        "per",
        -8.736681017947983
      ],
      [
        "âĸģ'",
        -8.738062631419247
      ],
      [
        "áĭ«áĬķ",
        -8.738448906274566
      ],
      [
        "âĸģáĬ®",
        -8.738724275009226
      ],
      [
        "âĸģother",
        -8.738788992365457
      ],
      [
        "ukio",
        -8.741785064238908
      ],
      [
        "âĸģL'",
        -8.742132939327824
      ],
      [
        "ated",
        -8.743890650974633
      ],
      [
        "âĸģáĬłáĪĪ",
        -8.745121268776144
      ],
      [
        "âĸģkÃŃ",
        -8.74609894581587
      ],
      [
        "âĸģbiyu",
        -8.747169828769223
      ],
      [
        "âĸģfara",
        -8.74725609858525
      ],
      [
        "âĸģáĬĲáīłáĪŃ",
        -8.747535647365376
      ],
      [
        "14",
        -8.748073939644552
      ],
      [
        "¨",
        -8.749453514497436
      ],
      [
        "lia",
        -8.749571376354153
      ],
      [
        "âĸģmasu",
        -8.750640325132979
      ],
      [
        "âĸģáīģáĮ¥áĪŃ",
        -8.751711877940917
      ],
      [
        "âĸģlokacin",
        -8.75467141434984
      ],
      [
        "áįĴ",
        -8.754949003194199
      ],
      [
        "áĮ¸",
        -8.757177498296725
      ],
      [
        "orÃŃláº¹ÌĢ-Ã¨dÃ¨",
        -8.758875621039842
      ],
      [
        "áĬķáĪĿ",
        -8.76307357570468
      ],
      [
        "âĸģCe",
        -8.76423663614224
      ],
      [
        "âĸģÃ¨dÃ¨",
        -8.767196320699867
      ],
      [
        "âĸģAs",
        -8.768787686988942
      ],
      [
        "âĸģTe",
        -8.768958816769997
      ],
      [
        "âĸģkasar",
        -8.77002929677078
      ],
      [
        "áĮĬ",
        -8.770354013277622
      ],
      [
        "vu",
        -8.771203546363658
      ],
      [
        "the",
        -8.772671554282311
      ],
      [
        "ny",
        -8.773027081019057
      ],
      [
        "iki",
        -8.773917883986833
      ],
      [
        "9",
        -8.774911983947554
      ],
      [
        "tta",
        -8.776874567597423
      ],
      [
        "vent",
        -8.778404631544015
      ],
      [
        "âĸģana",
        -8.780532711132164
      ],
      [
        "âĸģáĪ³",
        -8.780903398880906
      ],
      [
        "âĸģáĭ¨áĬ",
        -8.7815392253056
      ],
      [
        "as",
        -8.785106934927171
      ],
      [
        "âĸģile",
        -8.785535468005765
      ],
      [
        "áĭĭáĪįáį¢",
        -8.785539961587522
      ],
      [
        "ká»į",
        -8.786984980584908
      ],
      [
        "port",
        -8.787528363222968
      ],
      [
        "âĸģlÃ³",
        -8.788552686526964
      ],
      [
        "âĸģTanzania",
        -8.790055710218688
      ],
      [
        "ex",
        -8.791217769642394
      ],
      [
        "¡",
        -8.79149428290936
      ],
      [
        "ary",
        -8.795925324083484
      ],
      [
        "áĮĤ",
        -8.798448700363402
      ],
      [
        "ban",
        -8.801156787468532
      ],
      [
        "âĸģáīłáĬ",
        -8.802028851527425
      ],
      [
        "jÃº",
        -8.803103123097468
      ],
      [
        "áĮĵ",
        -8.803774667821722
      ],
      [
        "ire",
        -8.804119000070617
      ],
      [
        "áĭĻ",
        -8.804729634671379
      ],
      [
        "áĬ¤",
        -8.80509516495008
      ],
      [
        "âĸģOn",
        -8.806306959745825
      ],
      [
        "áĪĺáĪŃ",
        -8.806992818095694
      ],
      [
        "áĪĺáĮ£",
        -8.810273175209357
      ],
      [
        "âĸģHi",
        -8.8104908208437
      ],
      [
        "ive",
        -8.81071245944555
      ],
      [
        "âĸģáĬ¥áĬķ",
        -8.812414893098111
      ],
      [
        "áĮ¦",
        -8.81351282239895
      ],
      [
        "%",
        -8.814019542822503
      ],
      [
        "âĸģáīłáī°",
        -8.814085741007434
      ],
      [
        "áĪł",
        -8.814512361301183
      ],
      [
        "áī°áĬĽ",
        -8.815308507668986
      ],
      [
        "á»į",
        -8.816694912346716
      ],
      [
        "áĮ¡",
        -8.818957968662113
      ],
      [
        "áĪ°áĭį",
        -8.819622636191976
      ],
      [
        "âĸģáĪĺáĬ«áĬ¨áĪį",
        -8.819700337770616
      ],
      [
        "´",
        -8.819940471019184
      ],
      [
        "aire",
        -8.820153883609656
      ],
      [
        "âĸģtheir",
        -8.82142431375629
      ],
      [
        "âĸģáīłáĪĭáĭŃ",
        -8.823079536837959
      ],
      [
        "áĪĺáĪį",
        -8.823841041812596
      ],
      [
        "áįħ",
        -8.824389299938051
      ],
      [
        "áĭ°áĪ¨",
        -8.824395734740598
      ],
      [
        "able",
        -8.826105689470122
      ],
      [
        "ting",
        -8.826387772403024
      ],
      [
        "âĸģzama",
        -8.827243244993625
      ],
      [
        "âĸģbirnin",
        -8.827923587494075
      ],
      [
        "âĸģthis",
        -8.828525232097729
      ],
      [
        "ven",
        -8.831860203072054
      ],
      [
        "âĸģnom",
        -8.831950377324942
      ],
      [
        "âĸģáĮ¥",
        -8.832250579448784
      ],
      [
        "nÃŃ",
        -8.832273768967315
      ],
      [
        "âĸģMu",
        -8.833335978815242
      ],
      [
        "âĸģalikuwa",
        -8.833382912702985
      ],
      [
        "K",
        -8.833551467117786
      ],
      [
        "ance",
        -8.83527364644883
      ],
      [
        "âĸģUniversity",
        -8.83572314034242
      ],
      [
        "âĸģáĪĨáĬĸ",
        -8.836168629212676
      ],
      [
        "âĸģdan",
        -8.836932534339201
      ],
      [
        "pá»įÌĢ",
        -8.837004148683194
      ],
      [
        "nde",
        -8.838362184288211
      ],
      [
        "áī½áĬķ",
        -8.83870190912463
      ],
      [
        "áĪ¨áĭį",
        -8.839950965591699
      ],
      [
        "³",
        -8.841007281777024
      ],
      [
        "áīµáĪĿáĪħáĪŃáīµ",
        -8.841542922650781
      ],
      [
        "âĸģoá¹£Ã¹",
        -8.841654413061462
      ],
      [
        "âĸģyÃ¬ÃŃ",
        -8.842129310673428
      ],
      [
        "áĭ°áĪŃ",
        -8.842179899846794
      ],
      [
        "áĪĨ",
        -8.84257268976325
      ],
      [
        "áĭİáī¹",
        -8.843993522667322
      ],
      [
        "âĸģKwa",
        -8.845196724299136
      ],
      [
        "áīłáĭĺáĪĺáĬĲ",
        -8.845404532112028
      ],
      [
        "áī°áĪŃ",
        -8.845899882139237
      ],
      [
        "âĸģWar",
        -8.846231595019146
      ],
      [
        "âĸģAli",
        -8.84626538272095
      ],
      [
        "áīª",
        -8.846844762367134
      ],
      [
        "lon",
        -8.847336120699156
      ],
      [
        "com",
        -8.847352287751091
      ],
      [
        "res",
        -8.848235070816383
      ],
      [
        "run",
        -8.849213083728248
      ],
      [
        "âĸģNe",
        -8.849408880261237
      ],
      [
        "âĸģáĪĨáĬĲ",
        -8.850800116950637
      ],
      [
        "if",
        -8.851277469278036
      ],
      [
        "áī¥áĪŃ",
        -8.85146459631586
      ],
      [
        "âĸģkati",
        -8.851689599235197
      ],
      [
        "ten",
        -8.855746395222946
      ],
      [
        "âĸģHu",
        -8.855949316911346
      ],
      [
        "âĸģáī£áĪĪ",
        -8.856065334839354
      ],
      [
        "âĸģwon",
        -8.857333740907272
      ],
      [
        "áĭĭáĪį",
        -8.857399481651715
      ],
      [
        "âĸģáī¤áī°",
        -8.857779333383967
      ],
      [
        "aux",
        -8.857943225492578
      ],
      [
        "es,",
        -8.857951276376033
      ],
      [
        "om",
        -8.858553639933593
      ],
      [
        "âĸģá»įjá»įÌģ",
        -8.858562813419354
      ],
      [
        "gba",
        -8.85892416575681
      ],
      [
        "âĸģ19",
        -8.860014831954196
      ],
      [
        "âĸģáĬ¦",
        -8.86050051253265
      ],
      [
        "âĸģáĬ¥.áĬ¤.áĬł.",
        -8.861342982859288
      ],
      [
        "áįĵ",
        -8.861714781879858
      ],
      [
        "âĸģkasa",
        -8.86203787441561
      ],
      [
        "bÃŃ",
        -8.862150786537487
      ],
      [
        "áĪĭáīµ",
        -8.864216524239582
      ],
      [
        "V",
        -8.86469273411874
      ],
      [
        "mÃ©",
        -8.864927452870813
      ],
      [
        "âĸģZa",
        -8.867677534491348
      ],
      [
        "jÃ¡",
        -8.868804280507867
      ],
      [
        "12",
        -8.869680827427839
      ],
      [
        "áĭ«áĪį",
        -8.87422627433168
      ],
      [
        "nda",
        -8.875617552743954
      ],
      [
        "âĸģJu",
        -8.877212748945183
      ],
      [
        "Ã©es",
        -8.878163119419856
      ],
      [
        "âĸģáĬ¨áĬł",
        -8.8781922007597
      ],
      [
        "Ã¨re",
        -8.878418679841314
      ],
      [
        "áĭļ",
        -8.878432440103317
      ],
      [
        "âĸģno",
        -8.880343715613417
      ],
      [
        "áįĪáĪŃ",
        -8.880875398558445
      ],
      [
        "âĸģmji",
        -8.881050865295917
      ],
      [
        "âĸģall",
        -8.883343369563507
      ],
      [
        "âĸģbÃ¡",
        -8.884383149150366
      ],
      [
        "din",
        -8.885136438024357
      ],
      [
        "âĸģlugha",
        -8.887264322570212
      ],
      [
        "áī±áĬķ",
        -8.888590185737403
      ],
      [
        "âĸģJe",
        -8.889691049785828
      ],
      [
        "ism",
        -8.891038913961541
      ],
      [
        "âĸģkwenye",
        -8.892084534039853
      ],
      [
        "·",
        -8.8922074234381
      ],
      [
        "âĸģHar",
        -8.892557027234062
      ],
      [
        "âĸģá»įÌĢ",
        -8.8929916841964
      ],
      [
        "âĸģibi",
        -8.896562737465189
      ],
      [
        "âĸģáīħáĭ±áĪµ",
        -8.89786425532246
      ],
      [
        "âĸģamba",
        -8.897892915485464
      ],
      [
        "!",
        -8.898820529296547
      ],
      [
        "pin",
        -8.900952625068667
      ],
      [
        "âĸģÃ¨nÃ¬yÃłn",
        -8.901907113853667
      ],
      [
        "âĸģsai",
        -8.901981002527972
      ],
      [
        "âĸģáĮł",
        -8.902515186681395
      ],
      [
        "áĪĿáį¢",
        -8.903303034137817
      ],
      [
        "áĬ¦",
        -8.903841960317724
      ],
      [
        "âĸģtÃºn",
        -8.90484858443717
      ],
      [
        "des",
        -8.907036451760009
      ],
      [
        "ura",
        -8.907570926432413
      ],
      [
        "gbe",
        -8.907614650965701
      ],
      [
        "âĸģbu",
        -8.90809614025096
      ],
      [
        "âĸģKristo",
        -8.909321787510036
      ],
      [
        "âĸģGu",
        -8.909575136416109
      ],
      [
        "âĸģninu",
        -8.909584889685657
      ],
      [
        "âĸģáĬŃáįįáĪĪ",
        -8.910159197888088
      ],
      [
        "ther",
        -8.911092322973303
      ],
      [
        "âĸģNo",
        -8.912729623365545
      ],
      [
        "ren",
        -8.913191919485264
      ],
      [
        "âĸģita",
        -8.913435328037554
      ],
      [
        "âĸģáĮİ",
        -8.913562902615713
      ],
      [
        "âĸģtu",
        -8.913574139412876
      ],
      [
        "fo",
        -8.914555676122395
      ],
      [
        "kwa",
        -8.915021116032012
      ],
      [
        "âĸģme",
        -8.915157123346093
      ],
      [
        "50",
        -8.915475946270572
      ],
      [
        "gar",
        -8.915537994393237
      ],
      [
        "ist",
        -8.916094761692767
      ],
      [
        "âĸģaiki",
        -8.916931729334385
      ],
      [
        "âĸģCha",
        -8.918658291369608
      ],
      [
        "ner",
        -8.918917185114635
      ],
      [
        "âĸģáīĢ",
        -8.919211417348977
      ],
      [
        "âĸģV",
        -8.91928767034029
      ],
      [
        "âĸģses",
        -8.920990361092498
      ],
      [
        "âĸģFi",
        -8.923018632444393
      ],
      [
        "11",
        -8.923099539567922
      ],
      [
        "âĸģáĭ¨áĪĽ",
        -8.92323499374968
      ],
      [
        "âĸģmais",
        -8.92331673892728
      ],
      [
        "âĸģMakal",
        -8.925003237524077
      ],
      [
        "âĸģdeux",
        -8.925032817708185
      ],
      [
        "âĸģone",
        -8.92695022141141
      ],
      [
        "âĸģáº¹",
        -8.926999896384666
      ],
      [
        "Î",
        -8.927120434657757
      ],
      [
        "âĸģpart",
        -8.92865803001022
      ],
      [
        "âĸģsana",
        -8.928693786919162
      ],
      [
        "nan",
        -8.930872373676959
      ],
      [
        "áĮ»",
        -8.934043805178446
      ],
      [
        "âĸģcewa",
        -8.934916502298009
      ],
      [
        "Baada",
        -8.935677954909131
      ],
      [
        "âĸģPro",
        -8.936696870857045
      ],
      [
        "âĸģentre",
        -8.939915362234462
      ],
      [
        "qui",
        -8.940887575068786
      ],
      [
        "âĸģII",
        -8.942718717190852
      ],
      [
        "Jihar",
        -8.94363024672257
      ],
      [
        "âĸģpre",
        -8.945159972587703
      ],
      [
        "¹",
        -8.946332795643546
      ],
      [
        "âĸģIt",
        -8.947755869947564
      ],
      [
        "ngu",
        -8.951360534282472
      ],
      [
        "wu",
        -8.951890779038589
      ],
      [
        "áĪº",
        -8.952103895285763
      ],
      [
        "âĸģNigeria",
        -8.952829122344378
      ],
      [
        "áī¸",
        -8.953594357404075
      ],
      [
        "ria",
        -8.954113761669511
      ],
      [
        "âĸģáĪģáĪĪáīµ",
        -8.954525946579066
      ],
      [
        "men",
        -8.95706975627142
      ],
      [
        "tun",
        -8.957484842616116
      ],
      [
        "âĸģbeen",
        -8.958532141466069
      ],
      [
        "cy",
        -8.959131220810853
      ],
      [
        "=",
        -8.959395760055042
      ],
      [
        "áīĢáĪŃ",
        -8.960242086845534
      ],
      [
        "âĸģilÃ©",
        -8.960605826185827
      ],
      [
        "ig",
        -8.960937033824635
      ],
      [
        "ngo",
        -8.96281128405327
      ],
      [
        "âĸģper",
        -8.963201757272838
      ],
      [
        "Ī",
        -8.96380645199135
      ],
      [
        "ac",
        -8.96402678270302
      ],
      [
        "bin",
        -8.964134547216474
      ],
      [
        "kuwa",
        -8.966106331735407
      ],
      [
        "...",
        -8.966785666038438
      ],
      [
        "áĭµáĬķ",
        -8.966863414943237
      ],
      [
        "lar",
        -8.966949281265872
      ],
      [
        "âĸģJohn",
        -8.967389503886602
      ],
      [
        "han",
        -8.968436087601706
      ],
      [
        "15",
        -8.969934504500864
      ],
      [
        "Ãº",
        -8.970280351810066
      ],
      [
        "ral",
        -8.971187167527685
      ],
      [
        "âĸģkafa",
        -8.971422358082078
      ],
      [
        "âĸģáĬŃáįįáĪį",
        -8.97152951842063
      ],
      [
        "red",
        -8.972953037189729
      ],
      [
        "âĸģSan",
        -8.974529811430958
      ],
      [
        "âĸģFor",
        -8.976293869989394
      ],
      [
        "áĮ¤",
        -8.976886499592197
      ],
      [
        "âĸģAfirka",
        -8.97873547979908
      ],
      [
        "tor",
        -8.980560827741822
      ],
      [
        "âĸģáĭ«áĪĪáĭį",
        -8.981464543787038
      ],
      [
        "ving",
        -8.982053868647467
      ],
      [
        "âĸģcar",
        -8.984191170064758
      ],
      [
        "âĸģáĪĥ",
        -8.986769090013205
      ],
      [
        "âĸģorile-ede",
        -8.988096719875294
      ],
      [
        "qua",
        -8.988718197533807
      ],
      [
        "âĸģinter",
        -8.990605830487288
      ],
      [
        "âĸģfait",
        -8.990802691086952
      ],
      [
        "âĸģinahus",
        -8.990850478529584
      ],
      [
        "ndi",
        -8.991743823933575
      ],
      [
        "á¹£e",
        -8.992288284168279
      ],
      [
        "âĸģAu",
        -8.992586411952406
      ],
      [
        "âĸģRu",
        -8.994665203792808
      ],
      [
        "cc",
        -8.995501265670335
      ],
      [
        "âĸģused",
        -8.999014176178292
      ],
      [
        "âĸģinda",
        -8.999236912561226
      ],
      [
        "ces",
        -8.99942001578158
      ],
      [
        "âĸģáĪĮáĪĭ",
        -8.999633075282906
      ],
      [
        "nci",
        -8.999638898855634
      ],
      [
        "áĬĸáī½",
        -9.000505875820574
      ],
      [
        "âĸģsp",
        -9.001674404032139
      ],
      [
        "\",",
        -9.001977974636217
      ],
      [
        "áī£áĪį",
        -9.002014036600078
      ],
      [
        "âĸģáīĨ",
        -9.002679839994006
      ],
      [
        "ká»įÌģ",
        -9.004863397940452
      ],
      [
        "âĸģform",
        -9.007908088408598
      ],
      [
        "gbo",
        -9.007991684687463
      ],
      [
        "10",
        -9.008423302853606
      ],
      [
        "áī£áī¸áĭį",
        -9.00907723728215
      ],
      [
        "£",
        -9.00914946146851
      ],
      [
        "áĪŃáĪµ",
        -9.009400614561601
      ],
      [
        "âĸģáĬłáĬķáĭ±",
        -9.00956788948194
      ],
      [
        "áĮįáĪ«",
        -9.009965556493476
      ],
      [
        "áĬłáīĨáĮ£áĮłáĪŃ",
        -9.01051614343974
      ],
      [
        "âĸģgaba",
        -9.011155094409768
      ],
      [
        "âĸģdis",
        -9.012687734301384
      ],
      [
        "mani",
        -9.013993081026685
      ],
      [
        "âĸģDu",
        -9.014636913668935
      ],
      [
        "cin",
        -9.015120739058696
      ],
      [
        "uka",
        -9.015356742007988
      ],
      [
        "ration",
        -9.016404207268904
      ],
      [
        "âĸģtun",
        -9.01689832011763
      ],
      [
        "con",
        -9.017788263914266
      ],
      [
        "âĸģyawan",
        -9.01786964814336
      ],
      [
        "âĸģFrance",
        -9.017902189135615
      ],
      [
        "áĬħ",
        -9.01802496119408
      ],
      [
        "áĭİ",
        -9.01838204444201
      ],
      [
        "âĸģSha",
        -9.018634594339872
      ],
      [
        "can",
        -9.018867778232885
      ],
      [
        "ard",
        -9.019886044808782
      ],
      [
        "âĸģáĬłáĬ«áī£áī¢",
        -9.021655732403678
      ],
      [
        "zu",
        -9.021849819600508
      ],
      [
        "âĸģÃ¬gbÃł",
        -9.023562778977201
      ],
      [
        "âĸģduniya",
        -9.02437246679849
      ],
      [
        "áįĢ",
        -9.026228311296396
      ],
      [
        "cÃ©",
        -9.026736105726151
      ],
      [
        "ste",
        -9.02797831249826
      ],
      [
        "âĸģáĬ¨áī°áĪŀáī½",
        -9.028549733968
      ],
      [
        "âĸģGo",
        -9.030163851009906
      ],
      [
        "âĸģáĮįáĭĽáīµ",
        -9.030665285796525
      ],
      [
        "ence",
        -9.031253806095021
      ],
      [
        "000",
        -9.031904424937224
      ],
      [
        "thi",
        -9.032007616005963
      ],
      [
        "âĸģÃĮpÃŃnláº¹ÌĢ",
        -9.034856697203828
      ],
      [
        "oni",
        -9.035863570641887
      ],
      [
        "âĸģáº¹ÌĢ",
        -9.036590803100957
      ],
      [
        "İ",
        -9.039501612887051
      ],
      [
        "mon",
        -9.039854749599977
      ],
      [
        "60",
        -9.04022092172539
      ],
      [
        "âĸģ(an",
        -9.04064759922781
      ],
      [
        "âĸģÆĻwallon",
        -9.041212908214634
      ],
      [
        "âĸģáīłáįĬáīµ",
        -9.041267867065976
      ],
      [
        "áĪĨáĬĳ",
        -9.04166195172806
      ],
      [
        "áĪİáī½",
        -9.043811249416311
      ],
      [
        "jÃł",
        -9.044544040730173
      ],
      [
        "âĸģaussi",
        -9.04488106014685
      ],
      [
        "âĸģKe",
        -9.04548602225369
      ],
      [
        "áī«",
        -9.048444251260111
      ],
      [
        "ical",
        -9.048452116422553
      ],
      [
        "tra",
        -9.048929370824602
      ],
      [
        "91",
        -9.049723603567834
      ],
      [
        "áįĸ",
        -9.04981399707696
      ],
      [
        "lÃ¨",
        -9.050397811281215
      ],
      [
        "40",
        -9.050627247281081
      ],
      [
        "ol",
        -9.05472438725808
      ],
      [
        "gÃ©",
        -9.055075621520396
      ],
      [
        "eur",
        -9.05513544698044
      ],
      [
        "âĸģk",
        -9.055716669774672
      ],
      [
        "áĮģ",
        -9.059980456067533
      ],
      [
        "pr",
        -9.06175888612839
      ],
      [
        "âĸģAmerican",
        -9.062125270854485
      ],
      [
        "áĬ¬",
        -9.06214045309699
      ],
      [
        "áĪłáĪ«",
        -9.0634693185578
      ],
      [
        "ations",
        -9.065436607065323
      ],
      [
        "tive",
        -9.06594820221295
      ],
      [
        "âĸģRi",
        -9.066343458751888
      ],
      [
        "ring",
        -9.066701272006437
      ],
      [
        "vers",
        -9.066779696015994
      ],
      [
        "our",
        -9.066978508691884
      ],
      [
        "-19",
        -9.067778927844039
      ],
      [
        "âĸģáĪĮáĪİáī½",
        -9.069983952511988
      ],
      [
        "áĬĵáīµ",
        -9.070584749395394
      ],
      [
        "ud",
        -9.070766199492644
      ],
      [
        "dÃŃ",
        -9.072671112132104
      ],
      [
        "âĸģáį",
        -9.073630603288983
      ],
      [
        "âĸģri",
        -9.073688146650156
      ],
      [
        "90",
        -9.07544350921084
      ],
      [
        "¸",
        -9.075583964564009
      ],
      [
        "âĸģTi",
        -9.075674134086858
      ],
      [
        "tur",
        -9.07719432047924
      ],
      [
        "âĸģáĬłáīłáī£",
        -9.078055190881845
      ],
      [
        "âĸģmÃ©",
        -9.078062951044487
      ],
      [
        "âĸģjáº¹",
        -9.078221969678484
      ],
      [
        "âĸģBar",
        -9.078764571336968
      ],
      [
        "į",
        -9.08044108282644
      ],
      [
        "âĸģáĪĢ",
        -9.080995434568152
      ],
      [
        "áĪ°áĪ«",
        -9.081452355279485
      ],
      [
        "á»įÌĢ",
        -9.083024543307577
      ],
      [
        "âĸģtime",
        -9.084023064554106
      ],
      [
        "âĸģáī¦áī³",
        -9.08635616991926
      ],
      [
        "mbe",
        -9.087058041382878
      ],
      [
        "âĸģMan",
        -9.08804864895874
      ],
      [
        "tant",
        -9.08921842038384
      ],
      [
        "âĸģáĬ¨áĭļáĭ«",
        -9.089468578804501
      ],
      [
        "âĸģáĪŀ",
        -9.091232759118217
      ],
      [
        "i,",
        -9.09157964750713
      ],
      [
        "kÃ³",
        -9.09195300208846
      ],
      [
        "áĬĲáĮĪáĪ¥áī³áīµ",
        -9.093569206935975
      ],
      [
        "áĭ¬",
        -9.09432277115545
      ],
      [
        "sia",
        -9.094954454899868
      ],
      [
        "âĸģáĬ¨áįįáī°áĬĽ",
        -9.095164563752334
      ],
      [
        "âĸģkÃ²",
        -9.09656296345192
      ],
      [
        "âĸģáĮ¦áĪŃáĬĲáīµ",
        -9.098442913623664
      ],
      [
        "dÃ¡",
        -9.09997081533158
      ],
      [
        "tin",
        -9.099991813239392
      ],
      [
        "âĸģ21",
        -9.10025587231382
      ],
      [
        "âĸģiá¹£áº¹Ìģ",
        -9.100800384909467
      ],
      [
        "âĸģwana",
        -9.101729726316561
      ],
      [
        "âĸģWe",
        -9.101966059063564
      ],
      [
        "âĸģ[",
        -9.102791120591753
      ],
      [
        "âĸģMata",
        -9.103326636628026
      ],
      [
        "áĭĮ",
        -9.10339482417629
      ],
      [
        "áĮįáĪį",
        -9.103597926913059
      ],
      [
        "âĸģáĭĵáĪĺáī³áīµ",
        -9.104076064192359
      ],
      [
        "âĸģ(C",
        -9.104585842864312
      ],
      [
        "âĸģÃ©tÃ©",
        -9.105033608962403
      ],
      [
        "áīĭ",
        -9.10506990017631
      ],
      [
        "sin",
        -9.10530794962413
      ],
      [
        "âĸģwannan",
        -9.10562460785064
      ],
      [
        "âĸģáĭĺáĪĺáĬĲ",
        -9.106754737151686
      ],
      [
        "âĸģd'a",
        -9.106932156532228
      ],
      [
        "elle",
        -9.107078128228864
      ],
      [
        "âĸģdake",
        -9.107310748318636
      ],
      [
        "os",
        -9.107555030066194
      ],
      [
        "âĸģbabban",
        -9.107860458872436
      ],
      [
        "tÃŃ",
        -9.108869005066511
      ],
      [
        "nin",
        -9.110312157649096
      ],
      [
        "gin",
        -9.11058642884748
      ],
      [
        "insi",
        -9.112274816890992
      ],
      [
        "âĸģBK",
        -9.112281120438638
      ],
      [
        "such",
        -9.112884732975495
      ],
      [
        "ida",
        -9.11296781340771
      ],
      [
        "âĸģáī¥",
        -9.113858557575323
      ],
      [
        "áĪĺáĭµ",
        -9.1138984203176
      ],
      [
        "âĸģiya",
        -9.114919910019662
      ],
      [
        "âĸģgáº¹Ìģgáº¹Ìģ",
        -9.117748698934864
      ],
      [
        "áĭ«áĪµ",
        -9.118747165814614
      ],
      [
        "lÃł",
        -9.119647288839861
      ],
      [
        "âĸģáĬłáĭŃáĬĲáīµ",
        -9.119893855732501
      ],
      [
        "wan",
        -9.119950449000875
      ],
      [
        "áĪ°áĪĽ",
        -9.119981207011307
      ],
      [
        "áĬĥ",
        -9.121297656564902
      ],
      [
        "âĸģwake",
        -9.122623496046117
      ],
      [
        "âĸģáĬłáĭ²áĪµ",
        -9.123510309080586
      ],
      [
        "âĸģwatu",
        -9.124278904469211
      ],
      [
        "Ãºn",
        -9.124916302209948
      ],
      [
        "âĸģtwo",
        -9.12517871177409
      ],
      [
        "tif",
        -9.125452025525707
      ],
      [
        "cette",
        -9.12681250451763
      ],
      [
        "âĸģáĬĲáīłáĪ¨áį¢",
        -9.12857645348766
      ],
      [
        "ges",
        -9.128941440021018
      ],
      [
        "âĸģdaya",
        -9.129148281560798
      ],
      [
        "âĸģáįĪ",
        -9.129366560003014
      ],
      [
        "mer",
        -9.129914203949884
      ],
      [
        "»",
        -9.131325866489263
      ],
      [
        "val",
        -9.13219630097792
      ],
      [
        "ture",
        -9.132291587713505
      ],
      [
        "âĸģChi",
        -9.132946374891652
      ],
      [
        "uri",
        -9.133092676123482
      ],
      [
        "áĮłáĪ«",
        -9.133300267084504
      ],
      [
        "âĸģ2011",
        -9.13346058069677
      ],
      [
        "âĸģinto",
        -9.134717129227855
      ],
      [
        "âĸģleur",
        -9.135064332004685
      ],
      [
        "ger",
        -9.135347675352318
      ],
      [
        "âĸģáĪĲ",
        -9.136472336059184
      ],
      [
        "áĭľ",
        -9.137194387247005
      ],
      [
        "áĪ¹",
        -9.138202764742918
      ],
      [
        "âĸģá»Į",
        -9.138708221253538
      ],
      [
        "kuu",
        -9.139033571701612
      ],
      [
        "gue",
        -9.141711763376474
      ],
      [
        "âĸģ(S",
        -9.14205444797577
      ],
      [
        "âĸģKarn",
        -9.142518768612366
      ],
      [
        "âĸģpáº¹ÌĢlÃº",
        -9.14252739329358
      ],
      [
        "sehemu",
        -9.143236755851081
      ],
      [
        "áĪ¾",
        -9.144230641003347
      ],
      [
        "âĸģyankin",
        -9.145121421610513
      ],
      [
        "âĸģgo",
        -9.145181642879036
      ],
      [
        "sÃŃ",
        -9.145212298037752
      ],
      [
        "âĸģáĬ³áĪµ",
        -9.145670781116372
      ],
      [
        "áĪĨáĬķ",
        -9.146490875177495
      ],
      [
        "70",
        -9.14675227394461
      ],
      [
        "áįĥ",
        -9.147216521468962
      ],
      [
        "cent",
        -9.147668487919917
      ],
      [
        "won",
        -9.148977724364268
      ],
      [
        "âĸģafter",
        -9.151228355013263
      ],
      [
        "and",
        -9.15142074525549
      ],
      [
        "áĪĺáĮĢáĪĺáĪŃáĭ«",
        -9.151980094553481
      ],
      [
        "âĸģtra",
        -9.153020573884135
      ],
      [
        "tri",
        -9.153323476673517
      ],
      [
        "âĸģprÃ©",
        -9.15478956364407
      ],
      [
        "13",
        -9.155814920529945
      ],
      [
        "dia",
        -9.155927523452242
      ],
      [
        "ctor",
        -9.156318302419661
      ],
      [
        "âĸģáĭ¨áĪĨáĬĲ",
        -9.156546633032205
      ],
      [
        "âĸģUnited",
        -9.157538836659793
      ],
      [
        "ī",
        -9.157918600209957
      ],
      [
        "±",
        -9.158018993391424
      ],
      [
        "âĸģÆĻafa",
        -9.158233777262812
      ],
      [
        "lli",
        -9.158669110845818
      ],
      [
        "âĸģake",
        -9.161372305298485
      ],
      [
        "30",
        -9.161547631264114
      ],
      [
        "jin",
        -9.162626217316927
      ],
      [
        "ves",
        -9.16331868475256
      ],
      [
        "-A",
        -9.165037271922571
      ],
      [
        "âĸģáĭĪáīħáīµ",
        -9.166472381230708
      ],
      [
        "áĪīáīµ",
        -9.16832956266408
      ],
      [
        "âĸģtrans",
        -9.16922179334652
      ],
      [
        "áĭŀ",
        -9.169524573060691
      ],
      [
        "áĪ«áīµ",
        -9.170511714187068
      ],
      [
        "âĸģs'",
        -9.170659098872061
      ],
      [
        "dan",
        -9.171607531973773
      ],
      [
        "âĸģPi",
        -9.17196197714718
      ],
      [
        "use",
        -9.172110334990444
      ],
      [
        "80",
        -9.172111506316044
      ],
      [
        "âĸģáĭŃáĪħáĪĿ",
        -9.172797545041528
      ],
      [
        "âĸģpays",
        -9.172994101091431
      ],
      [
        "âĸģsamu",
        -9.17329284574874
      ],
      [
        "âĸģmkuu",
        -9.17360747943622
      ],
      [
        "âĸģáĬłáĪŃ",
        -9.17461536902201
      ],
      [
        "áįĮ",
        -9.174884530451411
      ],
      [
        "âĸģmost",
        -9.175065115374785
      ],
      [
        "áĬĲáĭį",
        -9.176828271602897
      ],
      [
        "áī£áīµ",
        -9.1774502300316
      ],
      [
        "yu",
        -9.177650596338028
      ],
      [
        "áĪµáĪĭ",
        -9.177865562324307
      ],
      [
        "tter",
        -9.178128988101712
      ],
      [
        "âĸģher",
        -9.180299233087817
      ],
      [
        "dy",
        -9.181646426821136
      ],
      [
        "âĸģlakini",
        -9.181761993498059
      ],
      [
        "log",
        -9.18236408810208
      ],
      [
        "áįĪáĪ¨áĬķáĪ³áĭŃ",
        -9.182527193553494
      ],
      [
        "miaka",
        -9.182978761561733
      ],
      [
        "láº¹",
        -9.18331085238931
      ],
      [
        "âĸģv",
        -9.183387827713384
      ],
      [
        "ale",
        -9.184192690977774
      ],
      [
        "isi",
        -9.184408441082907
      ],
      [
        "áī³áĪį",
        -9.185291008438478
      ],
      [
        "áĪ°áī¥",
        -9.185309506495507
      ],
      [
        "âĸģáĪĿáĭµáĪŃ",
        -9.185917517982908
      ],
      [
        "âĸģRoma",
        -9.187334611903347
      ],
      [
        "âĸģpamoja",
        -9.187456967493203
      ],
      [
        "âĸģAmáº¹ÌģrÃŃkÃł",
        -9.1882450179917
      ],
      [
        "âĸģkamar",
        -9.189157338623072
      ],
      [
        "âĸģáĭķáĪĪáīµ",
        -9.18928926180834
      ],
      [
        "âĸģShi",
        -9.190527701741447
      ],
      [
        "âĸģname",
        -9.191637518647752
      ],
      [
        "tte",
        -9.192577381207627
      ],
      [
        "áĬĸáĪ©",
        -9.192754148591249
      ],
      [
        "âĸģáĭķ",
        -9.193328359406316
      ],
      [
        "âĸģáī¥áĪİ",
        -9.194890895824269
      ],
      [
        "Ø",
        -9.195350819063332
      ],
      [
        "áĪĿáĬŃáĬķáĭ«áīµ",
        -9.195658659051173
      ],
      [
        "ai",
        -9.195836326671472
      ],
      [
        "form",
        -9.19635408890528
      ],
      [
        "ina",
        -9.197253630496647
      ],
      [
        "âĸģpi",
        -9.197560645942986
      ],
      [
        "bar",
        -9.198963814829177
      ],
      [
        "nes",
        -9.199802426914662
      ],
      [
        "âĸģmutane",
        -9.201949200063812
      ],
      [
        "fan",
        -9.203127948301034
      ],
      [
        "âĸģJo",
        -9.203272109267292
      ],
      [
        "ally",
        -9.203597963148473
      ],
      [
        "âĸģáĪĺáĪµ",
        -9.203684642895439
      ],
      [
        "âĸģGi",
        -9.204747807942724
      ],
      [
        "áĪĺáīµ",
        -9.204971690272364
      ],
      [
        "âĸģnje",
        -9.205712975193382
      ],
      [
        "ani",
        -9.206808276076293
      ],
      [
        "200",
        -9.207236086364626
      ],
      [
        "âĸģont",
        -9.207780183389964
      ],
      [
        "iste",
        -9.20954774411478
      ],
      [
        "jÃ¬",
        -9.209651729762193
      ],
      [
        "âĸģâĢĺ",
        -9.209817043812196
      ],
      [
        "âĸģfilm",
        -9.210842578587666
      ],
      [
        "âĸģáĪĻ",
        -9.211393997858742
      ],
      [
        "ler",
        -9.21154962212674
      ],
      [
        "âĸģáĭ¨áĪ",
        -9.211757813172374
      ],
      [
        "21",
        -9.212605082405641
      ],
      [
        "âĸģáīłáĬ¥",
        -9.212863134839516
      ],
      [
        "âĸģover",
        -9.213288673316157
      ],
      [
        "ide",
        -9.213737084883284
      ],
      [
        "yÃ©",
        -9.214069516847964
      ],
      [
        "âĸģsiku",
        -9.214547064460305
      ],
      [
        "áĭ¶áī½",
        -9.216329278863007
      ],
      [
        "âĸģshugaban",
        -9.21731426161671
      ],
      [
        "rant",
        -9.2176237283655
      ],
      [
        "má»į",
        -9.218492355355693
      ],
      [
        "áįĪáĪį",
        -9.218711337597032
      ],
      [
        "âĸģsome",
        -9.21894224464768
      ],
      [
        "âĸģfin",
        -9.219170253884727
      ],
      [
        "âĸģmore",
        -9.221289534320164
      ],
      [
        "âĸģ2012",
        -9.222815089484282
      ],
      [
        "ile",
        -9.223694347961995
      ],
      [
        "âĸģráº¹",
        -9.225383176505183
      ],
      [
        "âĸģáĭ®áĪĲáĬķáĪµ",
        -9.226652736756433
      ],
      [
        "âĸģáĭ«áĪµ",
        -9.226700101785735
      ],
      [
        "gan",
        -9.227405084463745
      ],
      [
        "came",
        -9.229020975682776
      ],
      [
        "âĸģÂ«áĭ¨",
        -9.229351435996048
      ],
      [
        "tÃłbÃŃ",
        -9.229416283056143
      ],
      [
        "âĸģÃ²á¹£Ã¨rÃ©",
        -9.231857832267941
      ],
      [
        "ham",
        -9.232513733052821
      ],
      [
        "âĸģmÃ¡a",
        -9.232924672638468
      ],
      [
        "âĸģPer",
        -9.233653183680882
      ],
      [
        "á¹£",
        -9.23440334576119
      ],
      [
        "âĸģAb",
        -9.234615917208025
      ],
      [
        "ak",
        -9.234968872066158
      ],
      [
        "ita",
        -9.235273748940095
      ],
      [
        "par",
        -9.236169962713799
      ],
      [
        "part",
        -9.236305076199315
      ],
      [
        "âĸģáīłáĮ£áĪĿ",
        -9.236327031090882
      ],
      [
        "tal",
        -9.23640746478495
      ],
      [
        "âĸģMwaka",
        -9.23666912419866
      ],
      [
        "rie",
        -9.236808760103393
      ],
      [
        "áĮĪáĪŃ",
        -9.237896227403048
      ],
      [
        "âĸģTh",
        -9.238885232161124
      ],
      [
        "âĸģsub",
        -9.239128541967126
      ],
      [
        "âĸģáĪĿáĬķ",
        -9.239561458651618
      ],
      [
        "áĬłáĬķáĭ³áĬķáĭµ",
        -9.23961050647349
      ],
      [
        "âĸģáīĥáĪį",
        -9.239747143657793
      ],
      [
        "Ã¡n",
        -9.241512831556342
      ],
      [
        "ph",
        -9.241804687903592
      ],
      [
        "gbÃł",
        -9.242043423488871
      ],
      [
        "âĸģáĪĨ",
        -9.242461719560236
      ],
      [
        "tÃ¬",
        -9.24266329175905
      ],
      [
        "áĬ¥áĬķáĮįáĪĬáĭĿ",
        -9.243289818443015
      ],
      [
        "º",
        -9.243672855162147
      ],
      [
        "shin",
        -9.245230734699525
      ],
      [
        "ux",
        -9.245702382669881
      ],
      [
        "âĸģáĬłáī¥",
        -9.246036199771027
      ],
      [
        "ite",
        -9.247221916206485
      ],
      [
        "isme",
        -9.248190337861828
      ],
      [
        "âĸģwasu",
        -9.248677518463891
      ],
      [
        "âĸģAt",
        -9.248757035569874
      ],
      [
        "ot",
        -9.249766964689972
      ],
      [
        "âĸģmÃªme",
        -9.25018548107684
      ],
      [
        "âĸģáĮī",
        -9.250759819608248
      ],
      [
        "dun",
        -9.251175674742296
      ],
      [
        "rar",
        -9.251359236524351
      ],
      [
        "áĭİáī½áĬķ",
        -9.251682611400518
      ],
      [
        "gbÃ¡",
        -9.252451123956465
      ],
      [
        "áĪĪáī½",
        -9.25282226558714
      ],
      [
        "âĸģyÃŃ",
        -9.253252820155053
      ],
      [
        "llo",
        -9.253372709076459
      ],
      [
        "âĸģáĬ£",
        -9.253879784474186
      ],
      [
        "bra",
        -9.254512903520776
      ],
      [
        "lie",
        -9.254684947723515
      ],
      [
        "âĸģ30",
        -9.2562322861493
      ],
      [
        "16",
        -9.25704990570986
      ],
      [
        "âĸģUn",
        -9.257178421085833
      ],
      [
        "áĬ¢",
        -9.257709995373029
      ],
      [
        "ori",
        -9.258619170023884
      ],
      [
        "ĭ",
        -9.25894963743426
      ],
      [
        "âĸģpartie",
        -9.259531283566176
      ],
      [
        "nÃ©",
        -9.259650652447947
      ],
      [
        "tel",
        -9.259759988639729
      ],
      [
        "âĸģGe",
        -9.26015236236254
      ],
      [
        "âĸģAmerika",
        -9.260557580402267
      ],
      [
        "âĸģ2006",
        -9.260687890836905
      ],
      [
        "âĸģÃ¨yÃŃ",
        -9.261486425204414
      ],
      [
        "âĸģáĬ¨áĪĺ",
        -9.261760599546243
      ],
      [
        "âĸģmay",
        -9.26189487702812
      ],
      [
        "a,",
        -9.262566222238604
      ],
      [
        "âĸģ2010",
        -9.26270026700234
      ],
      [
        "áī¢áĭ«",
        -9.262988680799307
      ],
      [
        "ere",
        -9.263007716529488
      ],
      [
        "iya",
        -9.263062914160578
      ],
      [
        "âĸģThis",
        -9.264722335626299
      ],
      [
        "âĸģkwanza",
        -9.26500875047259
      ],
      [
        "nÃ©e",
        -9.265063921748698
      ],
      [
        "mbu",
        -9.265321039543288
      ],
      [
        "áĬķáĬĵ",
        -9.26718607524127
      ],
      [
        "mÃŃ",
        -9.267912580103154
      ],
      [
        "áī³áī¸áĭį",
        -9.268893647634306
      ],
      [
        "ele",
        -9.268951310872307
      ],
      [
        "×",
        -9.269416775459469
      ],
      [
        "âĸģáĪµáĪ«",
        -9.269643774539889
      ],
      [
        "âĸģshekaru",
        -9.270314314387495
      ],
      [
        "įáĭļáĬłáī¥áĪĶáĪŃ",
        -9.270653506187518
      ],
      [
        "âĸģala",
        -9.270860105754414
      ],
      [
        "áĬķáĪµ",
        -9.271274072591337
      ],
      [
        "áĪĺáĭį",
        -9.271375473306566
      ],
      [
        "âĸģáĬ¥áĭ«",
        -9.272677918913015
      ],
      [
        "âĸģhali",
        -9.27280412903707
      ],
      [
        "áĭĭáĬķ",
        -9.273125680057232
      ],
      [
        "¥áĬķáĮįáĪĬáĭĿáĬĽ",
        -9.273685154260278
      ],
      [
        "âĸģItalia",
        -9.274928674479138
      ],
      [
        "áīħáĪŃ",
        -9.27503615106411
      ],
      [
        "âĸģdâĢĻ",
        -9.277672480980055
      ],
      [
        "âĸģÉĹan",
        -9.279001056687555
      ],
      [
        "âĸģáĪįáĮĨáī½",
        -9.280222250410374
      ],
      [
        "âĸģáĪ¥áĪ«",
        -9.28044947023353
      ],
      [
        "âĸģCom",
        -9.280857136324208
      ],
      [
        "mbi",
        -9.281172724323923
      ],
      [
        "âĸģ2007",
        -9.281213750383063
      ],
      [
        "áĬķáĭµ",
        -9.281301447348358
      ],
      [
        "áĮĪáĭµ",
        -9.281682724611155
      ],
      [
        "yen",
        -9.281735699778636
      ],
      [
        "âĸģup",
        -9.28181133093048
      ],
      [
        "eux",
        -9.281998973986362
      ],
      [
        "âĸģáĪ¥áĬĲ",
        -9.282216439331787
      ],
      [
        "ĺ",
        -9.282450164997957
      ],
      [
        "âĸģáĮĭ",
        -9.283269325120465
      ],
      [
        "âĸģáīģ",
        -9.28380634203655
      ],
      [
        "âĸģtele",
        -9.284118418081183
      ],
      [
        "ber",
        -9.285327763985514
      ],
      [
        "âĸģáĬłáĪģáĬķ",
        -9.285473864558845
      ],
      [
        "âĸģáĬ¥áĬĲáĭļáĪħ",
        -9.285494259818188
      ],
      [
        "gre",
        -9.285695468330754
      ],
      [
        "mini",
        -9.285956377873909
      ],
      [
        "âĸģrÃ©gion",
        -9.28740666412631
      ],
      [
        "âĸģAfrica",
        -9.28790194099363
      ],
      [
        "áĭĪáī½",
        -9.288125781503044
      ],
      [
        "âĸģáĬ¥áĮįáĪŃ",
        -9.288130221564348
      ],
      [
        "áĪĿáį¡",
        -9.289175418240205
      ],
      [
        "âĸģ(18",
        -9.28944622055607
      ],
      [
        "y,",
        -9.289846243107764
      ],
      [
        "âĸģShe",
        -9.290115498152556
      ],
      [
        "âĸģ(áīł",
        -9.290399008136916
      ],
      [
        "ded",
        -9.290521243017714
      ],
      [
        "âĸģomo",
        -9.290654792927278
      ],
      [
        "¼",
        -9.290886526296141
      ],
      [
        "ins",
        -9.290999925039216
      ],
      [
        "âĸģgarin",
        -9.291087667732075
      ],
      [
        "âĸģstate",
        -9.291297253324883
      ],
      [
        "âĸģohun",
        -9.291501022661812
      ],
      [
        "âĸģPar",
        -9.292318368977128
      ],
      [
        "âĸģsau",
        -9.292477119157098
      ],
      [
        "âĸģáĪ²áĭ«",
        -9.292481463407134
      ],
      [
        "âĸģáįĵ",
        -9.292877662650834
      ],
      [
        "âĸģPe",
        -9.293174898711268
      ],
      [
        "bon",
        -9.293825420116498
      ],
      [
        "dont",
        -9.294599073581468
      ],
      [
        "²",
        -9.295880367654313
      ],
      [
        "tique",
        -9.29588751025372
      ],
      [
        "sho",
        -9.296658384312725
      ],
      [
        "âĸģfe",
        -9.298028800383253
      ],
      [
        "ding",
        -9.298222149845765
      ],
      [
        "chu",
        -9.298627519073179
      ],
      [
        "âĸģunder",
        -9.298696311393236
      ],
      [
        "áĭ²áĭ«",
        -9.300471867393515
      ],
      [
        "ille",
        -9.300640029024503
      ],
      [
        "âĸģáĪĺáĮ½áĪĲáįį",
        -9.300873795843334
      ],
      [
        "bor",
        -9.301447044441993
      ],
      [
        "¢",
        -9.303991610517112
      ],
      [
        "âĸģFo",
        -9.304569262031938
      ],
      [
        "eau",
        -9.304668192011185
      ],
      [
        "âĸģdÃ©partement",
        -9.30566914741373
      ],
      [
        "nne",
        -9.30755738351915
      ],
      [
        "âĸģkai",
        -9.307588037034328
      ],
      [
        "âĸģ25",
        -9.308625866776083
      ],
      [
        "âĸģáĭ°áĪ¨áĮĥ",
        -9.309441534431748
      ],
      [
        "âĸģl'Ã©",
        -9.309697186568206
      ],
      [
        "âĸģeneo",
        -9.31070666047751
      ],
      [
        "âĸģáĭĪáĬķáĭµ",
        -9.311120685369248
      ],
      [
        "áĪĺáĬķáĮįáĪµáīµ",
        -9.311263943025878
      ],
      [
        "âĸģáĪ³áĭŃ",
        -9.311295110771637
      ],
      [
        "âĸģva",
        -9.311454139353023
      ],
      [
        "áīĭáĬķáīĭáĭİáī½",
        -9.311643229101199
      ],
      [
        "âĸģknown",
        -9.311688245662337
      ],
      [
        "pan",
        -9.312187247927465
      ],
      [
        "âĸģhasa",
        -9.312557978808574
      ],
      [
        "áĮĨ",
        -9.313331496747479
      ],
      [
        "ld",
        -9.313659665532008
      ],
      [
        "ume",
        -9.315215842442264
      ],
      [
        "âĸģ(áĭ¨",
        -9.315808796560876
      ],
      [
        "rÃ¨",
        -9.3176891043895
      ],
      [
        "urs",
        -9.31772256853718
      ],
      [
        "fun",
        -9.31806874818201
      ],
      [
        "mes",
        -9.318286265182302
      ],
      [
        "âĸģjama'a",
        -9.318720698953634
      ],
      [
        "pÃ©",
        -9.319467733467068
      ],
      [
        "ÉĹa",
        -9.319892736439137
      ],
      [
        "áĪĽáĭŃ",
        -9.320006505840777
      ],
      [
        "áī¸áĭįáĬķ",
        -9.320251981307191
      ],
      [
        "arch",
        -9.321434066316456
      ],
      [
        "âĸģsecond",
        -9.32246934984532
      ],
      [
        "ŃáĪŃáĪµáī²áĭ«áĬķ",
        -9.322784945909463
      ],
      [
        "âĸģáĪĨáĬĲáį¢",
        -9.324652921356769
      ],
      [
        "âĸģDan",
        -9.326491831839501
      ],
      [
        "vyo",
        -9.326496622813668
      ],
      [
        "âĸģáĭĪáĬķáĭĿ",
        -9.326928635497904
      ],
      [
        "0,000",
        -9.327134398687642
      ],
      [
        "ungo",
        -9.327987972296526
      ],
      [
        "áĬŃáĪŃáĪµáī¶áĪµ",
        -9.329957988045336
      ],
      [
        "pu",
        -9.330153629631912
      ],
      [
        "âĸģmasa",
        -9.330475296780397
      ],
      [
        "âĸģ2013",
        -9.331190983525865
      ],
      [
        "âĸģwakazi",
        -9.331884797345499
      ],
      [
        "âĸģdÃ¡",
        -9.332227789469577
      ],
      [
        "áĮĪáĭĽ",
        -9.332752176444679
      ],
      [
        "âĸģáĪįáĭ©",
        -9.33330971584596
      ],
      [
        "gwa",
        -9.333413647931222
      ],
      [
        "lf",
        -9.333423483798942
      ],
      [
        "áī³áĪįáį¢",
        -9.334185219433145
      ],
      [
        "âĸģgbogbo",
        -9.334707484116095
      ],
      [
        "âĸģAugust",
        -9.335568829307602
      ],
      [
        "rÃº",
        -9.337436662091093
      ],
      [
        "âĸģ22",
        -9.337545672307089
      ],
      [
        "áī³áĭŃ",
        -9.337877150849241
      ],
      [
        "áį¯",
        -9.338807563107022
      ],
      [
        "âĸģáįį",
        -9.339302747145176
      ],
      [
        "âĸģáī°áī¥áĪİ",
        -9.339467784286338
      ],
      [
        "âĸģmara",
        -9.340754311439891
      ],
      [
        "ı",
        -9.340951832569809
      ],
      [
        "âĸģáĬ¥áĬķáĭ²áĪħ",
        -9.341320301031875
      ],
      [
        "âĸģamfani",
        -9.34138453750115
      ],
      [
        "à¤",
        -9.341673718229163
      ],
      [
        "17",
        -9.341983552322183
      ],
      [
        "áĮĦ",
        -9.342199066607094
      ],
      [
        "âĸģwengi",
        -9.343133547268568
      ],
      [
        "âĸģsous",
        -9.344505775102675
      ],
      [
        "Ń",
        -9.344940113301314
      ],
      [
        "áĭįáĪĿ",
        -9.34571640335014
      ],
      [
        "áīµáĬĵ",
        -9.345967824133972
      ],
      [
        ">",
        -9.345990090726385
      ],
      [
        "asi",
        -9.346908502958346
      ],
      [
        "âĸģaikin",
        -9.346981427604423
      ],
      [
        "áĪŁ",
        -9.347567626213241
      ],
      [
        "tÃł",
        -9.347758703497956
      ],
      [
        "áī£áĪŃ",
        -9.349671568083565
      ],
      [
        "âĸģlÃ¡",
        -9.349745576277648
      ],
      [
        "25",
        -9.350010557546529
      ],
      [
        "oc",
        -9.350058850437808
      ],
      [
        "âĸģáĬĲáīłáĪ©áį¢",
        -9.35042436624764
      ],
      [
        "ifi",
        -9.350735538789731
      ],
      [
        "âĸģbetween",
        -9.350981207371166
      ],
      [
        "âĸģSchool",
        -9.350981667762742
      ],
      [
        "áĭ¨áĬłáĪľáĪªáĬ«",
        -9.351093718578468
      ],
      [
        "rÃ¨s",
        -9.352017840415382
      ],
      [
        "âĸģshiga",
        -9.352307945338644
      ],
      [
        "âĸģáīłáī°áĪĪáĭŃ",
        -9.35368886180163
      ],
      [
        "idi",
        -9.35472830733464
      ],
      [
        "âĸģGhana",
        -9.355831174383063
      ],
      [
        "áĪ¥áĪ«",
        -9.355842002821063
      ],
      [
        "Ùİ",
        -9.356213973059527
      ],
      [
        "âĸģpeut",
        -9.356540122226772
      ],
      [
        "âĸģáĪĺáĬķáĮĪáĭµ",
        -9.356810026299776
      ],
      [
        "âĸģanti",
        -9.357368124560747
      ],
      [
        "âĸģWorld",
        -9.357764612039743
      ],
      [
        "âĸģimp",
        -9.358618586053229
      ],
      [
        "99",
        -9.358979895378354
      ],
      [
        "âĸģCar",
        -9.359921519967138
      ],
      [
        "áĭµáĪ¨",
        -9.360644527174202
      ],
      [
        "âĸģmafi",
        -9.36107706003434
      ],
      [
        "âĸģjina",
        -9.361177219626803
      ],
      [
        "âĸģsama",
        -9.362153073854937
      ],
      [
        "pÃ¡",
        -9.36386689091277
      ],
      [
        "âĸģab",
        -9.364616562103137
      ],
      [
        "áĬŃáĪŃáĪµáī²áĭ«",
        -9.366780629671418
      ],
      [
        "âĸģáĪł",
        -9.366796317347166
      ],
      [
        "áįĶ",
        -9.366883223964791
      ],
      [
        "ach",
        -9.366886621369929
      ],
      [
        "âĸģáĮ¥áĬĵáīµ",
        -9.367147172639855
      ],
      [
        "âĸģnÃŃgbÃł",
        -9.368192410712442
      ],
      [
        "âĸģ24",
        -9.368326875270187
      ],
      [
        "áĪĪáĪĿ",
        -9.368453998037191
      ],
      [
        "ishi",
        -9.36860699138472
      ],
      [
        "âĸģká»į",
        -9.368943321019543
      ],
      [
        "áĪĺáĪµ",
        -9.369034319527412
      ],
      [
        "q",
        -9.370381949121587
      ],
      [
        "áĭ®áĬķ",
        -9.370608189588715
      ],
      [
        "kata",
        -9.370637288589725
      ],
      [
        "âĸģzaidi",
        -9.37102058164774
      ],
      [
        "dda",
        -9.37134718555615
      ],
      [
        "âĸģÃªtre",
        -9.372059912358527
      ],
      [
        "áī¥áĪ«",
        -9.372357320325534
      ],
      [
        "âĸģáĪīáīĥáĪµ",
        -9.372456938464502
      ],
      [
        "âĸģParis",
        -9.37267527135537
      ],
      [
        "ĳ",
        -9.373273655219881
      ],
      [
        "til",
        -9.37342991786766
      ],
      [
        "ative",
        -9.374680526270316
      ],
      [
        "âĸģáĪļ",
        -9.374687622993115
      ],
      [
        "âĸģthan",
        -9.37642861300608
      ],
      [
        "áĪĬáĭ«",
        -9.377227798324867
      ],
      [
        "ric",
        -9.37762623205018
      ],
      [
        "âĸģbaya",
        -9.378375257731857
      ],
      [
        "pha",
        -9.378948252239955
      ],
      [
        "ab",
        -9.379134936997604
      ],
      [
        "ologie",
        -9.37977116852188
      ],
      [
        "áĭŃáī£áĪĭáĪįáį¢",
        -9.37978595396028
      ],
      [
        "âĸģáĪµáĪĪáĭļáĪħ",
        -9.380334600077777
      ],
      [
        "âĸģalÃ¡",
        -9.38075434031868
      ],
      [
        "âĸģ23",
        -9.382050213390968
      ],
      [
        "âĸģlangue",
        -9.382803800497609
      ],
      [
        "âĸģnchini",
        -9.382968852384765
      ],
      [
        "âĸģshine",
        -9.383012774751952
      ],
      [
        "âĸģhim",
        -9.38313868842177
      ],
      [
        "áĬŃáĪį",
        -9.383911886142652
      ],
      [
        "ident",
        -9.38487990478891
      ],
      [
        "tre",
        -9.384897924136062
      ],
      [
        "pro",
        -9.384905763489837
      ],
      [
        "áĬķáį¡",
        -9.385833537261913
      ],
      [
        "¯",
        -9.387118467244413
      ],
      [
        "âĸģIs",
        -9.387507990489476
      ],
      [
        "âĸģáĪĿáĬķáĪĿ",
        -9.387656198639295
      ],
      [
        "uni",
        -9.38783284991725
      ],
      [
        "âĸģY",
        -9.387988600776536
      ],
      [
        "âĸģáĭ¨áĪĽáĭŃ",
        -9.388134196818744
      ],
      [
        "âĸģji",
        -9.388156875383261
      ],
      [
        "ice",
        -9.391922806623949
      ],
      [
        "âĸģáĭŃáĪħáĬķ",
        -9.392444250586715
      ],
      [
        "zama",
        -9.39255867521151
      ],
      [
        "ari",
        -9.393224348292895
      ],
      [
        "ua",
        -9.393831010120689
      ],
      [
        "âĸģKing",
        -9.395063240511393
      ],
      [
        "âĸģhaka",
        -9.395590708536243
      ],
      [
        "sÃ©",
        -9.396002719032403
      ],
      [
        "áĬĴáĭ«",
        -9.39647804718834
      ],
      [
        "âĸģáĭ²",
        -9.396487453388223
      ],
      [
        "nsa",
        -9.396552950544478
      ],
      [
        "mm",
        -9.396842353277176
      ],
      [
        "âĸģdin",
        -9.397255054400373
      ],
      [
        "âĸģyin",
        -9.398163270296564
      ],
      [
        "aires",
        -9.398224712802518
      ],
      [
        "Ã",
        -9.398287755641197
      ],
      [
        "âĸģáĪĭ",
        -9.399605674021668
      ],
      [
        "âĸģAde",
        -9.39970369999229
      ],
      [
        "âĸģlarge",
        -9.40000696362486
      ],
      [
        "kÃł",
        -9.400339389406252
      ],
      [
        "âĸģwork",
        -9.400418188928366
      ],
      [
        "áĭĭáī¢",
        -9.400618786680553
      ],
      [
        "âĸģzina",
        -9.40195530462319
      ],
      [
        "ule",
        -9.402007349646599
      ],
      [
        "lement",
        -9.402517870197999
      ],
      [
        "yya",
        -9.402722979468075
      ],
      [
        "áįĬáīµ",
        -9.40400801115166
      ],
      [
        "lima",
        -9.404087980819057
      ],
      [
        "áĬŃáĪµ",
        -9.404261985211303
      ],
      [
        "cal",
        -9.404418951646058
      ],
      [
        "ola",
        -9.404594229568271
      ],
      [
        "âĸģáĬ¥áĬķáĮĤ",
        -9.404819197269997
      ],
      [
        "âĸģkubwa",
        -9.404909053990202
      ],
      [
        "âĸģkungiyar",
        -9.405057726370538
      ],
      [
        "áĪ¨áīµ",
        -9.405975012083214
      ],
      [
        "âĸģwata",
        -9.406270952507928
      ],
      [
        "âĸģFe",
        -9.406392576667084
      ],
      [
        "es.",
        -9.407022867847203
      ],
      [
        "áĪĤ",
        -9.407255920539672
      ],
      [
        "bre",
        -9.408371488564903
      ],
      [
        "âĸģáī³áĪªáĬ«áĭĬ",
        -9.40844069423651
      ],
      [
        "áī£áī¢",
        -9.408743569970127
      ],
      [
        "âĸģSaint",
        -9.408754432142217
      ],
      [
        "áĮ£áīµ",
        -9.409522734096743
      ],
      [
        "Ã¯",
        -9.409731099596293
      ],
      [
        "act",
        -9.41091650333209
      ],
      [
        "Y",
        -9.410952059989908
      ],
      [
        "den",
        -9.411695835149095
      ],
      [
        "alors",
        -9.412321377792772
      ],
      [
        "âĸģ&",
        -9.412816144177249
      ],
      [
        "qu'il",
        -9.413525520920594
      ],
      [
        "láº¹Ìģ",
        -9.413819241928607
      ],
      [
        "âĸģgbÃ©",
        -9.414224525392221
      ],
      [
        "ley",
        -9.41457411496738
      ],
      [
        "âĸģsabo",
        -9.414752598201128
      ],
      [
        "áīŃ",
        -9.414777946444701
      ],
      [
        "âĸģáĭĪáĪŃ",
        -9.414977719829114
      ],
      [
        "âĸģNijeriya",
        -9.415498186372337
      ],
      [
        "âĸģnÃŃpa",
        -9.416531697687727
      ],
      [
        "âĸģlÃ¨",
        -9.416930649019907
      ],
      [
        "when",
        -9.417374165408415
      ],
      [
        "áĮĪáĬĿ",
        -9.4180079086606
      ],
      [
        "âĸģá»įdun",
        -9.418082262885026
      ],
      [
        "tori",
        -9.418324778651243
      ],
      [
        "âĸģáĪĺáĪŃ",
        -9.418365480398915
      ],
      [
        "01",
        -9.418796711800768
      ],
      [
        "âĸģport",
        -9.419258912261359
      ],
      [
        "âĸģJi",
        -9.419638775121182
      ],
      [
        "bri",
        -9.420660850306689
      ],
      [
        "áĪĽáĪŃ",
        -9.420793376027124
      ],
      [
        "âĸģWá»įÌģn",
        -9.420979035545574
      ],
      [
        "áīłáĪĭ",
        -9.421274590149807
      ],
      [
        "stra",
        -9.421491641260815
      ],
      [
        "má»įÌĢ",
        -9.421984823443504
      ],
      [
        "áįįáīµ",
        -9.423812162595167
      ],
      [
        "for",
        -9.424056227261826
      ],
      [
        "row",
        -9.42454616606546
      ],
      [
        "uwa",
        -9.424916755310441
      ],
      [
        "â",
        -9.425110638889283
      ],
      [
        "âĸģOktoba",
        -9.425126344558272
      ],
      [
        "35",
        -9.425461874889333
      ],
      [
        "23",
        -9.425603919631074
      ],
      [
        "âĸģáĪµáĪĻ",
        -9.4258712396241
      ],
      [
        "âĸģ'yan",
        -9.425898740719713
      ],
      [
        "âĸģÃ©galement",
        -9.426167142161148
      ],
      [
        "âĸģ(B",
        -9.426483284993285
      ],
      [
        "ship",
        -9.42678942378707
      ],
      [
        "áīłáĪį",
        -9.427084318141251
      ],
      [
        "âĸģ2009",
        -9.427416748650126
      ],
      [
        "app",
        -9.427637185795568
      ],
      [
        "âĸģwe",
        -9.427996251832514
      ],
      [
        "âĸģsá»į",
        -9.428002963079688
      ],
      [
        "nya",
        -9.428595630815067
      ],
      [
        "ef",
        -9.429349030957335
      ],
      [
        "âĸģOr",
        -9.429507606401948
      ],
      [
        "âĸģX",
        -9.429983812924364
      ],
      [
        "ble",
        -9.430561320015979
      ],
      [
        "áį¡áīł",
        -9.43057698469539
      ],
      [
        "ctu",
        -9.433168685635072
      ],
      [
        "ne,",
        -9.433204873896642
      ],
      [
        "âĸģYork",
        -9.433485966479228
      ],
      [
        "gon",
        -9.434068091868951
      ],
      [
        "áĪ°áĬķ",
        -9.434299284649343
      ],
      [
        "âĸģáĪķáĭĿáī¥",
        -9.434773249706346
      ],
      [
        "âĸģorin",
        -9.43514755805455
      ],
      [
        "âĸģgasar",
        -9.436181818917202
      ],
      [
        "áĪĺáĮ¥",
        -9.436469038256556
      ],
      [
        "âĸģcentury",
        -9.436633051843087
      ],
      [
        "âĸģmar",
        -9.437712063745266
      ],
      [
        "âĸģáĬĲáĭįáį¡áį¡",
        -9.439689793265309
      ],
      [
        "dÃł",
        -9.440106735209566
      ],
      [
        "oÃ¹",
        -9.44031917228891
      ],
      [
        "bÃ¡",
        -9.440491176198048
      ],
      [
        "o,",
        -9.441180524753136
      ],
      [
        "âĸģonly",
        -9.441862380243126
      ],
      [
        "âĸģnumber",
        -9.44192541881758
      ],
      [
        "âĸģwalio",
        -9.442233109467562
      ],
      [
        "âĸģplace",
        -9.443998936264038
      ],
      [
        "âĸģáĬłáĪĺáīµ",
        -9.44487596219733
      ],
      [
        "âĸģáĭĿáĪŃáĭĿáĪŃ",
        -9.446146525092676
      ],
      [
        "gbÃ©",
        -9.446537541732077
      ],
      [
        "áĪĭáĭŃ",
        -9.446591512328082
      ],
      [
        "áĭ³áĬķ",
        -9.446922208545743
      ],
      [
        "ilikuwa",
        -9.447134699423891
      ],
      [
        "puis",
        -9.447314231567963
      ],
      [
        "J",
        -9.447409698156921
      ],
      [
        "âĸģfl",
        -9.448132493272208
      ],
      [
        "âĸģáĪ´áīµ",
        -9.448279966544746
      ],
      [
        "âĸģdomin",
        -9.448425438294315
      ],
      [
        "áĪ½áĬķ",
        -9.448796844906395
      ],
      [
        "áī½áĭį",
        -9.449323707414276
      ],
      [
        "ries",
        -9.449415204678482
      ],
      [
        "mat",
        -9.44979607925653
      ],
      [
        "áĭĲ",
        -9.449839644069668
      ],
      [
        "áĪĺáĪ«",
        -9.450121945928569
      ],
      [
        "âĸģiliyo",
        -9.450190914020157
      ],
      [
        "âĸģabout",
        -9.450475639660244
      ],
      [
        "ix",
        -9.451118681044566
      ],
      [
        "ÅĦ",
        -9.452615457996398
      ],
      [
        "âĸģpremiÃ¨re",
        -9.453610822745983
      ],
      [
        "âĸģtake",
        -9.454254223977573
      ],
      [
        "far",
        -9.45462575528758
      ],
      [
        "âĸģd'A",
        -9.454703743053688
      ],
      [
        "dic",
        -9.455554665944312
      ],
      [
        "ible",
        -9.455791838475857
      ],
      [
        "âĸģ2005",
        -9.455927156577626
      ],
      [
        "áīĦ",
        -9.456512702490468
      ],
      [
        "âĸģfim",
        -9.456650946228073
      ],
      [
        "áĪµáī³",
        -9.456798831834288
      ],
      [
        "âĸģamma",
        -9.457408546124674
      ],
      [
        "âĸģmaso",
        -9.457560251082132
      ],
      [
        "áĭµáĪĿ",
        -9.457693394787107
      ],
      [
        "âĸģlÃ³rÃŃ",
        -9.457812481401223
      ],
      [
        "âĸģWilliam",
        -9.457899064209002
      ],
      [
        "âĸģEnglish",
        -9.457899205622937
      ],
      [
        "âĸģáº¹ÌĢká»įÌģ",
        -9.458107983335559
      ],
      [
        "vis",
        -9.458239831142215
      ],
      [
        "âĸģpoint",
        -9.45829776772209
      ],
      [
        "áĬ¹",
        -9.45858607475507
      ],
      [
        "ÆĻa",
        -9.458763282691676
      ],
      [
        "âĸģ2008",
        -9.459142881601236
      ],
      [
        "gÃºn",
        -9.459271662300939
      ],
      [
        "áīĢáĭį",
        -9.459814305296653
      ],
      [
        "âĸģAna",
        -9.459956483272538
      ],
      [
        "âĸģ2015",
        -9.46031556370722
      ],
      [
        "âĸģ(a",
        -9.461061033984906
      ],
      [
        "day",
        -9.461540708152576
      ],
      [
        "io",
        -9.462369024161754
      ],
      [
        "up",
        -9.462918757033998
      ],
      [
        "âĸģkÃ³",
        -9.463230859564252
      ],
      [
        "âĸģsannan",
        -9.463415626456925
      ],
      [
        "áī»áī¸áĭį",
        -9.464360459640123
      ],
      [
        "yáº¹",
        -9.464509284895728
      ],
      [
        "âĸģfo",
        -9.464536208845733
      ],
      [
        "áĬ¤áĪį",
        -9.464831235977178
      ],
      [
        "way",
        -9.46495463238817
      ],
      [
        "áĮ¢",
        -9.465309360765586
      ],
      [
        "¶",
        -9.466085633924404
      ],
      [
        "âĸģvita",
        -9.46641054597973
      ],
      [
        "áĪĭáĪį",
        -9.466458889619837
      ],
      [
        "á»įjá»įÌģÃ¬bÃŃ",
        -9.466534973465548
      ],
      [
        "âĸģAla",
        -9.466558568672966
      ],
      [
        "âĸģout",
        -9.466671854348018
      ],
      [
        "áī£áĪħ",
        -9.467378111566385
      ],
      [
        "áĪĺáĪ¨",
        -9.467504394812721
      ],
      [
        "âĸģwÃ¡",
        -9.467698499386294
      ],
      [
        "âĸģAd",
        -9.467730305420579
      ],
      [
        "er,",
        -9.468195492931756
      ],
      [
        "âĸģtarehe",
        -9.468290456204375
      ],
      [
        "38",
        -9.46897482353112
      ],
      [
        "ħ",
        -9.469110632705686
      ],
      [
        "old",
        -9.469333050755953
      ],
      [
        "âĸģPaul",
        -9.469424950585626
      ],
      [
        "âĸģ(P",
        -9.469530280891139
      ],
      [
        "áī·",
        -9.469947427545554
      ],
      [
        "âĸģáĪĪáĪĿáĪ³áĪĮ",
        -9.470133546266641
      ],
      [
        "âĸģsiyasa",
        -9.47312628917125
      ],
      [
        "ions",
        -9.473270475523814
      ],
      [
        "ini",
        -9.473448006248983
      ],
      [
        "áĪµáĬķ",
        -9.474206595988825
      ],
      [
        "âĸģáĬĲáĮĪáĪ®áī½",
        -9.474251315881592
      ],
      [
        "âĸģgame",
        -9.474441892169803
      ],
      [
        "áĬ«áĪŃ",
        -9.474499045031122
      ],
      [
        "teur",
        -9.475869901735656
      ],
      [
        "âĸģQu",
        -9.475891350720484
      ],
      [
        "áĭ³áĪŃ",
        -9.476761947275023
      ],
      [
        "âĸģ*",
        -9.477408407309747
      ],
      [
        "âĸģEx",
        -9.478973224146362
      ],
      [
        "|",
        -9.479428500780909
      ],
      [
        "âĸģEl",
        -9.479494509735197
      ],
      [
        "âĸģmaji",
        -9.479557621244954
      ],
      [
        "áī¦áī½",
        -9.479730844092586
      ],
      [
        "pata",
        -9.480454803929565
      ],
      [
        "âĸģHer",
        -9.480517258509213
      ],
      [
        "âĸģáĬłáĪĪáīĥ",
        -9.480841756502352
      ],
      [
        "âĸģ2003",
        -9.480920429680351
      ],
      [
        "lic",
        -9.481544256750624
      ],
      [
        "âĸģpeople",
        -9.481828193433595
      ],
      [
        "âĸģ2014",
        -9.482561930565055
      ],
      [
        "stan",
        -9.48259501837903
      ],
      [
        "âĸģáĭ«áĪħáĪį",
        -9.482944015433105
      ],
      [
        "ments",
        -9.483039533874734
      ],
      [
        "s)",
        -9.483100624347088
      ],
      [
        "áīº",
        -9.483253428024941
      ],
      [
        "âĸģ2020",
        -9.483630696398203
      ],
      [
        "xi",
        -9.48391550396703
      ],
      [
        "âĸģYorÃ¹bÃ¡",
        -9.484029840007723
      ],
      [
        "wÃ²",
        -9.484177324080001
      ],
      [
        "âĸģáĪĿáĬķáĮ®áī½",
        -9.485133666787622
      ],
      [
        "âĸģSouth",
        -9.486148174015275
      ],
      [
        "áī£áĪī",
        -9.48655227029881
      ],
      [
        "ģ",
        -9.486933051133793
      ],
      [
        "âĸģáĬª",
        -9.487564718766016
      ],
      [
        "line",
        -9.488598083477726
      ],
      [
        "áĪ«áĪį",
        -9.48922016602091
      ],
      [
        "anci",
        -9.4894989392417
      ],
      [
        "âĸģNational",
        -9.489568291741515
      ],
      [
        "âĸģwakati",
        -9.489627740573482
      ],
      [
        "âĸģuku",
        -9.489659889470097
      ],
      [
        "âĸģorÃŃ",
        -9.489664201095476
      ],
      [
        "ila",
        -9.490926422177377
      ],
      [
        "cle",
        -9.49145468371264
      ],
      [
        "âĸģgrand",
        -9.491942417204982
      ],
      [
        "ling",
        -9.492156802198117
      ],
      [
        "âĸģáĪģáĬĶáī³",
        -9.49275348243334
      ],
      [
        "âĸģáĬłáĭį",
        -9.492974197043331
      ],
      [
        "qu",
        -9.493889968253722
      ],
      [
        "âĸģáĮįáĭµáĪĿ",
        -9.49483935863699
      ],
      [
        "van",
        -9.495511983590344
      ],
      [
        "âĸģtri",
        -9.496134190665327
      ],
      [
        "áĪ³áī¸áĭį",
        -9.49733368510087
      ],
      [
        "ward",
        -9.497351124261478
      ],
      [
        "áĬłáĭ²áĪµ",
        -9.497804921664088
      ],
      [
        "âĢĻa",
        -9.497894661939734
      ],
      [
        "âĸģuse",
        -9.497971461662175
      ],
      [
        "âĸģjuu",
        -9.498112788271987
      ],
      [
        "âĸģnew",
        -9.498279629197548
      ],
      [
        "ati",
        -9.499608363514495
      ],
      [
        "áĬķáīµ",
        -9.499720417751787
      ],
      [
        "áĭ¨áĪŃ",
        -9.500050058786371
      ],
      [
        "âĸģáĭĵ",
        -9.500586994476137
      ],
      [
        "âĸģáĬłáī£",
        -9.500752407092332
      ],
      [
        "á¹£Ãł",
        -9.501223279098959
      ],
      [
        "áĪ«áĭĬ",
        -9.50158952252829
      ],
      [
        "áĬŀáī½",
        -9.501871660154116
      ],
      [
        "áĬķáĭ³",
        -9.501949539163828
      ],
      [
        "âĸģkara",
        -9.502327514781744
      ],
      [
        "âĸģwould",
        -9.502962010437912
      ],
      [
        "pl",
        -9.503245755647551
      ],
      [
        "âĸģwhere",
        -9.503698755491365
      ],
      [
        "bÃł",
        -9.503702188079258
      ],
      [
        "graph",
        -9.504401584694676
      ],
      [
        "nger",
        -9.505318570560377
      ],
      [
        "car",
        -9.505455822176707
      ],
      [
        "ens",
        -9.505921346387659
      ],
      [
        "nor",
        -9.506087050082716
      ],
      [
        "kÃłn",
        -9.506569484644741
      ],
      [
        "during",
        -9.506887788297396
      ],
      [
        "prÃ¨s",
        -9.508385693627282
      ],
      [
        "âĸģsystem",
        -9.508600637035105
      ],
      [
        "har",
        -9.50945128552435
      ],
      [
        "dÃ¬",
        -9.509782957482049
      ],
      [
        "âĸģKenya",
        -9.50988439606327
      ],
      [
        "nÃ¬",
        -9.510163329637546
      ],
      [
        "sco",
        -9.510814128651404
      ],
      [
        "áĪŀáī½",
        -9.510923716958844
      ],
      [
        "spect",
        -9.511178564102721
      ],
      [
        "âĸģBayan",
        -9.511758349265369
      ],
      [
        "áĭ«áĭĬ",
        -9.512454132130998
      ],
      [
        "âĸģfranÃ§ais",
        -9.512577510661279
      ],
      [
        "âĸģTu",
        -9.512710858934096
      ],
      [
        "ft",
        -9.512795498936581
      ],
      [
        "Ã©tait",
        -9.513229092538577
      ],
      [
        "áĭŃáĮĪáĬĽáĪįáį¢",
        -9.51361285388833
      ],
      [
        "áĭŃáĬķ",
        -9.514176378959037
      ],
      [
        "âĸģmany",
        -9.514222015842286
      ],
      [
        "âĸģpremier",
        -9.514330265771903
      ],
      [
        "âĸģáĮ¥áīħáĪĿ",
        -9.514410707720423
      ],
      [
        "âĸģ28",
        -9.514653995075278
      ],
      [
        "ies",
        -9.514971707884397
      ],
      [
        "âĸģhada",
        -9.515445171418326
      ],
      [
        "ette",
        -9.516008749871737
      ],
      [
        "áĪ«áĪ±",
        -9.516927062854542
      ],
      [
        "âĸģÃłrÃ¹n",
        -9.517780220230897
      ],
      [
        "isha",
        -9.518228660884056
      ],
      [
        "âĸģru",
        -9.518744101640422
      ],
      [
        "one",
        -9.51877280682197
      ],
      [
        "âĸģ2000",
        -9.519452058063628
      ],
      [
        "âĸģ(20",
        -9.519921147681458
      ],
      [
        "âĸģforme",
        -9.520131878501415
      ],
      [
        "art",
        -9.520144638707201
      ],
      [
        "00",
        -9.520246498680372
      ],
      [
        "mili",
        -9.521023035576398
      ],
      [
        "âĸģpÃ¨",
        -9.521127459639604
      ],
      [
        "âĸģhiyo",
        -9.521222590467222
      ],
      [
        "áĪįáĬŃ",
        -9.52156803311809
      ],
      [
        "âĸģuli",
        -9.521988275319238
      ],
      [
        "má»įÌģ",
        -9.52290137428035
      ],
      [
        "âĸģáį¡áį¡",
        -9.523416190908373
      ],
      [
        "âĸģ1960",
        -9.523666688960411
      ],
      [
        "âĸģÃī",
        -9.524161794075606
      ],
      [
        "nÃł",
        -9.524341342581415
      ],
      [
        "âĸģáĪĺáĮ¨áĪ¨áĪ»",
        -9.524716505260917
      ],
      [
        "hÃ©",
        -9.524849822793133
      ],
      [
        "âĸģDans",
        -9.525065541160945
      ],
      [
        "una",
        -9.525387563479454
      ],
      [
        "rent",
        -9.525973451066438
      ],
      [
        "ology",
        -9.526061439030038
      ],
      [
        "áĭĺáĭį",
        -9.526141343954558
      ],
      [
        "net",
        -9.526227467898371
      ],
      [
        "mbar",
        -9.526969038627243
      ],
      [
        "®",
        -9.526975091302699
      ],
      [
        "bro",
        -9.527020417298862
      ],
      [
        "âĸģÆĻa",
        -9.527162883705579
      ],
      [
        "âĸģyears",
        -9.52723600140419
      ],
      [
        "âĸģUjerumani",
        -9.528005352215775
      ],
      [
        "áį¬",
        -9.52837527925183
      ],
      [
        "âĸģ27",
        -9.528439820197583
      ],
      [
        "áĭµáĪŃ",
        -9.528873941302976
      ],
      [
        "âĸģáĬłáĭ«",
        -9.529379366244832
      ],
      [
        "âĸģáĬłáįĪ",
        -9.529564235038007
      ],
      [
        "âĸģáĭĵ.áĪĿ",
        -9.529718329143384
      ],
      [
        "áĪĺáĮł",
        -9.530019490675976
      ],
      [
        "âĸģUingereza",
        -9.53031348933074
      ],
      [
        "áĭ°áĬķ",
        -9.531348657067255
      ],
      [
        "ient",
        -9.531766074550099
      ],
      [
        "áĭ«áĭį",
        -9.532519243667544
      ],
      [
        "áĪ³áĪį",
        -9.53334240452536
      ],
      [
        "âĸģáĪĺáĪª",
        -9.533641178299856
      ],
      [
        "âĸģ26",
        -9.534999086683289
      ],
      [
        "âĸģAmurka",
        -9.536109705446613
      ],
      [
        "lÃ¹",
        -9.536762788452108
      ],
      [
        "likuwa",
        -9.53745908874166
      ],
      [
        "âĸģáĪ¥áĪŃáĭĪ",
        -9.537661783668947
      ],
      [
        "ima",
        -9.53905431628706
      ],
      [
        "45",
        -9.53957087142241
      ],
      [
        "âĸģRoman",
        -9.540491198574784
      ],
      [
        "âĸģAfrican",
        -9.54074756054369
      ],
      [
        "âĸģpopulation",
        -9.540766547206735
      ],
      [
        "hin",
        -9.541717716145044
      ],
      [
        "âĸģáĪĪáĬł",
        -9.541817410065379
      ],
      [
        "end",
        -9.543073943988423
      ],
      [
        "ttle",
        -9.543112217912817
      ],
      [
        "nel",
        -9.543369607109256
      ],
      [
        "ah",
        -9.543481998549076
      ],
      [
        "âĸģmwa",
        -9.543558711425838
      ],
      [
        "pen",
        -9.543865116326764
      ],
      [
        "áĪĿáį£",
        -9.543966055349781
      ],
      [
        "áĪĦ",
        -9.545013396696495
      ],
      [
        "ple",
        -9.545176005798243
      ],
      [
        "âĸģMay",
        -9.545192101195877
      ],
      [
        "âĸģáĪĽáĪŃáīĨáĪµ",
        -9.546623723124949
      ],
      [
        "X",
        -9.547591388250037
      ],
      [
        "âĸģannÃ©es",
        -9.547829422485004
      ],
      [
        "âĸģhanyar",
        -9.547830706073356
      ],
      [
        "âĸģáĬ¨áĪļ",
        -9.548470275834571
      ],
      [
        "side",
        -9.548752749428541
      ],
      [
        "áīµáĪŃ",
        -9.548989607227991
      ],
      [
        "âĸģodun",
        -9.549105486701912
      ],
      [
        "âĸģáīłáĬłáĬķáĭµ",
        -9.549673495674341
      ],
      [
        "36",
        -9.550106633461695
      ],
      [
        "Ã´",
        -9.55028307942279
      ],
      [
        "âĸģkaratun",
        -9.551321572986883
      ],
      [
        "âĸģ(M",
        -9.551702523840111
      ],
      [
        "âĸģInternational",
        -9.552476921791158
      ],
      [
        "âĢ¦",
        -9.5525674726788
      ],
      [
        "95",
        -9.55286028954702
      ],
      [
        "âĸģAnd",
        -9.552905002752928
      ],
      [
        "âĸģpublic",
        -9.553694591636528
      ],
      [
        "dogo",
        -9.554667935234963
      ],
      [
        "bel",
        -9.555283130051222
      ],
      [
        "96",
        -9.555292074766662
      ],
      [
        "âĸģá»ĮÌĢ",
        -9.556124380226597
      ],
      [
        "áĪŀáīµ",
        -9.556435916737424
      ],
      [
        "áįŃ",
        -9.55699425157492
      ],
      [
        "âĸģmaka",
        -9.557398777168292
      ],
      [
        "áĪĽáĬķ",
        -9.557954557523287
      ],
      [
        "rait",
        -9.558105343747826
      ],
      [
        "áī¤áīµ",
        -9.558117996527404
      ],
      [
        "tent",
        -9.558395751105179
      ],
      [
        "áī³áĭį",
        -9.558878747176964
      ],
      [
        "áį®",
        -9.559012940964655
      ],
      [
        "ition",
        -9.559363960028323
      ],
      [
        "áĬĽáį¦",
        -9.559457247891235
      ],
      [
        "kÃ²",
        -9.559526834015394
      ],
      [
        "âĸģWo",
        -9.560352533493585
      ],
      [
        "32",
        -9.560748750153847
      ],
      [
        "âĸģáĭĪáĮĪáĬķ",
        -9.56106435171224
      ],
      [
        "75",
        -9.561430284785539
      ],
      [
        "sÃ¬",
        -9.561534144638593
      ],
      [
        "âĸģbuga",
        -9.56153470730985
      ],
      [
        "tation",
        -9.561691056027236
      ],
      [
        "âĸģduk",
        -9.561908057862066
      ],
      [
        "âĸģmutu",
        -9.562037551333216
      ],
      [
        "ada",
        -9.56238376865531
      ],
      [
        "áī¬",
        -9.5634472353168
      ],
      [
        "âĸģÆĻasa",
        -9.563594471675255
      ],
      [
        "Katika",
        -9.563689973493787
      ],
      [
        "kiwa",
        -9.56395684714456
      ],
      [
        "âĸģonÃŃ",
        -9.565018815439153
      ],
      [
        "don",
        -9.565320671749944
      ],
      [
        "âĸģKusini",
        -9.565602167395975
      ],
      [
        "âĸģfut",
        -9.565662722431362
      ],
      [
        "âĸģ1990",
        -9.565854085483483
      ],
      [
        "kÃº",
        -9.565985420126138
      ],
      [
        "âĸģlui",
        -9.56720988012479
      ],
      [
        "ants",
        -9.5679032256731
      ],
      [
        "vant",
        -9.568547552199782
      ],
      [
        "âĸģMai",
        -9.56973079853465
      ],
      [
        "ÆĻi",
        -9.570995477115883
      ],
      [
        "âĸģpeu",
        -9.571398442095822
      ],
      [
        "áĮłáĪŃ",
        -9.571501170512871
      ],
      [
        "iyar",
        -9.572504911596875
      ],
      [
        "iques",
        -9.572958995118793
      ],
      [
        "oko",
        -9.573271723436651
      ],
      [
        "dha",
        -9.573330363304652
      ],
      [
        "áĮįáĪŃ",
        -9.573570539123939
      ],
      [
        "poli",
        -9.573776705504866
      ],
      [
        "âĸģáī°áĭĪ",
        -9.574155042404556
      ],
      [
        "âĸģáĭĪáĪ¨áĭ³",
        -9.574190249468057
      ],
      [
        "rai",
        -9.574531626508707
      ],
      [
        "áĪħáĬķ",
        -9.574797971117341
      ],
      [
        "Jami'ar",
        -9.57521183482531
      ],
      [
        "áĭ°áĪĿ",
        -9.57525452311826
      ],
      [
        "¿",
        -9.57536035711519
      ],
      [
        "áĭĪáĭ°",
        -9.575493262761192
      ],
      [
        "rodha",
        -9.576016118221947
      ],
      [
        "iti",
        -9.576214256522505
      ],
      [
        "called",
        -9.576555305316557
      ],
      [
        "âĸģbÃŃi",
        -9.576621293105138
      ],
      [
        "rÃ²",
        -9.576640849770286
      ],
      [
        "áĪ«áĬķ",
        -9.57706044785729
      ],
      [
        "áī¼",
        -9.577926304979975
      ],
      [
        "âĸģmáº¹Ìģ",
        -9.578090272474782
      ],
      [
        "lÃ²",
        -9.57833306842225
      ],
      [
        "âĸģNajeriya.",
        -9.579027587882592
      ],
      [
        "âĸģlater",
        -9.579279428023963
      ],
      [
        "wá»įÌĢ",
        -9.580467225065743
      ],
      [
        "á¹£áº¹",
        -9.58099421461486
      ],
      [
        "85",
        -9.581584671703052
      ],
      [
        "isation",
        -9.58182864837914
      ],
      [
        "ier",
        -9.582249365041802
      ],
      [
        "âĸģcin",
        -9.582360320732343
      ],
      [
        "âĸģáº¹gbáº¹Ìģ",
        -9.582573995640406
      ],
      [
        "âĸģSun",
        -9.583232348727375
      ],
      [
        "Ð",
        -9.583860561190303
      ],
      [
        "âĸģBer",
        -9.58465100703765
      ],
      [
        "ĸ",
        -9.584768629860802
      ],
      [
        "âĸģÃ¬já»įba",
        -9.584928442331186
      ],
      [
        "âĸģgu",
        -9.585079736778203
      ],
      [
        "ities",
        -9.585461298171344
      ],
      [
        "66",
        -9.58591573877955
      ],
      [
        "âĸģnyingi",
        -9.586148066439955
      ],
      [
        "tch",
        -9.586522940695826
      ],
      [
        "áįĪáĭį",
        -9.58684798258562
      ],
      [
        "âĸģ2019",
        -9.58695599074911
      ],
      [
        "áĬķáĭ²",
        -9.587686149828514
      ],
      [
        "vÃ©",
        -9.58779949243106
      ],
      [
        "[",
        -9.58800042270566
      ],
      [
        "âĸģn'",
        -9.588471988696616
      ],
      [
        "âĸģuna",
        -9.588669153586046
      ],
      [
        "ved",
        -9.588875024157046
      ],
      [
        "kÃ¡",
        -9.589474088825192
      ],
      [
        "âĸģÃ¨tÃ²",
        -9.589893470448551
      ],
      [
        "anga",
        -9.590119055657581
      ],
      [
        "tá»įÌģ",
        -9.59022984320811
      ],
      [
        "áįĭáīµ",
        -9.590549660649476
      ],
      [
        "âĸģáĬłáīµ",
        -9.590623128108867
      ],
      [
        "âĸģfound",
        -9.590625813763584
      ],
      [
        "âĸģculture",
        -9.591103479545822
      ],
      [
        "pre",
        -9.591168042144577
      ],
      [
        "âĸģ2002",
        -9.591255870464577
      ],
      [
        "âĸģban",
        -9.591433811460057
      ],
      [
        "lÃº",
        -9.591441203804436
      ],
      [
        "ang",
        -9.591457518315856
      ],
      [
        "vert",
        -9.591974804206583
      ],
      [
        "áĪ«áĪµ",
        -9.592319585728955
      ],
      [
        "Ñ",
        -9.592874733790358
      ],
      [
        "64",
        -9.593569464048517
      ],
      [
        "imu",
        -9.59419880186078
      ],
      [
        "ait",
        -9.594437687641872
      ],
      [
        "âĸģáĪĽáĬķ",
        -9.594633204906645
      ],
      [
        "âĸģbaada",
        -9.595102312295865
      ],
      [
        "raba",
        -9.59523698011581
      ],
      [
        "âĸģelle",
        -9.59556707529094
      ],
      [
        "-S",
        -9.595999762136563
      ],
      [
        "itwa",
        -9.59638512197525
      ],
      [
        "áĬĲáī±",
        -9.5966061082921
      ],
      [
        "cus",
        -9.596640590146006
      ],
      [
        "aka",
        -9.596999458566899
      ],
      [
        "áį±",
        -9.597641359496556
      ],
      [
        "âĸģguda",
        -9.598589146033905
      ],
      [
        "âĸģ1.",
        -9.598636486618213
      ],
      [
        "awa",
        -9.598730818517609
      ],
      [
        "½",
        -9.59899684362263
      ],
      [
        "âĸģáĭ¨áĪļá",
        -9.599592567167225
      ],
      [
        "áĭĪáīħ",
        -9.59968489505669
      ],
      [
        "\")",
        -9.6000499036957
      ],
      [
        "iv",
        -9.600068665123223
      ],
      [
        "ÙĦ",
        -9.600281115283579
      ],
      [
        "áĪ«áī¸áĭį",
        -9.600481067494076
      ],
      [
        "olo",
        -9.601021214529126
      ],
      [
        "28",
        -9.601331375782411
      ],
      [
        "ienne",
        -9.601734283151103
      ],
      [
        "âĸģWi",
        -9.601802533106348
      ],
      [
        "ute",
        -9.603376317727147
      ],
      [
        "âĸģ29",
        -9.60341604670631
      ],
      [
        "âĸģupand",
        -9.603578344414121
      ],
      [
        "áĮĬáĭľ",
        -9.603937335330592
      ],
      [
        "áĪĪáĪģ",
        -9.604496157579408
      ],
      [
        "áĭ¨áĪĿ",
        -9.604763449007109
      ],
      [
        "âĸģilu",
        -9.604976388339335
      ],
      [
        "âĸģáĪģ",
        -9.605208118852818
      ],
      [
        "dre",
        -9.605375226000138
      ],
      [
        "áĪĪáī½áį¢",
        -9.605786741776758
      ],
      [
        "áĭļáĭ«",
        -9.606630509010731
      ],
      [
        "âĸģtsakanin",
        -9.60713764937912
      ],
      [
        "ker",
        -9.607807138554918
      ],
      [
        "âĸģáī³áĭĭáīĤ",
        -9.608271889867854
      ],
      [
        "lÃ³",
        -9.608332694463904
      ],
      [
        "âĸģkarn",
        -9.608588626557998
      ],
      [
        "non",
        -9.608647955139084
      ],
      [
        "now",
        -9.609263385684258
      ],
      [
        "baki",
        -9.609321704173706
      ],
      [
        "rus",
        -9.609625361756382
      ],
      [
        "Ùħ",
        -9.609787200547196
      ],
      [
        "âĸģlanguage",
        -9.610127960611031
      ],
      [
        "kÃ¨",
        -9.610143637620201
      ],
      [
        "âĸģ\"A",
        -9.611898821583468
      ],
      [
        "rou",
        -9.612499331157375
      ],
      [
        "âĸģmwana",
        -9.612545945929686
      ],
      [
        "ors",
        -9.612551703124662
      ],
      [
        "já»įÌģ",
        -9.612767496186052
      ],
      [
        "stri",
        -9.613093074648507
      ],
      [
        "âĸģBen",
        -9.613313773267304
      ],
      [
        "48",
        -9.613661904972853
      ],
      [
        "âĸģdirect",
        -9.614266555445269
      ],
      [
        "âĸģáĪĽáī´áĭİáĪµ",
        -9.614650095526095
      ],
      [
        "âĸģLondon",
        -9.614651925452526
      ],
      [
        "âĸģmá»įÌģ",
        -9.615246437596092
      ],
      [
        "âĸģStates",
        -9.615884550079134
      ],
      [
        "áĭ°áī¥",
        -9.616452025781449
      ],
      [
        "âĸģElle",
        -9.616610627490036
      ],
      [
        "22",
        -9.616768764072111
      ],
      [
        "âĸģáĪĨáĬĸáĪĿ",
        -9.616768787888716
      ],
      [
        "áĬ¨áĪį",
        -9.616797723037324
      ],
      [
        "86",
        -9.617101728113125
      ],
      [
        "áĪĥáĭŃáĪĽáĬĸáīµ",
        -9.617211196654871
      ],
      [
        "âĸģLagos",
        -9.617333374180758
      ],
      [
        "âĸģlong",
        -9.618457206163354
      ],
      [
        "âĸģtour",
        -9.618689159179905
      ],
      [
        "Ł",
        -9.618934166661605
      ],
      [
        "gh",
        -9.619669502584124
      ],
      [
        "âĸģáį³",
        -9.619700121898683
      ],
      [
        "âĸģbar",
        -9.621162520518961
      ],
      [
        "âĸģáĪĺáĪłáĪ¨áīµ",
        -9.622225733959679
      ],
      [
        "âĸģ(N",
        -9.622289075076477
      ],
      [
        "jáº¹",
        -9.623018113501374
      ],
      [
        "âĸģÃ¨",
        -9.623342637614705
      ],
      [
        "ica",
        -9.623521326632316
      ],
      [
        "âĸģchini",
        -9.623834294756216
      ],
      [
        "source",
        -9.62390481364422
      ],
      [
        "âĸģáĭµ",
        -9.623940214785492
      ],
      [
        "âĸģcons",
        -9.62489256409376
      ],
      [
        "âĸģpuis",
        -9.625359175663867
      ],
      [
        "97",
        -9.625655551583781
      ],
      [
        "âĸģ1999",
        -9.626239200640104
      ],
      [
        "á¹£áº¹Ìģ",
        -9.627101823721329
      ],
      [
        "âĸģPla",
        -9.62840511744079
      ],
      [
        "áī°áĬķ",
        -9.628517375362128
      ],
      [
        "oma",
        -9.628646078286074
      ],
      [
        "âĸģ2004",
        -9.6288014079716
      ],
      [
        "09",
        -9.629157765240212
      ],
      [
        "ara",
        -9.629280466412036
      ],
      [
        "vin",
        -9.629842653599294
      ],
      [
        "ÙĨ",
        -9.629901437722562
      ],
      [
        "88",
        -9.630260348816215
      ],
      [
        "win",
        -9.630894020801955
      ],
      [
        "âĸģkuna",
        -9.630980066181202
      ],
      [
        "âĸģyanzu",
        -9.63122004769586
      ],
      [
        "áĪĪáĬķ",
        -9.631811002133102
      ],
      [
        "âĸģime",
        -9.632175431786173
      ],
      [
        "âĸģáĮ¥áĬķáī³áĭĬ",
        -9.632409693896232
      ],
      [
        "áĭįáĪµ",
        -9.632740436661924
      ],
      [
        "78",
        -9.633024127767708
      ],
      [
        "âĸģGeorge",
        -9.633689098619739
      ],
      [
        "áĪµáĪ«",
        -9.634093588264736
      ],
      [
        "by",
        -9.63443518778665
      ],
      [
        "yÃł",
        -9.634695059375954
      ],
      [
        "ł",
        -9.634733249101242
      ],
      [
        "âĸģgirma",
        -9.635004350271288
      ],
      [
        "áĪ¶áī½",
        -9.636262118974052
      ],
      [
        "mission",
        -9.637321916384133
      ],
      [
        "Ø§",
        -9.637379500545215
      ],
      [
        "87",
        -9.639550294484692
      ],
      [
        "âĢ",
        -9.639659890741907
      ],
      [
        "ÙĬ",
        -9.640152876569095
      ],
      [
        "mber",
        -9.640904233991865
      ],
      [
        "nge",
        -9.641222933923736
      ],
      [
        "áī³áīµ",
        -9.642093044089926
      ],
      [
        "âĸģáĭ¨áĪļáĪĪáĭį",
        -9.642684563862353
      ],
      [
        "âĸģState",
        -9.642698180258943
      ],
      [
        "âĸģ1980",
        -9.642953342849413
      ],
      [
        "âĸģalif",
        -9.643232813684453
      ],
      [
        "gbÃ³",
        -9.643381054456043
      ],
      [
        "sol",
        -9.643741193274877
      ],
      [
        "âĸģ2018",
        -9.643884937415175
      ],
      [
        "âĸģplu",
        -9.644425646336511
      ],
      [
        "89",
        -9.644742975734466
      ],
      [
        "áīĥáĪį",
        -9.64506448793728
      ],
      [
        "âĸģáĬķáĮīáĪµ",
        -9.645288130692638
      ],
      [
        "âĸģDuniya",
        -9.646692062642822
      ],
      [
        "husu",
        -9.646996225501923
      ],
      [
        "áī°áĪ«",
        -9.647128591710413
      ],
      [
        "yÃ¬n",
        -9.647893962134393
      ],
      [
        "à",
        -9.648029722971202
      ],
      [
        "king",
        -9.650547872926994
      ],
      [
        "áĪŃáĪ±",
        -9.650705812712289
      ],
      [
        "áĪ³áīµ",
        -9.650995741811514
      ],
      [
        "37",
        -9.651357693107002
      ],
      [
        "âĸģBritish",
        -9.651786728282469
      ],
      [
        "bit",
        -9.6519805799872
      ],
      [
        "kÃ¬",
        -9.652316115026506
      ],
      [
        "pendant",
        -9.652735524798262
      ],
      [
        "hor",
        -9.65375041781683
      ],
      [
        "rÃłn",
        -9.654262785813714
      ],
      [
        "áī³áĭĬ",
        -9.654839495280243
      ],
      [
        "áĪ³áĭŃ",
        -9.655425336084253
      ],
      [
        "áĭĪáĪŃ",
        -9.655442401836936
      ],
      [
        "âĸģáĭķáĪĪáī³áīµ",
        -9.655707897992535
      ],
      [
        "danda",
        -9.65632497304403
      ],
      [
        "âĸģville",
        -9.65767308523609
      ],
      [
        "âĸģhigh",
        -9.658359539077242
      ],
      [
        "áĪŃáīµ",
        -9.658771208724364
      ],
      [
        "âĸģáº¸",
        -9.659296613904704
      ],
      [
        "âĸģmbalimbali",
        -9.659645386069796
      ],
      [
        "24",
        -9.660232755004241
      ],
      [
        "âĸģ100",
        -9.66043156275154
      ],
      [
        "âĸģ%",
        -9.662354977296772
      ],
      [
        "âĸģÃ¬pÃŃnláº¹ÌĢ",
        -9.663641181923172
      ],
      [
        "âĸģáĬłáĪľáĪªáĬ«",
        -9.663856500787087
      ],
      [
        "áĮłáįĭ",
        -9.664000660465033
      ],
      [
        ")áį£",
        -9.664033500859738
      ],
      [
        "âĸģact",
        -9.666215453440746
      ],
      [
        "vel",
        -9.666247964958362
      ],
      [
        "âĸģáīĢáĬĵáīµ",
        -9.666643147929403
      ],
      [
        "áĭ¨áĬĲáīłáĪ¨áĭį",
        -9.668115041809006
      ],
      [
        "tÃ²",
        -9.668743825453891
      ],
      [
        "âĸģkÃ©kerÃ©",
        -9.668891840082233
      ],
      [
        "âĸģáĪŀáīµ",
        -9.668892940816413
      ],
      [
        "sis",
        -9.669723252276427
      ],
      [
        "âĸģáĬ¡",
        -9.670033330834944
      ],
      [
        "âĸģakan",
        -9.670035093933274
      ],
      [
        "áį©",
        -9.670166060968679
      ],
      [
        "âĸģmwandishi",
        -9.670221219670445
      ],
      [
        "âĸģ0",
        -9.670459731170535
      ],
      [
        "ncin",
        -9.670811949540909
      ],
      [
        "áĬ¥áĮ",
        -9.670936267238446
      ],
      [
        "âĸģgra",
        -9.67143592581225
      ],
      [
        "re,",
        -9.671652438375926
      ],
      [
        "âĸģáī¥áĪĪáĭį",
        -9.672165383262243
      ],
      [
        "áĪĭáĬķáĭµ",
        -9.672236696311955
      ],
      [
        "âĸģÃ¬wÃ©",
        -9.672278267847489
      ],
      [
        "low",
        -9.672839222349495
      ],
      [
        "âĸģipa",
        -9.673116293181792
      ],
      [
        "ish",
        -9.673127148675613
      ],
      [
        "âĸģCi",
        -9.673180923233623
      ],
      [
        "âĸģAsia",
        -9.67320607004308
      ],
      [
        "âĸģcity",
        -9.67330962752077
      ],
      [
        "âĸģ(L",
        -9.67434122208042
      ],
      [
        "94",
        -9.674992862149109
      ],
      [
        "âĸģ2017",
        -9.675633772692358
      ],
      [
        "elles",
        -9.675672382927551
      ],
      [
        "33",
        -9.6757731215678
      ],
      [
        "áĮįáī£",
        -9.676593896643496
      ],
      [
        "âĸģKano",
        -9.67708308851952
      ],
      [
        "âĸģáĭĵáĪĪáĪĿ",
        -9.67821907573329
      ],
      [
        "âĸģ(K",
        -9.678226627194999
      ],
      [
        "á»įÌĢrá»įÌĢ",
        -9.678366849447393
      ],
      [
        "68",
        -9.679301405736872
      ],
      [
        "âĸģtabi",
        -9.679525958780683
      ],
      [
        "áĮłáĬĵ",
        -9.679559271998997
      ],
      [
        "âĸģáĪ´",
        -9.679695518313704
      ],
      [
        "âĸģáĪįáī¥",
        -9.680761316342014
      ],
      [
        "âĸģplusieurs",
        -9.680943205972172
      ],
      [
        "âĸģIII",
        -9.681150023000772
      ],
      [
        "76",
        -9.68149946288488
      ],
      [
        "áįª",
        -9.681684864301307
      ],
      [
        "oro",
        -9.682031741143936
      ],
      [
        "áīłáĪ¬",
        -9.682241336716546
      ],
      [
        "âĸģáĭ°áī¡áī¥",
        -9.683140003359142
      ],
      [
        "âĸģwacce",
        -9.68369917784603
      ],
      [
        "âĸģtype",
        -9.683863542188575
      ],
      [
        "ense",
        -9.68393746066199
      ],
      [
        "âĸģterm",
        -9.684240700216154
      ],
      [
        "42",
        -9.684725272650988
      ],
      [
        "âĸģsamar",
        -9.684842946757524
      ],
      [
        "âĸģáįĵáĪŃáī²",
        -9.684947106388048
      ],
      [
        "âĸģIta",
        -9.685090840462156
      ],
      [
        "âĸģáī",
        -9.685919907925964
      ],
      [
        "âĸģmin",
        -9.685926410877403
      ],
      [
        "âĸģkáº¹",
        -9.68634192111434
      ],
      [
        "âĸģVer",
        -9.686437305560814
      ],
      [
        "âĸģgroup",
        -9.687609319976284
      ],
      [
        "âĸģáĪ¸",
        -9.687879676125181
      ],
      [
        "tsu",
        -9.688019120398796
      ],
      [
        "âĸģáĪĦ",
        -9.688940859791897
      ],
      [
        "right",
        -9.689591345004082
      ],
      [
        "âĸģpla",
        -9.68960147347591
      ],
      [
        "âĸģáĬłáĬ«áĪį",
        -9.689856234536318
      ],
      [
        "âĸģFu",
        -9.689866370078946
      ],
      [
        "¦",
        -9.689895293291267
      ],
      [
        "âĸģáīłáĭ¨",
        -9.690422230342524
      ],
      [
        "áĬ¸",
        -9.690736726713336
      ],
      [
        "âĸģáĪµáĪŃ",
        -9.690860314616565
      ],
      [
        "âĸģlÃ©",
        -9.691243507260934
      ],
      [
        "âĸģáĭ¨áĪ°áĭį",
        -9.691326099352676
      ],
      [
        "nant",
        -9.69159207611684
      ],
      [
        "ais",
        -9.69217696388191
      ],
      [
        "lam",
        -9.692722792518744
      ],
      [
        "57",
        -9.692805518590625
      ],
      [
        "kh",
        -9.693557309628986
      ],
      [
        "mma",
        -9.69394436041485
      ],
      [
        "fer",
        -9.694170167669704
      ],
      [
        "âĸģ1,",
        -9.69421662553371
      ],
      [
        "âĸģayÃ©",
        -9.695333018483062
      ],
      [
        "wÃ©",
        -9.695450425514334
      ],
      [
        "âĸģâĢ¢",
        -9.695798599245514
      ],
      [
        "55",
        -9.696373506990312
      ],
      [
        "áĪ¨áī¥",
        -9.696713376991537
      ],
      [
        "âĸģ(I",
        -9.697831821573583
      ],
      [
        "58",
        -9.697931508862084
      ],
      [
        "âĸģmoja",
        -9.69822978308033
      ],
      [
        "riya",
        -9.698616608912376
      ],
      [
        "ľ",
        -9.698711691273592
      ],
      [
        "âĸģCor",
        -9.698911477045414
      ],
      [
        "bla",
        -9.699717925180632
      ],
      [
        "jan",
        -9.699854183292475
      ],
      [
        "Äģ",
        -9.699957189876205
      ],
      [
        "berg",
        -9.700434592310636
      ],
      [
        "âĸģsami",
        -9.700721457697718
      ],
      [
        "98",
        -9.701705689065403
      ],
      [
        "âĸģnuna",
        -9.702314184321251
      ],
      [
        "âĸģBabban",
        -9.702637580331917
      ],
      [
        "áĪ¨áĮĭ",
        -9.703382157707196
      ],
      [
        "âĸģáĬ¨áī°áĪĽáĭį",
        -9.703967267133345
      ],
      [
        "âĸģáī°áĪ°",
        -9.704310701158503
      ],
      [
        "âĸģmto",
        -9.705138280728711
      ],
      [
        "29",
        -9.705333404409043
      ],
      [
        "65",
        -9.705569211487484
      ],
      [
        "cer",
        -9.705939548400167
      ],
      [
        "54",
        -9.706396738141118
      ],
      [
        "áĪĿáĬĵáĪįáī£áīµ",
        -9.70676023302882
      ],
      [
        "áĭŃáĪĺáĪµáĪĭáĪį",
        -9.706776402466666
      ],
      [
        "ons",
        -9.706796070395082
      ],
      [
        "âĸģshe",
        -9.707078081588438
      ],
      [
        "¤",
        -9.707460242813308
      ],
      [
        "âĸģwato",
        -9.70755866564604
      ],
      [
        "wá»įÌģ",
        -9.70935660145291
      ],
      [
        "âĸģáĪ²á",
        -9.709455381343961
      ],
      [
        "ok",
        -9.71003678621651
      ],
      [
        "tory",
        -9.71044814242483
      ],
      [
        "rÃ¬",
        -9.710606650787682
      ],
      [
        "âĸģAll",
        -9.710614222971735
      ],
      [
        "áĪĶ",
        -9.710719099752547
      ],
      [
        "©",
        -9.710746733625658
      ],
      [
        "áĭ³áĪį",
        -9.711105746246542
      ],
      [
        "ĵ",
        -9.713065883881239
      ],
      [
        "áĪĽáĭĬ",
        -9.713100656636607
      ],
      [
        "hy",
        -9.714111747650977
      ],
      [
        "Q",
        -9.714237760867608
      ],
      [
        "27",
        -9.714479267531809
      ],
      [
        "haifi",
        -9.714778159683808
      ],
      [
        "áĪĺáĮ¡",
        -9.715226692257964
      ],
      [
        "34",
        -9.715548177059883
      ],
      [
        "âĸģnotamment",
        -9.716455757954108
      ],
      [
        "âĸģSt",
        -9.716977785098418
      ],
      [
        "63",
        -9.71739273491061
      ],
      [
        "83",
        -9.71758427539355
      ],
      [
        "âĸģáĬŃáĪįáĪį",
        -9.718040501780266
      ],
      [
        "burg",
        -9.718596272700193
      ],
      [
        "61",
        -9.718743965789399
      ],
      [
        "ong",
        -9.718967168058443
      ],
      [
        "nia",
        -9.719104802139373
      ],
      [
        "âĸģ1970",
        -9.71952851042023
      ],
      [
        "âĸģmain",
        -9.71974871273948
      ],
      [
        "âĸģkÃ³pa",
        -9.720032530672984
      ],
      [
        "âĸģgrande",
        -9.72013754414114
      ],
      [
        "âĸģvol",
        -9.720490606276591
      ],
      [
        "âĸģcommun",
        -9.720701924511568
      ],
      [
        "âĸģáº¹láº¹Ìģ",
        -9.720840848851115
      ],
      [
        "áĬĻ",
        -9.721865884815484
      ],
      [
        "áī¥áĪį",
        -9.722051605416617
      ],
      [
        "âĸģkafin",
        -9.72285025146651
      ],
      [
        "âĸģáī³áĪĭáīħ",
        -9.7232401112671
      ],
      [
        "âĸģáĭĪáĬķ",
        -9.723301184788882
      ],
      [
        "tawala",
        -9.72342909005098
      ],
      [
        "âĸģpu",
        -9.723849264486367
      ],
      [
        "âĸģáīłáĮį",
        -9.72443097578324
      ],
      [
        "ni.",
        -9.72766247951063
      ],
      [
        "âĸģCharles",
        -9.727796427926066
      ],
      [
        "áĮ¥áĪĿ",
        -9.728342135086365
      ],
      [
        "âĸģsababu",
        -9.72906802066101
      ],
      [
        "wÃł",
        -9.72921735700367
      ],
      [
        "âĸģÉĹaya",
        -9.729481465460864
      ],
      [
        "âĸģáĪĨáĬĲáĭį",
        -9.729811015541346
      ],
      [
        "âĸģ(T",
        -9.73010142125587
      ],
      [
        "âĸģorÃŃláº¹ÌĢ",
        -9.730573260456609
      ],
      [
        "Ãª",
        -9.730606222065067
      ],
      [
        "kia",
        -9.731336443094953
      ],
      [
        "Ã¨me",
        -9.731520249544491
      ],
      [
        "âĸģthree",
        -9.731889792201846
      ],
      [
        "áĪŃáĭ«",
        -9.731938440445074
      ],
      [
        "eurs",
        -9.73198685598932
      ],
      [
        "ub",
        -9.732031798331835
      ],
      [
        "âĸģyawa",
        -9.732108297172047
      ],
      [
        "âĸģáĬłáĪĿ",
        -9.732916346399286
      ],
      [
        "âĸģCity",
        -9.733294220784945
      ],
      [
        "âĸģAlexander",
        -9.733297633810235
      ],
      [
        "âĸģUlaya",
        -9.733315508611486
      ],
      [
        "âĸģrÃŃ",
        -9.733553062598443
      ],
      [
        "áĭĿáĪĿ",
        -9.733948786741283
      ],
      [
        "áĮĪáī¡",
        -9.734400078463175
      ],
      [
        "âĸģart",
        -9.73497833293326
      ],
      [
        "âĸģáĪ¶",
        -9.735030693788065
      ],
      [
        "âĸģáĬłáĪ³",
        -9.735147442803779
      ],
      [
        "hili",
        -9.73552719022572
      ],
      [
        "âĸģarm",
        -9.735700834807183
      ],
      [
        "âĸģJean",
        -9.73657018576137
      ],
      [
        "<",
        -9.738302813478171
      ],
      [
        "us,",
        -9.738500648095174
      ],
      [
        "âĸģChina",
        -9.738616833458236
      ],
      [
        "hari",
        -9.738681059488204
      ],
      [
        "áĪ©áīµ",
        -9.738992895255317
      ],
      [
        "âĸģGreek",
        -9.739001763155189
      ],
      [
        "i.",
        -9.739111024526453
      ],
      [
        "âĸģruwa",
        -9.739463500796653
      ],
      [
        "-áĬł",
        -9.73964343855314
      ],
      [
        "âĸģbeing",
        -9.74042137779076
      ],
      [
        "áĪķáĮį",
        -9.740720923425236
      ],
      [
        "áĭįáĪį",
        -9.742176770549381
      ],
      [
        "âĸģces",
        -9.742246294729588
      ],
      [
        "vient",
        -9.74227708575368
      ],
      [
        "'i",
        -9.74266613857965
      ],
      [
        "bÃ¹n",
        -9.742696746936417
      ],
      [
        "Å",
        -9.74284217932272
      ],
      [
        "áº¹Ìģrá»įÌģÃ¬dÃ¬",
        -9.743255039848881
      ],
      [
        "ag",
        -9.743277570635673
      ],
      [
        "âĸģlÃ¡ra",
        -9.743293387828666
      ],
      [
        "âĸģáĪ³áĭŃáĪĨáĬķ",
        -9.743426878188519
      ],
      [
        "gha",
        -9.743439831045944
      ],
      [
        "logique",
        -9.7436022630712
      ],
      [
        "ª",
        -9.743669161965052
      ],
      [
        "77",
        -9.743723257525321
      ],
      [
        "âĸģDaga",
        -9.743895891347044
      ],
      [
        "âĸģmade",
        -9.744122311903048
      ],
      [
        "âĸģCollege",
        -9.744686995542724
      ],
      [
        "áĬ¨áĪŃ",
        -9.744689473753084
      ],
      [
        "ÃŃn",
        -9.745151636115741
      ],
      [
        "âĸģMor",
        -9.745399591297737
      ],
      [
        "âĸģPri",
        -9.745815416377711
      ],
      [
        "âĸģearly",
        -9.746120816630679
      ],
      [
        "âĸģsÃ©",
        -9.746748827947403
      ],
      [
        "âĸģáĬ¥áĮħáĮį",
        -9.746957587291893
      ],
      [
        "wá»į",
        -9.747649289287857
      ],
      [
        "Ĩ",
        -9.748415713453479
      ],
      [
        "áĬķáĮĭ",
        -9.748452463670972
      ],
      [
        "âĸģSon",
        -9.749281391178847
      ],
      [
        "tumia",
        -9.749299011379527
      ],
      [
        "ken",
        -9.749416873987727
      ],
      [
        "bba",
        -9.749582261106188
      ],
      [
        "áĬķáį£",
        -9.750391690064077
      ],
      [
        "ala",
        -9.750931977223797
      ],
      [
        "áī»áĭŃáĬĵ",
        -9.750948317937366
      ],
      [
        "âĸģáĭ¨áĪļáĪį",
        -9.751065617833419
      ],
      [
        "yá»į",
        -9.751157949998866
      ],
      [
        "-C",
        -9.751224458044852
      ],
      [
        "âĸģáĬłáī£áĪį",
        -9.75139250560579
      ],
      [
        "âĸģl'A",
        -9.75175028296384
      ],
      [
        "kuta",
        -9.751787425613879
      ],
      [
        "âĸģcontinu",
        -9.751876620860653
      ],
      [
        "áĪĿáĮįáī¥",
        -9.751974866076019
      ],
      [
        "sáº¹ÌĢ",
        -9.75248562667607
      ],
      [
        "âĸģmakarantar",
        -9.75278921203832
      ],
      [
        "âĸģgida",
        -9.753319836303639
      ],
      [
        "áīµáĪĿ",
        -9.753538324385932
      ],
      [
        "áĪŃáĬŃ",
        -9.753621187292996
      ],
      [
        "áī½áį¢",
        -9.753686147044759
      ],
      [
        "tus",
        -9.75380906844374
      ],
      [
        "áĪ°áĮ¥",
        -9.753819273068665
      ],
      [
        "ney",
        -9.753856053634468
      ],
      [
        "áī°áĪ¨",
        -9.754313017001579
      ],
      [
        "âĸģáĪ±",
        -9.754357358141188
      ],
      [
        "âĸģáīłáĭ°áī¡áī¥",
        -9.754518182862732
      ],
      [
        "å",
        -9.75475768086778
      ],
      [
        "âĸģáĪįáĭ°áīµ",
        -9.7548473375553
      ],
      [
        "iko",
        -9.75496033861975
      ],
      [
        "áĭĪáĪŃáīħ",
        -9.755085509391204
      ],
      [
        "Ģ",
        -9.755100280601166
      ],
      [
        "áĬĲáīłáĪ©",
        -9.75579050827552
      ],
      [
        "ta,",
        -9.755890090509919
      ],
      [
        "âĸģsens",
        -9.755930610822329
      ],
      [
        "âĸģkoma",
        -9.756101130590881
      ],
      [
        "áĪĭáĭĬ",
        -9.75636633592159
      ],
      [
        "uti",
        -9.756502252784767
      ],
      [
        "Ļ",
        -9.75682129453465
      ],
      [
        "âĸģmulkin",
        -9.75683543212208
      ],
      [
        "anza",
        -9.757116593701042
      ],
      [
        "âĸģpolitique",
        -9.757704892312466
      ],
      [
        "áĪµáī¥",
        -9.759201583598252
      ],
      [
        "âĸģkira",
        -9.760247612046754
      ],
      [
        "âĸģáĭ¨áĬ¢",
        -9.760439616974544
      ],
      [
        "áī·áĪįáį¢",
        -9.761119021010119
      ],
      [
        "áĭ°áĪµ",
        -9.7613012270062
      ],
      [
        "âĸģfito",
        -9.761599839708065
      ],
      [
        "phe",
        -9.762027303833671
      ],
      [
        "âĸģmita",
        -9.762047287286531
      ],
      [
        "dÃ³",
        -9.763147787932851
      ],
      [
        "âĸģcas",
        -9.763666712934615
      ],
      [
        "met",
        -9.76417435701429
      ],
      [
        "llow",
        -9.76425755383962
      ],
      [
        "âĸģbien",
        -9.765700444813842
      ],
      [
        "yÃŃ",
        -9.765868815193503
      ],
      [
        "á¹£i",
        -9.766173208300234
      ],
      [
        "56",
        -9.766330030912448
      ],
      [
        "âĸģ2001",
        -9.766818594780533
      ],
      [
        "âĸģáī¦",
        -9.767640847158662
      ],
      [
        "áį°",
        -9.767918253814823
      ],
      [
        "ques",
        -9.768947997950828
      ],
      [
        "ek",
        -9.769146415521892
      ],
      [
        "âĸģhivyo",
        -9.769362542256202
      ],
      [
        "âĸģáĪ«áĪµ",
        -9.769599315700852
      ],
      [
        "ound",
        -9.769625271928032
      ],
      [
        "47",
        -9.769919573123557
      ],
      [
        "âĸģauto",
        -9.770347903510622
      ],
      [
        "âĸģáĭ¨áĬĲáīłáĪ¨",
        -9.770357737536369
      ],
      [
        "âĸģsans",
        -9.770758443752845
      ],
      [
        "âĸģZ",
        -9.771329634145506
      ],
      [
        "âĸģDar",
        -9.771527170905655
      ],
      [
        "áĭĺáĪŃ",
        -9.772064361307692
      ],
      [
        "âĸģbayyana",
        -9.772265762131791
      ],
      [
        "usi",
        -9.772376193652914
      ],
      [
        "âĸģaprÃ¨s",
        -9.772493436852415
      ],
      [
        "áīµáį£",
        -9.772888653985438
      ],
      [
        "duc",
        -9.772893595935315
      ],
      [
        "Ã§",
        -9.773689185265308
      ],
      [
        "âĸģfilamu",
        -9.773745090278023
      ],
      [
        "âĸģÃĪkÃ³",
        -9.773818267874422
      ],
      [
        "âĸģ1991",
        -9.774069953857426
      ],
      [
        "79",
        -9.774758407686539
      ],
      [
        "âĸģfour",
        -9.775053941140516
      ],
      [
        "âĸģPh",
        -9.775279996860181
      ],
      [
        "03",
        -9.775898558125416
      ],
      [
        "ized",
        -9.775950400902609
      ],
      [
        "áĬ½",
        -9.776119473662916
      ],
      [
        "âĸģFrench",
        -9.776689230138594
      ],
      [
        "áĬĲáĪ³",
        -9.776796480390143
      ],
      [
        "rÃ³",
        -9.777449358477327
      ],
      [
        "áī°áĭĪáĪĪáĭ°",
        -9.77753441052713
      ],
      [
        "âĸģJames",
        -9.777987310998725
      ],
      [
        "âĸģvers",
        -9.778368067647499
      ],
      [
        "mor",
        -9.778665796117625
      ],
      [
        "âĸģKemi",
        -9.77868134509496
      ],
      [
        "kwamba",
        -9.779380413179174
      ],
      [
        "vision",
        -9.77981413518404
      ],
      [
        "39",
        -9.780598232511078
      ],
      [
        "view",
        -9.780622216238932
      ],
      [
        "gne",
        -9.780960737778162
      ],
      [
        "âĸģChe",
        -9.781138009035725
      ],
      [
        "Åį",
        -9.781251808438679
      ],
      [
        "âĸģáĬĵáī¸áĭį",
        -9.781505444759006
      ],
      [
        "kara",
        -9.783583589407304
      ],
      [
        "âĸģsamun",
        -9.783659373780917
      ],
      [
        "áī°áĪĪáĭ«áĭ©",
        -9.783705545549777
      ],
      [
        "uta",
        -9.78384005125977
      ],
      [
        "âĸģmajor",
        -9.784159793909323
      ],
      [
        "500",
        -9.784789306205269
      ],
      [
        "92",
        -9.784796958572826
      ],
      [
        "áĮ¥áĬķ",
        -9.785090912561301
      ],
      [
        "ue",
        -9.78531161320495
      ],
      [
        "ká»įÌĢ",
        -9.78587469225098
      ],
      [
        "ius",
        -9.786308592007895
      ],
      [
        "âĸģ31",
        -9.78642835567149
      ],
      [
        "âĸģAk",
        -9.786756475569781
      ],
      [
        "áĬ«áĪį",
        -9.786816870968714
      ],
      [
        "pÃ²",
        -9.787102475321024
      ],
      [
        "áĭ¨áī°áĬŃáĪī",
        -9.7872203281676
      ],
      [
        "âĸģasili",
        -9.78746474664667
      ],
      [
        "áī²áĬŃ",
        -9.787832160077137
      ],
      [
        "âĸģáĪĢáĮĪáĪŃ",
        -9.78795844464905
      ],
      [
        "73",
        -9.788871693338479
      ],
      [
        "âĸģthere",
        -9.789305098197808
      ],
      [
        "áĬĲáīłáĪŃ",
        -9.789350301739553
      ],
      [
        "04",
        -9.789381677108167
      ],
      [
        "âĸģáīłáĬ©áĪį",
        -9.790192370766862
      ],
      [
        "bÃ©",
        -9.790294521790583
      ],
      [
        "âĸģKar",
        -9.790620493470897
      ],
      [
        "action",
        -9.790677564886467
      ],
      [
        "âĸģáĭ³",
        -9.791390622676051
      ],
      [
        "âĸģsupport",
        -9.791582165674647
      ],
      [
        "endelea",
        -9.79159116502115
      ],
      [
        "fÃł",
        -9.79189784140774
      ],
      [
        "áĭ°áĪ¨áĪ°",
        -9.792377298477067
      ],
      [
        "kali",
        -9.792812091508873
      ],
      [
        "âĸģáĭĻáĪªáĭ«",
        -9.793172294686158
      ],
      [
        "ult",
        -9.79354580401761
      ],
      [
        "âĸģAllah",
        -9.794473379438664
      ],
      [
        "âĸģáĬ©",
        -9.795433182207145
      ],
      [
        "âĸģáįĸ",
        -9.795789028508057
      ],
      [
        "áĬķáī²",
        -9.795951591012146
      ],
      [
        "âĸģIpinle",
        -9.796096577593065
      ],
      [
        "âĸģdigiri",
        -9.796171420789385
      ],
      [
        "ĥ",
        -9.796239604504798
      ],
      [
        "-Ã¬",
        -9.796401300115962
      ],
      [
        "âĸģáĪĺáĮłáĬķ",
        -9.796702270200829
      ],
      [
        "âĸģáīłáĪĺáĪĨáĬĳ",
        -9.796753710621967
      ],
      [
        "ira",
        -9.797207998966503
      ],
      [
        "07",
        -9.79792031653145
      ],
      [
        "áī£áĬķ",
        -9.798471692856346
      ],
      [
        "áī£áĪĪ",
        -9.799124033515305
      ],
      [
        "âĸģJanuary",
        -9.800493057320054
      ],
      [
        "wa,",
        -9.800711700178724
      ],
      [
        "áī¥áīµ",
        -9.801368139633453
      ],
      [
        "lis",
        -9.80199230655072
      ],
      [
        "âĸģWest",
        -9.80201031307924
      ],
      [
        "áĪĽáĪµáī³áĭĪáĪ»",
        -9.802138855920385
      ],
      [
        "âĸģincluding",
        -9.802163396064248
      ],
      [
        "Ã¼",
        -9.802307734465185
      ],
      [
        "áĭ¨áī°áĪĪáĭ«áĭ©",
        -9.802547932507716
      ],
      [
        "âĸģwajen",
        -9.803020504194532
      ],
      [
        "âĸģAbi",
        -9.803242403089827
      ],
      [
        "wer",
        -9.803255743479903
      ],
      [
        "jÃŃ",
        -9.803375879242903
      ],
      [
        "áĭ«áīµ",
        -9.803422596729428
      ],
      [
        "âĸģHis",
        -9.803722918365668
      ],
      [
        "áĬĵáĪį",
        -9.80389477223676
      ],
      [
        "74",
        -9.804365584242273
      ],
      [
        "âĸģolÃ¹",
        -9.804783811061238
      ],
      [
        "tangu",
        -9.804846613284383
      ],
      [
        "áīµáĪ«",
        -9.804923801820028
      ],
      [
        "owo",
        -9.80544465456826
      ],
      [
        "âĸģtout",
        -9.805703879327599
      ],
      [
        "âĸģáĮĪáī¥",
        -9.806160134568731
      ],
      [
        "dge",
        -9.806226611337642
      ],
      [
        "áĪģáĪĪáī°áĬĽáĭį",
        -9.80669343643831
      ],
      [
        "âĸģkusini",
        -9.806760400396124
      ],
      [
        "âĸģ()",
        -9.807616981839534
      ],
      [
        "52",
        -9.807679507913981
      ],
      [
        "áĮ¾",
        -9.807689722877797
      ],
      [
        "âĸģgidan",
        -9.80780455579091
      ],
      [
        "âĸģAustralia",
        -9.808223616996877
      ],
      [
        "áĮ¥áĪŃ",
        -9.809159289232344
      ],
      [
        "ose",
        -9.8093076547897
      ],
      [
        "Ø±",
        -9.809500708442446
      ],
      [
        "âĸģiko",
        -9.809664710092578
      ],
      [
        "âĸģnon",
        -9.809731006926995
      ],
      [
        "âĸģáī¡",
        -9.809733902182607
      ],
      [
        "---",
        -9.8097972894164
      ],
      [
        "table",
        -9.809914692551311
      ],
      [
        "âĸģAg",
        -9.810105802607088
      ],
      [
        "rÃ¬n",
        -9.810293056095807
      ],
      [
        "very",
        -9.81032328792063
      ],
      [
        "ole",
        -9.810341018340734
      ],
      [
        "áĭ®áĪµ",
        -9.811016140715768
      ],
      [
        "âĸģwell",
        -9.811077490439523
      ],
      [
        "âĸģáĬłáĭµ",
        -9.81143659233355
      ],
      [
        "âĸģáĭŃáĪĦ",
        -9.81144200315707
      ],
      [
        "44",
        -9.811462937183578
      ],
      [
        "49",
        -9.811524782061074
      ],
      [
        "62",
        -9.811636257672156
      ],
      [
        "26",
        -9.811687862184723
      ],
      [
        "âĸģyayi",
        -9.811795478121912
      ],
      [
        "âĸģjÃ¹lá»į",
        -9.812005642147996
      ],
      [
        "áī£áĭŃ",
        -9.81224637270392
      ],
      [
        "born",
        -9.812973552088629
      ],
      [
        "áįĳ",
        -9.81306038698697
      ],
      [
        "Ãītat",
        -9.813086834196547
      ],
      [
        "46",
        -9.813646577889758
      ],
      [
        "áįįáĪ«",
        -9.813760527000934
      ],
      [
        "pon",
        -9.814497042258512
      ],
      [
        "áĪ³áĬķ",
        -9.814679118391822
      ],
      [
        "Ã¢",
        -9.814803732515042
      ],
      [
        "áĭ¨áĭį",
        -9.814905396901072
      ],
      [
        "gg",
        -9.81525845852023
      ],
      [
        "-1",
        -9.815353531652397
      ],
      [
        "áĬ¥áĬķáĭ°áĪĨáĬĲ",
        -9.816055003603035
      ],
      [
        "âĸģ(1",
        -9.816775869881287
      ],
      [
        "âĸģdama",
        -9.816784561321022
      ],
      [
        "âĸģHistoria",
        -9.817420982334218
      ],
      [
        "âĸģáĭĵáĪĺáī±",
        -9.817506842063027
      ],
      [
        "84",
        -9.817664701207367
      ],
      [
        "âĸģbáº¹ÌĢráº¹ÌĢ",
        -9.817896993971951
      ],
      [
        "áĪĽáĪ«",
        -9.81800455749761
      ],
      [
        "yÃ¨",
        -9.818332115078082
      ],
      [
        "âĸģMei",
        -9.81884633885085
      ],
      [
        "âĸģSch",
        -9.81906530611564
      ],
      [
        "âĸģMuhammad",
        -9.819474000385007
      ],
      [
        "voir",
        -9.820658357844836
      ],
      [
        "weza",
        -9.820693775059944
      ],
      [
        "wÃ¡",
        -9.820776199331476
      ],
      [
        "áĪĿáĭµáĪŃ",
        -9.8211135911451
      ],
      [
        "áī¶áī¹",
        -9.821249539030891
      ],
      [
        "dar",
        -9.821444516016516
      ],
      [
        "53",
        -9.82146719197704
      ],
      [
        "áĮłáī¥",
        -9.821834054695172
      ],
      [
        "âĸģUfaransa",
        -9.822047675380741
      ],
      [
        "âĸģinayo",
        -9.822376878914156
      ],
      [
        "áį«",
        -9.822852497750638
      ],
      [
        "âĸģEu",
        -9.822974799472222
      ],
      [
        "âĸģplan",
        -9.823048326319213
      ],
      [
        "âĸģParty",
        -9.82396720995178
      ],
      [
        "âĸģNijeriya.",
        -9.82406393856062
      ],
      [
        "pá»į",
        -9.824213351033734
      ],
      [
        "âĸģBC",
        -9.824970932722678
      ],
      [
        "áĭŃáī½áĪĭáĪįáį¢",
        -9.825074359476499
      ],
      [
        "lai",
        -9.825099006194895
      ],
      [
        "yÃ¡",
        -9.825268701253632
      ],
      [
        "Z",
        -9.825795340588844
      ],
      [
        "-20",
        -9.82606878953057
      ],
      [
        "ona",
        -9.826625216383572
      ],
      [
        "áī¥áĪĶáĪ«áĭĬ",
        -9.82669902487709
      ],
      [
        "âĸģarea",
        -9.827154631896363
      ],
      [
        "báº¹ÌĢ",
        -9.827587150198722
      ],
      [
        "¾",
        -9.827597919471506
      ],
      [
        "âĸģtara",
        -9.82781227351294
      ],
      [
        "âĸģAgosti",
        -9.82825468149549
      ],
      [
        "âĸģprocess",
        -9.828316443499647
      ],
      [
        "dina",
        -9.829480986264238
      ],
      [
        "âĸģáĬłáī¶",
        -9.829907555669234
      ],
      [
        "Ï",
        -9.829957786267975
      ],
      [
        "aye",
        -9.830040186446194
      ],
      [
        "72",
        -9.830565593740548
      ],
      [
        "áĮ¹",
        -9.830759704854351
      ],
      [
        "âĸģne.",
        -9.830892582833833
      ],
      [
        "ongo",
        -9.831104914917667
      ],
      [
        "âĸģworld",
        -9.831372203644325
      ],
      [
        "Ĭ",
        -9.832317086331482
      ],
      [
        "âĸģMachi",
        -9.832786010819733
      ],
      [
        "ÌģtÃ¬",
        -9.832995832971871
      ],
      [
        "âĸģmÃº",
        -9.833363134544705
      ],
      [
        "âĸģlife",
        -9.83408768743832
      ],
      [
        "âĸģmanyan",
        -9.834280059195684
      ],
      [
        "mÃº",
        -9.834616120181472
      ],
      [
        "position",
        -9.834710651451411
      ],
      [
        "áįĪáĪ«",
        -9.83482303141453
      ],
      [
        "phon",
        -9.83497440908199
      ],
      [
        "âĸģáĪĺáī¶",
        -9.83519115257346
      ],
      [
        "âĸģnational",
        -9.835335828951866
      ],
      [
        "82",
        -9.835742192137754
      ],
      [
        "âĸģplÃ¡náº¹",
        -9.836067090112394
      ],
      [
        "âĸģdroit",
        -9.836078782608114
      ],
      [
        "âĸģáĪĿáĬķáĮŃ",
        -9.836603358329914
      ],
      [
        "||",
        -9.836871230783352
      ],
      [
        "led",
        -9.837006780763907
      ],
      [
        "ines",
        -9.83733324347809
      ],
      [
        "put",
        -9.838306573153979
      ],
      [
        "âĸģsan",
        -9.838456070670917
      ],
      [
        "âĸģnÃŃbi",
        -9.838662904902517
      ],
      [
        "93",
        -9.838811401803545
      ],
      [
        "³áĪŃ",
        -9.839508493520013
      ],
      [
        "âĸģáĬłá",
        -9.839812567373418
      ],
      [
        "âĸģIle",
        -9.839835174235503
      ],
      [
        "Ŀ",
        -9.840533795516102
      ],
      [
        "ambayo",
        -9.841397426705026
      ],
      [
        "âĸģ(d.",
        -9.84143264013656
      ],
      [
        "yÃłn",
        -9.842160414251513
      ],
      [
        "ium",
        -9.8424210536514
      ],
      [
        "âĸģyenye",
        -9.842431286142062
      ],
      [
        "âĸģtext",
        -9.842503105928035
      ],
      [
        "âĸģ(U",
        -9.842565856003795
      ],
      [
        "áī¤áī±",
        -9.84389684296875
      ],
      [
        "41",
        -9.84393480273104
      ],
      [
        "âĸģgina",
        -9.844306386232493
      ],
      [
        "âĸģMji",
        -9.844681243643436
      ],
      [
        "âĸģGar",
        -9.844910551022156
      ],
      [
        "âĸģáº¹ni",
        -9.845218313446296
      ],
      [
        "âĸģthese",
        -9.845392777961184
      ],
      [
        "âĸģJanuari",
        -9.845523018854784
      ],
      [
        "69",
        -9.845612733536658
      ],
      [
        "âĸģáīµáĪįáīħ",
        -9.845766069660142
      ],
      [
        "âĸģShugaban",
        -9.846032441221691
      ],
      [
        "Ä",
        -9.84690560125522
      ],
      [
        "while",
        -9.84713200017931
      ],
      [
        "áĭĪáĬķ",
        -9.84836336112307
      ],
      [
        "refu",
        -9.848458601630584
      ],
      [
        "áĬĵáĭĬ",
        -9.848817999918964
      ],
      [
        "âĸģSeptember",
        -9.848931874465288
      ],
      [
        "ia,",
        -9.849375875865764
      ],
      [
        "nom",
        -9.849682581116326
      ],
      [
        "áĭ°áĮį",
        -9.849990128736986
      ],
      [
        "ches",
        -9.85008337871177
      ],
      [
        "âĸģutilisÃ©",
        -9.850401196121013
      ],
      [
        "âĸģOá¹£Ã¹",
        -9.850781004005494
      ],
      [
        "âĸģany",
        -9.851703067412338
      ],
      [
        "áĪ²áĬķ",
        -9.851758012396427
      ],
      [
        "âĸģ(G",
        -9.851813633670808
      ],
      [
        "âĸģáĪľáīµáĪŃ",
        -9.85201134095379
      ],
      [
        "phi",
        -9.85208418887628
      ],
      [
        "âĸģ(Â«",
        -9.8531663204481
      ],
      [
        "âĸģáĮ¸",
        -9.853280845137638
      ],
      [
        "âĸģkudu",
        -9.853378182931248
      ],
      [
        "âĸģserikali",
        -9.853474340324269
      ],
      [
        "âĸģnombre",
        -9.853686590859311
      ],
      [
        "áĭ¥",
        -9.854337810626507
      ],
      [
        "Ã¨s",
        -9.85440999453691
      ],
      [
        "§",
        -9.854430541970173
      ],
      [
        "âĸģGerman",
        -9.854507120427327
      ],
      [
        "âĸģáīłáĪĮáĪĭ",
        -9.854986250258317
      ],
      [
        "âĸģáīłáī¥áĭĽáīµ",
        -9.855069643080924
      ],
      [
        "âĸģtrois",
        -9.855164226319445
      ],
      [
        "âĸģáĬłáĪī",
        -9.855433601471601
      ],
      [
        "âĸģáĭŃáĪĪ",
        -9.855705816748713
      ],
      [
        "iri",
        -9.855986605850731
      ],
      [
        "in,",
        -9.856092491961046
      ],
      [
        "gbÃ²",
        -9.85613336886664
      ],
      [
        "áĬ¥áĬķáĭ°áĮĪáĬĵ",
        -9.856515385485492
      ],
      [
        "tions",
        -9.856784225915487
      ],
      [
        "âĸģ1993",
        -9.85683440257203
      ],
      [
        "âĸģ(E",
        -9.856896483657348
      ],
      [
        "ught",
        -9.856949178968625
      ],
      [
        "âĸģlors",
        -9.856956128288072
      ],
      [
        "fond",
        -9.856973213358021
      ],
      [
        "áĪĦáĭµ",
        -9.857463299785124
      ],
      [
        "âĸģáĭµáĪŃ",
        -9.85823743772596
      ],
      [
        "space",
        -9.85848512881255
      ],
      [
        "âĸģ1998",
        -9.858508376050317
      ],
      [
        "áĪĳ",
        -9.85873225156677
      ],
      [
        "31",
        -9.858800976269912
      ],
      [
        "TV",
        -9.859220321161548
      ],
      [
        "âĸģá¹£",
        -9.859764091080319
      ],
      [
        "¬",
        -9.860440837087786
      ],
      [
        "âĸģNorth",
        -9.86118711135444
      ],
      [
        "59",
        -9.861226651199612
      ],
      [
        "áĪĽáīµ",
        -9.861235515010343
      ],
      [
        "âĸģIngila.",
        -9.861447854248343
      ],
      [
        "âĸģáĭµáĪŃáĮħáīµ",
        -9.861486360048723
      ],
      [
        "âĸģTan",
        -9.86157056135203
      ],
      [
        "chang",
        -9.861913727122623
      ],
      [
        "âĸģmÃ©jÃ¬",
        -9.863329662118588
      ],
      [
        "âĸģáĮ¦áĪŃ",
        -9.863370636081065
      ],
      [
        "niya",
        -9.86418224739769
      ],
      [
        "lum",
        -9.864183951769895
      ],
      [
        "âĸģagba",
        -9.864866425120857
      ],
      [
        "bia",
        -9.865008636603035
      ],
      [
        "âĸģáĮ½",
        -9.865223340249063
      ],
      [
        "fáº¹Ìģ",
        -9.86555429704285
      ],
      [
        "âĸģBaada",
        -9.865753234435708
      ],
      [
        "âĸģZi",
        -9.865812229580243
      ],
      [
        "âĸģáĬ¥áĪµ",
        -9.865958643034883
      ],
      [
        "s:",
        -9.866209979060333
      ],
      [
        "áĭ°áĭį",
        -9.866465712045157
      ],
      [
        "âĸģap",
        -9.86647508653536
      ],
      [
        "âĸģEurope",
        -9.866689340245623
      ],
      [
        "bli",
        -9.867540729926276
      ],
      [
        "âĸģáĪĽáĪŃ",
        -9.867644319459682
      ],
      [
        "âĸģáį²áį±áį»",
        -9.867780889255288
      ],
      [
        "âĸģcours",
        -9.867915167642428
      ],
      [
        "âĸģinternational",
        -9.867941847935274
      ],
      [
        "âĸģRiver",
        -9.86857741430299
      ],
      [
        "âĸģLÃ¡",
        -9.868747816994782
      ],
      [
        "die",
        -9.868758161678638
      ],
      [
        "ful",
        -9.868796667016994
      ],
      [
        "âĸģNchi",
        -9.868797314238087
      ],
      [
        "dam",
        -9.868864567574764
      ],
      [
        "âĸģif",
        -9.86904817894132
      ],
      [
        "Ã¬ÃŃ",
        -9.86910791733192
      ],
      [
        "âĸģkaskazini",
        -9.869562487076285
      ],
      [
        "áĮ¥áĬķáīµ",
        -9.869717663294786
      ],
      [
        "áĮĪáĪ¨",
        -9.869803427368248
      ],
      [
        "AN",
        -9.8698406686655
      ],
      [
        "âĸģbase",
        -9.870090960268115
      ],
      [
        "para",
        -9.870922637701032
      ],
      [
        "âĸģáĭŃáī»áĪĭáĪį",
        -9.871186744466902
      ],
      [
        "âĸģáĪħáĭĿáī¥",
        -9.871210564734751
      ],
      [
        "âĸģdeath",
        -9.871499186117749
      ],
      [
        "âĸģEd",
        -9.871599517081894
      ],
      [
        "02",
        -9.871632558262146
      ],
      [
        "âĸģsocial",
        -9.871673128430501
      ],
      [
        "âĸģAir",
        -9.871713439669302
      ],
      [
        "book",
        -9.87281093842885
      ],
      [
        "âĸģáĪĽáĮ£áīĢáĪ»",
        -9.874440547893704
      ],
      [
        "âĸģword",
        -9.874588274732908
      ],
      [
        "áĪĥáĭŃ",
        -9.874665977542765
      ],
      [
        "dÃ¹",
        -9.874981506757555
      ],
      [
        "áĪªáĬŃ",
        -9.874996404867158
      ],
      [
        "âĸģcommon",
        -9.87501066859043
      ],
      [
        "lit",
        -9.875094763117591
      ],
      [
        "âĸģáĮŃ",
        -9.875558819866175
      ],
      [
        "maeneo",
        -9.876147245932103
      ],
      [
        "05",
        -9.876271392611894
      ],
      [
        "âĸģáĪ¥áĪĭáĪ´",
        -9.8764134568
      ],
      [
        "âĸģáĮ£",
        -9.876466942184468
      ],
      [
        "âĸģáº¸ÌĢ",
        -9.876945904059783
      ],
      [
        "onne",
        -9.877148580625999
      ],
      [
        "uki",
        -9.877149519104687
      ],
      [
        "âĸģJulai",
        -9.87786895227607
      ],
      [
        "âĸģzamani",
        -9.877950404833673
      ],
      [
        "âĸģáĬłáī£áīµ",
        -9.877998982661332
      ],
      [
        "áī±áĪĿ",
        -9.878358947381564
      ],
      [
        "âĸģolu",
        -9.878755466217067
      ],
      [
        "âĸģakwai",
        -9.879398565073888
      ],
      [
        "âĸģYe",
        -9.879428200159783
      ],
      [
        "hen",
        -9.88008071457813
      ],
      [
        "press",
        -9.88013167467398
      ],
      [
        "áĬłáĮłáīĥáĪĭáĭŃ",
        -9.880981888468892
      ],
      [
        "âĸģne,",
        -9.881538257630355
      ],
      [
        "âĸģ(D",
        -9.881552772148751
      ],
      [
        "tÃ³",
        -9.88158647939495
      ],
      [
        "Â»)",
        -9.881985704130472
      ],
      [
        "nds",
        -9.88198701081652
      ],
      [
        "tá»įÌģkasÃŃ",
        -9.882288949813027
      ],
      [
        "ļ",
        -9.882460595887967
      ],
      [
        "âĸģcelle",
        -9.883086816324615
      ],
      [
        "ami",
        -9.883270946009155
      ],
      [
        "áĮ®",
        -9.883775027748703
      ],
      [
        "âĸģirin",
        -9.883939114838988
      ],
      [
        "âĸģtre",
        -9.883981340977993
      ],
      [
        "âĸģ(áĬ¨",
        -9.884041079905842
      ],
      [
        "âĸģáįĬáĭ°áĪį",
        -9.884321830092254
      ],
      [
        "âĸģáĮ½áĪĳáįį",
        -9.88441997527897
      ],
      [
        "ungu",
        -9.884823081723749
      ],
      [
        "âĸģsign",
        -9.884890669888144
      ],
      [
        "âĸģáĪĽáĪŃáĭ«áĪĿ",
        -9.885296776051867
      ],
      [
        "âĸģIbi",
        -9.885310610584138
      ],
      [
        "wÃ³",
        -9.885347084620749
      ],
      [
        "âĸģorÃºká»į",
        -9.885380086664938
      ],
      [
        "âĸģmonde",
        -9.885547818690789
      ],
      [
        "âĸģáĭľáĬĵ",
        -9.886072786243274
      ],
      [
        "âĸģl'in",
        -9.88641354882424
      ],
      [
        "lish",
        -9.886743009562831
      ],
      [
        "ness",
        -9.8873644702131
      ],
      [
        "áĪ¥áĪįáĮ£áĬķ",
        -9.887566779545228
      ],
      [
        "âĸģbáº¹Ìģáº¹ÌĢ",
        -9.887575718799502
      ],
      [
        "âĸģ1994",
        -9.887767548944451
      ],
      [
        "âĸģáīłáĪ½áī³",
        -9.888068644244491
      ],
      [
        "Ĵ",
        -9.888103980769719
      ],
      [
        "kiya",
        -9.888243111101783
      ],
      [
        "áĮ¥áīħ",
        -9.888559660723402
      ],
      [
        "âĸģDecember",
        -9.888980436520114
      ],
      [
        "âĸģtradition",
        -9.889169032152054
      ],
      [
        "âĸģNaijiria",
        -9.889366305415185
      ],
      [
        "âĸģ2.",
        -9.889445579125434
      ],
      [
        "gal",
        -9.890502346664443
      ],
      [
        "lá»įÌģ",
        -9.890878275663848
      ],
      [
        "âĸģNigerian",
        -9.892078329887475
      ],
      [
        "âĸģCol",
        -9.892167830720924
      ],
      [
        "âĸģKan",
        -9.89231311744063
      ],
      [
        "cro",
        -9.89243847309552
      ],
      [
        "âĸģtaka",
        -9.892619594772528
      ],
      [
        "âĸģhai",
        -9.893480348931147
      ],
      [
        "âĸģkuanzi",
        -9.893648109860006
      ],
      [
        "dhi",
        -9.89366696728188
[...]
