{
  "version": "1.0",
  "truncation": null,
  "padding": null,
  "added_tokens": [
    {
      "id": 0,
      "content": "<pad>",
      "single_word": false,
      "lstrip": false,
      "rstrip": false,
      "normalized": false,
      "special": true
    },
    {
      "id": 1,
      "content": "<bos>",
      "single_word": false,
      "lstrip": false,
      "rstrip": false,
      "normalized": false,
      "special": true
    },
    {
      "id": 2,
      "content": "<eos>",
      "single_word": false,
      "lstrip": false,
      "rstrip": false,
      "normalized": false,
      "special": true
    }
  ],
  "normalizer": null,
  "pre_tokenizer": {
    "type": "ByteLevel",
    "add_prefix_space": false,
    "trim_offsets": true,
    "use_regex": false
  },
  "post_processor": {
    "type": "TemplateProcessing",
    "single": [
      {
        "SpecialToken": {
          "id": "<bos>",
          "type_id": 0
        }
      },
      {
        "Sequence": {
          "id": "A",
          "type_id": 0
        }
      },
      {
        "SpecialToken": {
          "id": "<eos>",
          "type_id": 0
        }
      }
    ],
    "pair": [
      {
        "SpecialToken": {
          "id": "<bos>",
          "type_id": 0
        }
      },
      {
        "Sequence": {
          "id": "A",
          "type_id": 0
        }
      },
      {
        "SpecialToken": {
          "id": "<eos>",
          "type_id": 0
        }
      },
      {
        "SpecialToken": {
          "id": "<bos>",
          "type_id": 0
        }
      },
      {
        "Sequence": {
          "id": "B",
          "type_id": 0
        }
      },
      {
        "SpecialToken": {
          "id": "<eos>",
          "type_id": 0
        }
      }
    ],
    "special_tokens": {
      "<bos>": {
        "id": "<bos>",
        "ids": [
          1
        ],
        "tokens": [
          "<bos>"
        ]
      },
      "<eos>": {
        "id": "<eos>",
        "ids": [
          2
        ],
        "tokens": [
          "<eos>"
        ]
      }
    }
  },
  "decoder": {
    "type": "ByteLevel",
    "add_prefix_space": true,
    "trim_offsets": true,
    "use_regex": true
  },
  "model": {
    "type": "BPE",
    "dropout": null,
    "unk_token": null,
    "continuing_subword_prefix": null,
    "end_of_word_suffix": null,
    "fuse_unk": false,
    "byte_fallback": false,
    "ignore_merges": false,
    "vocab": {
      "<pad>": 0,
      "<bos>": 1,
      "<eos>": 2,
      "!": 3,
      "\"": 4,
      "#": 5,
      "$": 6,
      "%": 7,
      "&": 8,
      "'": 9,
      "(": 10,
      ")": 11,
      "*": 12,
      "+": 13,
      ",": 14,
      "-": 15,
      ".": 16,
      "/": 17,
      "0": 18,
      "1": 19,
      "2": 20,
      "3": 21,
      "4": 22,
      "5": 23,
      "6": 24,
      "7": 25,
      "8": 26,
      "9": 27,
      ":": 28,
      ";": 29,
      "<": 30,
      "=": 31,
      ">": 32,
      "?": 33,
      "@": 34,
      "A": 35,
      "B": 36,
      "C": 37,
      "D": 38,
      "E": 39,
      "F": 40,
      "G": 41,
      "H": 42,
      "I": 43,
      "J": 44,
      "K": 45,
      "L": 46,
      "M": 47,
      "N": 48,
      "O": 49,
      "P": 50,
      "Q": 51,
      "R": 52,
      "S": 53,
      "T": 54,
      "U": 55,
      "V": 56,
      "W": 57,
      "X": 58,
      "Y": 59,
      "Z": 60,
      "[": 61,
      "\\": 62,
      "]": 63,
      "^": 64,
      "_": 65,
      "`": 66,
      "a": 67,
      "b": 68,
      "c": 69,
      "d": 70,
      "e": 71,
      "f": 72,
      "g": 73,
      "h": 74,
      "i": 75,
      "j": 76,
      "k": 77,
      "l": 78,
      "m": 79,
      "n": 80,
      "o": 81,
      "p": 82,
      "q": 83,
      "r": 84,
      "s": 85,
      "t": 86,
      "u": 87,
      "v": 88,
      "w": 89,
      "x": 90,
      "y": 91,
      "z": 92,
      "{": 93,
      "|": 94,
      "}": 95,
      "~": 96,
      "¡": 97,
      "¢": 98,
      "£": 99,
      "¤": 100,
      "¥": 101,
      "¦": 102,
      "§": 103,
      "¨": 104,
      "©": 105,
      "ª": 106,
      "«": 107,
      "¬": 108,
      "®": 109,
      "¯": 110,
      "°": 111,
      "±": 112,
      "²": 113,
      "³": 114,
      "´": 115,
      "µ": 116,
      "¶": 117,
      "·": 118,
      "¸": 119,
      "¹": 120,
      "º": 121,
      "»": 122,
      "¼": 123,
      "½": 124,
      "¾": 125,
      "¿": 126,
      "À": 127,
      "Á": 128,
      "Â": 129,
      "Ã": 130,
      "Ä": 131,
      "Å": 132,
      "Æ": 133,
      "Ç": 134,
      "È": 135,
      "É": 136,
      "Ê": 137,
      "Ë": 138,
      "Ì": 139,
      "Í": 140,
      "Î": 141,
      "Ï": 142,
      "Ð": 143,
      "Ñ": 144,
      "Ò": 145,
      "Ó": 146,
      "Ô": 147,
      "Õ": 148,
      "Ö": 149,
      "×": 150,
      "Ø": 151,
      "Ù": 152,
      "Ú": 153,
      "Û": 154,
      "Ü": 155,
      "Ý": 156,
      "Þ": 157,
      "ß": 158,
      "à": 159,
      "á": 160,
      "â": 161,
      "ã": 162,
      "ä": 163,
      "å": 164,
      "æ": 165,
      "ç": 166,
      "è": 167,
      "é": 168,
      "ê": 169,
      "ë": 170,
      "ì": 171,
      "í": 172,
      "î": 173,
      "ï": 174,
      "ð": 175,
      "ñ": 176,
      "ò": 177,
      "ó": 178,
      "ô": 179,
      "õ": 180,
      "ö": 181,
      "÷": 182,
      "ø": 183,
      "ù": 184,
      "ú": 185,
      "û": 186,
      "ü": 187,
      "ý": 188,
      "þ": 189,
      "ÿ": 190,
      "Ā": 191,
      "ā": 192,
      "Ă": 193,
      "ă": 194,
      "Ą": 195,
      "ą": 196,
      "Ć": 197,
      "ć": 198,
      "Ĉ": 199,
      "ĉ": 200,
      "Ċ": 201,
      "ċ": 202,
      "Č": 203,
      "č": 204,
      "Ď": 205,
      "ď": 206,
      "Đ": 207,
      "đ": 208,
      "Ē": 209,
      "ē": 210,
      "Ĕ": 211,
      "ĕ": 212,
      "Ė": 213,
      "ė": 214,
      "Ę": 215,
      "ę": 216,
      "Ě": 217,
      "ě": 218,
      "Ĝ": 219,
      "ĝ": 220,
      "Ğ": 221,
      "ğ": 222,
      "Ġ": 223,
      "ġ": 224,
      "Ģ": 225,
      "ģ": 226,
      "Ĥ": 227,
      "ĥ": 228,
      "Ħ": 229,
      "ħ": 230,
      "Ĩ": 231,
      "ĩ": 232,
      "Ī": 233,
      "ī": 234,
      "Ĭ": 235,
      "ĭ": 236,
      "Į": 237,
      "į": 238,
      "İ": 239,
      "ı": 240,
      "Ĳ": 241,
      "ĳ": 242,
      "Ĵ": 243,
      "ĵ": 244,
      "Ķ": 245,
      "ķ": 246,
      "ĸ": 247,
      "Ĺ": 248,
      "ĺ": 249,
      "Ļ": 250,
      "ļ": 251,
      "Ľ": 252,
      "ľ": 253,
      "Ŀ": 254,
      "ŀ": 255,
      "Ł": 256,
      "ł": 257,
      "Ń": 258,
      "áĪ": 259,
      "Ġá": 260,
      "áī": 261,
      "áĬ": 262,
      "áĭ": 263,
      "an": 264,
      "ar": 265,
      "áĮ": 266,
      "Ġáĭ": 267,
      "ĠáĬ": 268,
      "in": 269,
      "ĠáĪ": 270,
      "áį": 271,
      "áĬķ": 272,
      "Ġd": 273,
      "Ġáī": 274,
      "Ġk": 275,
      "wa": 276,
      "Ġt": 277,
      "Ġa": 278,
      "Ġn": 279,
      "Ġs": 280,
      "áīµ": 281,
      "Ġm": 282,
      "ya": 283,
      "áĪŃ": 284,
      "on": 285,
      "ĠÃ": 286,
      "»į": 287,
      "ÃŃ": 288,
      "en": 289,
      "er": 290,
      "Ġáĭ¨": 291,
      "áĭį": 292,
      "Ġl": 293,
      "at": 294,
      "es": 295,
      "á»į": 296,
      "un": 297,
      "łáĪ": 298,
      "li": 299,
      "Ġda": 300,
      "áĪĿ": 301,
      "º¹": 302,
      "áĪį": 303,
      "Ã©": 304,
      "áĪµ": 305,
      "ka": 306,
      "áº¹": 307,
      "am": 308,
      "Ġya": 309,
      "is": 310,
      "as": 311,
      "ĠA": 312,
      "Ġc": 313,
      "Ġwa": 314,
      "or": 315,
      "Ġb": 316,
      "Ġ(": 317,
      "Ġp": 318,
      "áį¢": 319,
      "he": 320,
      "ĠM": 321,
      "áº¹Ì": 322,
      "Ġ1": 323,
      "áĬĵ": 324,
      "it": 325,
      "Ġáīł": 326,
      "áī°": 327,
      "áĪĪ": 328,
      "áĭ«": 329,
      "ĠáĮ": 330,
      "Ãł": 331,
      "al": 332,
      "ur": 333,
      "Ġf": 334,
      "áĭŃ": 335,
      "áĪĺ": 336,
      "ĠáĬ¥": 337,
      "Ġh": 338,
      "Ġna": 339,
      "ir": 340,
      "Ã¡": 341,
      "áī½": 342,
      "Ġo": 343,
      "Ġg": 344,
      "il": 345,
      "ĠáĬł": 346,
      "Ġr": 347,
      "á»įÌ": 348,
      "ab": 349,
      "ĠK": 350,
      "áĭ°": 351,
      "áĬĲ": 352,
      "ik": 353,
      "Ġku": 354,
      "Ġw": 355,
      "Ġta": 356,
      "ĠS": 357,
      "ti": 358,
      "áī¥": 359,
      "áĮĪ": 360,
      "áĪ¨": 361,
      "ma": 362,
      "áĭµ": 363,
      "Ãº": 364,
      "us": 365,
      "áĪĭ": 366,
      "ĠáĬĲ": 367,
      "áĮį": 368,
      "Ġj": 369,
      "Ã¬": 370,
      "da": 371,
      "ĠáĪĺ": 372,
      "hi": 373,
      "le": 374,
      "ĠN": 375,
      "ĠÃł": 376,
      "áīł": 377,
      "áĪ«": 378,
      "ta": 379,
      "áī³": 380,
      "ĠB": 381,
      "ĠáĬ¨": 382,
      "ati": 383,
      "Ġ2": 384,
      "ia": 385,
      "ĠI": 386,
      "áĬŃ": 387,
      "Ġde": 388,
      "om": 389,
      "ba": 390,
      "Ġ19": 391,
      "ai": 392,
      "Ã¨": 393,
      "ĠT": 394,
      "áĪĽ": 395,
      "áĪ³": 396,
      "áº¹ÌĢ": 397,
      "ana": 398,
      "áī£": 399,
      "áº¹Ìģ": 400,
      "ha": 401,
      "el": 402,
      "Ġáį": 403,
      "á»įÌģ": 404,
      "ĠC": 405,
      "et": 406,
      "Ġni": 407,
      "Ġz": 408,
      "ara": 409,
      "ent": 410,
      "Ġy": 411,
      "Ġi": 412,
      "áĬĽ": 413,
      "Ġáī°": 414,
      "Ġla": 415,
      "áĪª": 416,
      "ĠáĭŃ": 417,
      "to": 418,
      "¹£": 419,
      "ĠáīłáĪ": 420,
      "and": 421,
      "Ã³": 422,
      "Ġáĭ¨áĪ": 423,
      "ay": 424,
      "em": 425,
      "ed": 426,
      "ĠáĬłáĪ": 427,
      "gb": 428,
      "ut": 429,
      "áĪħ": 430,
      "áĮ¥": 431,
      "áĬ¨": 432,
      "ĠP": 433,
      "áį£": 434,
      "Ġma": 435,
      "di": 436,
      "ĠáĪĿ": 437,
      "Ġ20": 438,
      "ĠnÃŃ": 439,
      "ĠW": 440,
      "Ġin": 441,
      "um": 442,
      "á»įn": 443,
      "âĢ": 444,
      "ol": 445,
      "Ġáĭ¨áĬ": 446,
      "ga": 447,
      "ani": 448,
      "Ġthe": 449,
      "qu": 450,
      "ic": 451,
      "ĠL": 452,
      "ĠD": 453,
      "ĠáĭĪ": 454,
      "áį¡": 455,
      "ĠG": 456,
      "ĠJ": 457,
      "áįį": 458,
      "ĠO": 459,
      "áĭ³": 460,
      "ĠáĬĲáĭį": 461,
      "áīĢ": 462,
      "ĠF": 463,
      "áĭ¨": 464,
      "ĠÃ¬": 465,
      "ĠáĬ¥áĬķ": 466,
      "ke": 467,
      "wá»įn": 468,
      "áĭĪ": 469,
      "ul": 470,
      "Ã¹": 471,
      "Ġof": 472,
      "re": 473,
      "ing": 474,
      "ĠH": 475,
      "si": 476,
      "ce": 477,
      "ĠR": 478,
      "áĪ°": 479,
      "ro": 480,
      "áīħ": 481,
      "Ġá»į": 482,
      "Ã²": 483,
      "áĪĮ": 484,
      "áĬ«": 485,
      "ĠáĪĪ": 486,
      "uk": 487,
      "iya": 488,
      "á¹£": 489,
      "la": 490,
      "Ġ-": 491,
      "sa": 492,
      "áĬł": 493,
      "ari": 494,
      "ch": 495,
      "ali": 496,
      "ad": 497,
      "im": 498,
      "ÆĻ": 499,
      "ĠáĪµ": 500,
      "áī¸": 501,
      "os": 502,
      "Ġáĭ«": 503,
      "iy": 504,
      "ĠE": 505,
      "Ãºn": 506,
      "áĪī": 507,
      "Ġáĭĵ": 508,
      "ĠU": 509,
      "Ġv": 510,
      "ci": 511,
      "ĠtÃŃ": 512,
      "á»įÌĢ": 513,
      "ri": 514,
      "uwa": 515,
      "áīłáĪ": 516,
      "áĭĬ": 517,
      "are": 518,
      "áĭĭ": 519,
      "áĪ®": 520,
      "áī±": 521,
      "İáī½": 522,
      "ra": 523,
      "áī¸áĭį": 524,
      "áįĪ": 525,
      "ak": 526,
      "Ġkuma": 527,
      "Ġáĭ¨áĪļ": 528,
      "áĭĿ": 529,
      "áĮ£": 530,
      "hek": 531,
      "ama": 532,
      "áĪĨ": 533,
      "ĠáĪĽ": 534,
      "ji": 535,
      "ant": 536,
      "áĭļ": 537,
      "áī¶": 538,
      "áĪ³áĪĮ": 539,
      "Ġle": 540,
      "Ġshek": 541,
      "áĮł": 542,
      "ko": 543,
      "áĮī": 544,
      "Ġti": 545,
      "ation": 546,
      "Ġne": 547,
      "de": 548,
      "Ġto": 549,
      "te": 550,
      "ĠÆĻ": 551,
      "ig": 552,
      "áĮĭ": 553,
      "ikin": 554,
      "ĠáīłáĬ": 555,
      "áĭ®": 556,
      "ĠáĪĿáĪ³áĪĮ": 557,
      "est": 558,
      "Ġkwa": 559,
      "Ġet": 560,
      "iki": 561,
      "hin": 562,
      "fa": 563,
      "ye": 564,
      "Ġsu": 565,
      "ĠáĪ²": 566,
      "ann": 567,
      "Ġ201": 568,
      "ĠÃ³": 569,
      "áĭ²": 570,
      "ug": 571,
      "ang": 572,
      "áĬķáĭµ": 573,
      "ĠáĮį": 574,
      "Ġen": 575,
      "Ġáīµ": 576,
      "Ġor": 577,
      "00": 578,
      "Ġand": 579,
      "áĭİáī½": 580,
      "Ġáĭĺ": 581,
      "ini": 582,
      "áĮįáĪ": 583,
      "pa": 584,
      "ili": 585,
      "áīĥ": 586,
      "wan": 587,
      "Ġun": 588,
      "Ġkas": 589,
      "áĬĸ": 590,
      "áĭĺ": 591,
      "ĠY": 592,
      "Ġil": 593,
      "Ġba": 594,
      "za": 595,
      "ata": 596,
      "ec": 597,
      "Ġáĭ¨áī°": 598,
      "19": 599,
      "op": 600,
      "ĠáĬ¥áĬĵ": 601,
      "áĬĲáīµ": 602,
      "ĠáĪ°": 603,
      "og": 604,
      "har": 605,
      "rÃŃ": 606,
      "Ġáī¥": 607,
      "áĬ¥": 608,
      "ag": 609,
      "bi": 610,
      "Ġal": 611,
      "jer": 612,
      "Ġe": 613,
      "ina": 614,
      "Ġáĭį": 615,
      "áĪĻ": 616,
      "war": 617,
      "zi": 618,
      "Ġ\"": 619,
      "Ġcikin": 620,
      "ans": 621,
      "áĪ©": 622,
      "ĠÃĢ": 623,
      "Ġza": 624,
      "que": 625,
      "ot": 626,
      "láº¹ÌĢ": 627,
      "ĠáīĢ": 628,
      "ÌĢ": 629,
      "Ġu": 630,
      "ers": 631,
      "me": 632,
      "toka": 633,
      ").": 634,
      "Ãłn": 635,
      "ub": 636,
      "áīłáĪŃ": 637,
      "ung": 638,
      "Ġáĭ°": 639,
      "ĭáĭŃ": 640,
      "ĠÂ": 641,
      "st": 642,
      "ĠÃłwá»įn": 643,
      "ĠáĬ¥áĬķáĭ°": 644,
      "Ġdaga": 645,
      "Ġdes": 646,
      "áĭĽ": 647,
      "Ġáĭ¨áĬłáĪ": 648,
      "anda": 649,
      "bo": 650,
      "ĠâĢ": 651,
      "Ġha": 652,
      "ist": 653,
      "Ġshi": 654,
      "áĪļ": 655,
      "ne": 656,
      "ĠáĬŃ": 657,
      "Ġwas": 658,
      "Ġ200": 659,
      "Ġce": 660,
      "Ġkati": 661,
      "iv": 662,
      "una": 663,
      "Ġáº¹": 664,
      "áī²": 665,
      "áĮħ": 666,
      "áī¢": 667,
      "our": 668,
      "Ġam": 669,
      "áĬĳ": 670,
      "fi": 671,
      "cin": 672,
      "),": 673,
      "yo": 674,
      "áįĭ": 675,
      "ĠáĪį": 676,
      "ki": 677,
      "áĪİ": 678,
      "Ġsa": 679,
      "jeriya": 680,
      "fu": 681,
      "Ġkar": 682,
      "ÉĹ": 683,
      "ita": 684,
      "du": 685,
      "áĬĿ": 686,
      "Ġga": 687,
      "Ġali": 688,
      "Ġmat": 689,
      "Ġá¹£": 690,
      "Ġko": 691,
      "waka": 692,
      "áĪ±": 693,
      "Ġpar": 694,
      "áĪŀ": 695,
      "áį¤": 696,
      "áĪĨáĬķ": 697,
      "Ġshekar": 698,
      "Ġdu": 699,
      "áĪ½": 700,
      "ine": 701,
      "iyar": 702,
      "id": 703,
      "ĠAf": 704,
      "ĠNa": 705,
      "áĮİ": 706,
      "ĠV": 707,
      "kin": 708,
      "we": 709,
      "ja": 710,
      "asa": 711,
      "áĭ«áĬķ": 712,
      "áĪĬ": 713,
      "Ġles": 714,
      "ĠáĪĭáĭŃ": 715,
      "fin": 716,
      "áĪĪáĭį": 717,
      "á»įÌģn": 718,
      "Ġáī³": 719,
      "âĢĻ": 720,
      "Ġáĭµ": 721,
      "ou": 722,
      "áĪŃáĬĽ": 723,
      "Ġka": 724,
      "Ġkan": 725,
      "áĭ±": 726,
      "Ġáī£": 727,
      "rÃ©": 728,
      "áĪģ": 729,
      "ere": 730,
      "ge": 731,
      "Ġcon": 732,
      "ter": 733,
      "ĠÃ¨": 734,
      "áĪ¥": 735,
      "áĭļáĪħ": 736,
      "¢áīµ": 737,
      "ĠÃłti": 738,
      "ho": 739,
      "ĽáĪŃáĬĽ": 740,
      "¢áīµáĭ®": 741,
      "áĮµ": 742,
      "Ġkatika": 743,
      "Ġan": 744,
      "áĬĴ": 745,
      "áĭķ": 746,
      "kan": 747,
      "ĠIn": 748,
      "Ġ.": 749,
      "áīĨ": 750,
      "áĮĢ": 751,
      "áĪĺáĬķ": 752,
      "Ġau": 753,
      "ĠáīłáĪĺ": 754,
      "¢áīµáĭ®áĮµ": 755,
      "Ġmas": 756,
      "ĠÂ«": 757,
      "ob": 758,
      "ĠÃĮ": 759,
      "ion": 760,
      "áĪĪáīµ": 761,
      "tion": 762,
      "ĠAm": 763,
      "Ġ18": 764,
      "zo": 765,
      "Ġon": 766,
      "dÃºn": 767,
      "áĮ½": 768,
      "áĮĪáĪŃ": 769,
      "po": 770,
      "Ġjáº¹Ìģ": 771,
      "je": 772,
      "chi": 773,
      "áĪ¬": 774,
      "áī¡": 775,
      "ance": 776,
      "yar": 777,
      "áĪµáĮ¥": 778,
      "ĠAl": 779,
      "Ã¬n": 780,
      "¢áīµáĭ®áĮµáĭ«": 781,
      "res": 782,
      "Ġ3": 783,
      "lÃº": 784,
      "aba": 785,
      "Ġáĭ¨áĬłáĪĽáĪŃáĬĽ": 786,
      "ĠÃĢwá»įn": 787,
      "th": 788,
      "Ġmwaka": 789,
      "ie": 790,
      "ĠMa": 791,
      "áĪ¨áīµ": 792,
      "ĠsÃŃ": 793,
      "ÅĦ": 794,
      "rin": 795,
      "Ġar": 796,
      "Ġ:": 797,
      "Ġre": 798,
      "ĠÃ©": 799,
      "áĭľ": 800,
      "áīłáīµ": 801,
      "ĠáĬĲáīłáĪŃ": 802,
      "Ġse": 803,
      "ĠlÃ¡": 804,
      "ĠAn": 805,
      "ĠáĮ¥": 806,
      "ov": 807,
      "Ġke": 808,
      "Ġsh": 809,
      "Ġshekara": 810,
      "ĠÃ²": 811,
      "ĠáĪĺáĬķ": 812,
      "Ġcom": 813,
      "Ã¹n": 814,
      "áĪ»": 815,
      "Ġmai": 816,
      "Ġyi": 817,
      "ĠáĭĪáĭ°": 818,
      "Ġshekarar": 819,
      "ile": 820,
      "Ġwat": 821,
      "ĠáĪĨ": 822,
      "ĠáĮĪ": 823,
      "áĪµáīµ": 824,
      "Ġje": 825,
      "ĠáĬ¨áī°": 826,
      "Ġqu": 827,
      "'a": 828,
      "áī»": 829,
      "ud": 830,
      "Ġlo": 831,
      "ement": 832,
      "ami": 833,
      "se": 834,
      "ire": 835,
      "ĠNajeriya": 836,
      "ĠáĬķ": 837,
      "Ġ199": 838,
      "ila": 839,
      "asar": 840,
      "od": 841,
      "Ġaka": 842,
      "ni": 843,
      "áĭ©": 844,
      "Ġili": 845,
      "wo": 846,
      "Ġest": 847,
      "lÃ©": 848,
      "áĭĵ": 849,
      "áĭįáĬķ": 850,
      "áįĬ": 851,
      "ika": 852,
      "kuwa": 853,
      "Ġas": 854,
      "bu": 855,
      "áī¶áī½": 856,
      "Ġol": 857,
      "Ġfor": 858,
      "amu": 859,
      "ban": 860,
      "Ġis": 861,
      "won": 862,
      "ÃŃn": 863,
      "ĠdÃ©": 864,
      "Â»": 865,
      "ĠÅĦ": 866,
      "ĠáĬ¥áĪµ": 867,
      "ĠáĬłáĭŃ": 868,
      "ĠáĭįáĪµáĮ¥": 869,
      "ris": 870,
      "áĪŃáĮī": 871,
      "Ġráº¹ÌĢ": 872,
      "Ġá»įdÃºn": 873,
      "Ĭáĭľ": 874,
      "ap": 875,
      "arin": 876,
      "ber": 877,
      "áĮłáĪ": 878,
      "anz": 879,
      "alio": 880,
      "áĪªáĭ«": 881,
      "áĬĶ": 882,
      "dÃ¨": 883,
      "Ġpro": 884,
      "ly": 885,
      "ve": 886,
      "anar": 887,
      "áīĭ": 888,
      "ihar": 889,
      "ĠáĪģ": 890,
      "fe": 891,
      "áĭ¶": 892,
      "ku": 893,
      "ayan": 894,
      "lo": 895,
      "far": 896,
      "áĪ²": 897,
      "Ġcha": 898,
      "áĬłáĪ": 899,
      "áĬĽáĭį": 900,
      "Ġwanda": 901,
      "Ġati": 902,
      "ate": 903,
      "gbÃł": 904,
      "ah": 905,
      "áī¦": 906,
      "ong": 907,
      "áĭŃáĪĿ": 908,
      "jo": 909,
      "ane": 910,
      "bÃŃ": 911,
      "áĪŃáĪµ": 912,
      "Ġth": 913,
      "áĬ¤": 914,
      "say": 915,
      "áĪľ": 916,
      "Ġáīłáī°": 917,
      "áĭĻ": 918,
      "20": 919,
      "áĪĲ": 920,
      "áĬ®": 921,
      "ada": 922,
      "au": 923,
      "Ġsi": 924,
      "so": 925,
      "Ġki": 926,
      "Ġpl": 927,
      "yan": 928,
      "áī¤": 929,
      "Ġáīħ": 930,
      "ĠbÃŃ": 931,
      "yi": 932,
      "tokasi": 933,
      "áĪĭáĪį": 934,
      "ĠáĬłáĪµ": 935,
      "amar": 936,
      "Ġwá»įÌģn": 937,
      "Ġ'": 938,
      "Ġsun": 939,
      "ĠWalio": 940,
      "ĠáĪ¥": 941,
      "Ġáī¤": 942,
      "ĠáĬ«": 943,
      "pe": 944,
      "iri": 945,
      "les": 946,
      "ric": 947,
      "ĠáīµáĪŃáĮī": 948,
      "ct": 949,
      "áĬ©": 950,
      "Ġdon": 951,
      "ĠáĮįáĬķ": 952,
      "Ġ198": 953,
      "áĪªáĬŃ": 954,
      "ĠáĬ¥áĬķáĭ²": 955,
      "ure": 956,
      "enye": 957,
      "Ġso": 958,
      "Ã¡Ãł": 959,
      "ĠZ": 960,
      "ká»įÌģ": 961,
      "ĠáĮĭ": 962,
      "Ġáĭ¨áĬł": 963,
      "áīģ": 964,
      "áĮ¨": 965,
      "ort": 966,
      "ano": 967,
      "ff": 968,
      "annan": 969,
      "Ġkutoka": 970,
      "man": 971,
      "ale": 972,
      "áī¹": 973,
      "Ġhai": 974,
      "Ġáĭ¨áĪĺ": 975,
      "yin": 976,
      "oni": 977,
      "áīłáĪ¨": 978,
      "sh": 979,
      "ĠáĪ²áĪĨáĬķ": 980,
      "áį¡áį¡": 981,
      "ĭáĪĭ": 982,
      "ĠItokasi": 983,
      "end": 984,
      "Ġ|": 985,
      "ment": 986,
      "mi": 987,
      "Ġ197": 988,
      "má»į": 989,
      "áĬŃáĪį": 990,
      "»Į": 991,
      "áĮĥ": 992,
      "Ġzuwa": 993,
      "18": 994,
      "Ġ4": 995,
      "ĠáīµáĪŃáĮīáĪĻ": 996,
      "Ġdi": 997,
      "áĪĥ": 998,
      "ĠáĬłáĬķ": 999,
      "An": 1000,
      "art": 1001,
      "sayin": 1002,
      "Ġ196": 1003,
      "mo": 1004,
      "Ġfi": 1005,
      "ĠáīłáĬł": 1006,
      "ala": 1007,
      "áĪ´": 1008,
      "Ġfar": 1009,
      "ĠfÃºn": 1010,
      "ĠáĪ³": 1011,
      "Ġá¹£e": 1012,
      "áī´": 1013,
      "mu": 1014,
      "áĮįáĪ¥": 1015,
      "kar": 1016,
      "Ġmut": 1017,
      "áĮŃ": 1018,
      "ĠáĮĬáĭľ": 1019,
      "²áį": 1020,
      "ĠáīĢáĬķ": 1021,
      "Ġhu": 1022,
      "Ġbi": 1023,
      "be": 1024,
      "ĠáĭĪáĭŃáĪĿ": 1025,
      "Ġtare": 1026,
      "ĠtÃ³": 1027,
      "ran": 1028,
      "Ġáĭĭ": 1029,
      "áĮ»": 1030,
      "Ġson": 1031,
      "áī³áīµ": 1032,
      "ĠnÃŃn": 1033,
      "Ã¡n": 1034,
      "hu": 1035,
      "ĠorÃŃ": 1036,
      "ham": 1037,
      "Ã©e": 1038,
      "sÃŃ": 1039,
      "Ġ5": 1040,
      "eng": 1041,
      "ond": 1042,
      "áĪªáĬ«": 1043,
      "ue": 1044,
      "já»įÌģ": 1045,
      "und": 1046,
      "Ġyan": 1047,
      "ity": 1048,
      "ĠÉĹ": 1049,
      "já»į": 1050,
      "tr": 1051,
      "oma": 1052,
      "ĠThe": 1053,
      "Ġmatsayin": 1054,
      "ĠáĪµáĪĪ": 1055,
      "ira": 1056,
      "ĠáĬĵ": 1057,
      "ll": 1058,
      "ĠáĬłáĪĪ": 1059,
      "uni": 1060,
      "áĪ¨áīµáĬĵ": 1061,
      "Ġáº¹ÌĢ": 1062,
      "ep": 1063,
      "ĠáĪĬ": 1064,
      "jÃº": 1065,
      "ori": 1066,
      "Ġáī¢": 1067,
      "ĠáįĪ": 1068,
      "áį»": 1069,
      "ĠáĬ¥áĪµáĬ¨": 1070,
      "ais": 1071,
      "áĪĪáĪĿ": 1072,
      "Ġdans": 1073,
      "ĠAr": 1074,
      "ĠáīłáĬĭáĪĭ": 1075,
      "asi": 1076,
      "Ġwatan": 1077,
      "ĠáĬķáĮī": 1078,
      "ĠâĢĵ": 1079,
      "ĠnÃ¡Ãł": 1080,
      "ib": 1081,
      "Ġsuka": 1082,
      "200": 1083,
      "ĠáĭŃáĪħ": 1084,
      "ÃĢ": 1085,
      "Ġwali": 1086,
      "pp": 1087,
      "su": 1088,
      "ĠáĭĺáĪĺáĬķ": 1089,
      "Ġhar": 1090,
      "áĬķáĪĿ": 1091,
      "Ġpe": 1092,
      "Ġhi": 1093,
      "áĪ¨áĪµ": 1094,
      "Ġmw": 1095,
      "arta": 1096,
      "tÃ©": 1097,
      "ary": 1098,
      "rit": 1099,
      "ĠáĬŃáįį": 1100,
      "Ġune": 1101,
      "isi": 1102,
      "áĭĭáĪį": 1103,
      "isha": 1104,
      "Ġyana": 1105,
      "áĪ®áī½": 1106,
      "Ġáī°áĪ¨áīµáĬĵ": 1107,
      "ĠLe": 1108,
      "áĪķ": 1109,
      "usu": 1110,
      "áĮ«": 1111,
      "ĠáĬ¨áī°áĪĽ": 1112,
      "zali": 1113,
      "aban": 1114,
      "á¹£áº¹Ìģ": 1115,
      "uku": 1116,
      "jÃŃ": 1117,
      "ĠnÃŃnÃº": 1118,
      "Ġbir": 1119,
      "erÃ©": 1120,
      "Ġat": 1121,
      "Ġgb": 1122,
      "abu": 1123,
      "Ġkama": 1124,
      "áĮĪáĬ": 1125,
      "ĠrÃ©": 1126,
      "ĠSt": 1127,
      "áĭİ": 1128,
      "Ġwasan": 1129,
      "ord": 1130,
      "ux": 1131,
      "ces": 1132,
      "Ġá»įÌĢ": 1133,
      "ĠáĭĵáĪĺ": 1134,
      "ĠÆĻasar": 1135,
      "aka": 1136,
      "obel": 1137,
      "shin": 1138,
      "Ġá»įmá»į": 1139,
      "Ġmo": 1140,
      "Ġab": 1141,
      "ĠNobel": 1142,
      "zaliwa": 1143,
      "abi": 1144,
      "áĪŃáĭ«": 1145,
      "ĠMat": 1146,
      "Ġáĭķ": 1147,
      "áĮĢáĪĺ": 1148,
      "ania": 1149,
      "áįĵ": 1150,
      "Ġ6": 1151,
      "Ġá»Į": 1152,
      "áī°áĬĽ": 1153,
      "ĠUn": 1154,
      "ĠáĪĺáĬķáĮįáĪ¥": 1155,
      "ĠáĪĪáĪĺ": 1156,
      "ĠlÃ¡ti": 1157,
      "The": 1158,
      "áĭ´": 1159,
      "ck": 1160,
      "Ġmu": 1161,
      "uri": 1162,
      "fan": 1163,
      "rÃŃÃł": 1164,
      "ith": 1165,
      "áĮįáĪŀ": 1166,
      "'s": 1167,
      "ĠNi": 1168,
      "ÃłÃ¬": 1169,
      "amo": 1170,
      "ash": 1171,
      "áį¦": 1172,
      "anaz": 1173,
      "Ġgba": 1174,
      "Ġáĭ«áĪį": 1175,
      "ver": 1176,
      "oli": 1177,
      "ĠlÃ³": 1178,
      "Ġ195": 1179,
      "Ġad": 1180,
      "Ġqui": 1181,
      "Ġex": 1182,
      "Ġsha": 1183,
      "Ġbe": 1184,
      "áĭµáĪŃ": 1185,
      "Ġyake": 1186,
      "kwa": 1187,
      "Ġfa": 1188,
      "anazarta": 1189,
      "ĠáĮĢ": 1190,
      "ĠKi": 1191,
      "áĪ¶": 1192,
      "ĠáĬĲáĮĪ": 1193,
      "Ġáįį": 1194,
      "Ġjihar": 1195,
      "ĠAd": 1196,
      "ĠáĬ¢": 1197,
      "io": 1198,
      "ish": 1199,
      "Ġkuwa": 1200,
      "ow": 1201,
      "áīµáĬķ": 1202,
      "Ã¬ÃŃ": 1203,
      "áī³áĭĪ": 1204,
      "áī£áĪį": 1205,
      "ru": 1206,
      "iger": 1207,
      "Ġáīģ": 1208,
      "ká»į": 1209,
      "emi": 1210,
      "Ġnchi": 1211,
      "jÃŃrÃŃÃł": 1212,
      "iti": 1213,
      "che": 1214,
      "ĠsÃ¬": 1215,
      "Ġloka": 1216,
      "ens": 1217,
      "ore": 1218,
      "ida": 1219,
      "ĠáĪķ": 1220,
      "ĠáĮĭáĪŃ": 1221,
      "ĠNÃłÃ¬": 1222,
      "ĠáīłáĪĽ": 1223,
      "201": 1224,
      "Ġpour": 1225,
      "tic": 1226,
      "uniya": 1227,
      "Ġ9": 1228,
      "Ġkasance": 1229,
      "áĬŃáĪįáīł": 1230,
      "ĠPa": 1231,
      "Ġ,": 1232,
      "Ġáį¡": 1233,
      "wam": 1234,
      "Ta": 1235,
      "ĠNÃłÃ¬jÃŃrÃŃÃł": 1236,
      "rom": 1237,
      "ola": 1238,
      "Ġav": 1239,
      "áĮ¡": 1240,
      "ĠáĭĵáĬŃáĪįáīł": 1241,
      "áīĤ": 1242,
      "áĭ°áĪ¨": 1243,
      "ĠMar": 1244,
      "uli": 1245,
      "..": 1246,
      "gbe": 1247,
      "ok": 1248,
      "nin": 1249,
      "áĪİáī½": 1250,
      "risto": 1251,
      "rika": 1252,
      "ĠWa": 1253,
      "ard": 1254,
      "¦áĪŃ": 1255,
      "ene": 1256,
      "Ġáĭ°áĮįáĪŀ": 1257,
      "ĠáĪļ": 1258,
      "Ġ17": 1259,
      "áĬķáĮį": 1260,
      "ts": 1261,
      "na": 1262,
      "Ġ7": 1263,
      "áĭ°áĪŃ": 1264,
      "ĠáĬłáĬķáĭµ": 1265,
      "elle": 1266,
      "cc": 1267,
      "Ġsur": 1268,
      "ĠáĬłáĪį": 1269,
      "ame": 1270,
      "gba": 1271,
      "áī°áĪ¨": 1272,
      "áĪĺáĬĲ": 1273,
      "ĠMare": 1274,
      "oh": 1275,
      "Ġts": 1276,
      "Ã©r": 1277,
      "kani": 1278,
      "áĮĪáĬĿ": 1279,
      "abban": 1280,
      "ence": 1281,
      "áĪŃáīµ": 1282,
      "áįī": 1283,
      "ĠCh": 1284,
      "Ġkw": 1285,
      "ction": 1286,
      "ede": 1287,
      "kÃł": 1288,
      "ĠTu": 1289,
      "Ġfarko": 1290,
      "jin": 1291,
      "up": 1292,
      "bar": 1293,
      "áĬķáīµ": 1294,
      "all": 1295,
      "ite": 1296,
      "Ġáĭ¨áĬ¢áīµáĭ®áĮµáĭ«": 1297,
      "á¹£Ã¹": 1298,
      "Ã¨dÃ¨": 1299,
      "Ġby": 1300,
      "áĪĶ": 1301,
      "Ġwani": 1302,
      "ĠáĪĺáĬķáĮįáĪ¥áīµ": 1303,
      "anan": 1304,
      "fariki": 1305,
      "Ġ8": 1306,
      "ĠáĪĪáĪĽ": 1307,
      "lu": 1308,
      "Ġbiy": 1309,
      "ukum": 1310,
      "Ba": 1311,
      "Ġvya": 1312,
      "ele": 1313,
      "gun": 1314,
      "Ġawon": 1315,
      "Ġá»įjá»įÌģ": 1316,
      "ĠNe": 1317,
      "áīłáĪ©": 1318,
      "áĬķáīĭ": 1319,
      "ĠorÃŃláº¹ÌĢ": 1320,
      "áĬ¥áĬķ": 1321,
      "Ġdan": 1322,
      "áī½áĬķ": 1323,
      "áĬª": 1324,
      "ĠNiger": 1325,
      "Ġkam": 1326,
      "áĬĵáīµ": 1327,
      "pin": 1328,
      "ĠáĪĨáĬĲ": 1329,
      "Ġáĭ¨áĬĲ": 1330,
      "áĮįáĪĬ": 1331,
      "lÃ¡": 1332,
      "isa": 1333,
      "ques": 1334,
      "Ġbayan": 1335,
      "ĠManazarta": 1336,
      "ĠáĪįáĮħ": 1337,
      "á¹£Ã¨": 1338,
      "angu": 1339,
      "Ãĵ": 1340,
      "ass": 1341,
      "Ġranar": 1342,
      "une": 1343,
      "Ġtana": 1344,
      "ĠilÃ©": 1345,
      "Ġplus": 1346,
      "yÃłn": 1347,
      "mp": 1348,
      "Ġtsa": 1349,
      "pÃŃn": 1350,
      "Ã©s": 1351,
      "ubu": 1352,
      "Ġay": 1353,
      "áĬķáĪµ": 1354,
      "ĠKar": 1355,
      "lis": 1356,
      "ins": 1357,
      "ĠáĭµáĪ¨áĪµ": 1358,
      "áĭļáĭ«": 1359,
      "ĠáĭĿ": 1360,
      "Ġit": 1361,
      "pá»įÌĢ": 1362,
      "urs": 1363,
      "Ġwá»įn": 1364,
      "Ġhaife": 1365,
      "anta": 1366,
      "Ġ194": 1367,
      "ua": 1368,
      "Ġáĭ«áĪįáī°": 1369,
      "ĠSh": 1370,
      "jÃ¬": 1371,
      "llon": 1372,
      "Ġque": 1373,
      "olog": 1374,
      "ivers": 1375,
      "ura": 1376,
      "ern": 1377,
      "ph": 1378,
      "ĠTuzo": 1379,
      "omin": 1380,
      "Ġra": 1381,
      "dun": 1382,
      "irin": 1383,
      "áĭ°áī¥": 1384,
      "ungiyar": 1385,
      "áī°áĪ¨áĮİ": 1386,
      "ht": 1387,
      "inu": 1388,
      "Ġch": 1389,
      "ĠáĪħ": 1390,
      "áĮĬ": 1391,
      "ĠáĪµáĪĿ": 1392,
      "Ġlokacin": 1393,
      "ĠáĪĮ": 1394,
      "ĠáĬ¤": 1395,
      "ishi": 1396,
      "bali": 1397,
      "uka": 1398,
      "Ġáīĭ": 1399,
      "gbo": 1400,
      "Ġáĭ¨áĬ¥": 1401,
      "áĪĨáĬĳ": 1402,
      "ĠÃ¬lÃº": 1403,
      "Ġst": 1404,
      "ugha": 1405,
      "iku": 1406,
      "mar": 1407,
      "áī³áĪį": 1408,
      "Ġmasu": 1409,
      "ĠáīłáĬ¥": 1410,
      "eb": 1411,
      "áĪ¸": 1412,
      "ito": 1413,
      "ĠMarekani": 1414,
      "ĠáĪĢ": 1415,
      "ĠáĬłáĮĪ": 1416,
      "ĠAfrika": 1417,
      "áĪ£": 1418,
      "Ġbiyu": 1419,
      "Ġsab": 1420,
      "áĬķáĭ«": 1421,
      "min": 1422,
      "kÃ³": 1423,
      "Ġsuna": 1424,
      "²áį±": 1425,
      "do": 1426,
      "ĠáĪĽáĪĪáīµ": 1427,
      "Ġkasar": 1428,
      "Ġhii": 1429,
      "áĬĵáĪį": 1430,
      "Ġ15": 1431,
      "bÃ¡": 1432,
      "ĠWaliozaliwa": 1433,
      "Ġamba": 1434,
      "rÃ¨": 1435,
      "Ġita": 1436,
      "kun": 1437,
      "ast": 1438,
      "áī¸áĭįáĬķ": 1439,
      "ĠáĪĥ": 1440,
      "Ġ/": 1441,
      "áĪłáĪ": 1442,
      "ĠAb": 1443,
      "Ġ16": 1444,
      "Ġmata": 1445,
      "ill": 1446,
      "áī±áĬķ": 1447,
      "má»įÌĢ": 1448,
      "Ġfun": 1449,
      "áĬ¨áī°": 1450,
      "áįķ": 1451,
      "áĭįáĭ«áĬķ": 1452,
      "ĠHa": 1453,
      "ĠáĬķáĮīáĪ¥": 1454,
      "áĪµáī°": 1455,
      "ĠWaliofariki": 1456,
      "ĠSo": 1457,
      "âĢĿ": 1458,
      "Ġawá»įn": 1459,
      "Ġzama": 1460,
      "Ġhan": 1461,
      "áī°áĪ¨áĮİáĪĺ": 1462,
      "usa": 1463,
      "áĪĢ": 1464,
      "Ġpia": 1465,
      "Ġou": 1466,
      "emp": 1467,
      "Ġáĭ¨áĪļáĭ«": 1468,
      "lia": 1469,
      "ĠpÃ©": 1470,
      "wÃ©": 1471,
      "áī£áī¢": 1472,
      "áĮįáĪĬáĭĿ": 1473,
      "pÃŃnláº¹ÌĢ": 1474,
      "ĠáĬłáĪĺ": 1475,
      "Ġbirnin": 1476,
      "kati": 1477,
      "²áį±áį»": 1478,
      "nÃ¬": 1479,
      "Ġáī³áĪªáĬŃ": 1480,
      "ĠáīłáĬłáĪ": 1481,
      "Ġáĭ«áĪįáī°áī°áĪ¨áĮİáĪĺ": 1482,
      "ition": 1483,
      "Ġ10": 1484,
      "iko": 1485,
      "ĠarÃ¡": 1486,
      "áĪĦ": 1487,
      "emba": 1488,
      "int": 1489,
      "Ġcomp": 1490,
      "ĠáĮī": 1491,
      "ĠáĪ°áĭį": 1492,
      "Le": 1493,
      "Ġfara": 1494,
      "uru": 1495,
      "áĮĤ": 1496,
      "Ġwith": 1497,
      "ĠáīĭáĬķáīĭ": 1498,
      "áĭĽáīµ": 1499,
      "ĠEn": 1500,
      "áĪŀáī½": 1501,
      "ations": 1502,
      "yÃŃ": 1503,
      "Baada": 1504,
      "ansa": 1505,
      "sion": 1506,
      "Ġtun": 1507,
      "ors": 1508,
      "Ġman": 1509,
      "áĮ¥áĪŃ": 1510,
      "Ã¨re": 1511,
      "Ġhe": 1512,
      "Ġáĭ³": 1513,
      "shindi": 1514,
      "'ar": 1515,
      "áĪ«áīµ": 1516,
      "Ġlati": 1517,
      "antar": 1518,
      "ust": 1519,
      "ugaban": 1520,
      "Ġfil": 1521,
      "Ġyawan": 1522,
      "áī£áīµ": 1523,
      "áī¥áĪŃ": 1524,
      "Ġara": 1525,
      "ĠáĬłáĬ«": 1526,
      "Ġáį£": 1527,
      "atu": 1528,
      "Ġare": 1529,
      "irka": 1530,
      "áĪł": 1531,
      "ĠÂ»": 1532,
      "Ġáī¥áĭĻ": 1533,
      "ande": 1534,
      "ult": 1535,
      "ĠáĬĵáī¸áĭį": 1536,
      "Ġáĭ¨áĪĽ": 1537,
      "ational": 1538,
      "áĬ¨áĪį": 1539,
      "utar": 1540,
      "ĠLa": 1541,
      "ĠâĢľ": 1542,
      "Ġlá»į": 1543,
      "ĠÆĻwa": 1544,
      "áĪĿáĪ®": 1545,
      "áĪįáĬŃ": 1546,
      "ĠáĭŃáĮĪ": 1547,
      "áĪĭáīµ": 1548,
      "Ġiya": 1549,
      "Ġpr": 1550,
      "Ġfrom": 1551,
      "rÃ¹n": 1552,
      "tern": 1553,
      "age": 1554,
      "000": 1555,
      "ĠNijeriya": 1556,
      "ĠáĪŀ": 1557,
      "ĠáĮł": 1558,
      "oc": 1559,
      "ĠáĪĿáĬķ": 1560,
      "ĠáĪĻ": 1561,
      "ĠerÃ©": 1562,
      "Ãª": 1563,
      "áĪ³áĭŃ": 1564,
      "iyo": 1565,
      "ĠwÃł": 1566,
      "ÃĮ": 1567,
      "áĮĨ": 1568,
      "Ġile": 1569,
      "ĠYor": 1570,
      "In": 1571,
      "alis": 1572,
      "áī³áĭĬ": 1573,
      "ju": 1574,
      "erika": 1575,
      "áĪĿáĪħ": 1576,
      "Ġ193": 1577,
      "ĠAs": 1578,
      "anci": 1579,
      "ĠáĬłáĪµáī°": 1580,
      "ĠáĮ½": 1581,
      "anzania": 1582,
      "ry": 1583,
      "ĠSa": 1584,
      "atar": 1585,
      "Ġny": 1586,
      "anin": 1587,
      "Ġ;": 1588,
      "Ã©es": 1589,
      "ĠáĮİ": 1590,
      "yÃ¬n": 1591,
      "Ġaiki": 1592,
      "Ġmi": 1593,
      "ell": 1594,
      "wamn": 1595,
      "one": 1596,
      "Ġ=": 1597,
      "ect": 1598,
      "ĠáĪ³áĭŃ": 1599,
      "era": 1600,
      "Ġiláº¹ÌĢ": 1601,
      "ille": 1602,
      "Ġmshindi": 1603,
      "ľáĪªáĬ«": 1604,
      "ĠáĬ¥áĬķáĭ³": 1605,
      "âĢĵ": 1606,
      "áĪĺáĪŃ": 1607,
      "din": 1608,
      "itu": 1609,
      "Ġkasa": 1610,
      "fo": 1611,
      "ĠáĭĭáĬĵ": 1612,
      "alin": 1613,
      "ĠáĬ®": 1614,
      "use": 1615,
      "gu": 1616,
      "ote": 1617,
      "ukio": 1618,
      "áĭ²áĪµ": 1619,
      "land": 1620,
      "ĠáīłáĪļ": 1621,
      "Ġci": 1622,
      "ĠIs": 1623,
      "alla": 1624,
      "16": 1625,
      "ĠmÃ©": 1626,
      "áĮįáĪŃ": 1627,
      "lic": 1628,
      "istor": 1629,
      "wÃ²": 1630,
      "Ġju": 1631,
      "áī·": 1632,
      "cho": 1633,
      "tÃł": 1634,
      "ĠáĪĺáĪµ": 1635,
      "gbÃ©": 1636,
      "Ġmar": 1637,
      "aya": 1638,
      "Ġinda": 1639,
      "Ġáī¤áī°": 1640,
      "ĠAfirka": 1641,
      "áĮłáĪŃ": 1642,
      "ĠÃ¨dÃ¨": 1643,
      "gbÃ¨": 1644,
      "áĪĭáĭŃ": 1645,
      "fic": 1646,
      "Ġáį¢": 1647,
      "áĭĿáī¥": 1648,
      "ĠMu": 1649,
      "Ġmus": 1650,
      "ember": 1651,
      "áĮĪáĬĺ": 1652,
      "rÃŃkÃł": 1653,
      "oro": 1654,
      "att": 1655,
      "ĠkÃŃ": 1656,
      "anu": 1657,
      "kuu": 1658,
      "him": 1659,
      "kon": 1660,
      "Ġkafa": 1661,
      "áĮĮ": 1662,
      "áįĸ": 1663,
      "Ġbu": 1664,
      "rÃ²": 1665,
      "ĠJam": 1666,
      "ĠáĪģáĪī": 1667,
      "ex": 1668,
      "Ġmag": 1669,
      "hari": 1670,
      "ĠbÃ¡": 1671,
      "áĭī": 1672,
      "afa": 1673,
      "áĬķáĭ³": 1674,
      "Ġáĭ¨áĪĨ": 1675,
      "gbÃ¡": 1676,
      "ĠAg": 1677,
      "ĠolÃ³": 1678,
      "ĠTanzania": 1679,
      "Ġcewa": 1680,
      "ĠMatukio": 1681,
      "ĠPapa": 1682,
      "uwan": 1683,
      "lá»į": 1684,
      "Ġ14": 1685,
      "ont": 1686,
      "jen": 1687,
      "áĬŀ": 1688,
      "ĠáįĬ": 1689,
      "ze": 1690,
      "kana": 1691,
      "199": 1692,
      "15": 1693,
      "ward": 1694,
      "NÃŃ": 1695,
      "ĠÆĻwallon": 1696,
      "aki": 1697,
      "uth": 1698,
      "ĠáĬłáĪĿ": 1699,
      "eri": 1700,
      "ĠmÃ¡": 1701,
      "áĮĢáĪĺáĪªáĭ«": 1702,
      "Ġáĭ¨áĪĿ": 1703,
      "ĠMas": 1704,
      "Ġcomm": 1705,
      "Ġthat": 1706,
      "ise": 1707,
      "à¤": 1708,
      "ats": 1709,
      "Ġavec": 1710,
      "tÃ¬": 1711,
      "áĪŃáĪµáī²": 1712,
      "Ġalikuwa": 1713,
      "Ġ12": 1714,
      "cha": 1715,
      "dÃ©": 1716,
      "Ġsont": 1717,
      "--": 1718,
      "áĪĨáĬĲ": 1719,
      "ÃĢwá»įn": 1720,
      "ĠáĪĺáĭ°áī¥": 1721,
      "áĪ«áĭĬ": 1722,
      "Ġgu": 1723,
      "ogo": 1724,
      "Ġana": 1725,
      "Ġnom": 1726,
      "Ġoá¹£Ã¹": 1727,
      "for": 1728,
      "Ġzai": 1729,
      "ĠÃĴ": 1730,
      "ĠyÃ¬ÃŃ": 1731,
      "Ġwata": 1732,
      "Ġ192": 1733,
      "ĠkÃ³": 1734,
      "ĠáĪ°áĭİáī½": 1735,
      "ĠNew": 1736,
      "ingi": 1737,
      "Ġduniya": 1738,
      "áĮĵ": 1739,
      "Ġmili": 1740,
      "tá»įÌģ": 1741,
      "Ġdake": 1742,
      "17": 1743,
      "uko": 1744,
      "dan": 1745,
      "vel": 1746,
      "lÃ³": 1747,
      "abar": 1748,
      "hun": 1749,
      "ons": 1750,
      "amba": 1751,
      "Ġáīłáĭĺ": 1752,
      "Ġdo": 1753,
      "Ġhadi": 1754,
      "nÃ¬yÃłn": 1755,
      "ĠAfric": 1756,
      "Maka": 1757,
      "Ġáī¦": 1758,
      "Éĵ": 1759,
      "áįİ": 1760,
      "ereza": 1761,
      "ĠáĬĲáĮĪáĪŃ": 1762,
      "ĠÆ": 1763,
      "ĠDa": 1764,
      "yÃ¨": 1765,
      "Ġdaya": 1766,
      "Ġkáº¹": 1767,
      "uwar": 1768,
      "áĪ«áĪį": 1769,
      "ĠGu": 1770,
      "ĠJihar": 1771,
      "ĠCom": 1772,
      "ingereza": 1773,
      "\".": 1774,
      "Ġmji": 1775,
      "áĮ¸": 1776,
      "Ġbay": 1777,
      "Ġáī°áĪĺ": 1778,
      "ĠáĭĵáĪĿ": 1779,
      "10": 1780,
      "º¸": 1781,
      "áĪĪáī½": 1782,
      "áī¦áī½": 1783,
      "itÃ©": 1784,
      "áī°áĭį": 1785,
      "'Ã©": 1786,
      "Ġbabban": 1787,
      "Ġwon": 1788,
      "Ġtr": 1789,
      "Ġsan": 1790,
      "Ġwannan": 1791,
      "Ġkwenye": 1792,
      "ĠIng": 1793,
      "ĠtÃºn": 1794,
      "Ġmul": 1795,
      "kÃ²": 1796,
      "Ġake": 1797,
      "Ġyar": 1798,
      "go": 1799,
      "ĠáĭĵáĪĺáīµ": 1800,
      "ĠFr": 1801,
      "bin": 1802,
      "gi": 1803,
      "ĠÃ¨nÃ¬yÃłn": 1804,
      "Ġwad": 1805,
      "Ġmaj": 1806,
      "Ġninu": 1807,
      "Ġorile": 1808,
      "áį¥": 1809,
      "áĮłáīĢ": 1810,
      "usi": 1811,
      "anga": 1812,
      "ĠKu": 1813,
      "ĠNigeria": 1814,
      "ĠKristo": 1815,
      "gin": 1816,
      "áĪĽáĪª": 1817,
      "sÃ¬": 1818,
      "'in": 1819,
      "ĠáīĨ": 1820,
      "ome": 1821,
      "Ġáĭ¨áĪļáĮĪáĬĿ": 1822,
      "atun": 1823,
      "Ġhukum": 1824,
      "ike": 1825,
      "vi": 1826,
      "áĮ¦": 1827,
      "Ġjama": 1828,
      "áīħáĪĿ": 1829,
      "Ġyankin": 1830,
      "ĠMus": 1831,
      "Ġzam": 1832,
      "Ġlugha": 1833,
      "ars": 1834,
      "áĪ¨áĭį": 1835,
      "ashin": 1836,
      "Ġsai": 1837,
      "Ġinah": 1838,
      "Ġ191": 1839,
      "illi": 1840,
      "iversity": 1841,
      "Ġkim": 1842,
      "hine": 1843,
      "Ġhis": 1844,
      "dÃŃ": 1845,
      "áĭŀ": 1846,
      "Ã§": 1847,
      "wi": 1848,
      "Ã©n": 1849,
      "áįĬáīµ": 1850,
      "Ġ13": 1851,
      "áĭ±áĪµ": 1852,
      "ĠáĬª": 1853,
      "Ġme": 1854,
      "amb": 1855,
      "ĠkÃ²": 1856,
      "Makala": 1857,
      "ĠáĪĿáĬŃ": 1858,
      "uis": 1859,
      "pÃ©": 1860,
      "áĬ¢": 1861,
      "Ġinahusu": 1862,
      "áĮįáī¥": 1863,
      "áĪģáĪĿ": 1864,
      "ĠáĬ¥áĭ¨": 1865,
      "shi": 1866,
      "áĬĸáī½": 1867,
      "ĠTa": 1868,
      "annin": 1869,
      "umi": 1870,
      "áįĴ": 1871,
      "áĭ³áĬķ": 1872,
      "ká»įÌĢ": 1873,
      "ĠMo": 1874,
      "áĪĭáĬķáĭµ": 1875,
      "ĠÆĻafa": 1876,
      "Ġwana": 1877,
      "ongo": 1878,
      "Ġkamar": 1879,
      "uti": 1880,
      "elu": 1881,
      "ath": 1882,
      "ess": 1883,
      "áĪ¨áĬķ": 1884,
      "áĮįáĪĬáĭĿáĬĽ": 1885,
      "áº¹Ìģg": 1886,
      "tre": 1887,
      "áĮ¨áĪ¨": 1888,
      "ĠáĪĭ": 1889,
      "Ġáī¤áīµ": 1890,
      "La": 1891,
      "En": 1892,
      "Ġáīĥ": 1893,
      "ĠprÃ©": 1894,
      "aifa": 1895,
      "jÃ¡": 1896,
      "aye": 1897,
      "Ya": 1898,
      "ĠRe": 1899,
      "áĬłáī¥": 1900,
      "wÃ¡": 1901,
      "áī³áī¸áĭį": 1902,
      "tÃ²": 1903,
      "hemu": 1904,
      "ĠFar": 1905,
      "co": 1906,
      "Ġsamu": 1907,
      "lin": 1908,
      "Ġup": 1909,
      "áĭŃáĪħ": 1910,
      "ĠÃ¬gbÃł": 1911,
      "ĠáĪĺáĬ«": 1912,
      "Ġ202": 1913,
      "enti": 1914,
      "Ġmutane": 1915,
      "ĠØ": 1916,
      "ress": 1917,
      "yya": 1918,
      "ĠáĪĲ": 1919,
      "áĪ¨áĮĥ": 1920,
      "fal": 1921,
      "Ġina": 1922,
      "Ġgbo": 1923,
      "ĠÃ¡": 1924,
      "ute": 1925,
      "Ġsam": 1926,
      "ĠII": 1927,
      "Ġwaka": 1928,
      "ĠáĬłáī¥": 1929,
      "Ġus": 1930,
      "ost": 1931,
      "áº¹ÌĢr": 1932,
      "Ġwasu": 1933,
      "Ġap": 1934,
      "yáº¹": 1935,
      "ĠUniversity": 1936,
      "ĠOk": 1937,
      "ĠVi": 1938,
      "Ġáī°áīĢ": 1939,
      "ĠIngila": 1940,
      "áī°áĪŃ": 1941,
      "ĠIb": 1942,
      "áĪĪáĭ«": 1943,
      "ĠáĬ¨áĬł": 1944,
      "á»įÌĢn": 1945,
      "ohn": 1946,
      "áº¹Ìģgáº¹Ìģ": 1947,
      "ĠáĬĲáīłáĪ¨": 1948,
      "áīĨáĮ£": 1949,
      "dÃ¡": 1950,
      "Ġduk": 1951,
      "ĠJami": 1952,
      "ĠáĪĨáĬĸ": 1953,
      "áĮĪáĭµ": 1954,
      "tÃŃ": 1955,
      "anen": 1956,
      "Ġuli": 1957,
      "ĠÃ²á¹£Ã¨": 1958,
      "fani": 1959,
      "ĠdÃ¡": 1960,
      "Ġvi": 1961,
      "ĠáĬłáĮĪáĪŃ": 1962,
      "ĠáĬĲáĮĪáĪ¥": 1963,
      "ĠRo": 1964,
      "ese": 1965,
      "ĠAp": 1966,
      "emb": 1967,
      "dÃ¬": 1968,
      "son": 1969,
      "ĠáīłáĪµ": 1970,
      "ĠáĬłáī£": 1971,
      "áĪ¨áĭ³": 1972,
      "ĠáīłáĬ¢áīµáĭ®áĮµáĭ«": 1973,
      "Ġib": 1974,
      "Ġgab": 1975,
      "áīµáĬĵ": 1976,
      "áĭµáĬķ": 1977,
      "áĪ°áī¥": 1978,
      "áĬĲáĭļáĪħ": 1979,
      "áĪĺáĪµ": 1980,
      "áĪĽáĭĬ": 1981,
      "ĠCol": 1982,
      "áĪ°áĭį": 1983,
      "áĪĶáĪŃ": 1984,
      "ld": 1985,
      "áĪīáīµ": 1986,
      "ĠáĭĪáĬķ": 1987,
      "ĠáĪ´": 1988,
      "Ġkus": 1989,
      "áīª": 1990,
      "Ġyin": 1991,
      "ula": 1992,
      "ĠáĭĺáĬķáĭµ": 1993,
      "áĮĪáĬĻ": 1994,
      "Ġáįķ": 1995,
      "ĠáĮĢáĪĿáĪ®": 1996,
      "Ġáĭ¨áĪ°": 1997,
      "áįħ": 1998,
      "ungu": 1999,
      "ose": 2000,
      "áĪĭáī¸áĭį": 2001,
      "yÃ©": 2002,
      "ĠáĮ¨": 2003,
      "umani": 2004,
      "Ġdin": 2005,
      "ĠáĪ«": 2006,
      "Ġpáº¹ÌĢ": 2007,
      "Ġco": 2008,
      "áĮ½áĪĲ": 2009,
      "Ġáī£áĪĪ": 2010,
      "áĪŃáĪ±": 2011,
      "Ġjáº¹": 2012,
      "Il": 2013,
      "áĭ¥": 2014,
      "Ġgir": 2015,
      "ziki": 2016,
      "Ġ190": 2017,
      "Ġáįĵ": 2018,
      "Ġapp": 2019,
      "der": 2020,
      "jerumani": 2021,
      "amoja": 2022,
      "ĠáĬ¢áīµáĭ®áĮµáĭ«": 2023,
      "Ġro": 2024,
      "Ùİ": 2025,
      "14": 2026,
      "enn": 2027,
      "Ġgarin": 2028,
      "Â«": 2029,
      "isiwa": 2030,
      "ĠáĮ¦áĪŃ": 2031,
      "tawa": 2032,
      "ime": 2033,
      "jÃł": 2034,
      "12": 2035,
      "Al": 2036,
      "Ġáī¥áī»": 2037,
      "Ġter": 2038,
      "arr": 2039,
      "Ġkai": 2040,
      "Ġáĭ«áĪĪáĭį": 2041,
      "Ġshugaban": 2042,
      "Ġaikin": 2043,
      "Ġweng": 2044,
      "ĠÃĮpÃŃnláº¹ÌĢ": 2045,
      "ĠáĮ¸": 2046,
      "áī¡áī¥": 2047,
      "áĬ¤áĪį": 2048,
      "ÙĦ": 2049,
      "á¹£e": 2050,
      "Ġmakar": 2051,
      "eno": 2052,
      "áĮ£áĪį": 2053,
      "áĭ¨áĪŃ": 2054,
      "kini": 2055,
      "per": 2056,
      "ogra": 2057,
      "atin": 2058,
      "áĭµáĪĿ": 2059,
      "ton": 2060,
      "Ġáī°áĭĪ": 2061,
      "áĪłáĪ¨": 2062,
      "Ġnot": 2063,
      "ope": 2064,
      "198": 2065,
      "áĬķáĬķ": 2066,
      "ĠCo": 2067,
      "ice": 2068,
      "ĥáĭŃ": 2069,
      "Ġiá¹£áº¹Ìģ": 2070,
      "ĠÉĹan": 2071,
      "Ġkab": 2072,
      "ty": 2073,
      "va": 2074,
      "wanza": 2075,
      "Ġent": 2076,
      "já»įba": 2077,
      "ena": 2078,
      "Ġwake": 2079,
      "Ġáĭ«áĪĪ": 2080,
      "ĠáĬ¨áįį": 2081,
      "ĠáĭĺáĪĺ": 2082,
      "Ã³n": 2083,
      "Ġmwan": 2084,
      "ĠáĪĺáĪį": 2085,
      "áĪĿáĬĵ": 2086,
      "Ma": 2087,
      "ĠBK": 2088,
      "iz": 2089,
      "ated": 2090,
      "Ġhad": 2091,
      "Ġgwamn": 2092,
      "ĠáĬłáĭį": 2093,
      "wá»įÌģ": 2094,
      "áĪįáĮ£": 2095,
      "iss": 2096,
      "áĬĵáĭĬ": 2097,
      "Ġáĭ¨áĭĪ": 2098,
      "Ġgáº¹Ìģgáº¹Ìģ": 2099,
      "ĠIta": 2100,
      "ĠáĬ¦": 2101,
      "iaka": 2102,
      "áį²áį±áį»": 2103,
      "Ġwatu": 2104,
      "rÃ¨s": 2105,
      "hana": 2106,
      "Ġkya": 2107,
      "falme": 2108,
      "Ġáī°áĬ¨": 2109,
      "yÃł": 2110,
      "Ġgaba": 2111,
      "able": 2112,
      "ĠMe": 2113,
      "ona": 2114,
      "áĪļáĭ«": 2115,
      "ora": 2116,
      "ĠÃĪ": 2117,
      "ĠtÃł": 2118,
      "mes": 2119,
      "áĬħ": 2120,
      "ĠKarne": 2121,
      "13": 2122,
      "mba": 2123,
      "ette": 2124,
      "ven": 2125,
      "áº¹Ìģr": 2126,
      "tá»įÌģka": 2127,
      "Ġgr": 2128,
      "Ġpáº¹ÌĢlÃº": 2129,
      "Ġshir": 2130,
      "ĠáīģáĮ¥áĪŃ": 2131,
      "ashe": 2132,
      "ĠQ": 2133,
      "ĠáĪī": 2134,
      "Ġlá»įÌģ": 2135,
      "ĠBen": 2136,
      "ĠPro": 2137,
      "ian": 2138,
      "gbáº¹Ìģ": 2139,
      "eo": 2140,
      "Ġsehemu": 2141,
      "ited": 2142,
      "oda": 2143,
      "ĠáĪ¥áĪŃ": 2144,
      "ende": 2145,
      "ubwa": 2146,
      "ĠBo": 2147,
      "ume": 2148,
      "eshi": 2149,
      "Ġshine": 2150,
      "ĠwÃ¡": 2151,
      "Ġáĭ¨áīĢ": 2152,
      "com": 2153,
      "cce": 2154,
      "ĠlÃ³rÃŃ": 2155,
      "orn": 2156,
      "ĠTh": 2157,
      "ww": 2158,
      "Ġji": 2159,
      "Ġibi": 2160,
      "eric": 2161,
      "ĠáĮ£": 2162,
      "ĠDe": 2163,
      "ase": 2164,
      "Ġáĭ¨áĪĨáĬĲ": 2165,
      "Ġáĭ®": 2166,
      "ĠáĬłáīł": 2167,
      "Ġmkuu": 2168,
      "cl": 2169,
      "áº¹ÌģrÃŃkÃł": 2170,
      "ustr": 2171,
      "áº¹ÌĢráº¹ÌĢ": 2172,
      "áī¢áĭ«": 2173,
      "ĠáīłáĪĿ": 2174,
      "áĬ¦": 2175,
      "'un": 2176,
      "áĪŃáĬŃ": 2177,
      "ĠHar": 2178,
      "Da": 2179,
      "Ġlakini": 2180,
      "áĮ¨áĪ¨áĪ»": 2181,
      "áĮ¤": 2182,
      "Ġpamoja": 2183,
      "Ġkungiyar": 2184,
      "Ġbaya": 2185,
      "ĠAmáº¹ÌģrÃŃkÃł": 2186,
      "áĮłáĪ«": 2187,
      "Ġray": 2188,
      "ashen": 2189,
      "org": 2190,
      "Ġgud": 2191,
      "gÃºn": 2192,
      "kanin": 2193,
      "onn": 2194,
      "ĠáĭµáĪŃ": 2195,
      "jir": 2196,
      "áĪ³áīµ": 2197,
      "Ġcin": 2198,
      "lÃ¨": 2199,
      "ĠáīłáĭļáĪħ": 2200,
      "ĠBa": 2201,
      "áīĥáĪį": 2202,
      "Ġcomme": 2203,
      "ign": 2204,
      "anzu": 2205,
      "áĪľáĬķ": 2206,
      "Ġmiaka": 2207,
      "lim": 2208,
      "Ġbin": 2209,
      "Ġáī¡": 2210,
      "Ġsy": 2211,
      "ĠáĪľ": 2212,
      "uran": 2213,
      "ĠMay": 2214,
      "Ġamfani": 2215,
      "ĠáĪĺáĬ«áĬ¨áĪį": 2216,
      "Ġáĭ¨áī°áī£": 2217,
      "ĠTur": 2218,
      "hamma": 2219,
      "áĮĬáĭľ": 2220,
      "Ġnje": 2221,
      "Ġsana": 2222,
      "ĠáīłáĭĺáĪĺáĬĲ": 2223,
      "tu": 2224,
      "ĠáīłáĪĭáĭŃ": 2225,
      "wÃ³": 2226,
      "Ġob": 2227,
      "ĠPar": 2228,
      "ukan": 2229,
      "Ġhaka": 2230,
      "chool": 2231,
      "ron": 2232,
      "áĮįáĭļ": 2233,
      "áĭİáī¹": 2234,
      "dar": 2235,
      "láº¹Ìģ": 2236,
      "Ġgasar": 2237,
      "áĬķáĮī": 2238,
      "Ġmafi": 2239,
      "áĪĺáĪĪ": 2240,
      "ráº¹": 2241,
      "Ġasi": 2242,
      "áĬ³": 2243,
      "istoria": 2244,
      "Ġper": 2245,
      "Ġshiga": 2246,
      "ĠáīłáĪ°": 2247,
      "rÃłn": 2248,
      "erv": 2249,
      "lá»įÌģ": 2250,
      "Ã´": 2251,
      "akar": 2252,
      "Ġfim": 2253,
      "ouv": 2254,
      "kea": 2255,
      "Ġjir": 2256,
      "Ġlit": 2257,
      "idan": 2258,
      "ĠAbu": 2259,
      "ept": 2260,
      "ikia": 2261,
      "ĠáĬŃáįįáĪĪ": 2262,
      "Ġráº¹": 2263,
      "áīħáĪŃ": 2264,
      "áĪĽáĭŃ": 2265,
      "áī¥áĪ¨": 2266,
      "áĪħáĪį": 2267,
      "ĠAmur": 2268,
      "alisar": 2269,
      "'A": 2270,
      "yen": 2271,
      "ĠÃ²á¹£Ã¨rÃ©": 2272,
      "Ġsiya": 2273,
      "áĪĿáĪħáĪŃáīµ": 2274,
      "ĠmÃ¡a": 2275,
      "ĠáĬłáĪŃ": 2276,
      "Ġdis": 2277,
      "ato": 2278,
      "Ġtara": 2279,
      "ires": 2280,
      "kÃ¬": 2281,
      "ĠGhana": 2282,
      "fuata": 2283,
      "Les": 2284,
      "áįĥ": 2285,
      "Ġmaka": 2286,
      "ĠJohn": 2287,
      "áīĦ": 2288,
      "áĮģ": 2289,
      "áĭŃáĭĪ": 2290,
      "ĠáĬ¨áĪĺ": 2291,
      "yana": 2292,
      "Ġik": 2293,
      "ĠJanu": 2294,
      "Ġhak": 2295,
      "áĬķáĬĵ": 2296,
      "Ġpas": 2297,
      "ĠyÃŃ": 2298,
      "ĠtÃłbÃŃ": 2299,
      "ĠkÃ©": 2300,
      "Ġsannan": 2301,
      "gn": 2302,
      "ĠÆĻar": 2303,
      "bwa": 2304,
      "tá»įÌģkasÃŃ": 2305,
      "gion": 2306,
      "Ġkir": 2307,
      "á¹£áº¹": 2308,
      "ĠalÃ¡": 2309,
      "uma": 2310,
      "olo": 2311,
      "áīĨáĮ£áĮłáĪŃ": 2312,
      "tique": 2313,
      "ĠáĬ¥áĬķáĭ²áĪģáĪĿ": 2314,
      "ĠáĪ½": 2315,
      "ical": 2316,
      "ĠÃ¨yÃŃ": 2317,
      "uba": 2318,
      "Ġáī¦áī³": 2319,
      "Ġkwanza": 2320,
      "Ġ11": 2321,
      "áĮįáĭļáĬłáī¥": 2322,
      "ys": 2323,
      "Ġtele": 2324,
      "shen": 2325,
      "zini": 2326,
      "ÃłÃ¡": 2327,
      "Ġbaada": 2328,
      "'ad": 2329,
      "ashi": 2330,
      "Ġann": 2331,
      "ĠAmerika": 2332,
      "lÃ¹": 2333,
      "áĭ°áīµ": 2334,
      "ĠRoma": 2335,
      "ants": 2336,
      "áĮĨáī½": 2337,
      "áĭįáĪĿ": 2338,
      "áĮĪáĬķ": 2339,
      "Ġac": 2340,
      "Ġcan": 2341,
      "ĠáīłáīĢ": 2342,
      "áĪµáī³": 2343,
      "áĮ¥áĬķ": 2344,
      "tp": 2345,
      "ates": 2346,
      "Ġamma": 2347,
      "hai": 2348,
      "Ġsiku": 2349,
      "ĠOr": 2350,
      "omi": 2351,
      "Ġká»į": 2352,
      "áĬŀáī½": 2353,
      "andishi": 2354,
      "Ġáĭ¨áĮį": 2355,
      "ĠonÃŃ": 2356,
      "kwai": 2357,
      "cy": 2358,
      "ĠáĬĲáīłáĪ©": 2359,
      "pt": 2360,
      "Ġmon": 2361,
      "bre": 2362,
      "Ġ)": 2363,
      "rá»įÌĢ": 2364,
      "Ġfir": 2365,
      "áī¤áīµ": 2366,
      "Ġpa": 2367,
      "Ġohun": 2368,
      "ade": 2369,
      "//": 2370,
      "ĠSe": 2371,
      "Ġshekaru": 2372,
      "Ġáīħáĭ±áĪµ": 2373,
      "áĭ¬": 2374,
      "Ġáī°áī¥": 2375,
      "tar": 2376,
      "ĠâĢĺ": 2377,
      "ĠAre": 2378,
      "hili": 2379,
      "ambo": 2380,
      "áĪŃáĪµáī²áĭ«áĬķ": 2381,
      "://": 2382,
      "Ġte": 2383,
      "Ġes": 2384,
      "ĠMata": 2385,
      "Ġuku": 2386,
      "Ġzili": 2387,
      "ĠBir": 2388,
      "áĭķáĪ«": 2389,
      "ayo": 2390,
      "Ġjami": 2391,
      "áĮįáĭļáĬłáī¥áĪĶáĪŃ": 2392,
      "Ġeneo": 2393,
      "ikwa": 2394,
      "gar": 2395,
      "ĠNov": 2396,
      "áĪµáĬĵ": 2397,
      "\",": 2398,
      "ĠáĭŃáĮĪáĬĽ": 2399,
      "Ġaf": 2400,
      "katifu": 2401,
      "ungo": 2402,
      "Ġph": 2403,
      "ĠOn": 2404,
      "Ġpremi": 2405,
      "Ġ[": 2406,
      "áĪµáĪ«": 2407,
      "Ġtra": 2408,
      "Ġkaratun": 2409,
      "ĠAmurka": 2410,
      "Ġres": 2411,
      "³áĪµ": 2412,
      "ĠáĪ¨": 2413,
      "áĬŃáīµ": 2414,
      "ĠáĪĿáĬŃáĬķáĭ«": 2415,
      "ĠAward": 2416,
      "Ġhasa": 2417,
      "ĠolÃ¹": 2418,
      "ĠMut": 2419,
      "áĭ¶áī½": 2420,
      "ulo": 2421,
      "chini": 2422,
      "Ġnan": 2423,
      "áī¥áĪ«": 2424,
      "197": 2425,
      "Ġomo": 2426,
      "Ġhanyar": 2427,
      "áĪº": 2428,
      "Ġyawa": 2429,
      "eni": 2430,
      "Ġhada": 2431,
      "ĠGe": 2432,
      "ĠáĬłáĪī": 2433,
      "ĠAt": 2434,
      "rie": 2435,
      "196": 2436,
      "kazini": 2437,
      "Ġwakazi": 2438,
      "ree": 2439,
      "lÃł": 2440,
      "lah": 2441,
      "áĪĿáĬķ": 2442,
      "ĠOkto": 2443,
      "ram": 2444,
      "els": 2445,
      "ĠSept": 2446,
      "Ġbuga": 2447,
      "iro": 2448,
      "ule": 2449,
      "ĠjÃ¹": 2450,
      "urin": 2451,
      "ĠJul": 2452,
      "Ġabin": 2453,
      "uta": 2454,
      "Ġgbogbo": 2455,
      "tor": 2456,
      "erin": 2457,
      "Ġwak": 2458,
      "Ġáº¸": 2459,
      "Ġwengi": 2460,
      "wai": 2461,
      "ĠlÃ¨": 2462,
      "ĠáĭŃáī£": 2463,
      "dio": 2464,
      "hariki": 2465,
      "ĠMuhamma": 2466,
      "mÃ¹": 2467,
      "áĮĪáĬĵ": 2468,
      "Ġri": 2469,
      "ĠáĬŃáįįáĪį": 2470,
      "Ġpo": 2471,
      "istan": 2472,
      "áĭŃáĬķ": 2473,
      "ishwa": 2474,
      "ĠNai": 2475,
      "orld": 2476,
      "ebru": 2477,
      "enda": 2478,
      "Ġhali": 2479,
      "áīĢáīµ": 2480,
      "Ġáĭ¨áĬĲáīłáĪ¨": 2481,
      "Ġaux": 2482,
      "asu": 2483,
      "ansu": 2484,
      "ero": 2485,
      "ĠFran": 2486,
      "áĬĸáĪŃ": 2487,
      "ima": 2488,
      "áĬĴáĭ«": 2489,
      "ugu": 2490,
      "Ġcl": 2491,
      "áĭ°áĪ¨áĮĪ": 2492,
      "'est": 2493,
      "Ġmáº¹Ìģ": 2494,
      "ĠnÃŃgbÃł": 2495,
      "faransa": 2496,
      "ĠáĪŃ": 2497,
      "Ġjina": 2498,
      "Ġzaidi": 2499,
      "ents": 2500,
      "ĠRa": 2501,
      "mÃŃ": 2502,
      "hich": 2503,
      "bÃł": 2504,
      "ĠSchool": 2505,
      "Ġáĭ²": 2506,
      "áĭ¨áīµ": 2507,
      "áī±áĪĿ": 2508,
      "Ġmaso": 2509,
      "Ni": 2510,
      "Ġwh": 2511,
      "Ġkubwa": 2512,
      "ĠgbÃ©": 2513,
      "Ġcont": 2514,
      "Ġakan": 2515,
      "yy": 2516,
      "Ġdig": 2517,
      "áĮ½áĪĲáįį": 2518,
      "Ġnchini": 2519,
      "alement": 2520,
      "ĠáĬłáĬ«áī£áī¢": 2521,
      "áĪĪáī°": 2522,
      "jáº¹": 2523,
      "zaji": 2524,
      "Ġtro": 2525,
      "Ġáįĸ": 2526,
      "ĠBe": 2527,
      "Ġ25": 2528,
      "ĠLag": 2529,
      "Ġtsakanin": 2530,
      "189": 2531,
      "sc": 2532,
      "ĠáĬłáīĨáĮ£áĮłáĪŃ": 2533,
      "fiya": 2534,
      "ert": 2535,
      "Ġtso": 2536,
      "áĭ®áĬķ": 2537,
      "Ġtu": 2538,
      "ril": 2539,
      "ĠáĬłáĬķáĭ±": 2540,
      "form": 2541,
      "enya": 2542,
      "áĮ®": 2543,
      "ĠJap": 2544,
      "fanin": 2545,
      "insi": 2546,
      "Ġlili": 2547,
      "Ġbo": 2548,
      "jáº¹Ìģ": 2549,
      "á»Į": 2550,
      "áĭµáĪŀ": 2551,
      "Ġkal": 2552,
      "áĬķáĮĭ": 2553,
      "ĠhaÉĹ": 2554,
      "kÃłn": 2555,
      "ĠáĬ¥áĭ«": 2556,
      "ther": 2557,
      "ĠáĮįáĭĽáīµ": 2558,
      "ĠOktoba": 2559,
      "áĪ¨áĮį": 2560,
      "áĮİáĪŃ": 2561,
      "gas": 2562,
      "á¹£Ãł": 2563,
      "áĪŃáĭĿ": 2564,
      "áįĪáĪŃ": 2565,
      "Ġum": 2566,
      "ory": 2567,
      "áĪįáīħ": 2568,
      "Ġrep": 2569,
      "ks": 2570,
      "Ġá»ĮÌĢ": 2571,
      "anni": 2572,
      "Ġwhich": 2573,
      "kÃ¹n": 2574,
      "ela": 2575,
      "áīĢáĭį": 2576,
      "ĠáĬłáĪĭ": 2577,
      "its": 2578,
      "any": 2579,
      "wu": 2580,
      "Ġá»įdun": 2581,
      "ony": 2582,
      "áįĢ": 2583,
      "ĠáĬ¥áĬķáĭ°áĪļ": 2584,
      "Ġsá»į": 2585,
      "unt": 2586,
      "ĠáīłáĮį": 2587,
      "áĮĪáī£": 2588,
      "Ġnd": 2589,
      "Ġáīłáī¥": 2590,
      "ĠáĬ¨áī°áĪŀáī½": 2591,
      "Ġyanzu": 2592,
      "iyan": 2593,
      "mma": 2594,
      "áĭŃáĬĵ": 2595,
      "Ġorin": 2596,
      "Ġáīłáĭ°": 2597,
      "ĠHausa": 2598,
      "oth": 2599,
      "ĠáĭŃáī½": 2600,
      "Ġform": 2601,
      "phi": 2602,
      "ici": 2603,
      "ĠArewa": 2604,
      "áĬĺ": 2605,
      "áĮĪáĪĪ": 2606,
      "ĠáĬĥáĭŃ": 2607,
      "Ã¬bÃŃ": 2608,
      "Ġfo": 2609,
      "Ġsama": 2610,
      "ĠáīłáįĬáīµ": 2611,
      "Ġfin": 2612,
      "ĠáĪ¶": 2613,
      "Ġtari": 2614,
      "Ġ30": 2615,
      "ures": 2616,
      "jiria": 2617,
      "áĪĭáĪī": 2618,
      "jia": 2619,
      "old": 2620,
      "áĪĽáĬĸ": 2621,
      "ĠAfrica": 2622,
      "unci": 2623,
      "áīħáīµ": 2624,
      "ĠfÃŃ": 2625,
      "ĠáĪģáĪĪáīµ": 2626,
      "ĠFebru": 2627,
      "ĠCon": 2628,
      "ĠáĪĽáĪŃ": 2629,
      "Ã¹bÃ¡": 2630,
      "áĮ£áĪĿ": 2631,
      "áīµáĪŃ": 2632,
      "áĪĪáĭ«áĭ©": 2633,
      "áĬ¬": 2634,
      "ĠOl": 2635,
      "endele": 2636,
      "Ġhiv": 2637,
      "áĪĳ": 2638,
      "ĠáĭŃáī³": 2639,
      "Ġhal": 2640,
      "Ġmara": 2641,
      "low": 2642,
      "áĬŃáĪµ": 2643,
      "velop": 2644,
      "ĠHe": 2645,
      "uki": 2646,
      "dha": 2647,
      "Ã¬nrin": 2648,
      "ĠNaijiria": 2649,
      "tain": 2650,
      "ĠAustr": 2651,
      "ĠBur": 2652,
      "ves": 2653,
      "ĠDuniya": 2654,
      "ĠKas": 2655,
      "Ġkm": 2656,
      "Ġsin": 2657,
      "ays": 2658,
      "Mwaka": 2659,
      "ĠBr": 2660,
      "áĪĪáĬķ": 2661,
      "Ġáī´": 2662,
      "Ġmbali": 2663,
      "Ġáĭ©": 2664,
      "ĠáĪ¸": 2665,
      "ternational": 2666,
      "ussi": 2667,
      "áī¥áĪµ": 2668,
      "Ã®": 2669,
      "aren": 2670,
      "Ġáº¹ÌĢká»įÌģ": 2671,
      "ilaya": 2672,
      "tÃłn": 2673,
      "ally": 2674,
      "vo": 2675,
      "ĠáĬłáīłáī£": 2676,
      "áĭĸ": 2677,
      "ĠáĪĮáĪĭ": 2678,
      "Ali": 2679,
      "ĠÃłká»įÌģ": 2680,
      "Ġmin": 2681,
      "ken": 2682,
      "'une": 2683,
      "ĠBar": 2684,
      "Ø§": 2685,
      "áĪĪáĭŃ": 2686,
      "ĠWak": 2687,
      "áĪ°áĪ«": 2688,
      "Ġtarehe": 2689,
      "Ġsami": 2690,
      "igh": 2691,
      "Ġwacce": 2692,
      "Ġsaboda": 2693,
      "Ġguda": 2694,
      "Ġimp": 2695,
      "amp": 2696,
      "ĠdÃ©p": 2697,
      "Th": 2698,
      "Ġ189": 2699,
      "ĠáĭĺáĪĺáĬĲ": 2700,
      "joba": 2701,
      "mÃ¬": 2702,
      "Ġsamar": 2703,
      "ĠKwa": 2704,
      "áī£áĭŃ": 2705,
      "olu": 2706,
      "pinle": 2707,
      "áĪĿáĪŃ": 2708,
      "áĪĺáĪ¨": 2709,
      "ĠáĮ¦áĪŃáĬĲáīµ": 2710,
      "Kati": 2711,
      "ales": 2712,
      "ular": 2713,
      "ĠX": 2714,
      "áĪĺáīµ": 2715,
      "áĪ®áįĵ": 2716,
      "Ġáĭ¨áĪµ": 2717,
      "ĠáĭĵáĪĺáī³áīµ": 2718,
      "lish": 2719,
      "áĪŃáĪĺáĬķ": 2720,
      "ĠáĪµáĪŃ": 2721,
      "ugh": 2722,
      "wani": 2723,
      "abe": 2724,
      "ĠáĪĥáĭŃ": 2725,
      "Ġalif": 2726,
      "áĪªáĬ«áĭĬ": 2727,
      "ambar": 2728,
      "Ġáĭ¨áĭį": 2729,
      "Ġkup": 2730,
      "ĠáĪµáĪ«": 2731,
      "Ã¢": 2732,
      "ingine": 2733,
      "yn": 2734,
      "Ġnuna": 2735,
      "Ġchin": 2736,
      "ĠáĬ¨áĪļ": 2737,
      "Ġáĭ¨áĪĺáĮĢáĪĺáĪªáĭ«": 2738,
      "tawala": 2739,
      "Ġwato": 2740,
      "zama": 2741,
      "ĠáĬłáĭŃáĬĲáīµ": 2742,
      "iste": 2743,
      "Ġáĭ¨áĭĵ": 2744,
      "Ġwakati": 2745,
      "ĠáĪ²áĭ«": 2746,
      "Ġjuu": 2747,
      "rÃ¬": 2748,
      "lex": 2749,
      "ĠáĬłáĪ¨": 2750,
      "dda": 2751,
      "Ġdeux": 2752,
      "Ġkuto": 2753,
      "áĮłáīĥ": 2754,
      "Ġbar": 2755,
      "áĮłáĪ¨": 2756,
      "áĪĲáĬķáĪµ": 2757,
      "omo": 2758,
      "Ġak": 2759,
      "ĠKano": 2760,
      "Ġele": 2761,
      "áĪįáĭµ": 2762,
      "hali": 2763,
      "ĠLi": 2764,
      "áī·áĪį": 2765,
      "oloni": 2766,
      "ft": 2767,
      "Ġmais": 2768,
      "áĪįáĪĿ": 2769,
      "Ġ&": 2770,
      "áīłáī¥": 2771,
      "ublic": 2772,
      "ĠWar": 2773,
      "áĮįáĪ«": 2774,
      "ĠDes": 2775,
      "Ġkafin": 2776,
      "isho": 2777,
      "haribi": 2778,
      "ĠRD": 2779,
      "ĠwÃŃ": 2780,
      "áī£áī¸áĭį": 2781,
      "ĠAli": 2782,
      "lan": 2783,
      "ĠáĭĽ": 2784,
      "ĠPr": 2785,
      "itwa": 2786,
      "ĠpÃ¨": 2787,
      "Ãºká»į": 2788,
      "ĠáĬ¨áĭļáĭ«": 2789,
      "áī£áĪŃ": 2790,
      "ĠáĭĪáĪŃ": 2791,
      "áĪĭáĪĿ": 2792,
      "ĠnÃŃpa": 2793,
      "kÃ¨": 2794,
      "áĪ¬áīµ": 2795,
      "pÃ²": 2796,
      "ĠKa": 2797,
      "Ġáį²áį±áį»": 2798,
      "Ìģ": 2799,
      "ĠMin": 2800,
      "áįįáĪ«": 2801,
      "áĭ°áĪį": 2802,
      "áĬĲáĮĪáĪŃ": 2803,
      "ĠYorÃ¹bÃ¡": 2804,
      "ĠNor": 2805,
      "ĠáĬłáĭ²áĪµ": 2806,
      "Ġ21": 2807,
      "ĠáĬ¨áįįáī°áĬĽ": 2808,
      "ac": 2809,
      "ĠÃłrÃ¹n": 2810,
      "unan": 2811,
      "ĠLagos": 2812,
      "ĠáĪĮáĪİáī½": 2813,
      "ĠáĬ¥áĪŃ": 2814,
      "Ġtrans": 2815,
      "Ġgame": 2816,
      "Ġrec": 2817,
      "ĠáĬĲáĮĪáĪ¥áī³áīµ": 2818,
      "ĠItalia": 2819,
      "Ġlangu": 2820,
      "Ġhiyo": 2821,
      "áĪı": 2822,
      "áĬĲáĭį": 2823,
      "ĠáĪłáĪ": 2824,
      "Ġala": 2825,
      "Ġ23": 2826,
      "dia": 2827,
      "áĮĢáĪĺáĪŃáĭ«": 2828,
      "Ġ100": 2829,
      "yp": 2830,
      "Ġmulkin": 2831,
      "Ġá»įjá»įÌģÃ¬bÃŃ": 2832,
      "Ġfito": 2833,
      "áĪŃáĭµ": 2834,
      "ĠáĬ³áĪµ": 2835,
      "ĠrÃŃ": 2836,
      "ĠMal": 2837,
      "ĠáĬ©": 2838,
      "ĠáĪĺáĮł": 2839,
      "ĠAng": 2840,
      "Ġmakarantar": 2841,
      "Ġkoma": 2842,
      "Ġtaka": 2843,
      "thi": 2844,
      "ĠáĬ¥áĮħ": 2845,
      "wá»įÌĢ": 2846,
      "Ġ24": 2847,
      "áº¹ÌģyÃ¬n": 2848,
      "ĠÆĻasa": 2849,
      "own": 2850,
      "ĠKing": 2851,
      "áĮ¢": 2852,
      "zwa": 2853,
      "áįĪáĪ¨áĬķ": 2854,
      "Ġses": 2855,
      "áĭĮ": 2856,
      "ĠáĬłáįį": 2857,
      "ĠáĪĽáĪµ": 2858,
      "áĭİáī½áĬķ": 2859,
      "fun": 2860,
      "ĠPe": 2861,
      "ision": 2862,
      "Ġbak": 2863,
      "ĠáĪĺáĪ°": 2864,
      "usini": 2865,
      "uc": 2866,
      "Ġmal": 2867,
      "Ġfran": 2868,
      "áĭ°áĭį": 2869,
      "sib": 2870,
      "enne": 2871,
      "ĠjÃ¡": 2872,
      "ĠáĭŃáī£áĪĭáĪį": 2873,
      "ĠlÃ©": 2874,
      "ĠáĭĪáīħáīµ": 2875,
      "ĠUjerumani": 2876,
      "ĠTi": 2877,
      "Ġparti": 2878,
      "ĠáĪįáĭ©": 2879,
      "Ġgida": 2880,
      "áīłáĪĭ": 2881,
      "áĭĵáīµ": 2882,
      "ĠMusul": 2883,
      "Ġsamun": 2884,
      "Ġdomin": 2885,
      "Ġodun": 2886,
      "ĠKenya": 2887,
      "ger": 2888,
      "ĠUr": 2889,
      "anza": 2890,
      "port": 2891,
      "ĠáĪĿáĭµáĪŃ": 2892,
      "Bayan": 2893,
      "ĠTe": 2894,
      "Ġtake": 2895,
      "ĠUingereza": 2896,
      "hon": 2897,
      "kokin": 2898,
      "Ġcent": 2899,
      "áī²áĬ«": 2900,
      "han": 2901,
      "Un": 2902,
      "Ġmá»įÌģ": 2903,
      "áº¹Ìģáº¹ÌĢ": 2904,
      "Ġabo": 2905,
      "iá¹£áº¹Ìģ": 2906,
      "Ġáĭľ": 2907,
      "Kwa": 2908,
      "aniya": 2909,
      "cip": 2910,
      "Ġir": 2911,
      "áī¶áĪµ": 2912,
      "ett": 2913,
      "áįįáīµ": 2914,
      "áī£áĪĪ": 2915,
      "imbo": 2916,
      "áī³áĭŃ": 2917,
      "Ġwasa": 2918,
      "Ġzina": 2919,
      "tum": 2920,
      "ĠáĭķáĪĪáīµ": 2921,
      "ĠKan": 2922,
      "Ùħ": 2923,
      "ĠbÃŃi": 2924,
      "áĪµáĪĪ": 2925,
      "ĠMaj": 2926,
      "amin": 2927,
      "Ġ22": 2928,
      "áĬ¨áĭļáĪħ": 2929,
      "Ġyayin": 2930,
      "Ġilikuwa": 2931,
      "ĠáĭĻ": 2932,
      "Ġim": 2933,
      "gbÃ²": 2934,
      "ĠJe": 2935,
      "áįĪáĪį": 2936,
      "áĮ¨áĪĽáĪª": 2937,
      "áĭİáĪµ": 2938,
      "áįĭáīµ": 2939,
      "par": 2940,
      "atoli": 2941,
      "Ġupande": 2942,
      "áįĪáĭį": 2943,
      "Ġdiff": 2944,
      "Ġwajen": 2945,
      "³áį": 2946,
      "Ġwenye": 2947,
      "ĠáĬłáĭµáĪŃ": 2948,
      "ĠáīłáĪŃ": 2949,
      "áĪĭáīħ": 2950,
      "dÃŃn": 2951,
      "ĠKis": 2952,
      "ĠAla": 2953,
      "ĠMag": 2954,
      "ĠmÃº": 2955,
      "Ġáº¹gbáº¹Ìģ": 2956,
      "Ġche": 2957,
      "Ġmoja": 2958,
      "ĠAmeric": 2959,
      "ĠkÃº": 2960,
      "ĠÃ¬já»įba": 2961,
      "tiv": 2962,
      "áĬ¨áĪĪ": 2963,
      "ĠáĪĽáĭķ": 2964,
      "áĭ²áĭ«": 2965,
      "Ġentre": 2966,
      "áĪĽáīµ": 2967,
      "gbá»įÌģn": 2968,
      "Ġnyingi": 2969,
      "Ġáĭ«áĪµ": 2970,
      "ĠÃ¨tÃ²": 2971,
      "áĮįáĪµáīµ": 2972,
      "med": 2973,
      "Ġwere": 2974,
      "Ġilu": 2975,
      "áĪ¹": 2976,
      "ĠÃĵ": 2977,
      "Ġpos": 2978,
      "ley": 2979,
      "iyyar": 2980,
      "erre": 2981,
      "ĠáīĥáĪį": 2982,
      "áĪĭáĭĬ": 2983,
      "aro": 2984,
      "pen": 2985,
      "atta": 2986,
      "uv": 2987,
      "áī¨": 2988,
      "Ġyali": 2989,
      "atic": 2990,
      "Ġáī¥áĪİ": 2991,
      "Ġconst": 2992,
      "áĪ½áĬķ": 2993,
      "iwa": 2994,
      "Ġcol": 2995,
      "áĪĭáĬŃ": 2996,
      "áīłáĪį": 2997,
      "eth": 2998,
      "koa": 2999,
      "ģáĬķ": 3000,
      "ĠKusini": 3001,
      "Ġcour": 3002,
      "áĪªáĭİáī½": 3003,
      "áī«": 3004,
      "imo": 3005,
      "ĠChin": 3006,
      "Ġ188": 3007,
      "ĠáĬłáĪµáī°áĭ³": 3008,
      "Ġpart": 3009,
      "ananan": 3010,
      "áī³áĭį": 3011,
      "ĠáīµáĪĿáĪħáĪŃáīµ": 3012,
      "Ġkarne": 3013,
      "Ġbayyana": 3014,
      "Ġáī£áĪħ": 3015,
      "mbali": 3016,
      "ĠáĬ¨áĬĲ": 3017,
      "ople": 3018,
      "Ġkum": 3019,
      "áīłáĭļáĪħ": 3020,
      "Ġáį²áį": 3021,
      "Ġhas": 3022,
      "Ġsec": 3023,
      "áĭ®áī½": 3024,
      "áĬ¢áīµáĭ®áĮµáĭ«": 3025,
      "ĠayÃ©": 3026,
      "kÃ¡": 3027,
      "Ġáī°áĪ«": 3028,
      "áĪ«áĬķ": 3029,
      "Ġmanyan": 3030,
      "ĠáĬłáĪ«": 3031,
      "wÃł": 3032,
      "umb": 3033,
      "Yan": 3034,
      "áĪĬáĭ«": 3035,
      "Ġkil": 3036,
      "áĪ³áĪį": 3037,
      "ten": 3038,
      "áį»áį": 3039,
      "unia": 3040,
      "áīĢáĪĺ": 3041,
      "iyya": 3042,
      "Ġexp": 3043,
      "ges": 3044,
      "Ġáĭ¨áī³": 3045,
      "undi": 3046,
      "ĠGo": 3047,
      "ĠáĬ¨áĭļáĪħ": 3048,
      "áįĮ": 3049,
      "san": 3050,
      "Ġja": 3051,
      "ative": 3052,
      "áīĢáĪŃ": 3053,
      "áĭ°áĪĿ": 3054,
      "ĠáĪĿáĬŃáĬķáĭ«áīµ": 3055,
      "11": 3056,
      "Ġjam": 3057,
      "ĠComm": 3058,
      "umo": 3059,
      "áĭŃáĭĪáīµ": 3060,
      "Ġwadanda": 3061,
      "Ġgar": 3062,
      "ĠKo": 3063,
      "Ġchini": 3064,
      "kali": 3065,
      "Ġgina": 3066,
      "Ġáĭ®áĪĲáĬķáĪµ": 3067,
      "áĭŃáīµ": 3068,
      "con": 3069,
      "urg": 3070,
      "Ġyadda": 3071,
      "elles": 3072,
      "orin": 3073,
      "Ġye": 3074,
      "ĠUs": 3075,
      "ĠáĭŃáĮĪáĬĽáĪį": 3076,
      "áīłáĪ«": 3077,
      "195": 3078,
      "ĠáĬ¨áĬłáĪ": 3079,
      "ĠÉĹaya": 3080,
      "erikali": 3081,
      "ante": 3082,
      "ĠáīłáĭĪ": 3083,
      "ich": 3084,
      "ukuma": 3085,
      "ĠáĪĦ": 3086,
      "mÃ¬n": 3087,
      "Ġms": 3088,
      "Ġras": 3089,
      "ĠBel": 3090,
      "Ġdama": 3091,
      "ĠKam": 3092,
      "emia": 3093,
      "âĢĻa": 3094,
      "ĠáīłáĮ£áĪĿ": 3095,
      "cent": 3096,
      "eral": 3097,
      "tun": 3098,
      "ĠSan": 3099,
      "Ġáī¥áĪŃ": 3100,
      "Ġáį¡áį¡": 3101,
      "illiam": 3102,
      "Ġaut": 3103,
      "ĠAug": 3104,
      "eme": 3105,
      "ĠáīłáĬ¥áĬķ": 3106,
      "umba": 3107,
      "ukar": 3108,
      "Ġmk": 3109,
      "ĠáĬłáĪĽ": 3110,
      "ĠYork": 3111,
      "Ġkuna": 3112,
      "ĠáĭŃáī³áĭĪ": 3113,
      "ĠTr": 3114,
      "áĪ³áĭĬ": 3115,
      "ĠkÃ©k": 3116,
      "áĪµáĬķ": 3117,
      "Ã§ais": 3118,
      "Ãªme": 3119,
      "ĠViungo": 3120,
      "II": 3121,
      "áīłáī°": 3122,
      "ĠáĬ£": 3123,
      "Ġkira": 3124,
      "eneo": 3125,
      "He": 3126,
      "áĮĪáĪ©": 3127,
      "gan": 3128,
      "aribu": 3129,
      "Ġmbalimbali": 3130,
      "áĪ«áĪ±": 3131,
      "sÃłn": 3132,
      "Ġ27": 3133,
      "ĠÃ¬pÃŃnláº¹ÌĢ": 3134,
      "Ġakwai": 3135,
      "áĭĪáĭ°": 3136,
      "aux": 3137,
      "aduna": 3138,
      "yoyin": 3139,
      "Ġtas": 3140,
      "Ġprodu": 3141,
      "edia": 3142,
      "imb": 3143,
      "Ġmb": 3144,
      "ĠkÃ©kerÃ©": 3145,
      "áĪ³áī¥": 3146,
      "ĠáĪ¥áĪ«": 3147,
      "takatifu": 3148,
      "áº¹ÌĢká»įÌģ": 3149,
      "Ġmwandishi": 3150,
      "áī¥áīµ": 3151,
      "áĮĭáĪį": 3152,
      "Ġpoli": 3153,
      "ĠáĪ±": 3154,
      "ĠKe": 3155,
      "fanya": 3156,
      "dÃº": 3157,
      "Ġ28": 3158,
      "ĠEng": 3159,
      "ences": 3160,
      "amma": 3161,
      "ĠÃ¬wÃ©": 3162,
      "vu": 3163,
      "Ġsar": 3164,
      "Ġmp": 3165,
      "gbÃ¨gbÃ¨": 3166,
      "30": 3167,
      "áĮĪáĬĺáĭį": 3168,
      "Ġáĭ¶": 3169,
      "Ġdai": 3170,
      "lege": 3171,
      "unge": 3172,
      "af": 3173,
      "ibi": 3174,
      "Ġgudanar": 3175,
      "áĪ«áĪī": 3176,
      "áĭĲ": 3177,
      "oir": 3178,
      "vid": 3179,
      "Ġgidan": 3180,
      "gbegbe": 3181,
      "ĠáĪĺáĮ½áĪĲáįį": 3182,
      "wn": 3183,
      "ĠáĪĺáĪłáĪ¨": 3184,
      "ĠáĪĪáĬł": 3185,
      "Ã³Ã²": 3186,
      "Ġdang": 3187,
      "ĠáĬłáīĢ": 3188,
      "ology": 3189,
      "Ġcar": 3190,
      "Ġime": 3191,
      "ique": 3192,
      "yyar": 3193,
      "Ãī": 3194,
      "ĠBan": 3195,
      "ĠáĭĪáĬķáĭµ": 3196,
      "áĬĸáĪ©": 3197,
      "áĬķáī²": 3198,
      "áĮ£áīµ": 3199,
      "ondon": 3200,
      "ĠShe": 3201,
      "ilo": 3202,
      "ĠáĬłáĪľáĪªáĬ«": 3203,
      "fer": 3204,
      "ĠAnn": 3205,
      "ĠáĬłáīµ": 3206,
      "ĠGr": 3207,
      "ĠUnited": 3208,
      "ĠáĪĽáĬķ": 3209,
      "ÙĬ": 3210,
      "ĠáĮ¥áīħáĪĿ": 3211,
      "áĪįáĮ£áĬķ": 3212,
      "Ġalso": 3213,
      "Ġsiyasa": 3214,
      "ĠáīĭáĬķáīĭáĭİáī½": 3215,
      "194": 3216,
      "Ġáĭ¨áĪħ": 3217,
      "Ġáĭ°áĪ¨áĮĥ": 3218,
      "ĠáĪª": 3219,
      "Ġdara": 3220,
      "Ġáī½": 3221,
      "ango": 3222,
      "ĠáĬłáĭ«": 3223,
      "Ġgro": 3224,
      "Ç¹": 3225,
      "Ġjag": 3226,
      "ĠÃī": 3227,
      "áĪĽáĬķ": 3228,
      "Daga": 3229,
      "Ã¨s": 3230,
      "Ġfam": 3231,
      "áĪįáĪµ": 3232,
      "áĪĬáĬŃ": 3233,
      "rodha": 3234,
      "Ġsanya": 3235,
      "ĠDan": 3236,
      "áĬ¨áīµ": 3237,
      "Ġmutum": 3238,
      "Ġsak": 3239,
      "áĭĪáĪ°": 3240,
      "áĬĵáī¸áĭį": 3241,
      "ĠáĬ¥áĮįáĪŃ": 3242,
      "áĮĪáĪį": 3243,
      "Ġáĭ¨áĬ¤": 3244,
      "áīĥáĪµ": 3245,
      "Ġkwamba": 3246,
      "isp": 3247,
      "ĠSha": 3248,
      "laya": 3249,
      "áĪ¨áĪĿ": 3250,
      "25": 3251,
      "ĠAllah": 3252,
      "Katika": 3253,
      "áĬ¥áĪµ": 3254,
      "oman": 3255,
      "ĠJos": 3256,
      "Ġ0": 3257,
      "áįĲ": 3258,
      "mala": 3259,
      "kÃº": 3260,
      "âĢİ": 3261,
      "áĪŃáĪµáī¶áĪµ": 3262,
      "áĪĿáĬĲáīµ": 3263,
      "Ġgabatar": 3264,
      "ĠáĪ¥áĬĲ": 3265,
      "áĬĻ": 3266,
      "áĬĵáĬķ": 3267,
      "ĠáĪįáĮĨáī½": 3268,
      "ĠAnd": 3269,
      "áĬĸáĪµ": 3270,
      "ĠáĭĪáĬķáĭĿ": 3271,
      "193": 3272,
      "Ã¬dÃ¬": 3273,
      "Ġáī°áī¥áĪİ": 3274,
      "oso": 3275,
      "kiya": 3276,
      "ury": 3277,
      "Ġáīłáī³": 3278,
      "áĭĭáīĤ": 3279,
      "als": 3280,
      "adar": 3281,
      "ĠkÃ³pa": 3282,
      "Ġmwa": 3283,
      "amman": 3284,
      "lem": 3285,
      "ines": 3286,
      "Ġmahai": 3287,
      "ĠáĮŃ": 3288,
      "antu": 3289,
      "wood": 3290,
      "nÃŃ": 3291,
      "Ġtab": 3292,
      "Ġwo": 3293,
      "ĠáĭĿáĪŃáĭĿ": 3294,
      "ĠAh": 3295,
      "áīŃ": 3296,
      "Ġsababu": 3297,
      "ui": 3298,
      "Ġmf": 3299,
      "Ġáº¹láº¹Ìģ": 3300,
      "iru": 3301,
      "Ġayy": 3302,
      "ĠTara": 3303,
      "áĪĪáī²áĬ«": 3304,
      "áĭĭáĬķ": 3305,
      "Ġwan": 3306,
      "Ġmwana": 3307,
      "ature": 3308,
      "ĠáĬłáįĪ": 3309,
      "itin": 3310,
      "ĠfranÃ§ais": 3311,
      "Ġmto": 3312,
      "Ġ26": 3313,
      "gÃ©": 3314,
      "sent": 3315,
      "ĠÃģ": 3316,
      "Ġpop": 3317,
      "áĪĺáĭį": 3318,
      "Ġiliyo": 3319,
      "ĠAbd": 3320,
      "rÃ³": 3321,
      "áĪĭáĭį": 3322,
      "umu": 3323,
      "áĪ¥áĪ«": 3324,
      "ous": 3325,
      "ind": 3326,
      "ĠáĮįáī¥": 3327,
      "Ġáĭ¨áĬ¢": 3328,
      "tÃ³": 3329,
      "aron": 3330,
      "iga": 3331,
      "ĠáĮ¥áĬķ": 3332,
      "á»įÌģÃ¬dÃ¬": 3333,
      "Ġid": 3334,
      "ĠáĪĺáĬķáĮĪáĭµ": 3335,
      "Ġkammala": 3336,
      "áº¹Ìģrá»įÌģÃ¬dÃ¬": 3337,
      "ayi": 3338,
      "Ġ29": 3339,
      "ight": 3340,
      "ca": 3341,
      "Ġirin": 3342,
      "ĠGab": 3343,
      "ĠáĪĺáĪŃ": 3344,
      "Ġmutu": 3345,
      "ĠAfrican": 3346,
      "ĠÃ¡st": 3347,
      "ĠlÃ¡ra": 3348,
      "ĠÃ¡stáº¹Ìģrá»įÌģÃ¬dÃ¬": 3349,
      "Ġpad": 3350,
      "áĭĬáīµ": 3351,
      "esi": 3352,
      "ĠYa": 3353,
      "Ġáī¥áĪĶ": 3354,
      "ÙĨ": 3355,
      "áĭĪáī½": 3356,
      "ĠAc": 3357,
      "Ġkusini": 3358,
      "áĮłáīħ": 3359,
      "Ġaussi": 3360,
      "ĠUlaya": 3361,
      "ĠáĪ®": 3362,
      "ulu": 3363,
      "ĠpÃł": 3364,
      "Ġyayi": 3365,
      "áĮ®áī½": 3366,
      "Ã¨me": 3367,
      "ĠáĮ¥áĬĵáīµ": 3368,
      "uwanci": 3369,
      "áĪµáįĭ": 3370,
      "icha": 3371,
      "bÃ¹n": 3372,
      "pÃ¡": 3373,
      "áĭĺáĮĭ": 3374,
      "áĬĶáī³": 3375,
      "áĭĪáĪĪ": 3376,
      "ĠáĪĪáĪĿ": 3377,
      "Ġwaje": 3378,
      "Ġrubu": 3379,
      "Ġjirgin": 3380,
      "Wak": 3381,
      "anzia": 3382,
      "ibiyar": 3383,
      "urope": 3384,
      "ĠGre": 3385,
      "Ġmod": 3386,
      "jini": 3387,
      "ĠáĪīáīĥáĪµ": 3388,
      "Ġinter": 3389,
      "Ġ*": 3390,
      "ĠLegas": 3391,
      "Ġbirni": 3392,
      "Ġhukumar": 3393,
      "Ġyamma": 3394,
      "áĪ¾": 3395,
      "Ġhann": 3396,
      "Ġgirma": 3397,
      "ĠMuhammad": 3398,
      "áĭ«áĪį": 3399,
      "ĠKaduna": 3400,
      "Ġáī°áĪ°": 3401,
      "áįİáī½": 3402,
      "Ġsp": 3403,
      "moja": 3404,
      "pos": 3405,
      "ps": 3406,
      "áĪŁ": 3407,
      "ĠEd": 3408,
      "Ġdaban": 3409,
      "áĮłáĭį": 3410,
      "Ġhivyo": 3411,
      "ĠEb": 3412,
      "Ġáīłáĭ¨": 3413,
      "atoliki": 3414,
      "ĠAk": 3415,
      "oka": 3416,
      "Ġbut": 3417,
      "Ġfilamu": 3418,
      "Ġkwaikwa": 3419,
      "Ġsake": 3420,
      "ĠáīħáĪŃ": 3421,
      "Ġáĭ¨áĪļáĪĪáĭį": 3422,
      "Wá»įÌģn": 3423,
      "ĠÃĪkÃ³": 3424,
      "áĭķáĪ«áī¥": 3425,
      "Ġáĭ¨áĪķ": 3426,
      "Ġáīłáĭĵ": 3427,
      "Ġuh": 3428,
      "ĠáĬ¥áĬķáĮĤ": 3429,
      "BC": 3430,
      "Ġáĭ¨áĬłáĪľáĪªáĬ«": 3431,
      "ĠwaÉĹ": 3432,
      "áĪ®áĪµ": 3433,
      "Ġsuke": 3434,
      "Ġfirst": 3435,
      "gne": 3436,
      "ĠLondon": 3437,
      "ĠÃ©tÃ©": 3438,
      "Ġprin": 3439,
      "iji": 3440,
      "ĠWorld": 3441,
      "ĠChi": 3442,
      "ĠáĬŃáĪį": 3443,
      "ĠáĮīáĭ³": 3444,
      "asara": 3445,
      "ĠChar": 3446,
      "Ġkudu": 3447,
      "ĠCar": 3448,
      "fáº¹Ìģ": 3449,
      "áī°áĬķ": 3450,
      "osti": 3451,
      "igi": 3452,
      "ĠÃ©g": 3453,
      "Ġsous": 3454,
      "chn": 3455,
      "...": 3456,
      "Ġtabi": 3457,
      "Ġfina": 3458,
      "ĠJamh": 3459,
      "atsina": 3460,
      "endelea": 3461,
      "she": 3462,
      "ĠáĭĪáĭŃ": 3463,
      "ĠFrance": 3464,
      "atik": 3465,
      "fiyar": 3466,
      "áį²áį": 3467,
      "Ġáĭ¨áīµ": 3468,
      "Ġbáº¹ÌĢráº¹ÌĢ": 3469,
      "ĠPart": 3470,
      "ĠáĭŃáīĢ": 3471,
      "paka": 3472,
      "Ġits": 3473,
      "ĠáĬ¥áĬķáĭ²áĪħ": 3474,
      "Ġkad": 3475,
      "lie": 3476,
      "Ġli": 3477,
      "Ġact": 3478,
      "ĠáĮĮ": 3479,
      "Ġkula": 3480,
      "ayen": 3481,
      "ĠFo": 3482,
      "Ġipa": 3483,
      "ĠIndi": 3484,
      "ĠState": 3485,
      "ĠáĪģáĪĪ": 3486,
      "Ġáī»": 3487,
      "led": 3488,
      "áĬĲáī±": 3489,
      "dadi": 3490,
      "Ġáī³áĪªáĬ«áĭĬ": 3491,
      "ĠáįķáĪ¬": 3492,
      "uf": 3493,
      "áī¥áĪ¨áīµ": 3494,
      "jar": 3495,
      "Ġfannin": 3496,
      "ĠáīµáĬķ": 3497,
      "ĠáĪĺáĮ¨áĪ¨áĪ»": 3498,
      "ĠgÃ©n": 3499,
      "Ġnombre": 3500,
      "ĠáĪķáĭĿáī¥": 3501,
      "ĠWat": 3502,
      "Ġfait": 3503,
      "ogun": 3504,
      "esa": 3505,
      "Ġyao": 3506,
      "áĬŃáĪī": 3507,
      "Sa": 3508,
      "Ġpers": 3509,
      "ĠInternational": 3510,
      "áĮĦ": 3511,
      "husu": 3512,
      "ĠÃ¬dÃŃ": 3513,
      "joibi": 3514,
      "Ġkili": 3515,
      "ĠáīłáĬĲ": 3516,
      "arabu": 3517,
      "ĠgbÃł": 3518,
      "ĠsÃ©": 3519,
      "ĠWest": 3520,
      ")áį£": 3521,
      "ros": 3522,
      "áīłáĪ©áīµ": 3523,
      "ĠáĬłáĮĪáĪį": 3524,
      "áĪ¨áĪ°": 3525,
      "soci": 3526,
      "áĪĺáĪį": 3527,
      "ĠEl": 3528,
      "áĪŃáī²": 3529,
      "áī°áĭĭáĪį": 3530,
      "Ġmutanen": 3531,
      "anzi": 3532,
      "Ġká»įÌģ": 3533,
      "ive": 3534,
      "weza": 3535,
      "ĠjÃ¹lá»į": 3536,
      "Ġos": 3537,
      "red": 3538,
      "Ġbiyar": 3539,
      "áĪĺáĭµ": 3540,
      "ĠdÃ©c": 3541,
      "ĠáĭĿáĪŃáĭĿáĪŃ": 3542,
      "ĠIpinle": 3543,
      "áº¹ÌģtÃ¬": 3544,
      "lÃŃ": 3545,
      "ĠBabban": 3546,
      "Ġzin": 3547,
      "ĠáīłáĬ©": 3548,
      "ĠCollege": 3549,
      "Ġáįĭ": 3550,
      "191": 3551,
      "ĠplÃ¡n": 3552,
      "ĠDo": 3553,
      "ĠáĭŃáī½áĪĭáĪį": 3554,
      "áĭįáĪ®áįĵ": 3555,
      "ĠBrit": 3556,
      "áĬ¨áī°áĪĽ": 3557,
      "ĠUfaransa": 3558,
      "ĠáĮįáĭµáĪĿ": 3559,
      "ĠNational": 3560,
      "ĠÃ¬gbÃłjÃ¡": 3561,
      "uss": 3562,
      "unin": 3563,
      "áĪ«áĪ²": 3564,
      "Ġkilom": 3565,
      "áīłáĬł": 3566,
      "fuat": 3567,
      "ĠáĬłáĪĺáīµ": 3568,
      "Ġarewa": 3569,
      "áĮįáĬķ": 3570,
      "ĠáĮĬ": 3571,
      "ĠáĬĲáĮ»": 3572,
      "ĠáĪģáĬĶáī³": 3573,
      "uro": 3574,
      "ach": 3575,
      "utu": 3576,
      "50": 3577,
      "Ġkaramar": 3578,
      "áī¤áī°": 3579,
      "áĭ«áĭĬ": 3580,
      "des": 3581,
      "Ġlar": 3582,
      "áī»áī¸áĭį": 3583,
      "ip": 3584,
      "áĪħáĬķ": 3585,
      "ĠOs": 3586,
      "ĠHo": 3587,
      "ĠBah": 3588,
      "fÃł": 3589,
      "áĬĲáĪ³": 3590,
      "nu": 3591,
      "ĠYuni": 3592,
      "Am": 3593,
      "wara": 3594,
      "ĠMai": 3595,
      "Ġyenye": 3596,
      "Ġmad": 3597,
      "ashara": 3598,
      "ĠAugust": 3599,
      "Ġtáº¹Ìģ": 3600,
      "áĪģáĬķ": 3601,
      "Ġwalio": 3602,
      "192": 3603,
      "Ġcette": 3604,
      "Ã¨res": 3605,
      "dÃł": 3606,
      "wahili": 3607,
      "áĪ¶áī½": 3608,
      "ĠplÃ¡náº¹ÌģtÃ¬": 3609,
      "ler": 3610,
      "ĠBu": 3611,
      "iriki": 3612,
      "áĭ¨áĪĿ": 3613,
      "ĠCha": 3614,
      "Ġnaa": 3615,
      "ĠFil": 3616,
      "ĠKim": 3617,
      "ĠJanuari": 3618,
      "á¹£áº¹ÌĢ": 3619,
      "Ġambayo": 3620,
      "Ġuti": 3621,
      "Ġruwa": 3622,
      "áĪĪáĪĽ": 3623,
      "ĠMan": 3624,
      "ĠáĪļáĬĴ": 3625,
      "lam": 3626,
      "ork": 3627,
      "ÃĴ": 3628,
      "Ġáī±": 3629,
      "ced": 3630,
      "ĠáįĪáĪŃ": 3631,
      "Ġsau": 3632,
      "ĠShugaban": 3633,
      "Ġshug": 3634,
      "Ġvita": 3635,
      "áĭļáīĥ": 3636,
      "áĬ¸": 3637,
      "ĠáĪĺáĪįáĬŃ": 3638,
      "Ġuna": 3639,
      "Ġsauran": 3640,
      "Ġbai": 3641,
      "Ġmita": 3642,
      "áĭĪáĮ£": 3643,
      "lamu": 3644,
      "ĠáĬŃáĪŃáĪµáī²áĭ«áĬķ": 3645,
      "ĠáĬĲáĮĪáĪ®áī½": 3646,
      "ĠAgosti": 3647,
      "ĠdÃŃ": 3648,
      "alo": 3649,
      "áĬ¥áĬķáĮįáĪĬáĭĿáĬĽ": 3650,
      "Ġrayuwa": 3651,
      "má»įÌģ": 3652,
      "pá»į": 3653,
      "áĭ¨áĬł": 3654,
      "Ġáī¢áĪĨáĬķ": 3655,
      "fÃ¡": 3656,
      "ĠWas": 3657,
      "ĠmÃ©jÃ¬": 3658,
      "cri": 3659,
      "ms": 3660,
      "ild": 3661,
      "ĠUg": 3662,
      "Ġserikali": 3663,
      "áī´áĭİáĪµ": 3664,
      "kiyar": 3665,
      "udi": 3666,
      "Ġáīłáĭį": 3667,
      "SB": 3668,
      "ĠáĭŃáĪĺáĪµ": 3669,
      "ĠDis": 3670,
      "ĠOb": 3671,
      "col": 3672,
      "Ġban": 3673,
      "cess": 3674,
      "Ġmusul": 3675,
      "áĭĭáĬĵ": 3676,
      "orun": 3677,
      "ĠáĭĺáĪŃ": 3678,
      "ĠWilliam": 3679,
      "ĠSouth": 3680,
      "yá»į": 3681,
      "Ġáĭ¨áĪĽáĭŃ": 3682,
      "ĠPet": 3683,
      "Ġkaskazini": 3684,
      "ĠáĭŃáĪĨ": 3685,
      "Ġel": 3686,
      "áĪĤ": 3687,
      "pend": 3688,
      "áĪĽáĬĸáīµ": 3689,
      "aima": 3690,
      "Ġaá¹£": 3691,
      "Ġbas": 3692,
      "ĠPort": 3693,
      "ĠSar": 3694,
      "Ġáĭ«áĪħáĪį": 3695,
      "ĠáĬ¥áĬĲ": 3696,
      "áĪĽáĪį": 3697,
      "ĠáĭŃáĪħáĪĿ": 3698,
      "yon": 3699,
      "ĠáĪ¦": 3700,
      "Ġhave": 3701,
      "Ġacc": 3702,
      "ange": 3703,
      "ĠáĬ¡": 3704,
      "ĠCity": 3705,
      "Ġhukumomin": 3706,
      "fia": 3707,
      "Ġáįª": 3708,
      "áĮĪáĭ°": 3709,
      "áº¸": 3710,
      "ĠÐ": 3711,
      "ĠkejÃ¬": 3712,
      "ĠáīłáĪĻ": 3713,
      "áĪīáĪĿ": 3714,
      ".,": 3715,
      "Ita": 3716,
      "ĠáĬłáĪĪáĭį": 3717,
      "Ġsyst": 3718,
      "ĠJulai": 3719,
      "Ġmab": 3720,
      "ĠBab": 3721,
      "ĠáĭµáĪŃáĮħ": 3722,
      "gÃ¹n": 3723,
      "ÙĪ": 3724,
      "áįĶ": 3725,
      "Ġmaji": 3726,
      "ĠáĭŃáĭĺ": 3727,
      "Ar": 3728,
      "Ġkarni": 3729,
      "áĮĢáĪŃáĪĺáĬķ": 3730,
      "FA": 3731,
      "Ġmak": 3732,
      "Ġver": 3733,
      "ĠáĪĿáĬķáĪĿ": 3734,
      "kashin": 3735,
      "aben": 3736,
      "Ġyau": 3737,
      "lejin": 3738,
      "Ġilimi": 3739,
      "attalin": 3740,
      "wá»į": 3741,
      "ĠPl": 3742,
      "Ġmaeneo": 3743,
      "ĠorÃºká»į": 3744,
      "overn": 3745,
      "rÃł": 3746,
      "áĪ«áī¸áĭį": 3747,
      "Ġont": 3748,
      "Ġtsarin": 3749,
      "ĠáĪĺáĮĢáĪĺáĪŃáĭ«": 3750,
      "sid": 3751,
      "Ġuk": 3752,
      "'um": 3753,
      "Ġlashe": 3754,
      "Ġpla": 3755,
      "ĠáīłáĪ½": 3756,
      "Ġmaza": 3757,
      "nÃł": 3758,
      "ĠIlÃ©": 3759,
      "ĠgbajÃº": 3760,
      "ombe": 3761,
      "ispania": 3762,
      "Äģ": 3763,
      "Ġmawa": 3764,
      "Ġáĭ¨áī£": 3765,
      "iye": 3766,
      "Ġdigiri": 3767,
      "áį«": 3768,
      "Ġbáº¹Ìģáº¹ÌĢ": 3769,
      "rÃŃn": 3770,
      "Ġdont": 3771,
      "ĠáĪĿáĬķáĮ®áī½": 3772,
      "cto": 3773,
      "Ġáī°áįĪ": 3774,
      "áĭ¨áĪ±": 3775,
      "ĠáĪł": 3776,
      "ĠáĭŃáĪ°": 3777,
      "ĠáĭŃáĪħáĬķ": 3778,
      "tan": 3779,
      "áī£áĪĪáĭį": 3780,
      "ĠÃ¬má»įÌĢ": 3781,
      "ologie": 3782,
      "Ġáĭ¨áĬ«": 3783,
      "áīłáĪĪ": 3784,
      "urn": 3785,
      "ĠKir": 3786,
      "ĠÃ¬tá»įÌģkasÃŃ": 3787,
      "izikia": 3788,
      "áĪ·": 3789,
      "ĠJuni": 3790,
      "áĬ¥áĬķáĭ°": 3791,
      "áĪĭáĪ´": 3792,
      "ĠáĪĿáĪŃ": 3793,
      "Ġáĭ¨áī°áĪ°": 3794,
      "lig": 3795,
      "áĪĺáĪ°": 3796,
      "áĪĭáĪĪ": 3797,
      "ĠAde": 3798,
      "ics": 3799,
      "Ġcer": 3800,
      "ĠOgun": 3801,
      "áīłáĪĺ": 3802,
      "Ġsoci": 3803,
      "Ġáĭĭáī¢": 3804,
      "ĠYar": 3805,
      "mer": 3806,
      "Ġdir": 3807,
      "Ġag": 3808,
      "áĬŃáĪŃ": 3809,
      "Ġcons": 3810,
      "ctions": 3811,
      "isto": 3812,
      "¹¢": 3813,
      "áĬķáĭ±": 3814,
      "ĠáĪĽáĪŃáīĨ": 3815,
      "Ġtal": 3816,
      "ĠáĪĺáĪĨáĬĳ": 3817,
      "ĠnÃŃbi": 3818,
      "ĠFizikia": 3819,
      "ages": 3820,
      "lÃ³gÃºn": 3821,
      "ĠjÃ¡de": 3822,
      "Ġge": 3823,
      "ĠSp": 3824,
      "illa": 3825,
      "ĠCent": 3826,
      "ĠOá¹£Ã¹": 3827,
      "Ġkamfanin": 3828,
      "Ġwakil": 3829,
      "ĠáĮ½áĪĳ": 3830,
      "Ġkit": 3831,
      "ĠTiba": 3832,
      "ĠáĪµáĪĻ": 3833,
      "ĠÆĺ": 3834,
      "áįª": 3835,
      "kama": 3836,
      "ĠMachi": 3837,
      "ĠParty": 3838,
      "ĠwÃŃpÃ©": 3839,
      "Ġmusamman": 3840,
      "www": 3841,
      "Ġkwaikwayo": 3842,
      "Ġno": 3843,
      "190": 3844,
      "Ġ187": 3845,
      "ĠSec": 3846,
      "thiop": 3847,
      "âĢĻar": 3848,
      "ĠáĪłáĪ«": 3849,
      "Ġkilomita": 3850,
      "Ġmá»įÌĢ": 3851,
      "ĠCl": 3852,
      "eman": 3853,
      "Ġvo": 3854,
      "ĠáĬħ": 3855,
      "Ġmis": 3856,
      "áĬķáĭ°": 3857,
      "ĠAwards": 3858,
      "ĠáĮłáĪ": 3859,
      "ĠáĪ¥áĪŃáĭĪ": 3860,
      "ĠáĪĺáĭµ": 3861,
      "ĠáĬłáĪ³": 3862,
      "Ġwaki": 3863,
      "ĠNigerian": 3864,
      "áĭ³áĪŃ": 3865,
      "ĠáĪĺáĪª": 3866,
      "Ġlake": 3867,
      "ĠDi": 3868,
      "Af": 3869,
      "vyo": 3870,
      "ĠSal": 3871,
      "Ġmam": 3872,
      "Ġtaima": 3873,
      "rili": 3874,
      "ĠdÃ©part": 3875,
      "sáº¹ÌĢ": 3876,
      "hel": 3877,
      "ĠáĭĪáĮĪáĬķ": 3878,
      "ws": 3879,
      "ĠáĪĤ": 3880,
      "Ġmfalme": 3881,
      "liwa": 3882,
      "ĠFor": 3883,
      "Ġáĭ°áĪ´": 3884,
      "áĪĭáĪĽ": 3885,
      "Ġtemp": 3886,
      "Ġcor": 3887,
      "Ġáĭ¨áĪ¥": 3888,
      "ĠYamma": 3889,
      "asihi": 3890,
      "Ġzaman": 3891,
      "ĠMajalisar": 3892,
      "Ġpays": 3893,
      "ĠáĭĪáĪ¨áĭ³": 3894,
      "áĭļáĪģ": 3895,
      "men": 3896,
      "Ã¡ra": 3897,
      "ĠáĪĿáĪįáĬŃ": 3898,
      "ĠJa": 3899,
      "ater": 3900,
      "áī¶áī½áĬķ": 3901,
      "Ġht": 3902,
      "Ġsim": 3903,
      "Ġáį¤": 3904,
      "ĠDec": 3905,
      "Ġall": 3906,
      "Ġ186": 3907,
      "ĠáĬ¨áĬ¥": 3908,
      "Ġsub": 3909,
      "áįĪáĪ¨áĬķáĪ³áĭŃ": 3910,
      "igizaji": 3911,
      "ĠMad": 3912,
      "23": 3913,
      "ĠÃ©ta": 3914,
      "onde": 3915,
      "Ã©ri": 3916,
      "áĪĺáĮ£": 3917,
      "áī½áĭį": 3918,
      "ete": 3919,
      "'il": 3920,
      "rá»į": 3921,
      "ĠáĬĴ": 3922,
      "áĪ°áĬķ": 3923,
      "tions": 3924,
      "jan": 3925,
      "áĭķáĪį": 3926,
      "ily": 3927,
      "ĠParis": 3928,
      "Ġhttp": 3929,
      "iter": 3930,
      "ĠáĬĸ": 3931,
      "aifaff": 3932,
      "ĠAare": 3933,
      "ulation": 3934,
      "ĠÃłká»įÌģká»įÌģ": 3935,
      "SBN": 3936,
      "tes": 3937,
      "ling": 3938,
      "áĪ¡": 3939,
      "Ġtangu": 3940,
      "upe": 3941,
      "áĮ¥áĪ¨": 3942,
      "risti": 3943,
      "Ġlambar": 3944,
      "ĠMtakatifu": 3945,
      "ĠáĬłáĪĪáīĥ": 3946,
      "ĠFaransa": 3947,
      "Ġjagor": 3948,
      "Ġáĭ¨áĭĺ": 3949,
      "ĠTs": 3950,
      "áĭĳ": 3951,
      "ĠáĮħ": 3952,
      "ĠáĭķáĪĪ": 3953,
      "áĪłáĪ«": 3954,
      "ĠKatsina": 3955,
      "áĮ¥áĪ®": 3956,
      "Ġhukuma": 3957,
      "ÃĪ": 3958,
      "orge": 3959,
      "ĠMei": 3960,
      "ĠPer": 3961,
      "ĠáĪ´áīµ": 3962,
      "ĠChina": 3963,
      "fs": 3964,
      "Ġbab": 3965,
      "ĠáĬłáĪ¸": 3966,
      "asha": 3967,
      "Ġkarkashin": 3968,
      "ements": 3969,
      "ancin": 3970,
      "ĠBer": 3971,
      "áĮĪáīł": 3972,
      "áĬ®áī½": 3973,
      "sin": 3974,
      "ĠáĪº": 3975,
      "ĠPol": 3976,
      "áĪ³áī¸áĭį": 3977,
      "Ġlabar": 3978,
      "ĠMashariki": 3979,
      "Ãłráº¹": 3980,
      "Ġáī³áĭĭáīĤ": 3981,
      "ĠáĭŃáĪĨáĬĵáĪį": 3982,
      "bÃ²": 3983,
      "ĠáĬ¥áĭį": 3984,
      "ĠáĬłáĮ¥": 3985,
      "ĠáīłáĪĮ": 3986,
      "ographi": 3987,
      "Ġpáº¹": 3988,
      "Ġáīłáī°áĪĪáĭŃ": 3989,
      "Ġpeke": 3990,
      "Ġsunan": 3991,
      "ĠáĬŃáįįáĪĭ": 3992,
      "áĮ¦áĪŃ": 3993,
      "Ġndani": 3994,
      "esha": 3995,
      "ista": 3996,
      "wanda": 3997,
      "Ġbec": 3998,
      "áĬ«áĪį": 3999,
      "áĭ²áĪħ": 4000,
      "ĠDesemba": 4001,
      "áĮįáī¥áĮ½": 4002,
      "22": 4003,
      "áĮĪáī¥": 4004,
      "Ġlori": 4005,
      "Ġtak": 4006,
      "áĪ±áĪĿ": 4007,
      "áĭ³áĪĿ": 4008,
      "Ġkaribu": 4009,
      "Ġbang": 4010,
      "badan": 4011,
      "fÃŃ": 4012,
      "lÃ²": 4013,
      "itt": 4014,
      "ĠáĬłáĭŃáĭ°": 4015,
      "Ġkuanzia": 4016,
      "áĬ¹": 4017,
      "ĠrÃ©gion": 4018,
      "ĠáīłáĪģ": 4019,
      "hen": 4020,
      "ÉĹa": 4021,
      "Ġasalin": 4022,
      "Ġaká»į": 4023,
      "ĠagbÃ¨gbÃ¨": 4024,
      "á¹£Ã¨lÃº": 4025,
      "zer": 4026,
      "Ġut": 4027,
      "Ġjari": 4028,
      "Ġzamani": 4029,
      "'h": 4030,
      "Ġsani": 4031,
      "'ex": 4032,
      "lect": 4033,
      "ĠáīłáĮ¥": 4034,
      "Ġpeut": 4035,
      "ĠAprili": 4036,
      "aifaffun": 4037,
      "Ġlab": 4038,
      "ĠáĬłáĭ°": 4039,
      "Ġdur": 4040,
      "Ġstr": 4041,
      "áĮįáĪį": 4042,
      "ain": 4043,
      "áĪĺáī±": 4044,
      "Ġmalla": 4045,
      "ĠAmerican": 4046,
      "Ġlong": 4047,
      "Ġmeng": 4048,
      "ĠIli": 4049,
      "áįĪáīµ": 4050,
      "Ġher": 4051,
      "áĪ¨áī¥": 4052,
      "ĠáĪ»": 4053,
      "24": 4054,
      "Ġdist": 4055,
      "Ġkayan": 4056,
      "Ġmace": 4057,
      "ĠáīĢáĮ¥": 4058,
      "ikuu": 4059,
      "Ġder": 4060,
      "ĠmÃŃ": 4061,
      "áĬĲáĮĪ": 4062,
      "ĠÃŃ": 4063,
      "Ġbisa": 4064,
      "Ġkwallon": 4065,
      "Ġchake": 4066,
      "áĪŃáĭ«áĪĿ": 4067,
      "áįĳ": 4068,
      "áĭ³áĪį": 4069,
      "rop": 4070,
      "áĪĿáĪħáĪŃ": 4071,
      "opo": 4072,
      "áĮłáĪ©": 4073,
      "Ø±": 4074,
      "Ġhuko": 4075,
      "áįĪáĪµ": 4076,
      "áį¶": 4077,
      "ilar": 4078,
      "arci": 4079,
      "Ġdali": 4080,
      "ove": 4081,
      "vent": 4082,
      "Ġnau": 4083,
      "ĠáĬĵáīµ": 4084,
      "Ġáº¹ni": 4085,
      "áĭµáĪ¨áĮį": 4086,
      "way": 4087,
      "Ġagb": 4088,
      "lima": 4089,
      "ĠÃłmÃ¬": 4090,
      "ander": 4091,
      "Ġaliye": 4092,
      "ĠSeptemba": 4093,
      "ĠMak": 4094,
      "Ġako": 4095,
      "ĠKananan": 4096,
      "ĠTari": 4097,
      "ģáĬĳ": 4098,
      "ets": 4099,
      "ĠPh": 4100,
      "áĪķáĪŃ": 4101,
      "lor": 4102,
      "anna": 4103,
      "Ġnada": 4104,
      "dÃ³": 4105,
      "huwar": 4106,
      "ĠmÃªme": 4107,
      "ĠáĪĺáĪłáĪ¨áīµ": 4108,
      "tá»įÌĢ": 4109,
      "Ġtheir": 4110,
      "áĮįáĪİ": 4111,
      "ĠBro": 4112,
      "ĠáĬ¥áĭ¨áī°": 4113,
      "áĮłáĬĵ": 4114,
      "Ġshirin": 4115,
      "Ġcommun": 4116,
      "ĠMis": 4117,
      "yd": 4118,
      "hed": 4119,
      "Ġtsohon": 4120,
      "ĠTo": 4121,
      "ĠáĭŃáī³áĭĪáīĥáĪį": 4122,
      "âĢº": 4123,
      "ĠHot": 4124,
      "áĬĹ": 4125,
      "ĠagbÃ¡": 4126,
      "Ġthis": 4127,
      "ino": 4128,
      "ĠáĬ¥áĬĲáĭļáĪħ": 4129,
      "áį®": 4130,
      "score": 4131,
      "áĬĥ": 4132,
      "Ġyabo": 4133,
      "Ġleur": 4134,
      "istory": 4135,
      "Ġkara": 4136,
      "áĪ¨áĮĭ": 4137,
      "Ġoffic": 4138,
      "ones": 4139,
      "ourn": 4140,
      "sÃ¹": 4141,
      "Ġrel": 4142,
      "ĠRay": 4143,
      "ĠKudu": 4144,
      "áĪ©áīµ": 4145,
      "Ġciki": 4146,
      "yyun": 4147,
      "Ġmwigizaji": 4148,
      "ká»įÌĢá»įÌģ": 4149,
      "Ã¯": 4150,
      "ĠáĪĽáī´áĭİáĪµ": 4151,
      "áįĵáĬķ": 4152,
      "láº¹": 4153,
      "Ã¬mÃ¹": 4154,
      "Ġuhuru": 4155,
      "Ġiko": 4156,
      "áī£áĭĬ": 4157,
      "ĠáĪµáīµ": 4158,
      "ism": 4159,
      "day": 4160,
      "ĠDar": 4161,
      "Ġret": 4162,
      "ĠáĪĺáĬĲ": 4163,
      "Ġáĭįáĭµ": 4164,
      "ĠáĬ¬": 4165,
      "Ġjerin": 4166,
      "ĠáĭķáĪĪáī³áīµ": 4167,
      "uld": 4168,
      "http": 4169,
      "On": 4170,
      "ĪáĪĿ": 4171,
      "ĠÃĮtá»įÌģkasÃŃ": 4172,
      "Ġkutokana": 4173,
      "As": 4174,
      "ĠBal": 4175,
      "olly": 4176,
      "Ab": 4177,
      "Ġlokaci": 4178,
      "Walio": 4179,
      "Ġsc": 4180,
      "Ġlin": 4181,
      "áĭ°áĮį": 4182,
      "ĠRaya": 4183,
      "ĠáĪĺáĭĿ": 4184,
      "wana": 4185,
      "Ġcal": 4186,
      "ouver": 4187,
      "ĠFebruari": 4188,
      "vir": 4189,
      "áĪ¯": 4190,
      "kawa": 4191,
      "Ġ185": 4192,
      "AN": 4193,
      "áĮ¹": 4194,
      "omen": 4195,
      "Ġáĭ´": 4196,
      "ĠWan": 4197,
      "ĠCor": 4198,
      "yÃ¡": 4199,
      "ral": 4200,
      "Ġone": 4201,
      "27": 4202,
      "Ha": 4203,
      "Ġfe": 4204,
      "cÃ©": 4205,
      "áĮĪáĭį": 4206,
      "Ġpuis": 4207,
      "ĠLes": 4208,
      "Ġmulki": 4209,
      "Ġmajalisar": 4210,
      "ÙĲ": 4211,
      "ĠSi": 4212,
      "ĠJanuary": 4213,
      "26": 4214,
      "Ġmot": 4215,
      "ĠNovemba": 4216,
      "rÃ¡": 4217,
      "yl": 4218,
      "ĠáĮ¥áĬķáī³áĭĬ": 4219,
      "ĠRob": 4220,
      "ĠEurope": 4221,
      "ĠâĢ¢": 4222,
      "Ã²rÃ¹n": 4223,
      "Ġutilis": 4224,
      "ulture": 4225,
      "ĠRais": 4226,
      "áį·": 4227,
      "ĠÃłwon": 4228,
      "asaha": 4229,
      "ĠáīĢáĬĵáīµ": 4230,
      "ĠáĬłáĪģáĬķ": 4231,
      "ulani": 4232,
      "Ġgrand": 4233,
      "Ġmasana": 4234,
      "pele": 4235,
      "Ġá»įÌĢpá»įÌĢ": 4236,
      "iyoyin": 4237,
      "ĠMusulunci": 4238,
      "ĠÃª": 4239,
      "iver": 4240,
      "jiya": 4241,
      "osai": 4242,
      "ĠKya": 4243,
      "áĪĽáī½": 4244,
      "ĠáĪĿáĪµ": 4245,
      "ĠáĪŀáīµ": 4246,
      "áĮĪáĪª": 4247,
      "áĭ®áĪŃ": 4248,
      "cer": 4249,
      "vers": 4250,
      "ĠáĭĪáĪ¨": 4251,
      "áĭ¨áī°": 4252,
      "ĠáĭŃáĪĭáĪį": 4253,
      "rid": 4254,
      "Ġainsi": 4255,
      "áĪŃáĪµáī²áĭ«": 4256,
      "rÃº": 4257,
      "áĭĪáĪŃ": 4258,
      "/)": 4259,
      "ĠcrÃ©": 4260,
      "Ġcap": 4261,
      "omb": 4262,
      "aru": 4263,
      "atur": 4264,
      "ĠRep": 4265,
      "Ġáĭ¨áĪĻ": 4266,
      "pi": 4267,
      "ĠMutane": 4268,
      "ĠGer": 4269,
      "ĠáĭĵáĪĪáĪĿ": 4270,
      "28": 4271,
      "ilu": 4272,
      "áįĪáĪĪ": 4273,
      "met": 4274,
      "Ġaki": 4275,
      "Ġnon": 4276,
      "ĠOrodha": 4277,
      "Ġkaratu": 4278,
      "ĠáįĵáĪŃáī²": 4279,
      "áĪ»áĭİáī½": 4280,
      "Ġkik": 4281,
      "Ġpelu": 4282,
      "ĠyÃ³Ã²": 4283,
      "áĭ®áĪµ": 4284,
      "asiasa": 4285,
      "áī³áī¸áĭįáĬķ": 4286,
      "ĠáĬłáĬķáĭ³": 4287,
      "áĮįáī£": 4288,
      "ings": 4289,
      "hidi": 4290,
      "áĪĽáĪŃ": 4291,
      "ĠáīłáĬłáĬķáĭµ": 4292,
      "ĠKáº¹": 4293,
      "ĠEm": 4294,
      "ĠSaint": 4295,
      "Ku": 4296,
      "Ġáīłáīµ": 4297,
      "ĠIle": 4298,
      "Ġáĭ¨áĬ¥áĪµ": 4299,
      "Ġwilaya": 4300,
      "ĠEx": 4301,
      "ĠKemia": 4302,
      "ĠHaifaffun": 4303,
      "cher": 4304,
      "áįĦ": 4305,
      "áĪĵ": 4306,
      "imu": 4307,
      "ĠáĬłáĬ«áĪį": 4308,
      "áī¥áĭĻ": 4309,
      "ĠsÃŃláº¹ÌĢ": 4310,
      "ĠÃ²á¹£": 4311,
      "ĠáĪĺáĬķáĮįáĪµáīµ": 4312,
      "Ġyara": 4313,
      "Ġed": 4314,
      "amad": 4315,
      "ĠAsia": 4316,
      "Ġpekee": 4317,
      "ĠEthiop": 4318,
      "áĭĭáīµ": 4319,
      "ours": 4320,
      "Ä«": 4321,
      "alia": 4322,
      "Ġother": 4323,
      "arautar": 4324,
      "Ġrais": 4325,
      "Ġilimin": 4326,
      "ĠAbdul": 4327,
      "21": 4328,
      "Ġshirya": 4329,
      "ĠwaÉĹanda": 4330,
      "'i": 4331,
      "áīº": 4332,
      "Ġlui": 4333,
      "raz": 4334,
      "Ġáĭ°áī¡áī¥": 4335,
      "ient": 4336,
      "ĠáĭŃáĪĺáĪµáĪĭáĪį": 4337,
      "ĠÎ": 4338,
      "áį©": 4339,
      "omon": 4340,
      "ner": 4341,
      "Pa": 4342,
      "áĮłáīĢáĪĿ": 4343,
      "por": 4344,
      "ĠáĬŃáĪįáĪį": 4345,
      "Ġmasa": 4346,
      "ĠMon": 4347,
      "ilia": 4348,
      "jeo": 4349,
      "Ġrasmi": 4350,
      "anada": 4351,
      "áī»áĭŃáĬĵ": 4352,
      "ateur": 4353,
      "ince": 4354,
      "Ġtena": 4355,
      "áĬĵáĪįáī£áīµ": 4356,
      "Ġrubuta": 4357,
      "Ġwote": 4358,
      "dic": 4359,
      "Ġáį³áį": 4360,
      "Ġáĭ¨áĬĲáīłáĪ¨áĭį": 4361,
      "ĠSte": 4362,
      "áĭ¨áĪ±áĪµ": 4363,
      "yu": 4364,
      "imÃ¡": 4365,
      "Ġáī¥áĪĪáĭį": 4366,
      "ĠáĭµáĪĿ": 4367,
      "ĠgÃ©nÃ©r": 4368,
      "Ġada": 4369,
      "atan": 4370,
      "ĠÃłgbÃ©": 4371,
      "áº¹ÌĢáº¹Ìģ": 4372,
      "zu": 4373,
      "áĮįáĪµ": 4374,
      "juli": 4375,
      "ojoibi": 4376,
      "Ġ%": 4377,
      "Ġwho": 4378,
      "utt": 4379,
      "ĠÃªtre": 4380,
      "oph": 4381,
      "ĠáįĪáĪŃáĭĸ": 4382,
      "pas": 4383,
      "áĪĮáĬŃáīµ": 4384,
      "finai": 4385,
      "ĠÃ©t": 4386,
      "áĪıáĪį": 4387,
      "ĠrÃ¨": 4388,
      "Ġasa": 4389,
      "asan": 4390,
      "áĪĺáĪ«": 4391,
      "ĠDem": 4392,
      "ments": 4393,
      "Ki": 4394,
      "áī¼": 4395,
      "my": 4396,
      "Ġprof": 4397,
      "Ġhaifi": 4398,
      "kunan": 4399,
      "áĬĲáīłáĪŃ": 4400,
      "Ġmagana": 4401,
      "Ġfit": 4402,
      "áĪĪáī¥": 4403,
      "Ġáĭ¨áĪļáĪį": 4404,
      "bert": 4405,
      "Ġáĭ¨áĪĿáīµ": 4406,
      "ubli": 4407,
      "Ġfarkon": 4408,
      "ĠáĪĨáĬĲáĭį": 4409,
      "áĮłáīĥáĪĭáĭŃ": 4410,
      "ĠRayayyun": 4411,
      "Har": 4412,
      "dom": 4413,
      "ely": 4414,
      "ĠHukum": 4415,
      "báº¹ÌĢráº¹ÌĢ": 4416,
      "aria": 4417,
      "áĪįáĭ°": 4418,
      "ĠáĬķáĮīáĪµ": 4419,
      "Ġasili": 4420,
      "áį¯": 4421,
      "Ġhalarci": 4422,
      "Ã¹gbá»įÌģn": 4423,
      "á¹£i": 4424,
      "ĠØ§": 4425,
      "Ġpartie": 4426,
      "'en": 4427,
      "ĠgÃŃ": 4428,
      "ĠáĪ³áĭŃáĪĨáĬķ": 4429,
      "lob": 4430,
      "áī³áĭ°": 4431,
      "áį¬": 4432,
      "ĠAgba": 4433,
      "Ġkut": 4434,
      "áĬ©áĪį": 4435,
      "ĠáĪĺáĮ»": 4436,
      "ĠnÃŃnu": 4437,
      "ÆĻa": 4438,
      "dini": 4439,
      "sÃ¬n": 4440,
      "Ġduni": 4441,
      "áĪįáīµ": 4442,
      "fauti": 4443,
      "ĠSun": 4444,
      "ado": 4445,
      "Ùı": 4446,
      "Ġvari": 4447,
      "áĭ«áĭį": 4448,
      "usta": 4449,
      "ĠNorth": 4450,
      "ĠáĬłáī£áĪį": 4451,
      "ĠSeptember": 4452,
      "áī²áĬķ": 4453,
      "Ġpres": 4454,
      "ĠáĪĪáĭį": 4455,
      "ĠÃ²un": 4456,
      "Ġharshen": 4457,
      "ĠÃ©galement": 4458,
      "ĠáĬ¥áĬķáĪµ": 4459,
      "'E": 4460,
      "ĠáĬĳ": 4461,
      "lla": 4462,
      "Ġogun": 4463,
      "Tare": 4464,
      "áĮłáįĭ": 4465,
      "Ġgwamnatin": 4466,
      "ando": 4467,
      "wezi": 4468,
      "ĠÃłkÃ³": 4469,
      "ĠáĪĽáĪħ": 4470,
      "amuziki": 4471,
      "Ġmkubwa": 4472,
      "Sh": 4473,
      "Wa": 4474,
      "'o": 4475,
      "AS": 4476,
      "ĠDecember": 4477,
      "dÃ¹": 4478,
      "Ġáīłáīħ": 4479,
      "ĠKik": 4480,
      "áĪ«áĪµ": 4481,
      "ĠDel": 4482,
      "Ġvile": 4483,
      "âĢ¦": 4484,
      "Ġmay": 4485,
      "Ġáī°áĬĲ": 4486,
      "adem": 4487,
      "ĠáīłáĬ¥áĬķáĮįáĪĬáĭĿáĬĽ": 4488,
      "Ġcutar": 4489,
      "ĠGa": 4490,
      "Ġtarihi": 4491,
      "Ġáī³áĪĭáīħ": 4492,
      "run": 4493,
      "ĠáĭĲ": 4494,
      "angi": 4495,
      "taniya": 4496,
      "wiki": 4497,
      "anti": 4498,
      "ĠIbadan": 4499,
      "shir": 4500,
      "ide": 4501,
      "Ġzaben": 4502,
      "áĪĥáĬķ": 4503,
      "Ġdari": 4504,
      "áĪĦáĭµ": 4505,
      "ĠáĪĽáĪµáī³áĭĪ": 4506,
      "akin": 4507,
      "iláº¹": 4508,
      "let": 4509,
      "áī¬": 4510,
      "Ġsosai": 4511,
      "Ġáĭ¨áī°áĪĪáĭ«áĭ©": 4512,
      "Ġáĭ¨áĭ°": 4513,
      "áĪİáĬķ": 4514,
      "ĠTazama": 4515,
      "Ġáĭ¨áĮĪ": 4516,
      "ĠSud": 4517,
      "Ġjim": 4518,
      "Tana": 4519,
      "Ġinayo": 4520,
      "Ġáº¹láº¹ÌģbÃ¹n": 4521,
      "ĠáĬłáĭµ": 4522,
      "áĮ³": 4523,
      "gbon": 4524,
      "lack": 4525,
      "Ġbinc": 4526,
      "Ġpri": 4527,
      "Ġfilm": 4528,
      "ĠdÃ©partement": 4529,
      "ĠBenin": 4530,
      "Ġkuli": 4531,
      "áĮ¥áĬķáī³áĭĬ": 4532,
      "áīµáĪĿ": 4533,
      "Ġkasuwanci": 4534,
      "Ġalors": 4535,
      "Ġitace": 4536,
      "Ġeff": 4537,
      "CO": 4538,
      "Ġáīłáĭļáĭ«": 4539,
      "ĠáĪĢáĮĪáĪŃ": 4540,
      "Ġ50": 4541,
      "kÃ¹nrin": 4542,
      "Ġáĭ¨áĪĺáĬķ": 4543,
      "ÆĻin": 4544,
      "Ġ184": 4545,
      "ĠáĪ©": 4546,
      "ishin": 4547,
      "ctober": 4548,
      "rent": 4549,
      "wararr": 4550,
      "á¹£u": 4551,
      "Ġrap": 4552,
      "áĮłáĪį": 4553,
      "Ġlafiya": 4554,
      "Ġigba": 4555,
      "ukuu": 4556,
      "ĠQu": 4557,
      "hal": 4558,
      "Ġnu": 4559,
      "Ġtout": 4560,
      "Ġprog": 4561,
      "Ġhudu": 4562,
      "Ġáĭ¨áī°áī£áĪĪáĭį": 4563,
      "haa": 4564,
      "Ġlim": 4565,
      "ĠAlex": 4566,
      "ĠIII": 4567,
      "Ġáº¸ÌĢ": 4568,
      "ĠBahari": 4569,
      "Ġhab": 4570,
      "Ġjus": 4571,
      "áĬ¨áĪ«": 4572,
      "áĪ²áĬķ": 4573,
      "Ġbara": 4574,
      "ital": 4575,
      "áī¶áī¹": 4576,
      "bÃº": 4577,
      "gozi": 4578,
      "ĠsinimÃ¡": 4579,
      "áī¨áĪŃ": 4580,
      "adin": 4581,
      "dinin": 4582,
      "áĭŃáĬĲáīµ": 4583,
      "mÃ©": 4584,
      "bakar": 4585,
      "áĮįáĪ¥áīµ": 4586,
      "ĠáĭĻáĪªáĭ«": 4587,
      "40": 4588,
      "koso": 4589,
      "áįįáĬĵ": 4590,
      "áīłáĪĮ": 4591,
      "Ġshida": 4592,
      "Ġwe": 4593,
      "issa": 4594,
      "Ġpáº¹lu": 4595,
      "Ð°": 4596,
      "áīłáĭį": 4597,
      "rahim": 4598,
      "Ġinc": 4599,
      "ollywood": 4600,
      "Ġkila": 4601,
      "Ġneman": 4602,
      "ĠSin": 4603,
      "amawa": 4604,
      "ĠKwalejin": 4605,
      "áĪŃáĪĭáĬķáĭµ": 4606,
      "ĠáĮĨ": 4607,
      "ĠYan": 4608,
      "ĠfÃŃÃ¬mÃ¹": 4609,
      "ĠpadÃł": 4610,
      "áĪªáī³": 4611,
      "Ġáĭ¨áĪĮ": 4612,
      "ĠáĭŃáĭĪ": 4613,
      "ĠAir": 4614,
      "áĪ±áĬķ": 4615,
      "phy": 4616,
      "ĠojÃº": 4617,
      "ĠgbajÃºmá»įÌĢ": 4618,
      "ĠMakar": 4619,
      "ford": 4620,
      "áĪŃáĮį": 4621,
      "áĭĺáī¥": 4622,
      "áĬĲáīµáĬķ": 4623,
      "Ġbila": 4624,
      "oselu": 4625,
      "áĭ¨áĭį": 4626,
      "ĠáĬ¥áĮħáĮį": 4627,
      "áĬ¨áĪŃ": 4628,
      "áį°": 4629,
      "ĠNijar": 4630,
      "ches": 4631,
      "Ġkwam": 4632,
      "ĠáĬ«áĪį": 4633,
      "Ġtit": 4634,
      "ĠMto": 4635,
      "áĬŃáĪĪ": 4636,
      "Ġ180": 4637,
      "wÃ¡jÃº": 4638,
      "áĬĲáīłáĪ¨": 4639,
      "ĠáĪĺáĪ¨áĮĥ": 4640,
      "áĪ©áĬķ": 4641,
      "ĠáįĢ": 4642,
      "Ġutawala": 4643,
      "Ġgo": 4644,
      "ras": 4645,
      "ĠGir": 4646,
      "áĬ«áī£áī¢": 4647,
      "Ġijoba": 4648,
      "ĠáĪĽáĮ£": 4649,
      "ÃłÃł": 4650,
      "Ã©tÃ©": 4651,
      "áĮĪáĬĽ": 4652,
      "arch": 4653,
      "áº¹ráº¹": 4654,
      "Ġidadi": 4655,
      "ĠÃ¬tÃłn": 4656,
      "ĠlÃ¡Ãł": 4657,
      "Ch": 4658,
      "Ġrashin": 4659,
      "ĠÆĻungiyar": 4660,
      "Ġ|-": 4661,
      "áī²áĬŃ": 4662,
      "Ġduniani": 4663,
      "Ġkun": 4664,
      "burg": 4665,
      "ĠAnnabi": 4666,
      "ĠwÃ³n": 4667,
      "'aut": 4668,
      "ĠKiingereza": 4669,
      "eli": 4670,
      "ĠáĪĺáĪĪ": 4671,
      "cia": 4672,
      "Ġca": 4673,
      "rew": 4674,
      "Ġdep": 4675,
      "ĠGwamn": 4676,
      "rÃ²yÃ¬n": 4677,
      "ole": 4678,
      "áĬŃáĪŃáĪµáī²áĭ«áĬķ": 4679,
      "ĠáĭŃáī»": 4680,
      "Ġdunia": 4681,
      "Ġpat": 4682,
      "ĠáĬ¥áĭµ": 4683,
      "áĪ³áī°": 4684,
      "Ġbeen": 4685,
      "áĪĪáī°áĬĽáĭį": 4686,
      "ĠAsi": 4687,
      "Ġáĭ©áĬĴ": 4688,
      "ĠÃłÃ¬": 4689,
      "ĠHer": 4690,
      "Ġáĭ«áĪī": 4691,
      "julikana": 4692,
      "áįŃ": 4693,
      "Ġmet": 4694,
      "Ġvol": 4695,
      "ĠáīłáĬ©áĪį": 4696,
      "áĭ«áĪµ": 4697,
      "ĠHan": 4698,
      "Ġkazi": 4699,
      "ĠÃ©c": 4700,
      "atikana": 4701,
      "keo": 4702,
      "tics": 4703,
      "mani": 4704,
      "Ġsci": 4705,
      "ĠKati": 4706,
      "ĠOlÃ³": 4707,
      "Ġtáº¹": 4708,
      "Ġáĭ¨áĪĨáĬĳ": 4709,
      "olution": 4710,
      "ĠoÃ¹": 4711,
      "Wannan": 4712,
      "ĠáĬłáĬĲ": 4713,
      "Ġbayar": 4714,
      "idi": 4715,
      "amment": 4716,
      "Ġinf": 4717,
      "ĠÃ¬gb": 4718,
      "eld": 4719,
      "ĠáīłáĪį": 4720,
      "áĬĭáĪĭ": 4721,
      "áī¸áĭĭáĪį": 4722,
      "Ġere": 4723,
      "áĬ½": 4724,
      "áīłáĬĽ": 4725,
      "Ġgen": 4726,
      "áĭ¨áĪĺ": 4727,
      "ĠáĬ¥áĬķáĭ°áĪĨáĬĲ": 4728,
      "eries": 4729,
      "ption": 4730,
      "áĬ¾": 4731,
      "Ġáĭ¨áĪĭ": 4732,
      "fen": 4733,
      "áī¥áĪĬáĬŃ": 4734,
      "áĭĺáĬķ": 4735,
      "endo": 4736,
      "but": 4737,
      "Ġleo": 4738,
      "áįĵáĬķáĭ«": 4739,
      "áĭ«áĭ«": 4740,
      "abo": 4741,
      "Ġkifo": 4742,
      "hem": 4743,
      "ĠMed": 4744,
      "ieurs": 4745,
      "60": 4746,
      "ĠAll": 4747,
      "ĠáĬ«áĪĮ": 4748,
      "áĬ¡": 4749,
      "Ġagba": 4750,
      "gbá»įÌĢn": 4751,
      "Ġáī°áīĭ": 4752,
      "Ġkawa": 4753,
      "mai": 4754,
      "áīģáĪŃ": 4755,
      "El": 4756,
      "ĠFasihi": 4757,
      "aman": 4758,
      "áĬķáĮ«": 4759,
      "Ġiye": 4760,
      "ĠFI": 4761,
      "áįĪáĬķ": 4762,
      "Ġing": 4763,
      "Ġáīłáĭ°áī¡áī¥": 4764,
      "isme": 4765,
      "Ġpá»įÌĢ": 4766,
      "ĠáĪĺáĭĭ": 4767,
      "cid": 4768,
      "áĭĽáĪ¬": 4769,
      "lá»įpá»įÌĢ": 4770,
      "áĪ«áĪĿ": 4771,
      "áĮ¥áĪĿ": 4772,
      "áĭ°áĪ¨áĮī": 4773,
      "ĠÆ´": 4774,
      "ĠáīłáĬ¨": 4775,
      "áĬĲáī¶áī½": 4776,
      "Ġkáº¹Ìģ": 4777,
      "adhi": 4778,
      "bÃŃláº¹ÌĢ": 4779,
      "Ġmn": 4780,
      "ĠMusa": 4781,
      "Ġbaba": 4782,
      "ret": 4783,
      "áĮ¼": 4784,
      "Ġáĭ¨áįĸ": 4785,
      "áĪĪáĭ°": 4786,
      "Ġloc": 4787,
      "ĠáĪĺáī¶": 4788,
      "áī¢áīµ": 4789,
      "Ġáĭ¨áĬ¥áĬķ": 4790,
      "ode": 4791,
      "ikukuu": 4792,
      "ĠBib": 4793,
      "áīĢáĪį": 4794,
      "gen": 4795,
      "iran": 4796,
      "ĠdÃ©velop": 4797,
      "Ġces": 4798,
      "Ġáĭ¨áī°áĬŃáĪī": 4799,
      "Ġsaur": 4800,
      "lÃ¬": 4801,
      "rÃ¬n": 4802,
      "ky": 4803,
      "onge": 4804,
      "ĠNuwa": 4805,
      "ĠEs": 4806,
      "Ġ31": 4807,
      "Ġlitta": 4808,
      "Ġtarihin": 4809,
      "ĠáĭŃáĮłáīĢ": 4810,
      "Ġkn": 4811,
      "Ġnyingine": 4812,
      "Ġmur": 4813,
      "tive": 4814,
      "Ġáĭ¨áĪ°áĭį": 4815,
      "Ġang": 4816,
      "ĠMart": 4817,
      "Ġrik": 4818,
      "Ġtakar": 4819,
      "Ġtsawon": 4820,
      "Ġdubu": 4821,
      "ambu": 4822,
      "Ġhim": 4823,
      "áī³áī½áĬķ": 4824,
      "áĬłáĭŃ": 4825,
      "áĪĬáĭ®áĬķ": 4826,
      "mon": 4827,
      "áĮłáĪĭ": 4828,
      "Manazarta": 4829,
      "Ġtattalin": 4830,
      "áĪĪáĭĭáĪį": 4831,
      "Ġgoma": 4832,
      "bai": 4833,
      "ÙĴ": 4834,
      "áĭ£": 4835,
      "Ã¡Ã¬": 4836,
      "ayansi": 4837,
      "Ġhuo": 4838,
      "Ġambao": 4839,
      "Ġtrad": 4840,
      "gal": 4841,
      "ĠIl": 4842,
      "áĬĳáĪµ": 4843,
      "ĠnÃ©": 4844,
      "sance": 4845,
      "áīħáĪµ": 4846,
      "ĠáĭĵáĪĺáī±": 4847,
      "arab": 4848,
      "Ġwurin": 4849,
      "ĠBBC": 4850,
      "Ġbiashara": 4851,
      "Ġáº¹ÌĢyÃł": 4852,
      "Ġlabarai": 4853,
      "ĠDola": 4854,
      "ĠJana": 4855,
      "ĠáĮĪáī¥": 4856,
      "It": 4857,
      "pÃ¨": 4858,
      "Ġten": 4859,
      "Or": 4860,
      "áĪªáīµ": 4861,
      "ĠáĬłáĪ°": 4862,
      "Ġáĭ±": 4863,
      "ĠáīłáĪ¨": 4864,
      "áįįáĪªáĬ«": 4865,
      "chumi": 4866,
      "áĬłáĬķ": 4867,
      "Ġpartic": 4868,
      "Ġshirye": 4869,
      "Ġbakwai": 4870,
      "ĠØ§ÙĦ": 4871,
      "anisha": 4872,
      "áĭµáĪµáīµ": 4873,
      "ĠOrÃŃ": 4874,
      "áĭ¨áĬłáĪ": 4875,
      "huo": 4876,
      "Ġused": 4877,
      "áĮ¾": 4878,
      "Ġnjia": 4879,
      "Ġkuhusu": 4880,
      "Ġoloselu": 4881,
      "áĪ©áĪĿ": 4882,
      "Ġbabbar": 4883,
      "ĠinÃº": 4884,
      "Ġinto": 4885,
      "De": 4886,
      "ĠsÃ¡": 4887,
      "ĠáįķáĪ¬áĭļ": 4888,
      "indi": 4889,
      "Ġrub": 4890,
      "Ġpremier": 4891,
      "dÃ²": 4892,
      "fika": 4893,
      "DP": 4894,
      "the": 4895,
      "ĠáĪĺáĮłáĬķ": 4896,
      "bÃ¬nrin": 4897,
      "vis": 4898,
      "Ġyote": 4899,
      "ĠPress": 4900,
      "Ġjo": 4901,
      "ĠáĪķáĭĿ": 4902,
      "ĠáĭįáĮ¤": 4903,
      "ĠáīµáĪįáīħ": 4904,
      "ĠKanisa": 4905,
      "29": 4906,
      "ĠSat": 4907,
      "Ġáĭŀ": 4908,
      "áĬ¥áĮįáĭļáĬłáī¥áĪĶáĪŃ": 4909,
      "áĪŀáīµ": 4910,
      "ĠannÃ©es": 4911,
      "ĠFebruary": 4912,
      "himu": 4913,
      "uke": 4914,
      "gent": 4915,
      "Ġ40": 4916,
      "áĬķáĭ³áĪŃ": 4917,
      "ĠáĪľáīµáĪŃ": 4918,
      "Ã¼": 4919,
      "ĠRic": 4920,
      "ĠNovember": 4921,
      "ites": 4922,
      "áĮĪáĬĲ": 4923,
      "ĠáĭŃáī»áĪĭáĪį": 4924,
      "Ġmap": 4925,
      "Ġolu": 4926,
      "ĠAdam": 4927,
      "ĠKiswahili": 4928,
      "ĠUganda": 4929,
      "Ġgaban": 4930,
      "Ġtayi": 4931,
      "ĠBorn": 4932,
      "ĠáĬ¨áĪĽ": 4933,
      "ĠáĪ¥áĪĭáĪ´": 4934,
      "Ġhankali": 4935,
      "ĠGeorge": 4936,
      "ĠtrÃ¨s": 4937,
      "áĬ¨áī°áĪĪáĭį": 4938,
      "mÃ¬nÃł": 4939,
      "Ġhata": 4940,
      "ĠSara": 4941,
      "ĠáĭµáĬķ": 4942,
      "gy": 4943,
      "Ġáį«": 4944,
      "ĠáĮįáī¥áĮ½": 4945,
      "áī£áĪī": 4946,
      "áĮİáĪŃáĮİáĪŃ": 4947,
      "Ad": 4948,
      "ĠOba": 4949,
      "ĠPi": 4950,
      "Ġvisiwa": 4951,
      "Ġkasashen": 4952,
      "ĠÃĢÃłráº¹": 4953,
      "Ġayyukan": 4954,
      "ĠáĪĪáī°": 4955,
      "eph": 4956,
      "ved": 4957,
      "tokea": 4958,
      "ĠáīłáĪĺáĪĨáĬĳ": 4959,
      "iew": 4960,
      "ĠáĮ½áĪĳáįį": 4961,
      "ĠzaÉĵ": 4962,
      "Ġkung": 4963,
      "áĭ³áĮħ": 4964,
      "Ã³mÃ¬nÃł": 4965,
      "ĠáĬ¥áĬķáĭ°áī°": 4966,
      "Ġeniyan": 4967,
      "ush": 4968,
      "if": 4969,
      "hindi": 4970,
      "Ġatt": 4971,
      "ĠJames": 4972,
      "ĠAhma": 4973,
      "ĠHistoria": 4974,
      "Ġá¹£ÃŃ": 4975,
      "Ġá¹£iá¹£áº¹Ìģ": 4976,
      "áĭķáĭĿ": 4977,
      "ĠISBN": 4978,
      "ĠAbubakar": 4979,
      "ĠEbun": 4980,
      "áĬłáĪį": 4981,
      "Ġgwamnati": 4982,
      "ĠMayu": 4983,
      "rÃ¡n": 4984,
      "Ġelle": 4985,
      "ĠÃłgbÃł": 4986,
      "Ġnum": 4987,
      "áĪĪáĪģ": 4988,
      "assi": 4989,
      "atique": 4990,
      "ĠáĪµáĪĪáĭļáĪħ": 4991,
      "80": 4992,
      "báº¹ÌĢ": 4993,
      "áī§": 4994,
      "Ġdiv": 4995,
      "áĪįáĬķ": 4996,
      "Ġcika": 4997,
      "Ġpwani": 4998,
      "ĠShi": 4999,
      "Ġkimanin": 5000,
      "torÃŃ": 5001,
      "áĭ³áĬķáīµ": 5002,
      "ington": 5003,
      "Ġfus": 5004,
      "dai": 5005,
      "áĭĽáĭĿ": 5006,
      "ĠFa": 5007,
      "Ġ183": 5008,
      "ĠáĪħáĭĿáī¥": 5009,
      "ĠáĪĿáĬķáĮŃ": 5010,
      "Ġáĭ¨áĪĺáĮĢáĪĺáĪªáĭ«áĭį": 5011,
      "overnment": 5012,
      "yal": 5013,
      "ĠáĬłáī£áīµ": 5014,
      "áĬ³áĬķ": 5015,
      "ĠMungu": 5016,
      "ĠáĭµáĪŃáĮħáīµ": 5017,
      "Ġnasara": 5018,
      "himman": 5019,
      "sÃŃláº¹ÌĢ": 5020,
      "ĠÂ»,": 5021,
      "Ġemp": 5022,
      "áį±": 5023,
      "áī£áī¥": 5024,
      "ĠáĪ«áĪµ": 5025,
      "ĠAcadem": 5026,
      "omas": 5027,
      "áĪµáī°áĬĽ": 5028,
      "ĠáīłáĪ«": 5029,
      "ĠáĬŃáĪŃáĪµáī¶áĪµ": 5030,
      "Ġise": 5031,
      "ĠáįĬáĭ°áĪį": 5032,
      "ĠTurai": 5033,
      "tal": 5034,
      "alu": 5035,
      "áĮ¡áīµ": 5036,
      "ĠáĬłáĪĿáĪĭáĬŃ": 5037,
      "Ġkirk": 5038,
      "Åĵ": 5039,
      "áĪĭáĬķ": 5040,
      "hard": 5041,
      "ĠáīģáĮ¥": 5042,
      "Ġimport": 5043,
      "Ġ209": 5044,
      "ĠáĬłáĬķáĭ³áĬķáĭµ": 5045,
      "Ġkawaida": 5046,
      "daban": 5047,
      "ĠHen": 5048,
      "angue": 5049,
      "áĬ¨áī¥": 5050,
      "áĭĿáĪĽáī½": 5051,
      "ĠáĬłáĭ¨áĪŃ": 5052,
      "Ġáĭ¨áĬĸ": 5053,
      "ĠáĬłáĭŃáĭ°áĪĪáĪĿ": 5054,
      "dition": 5055,
      "Ġaji": 5056,
      "Ġserv": 5057,
      "Ġint": 5058,
      "ois": 5059,
      "ente": 5060,
      "áĬĿáĬĲáīµ": 5061,
      "Ġdini": 5062,
      "ĠáīłáĪĨ": 5063,
      "ĠáĬ¨áī°áĪĽáĭį": 5064,
      "ilos": 5065,
      "ĠOctober": 5066,
      "áīłáī³áĪį": 5067,
      "ĠMarch": 5068,
      "Ġmbili": 5069,
      "lÃ©wÃ²": 5070,
      "ĠMaris": 5071,
      "áĪµáĪ«áīħ": 5072,
      "Ġprincip": 5073,
      "cis": 5074,
      "Ġaj": 5075,
      "ĠáĬ¨áĪ°": 5076,
      "ĠáīłáĪĻáĪī": 5077,
      "áĪŃáĬķ": 5078,
      "áī½áĪį": 5079,
      "ĠÆ³": 5080,
      "ĠFM": 5081,
      "ĠáĪĺáĮ¥": 5082,
      "ĠáīłáĬ¢": 5083,
      "ago": 5084,
      "ĠáĬ«áĪĮáĬķáĭ³áĪŃ": 5085,
      "kÃ¹": 5086,
      "Ġsome": 5087,
      "ames": 5088,
      "Ġzote": 5089,
      "áĮİáĪŃáĮİáĪŃáĭ«áĬķ": 5090,
      "ĠSoci": 5091,
      "ĠáĪĽáĪŃáīĨáĪµ": 5092,
      "fara": 5093,
      "Ġshe": 5094,
      "áĪįáĮħ": 5095,
      "ID": 5096,
      "áĪµáī¶": 5097,
      "Ġwá»į": 5098,
      "Ġbahari": 5099,
      "unga": 5100,
      "ĠáĬ¥áĬķáĭ°áĮĪáĬĵ": 5101,
      "Ġsakand": 5102,
      "ria": 5103,
      "ĠMic": 5104,
      "áĬ«áī³": 5105,
      "ĠáĪĺáĪ³": 5106,
      "ĠKongo": 5107,
      "ĠáĪĽáĮ£áīĢ": 5108,
      "wala": 5109,
      "Ġanci": 5110,
      "áīĭáĬķáīĭ": 5111,
      "ĠBay": 5112,
      "Ġdawo": 5113,
      "guzi": 5114,
      "Ġláº¹ÌģyÃ¬n": 5115,
      "áīłáĪ¬": 5116,
      "Ġkusa": 5117,
      "ĠáĪĺáĮ£": 5118,
      "áĪŀáĬŃ": 5119,
      "ĠáįĪáĪ¨áĬķ": 5120,
      "arÃŃ": 5121,
      "ĠáīłáĪ½áī³": 5122,
      "78": 5123,
      "Ġsune": 5124,
      "Ġmwanamuziki": 5125,
      "ĠgÃŃga": 5126,
      "áĭ«áĭĿ": 5127,
      "stit": 5128,
      "188": 5129,
      "Ġfut": 5130,
      "ĠComp": 5131,
      "ĠEthiopia": 5132,
      "ĠáĬĹ": 5133,
      "ĠbÃł": 5134,
      "ÆĻi": 5135,
      "abijin": 5136,
      "Ġwadda": 5137,
      "áĮ£áĪįáĭ«áĬķ": 5138,
      "cle": 5139,
      "ĠkÃ¡": 5140,
      "ĠáĬłáĪĪáĪĿ": 5141,
      "áĬķáĭ³áĬķáĭµ": 5142,
      "áį´": 5143,
      "Ġáī°áĬĵ": 5144,
      "áĭ´áīµ": 5145,
      "ĠáįķáĪ®": 5146,
      "Ġterrit": 5147,
      "mÃº": 5148,
      "Ġsay": 5149,
      "Ġidan": 5150,
      "Ġmagharibi": 5151,
      "pata": 5152,
      "hara": 5153,
      "ĠáĪİ": 5154,
      "ĠIndiya": 5155,
      "rig": 5156,
      "Ġamb": 5157,
      "áĪ«áĪ½": 5158,
      "gÃ¡": 5159,
      "Ġáīłáįį": 5160,
      "ather": 5161,
      "ĠEnglish": 5162,
      "bila": 5163,
      "Ġfon": 5164,
      "áĮİáĬķ": 5165,
      "uliwa": 5166,
      "ĠAbuja": 5167,
      "áĪįáįį": 5168,
      "Ġafter": 5169,
      "ĠCal": 5170,
      "áĭ³áĬķáĭ±": 5171,
      "Ġáĭ¨áīĢáĬķ": 5172,
      "clud": 5173,
      "yama": 5174,
      "áī°áĬĽáĭį": 5175,
      "ĠPaul": 5176,
      "áī½áĪģ": 5177,
      "Ġoffici": 5178,
      "Ġmost": 5179,
      "Ġlanguage": 5180,
      "Ne": 5181,
      "ĠáĪĿáĬĵáĪįáī£áīµ": 5182,
      "áĪµáīµáĬĵ": 5183,
      "ĠSer": 5184,
      "ott": 5185,
      "áĬłáĪĿ": 5186,
      "áĭ®áĪŃáĮĬ": 5187,
      "Ġjin": 5188,
      "Ġrayuwar": 5189,
      "Ġmahaifin": 5190,
      "Ġtwo": 5191,
      "ĠTan": 5192,
      "Ġindi": 5193,
      "hamp": 5194,
      "dÃłn": 5195,
      "ĠMaka": 5196,
      "ĠmÃ¬ÃŃ": 5197,
      "ĠWaz": 5198,
      "áĪįáīģ": 5199,
      "Ġmiliyan": 5200,
      "ĠTarayyar": 5201,
      "Ġsupp": 5202,
      "ĠáīłáĪķ": 5203,
      "ĠolÃ³rin": 5204,
      "ĠKib": 5205,
      "gawa": 5206,
      "áĪ¥áĪ«áīħ": 5207,
      "áĮĪáīµ": 5208,
      "Ġáī°áĭĭ": 5209,
      "Ġconf": 5210,
      "Ġ||": 5211,
      "Ġgarga": 5212,
      "ĠáīłáĮİáĪŃáĮİáĪŃáĭ«áĬķ": 5213,
      "ĠKil": 5214,
      "á»įÌģá»įÌĢ": 5215,
      "ĠCap": 5216,
      "áīłáĪī": 5217,
      "Ġren": 5218,
      "áĬªáĭ«": 5219,
      "cul": 5220,
      "áīłáĪ°": 5221,
      "ĠAcademy": 5222,
      "endant": 5223,
      "ĠáĪįáī¥": 5224,
      "Ġá»įÌĢkan": 5225,
      "elon": 5226,
      "Ġáīµáĭį": 5227,
      "Ġáīłáī¥áĭĽáīµ": 5228,
      "Ġmilli": 5229,
      "Ġáī¶": 5230,
      "ĠáĪįáĭ°áīµ": 5231,
      "zung": 5232,
      "Ġop": 5233,
      "á»įÌĢrá»įÌĢ": 5234,
      "over": 5235,
      "uniyar": 5236,
      "áĪµáĪĿ": 5237,
      "Ġmarubu": 5238,
      "Ø¨": 5239,
      "Ġorig": 5240,
      "ĠáĪ¹": 5241,
      "ĠKaskazini": 5242,
      "Ġtalla": 5243,
      "Ġsans": 5244,
      "asashen": 5245,
      "ĠáĭµáĬķáĮĭ": 5246,
      "Ġáĭ¨áĭĵáĪĪáĪĿ": 5247,
      "ĠYe": 5248,
      "Ġáĭ¨áĬ®": 5249,
      "Ġmwenye": 5250,
      "ĠmÃ¬ÃŃrÃłn": 5251,
      "áĭĪáĪ¨": 5252,
      "áĪ³áĬķ": 5253,
      "áĭĺáĪĺ": 5254,
      "ubuwan": 5255,
      "Ġ()": 5256,
      "áĬĲáī±áĬķ": 5257,
      "ĠdiffÃ©r": 5258,
      "Na": 5259,
      "sha": 5260,
      "ĠPeople": 5261,
      "Ġlors": 5262,
      "ĠCa": 5263,
      "inea": 5264,
      "ĠVol": 5265,
      "Ana": 5266,
      "ĠáĪĽáĪµáī³áĭĪáĪ»áĭİáī½": 5267,
      "Ġkofin": 5268,
      "idayar": 5269,
      "Ġáĭ¨áī¥": 5270,
      "Ġ181": 5271,
      "ĠSw": 5272,
      "ĠáĬłáĮĪáĪ«áīµ": 5273,
      "Ġâ": 5274,
      "Ġvit": 5275,
      "ĠCharles": 5276,
      "ren": 5277,
      "ĠáĮ«": 5278,
      "Ġáĭ¨áĪŀ": 5279,
      "istr": 5280,
      "ĠobÃ¬nrin": 5281,
      "ĠJapan": 5282,
      "Ġyo": 5283,
      "teur": 5284,
      "Ġ~": 5285,
      "ĠáĬłáĮĪáĪįáĮįáĪİ": 5286,
      "ĠáĬŃáįįáĪİáī½": 5287,
      "Se": 5288,
      "cen": 5289,
      "áĭ«áĬķáĭ³áĬķáĭ±": 5290,
      "Ġáĭ³áĪŃ": 5291,
      "Ġáī¡áĭµáĬķ": 5292,
      "áĭĵáĬķ": 5293,
      "Ã¤": 5294,
      "Åį": 5295,
      "hes": 5296,
      "illes": 5297,
      "ĠNchi": 5298,
      "olojia": 5299,
      "arly": 5300,
      "ĠMov": 5301,
      "áī¦áīµ": 5302,
      "ĠJi": 5303,
      "Ġconsi": 5304,
      "peci": 5305,
      "báº¹Ìģ": 5306,
      "hÃ¹n": 5307,
      "áī¾": 5308,
      "ĠáĮ³": 5309,
      "ĠIbrahim": 5310,
      "abin": 5311,
      "ĠáĪĽáĪŃáĭ«áĪĿ": 5312,
      "Ġmore": 5313,
      "aso": 5314,
      "diyya": 5315,
      "Ġáĭ¨áĪļáĭ«áĪµ": 5316,
      "Ġáī¥áĭĽáīµ": 5317,
      "ĠáĬ¢áĬķ": 5318,
      "ĠMkoa": 5319,
      "ĠFir": 5320,
      "Ġá¹£Ãł": 5321,
      "ĠKiarabu": 5322,
      "dÃºgbÃ²": 5323,
      "ĠÆ³an": 5324,
      "ĠáĬ¨áĪģ": 5325,
      "ãĥ": 5326,
      "Ġkis": 5327,
      "assa": 5328,
      "nia": 5329,
      "ĠáĪĪáĪĿáĪ³áĪĮ": 5330,
      "dá»įÌĢ": 5331,
      "jáº¹ÌĢ": 5332,
      "kÃŃ": 5333,
      "Ġkisiwa": 5334,
      "ĠáĬ¥áĬķáĭ²áĭ«": 5335,
      "ennes": 5336,
      "ĠhaÉĹa": 5337,
      "ĠáĬłáī¶": 5338,
      "uman": 5339,
      "ĠHispania": 5340,
      "áĮĪáĪªáī±": 5341,
      "Ã¶": 5342,
      "ĠLou": 5343,
      "áĪ³áĪ³áĭŃ": 5344,
      "ĠipÃ²": 5345,
      "ĠFab": 5346,
      "ĠVer": 5347,
      "Ġáĭ¨áĮ¥": 5348,
      "Ġáĭ¨áĪĪáĭį": 5349,
      "ĠCoun": 5350,
      "ĠÃ©tait": 5351,
      "ataifa": 5352,
      "Ġomi": 5353,
      "ĠAlakoso": 5354,
      "áĬłáīµ": 5355,
      "ĠEle": 5356,
      "Ġ182": 5357,
      "ĠáĭĿáĪŃáĭ«": 5358,
      "Ġhakan": 5359,
      "Ġtabb": 5360,
      "Ġagbegbe": 5361,
      "umia": 5362,
      "Ġaga": 5363,
      "ĠÂ».": 5364,
      "Ġáĭ¨áĭ«": 5365,
      "itÃ©s": 5366,
      "tim": 5367,
      "áĬķáĪ³áĭĬ": 5368,
      "Ġigb": 5369,
      "ĠEk": 5370,
      "ĠBritish": 5371,
      "uve": 5372,
      "ĠáĭĪáĪįáĭ°": 5373,
      "ware": 5374,
      "Ġ(Â«": 5375,
      "Ġpili": 5376,
      "ĠLib": 5377,
      "sp": 5378,
      "ica": 5379,
      "áĪŃáĪ±áĪĿ": 5380,
      "Ġáī¢áĪĨáĬķáĪĿ": 5381,
      "Ġtáº¹ÌĢ": 5382,
      "ĠSc": 5383,
      "ĠMarejeo": 5384,
      "---": 5385,
      "sÃ¬kÃ²": 5386,
      "Ġlá»įÌģwá»įÌģ": 5387,
      "ĠáĮłáīħ": 5388,
      "ĠHukumar": 5389,
      "Ġpre": 5390,
      "ĠKasa": 5391,
      "Ġáĭ¨áĭįáĮŃ": 5392,
      "sÃ¨": 5393,
      "eria": 5394,
      "alth": 5395,
      "ĠWe": 5396,
      "Ġáī°áīĥ": 5397,
      "Ġáĭ¨áĬ¦": 5398,
      "ĠStates": 5399,
      "ÙİÙ": 5400,
      "ĠPrin": 5401,
      "Ġlá»įÌģdÃºn": 5402,
      "log": 5403,
      "Ġgre": 5404,
      "Ġáĭĺáĭ´": 5405,
      "70": 5406,
      "Ġasali": 5407,
      "áĭµáĬĵ": 5408,
      "Ġmiji": 5409,
      "áī¥áĪ«áĭŃ": 5410,
      "via": 5411,
      "Ġáĭ¨áĪĢ": 5412,
      "ĠFIFA": 5413,
      "Ġkare": 5414,
      "áĪŃáī±": 5415,
      "ĠIndia": 5416,
      "ĠShug": 5417,
      "Ġinst": 5418,
      "Ġplusieurs": 5419,
      "ĠáĭľáĬĵ": 5420,
      "Ġgas": 5421,
      "ĠJuly": 5422,
      "áĪĮáĬŃáīµáĪªáĬŃ": 5423,
      "áĪµáĪĽ": 5424,
      "assan": 5425,
      "Tarehe": 5426,
      "Ġáĭ¨áīĨ": 5427,
      "unda": 5428,
      "áĪĪáĪĺ": 5429,
      "Ġkowa": 5430,
      "Ġwu": 5431,
      "ĠáĭŃáĪĦ": 5432,
      "Ġáĭ¨áĪļáī³áĭĪ": 5433,
      "oup": 5434,
      "Ġtáº¹Ìģláº¹ÌĢ": 5435,
      "\")": 5436,
      "ety": 5437,
      "Ġila": 5438,
      "Ġndi": 5439,
      "ĠáĬ¥áĬĶ": 5440,
      "ĠáĬ¨áĪĮ": 5441,
      "áĪĻáīµ": 5442,
      "veau": 5443,
      "Ġáīłáī°áĮ¨áĪĽáĪª": 5444,
      "ĠpremiÃ¨re": 5445,
      "ĠâĢĶ": 5446,
      "ikan": 5447,
      "Ġhawa": 5448,
      "ĠáĮĪáĭ°": 5449,
      "ĠApril": 5450,
      "Ġabinci": 5451,
      "Ġhannu": 5452,
      "bia": 5453,
      "berg": 5454,
      "dhi": 5455,
      "Ġfáº¹Ìģ": 5456,
      "ĠáĪĺáĪ¬áīµ": 5457,
      "ĠáĮįáĭĽ": 5458,
      "ĠáĪĺáĮ»áĪķ": 5459,
      "áĬ¨áĭļáĭ«": 5460,
      "ister": 5461,
      "áĪŃáī£": 5462,
      "ĠÆĻidayar": 5463,
      "wun": 5464,
      "Ġgwa": 5465,
      "riban": 5466,
      "ĠáĮĪáĬķ": 5467,
      "áĪĲáįĬ": 5468,
      "ĠáĬĥáĭŃáĪĪ": 5469,
      "ĠáĬ¥áĬķáĮįáĪĬáĭĿáĬĽ": 5470,
      "áĬ«áĪĿ": 5471,
      "Ġreg": 5472,
      "Ġprop": 5473,
      "Ġatom": 5474,
      "áĭĺáĭį": 5475,
      "zing": 5476,
      "Ġbikin": 5477,
      "aient": 5478,
      "ĠCibiyar": 5479,
      "ĠLove": 5480,
      "ots": 5481,
      "Ġmashariki": 5482,
      "gra": 5483,
      "vision": 5484,
      "Ġlangue": 5485,
      "ĠáĬłáīħ": 5486,
      "anne": 5487,
      "nes": 5488,
      "Ð¸": 5489,
      "gon": 5490,
      "zarin": 5491,
      "Ġáĭ¨áīł": 5492,
      "áĭµáĪ¨áĪµ": 5493,
      "jÃ²": 5494,
      "ject": 5495,
      "Ġdhidi": 5496,
      "islamu": 5497,
      "Ġbet": 5498,
      "Ġfond": 5499,
      "Ġover": 5500,
      "Ġthey": 5501,
      "antes": 5502,
      "ĠáĪµáĪĪáĪļ": 5503,
      "tÃłkÃ¬": 5504,
      "ĠÃģf": 5505,
      "Ġáī£áĪį": 5506,
      "ĠHotuna": 5507,
      "ĠMakarantar": 5508,
      "ĠNuwamba": 5509,
      "ictor": 5510,
      "ĠáĪĻáĪī": 5511,
      "Ġsud": 5512,
      "''": 5513,
      "Tangu": 5514,
      "áī°áīµ": 5515,
      "ĠNÃŃ": 5516,
      "tains": 5517,
      "=\"": 5518,
      "ĠáĬ¥áĮįáĭļáĬłáī¥áĪĶáĪŃ": 5519,
      "ĠSch": 5520,
      "Dans": 5521,
      "Ø¯": 5522,
      "áĬŃáĬķ": 5523,
      "ĠhaÉĹin": 5524,
      "Ġnord": 5525,
      "Ġwao": 5526,
      "áĬĵáĭŃáīµ": 5527,
      "ĠolÃº": 5528,
      "hoto": 5529,
      "tumia": 5530,
      "Ġkadhaa": 5531,
      "amaduni": 5532,
      "áīĢáĭµáĪŀ": 5533,
      "ĠUmar": 5534,
      "áĭ¨áĪļ": 5535,
      "ĠAfril": 5536,
      "Ġsasa": 5537,
      "Ġyaani": 5538,
      "Ġáĭ¨áī°áĪĺ": 5539,
      "áĭĽáĬĽáĭį": 5540,
      "iongozi": 5541,
      "irefu": 5542,
      "Ġáī¥áĪĶáĪ«áĭĬ": 5543,
      "ĠUk": 5544,
      "'Ãī": 5545,
      "ĠáĬłáĪħ": 5546,
      "sociation": 5547,
      "Ġá¹¢": 5548,
      "ĠMor": 5549,
      "áīħáĬĵ": 5550,
      "Ð¾": 5551,
      "Ã©rÃ©": 5552,
      "ĠGro": 5553,
      "áĭĿáĪĿ": 5554,
      "ĠáīĢáĭ³": 5555,
      "áįĭáĪį": 5556,
      "kuta": 5557,
      "Ġnotamment": 5558,
      "Ġsig": 5559,
      "Ġáĭ¨áĬŃ": 5560,
      "ribu": 5561,
      "ĠáĬĥáĭŃáĪį": 5562,
      "áĬ¨áī³": 5563,
      "ĠÃģfrÃŃkÃł": 5564,
      "ĠáĪĺáĪįáĬŃáĭĵ": 5565,
      "Â²": 5566,
      "Ġ<": 5567,
      "Ġáĭ¨áī°áįĪ": 5568,
      "áĭ°áĪ¨áĮĪáĭį": 5569,
      "ĠJapani": 5570,
      "ĠáĭĪáĭŃáĬķáĪĿ": 5571,
      "ography": 5572,
      "ĠJamhuri": 5573,
      "Ġmá»į": 5574,
      "ĠKit": 5575,
      "áī¥áĬķ": 5576,
      "áĪ¸áĬĲ": 5577,
      "ĠáĪĪáĬ¥": 5578,
      "áīłáĪ³": 5579,
      "Par": 5580,
      "warar": 5581,
      "áĬĳáĬķ": 5582,
      "Ġaddinin": 5583,
      "ĠáĬłáĮĪáĪ®áī½": 5584,
      "ĠAtl": 5585,
      "ĠáīĢáĮ¥áĪİ": 5586,
      "áī³áĬķ": 5587,
      "ĠTV": 5588,
      "anzishwa": 5589,
      "Ġá»įÌĢrá»įÌĢ": 5590,
      "emple": 5591,
      ");": 5592,
      "Ġout": 5593,
      "Ġvers": 5594,
      "áĪĪáĪĿáĪ³áĪĮ": 5595,
      "áĮĪáī¡": 5596,
      "rise": 5597,
      "ĠáĪĽáĮ£áīĢáĪ»": 5598,
      "ĠNo": 5599,
      "Ġnor": 5600,
      "Ġosere": 5601,
      "sÃł": 5602,
      "Ġsuch": 5603,
      "Ġáī£áĭŃ": 5604,
      "áĭįáĬķáīµ": 5605,
      "win": 5606,
      "Ġdro": 5607,
      "Ġsara": 5608,
      "áĮĪáĪ«áīµ": 5609,
      "áīłáĪµ": 5610,
      "ellement": 5611,
      "Ġcompos": 5612,
      "ĠVal": 5613,
      "Ġmjini": 5614,
      "ĠPo": 5615,
      "ross": 5616,
      "abab": 5617,
      "Ġpublic": 5618,
      "anzibar": 5619,
      "bihi": 5620,
      "Ġá¹£Ã¹gbá»įÌģn": 5621,
      "ĠÃ²á¹£erÃ©": 5622,
      "hiyar": 5623,
      "taire": 5624,
      "Ġkanta": 5625,
      "Ġáī£áĪħáĪŃ": 5626,
      "aimakin": 5627,
      "aract": 5628,
      "ĠBank": 5629,
      "agen": 5630,
      "áįµ": 5631,
      "ĠáĭŃáĭ©": 5632,
      "ĠdÃ¡ra": 5633,
      "Ġmpya": 5634,
      "ef": 5635,
      "Â°": 5636,
      "uses": 5637,
      "ĠDr": 5638,
      "ella": 5639,
      "áĬĺáīµ": 5640,
      "Ġabout": 5641,
      "ĠJean": 5642,
      "ĠBello": 5643,
      "Itokasi": 5644,
      "ĠLugha": 5645,
      "bÃłdÃłn": 5646,
      "áĪµáī±": 5647,
      "alitÃ©": 5648,
      "Ġpi": 5649,
      "Ġáį»": 5650,
      "áĬłáĬķáĭµ": 5651,
      "ĠáįĸáĪĪáī²áĬ«": 5652,
      "pÃ¹": 5653,
      "ĠnÃ¬": 5654,
      "entomon": 5655,
      "ÃŃnÃŃ": 5656,
      "ĠáīłáĪĽáĪĪáīµ": 5657,
      "emble": 5658,
      "ĠEnugu": 5659,
      "ĠMari": 5660,
      "áĮįáī£áĪŃ": 5661,
      "Ġass": 5662,
      "ĠDemoc": 5663,
      "SA": 5664,
      "volution": 5665,
      "Ġáįİ": 5666,
      "ĠáĬ¥áĬķáĮį": 5667,
      "dá»įÌģ": 5668,
      "ĠÉĹa": 5669,
      "ĠKaramar": 5670,
      "Ġlik": 5671,
      "ĠAba": 5672,
      "ĠTun": 5673,
      "hairi": 5674,
      "áĪ°áĪŃ": 5675,
      "ĠDavid": 5676,
      "wari": 5677,
      "Ġkid": 5678,
      "Ġáĭ¨áįĪ": 5679,
      "Ġnaf": 5680,
      "ĠBraz": 5681,
      "áĪªáĪµ": 5682,
      "ĠMuhammadu": 5683,
      "ĠáĬłáįįáĪªáĬ«": 5684,
      "sar": 5685,
      "Ġtar": 5686,
      "ĠMiji": 5687,
      "ÃºsÃ¹": 5688,
      "áīħáĭ«": 5689,
      "áĮ«áĭĪ": 5690,
      "Ġkáº¹ta": 5691,
      "ĠÃłgbÃ©lÃ©wÃ²": 5692,
      "TA": 5693,
      "ĠáĮ¥áĪ©": 5694,
      "'aik": 5695,
      "ĠGuinea": 5696,
      "áĬĵáĮĪ": 5697,
      "ĠJune": 5698,
      "limu": 5699,
      "ĠáīłáĪħ": 5700,
      "ĠPat": 5701,
      "áĭ©áĪµ": 5702,
      "dili": 5703,
      "Kuna": 5704,
      "Ġkawo": 5705,
      "Ġrawar": 5706,
      "ĠáĬ¥áĬķáĭ³áĭŃ": 5707,
      "Ġkin": 5708,
      "Ġnou": 5709,
      "áĬ®áĬĸ": 5710,
      "sions": 5711,
      "Mar": 5712,
      "Ġred": 5713,
      "'I": 5714,
      "ieu": 5715,
      "ĠSy": 5716,
      "ick": 5717,
      "áī¥áĪ«áĭŃáĪµáĮ¥": 5718,
      "Ġtime": 5719,
      "futa": 5720,
      "ĠáĬłáĭ³": 5721,
      "ĠEast": 5722,
      "ĠAlÃ¡": 5723,
      "ĠIsland": 5724,
      "kta": 5725,
      "áįº": 5726,
      "áĪłáĪ¨áī°": 5727,
      "ĠáĪ³áĭŃáĬķáĪ³áĭĬ": 5728,
      "Ġnasar": 5729,
      "ĠnÃŃtorÃŃ": 5730,
      "ĠUmoja": 5731,
      "áĬ®áīµ": 5732,
      "ÃłÃłyÃ¨": 5733,
      "áĬķáī³": 5734,
      "áĬłáĪĪ": 5735,
      "Ġkusan": 5736,
      "aj": 5737,
      "cs": 5738,
      "ĠGar": 5739,
      "Ġforme": 5740,
      "nam": 5741,
      "Ġede": 5742,
      "ĠOpen": 5743,
      "ĠáĮīáĭ³áĭŃ": 5744,
      "Ġojo": 5745,
      "Ġtofauti": 5746,
      "ĠalÃłÃłyÃ¨": 5747,
      "gbÃ¡yÃ©": 5748,
      "Ġkumb": 5749,
      "istoire": 5750,
      "Ġkawai": 5751,
      "ĠIlimi": 5752,
      "Ġgargajiya": 5753,
      "pl": 5754,
      "ĠPak": 5755,
      "ĠGerman": 5756,
      "ĠBorno": 5757,
      "bit": 5758,
      "ench": 5759,
      "Ġkina": 5760,
      "Ġocc": 5761,
      "Ġiá¹£": 5762,
      "ayin": 5763,
      "áĭĪáīħ": 5764,
      "áīĤáīµ": 5765,
      "Ġkabisa": 5766,
      "ĠpÃłtÃłkÃ¬": 5767,
      "Wakati": 5768,
      "ĠaprÃ¨s": 5769,
      "áĪŃáī¶": 5770,
      "umla": 5771,
      "áĭ®áĪŃáĮĬáĪµ": 5772,
      "hÃłn": 5773,
      "wá»įÌĢn": 5774,
      "Ġchi": 5775,
      "ĠáĬ¨áĪĨáĬĲ": 5776,
      "chaguzi": 5777,
      "yÃłwÃ³": 5778,
      "á»ĮÌĢ": 5779,
      "Ġdepuis": 5780,
      "ĠáĪ¬": 5781,
      "oss": 5782,
      "ĠAdÃ©": 5783,
      "ĠFilm": 5784,
      "ĠSak": 5785,
      "ween": 5786,
      "ĠáĪļáĪĬáĭ®áĬķ": 5787,
      "Ġáĭ¨áįį": 5788,
      "ĠáīłáĪµáī°": 5789,
      "Ġgwamnan": 5790,
      "Ġpopulation": 5791,
      "Ko": 5792,
      "gbáº¹": 5793,
      "Ġinclud": 5794,
      "Î±": 5795,
      "Ġfili": 5796,
      "áĭµáĪ®": 5797,
      "ĠáīłáĬ®": 5798,
      "ĠáĪļáĬĴáĪµáīµ": 5799,
      "ingia": 5800,
      "ĠáĭĽáĪ¬": 5801,
      "áº¹ÌĢyáº¹": 5802,
      "umwa": 5803,
      "ĠÃ¬bÃŃláº¹ÌĢ": 5804,
      "tical": 5805,
      "ukumbu": 5806,
      "áĬ¨áĪĭ": 5807,
      "lymp": 5808,
      "Ġáī°áĬ¨áī³": 5809,
      "Mji": 5810,
      "ĠkÃ¬": 5811,
      "Ġáīłáī£": 5812,
      "ĠáīħáĪŃáĪµ": 5813,
      "ĠArab": 5814,
      "áīłáīħ": 5815,
      "áĪİáĮĤ": 5816,
      "ĠáīµáĪŃáĮīáĪĿ": 5817,
      "tÃ¡": 5818,
      "áĪµáī´": 5819,
      "akini": 5820,
      "áĪľáīµ": 5821,
      "julo": 5822,
      "káº¹Ìģ": 5823,
      "Ġkale": 5824,
      "Ġkuj": 5825,
      "Ġáĭ¨áĪļáĪ°": 5826,
      "Ġmuda": 5827,
      "Ġmuhimu": 5828,
      "Ġmwanasiasa": 5829,
      "ĠáĭŃáĮł": 5830,
      "áĮŃáĪŃ": 5831,
      "Ġáĭ°áĪ«áĪ²": 5832,
      "Ġyanki": 5833,
      "âĢľ": 5834,
      "ĠáĮ¸áī£áĭŃ": 5835,
      "ĠdÃł": 5836,
      "ĠMer": 5837,
      "Ġáĭ¨áĪļáĮĪáĬĻ": 5838,
      "Ġenc": 5839,
      "ague": 5840,
      "Ġart": 5841,
      "onne": 5842,
      "ĠáĬłáĮĭ": 5843,
      "Î¿": 5844,
      "Ġáĭ«áĪ³": 5845,
      "Ġaina": 5846,
      "rodu": 5847,
      "istori": 5848,
      "ĠMk": 5849,
      "áĮħáĪĿ": 5850,
      "áįīáīµ": 5851,
      "áĬĵáĭŃáīµáĭµ": 5852,
      "cal": 5853,
      "ĠWomen": 5854,
      "ĠRÃ©": 5855,
      "ĠáĬķáĮį": 5856,
      "jet": 5857,
      "ĠAj": 5858,
      "Ġ(\"": 5859,
      "áĭµáĪĺ": 5860,
      "ĠáĪĺáīħ": 5861,
      "ĠáĮİáĬķ": 5862,
      "fáº¹ÌĢ": 5863,
      "Ġsakama": 5864,
      "Ġá»ĮdÃºn": 5865,
      "ĠáĪµáī¥áĪµ": 5866,
      "ĠYo": 5867,
      "ĠáĭįáĮŃ": 5868,
      "Mo": 5869,
      "ĠSah": 5870,
      "áĪĭáĮĬ": 5871,
      "BA": 5872,
      "Ġláº¹Ìģ": 5873,
      "imes": 5874,
      "ĠWakristo": 5875,
      "°áį»": 5876,
      "áĪĭáīģ": 5877,
      "ayya": 5878,
      "áĬ«áĪŃ": 5879,
      "ĠáīłáĬ¦": 5880,
      "ĠáĪ²áĪĨáĬĳ": 5881,
      "31": 5882,
      "áĬŀáī¹": 5883,
      "sÃ³": 5884,
      "uts": 5885,
      "ĠáĪ²áīĢ": 5886,
      "oire": 5887,
      "ĠáĬ¥áĪĿáĬĲáīµ": 5888,
      "This": 5889,
      "zz": 5890,
      "ball": 5891,
      "áĮª": 5892,
      "ĠMali": 5893,
      "ĠáĪĺáĪĨáĬĳáĬķ": 5894,
      "andan": 5895,
      "ĠáĪµáĪĭ": 5896,
      "ĠEmp": 5897,
      "kwas": 5898,
      "ĠáĪĥáĭŃáĪĽáĬĸáīµ": 5899,
      "ĠáĪ¦áĪµáīµ": 5900,
      "ĠSu": 5901,
      "áĪ«áĭį": 5902,
      "Ġ--": 5903,
      "ĠolÃ³á¹£Ã¨lÃº": 5904,
      "Ġmilima": 5905,
      "ká»įÌĢwÃ©": 5906,
      "Ġá»įÌĢpá»įÌĢlá»įpá»įÌĢ": 5907,
      "tho": 5908,
      "ĠJo": 5909,
      "90": 5910,
      "ful": 5911,
      "ĠáĭĪáī³áĭ°": 5912,
      "áĪ°áĪį": 5913,
      "To": 5914,
      "ĠdÃº": 5915,
      "ĠÃ¬l": 5916,
      "Ġmwisho": 5917,
      "ĠIsa": 5918,
      "áĪĻáĬķ": 5919,
      "ĠáĪ¥áįįáĪ«": 5920,
      "ower": 5921,
      "Ġknown": 5922,
      "Ġsal": 5923,
      "abawa": 5924,
      "áī¨áĪŃáĪ²": 5925,
      "ĠMil": 5926,
      "tiques": 5927,
      "Ġsitu": 5928,
      "Ġhili": 5929,
      "Ġmilioni": 5930,
      "Ġkyautar": 5931,
      "áĮĬáĭľáĪĿ": 5932,
      "ĠBiranen": 5933,
      "wili": 5934,
      "ĠMy": 5935,
      "ĠBi": 5936,
      "ako": 5937,
      "ĠáĪµáĪĪáĪĨáĬĲ": 5938,
      "ĠáĬķáĮīáĪł": 5939,
      "Ġer": 5940,
      "rÃ©sent": 5941,
      "Ġaure": 5942,
      "Ġng": 5943,
      "Ġgur": 5944,
      "ĠFin": 5945,
      "ojÃº": 5946,
      "wÃ¹": 5947,
      "ĠAwá»įn": 5948,
      "ĠAct": 5949,
      "Ðµ": 5950,
      "tali": 5951,
      "dancin": 5952,
      "At": 5953,
      "rad": 5954,
      "binrin": 5955,
      "ĠÃīt": 5956,
      "Ġchar": 5957,
      "áĮ£áĬķ": 5958,
      "ĠOlymp": 5959,
      "áĮĢáīµ": 5960,
      "fuatana": 5961,
      "Ġjusqu": 5962,
      "Ray": 5963,
      "áĬ¨áĪ¨áĪĿ": 5964,
      "áį³áį": 5965,
      "ĠAbi": 5966,
      "urch": 5967,
      "áī£áī³": 5968,
      "áĮĭáīµ": 5969,
      "Ġarziki": 5970,
      "ĠáĮįáĬķáĬĻ": 5971,
      "ĠDisamba": 5972,
      "ĠáĪĿáĪįáĬŃáīµ": 5973,
      "ĠÉĵ": 5974,
      "sive": 5975,
      "ourt": 5976,
      "irun": 5977,
      "pokeo": 5978,
      "áĬłáĪµ": 5979,
      "Ġáīłáī°áĪĪ": 5980,
      "ondo": 5981,
      "Ġkuu": 5982,
      "ĠGÃ³mÃ¬nÃł": 5983,
      "187": 5984,
      "Ã©c": 5985,
      "ĠowÃ³": 5986,
      "ĠYoh": 5987,
      "Ã¡Ã¬sÃŃ": 5988,
      "áĪµáĭ«": 5989,
      "Ġgari": 5990,
      "áĬ«áĬ¨áĪĪ": 5991,
      "hammed": 5992,
      "ĠDelta": 5993,
      "fÃ©r": 5994,
      "áĬķáĬŃ": 5995,
      "ĠId": 5996,
      "ĠáĭŃáīĢáĪ«áĪī": 5997,
      "áĪĺáĪ©": 5998,
      "Ġshari": 5999,
      "mah": 6000,
      "Ġkoyar": 6001,
      "ĠáĭµáĪį": 6002,
      "Ġyanayin": 6003,
      "ĠapÃ¡": 6004,
      "ĠArewacin": 6005,
      "dÃŃnlÃ³gÃºn": 6006,
      "Ġáĭ¨áīħ": 6007,
      "oll": 6008,
      "Ġalb": 6009,
      "pedia": 6010,
      "áį¸": 6011,
      "esu": 6012,
      "irgin": 6013,
      "áīĢáĪ¨": 6014,
      "áĭĪáĭŃáĪĿ": 6015,
      "ĠáĪµáĪŀáī½": 6016,
      "Ġáĭĺáįĭ": 6017,
      "ĠáĭĺáĪĺáĬĵáĭĬ": 6018,
      "huwa": 6019,
      "Ġwork": 6020,
      "ushe": 6021,
      "gá»įÌģ": 6022,
      "iláº¹ÌĢ": 6023,
      "ĠIjoba": 6024,
      "Ġmaana": 6025,
      "áīĢáĮ¥": 6026,
      "áīłáīµáĬķ": 6027,
      "arar": 6028,
      "Ġdaida": 6029,
      "araka": 6030,
      "fofin": 6031,
      "ichael": 6032,
      "Ġyammacin": 6033,
      "áĭ°áĬķ": 6034,
      "Ġwar": 6035,
      "áīĥáĪ´": 6036,
      "áĪĨáĬĸ": 6037,
      "Ġ60": 6038,
      "ĠBas": 6039,
      "áĬŃáĪ²": 6040,
      "ĠWatu": 6041,
      "Ġkumbukumbu": 6042,
      "Ã©m": 6043,
      "Ġport": 6044,
      "ĠáĬ¥áĪĿ": 6045,
      "pace": 6046,
      "'iyyar": 6047,
      "uel": 6048,
      "Ġtaron": 6049,
      "ateurs": 6050,
      "ĠáĪĺáĪ°áĪ¨áīµ": 6051,
      "áīħáĪµáīĥáĪ´": 6052,
      "sim": 6053,
      "angany": 6054,
      "Ġáĭ«áĪĪáĭįáĬķ": 6055,
      "ison": 6056,
      "orÃŃ": 6057,
      "áĪµáĪĪáĭļáĪħ": 6058,
      "ĠRepublic": 6059,
      "ĠJuli": 6060,
      "Ġmuka": 6061,
      "à¤ķ": 6062,
      "áĪĽáĪ½": 6063,
      "Ġcontr": 6064,
      "ĠáĬĲáĮĪáĪł": 6065,
      "ĠChristi": 6066,
      "Ġlilikuwa": 6067,
      "Ã©lÃ©": 6068,
      "ĠáĬ¨áĭĪ": 6069,
      "ĠáīµáĪŃ": 6070,
      "bele": 6071,
      "ogin": 6072,
      "Ġáĭ¨áĪ®": 6073,
      "áĭ²áĭ®": 6074,
      "Ġkashe": 6075,
      "onekana": 6076,
      "ĠFabra": 6077,
      "ĠKin": 6078,
      "ĠáĪĿáĭķáĪ«áī¥": 6079,
      "llo": 6080,
      "ĠáīµáĪĿáĪħáĪŃ": 6081,
      "Ġmirefu": 6082,
      "estiv": 6083,
      "alÃ¡Ã¬sÃŃ": 6084,
      "ĠGold": 6085,
      "adhim": 6086,
      "Ġnafasi": 6087,
      "áĬķáĮİ": 6088,
      "isation": 6089,
      "Ġtalabijin": 6090,
      "Ġáĭ¨áĪĪáĪĿ": 6091,
      "Ġcas": 6092,
      "Awon": 6093,
      "Ġmaa": 6094,
      "Ġáĭ¨áĪ´": 6095,
      "Ġhuu": 6096,
      "darÃŃ": 6097,
      "other": 6098,
      "Ġajili": 6099,
      "Ġsamo": 6100,
      "áĮĪáĪ«": 6101,
      "áĪ°áīµ": 6102,
      "ĠáĮĭáĪ«": 6103,
      "186": 6104,
      "35": 6105,
      "line": 6106,
      "áĪĿáįĴ": 6107,
      "ĠMos": 6108,
      "usin": 6109,
      "Ġáī°áĪ«áĪ«": 6110,
      "ES": 6111,
      "ĠDen": 6112,
      "áĬ¥áĬĲáĭļáĪħ": 6113,
      "ĠáĮĪáĮ½": 6114,
      "Ġtakwas": 6115,
      "Ġkarshe": 6116,
      "áį¹": 6117,
      "Ġmkoa": 6118,
      "Ġmapokeo": 6119,
      "Ġá»įba": 6120,
      "ĠáĬŃáĪŃáĪµáī²áĭ«": 6121,
      "Ġwalikuwa": 6122,
      "Ġmengine": 6123,
      "ĠTanbihi": 6124,
      "ĠSci": 6125,
      "áĮłáĬķ": 6126,
      "Papa": 6127,
      "Vi": 6128,
      "fazi": 6129,
      "Ġbien": 6130,
      "Ġru": 6131,
      "ĠáĭŃáĭŀ": 6132,
      "áĭ³áĭµ": 6133,
      "ĠáĭįáĪĢ": 6134,
      "Ġmemba": 6135,
      "Ġáĭ¨áĬ¨": 6136,
      "Ġdamar": 6137,
      "áĪĭáĪµ": 6138,
      "ĠFed": 6139,
      "Ġhizi": 6140,
      "ĠáįĪáĪŃáĭĸáĬķ": 6141,
      "Ġkashi": 6142,
      "áĪķáįĪáīµ": 6143,
      "jÃ³": 6144,
      "amban": 6145,
      "Ġkundi": 6146,
      "ĠKai": 6147,
      "Ġáį©": 6148,
      "engo": 6149,
      "ĠNews": 6150,
      "Ġiki": 6151,
      "gbÃ³": 6152,
      "á¹£áº¹ÌĢláº¹ÌĢ": 6153,
      "áī¥áĪŃáĪĥ": 6154,
      "Ġacikin": 6155,
      "AC": 6156,
      "PC": 6157,
      "Ġáī¢áĭ«": 6158,
      "ĠTarihi": 6159,
      "Au": 6160,
      "Ùĩ": 6161,
      "ĠBau": 6162,
      "ografia": 6163,
      "mÃ²": 6164,
      "Ġmch": 6165,
      "irÃŃ": 6166,
      "á¹£Ã²": 6167,
      "Ġegbe": 6168,
      "Ġfilin": 6169,
      "Ġbaadaye": 6170,
      "Ġsecond": 6171,
      "van": 6172,
      "ĠáįįáĪ¬": 6173,
      "áĬ¥áĬķáĭ²": 6174,
      "atre": 6175,
      "koki": 6176,
      "ĠÉĹin": 6177,
      "ĠArt": 6178,
      "Ġtrois": 6179,
      "Mu": 6180,
      "rim": 6181,
      "áĬ£": 6182,
      "ĠáĬĽ": 6183,
      "Awá»įn": 6184,
      "ĠkÃł": 6185,
      "ĠSala": 6186,
      "sÃŃtÃ¬": 6187,
      "ĠáĬłáĪīáīµ": 6188,
      "áĭ°áĪµ": 6189,
      "Ġjinsi": 6190,
      "áīłáīĥ": 6191,
      "ester": 6192,
      "ney": 6193,
      "Â»)": 6194,
      "34": 6195,
      "Ġdab": 6196,
      "Ġreli": 6197,
      "áĬĽáĭįáĪĿ": 6198,
      "Ġtura": 6199,
      "áĬ«áĬ¤áĪį": 6200,
      "Ġsauransu": 6201,
      "ple": 6202,
      "ollow": 6203,
      "Ġáĭ«áĭĺ": 6204,
      "áī¨áĪŃáĪ²áī²": 6205,
      "Ce": 6206,
      "ĠWal": 6207,
      "hod": 6208,
      "áĮłáĪĪ": 6209,
      "áĪĺáĬĵ": 6210,
      "Ġwrit": 6211,
      "Ġáī°áĮĪ": 6212,
      "ĠáĪįáĮģ": 6213,
      "mb": 6214,
      "Ġjeshi": 6215,
      "áįįáĬķ": 6216,
      "ĠÃ¬dÃ¡": 6217,
      "kofu": 6218,
      "neo": 6219,
      "ĠáĭķáĪĪáī°": 6220,
      "ĠYoruba": 6221,
      "Ġakoko": 6222,
      "Ġáĭ¨áĮĭ": 6223,
      "ĠáĭįáĪĥ": 6224,
      "yota": 6225,
      "ĠQue": 6226,
      "dad": 6227,
      "Ġáĭ¨áĪ±": 6228,
      "ĠLu": 6229,
      "velopment": 6230,
      "áīłáĬĭáĪĭ": 6231,
      "ĠOf": 6232,
      "áĪİáī¹": 6233,
      "100": 6234,
      "Ġans": 6235,
      "ĠÃłÃł": 6236,
      "Ġiwe": 6237,
      "ĠÃĮbÃłdÃłn": 6238,
      "ĠZanzibar": 6239,
      "Ġkáº¹rin": 6240,
      "otes": 6241,
      "ÉĹu": 6242,
      "Ġfur": 6243,
      "nÃ©": 6244,
      "Ġtaken": 6245,
      "ĠáĭŃáĪĺ": 6246,
      "áĪ²áĭ«": 6247,
      "ĠlÃ²": 6248,
      "Ġwengine": 6249,
      "zon": 6250,
      "Ġmil": 6251,
      "ords": 6252,
      "Ġkabila": 6253,
      "Duk": 6254,
      "Å«": 6255,
      "Ġáīª": 6256,
      "ututt": 6257,
      "ĠáīłáĪĺáĪĨáĬķ": 6258,
      "ies": 6259,
      "Ġidi": 6260,
      "ĠáīłáĬ¤": 6261,
      "Ġbetween": 6262,
      "Lakini": 6263,
      "vin": 6264,
      "Ġname": 6265,
      "Ġáī°áĮ½": 6266,
      "ists": 6267,
      "pindi": 6268,
      "onal": 6269,
      "Ġthan": 6270,
      "hol": 6271,
      "Ġhilo": 6272,
      "ĠáĪĺáĮį": 6273,
      "Ġáĭ¨áĬłáĭ¨áĪŃ": 6274,
      "Ge": 6275,
      "Ġaz": 6276,
      "uriyar": 6277,
      "Ġwasannin": 6278,
      "ĠáĪĪáĪļ": 6279,
      "Ġiliy": 6280,
      "Ġkij": 6281,
      "áīĤáĭ«": 6282,
      "ĠpÃ©ri": 6283,
      "Ġwhen": 6284,
      "formation": 6285,
      "ĠáĮĥ": 6286,
      "áĬķáĭ¶": 6287,
      "ating": 6288,
      "icin": 6289,
      "rica": 6290,
      "kur": 6291,
      "ĠáĪ²áĪį": 6292,
      "Ġshekarun": 6293,
      "kubali": 6294,
      "Ġabubuwan": 6295,
      "âĢ¹": 6296,
      "wali": 6297,
      "Ġbro": 6298,
      "ĠáĬłáĭĭ": 6299,
      "omme": 6300,
      "ĠreprÃ©sent": 6301,
      "Ġconstru": 6302,
      "ĠBest": 6303,
      "Agbegbe": 6304,
      "ged": 6305,
      "Ġgbe": 6306,
      "Ġvili": 6307,
      "ĠrÃ©p": 6308,
      "ii": 6309,
      "abba": 6310,
      "ĠJamus": 6311,
      "ĠJoseph": 6312,
      "ĠáĪĿáĬķáĮĬáĭľáĪĿ": 6313,
      "Ġcentury": 6314,
      "ĠGabas": 6315,
      "áĬķáĭ²": 6316,
      "Ġtatu": 6317,
      "ĠMont": 6318,
      "áĪīáĬķ": 6319,
      "áĮİáī½": 6320,
      "ĠáīłáĪĭ": 6321,
      "ĠRed": 6322,
      "papá»įÌĢ": 6323,
      "Ġzake": 6324,
      "Ġáī£áĪķáĪŃ": 6325,
      "Ġmonde": 6326,
      "ĠUrusi": 6327,
      "NA": 6328,
      "zation": 6329,
      "Ã®t": 6330,
      "ĠáīĦ": 6331,
      "áĭ«áĪľ": 6332,
      "ombo": 6333,
      "Ġpeople": 6334,
      "ĠGeorg": 6335,
      "ĠMex": 6336,
      "áĭŃáĪģ": 6337,
      "áīłáĬłáĪ": 6338,
      "ĠBlack": 6339,
      "Ġhistoria": 6340,
      "Ġnipa": 6341,
      "Ġip": 6342,
      "áĮłáīµ": 6343,
      "Ġconc": 6344,
      "lished": 6345,
      "Ġzilizo": 6346,
      "áĬ¨áī°áĪĽáĭį": 6347,
      "áº¹ÌĢáº¹ÌģsÃ¬": 6348,
      "stitute": 6349,
      "ĠYohane": 6350,
      "Ġmik": 6351,
      "ĠLin": 6352,
      "Elle": 6353,
      "ĠáĬ¨áĪĿ": 6354,
      "áī¡áĬķ": 6355,
      "Far": 6356,
      "áĪªáīĥ": 6357,
      "áī¸áĭī": 6358,
      "ried": 6359,
      "ĠáĬłáĪįáī°": 6360,
      "ĠIbile": 6361,
      "Ġfound": 6362,
      "Ġsakandare": 6363,
      "ĠáĪĺáĮ»áĪķáįįáīµ": 6364,
      "ÃºÃºsÃ¹": 6365,
      "Ġambako": 6366,
      "Ġmfano": 6367,
      "Ġáįªáį»áį": 6368,
      "ĠáĪłáĪ«áĭĬáīµ": 6369,
      "iken": 6370,
      "ĠIbn": 6371,
      "ratic": 6372,
      "ĠKale": 6373,
      "huri": 6374,
      "Ġcig": 6375,
      "áĬķáĮīáĪ¥": 6376,
      "Ġlangues": 6377,
      "Ka": 6378,
      "ĠÃłp": 6379,
      "Ġsojo": 6380,
      "abiwa": 6381,
      "ĠMagharibi": 6382,
      "ĠáĮĮáī³": 6383,
      "áī¥áĬĽ": 6384,
      "ĠBC": 6385,
      "Ġáī°áĬŃáĪį": 6386,
      "utan": 6387,
      "wane": 6388,
      "Ġpet": 6389,
      "áī·áĬķ": 6390,
      "ĠMkuu": 6391,
      "Ġjiki": 6392,
      "Ġjimbo": 6393,
      "ĠWá»įÌģn": 6394,
      "ĠáĪ°áĬĲ": 6395,
      "chuku": 6396,
      "ĠInd": 6397,
      "ĠZam": 6398,
      "Ġhaifar": 6399,
      "Ġtsohuwar": 6400,
      "::": 6401,
      "fiki": 6402,
      "jec": 6403,
      "ĠNollywood": 6404,
      "Ġ150": 6405,
      "áĪįáĪµáįįáĬĵ": 6406,
      "Ġ(;": 6407,
      "ĠRiver": 6408,
      "ube": 6409,
      "ĠáĬłáĪ«áīµ": 6410,
      "áįı": 6411,
      "áĪªáĬ®áī½": 6412,
      "anzisha": 6413,
      "áīģáīµ": 6414,
      "hudi": 6415,
      "Ġáº¹ÌĢyáº¹": 6416,
      "estival": 6417,
      "vient": 6418,
      "ĠMt": 6419,
      "ayÃ©": 6420,
      "lafazi": 6421,
      "Ġhannun": 6422,
      "ĠáĮĬáĭ®áĪŃáĮĬáĪµ": 6423,
      "áĪĨáĬĸáĪĿ": 6424,
      "ament": 6425,
      "aika": 6426,
      "áĪĽáĭįáĭ«áĬķ": 6427,
      "koto": 6428,
      "ĠáĪĬáīĢ": 6429,
      "áĪĺáĮ¥": 6430,
      "ĠáĭŃáīĨ": 6431,
      "ĠáĪĬáīĥ": 6432,
      "ĠáīĨáĭŃ": 6433,
      "Ġyears": 6434,
      "val": 6435,
      "Ġáĭ¨áįĬ": 6436,
      "áĪĪáīĢ": 6437,
      "Ġif": 6438,
      "ery": 6439,
      "ĠáĬĲáĮ¥": 6440,
      "ĠáįĮ": 6441,
      "Ġresp": 6442,
      "uct": 6443,
      "inst": 6444,
      "Ġho": 6445,
      "ĠCong": 6446,
      "Ġkwall": 6447,
      "áĪĬáĬķ": 6448,
      "Ġiyaka": 6449,
      "ville": 6450,
      "áĬķáī¥": 6451,
      "Ġnatur": 6452,
      "ĠSikukuu": 6453,
      "ĠKal": 6454,
      "ĠGen": 6455,
      "ĠáĪµáĬķ": 6456,
      "ministr": 6457,
      "Ġáĭ¨áīĢáĭµáĪŀ": 6458,
      "anya": 6459,
      "amare": 6460,
      "ĠAma": 6461,
      "ĠAustralia": 6462,
      "áĪ¨áĪŃ": 6463,
      "Ġmahali": 6464,
      "ĠáĪĺáĬķáĮįáĪ¥áī³áīµ": 6465,
      "ĠáĬłáĪĺáī³áīµ": 6466,
      "Cette": 6467,
      "Jina": 6468,
      "ĠáīĤ": 6469,
      "Ġganin": 6470,
      "Ġhuadhim": 6471,
      "Ġharkokin": 6472,
      "Ġfitar": 6473,
      "Ġmnamo": 6474,
      "ĠáĬĥ": 6475,
      "Ġwur": 6476,
      "áĬ«áĪĦ": 6477,
      "Ġáĭ¨áĪģ": 6478,
      "fois": 6479,
      "mis": 6480,
      "ĠáĭŃáĮĪáĬĽáĪī": 6481,
      "Ġconstitu": 6482,
      "Ġcaract": 6483,
      "ĠáĭĪáĮ¥": 6484,
      "ĠtÃŃtÃŃ": 6485,
      "Ġmoins": 6486,
      "ouvent": 6487,
      "ĠRobert": 6488,
      "ĠáĮĪáĭ¥": 6489,
      "ĠPakistan": 6490,
      "esse": 6491,
      "ils": 6492,
      "áĭŀáī½": 6493,
      "CC": 6494,
      "Ġunder": 6495,
      "áĪİáīµ": 6496,
      "sy": 6497,
      "ishe": 6498,
      "áĭ¨áĪ©": 6499,
      "ĠlÃ¡báº¹Ìģ": 6500,
      "ories": 6501,
      "ĠÃłká»įÌģlÃ©": 6502,
      "sal": 6503,
      "ĠáįĴ": 6504,
      "ĠOff": 6505,
      "ĠIsra": 6506,
      "ĠBauchi": 6507,
      "ĠáĬ¥áĬ©áĪį": 6508,
      "ĠáĬłáĭĺ": 6509,
      "Ġkudancin": 6510,
      "ĠáĬ¨áī£": 6511,
      "ĠáīłáĪĢ": 6512,
      "ĠâĢ¹": 6513,
      "Ġconn": 6514,
      "áįĬáĭ«": 6515,
      "áĬķáĮįáĪį": 6516,
      "ĠprÃ©sent": 6517,
      "adarwa": 6518,
      "Ġnufin": 6519,
      "ĠOmo": 6520,
      "áĬĴáĪįáĬŃ": 6521,
      "Ġkoloni": 6522,
      "ĠTai": 6523,
      "áĪĽáī¸áĭį": 6524,
      "Ġkaya": 6525,
      "Ġkansa": 6526,
      "Ġprob": 6527,
      "Ġá»įjá»įÌģalÃ¡Ã¬sÃŃ": 6528,
      "Ġautres": 6529,
      "fÃ¡sÃŃtÃ¬": 6530,
      "irc": 6531,
      "Ġáī°áĮ«": 6532,
      "Ġville": 6533,
      "ĠáīłáĪĺáī£áĪį": 6534,
      "Ġáĭķáĭµ": 6535,
      "amia": 6536,
      "haji": 6537,
      "ilishi": 6538,
      "iyoyi": 6539,
      "áĭŃáĪħáĪĿ": 6540,
      "'umma": 6541,
      "Ġayáº¹": 6542,
      "ĠáīłáĬłáĪģáĬĳ": 6543,
      "Ġáĭ¨áĪļáĮĪáĬĿáīłáīµ": 6544,
      "ambia": 6545,
      "ĠUsman": 6546,
      "Waliozaliwa": 6547,
      "wer": 6548,
      "Ġtiti": 6549,
      "abaki": 6550,
      "rique": 6551,
      "ariya": 6552,
      "Ġgroup": 6553,
      "Ġáĭ¨áĪļáĪ°áĪ«": 6554,
      "ek": 6555,
      "rist": 6556,
      "Ġlina": 6557,
      "ĠAkin": 6558,
      "ĠáĬ¥áĬķáīħáĪµáīĥáĪ´": 6559,
      "Ġwatsa": 6560,
      "ĠáĪĨáĬĳ": 6561,
      "ĠhuÉĹu": 6562,
      "Ġsaman": 6563,
      "ographie": 6564,
      "á»įÌģá»įÌĢlÃ¹": 6565,
      "ĠBrazil": 6566,
      "Ġx": 6567,
      "enta": 6568,
      "atho": 6569,
      "ĠPop": 6570,
      "urt": 6571,
      "ĠáīłáĪŀ": 6572,
      "Ġáĭ¨áĭĵáĪĺáī±": 6573,
      ")áį¢": 6574,
      "Ġoko": 6575,
      "Ġ70": 6576,
      "áĮĬáĭ«": 6577,
      "ĠáĪºáĪħ": 6578,
      "Ġprogram": 6579,
      "Ġnam": 6580,
      "ties": 6581,
      "Ġvis": 6582,
      "ĠgboyÃ¨": 6583,
      "Ġibile": 6584,
      "Ġáĭ¨áī°áī£áĪĪ": 6585,
      "ĠáĬłáīĢáįį": 6586,
      "view": 6587,
      "Ġ),": 6588,
      "Ġnahiyar": 6589,
      "Ġonly": 6590,
      "ĠBurtaniya": 6591,
      "Ġapa": 6592,
      "ĠáĪĬáĭ«": 6593,
      "45": 6594,
      "Ġur": 6595,
      "ĠyÃłn": 6596,
      "ĠáĮĪáī¥áĪ¨": 6597,
      "----": 6598,
      "sá»į": 6599,
      "á»įÌĢkan": 6600,
      "Ġá»Įjá»įÌģ": 6601,
      "....": 6602,
      "jÃ¡de": 6603,
      "Ġappel": 6604,
      "áĬ®áĬĸáĪļ": 6605,
      "omina": 6606,
      "emo": 6607,
      "undin": 6608,
      "áĮĬáĭľáĭį": 6609,
      "Ġimani": 6610,
      "Ġtradition": 6611,
      "Ġtafi": 6612,
      "ĠáĪĺáĪ£": 6613,
      "ĠGasar": 6614,
      "Yana": 6615,
      "inin": 6616,
      "áĮįáĬĵ": 6617,
      "Ġibn": 6618,
      "tÃº": 6619,
      "Ġtur": 6620,
      "ĠtÃ¬": 6621,
      "ĠáĪĽáĬħ": 6622,
      "Ġáĭ¨áĮĢáĪŃáĪĺáĬķ": 6623,
      "áĭŃáĪį": 6624,
      "akati": 6625,
      "ĠáĬŃáĪĪáī¥": 6626,
      "Ġáĭ¨áĬĲáīłáĪ©áīµ": 6627,
      "ĠáĬłáĮĪáĪįáĮįáĪİáīµ": 6628,
      "gani": 6629,
      "ker": 6630,
      "vy": 6631,
      "áĪĿáī¥": 6632,
      "maji": 6633,
      "Ġáī¥áĪĶáĪŃ": 6634,
      "'am": 6635,
      "irika": 6636,
      "Ġrana": 6637,
      "áĮįáĪªáĬŃ": 6638,
      "ukun": 6639,
      "ĠÉĹari": 6640,
      "Ġsabon": 6641,
      "wiwa": 6642,
      "áĪ³áĪ°": 6643,
      "oly": 6644,
      "ayensi": 6645,
      "Ġsystem": 6646,
      "áĬĵáĮĪáĪŃ": 6647,
      "ĠáĪĺáĬ®": 6648,
      "ĠáĬ¨áĮ¥": 6649,
      "ĠáĮĢáĪŃáĪĺáĬķ": 6650,
      "):": 6651,
      "yam": 6652,
      "opÃ©": 6653,
      "Ġáī°áĪĺáĪ³áĪ³áĭŃ": 6654,
      "tÃºn": 6655,
      "ĠáĬłáĪµáįĪ": 6656,
      "ĠRoyal": 6657,
      "eland": 6658,
      "umar": 6659,
      "Ġáĭ«áĪĭáī¸áĭį": 6660,
      "jejen": 6661,
      "ĠMaria": 6662,
      "Ġáĭ¨áĬĲáĮĪ": 6663,
      "áī£áī¢áĪİáĬķ": 6664,
      "ĠwÃ¡yÃ©": 6665,
      "ĠáĬłáĬĵ": 6666,
      "ĠKÃ¡": 6667,
      "áĭ±áīµ": 6668,
      "ĠáĬłáĮł": 6669,
      "áĬ¨áĬĵ": 6670,
      "ĠáĬĲáĮĪáĪ¥áīµ": 6671,
      "Ġphilos": 6672,
      "Ġtex": 6673,
      "ural": 6674,
      "ĠDunia": 6675,
      "Láº¹ÌģyÃ¬n": 6676,
      "hÃ¬n": 6677,
      "ĠÃ¬rÃ²yÃ¬n": 6678,
      "ĠáīĥáĪĭáīµ": 6679,
      "ĠáĬłáī£áĪĭáīµ": 6680,
      "ĠlÃ³rÃŃláº¹ÌĢ": 6681,
      "Ġáĭ¨áĪĨáĬĲáĭį": 6682,
      "Ġká»įÌģká»įÌģ": 6683,
      "Ġplace": 6684,
      "Ġgege": 6685,
      "akatifu": 6686,
      "Babban": 6687,
      "Hak": 6688,
      "Jihar": 6689,
      "yth": 6690,
      "gor": 6691,
      "taka": 6692,
      "Ġduring": 6693,
      "Ġabu": 6694,
      "ĠáīłáĬ«": 6695,
      "ĠIV": 6696,
      "ĠCali": 6697,
      "ĠUt": 6698,
      "ĠáĪĪáĪĽáĪµ": 6699,
      "ĠáīµáĬķáĪ½": 6700,
      "rÃ¹": 6701,
      "sÃ¡": 6702,
      "Ø©": 6703,
      "Ã¬má»įÌĢ": 6704,
      "ĠáĭĵáĭŃáĬĲáīµ": 6705,
      "ĠáĮĢáĪĺáĪ¨": 6706,
      "Ġderni": 6707,
      "ĠKais": 6708,
      "ĠPal": 6709,
      "áĭ°áĪŃáĮį": 6710,
      "ĠFrench": 6711,
      "áĭ·": 6712,
      "Ġcibiyar": 6713,
      "áĬĲáĪ£": 6714,
      "Ġáī°áĭ°áĪŃ": 6715,
      "qui": 6716,
      "Ġtabbatar": 6717,
      "202": 6718,
      "Ġgabas": 6719,
      "ĠáĬŃáįįáĪĭáĮĪáĪŃ": 6720,
      "John": 6721,
      "jwa": 6722,
      "Ġmaisha": 6723,
      "ĠJama": 6724,
      "ĠÃ¬gbÃ©": 6725,
      "jáº¹s": 6726,
      "ĠAustria": 6727,
      "Ġmen": 6728,
      "ĠáĬ¥áĪ«áĪ±": 6729,
      "ĠthÃ©": 6730,
      "ait": 6731,
      "Ġnew": 6732,
      "ĠáĮįáĭµ": 6733,
      "Ġ37": 6734,
      "dis": 6735,
      "Ġáĭ¨áĬ¡": 6736,
      "ĠBook": 6737,
      "Ġmallaka": 6738,
      "Ġsakamakon": 6739,
      "kuna": 6740,
      "ĠCO": 6741,
      "ĠyÃł": 6742,
      "tein": 6743,
      "Ġeyi": 6744,
      "ĠOrÃŃláº¹ÌĢ": 6745,
      "Ġ×": 6746,
      "liya": 6747,
      "row": 6748,
      "pro": 6749,
      "Ġáĭ¨áĪ«áĪ±": 6750,
      "Ġsuiv": 6751,
      "TV": 6752,
      "áĬĲáĬĽ": 6753,
      "ĠáĪĺáĪįáĬ©": 6754,
      "Ġáī°áĬ¨áī³áĭŃ": 6755,
      "olowo": 6756,
      "ĠgÃ©": 6757,
      "Ã¬wÃ©": 6758,
      "Ã¨ne": 6759,
      "áĭ³áĪª": 6760,
      "Ġvie": 6761,
      "Ġzaune": 6762,
      "Ġgirm": 6763,
      "Ġpermet": 6764,
      "ĠHausawa": 6765,
      "áīĢáĪ³": 6766,
      "imi": 6767,
      "sayi": 6768,
      "áĪĭáĪĭ": 6769,
      "ĠIm": 6770,
      "ĠáīĢáĭŃ": 6771,
      "¢áīµáĭ®áĮµáĭ«áĬķ": 6772,
      "ĠGirl": 6773,
      "Kar": 6774,
      "can": 6775,
      "geme": 6776,
      "Ġani": 6777,
      "Ġiá¹£áº¹": 6778,
      "ĠáĪ°áĪŃ": 6779,
      "illar": 6780,
      "Ġwatakatifu": 6781,
      "Ġkimataifa": 6782,
      "'O": 6783,
      "ĠáĪĿáĪħ": 6784,
      "anth": 6785,
      "áīĭáīĭ": 6786,
      "Ġyanayi": 6787,
      "shiryen": 6788,
      "Ġlittafin": 6789,
      "onin": 6790,
      "ĠjÃ©": 6791,
      "áĬŃáĪŃáĪµáī¶áĪµ": 6792,
      "ĠOyo": 6793,
      "igne": 6794,
      "Ġ179": 6795,
      "Ġpartir": 6796,
      "áĪªáī³áĬķáĭ«": 6797,
      "Ġáĭ¨áĪį": 6798,
      "ĠMw": 6799,
      "angwa": 6800,
      "Ġalipo": 6801,
      "Ġáĭ¨áĬłáĭįáĪ®áįĵ": 6802,
      "Ġcheo": 6803,
      "tra": 6804,
      "Ġmambo": 6805,
      "áĪŃáĬĵ": 6806,
      "Ġsouvent": 6807,
      "áĪĪáī±": 6808,
      "ĠáĮĦ": 6809,
      "ĠSab": 6810,
      "Ġzane": 6811,
      "ĠWais": 6812,
      "ĠHigh": 6813,
      "áĪİáĪµ": 6814,
      "áĬķáĮ»": 6815,
      "Ġtaba": 6816,
      "ĠáĪµáĭ«áĪľ": 6817,
      "ĠáĮįáĪį": 6818,
      "Ġsaba": 6819,
      "Ġmes": 6820,
      "ĠoyÃ¨": 6821,
      "ĠKwam": 6822,
      "ĠDu": 6823,
      "ĠáĬłáĪĿáī£": 6824,
      "ĠáĮ£áĪį": 6825,
      "Ġmemb": 6826,
      "áī³áĪĿ": 6827,
      "ĠáīłáĪ®": 6828,
      "Ġinv": 6829,
      "Ġliv": 6830,
      "Ã©d": 6831,
      "Ġplay": 6832,
      "Ġáĭ°áĪ´áīµ": 6833,
      "Ġser": 6834,
      "safa": 6835,
      "áīłáĪ®": 6836,
      "ught": 6837,
      "yoyi": 6838,
      "ÉĹin": 6839,
      "ĠMusic": 6840,
      "Ġgra": 6841,
      "ĠLim": 6842,
      "Ġmáº¹Ìģta": 6843,
      "Ġpersonn": 6844,
      "Ġtemps": 6845,
      "36": 6846,
      "Mah": 6847,
      "áĮ©": 6848,
      "Ġáĭ©áĬĴáī¨áĪŃáĪ²áī²": 6849,
      "iles": 6850,
      "Ġ+": 6851,
      "Ġmmoja": 6852,
      "isan": 6853,
      "ĠMary": 6854,
      "ĠIk": 6855,
      "duc": 6856,
      "gine": 6857,
      "ĠáĬŃáĪŃ": 6858,
      "Ġmuziki": 6859,
      "Ġexemple": 6860,
      "Ġkyau": 6861,
      "Ġjiho": 6862,
      "Ġjamii": 6863,
      "Ġáĭ¨áĪħáĭĿáī¥": 6864,
      "try": 6865,
      "ĠIslam": 6866,
      "ĠáĬĽáĭį": 6867,
      "ĠáīłáĭŃ": 6868,
      "ĠáĬ¥áĬķáĭ´áīµ": 6869,
      "áĪ°áĪĽ": 6870,
      "Ġdisc": 6871,
      "Ap": 6872,
      "Ġlog": 6873,
      "áĭµáĪ¨": 6874,
      "%)": 6875,
      "Tari": 6876,
      "Ġkuk": 6877,
      "ĠáĬ¨áĪµ": 6878,
      "ĠOlÃº": 6879,
      "Ġáĭ°áī¥": 6880,
      "Ġonimo": 6881,
      "ĠáĬ¨áĭļáĭ«áĪĿ": 6882,
      "Ġdirect": 6883,
      "Ġfadin": 6884,
      "ĠIr": 6885,
      "Ġshafi": 6886,
      "Ġpoint": 6887,
      "Ġáĭ¨áĪĻáĭļáīĥ": 6888,
      "ridge": 6889,
      "lewa": 6890,
      "ĠTer": 6891,
      "ĠPres": 6892,
      "ĠGod": 6893,
      "áįĲáī¥áĪĬáĬŃ": 6894,
      "ĠáĪģáĪĪáī°áĬĽ": 6895,
      "áĮįáĪĽáĭĬ": 6896,
      "Ġáī¤áī¶áī½": 6897,
      "ities": 6898,
      "tÃłgÃ©": 6899,
      "Ġzinazo": 6900,
      "'or": 6901,
      "kam": 6902,
      "omp": 6903,
      "uter": 6904,
      "ĠáĪĿáĭķáĪ«": 6905,
      "fication": 6906,
      "ĠAgusta": 6907,
      "Ġorigin": 6908,
      "Mat": 6909,
      "by": 6910,
      "Ġrike": 6911,
      "Ġáī°áĪĺáĪį": 6912,
      "ĠKingdom": 6913,
      "ĠáĬ¥áĪµáĬ«": 6914,
      "Ġá»Įba": 6915,
      "historia": 6916,
      "Ġrangi": 6917,
      "atia": 6918,
      "ĠáīłáĪ¥": 6919,
      "poque": 6920,
      "ĠáĮįáĬķáĬĻáĬĲáīµ": 6921,
      "LÃ¡": 6922,
      "ĠÙ": 6923,
      "ator": 6924,
      "Ġami": 6925,
      "ĠáĮ¤": 6926,
      "irar": 6927,
      "Ġjar": 6928,
      "áĮłáī¥": 6929,
      "ĠTar": 6930,
      "ternet": 6931,
      "ĠdÃ©velopp": 6932,
      "ráº¹Ìģ": 6933,
      "iction": 6934,
      "fawa": 6935,
      "áī¢áĭŃ": 6936,
      "Ġkok": 6937,
      "áĪµáīµáĪª": 6938,
      "Ġwenyewe": 6939,
      "Ġmer": 6940,
      "ĠWh": 6941,
      "rian": 6942,
      "sible": 6943,
      "xim": 6944,
      "áĬŃáĪĿáĬĵ": 6945,
      "otun": 6946,
      "ĠamÃ©": 6947,
      "ble": 6948,
      "ij": 6949,
      "Ãºpá»įÌĢ": 6950,
      "ĠLiber": 6951,
      "Ġnde": 6952,
      "ĠáĮ»": 6953,
      "ĠáĬłáĮį": 6954,
      "ikisho": 6955,
      "ĠáĪĺáĬĸ": 6956,
      "ĠWilaya": 6957,
      "ÉĹi": 6958,
      "ĠáĭĭáĮĭ": 6959,
      "Ġyawancin": 6960,
      "ĠGrand": 6961,
      "Ġyaki": 6962,
      "ĠInstitute": 6963,
      "áĪµáī°áĪŃ": 6964,
      "ublique": 6965,
      "ices": 6966,
      "Ġáĭ«áĬķ": 6967,
      "áĪĲáĪ´": 6968,
      "áĮ»áįĪ": 6969,
      "elui": 6970,
      "ĠSudan": 6971,
      "áįĸáĪŃáīµ": 6972,
      "ĠÃłgbÃ¡yÃ©": 6973,
      "Ġipo": 6974,
      "ĠÃ¬p": 6975,
      "Ġambapo": 6976,
      "jáº¹sÃ¡ra": 6977,
      "cil": 6978,
      "Ġsign": 6979,
      "Ġmt": 6980,
      "Ġdashi": 6981,
      "Ġyakin": 6982,
      "áĮĭáĮĪáĪŃ": 6983,
      "Ġwadannan": 6984,
      "yyuka": 6985,
      "Ġbangaren": 6986,
      "htm": 6987,
      "ident": 6988,
      "áįĬáĭİáī½": 6989,
      "gÃ³": 6990,
      "rÃºn": 6991,
      "Ġhana": 6992,
      "Ġavant": 6993,
      "ĠAwon": 6994,
      "áĭ«áīĦ": 6995,
      "ĠAnamb": 6996,
      "ĠáĮłáīħáĪĭáĭŃ": 6997,
      "Ġáĭĺáĭį": 6998,
      "ĠLouis": 6999,
      "So": 7000,
      "Ġdog": 7001,
      "Ġsho": 7002,
      "ĠáīłáĮĭ": 7003,
      "ĠáĬĲáįĥ": 7004,
      "Ġzo": 7005,
      "Ġ35": 7006,
      "Lugha": 7007,
      "ird": 7008,
      "ĠLab": 7009,
      "ĠáĪĪáĭĪ": 7010,
      "oshi": 7011,
      "áĮĭáī¢áīµ": 7012,
      "ĠKijerumani": 7013,
      "ĠáĮ¨áĪĿáĪ®": 7014,
      "lá»įÌģgbá»įÌĢn": 7015,
      "ĠáįĪáĪ¨áĬķáĪ³áĭŃ": 7016,
      "Ġayáº¹yáº¹": 7017,
      "áĮ½áĭĭáīµ": 7018,
      "ĠáĮĪáĬĵ": 7019,
      "artar": 7020,
      "ĠáĪļáĬ«áĬ¤áĪį": 7021,
      "ĠBak": 7022,
      "ĠáĮ¥áīłáī¥": 7023,
      "áī¹áĬķ": 7024,
      "áĪĪáĪį": 7025,
      "áĭ°áĪŃáĪµ": 7026,
      "ĠáĪ¥áĮĭ": 7027,
      "Ġyanke": 7028,
      "ĠáĬłáĭįáĪ«": 7029,
      "Ġmtu": 7030,
      "ĠMichael": 7031,
      "ĠáĬłáĬŃ": 7032,
      "ĠGree": 7033,
      "umiwa": 7034,
      "Ġká»įkÃłn": 7035,
      "PP": 7036,
      "fore": 7037,
      "yer": 7038,
      "Ġbuk": 7039,
      "Ġrem": 7040,
      "áī¤áī±": 7041,
      "áĭ°áī¥áĪ¨": 7042,
      "lit": 7043,
      "ĠAw": 7044,
      "Ġend": 7045,
      "ĠáĬłáĪµáī°áĭ³áĭ°áĮį": 7046,
      "ĠSalaam": 7047,
      "ĠTsa": 7048,
      "imba": 7049,
      "ources": 7050,
      "áĬĴáīµ": 7051,
      "ĠáĮ½áĪķáįĪáīµ": 7052,
      "ĠprÃ©sid": 7053,
      "ĠFarans": 7054,
      "Kuma": 7055,
      "nement": 7056,
      "kad": 7057,
      "áĪĪáīłáīµ": 7058,
      "ĠáĪĺáĮĢáĪĺáĪªáĭ«": 7059,
      "ĠáĪĬáĪĨáĬķ": 7060,
      "Ġshahar": 7061,
      "Ġáīłáī¥áĭĻ": 7062,
      "áº¸ÌĢ": 7063,
      "hesabiwa": 7064,
      "Ġzabe": 7065,
      "áĮ¥áĬĲáīµ": 7066,
      "Ġáī²": 7067,
      "ulin": 7068,
      "áĪ«áĭįáĭ«áĬķ": 7069,
      "utun": 7070,
      "Ġcours": 7071,
      "ĠCongress": 7072,
      "owo": 7073,
      "ĠMpaka": 7074,
      "áĭ«áĭįáĭ«áĬķ": 7075,
      "Ġosu": 7076,
      "áĭµáīħ": 7077,
      "Ġáĭķáĭį": 7078,
      "limfuata": 7079,
      "áĪµáī³áĬķ": 7080,
      "Ġdest": 7081,
      "áī°áĬĵ": 7082,
      "ĠáĪĺáĪĭ": 7083,
      "umma": 7084,
      "Ġáĭ«áĭį": 7085,
      "ĠáĪįáĪĽ": 7086,
      "Ġgrande": 7087,
      "ĠáĪļáĬĴáĪµáīµáĪŃ": 7088,
      "ªáĭ«": 7089,
      "áĪŃáī³": 7090,
      "ĠWil": 7091,
      "stan": 7092,
      "Ġjiha": 7093,
      "37": 7094,
      "ĠáĪĺáī¥": 7095,
      "Ġáĭ¨áĪĺáĮ£": 7096,
      "ĠRichard": 7097,
      "páº¹ÌĢ": 7098,
      "ĠRoman": 7099,
      "áĮ£áĪª": 7100,
      "engene": 7101,
      "pindu": 7102,
      "Ġwakifuata": 7103,
      "las": 7104,
      "ĠáĬłáī¡": 7105,
      "ĠKanada": 7106,
      "ĠSup": 7107,
      "ĠáĬłáĪµáī°áĭ³áĭ°áĪŃ": 7108,
      "Ġsanar": 7109,
      "Ġpap": 7110,
      "áĪĺáĬĵáĭĬ": 7111,
      "Ġlau": 7112,
      "okacin": 7113,
      "Ġinganta": 7114,
      "OR": 7115,
      "áĪĿáīłáĪŃ": 7116,
      "Ġyasa": 7117,
      "alle": 7118,
      "Ġgi": 7119,
      "áĮĥáĭĿáĪĽáī½": 7120,
      "ĠAssociation": 7121,
      "'adu": 7122,
      "ĠáĪŃáĭķ": 7123,
      "Ø³": 7124,
      "ĠáĭĪáĭĺ": 7125,
      "ĠHistory": 7126,
      "chungu": 7127,
      "ĠUN": 7128,
      "Ġuishe": 7129,
      "ĠáĪĨáĬĸáĪĿ": 7130,
      "áīĢáĪĺáĮ«": 7131,
      "ĠáĬłáĪĽáĬ«": 7132,
      "fuatwa": 7133,
      "Ġhuadhimisha": 7134,
      "ĠWam": 7135,
      "ĠáĭĵáĪĭáĪĽ": 7136,
      "Ġstate": 7137,
      "mark": 7138,
      "ĠáĬªáĭ³áĬķ": 7139,
      "'e": 7140,
      "rement": 7141,
      "kai": 7142,
      "Ġ80": 7143,
      "ĠPoland": 7144,
      "bon": 7145,
      "jÃ¹": 7146,
      "áĬ«áĬķ": 7147,
      "áĬķáĭµáĪµáĬĵ": 7148,
      "áĮ»áįį": 7149,
      "Ġsiyasan": 7150,
      "ix": 7151,
      "ĠpÃłÃ¡": 7152,
      "ĠÃ¬f": 7153,
      "Ġdonc": 7154,
      "alafu": 7155,
      "Ġá»įÌĢnÃł": 7156,
      "NÃŃgbÃł": 7157,
      "Ġtakriban": 7158,
      "ababisha": 7159,
      "Ġhigh": 7160,
      "ĠáĪĿáĬĴáĪįáĬŃ": 7161,
      "ĠrÃ©s": 7162,
      "ĠáīłáĪŃáĬ«áī³": 7163,
      "bes": 7164,
      "áĭ¨áĬķ": 7165,
      "rough": 7166,
      "Ġáīłáī°áĪĪáĭŃáĪĿ": 7167,
      "ĠAth": 7168,
      "ĠáĬłáĭµáĪŃáĮİ": 7169,
      "</": 7170,
      "ĠfÃ¬": 7171,
      "áĮįáĬĺáīµ": 7172,
      "ĠÃłjá»į": 7173,
      "ico": 7174,
      "Ġzao": 7175,
      "ĠáĪľáĭ³": 7176,
      "Ġzinabaki": 7177,
      "ÃĴun": 7178,
      "Ġnoma": 7179,
      "ict": 7180,
      "ashington": 7181,
      "kia": 7182,
      "uropÃ©": 7183,
      "áĭ²áĪ±": 7184,
      "istes": 7185,
      "ĠSokoto": 7186,
      "ĠMovie": 7187,
      "Ġsen": 7188,
      "ument": 7189,
      "Ġanti": 7190,
      "Ġsigni": 7191,
      "iá¹£áº¹": 7192,
      "Ġran": 7193,
      "Ġkwenda": 7194,
      "ĠÃ²á¹£Ã¨lÃº": 7195,
      "'autres": 7196,
      "áĬ»": 7197,
      "ĠáĬ¦áĪŃ": 7198,
      "Ġdim": 7199,
      "atini": 7200,
      "ables": 7201,
      "ĠAfrilu": 7202,
      "ĠDemocratic": 7203,
      "ĠRec": 7204,
      "ĠPoli": 7205,
      "ull": 7206,
      "ĠUb": 7207,
      "ĠáĮ¸áĪĲáįĬ": 7208,
      "ĠThomas": 7209,
      "39": 7210,
      "orte": 7211,
      "Ġjá»į": 7212,
      "áĪ³áĭį": 7213,
      "'app": 7214,
      "iriwa": 7215,
      "Ġndogo": 7216,
      "ĠZa": 7217,
      "ĠSarkin": 7218,
      "ĠFulani": 7219,
      "odo": 7220,
      "áĪĲáĭŃ": 7221,
      "Ġtsakiyar": 7222,
      "ĠJanairu": 7223,
      "Ġnasarar": 7224,
      "atis": 7225,
      "Ġmakuu": 7226,
      "áīĥáĪī": 7227,
      "ĠáĬªáĪİ": 7228,
      "Ġsyn": 7229,
      "ĠÃītats": 7230,
      "ĠKaisari": 7231,
      "'an": 7232,
      "ĠáĭĪáĮ£": 7233,
      "182": 7234,
      "ĠáĬĹáĪª": 7235,
      "rict": 7236,
      "Ġwhere": 7237,
      "Ġelect": 7238,
      "Ġcity": 7239,
      "Ġfada": 7240,
      "Ġruwan": 7241,
      "áĪ¨áįĪ": 7242,
      "ĠáĬ¥áĬķáĭµ": 7243,
      "áĪĬáĭ«áĬķ": 7244,
      "Ġkananan": 7245,
      "ĠáĪģáĪīáĪĿ": 7246,
      "ĠdÃ¬": 7247,
      "onais": 7248,
      "ĠpÃ¡": 7249,
      "Ġfollow": 7250,
      "Ġham": 7251,
      "Ġinay": 7252,
      "wÃ²rÃ¡n": 7253,
      "Ġencore": 7254,
      "Ã©t": 7255,
      "atif": 7256,
      "áī¦áĪŃ": 7257,
      "ĠArts": 7258,
      "ĠáĪĻáĭļáīĥ": 7259,
      "áī³áĪªáĬŃ": 7260,
      "ĠTal": 7261,
      "Ġfois": 7262,
      "ifa": 7263,
      "zed": 7264,
      "ĠáĬ¥áĪŃáĪ±": 7265,
      "hip": 7266,
      "áĪ«áĪª": 7267,
      "Ġzar": 7268,
      "Ġáĭ¨áĪļáī£áĪį": 7269,
      "ĠáĮĪáĬķáĭĺáī¥": 7270,
      "oko": 7271,
      "Ġmpaka": 7272,
      "áĪįáĪĿáĬĵ": 7273,
      "Ġhalin": 7274,
      "ĠÃłá¹£Ãł": 7275,
      "Ġind": 7276,
      "áĭļáĭ«áĬķ": 7277,
      "rÃŃwÃ¡": 7278,
      "ouest": 7279,
      "Ġsoit": 7280,
      "hamia": 7281,
      "wamna": 7282,
      "Ġtsara": 7283,
      "áĪĽáĭŃáĪµáĮ¥": 7284,
      "viron": 7285,
      "'al": 7286,
      "esh": 7287,
      "áĭ«áīµ": 7288,
      "Ġlead": 7289,
      "áĮ¨áīµ": 7290,
      "Ġhalit": 7291,
      "She": 7292,
      "ning": 7293,
      "elf": 7294,
      "oun": 7295,
      "chÃ©": 7296,
      "Ġmajor": 7297,
      "ĠáĭµáĬķáĮĭáĭŃ": 7298,
      "áīħáĭ«áĬĸáĪµ": 7299,
      "BÃŃ": 7300,
      "ĠEr": 7301,
      "ivyo": 7302,
      "Ġsoja": 7303,
      "á»įÌĢnÃ¹": 7304,
      "Ġkabla": 7305,
      "ĠAsiya": 7306,
      "kÃ©": 7307,
      "Ġkur": 7308,
      "Ġnational": 7309,
      "áĮ¥áĪ¨áīµ": 7310,
      "Ġtour": 7311,
      "Ġáĭ°áĮĭ": 7312,
      "ĠTuranci": 7313,
      "Ġkuf": 7314,
      "áī£áī±": 7315,
      "áĭĿáĬĵ": 7316,
      "Ġthere": 7317,
      "ĠáĪķáĭŃáĭĪáīµ": 7318,
      "ĠáĪļáĬĴáĪµáī´": 7319,
      "kara": 7320,
      "ĠHars": 7321,
      "táº¹ÌĢ": 7322,
      "Ġneno": 7323,
      "emu": 7324,
      "Ãªte": 7325,
      "ĠProg": 7326,
      "Ġmakabila": 7327,
      "ĠGood": 7328,
      "iques": 7329,
      "wor": 7330,
      "unar": 7331,
      "ĠLatin": 7332,
      "áĭĭáĪŃáĭ«": 7333,
      "akana": 7334,
      "face": 7335,
      "Ġwould": 7336,
      "áĮĲ": 7337,
      "Ġlissa": 7338,
      "áĪ¬áĬķ": 7339,
      "Ġshawara": 7340,
      "ĠAlexander": 7341,
      "Ġáĭ¨áįĸáĪĪáī²áĬ«": 7342,
      "áĪĿáĪĮ": 7343,
      "áĪĪáĪ°": 7344,
      "áĪ¯áĪį": 7345,
      "já»įÌĢ": 7346,
      "wal": 7347,
      "Ġband": 7348,
      "baki": 7349,
      "Ġnigba": 7350,
      "ĠáĭŃáįĪ": 7351,
      "Ġeto": 7352,
      "Ġcontre": 7353,
      "Wakristo": 7354,
      "yr": 7355,
      "ĠWah": 7356,
      "ual": 7357,
      "ĠáĪĺáī¥áīµ": 7358,
      "ĠEli": 7359,
      "ĠVictor": 7360,
      "Ġquel": 7361,
      "AR": 7362,
      "Akwai": 7363,
      "Ġnation": 7364,
      "áĭ°áĮĪ": 7365,
      "Ġtawa": 7366,
      "Ġkasuwa": 7367,
      "Ġamince": 7368,
      "áĬĶáīµ": 7369,
      "Ġmany": 7370,
      "bÃ©": 7371,
      "bal": 7372,
      "ues": 7373,
      "yáº¹ÌĢ": 7374,
      "||": 7375,
      "ĠáĮĵ": 7376,
      "Ġweb": 7377,
      "áĮĭáĪª": 7378,
      "Ġfasaha": 7379,
      "ĠKK": 7380,
      "die": 7381,
      "ĠDara": 7382,
      "Î¹": 7383,
      "Ġcult": 7384,
      "áĭ°áī¡áī¥": 7385,
      "rain": 7386,
      "áī²áīµ": 7387,
      "dian": 7388,
      "olin": 7389,
      "obe": 7390,
      "Ġ400": 7391,
      "Ġtri": 7392,
      "Ġcro": 7393,
      "ĠOá¹£u": 7394,
      "á¹£irÃŃ": 7395,
      "Ġmasarautar": 7396,
      "Ġ90": 7397,
      "áĪµáĪ«áĬ¤áĪį": 7398,
      "ĠáĭŃáī½áĪĭáĪī": 7399,
      "Ġpolitique": 7400,
      "Ġmahaifiyar": 7401,
      "áĭįáĬĵ": 7402,
      "Ġorgan": 7403,
      "yle": 7404,
      "ĠáĪµáī´": 7405,
      "ĠMac": 7406,
      "ĠáįįáīħáĪŃ": 7407,
      "Ġ36": 7408,
      "Ġtuntun": 7409,
      "Ġbecame": 7410,
      "vant": 7411,
      "str": 7412,
      "enegal": 7413,
      "Ġáĭ¨áĬĲáīłáĪ©": 7414,
      "Ġaká»įrin": 7415,
      "Ġá¹£ÃŃá¹£e": 7416,
      "Ġauri": 7417,
      "abwe": 7418,
      "utes": 7419,
      "âĢĶ": 7420,
      "depend": 7421,
      "Ġáīłáī°áĪĪáĭ«áĭ©": 7422,
      "Ġarewacin": 7423,
      "ĠMand": 7424,
      "Ġsuc": 7425,
      "áĪĬáĪµ": 7426,
      "ĠáīłáĬłáĭ²áĪµ": 7427,
      "ĠáĪķáĮį": 7428,
      "Ġclass": 7429,
      "zuri": 7430,
      "Ġaye": 7431,
      "áĪ«áĬĴ": 7432,
      "ĠCam": 7433,
      "quement": 7434,
      "istry": 7435,
      "Ġngu": 7436,
      "asayansi": 7437,
      "lement": 7438,
      "ĠPri": 7439,
      "áĭ¨áĪµ": 7440,
      "hampion": 7441,
      "Ġgano": 7442,
      "ĠKur": 7443,
      "olf": 7444,
      "chni": 7445,
      "pagn": 7446,
      "ohann": 7447,
      "Ġfiye": 7448,
      "áĬ¨áī°áĪį": 7449,
      "ĠHanyoyin": 7450,
      "Ġcikak": 7451,
      "of": 7452,
      "otball": 7453,
      "Ġmatan": 7454,
      "ĠáĬłáĪįáįĭ": 7455,
      "ĠáĮłáĪĭ": 7456,
      "Ġnit": 7457,
      "ĠMul": 7458,
      "Ã¬lÃº": 7459,
      "ĠDuba": 7460,
      "kejÃ¬": 7461,
      "rÃ©s": 7462,
      "Ġáī¤áī°áĬŃáĪŃáĪµáī²áĭ«áĬķ": 7463,
      "kÃ¡láº¹ÌĢ": 7464,
      "Ġciv": 7465,
      "áĬĲáĪµ": 7466,
      "áĭ¨áĬ¢áīµáĭ®áĮµáĭ«": 7467,
      "áĪĺáĪĪáĪµ": 7468,
      "ĠAz": 7469,
      "áĬĲáĭĵáĬķ": 7470,
      "áįįáī°áĬĽ": 7471,
      "ĠHai": 7472,
      "ĠAnambra": 7473,
      "lahi": 7474,
      "áī¡áĪŃ": 7475,
      "ĠáīłáĭĵáĪĪáĪĿ": 7476,
      "Re": 7477,
      "kn": 7478,
      "ĠáĬĶ": 7479,
      "ĠApp": 7480,
      "ĠáīłáĭļáĪģ": 7481,
      "Ġruk": 7482,
      "abili": 7483,
      "Ġáĭ¨áī°áīĢ": 7484,
      "finan": 7485,
      "185": 7486,
      "ĠáĬłáĬķáĭ°": 7487,
      "jenga": 7488,
      "ĠáįĬáĭ°": 7489,
      "ĠolÃ¹darÃŃ": 7490,
      "Ġáĭ¨áĭķ": 7491,
      "ĠáīłáĪĺáĪµ": 7492,
      "áĬ«áĭµ": 7493,
      "áĮĭáĭŃ": 7494,
      "oud": 7495,
      "ĠáīłáĪĺáĮ¨áĪ¨áĪ»": 7496,
      "cr": 7497,
      "áĪ®áĪŀ": 7498,
      "unawa": 7499,
      "Ġáĭ¨áĬłáĪŃ": 7500,
      "ĠáīłáĬłáĪľáĪªáĬ«": 7501,
      "áīĢáĪĿ": 7502,
      "ĠFestival": 7503,
      "ÆĻo": 7504,
      "ĠÆĻa": 7505,
      "áĭĵáĪĪáĪĿ": 7506,
      "Ġmshairi": 7507,
      "Ġmakubwa": 7508,
      "Ġbincike": 7509,
      "ĠbÃłbÃ¡": 7510,
      "32": 7511,
      "rich": 7512,
      "attle": 7513,
      "ĠAngel": 7514,
      "mir": 7515,
      "ÑĢ": 7516,
      "ĠáīłáĬŃ": 7517,
      "eto": 7518,
      "Ġmain": 7519,
      "áĭĿáī¡": 7520,
      "áĭ®áīµ": 7521,
      "ĠáĬ¢áĭ¨áĪ±áĪµ": 7522,
      "ĠáĪªáįĲáī¥áĪĬáĬŃ": 7523,
      "Ġáĭ¨áĮ¦áĪŃ": 7524,
      "ĠSil": 7525,
      "Ġáĭ¨áĪ¶": 7526,
      "ĠUm": 7527,
      "site": 7528,
      "Ġaff": 7529,
      "Ġpass": 7530,
      "áī°áĬŀáī½": 7531,
      "áĪ®áĬķ": 7532,
      "ĠáįĬáĪį": 7533,
      "Ġpataki": 7534,
      "ĠáĭĪáĭĺáī°": 7535,
      "Shi": 7536,
      "ray": 7537,
      "zikin": 7538,
      "áĪħáĪŃ": 7539,
      "Ġáĭ°áĪŃ": 7540,
      "Ġwasanni": 7541,
      "Ġkarshen": 7542,
      "ĠYammacin": 7543,
      "arabci": 7544,
      "ĠNg": 7545,
      "ĠPan": 7546,
      "ĠFasaha": 7547,
      "áĭĪáĬķ": 7548,
      "ctor": 7549,
      "andard": 7550,
      "ĠDin": 7551,
      "ĠáĬ¥áĬķáĬ³áĬķ": 7552,
      "ĠáĪħáĮį": 7553,
      "ĠáĮīáĪį": 7554,
      "à¥": 7555,
      "áĭįáĪµ": 7556,
      "áĪĺáĬĵáĪį": 7557,
      "áīħáĪį": 7558,
      "Ġmanu": 7559,
      "áĪłáī¥": 7560,
      "áĪ¦": 7561,
      "ĠLeague": 7562,
      "ĠáĬłáĪĭáī¸áĭį": 7563,
      "Ġáĭ¨áĪĪáĭįáĪĿ": 7564,
      "Ġpub": 7565,
      "áĪ³áī¸áĭįáĬķ": 7566,
      "ophi": 7567,
      "Ġtransl": 7568,
      "Ġjimillar": 7569,
      "ĠÃº": 7570,
      "ĠKab": 7571,
      "áĬ«áīµ": 7572,
      "Ġáĭ°áī¥áĪ¨": 7573,
      "imbabwe": 7574,
      "ĠáĬ¥áĮ½áĭĭáīµ": 7575,
      "ĠFrank": 7576,
      "áįĵáĬķáĬĽ": 7577,
      "zani": 7578,
      "irs": 7579,
      "áĭ°áĮĭ": 7580,
      "ĠTechn": 7581,
      "ĠJari": 7582,
      "ĠOt": 7583,
      "ston": 7584,
      "ĠUnion": 7585,
      "áĮĪáĪĪáĮį": 7586,
      "Ġlib": 7587,
      "Ġgani": 7588,
      "inguis": 7589,
      "ĠáĬ¥áĬķáĭ°áĬĲáīłáĪŃ": 7590,
      "ĠáĬłáĪµáī°áĭĭ": 7591,
      "ÉĻ": 7592,
      "Ġmwezi": 7593,
      "Ġhalafu": 7594,
      "ĠSir": 7595,
      "áĭ³áĭĬ": 7596,
      "ĠâĢİ": 7597,
      "ĠáīłáĪĺáĬķ": 7598,
      "ovuti": 7599,
      "ĠdÃ©but": 7600,
      "pewa": 7601,
      "ĠáĭŃáĮĪáĪĺ": 7602,
      "ĠKuma": 7603,
      "ĠfranÃ§aise": 7604,
      "ĠAsh": 7605,
      "Ġbaki": 7606,
      "ithi": 7607,
      "ĠKig": 7608,
      "ĠáīłáĪ±": 7609,
      "ĠPhili": 7610,
      "ĠáĪĬáīĥáĭįáĬķáīµ": 7611,
      "br": 7612,
      "ĠNd": 7613,
      "ĠrÃ©fÃ©r": 7614,
      "Ġáĭ¨áįĪáĪ¨áĬķáĪ³áĭŃ": 7615,
      "amai": 7616,
      "omm": 7617,
      "ĠáĮįáĪ«": 7618,
      "NN": 7619,
      "ãĤ": 7620,
      "atsayin": 7621,
      "chit": 7622,
      "áĭ©áīµ": 7623,
      "ĠkÃºrÃ²": 7624,
      "ĠáĪĺáĭĭáĭķáĪį": 7625,
      "86": 7626,
      "Ġáĭ¨áī°áĬĲáĪ³": 7627,
      "ĠáĭĺáĪĺáī»": 7628,
      "Ġparticuli": 7629,
      "lov": 7630,
      "ĠSol": 7631,
      "ĠShek": 7632,
      "ĠDay": 7633,
      "ĠJu": 7634,
      "ĠRom": 7635,
      "ĠáĪ¥áĪŃáĭĵáīµ": 7636,
      "47": 7637,
      "ÏĤ": 7638,
      "áĪŀáĬķ": 7639,
      "Ġmáº¹": 7640,
      "Ġleurs": 7641,
      "ides": 7642,
      "ĠÃ©le": 7643,
      "Ã¡nÃ¬": 7644,
      "Ġhizo": 7645,
      "gemea": 7646,
      "á¹£irÃŃá¹£i": 7647,
      "ĠTarayya": 7648,
      "Ġcho": 7649,
      "ĠáīłáĪ³": 7650,
      "sili": 7651,
      "ardin": 7652,
      "Ġ178": 7653,
      "ĠChristian": 7654,
      "áĪ´áīµ": 7655,
      "ĠáīłáĪ°áĪľáĬķ": 7656,
      "yá»įÌģ": 7657,
      "Ġuse": 7658,
      "ĠsÃ¬n": 7659,
      "ĠMala": 7660,
      "elli": 7661,
      "ĠLÃ¡": 7662,
      "ĠHam": 7663,
      "ĠRu": 7664,
      "Ġá»įÌģ": 7665,
      "Ġaro": 7666,
      "ĠPremi": 7667,
      "Ġmort": 7668,
      "Ġbata": 7669,
      "ĠGi": 7670,
      "ĠMet": 7671,
      "osp": 7672,
      "áĭĽáĪį": 7673,
      "Ġshugabar": 7674,
      "ĠáīłáĪĮáĪĭ": 7675,
      "ĠSatumba": 7676,
      "ĠHouse": 7677,
      "Ġcelui": 7678,
      "ĠMiss": 7679,
      "Ġipinle": 7680,
      "ogi": 7681,
      "ket": 7682,
      "áĭ¢": 7683,
      "ĠáĬĲáī½": 7684,
      "ĠáĮ¥áĭ«áīĦ": 7685,
      "ĠMartin": 7686,
      "Ġfonction": 7687,
      "ĠSahara": 7688,
      "SO": 7689,
      "xt": 7690,
      "Ġáĭ¨áįĭ": 7691,
      "500": 7692,
      "ving": 7693,
      "Ġdasu": 7694,
      "Ġdauke": 7695,
      "ĠOli": 7696,
      "Ġtous": 7697,
      "Ġori": 7698,
      "Ġ''": 7699,
      "áĪķáĪį": 7700,
      "áº¹n": 7701,
      "Ġoun": 7702,
      "Ġkuji": 7703,
      "ĠáĮįáĪªáĬŃ": 7704,
      "Ġanal": 7705,
      "kÃ³so": 7706,
      "Ġambazo": 7707,
      "Ġkuliko": 7708,
      "Ġworld": 7709,
      "Ġhaya": 7710,
      "ĠPeter": 7711,
      "ĠáĭŃáĮĪáĪĺáī³áĪį": 7712,
      "AF": 7713,
      "Ġpouv": 7714,
      "ection": 7715,
      "Ġcommer": 7716,
      "ĠáĬłáĭįáĪ®áįĵ": 7717,
      "ĠMb": 7718,
      "áī°áĭ³": 7719,
      "jiji": 7720,
      "áĮįáĪ©": 7721,
      "ĠáĪ¥áĪįáĮ£áĬķ": 7722,
      "uvent": 7723,
      "ussia": 7724,
      "Ġáĭĳ": 7725,
      "Ġkakar": 7726,
      "Ġáĭ¨áĬķ": 7727,
      "áĭŃáīħ": 7728,
      "Ã¡jÃº": 7729,
      "ĠIra": 7730,
      "Ġáī°áĪĽáĪª": 7731,
      "ĠáĬłáĪ¥": 7732,
      "Ġcewar": 7733,
      "Ġmatakin": 7734,
      "Ġpeu": 7735,
      "anguage": 7736,
      "ĠolÃ³rÃŃ": 7737,
      "uwancin": 7738,
      "Ġgabashin": 7739,
      "ĠKamusi": 7740,
      "ĠShehu": 7741,
      "ĠÆ´ar": 7742,
      "Ġtakarar": 7743,
      "Mas": 7744,
      "gari": 7745,
      "Ïģ": 7746,
      "inc": 7747,
      "Ġmit": 7748,
      "Ġmamaye": 7749,
      "Ġika": 7750,
      "áĬĹáĪį": 7751,
      "Ġselon": 7752,
      "áĭŃáĪŃáĪĭáĬķáĭµ": 7753,
      "áĬ¨áĪ°": 7754,
      "áĪĬáĪĿ": 7755,
      "Ġ500": 7756,
      "ĠáĬłáĪįáįİ": 7757,
      "ĠBirnin": 7758,
      "ĠFrancis": 7759,
      "ĠTrans": 7760,
      "ĠáĪĺáĬĲáĪ»": 7761,
      "ĠáĪĺáĪ£áĪªáĭ«": 7762,
      "áĭįáĪį": 7763,
      "andika": 7764,
      "ĠáĪµáī¥": 7765,
      "Ġsaka": 7766,
      "akazi": 7767,
      "'antar": 7768,
      "Mut": 7769,
      "ession": 7770,
      "papa": 7771,
      "ĠáĬĲáīłáĪ¨áī½": 7772,
      "html": 7773,
      "tat": 7774,
      "uren": 7775,
      "ĠIt": 7776,
      "aid": 7777,
      "áīħáĭ±áĪµ": 7778,
      "angaza": 7779,
      "ĠáĪĿáĬŃáĪŃ": 7780,
      "Bisa": 7781,
      "Ġcre": 7782,
      "gali": 7783,
      "Ġáĭ¨áĬłáĪĪáĪĿ": 7784,
      "ĠáīħáĬĿ": 7785,
      "limia": 7786,
      "Ġinflu": 7787,
      "ĠMc": 7788,
      "Ġkutumia": 7789,
      "embo": 7790,
      "áīłáĪ»": 7791,
      "ĠYesu": 7792,
      "Ġuwan": 7793,
      "Ġwatumwa": 7794,
      "Ġhivi": 7795,
      "ĠÃłÃ¬sÃłn": 7796,
      "ĠáĪµáī¥áĪµáī¥": 7797,
      "ĠWaislamu": 7798,
      "]]": 7799,
      "Ġlater": 7800,
      "Ġáĭ¨áī°áĭĪáĪ°": 7801,
      "conom": 7802,
      "ĠCalifor": 7803,
      "ĠáĭĪáĭ²áĭ«": 7804,
      "Ġáī°áīĢáĪĿ": 7805,
      "Rayuwar": 7806,
      "gro": 7807,
      "Ġáį³": 7808,
      "etu": 7809,
      "ĠWashington": 7810,
      "ster": 7811,
      "ieux": 7812,
      "áĪ£áĭŃ": 7813,
      "ultani": 7814,
      "Ġáī°áĭĪáĪĪáĭ°": 7815,
      "33": 7816,
      "wÃłÃ¡": 7817,
      "ĠMwaka": 7818,
      "ĠGáº¹ÌĢáº¹ÌģsÃ¬": 7819,
      "rey": 7820,
      "Ġterme": 7821,
      "arufu": 7822,
      "onom": 7823,
      "ĠGud": 7824,
      "add": 7825,
      "ĠAmani": 7826,
      "75": 7827,
      "bÃ³": 7828,
      "áĭ°áĬķáīµ": 7829,
      "ĠLo": 7830,
      "ĠGida": 7831,
      "áĭĽáĪĿ": 7832,
      "áĭķáīĨ": 7833,
      "lÃ©e": 7834,
      "nÃº": 7835,
      "áī®": 7836,
      "Ġdauki": 7837,
      "Ġhistori": 7838,
      "áĭ°áĪŃáĮī": 7839,
      "Ġjumla": 7840,
      "ĠáĪĺáī³": 7841,
      "áįĪáĪ«": 7842,
      "Ġsuite": 7843,
      "Ġaddini": 7844,
      "áī¥áĪ¨áī°": 7845,
      "Ġ(,": 7846,
      "Ġhayo": 7847,
      "Ġkuta": 7848,
      "Ġáĭ«áĭ°áĪŃ": 7849,
      "antiki": 7850,
      "ĠÃ²kÃ¨": 7851,
      "ominira": 7852,
      "à¤ĺ": 7853,
      "ĠirÃº": 7854,
      "ĠEmpire": 7855,
      "áĮĮáĪį": 7856,
      "ĠáĬ¨áĬłáĬķáĭµ": 7857,
      "ĠáĭŃáī³áĪĺáĬĵáĪį": 7858,
      "AM": 7859,
      "mÃ¡": 7860,
      "ĠFal": 7861,
      "kewa": 7862,
      "ĠAlf": 7863,
      "áĪµáī°áĬĽáĭį": 7864,
      "Ã´te": 7865,
      "ĠÃ©crit": 7866,
      "ĠáĪĺáīĢáĪĺáĮ«": 7867,
      "ĠWo": 7868,
      "ĠDut": 7869,
      "áĪĭáĮħ": 7870,
      "Ġkowane": 7871,
      "Ġaskofu": 7872,
      "Ġgroupe": 7873,
      "Ġmengi": 7874,
      "wikipedia": 7875,
      "áĪĪáĪµ": 7876,
      "urar": 7877,
      "áĪ³áĪĮáĪĿ": 7878,
      "dua": 7879,
      "ensis": 7880,
      "áĪŃáīµáĪ«": 7881,
      "Ġdare": 7882,
      "áĪ¨áī°": 7883,
      "áĪĽáĪ¨": 7884,
      "áĭ³áīµ": 7885,
      "ĠdÃ©si": 7886,
      "ĠáĮ¨áĭĭ": 7887,
      "ĠGreg": 7888,
      "Ġwit": 7889,
      "Ġáī°áĮĪáĬĿ": 7890,
      "ĠáĪĺáĬķáĮĪ": 7891,
      "pande": 7892,
      "áĬķáĮĢ": 7893,
      "Ġwá»įÌĢn": 7894,
      "ĠÃ¬á¹£": 7895,
      "Ġá»įjá»į": 7896,
      "ĠÃĮlÃº": 7897,
      "rican": 7898,
      "ĠáĪµáĪĿáĪĿáĬĲáīµ": 7899,
      "ĠáĪ½áĪį": 7900,
      "chukua": 7901,
      "ĠáĭĬ": 7902,
      "ined": 7903,
      "eren": 7904,
      "Ġjap": 7905,
      "ĠáĪĺáĬķáĮįáĪµ": 7906,
      "chag": 7907,
      "Ġyarjejen": 7908,
      "ĠMohammed": 7909,
      "Ġfamilia": 7910,
      "nÃ©es": 7911,
      "áī¿": 7912,
      "Ġmani": 7913,
      "áĪ£áĪ¥": 7914,
      "áįİáĪŃ": 7915,
      "Ġcertain": 7916,
      "Ġáĭ¨áĬ¥áĬķáĮįáĪĬáĭĿ": 7917,
      "'id": 7918,
      "Ġfulani": 7919,
      "áīĢáĪµ": 7920,
      "áī¶áĭ¶": 7921,
      "team": 7922,
      "'ag": 7923,
      "áĬķáĪ°": 7924,
      "ĠÃłÃ¡": 7925,
      "áĪ©áĬŃ": 7926,
      "ĠMisri": 7927,
      "ĠJon": 7928,
      "ĠHenry": 7929,
      "áī£áī£": 7930,
      "hawa": 7931,
      "ĠáīłáĪ¶": 7932,
      "ÆĻe": 7933,
      "ĠAlhaji": 7934,
      "Ġthree": 7935,
      "Ġkamfan": 7936,
      "attun": 7937,
      "kiri": 7938,
      "á¹¢": 7939,
      "wahi": 7940,
      "áĪĪáĭ±": 7941,
      "ands": 7942,
      "ĠáĪĽáĪ¨": 7943,
      "ĠáĪµáĪŃáĭĵáīµ": 7944,
      "Ġáī°áĮ«áĭĭ": 7945,
      "sÃ¡n": 7946,
      "waju": 7947,
      "Ġáĭ¨áĪ«": 7948,
      "Ġáĭ¨áĮİ": 7949,
      "Ġláº¹": 7950,
      "áĮĪáĪ¨": 7951,
      "ĠÃłjáº¹sÃ¡ra": 7952,
      "áīłáĭ«": 7953,
      "gbá»įÌģ": 7954,
      "Ġref": 7955,
      "VID": 7956,
      "áĪ¨áĮĭáĮĪ": 7957,
      "kw": 7958,
      "Ġdat": 7959,
      "ĠMoro": 7960,
      "Ġgouver": 7961,
      "áĪ«áĪŃ": 7962,
      "rÃ©e": 7963,
      "Ġáī°áĪ«áĪ®áī½": 7964,
      "áī§áĪį": 7965,
      "Nchi": 7966,
      "vement": 7967,
      "Ġsou": 7968,
      "áīĢáĮ½": 7969,
      "180": 7970,
      "ccen": 7971,
      "áĭ¥áĬķ": 7972,
      "Ġkiran": 7973,
      "Ġrubutu": 7974,
      "ĠáĬłáĪµáįĪáĪĭáĮĬ": 7975,
      "ËĪ": 7976,
      "áĪĺáĪĿ": 7977,
      "áĮįáĪª": 7978,
      "Ã¬yÃłn": 7979,
      "Ġá»įlá»įÌģ": 7980,
      "ĠEdo": 7981,
      "184": 7982,
      "onyesha": 7983,
      "ĠKejÃ¬": 7984,
      "ype": 7985,
      "Ð½": 7986,
      "ĠIya": 7987,
      "Ġáī£áĪħáĪį": 7988,
      "Äĵ": 7989,
      "Ġlanga": 7990,
      "Ġhuwa": 7991,
      "pal": 7992,
      "áī½áĬ¹": 7993,
      "ikh": 7994,
      "ĠáĬ¥áĬĵáīµ": 7995,
      "oton": 7996,
      "áĪģáįį": 7997,
      "tÃ©r": 7998,
      "ĠCommun": 7999,
      "ĠáĬĲáĭįáį¢": 8000,
      "ĠáĪĿáĪ³áĪĮĠáĬĲáĭįáį¢": 8001,
      "ĠtÃŃĠÃ³": 8002,
      "Ġáĭ¨áĬłáĪĽáĪŃáĬĽĠáĪĿáĪ³áĪĮĠáĬĲáĭįáį¢": 8003,
      "ĠshekaraĠta": 8004,
      "ĠdeĠla": 8005,
      "ĠaĠcikin": 8006,
      "ĠofĠthe": 8007,
      "ĠáĬĲáīłáĪŃáį¢": 8008,
      ".áĪĿ": 8009,
      "Ġáĭ¨áĬłáĪĽáĪŃáĬĽĠáĪĿáĪ³áĪĮĠáĬĲáĭįáį¢ĠáīµáĪŃáĮīáĪĻ": 8010,
      "ĠdaĠkuma": 8011,
      "Ġáĭĵ.áĪĿ": 8012,
      ".ĠItokasi": 8013,
      "Ġáī°áĪ¨áīµáĬĵĠáĪĿáĪ³áĪĮ": 8014,
      "ĠdeĠl": 8015,
      "Ġáĭĵ.áĪĿ.": 8016,
      "ĠaĠmatsayin": 8017,
      ",Ġa": 8018,
      "ĠtareĠda": 8019,
      "ĠáĭĵáĬŃáĪįáīł.": 8020,
      ",Ġda": 8021,
      "ĠaĠshekaraĠta": 8022,
      "-Ã¨dÃ¨": 8023,
      "ĠTuzoĠya": 8024,
      "ĠtÃŃĠwá»įÌģn": 8025,
      "Ġl'": 8026,
      "ĠTuzoĠyaĠNobel": 8027,
      "ĠTuzoĠyaĠNobelĠya": 8028,
      "Ġáĭ«áĪįáī°áī°áĪ¨áĮİáĪĺĠáĪĿáĪ³áĪĮ": 8029,
      "Ġáĭ¨áĬłáĪĽáĪŃáĬĽĠáĪĿáĪ³áĪĮĠáĬĲáĭįáį¢ĠáīµáĪŃáĮīáĪĻĠáĭ«áĪįáī°áī°áĪ¨áĮİáĪĺĠáĪĿáĪ³áĪĮ": 8030,
      "Ġ(200": 8031,
      "ĠaĠshekarar": 8032,
      "ĠmwakaĠwa": 8033,
      "/áĪĿ": 8034,
      "Ġáĭĵ/áĪĿ": 8035,
      ",Ġkuma": 8036,
      "BaadaĠya": 8037,
      "ĠwaĠTuzoĠyaĠNobelĠya": 8038,
      "ĠdagaĠcikin": 8039,
      "ĠdaĠaka": 8040,
      "ĠinĠthe": 8041,
      ",Ġta": 8042,
      ",Ġand": 8043,
      ".áĬł": 8044,
      "ĠgaĠwatan": 8045,
      "ĠorÃŃláº¹ÌĢ-Ã¨dÃ¨": 8046,
      "-ede": 8047,
      ",000": 8048,
      "ĠtiĠo": 8049,
      "ĠmshindiĠwaĠTuzoĠyaĠNobelĠya": 8050,
      ",Ġwanda": 8051,
      "ĠshiĠne": 8052,
      "waĠna": 8053,
      "Ġáĭ¨áĬłáĪĽáĪŃáĬĽĠáĪĿáĪ³áĪĮĠáĬĲáĭįáį¢ĠáīµáĪŃáĮīáĪĻĠáĭ«áĪįáī°áī°áĪ¨áĮİáĪĺĠáĪĿáĪ³áĪĮĠáī°áĪ¨áīµáĬĵĠáĪĿáĪ³áĪĮ": 8054,
      "Ġ(201": 8055,
      "ĠdaĠke": 8056,
      ",ĠÃ³": 8057,
      "Ġ(an": 8058,
      "áĪįáį¢": 8059,
      ",Ġle": 8060,
      "Ġ(anĠhaife": 8061,
      "ĠáĪĺáĭ°áī¥Ġ:": 8062,
      "MakalaĠhii": 8063,
      "MakalaĠhiiĠinahusu": 8064,
      "MakalaĠhiiĠinahusuĠmwaka": 8065,
      ".áĬ¤": 8066,
      "1.": 8067,
      ").ĠMatukio": 8068,
      "ĠÆĻwallonĠÆĻafa": 8069,
      "Ġd'": 8070,
      "0.": 8071,
      "Ġorile-ede": 8072,
      "0,": 8073,
      "ĠKristo).ĠMatukio": 8074,
      "6.": 8075,
      "Ġ(BaadaĠya": 8076,
      "Ġ(BaadaĠyaĠKristo).ĠMatukio": 8077,
      "ĠnaĠku": 8078,
      ".áĬł.": 8079,
      "1,": 8080,
      "2.": 8081,
      "ĠáĬĵáī¸áĭįáį¢": 8082,
      ".ĠItokasiĠÃĢwá»įn": 8083,
      "7.": 8084,
      "5)": 8085,
      "s,": 8086,
      "ĠshekararĠ201": 8087,
      "4.": 8088,
      "ĠÃłĠla": 8089,
      ",Ġna": 8090,
      "5.": 8091,
      "8.": 8092,
      "9.": 8093,
      "ĠaĠranar": 8094,
      ",ĠmshindiĠwaĠTuzoĠyaĠNobelĠya": 8095,
      "ĠdaĠta": 8096,
      "ĠkatiĠya": 8097,
      "ĠnÃŃĠá»įdÃºn": 8098,
      "1-": 8099,
      "ĠáĬ¥.áĬ¤": 8100,
      "7)": 8101,
      "2,": 8102,
      "6)": 8103,
      "4)": 8104,
      "3.": 8105,
      "9,": 8106,
      "ĠKarneĠya": 8107,
      "ĠwasanĠÆĻwallonĠÆĻafa": 8108,
      "áĪīáį¢": 8109,
      "3)": 8110,
      "Ġjama'a": 8111,
      ",Ġya": 8112,
      "Ġ(BaadaĠyaĠKristo).ĠMatukioĠWaliozaliwa": 8113,
      ",Ġthe": 8114,
      "1)": 8115,
      "ĠáĪĺáĭ°áī¥Ġ:Ġáī°áĪ¨áīµáĬĵĠáĪĿáĪ³áĪĮ": 8116,
      "es,": 8117,
      "9)": 8118,
      "6,": 8119,
      "7,": 8120,
      "Ġ'yan": 8121,
      "8,": 8122,
      "ĠnaĠfarko": 8123,
      "4,": 8124,
      "2)": 8125,
      "5,": 8126,
      "ĠtaĠÆĻasar": 8127,
      "3,": 8128,
      "ĠdaĠya": 8129,
      "ĠilÃ©-": 8130,
      "ĠdaĠsuka": 8131,
      "s.": 8132,
      ".ĠManazarta": 8133,
      "ĠwasanĠÆĻwallonĠÆĻafaĠtaĠÆĻasar": 8134,
      "ĠtoĠthe": 8135,
      "8)": 8136,
      ",ĠS": 8137,
      "0)": 8138,
      "ĠáĬ¥.áĬ¤.áĬł.": 8139,
      "ĠkutokaĠMarekani": 8140,
      "Ġáĭĵ/áĪĿĠ-": 8141,
      ",Ġet": 8142,
      "ĠaĠNajeriya": 8143,
      "ĠbaĠda": 8144,
      "ĠniĠÃ³": 8145,
      "ĠtanaĠda": 8146,
      "ĠpamojaĠna": 8147,
      ",ĠM": 8148,
      ",Ġla": 8149,
      "áĭĭáĪįáį¢": 8150,
      "Ġ(anĠhaifeĠshi": 8151,
      "ĠneĠa": 8152,
      "ĠÃłĠl": 8153,
      ",ĠK": 8154,
      "ĠtÃŃĠa": 8155,
      ",ĠB": 8156,
      "ĠJami'ar": 8157,
      "Ġ(S": 8158,
      ",Ġm": 8159,
      "anaĠna": 8160,
      "Ġ(C": 8161,
      "Ġá»įdÃºnĠ201": 8162,
      ",ĠO": 8163,
      "Ġ(BaadaĠyaĠKristo).ĠMatukioĠWaliozaliwaĠWaliofariki": 8164,
      "Ġ(M": 8165,
      "áĪĿáį¢": 8166,
      "ĠtaĠyi": 8167,
      "AĠcikin": 8168,
      "ĠamfaniĠda": 8169,
      ".ĠÃĢwá»įn": 8170,
      "ĠdeĠl'": 8171,
      "ĠwasanĠÆĻwallonĠÆĻafaĠtaĠÆĻasarĠIngila": 8172,
      "ĠyaĠku": 8173,
      "ĠáĬĲáīłáĪ¨áį¢": 8174,
      "Ġal-": 8175,
      ",ĠA": 8176,
      "Ġ(m": 8177,
      "Ġ(199": 8178,
      "Ġne.": 8179,
      "ĠitaĠce": 8180,
      "ĠwÃłĠnÃŃ": 8181,
      "ĠáĪĽáĪĪáīµĠáĬĲáĭįáį¢": 8182,
      "ĠwandaĠya": 8183,
      "Ġgáº¹Ìģgáº¹ÌģĠbÃŃ": 8184,
      "áį¢Ġáīł": 8185,
      "o,": 8186,
      "Ġá»įjá»įÌģÃ¬bÃŃĠnÃŃ": 8187,
      "er,": 8188,
      "ĠdâĢĻ": 8189,
      "Ġ(A": 8190,
      ".ĠA": 8191,
      "Ġd'un": 8192,
      "ĠdansĠle": 8193,
      "ĠyaĠkasance": 8194,
      "ĠdaĠake": 8195,
      "ĠvyaĠnje": 8196,
      "es.": 8197,
      ",Ġil": 8198,
      "áī³áĪįáį¢": 8199,
      "2-": 8200,
      "ĠnchiĠya": 8201,
      "ĠNÃłÃ¬jÃŃrÃŃÃł.": 8202,
      ",Ġan": 8203,
      "ĠyaĠyi": 8204,
      "Ġ(áĬ¨": 8205,
      "ĠgameĠda": 8206,
      "ĠyanaĠda": 8207,
      "áį£Ġáīł": 8208,
      ")Ġ(": 8209,
      "wa.": 8210,
      "ĠmkuuĠwa": 8211,
      "áį£Ġáĭ¨": 8212,
      "wa,": 8213,
      ",Ġ201": 8214,
      ")Ġni": 8215,
      "on,": 8216,
      "Ġd'une": 8217,
      "edĠby": 8218,
      "ĠNajeriya.": 8219,
      "ĠandĠthe": 8220,
      "ĠaĠkan": 8221,
      "ĠyaĠK": 8222,
      "ĠciĠgaba": 8223,
      "Ġ(B": 8224,
      "ĠlâĢĻ": 8225,
      "arĠda": 8226,
      "ĠupandeĠwa": 8227,
      "ĠkumaĠta": 8228,
      ",Ġles": 8229,
      "Ġ(N": 8230,
      "ĠsamarĠda": 8231,
      "ĠniĠwá»įÌģn": 8232,
      ",Ġinda": 8233,
      ",ĠI": 8234,
      "ziĠwa": 8235,
      "Ġ|ĠRD": 8236,
      "Ġlá»įĠsÃŃ": 8237,
      "2Ġáĭĵ.áĪĿ.": 8238,
      "ĠaĠjihar": 8239,
      "áĪĪáī½áį¢": 8240,
      ",ĠC": 8241,
      "ĠáĬŃáįįáĪĪĠáĭĺáĪĺáĬķ": 8242,
      "ĠNijeriya.": 8243,
      "ĠáĬĲáīłáĪ©áį¢": 8244,
      "Ġ(anĠhaifeĠshiĠaĠshekaraĠta": 8245,
      ",Ġ200": 8246,
      ",ĠD": 8247,
      ",Ġen": 8248,
      ",ĠN": 8249,
      "ĠniĠa": 8250,
      ",ĠT": 8251,
      "ĠhadaĠda": 8252,
      "ĠkumaĠya": 8253,
      "ĠnÃŃĠibi": 8254,
      "ĠdaĠyawa": 8255,
      "ingĠthe": 8256,
      "ĠtaĠhanyar": 8257,
      "ĠáĭŃáī£áĪĭáĪįáį¢": 8258,
      "ĠáĪĨáĬĲáį¢": 8259,
      "y,": 8260,
      "ĠtaĠkasance": 8261,
      "edĠto": 8262,
      "ĠmÃ¡aĠÅĦ": 8263,
      "Ġ(BaadaĠyaĠKristo).ĠMatukioĠWaliozaliwaĠWaliofarikiĠKarneĠya": 8264,
      ",Ġo": 8265,
      "Ġ(P": 8266,
      "Ġ1.": 8267,
      "ĠáĬĲáĭįáį¡áį¡": 8268,
      "ĠneĠdaga": 8269,
      "ĠViungoĠvyaĠnje": 8270,
      "ĠetĠde": 8271,
      ",Ġqui": 8272,
      "3-": 8273,
      ".com": 8274,
      "waĠda": 8275,
      "a.": 8276,
      "ĠbaadaĠya": 8277,
      "ĠáĭĭáĬĵĠáĬ¨áī°áĪĽ": 8278,
      "ĠdansĠla": 8279,
      "ĠnaĠbiyu": 8280,
      "ĠdayaĠdagaĠcikin": 8281,
      "Ġ1,": 8282,
      "ĠorÃŃláº¹ÌĢĠÃ¨dÃ¨": 8283,
      "ĠkarneĠya": 8284,
      "ĠbabbanĠbirnin": 8285,
      "ĠnÃŃĠibiĠÃ¬gbÃłjÃ¡": 8286,
      "ĠkÃ©kerÃ©ĠnÃŃĠibiĠÃ¬gbÃłjÃ¡": 8287,
      ".ĠI": 8288,
      "ĠtiĠa": 8289,
      ",ĠdaĠkuma": 8290,
      "ĠkÃ©kerÃ©ĠnÃŃĠibiĠÃ¬gbÃłjÃ¡ĠÃ¡stáº¹Ìģrá»įÌģÃ¬dÃ¬": 8291,
      "ĠchiniĠya": 8292,
      "ĠNewĠYork": 8293,
      "ĠplÃ¡náº¹ÌģtÃ¬ĠkÃ©kerÃ©ĠnÃŃĠibiĠÃ¬gbÃłjÃ¡ĠÃ¡stáº¹Ìģrá»įÌģÃ¬dÃ¬": 8294,
      "jiĠwa": 8295,
      ",Ġl": 8296,
      "ia,": 8297,
      "ĠyawanĠjama'a": 8298,
      "ĠaĠshekararĠ201": 8299,
      "oĠwa": 8300,
      "ĠlughaĠya": 8301,
      "ĠfromĠthe": 8302,
      "áī½áį¢": 8303,
      "ĠjinaĠla": 8304,
      "k.": 8305,
      "áį£ĠáĬ¨": 8306,
      ",ĠG": 8307,
      "ĠdaĠdama": 8308,
      "a,": 8309,
      "ĠáĭŃáĮĪáĬĽáĪįáį¢": 8310,
      "ĠneĠna": 8311,
      "áī·áĪįáį¢": 8312,
      "ĠeneoĠla": 8313,
      "ĠonĠthe": 8314,
      "9Ġ-": 8315,
      ",Ġ199": 8316,
      ",ĠL": 8317,
      "5Ġ-": 8318,
      "jáº¹ÌģĠplÃ¡náº¹ÌģtÃ¬ĠkÃ©kerÃ©ĠnÃŃĠibiĠÃ¬gbÃłjÃ¡ĠÃ¡stáº¹Ìģrá»įÌģÃ¬dÃ¬": 8319,
      "ĠwaĠMarekani": 8320,
      "Ġ(F": 8321,
      "Ġ(áĭ¨": 8322,
      "us,": 8323,
      "edĠthe": 8324,
      "www.": 8325,
      "Ġ(198": 8326,
      "ĠarÃ¡ĠAmáº¹ÌģrÃŃkÃł": 8327,
      "ĠtÃŃĠÃ³ĠsÃ¬": 8328,
      ",ĠdaĠke": 8329,
      "ĠáĬ¥áĮįáĪŃĠáĬ³áĪµ": 8330,
      "u,": 8331,
      "áĪ«áĪįáį¢": 8332,
      "ĠaĠwatan": 8333,
      "ĠyaĠm": 8334,
      "Ġba.": 8335,
      "ĠkwaĠsababu": 8336,
      "1892Ġáĭĵ.áĪĿ.": 8337,
      "ĠdansĠles": 8338,
      "ĠÂ«áĭ¨": 8339,
      "e,": 8340,
      "ĠaĠlokacin": 8341,
      "ĠtaĠfarko": 8342,
      "1Ġ-": 8343,
      "taĠna": 8344,
      "jáº¹ÌģĠplÃ¡náº¹ÌģtÃ¬ĠkÃ©kerÃ©ĠnÃŃĠibiĠÃ¬gbÃłjÃ¡ĠÃ¡stáº¹Ìģrá»įÌģÃ¬dÃ¬.ĠItokasi": 8345,
      "://www.": 8346,
      "-áĬł": 8347,
      "i.": 8348,
      "Ġ(K": 8349,
      "6-": 8350,
      ",ĠF": 8351,
      "Ġ(I": 8352,
      "ĠnÃŃĠá»įjá»įÌģ": 8353,
      "4-": 8354,
      "ĠaĠfannin": 8355,
      "ĠkarniĠna": 8356,
      "ĠwaĠni": 8357,
      "áĬĽáį¦": 8358,
      "ĠUniversityĠof": 8359,
      "-B": 8360,
      "ia.": 8361,
      "áĪĿáį¡": 8362,
      ",Ġamma": 8363,
      "ĠnaĠm": 8364,
      "i,": 8365,
      "-M": 8366,
      "áī£áĪįáį¢": 8367,
      "Ġn.": 8368,
      "en,": 8369,
      "ĠnÃŃĠÃ¬lÃº": 8370,
      "Ġ2007": 8371,
      "0-": 8372,
      "5-": 8373,
      "ĠharĠzuwa": 8374,
      "ta,": 8375,
      "en.": 8376,
      "ĠdakeĠa": 8377,
      "ĠaĠgasar": 8378,
      "ĠforĠthe": 8379,
      ",ĠÃłti": 8380,
      "-C": 8381,
      "ĠkÃŃĠÃ³": 8382,
      "ta.": 8383,
      "ĠetĠla": 8384,
      "-I": 8385,
      "Ġ'yar": 8386,
      "Ġ'Yan": 8387,
      "ĠtÃŃĠÃłwá»įn": 8388,
      "ĠshekaraĠtaĠ201": 8389,
      "ĠetĠle": 8390,
      ",ĠE": 8391,
      "o.": 8392,
      ",Ġati": 8393,
      ",Ġb": 8394,
      ",ĠR": 8395,
      "ĠniĠo": 8396,
      "ĠwasanĠkwaikwayo": 8397,
      "sa.": 8398,
      "-O": 8399,
      "Ġfina-": 8400,
      "Ġ(T": 8401,
      "c.": 8402,
      "ĠdaĠna": 8403,
      "ĠsehemuĠya": 8404,
      "ĠatĠthe": 8405,
      "1Ġáĭĵ.áĪĿ.": 8406,
      "Ġ2006": 8407,
      "7Ġ-": 8408,
      "waĠa": 8409,
      "ĠáīĢáĬķĠáīłáĬ¢áīµáĭ®áĮµáĭ«": 8410,
      "9-": 8411,
      "ĠtÃŃĠÃ³Ġti": 8412,
      "ĠnÃŃĠÃĮpÃŃnláº¹ÌĢ": 8413,
      "0Ġ-": 8414,
      "ĠofĠa": 8415,
      "edĠin": 8416,
      "\"Ġ(": 8417,
      "ĠáĪ¥áĪŃáĭĪĠáĪĺáĬķáĮįáĪ¥áīµ": 8418,
      "ĠciĠgabaĠda": 8419,
      "áĪĿáį£": 8420,
      "ĠdanĠwasanĠÆĻwallonĠÆĻafaĠtaĠÆĻasarĠIngila": 8421,
      "e.": 8422,
      "-m": 8423,
      "-Ã¬": 8424,
      "8Ġ-": 8425,
      "ĠáĬ¥áĬĵĠáĭ¨": 8426,
      ",Ġin": 8427,
      "ĠjuuĠya": 8428,
      "ĠtaĠzama": 8429,
      "ĠnÃŃĠÃ¬": 8430,
      "ĠyaĠzama": 8431,
      ":ĠThe": 8432,
      "ĠnÃ¡Ãł.": 8433,
      "2Ġ-": 8434,
      "Ġ(D": 8435,
      ",Ġ198": 8436,
      "ĠáĭĵáĬŃáĪįáīł.ĠáĮįáĭµáĪĿ": 8437,
      "ĠilÃ©-áº¹ÌĢká»įÌģ": 8438,
      "ĠdagaĠbaya": 8439,
      "Ġ(p": 8440,
      ",ĠÃł": 8441,
      "AĠwatan": 8442,
      "ĠáĮĢáĪĿáĪ®ĠáĬ¥áĪµáĬ¨": 8443,
      ",Ġto": 8444,
      "Ġ2.": 8445,
      ",Ġs": 8446,
      "7-": 8447,
      "Ġ(U": 8448,
      "Ġ(L": 8449,
      "u.": 8450,
      "ĠgabatarĠda": 8451,
      "Ġáĭ¨áĬłáĪĽáĪŃáĬĽĠáĪĿáĪ³áĪĮĠáĬĲáĭįáį¢ĠáīµáĪŃáĮīáĪĻĠáĪĺáĭ°áī¥Ġ:Ġáī°áĪ¨áīµáĬĵĠáĪĿáĪ³áĪĮ": 8452,
      "Ġ2003": 8453,
      "ĠmaiĠsuna": 8454,
      "Ġ(G": 8455,
      "ĠceĠta": 8456,
      "Ġ(d": 8457,
      "ĠkutokanaĠna": 8458,
      "ĠparĠle": 8459,
      "Ġ(ojoibi": 8460,
      "ziĠya": 8461,
      "ĠaĠyankin": 8462,
      "ĠOrodhaĠya": 8463,
      ",Ġsai": 8464,
      "ĠTazamaĠpia": 8465,
      "ĠáĬ¥áĬĵĠáīł": 8466,
      "ĠetĠles": 8467,
      "-Ãł": 8468,
      "-S": 8469,
      "8-": 8470,
      "áī°áĭĭáĪįáį¢": 8471,
      "ĠshiĠneĠdanĠwasanĠÆĻwallonĠÆĻafaĠtaĠÆĻasarĠIngila": 8472,
      "ĠnÃŃnÃºĠÃłwá»įn": 8473,
      "ĠtÃŃĠÃ³Ġjáº¹Ìģ": 8474,
      "esĠde": 8475,
      "er.": 8476,
      "ĠáĮį.": 8477,
      "ĠyaĠmwaka": 8478,
      "ĠwakatiĠwa": 8479,
      "-A": 8480,
      "Ġ(áīł": 8481,
      "áī¸áĭįáį¢": 8482,
      ",Ġde": 8483,
      ",ĠJ": 8484,
      ",Ġni": 8485,
      ",ĠH": 8486,
      ",Ġmwandishi": 8487,
      "ĠfimĠdin": 8488,
      "ĠtoĠgba": 8489,
      "ĠáĭŃáī½áĪĭáĪįáį¢": 8490,
      ".ĠM": 8491,
      "AĠranar": 8492,
      "y.": 8493,
      "ĠfÃºnĠÃłwá»įn": 8494,
      "ĠKanananĠhukumomin": 8495,
      "ĠmjiĠwa": 8496,
      "ĠestĠun": 8497,
      ",Ġc": 8498,
      ",ĠP": 8499,
      "áĬķáį¡": 8500,
      "ĠnÃŃnÃºĠerÃ©": 8501,
      "4Ġ-": 8502,
      "Ġqu'il": 8503,
      "ĠhukumaĠce": 8504,
      "ĠtÃŃĠÃ³ĠÅĦ": 8505,
      "zoĠya": 8506,
      ",Ġ\"": 8507,
      "ĠáĭįáĪµáĮ¥Ġáĭ¨áĪļáĮĪáĬĿ": 8508,
      "-s": 8509,
      "ĠáĭŃáī³áĭĪáīĥáĪįáį¢": 8510,
      ",Ġt": 8511,
      "ĠkulaĠda": 8512,
      "Ġ2005": 8513,
      "áĪĭáĪįáį¢": 8514,
      ",Ġko": 8515,
      "áĪŃ-": 8516,
      "Ġ2000": 8517,
      "ya.": 8518,
      "ĠnaĠu": 8519,
      ",Ġ196": 8520,
      "Ġ(J": 8521,
      "Ġtele.ĠItokasiĠÃĢwá»įn": 8522,
      "ĠwaĠfilamu": 8523,
      "3Ġ-": 8524,
      "Ġáī¤áī°ĠáĬŃáĪŃáĪµáī²áĭ«áĬķ": 8525,
      "ya,": 8526,
      "6Ġ-": 8527,
      "ĠaĠkasar": 8528,
      "ĠaĠduniya": 8529,
      "A.": 8530,
      "ĠáīłáĭĺáĪĺáĬĲĠáĭ®áĪĲáĬķáĪµ": 8531,
      "Ġ(s": 8532,
      "ĠparĠles": 8533,
      "Ġráº¹ÌĢ.": 8534,
      "Ġd'A": 8535,
      "ĠyaĠmutu": 8536,
      "áĬĽáĭįĠáĬŃáįįáĪĪĠáĭĺáĪĺáĬķ": 8537,
      "ĠtiĠwon": 8538,
      "ĠparĠla": 8539,
      "ĠwithĠthe": 8540,
      "Ġ(n": 8541,
      "áĪĿĠáīł": 8542,
      "ĠmaĠÅĦ": 8543,
      ".ĠK": 8544,
      "MwakaĠwa": 8545,
      "Ġ(R": 8546,
      "ĠtaĠfara": 8547,
      "ĠasĠa": 8548,
      "ĠáĪ²áĪĨáĬķĠáĭŃáĪħ": 8549,
      ".S": 8550,
      "Ġl'Ã©": 8551,
      "ĠaikiĠa": 8552,
      "Ġ(E": 8553,
      "ĠáĪ²áĪĨáĬķáį£": 8554,
      "Ġ|ĠRD1-": 8555,
      "ĠlokacinĠda": 8556,
      "-R": 8557,
      "Ġ2014": 8558,
      "ĠAfrikaĠya": 8559,
      "Ġáº¹láº¹ÌģbÃ¹nĠNobel": 8560,
      ",ĠtareĠda": 8561,
      ",Ġ197": 8562,
      ",ĠU": 8563,
      "ĠorÃŃláº¹ÌĢ-Ã¨dÃ¨ĠNÃłÃ¬jÃŃrÃŃÃł": 8564,
      "ĠasĠthe": 8565,
      "ĠRoma,": 8566,
      "ĠdaĠshi": 8567,
      "ĠyaĠfara": 8568,
      "Ġ2012": 8569,
      ")Ġna": 8570,
      ",Ġlakini": 8571,
      "ĠwaĠTanzania": 8572,
      "Ġd'a": 8573,
      "ĠpÃ¨ĠnÃŃ": 8574,
      "áĬĵĠáĬ¨": 8575,
      ",Ġmwigizaji": 8576,
      "Ġ(O": 8577,
      "Ġá¹£eĠÃł": 8578,
      "Ġ2008": 8579,
      "an.": 8580,
      ",ĠmshindiĠwaĠTuzoĠyaĠNobelĠyaĠTiba": 8581,
      "-K": 8582,
      "on.": 8583,
      "-daban": 8584,
      "ĠaikiĠaĠmatsayin": 8585,
      "ĠwaĠkwanza": 8586,
      "ĠsikuĠya": 8587,
      "ĠÃłwá»įnĠá»įjá»įÌģÃ¬bÃŃĠnÃŃ": 8588,
      "Ġdaban-daban": 8589,
      ",ĠwandaĠya": 8590,
      ")Ġ-": 8591,
      "oĠya": 8592,
      ",Ġsannan": 8593,
      "ĠtaĠsamu": 8594,
      "Ġ2011": 8595,
      "Ġ(anĠhaifeĠta": 8596,
      "ĠsurĠle": 8597,
      "Ġ2020": 8598,
      "Ġ2,": 8599,
      "Ġn.k.": 8600,
      "ĠyayinĠda": 8601,
      ",Ġg": 8602,
      "ĠisĠa": 8603,
      "ĠgudanarĠda": 8604,
      ",ĠÃ¬": 8605,
      "ka.": 8606,
      "ĠÃłtiĠÃłwá»įn": 8607,
      "Ġ2015": 8608,
      "ĠkutokaĠnchiĠya": 8609,
      "Ġne,": 8610,
      "Ġne,ĠdaĠke": 8611,
      "Ġ(197": 8612,
      "ani.": 8613,
      ",Ġmais": 8614,
      "ĠbaĠta": 8615,
      ".ĠB": 8616,
      "Ġ(W": 8617,
      "ĠáīłáĮİáĪŃáĮİáĪŃáĭ«áĬķĠáĬ«áĪĮáĬķáĭ³áĪŃ": 8618,
      "iaĠya": 8619,
      "ĠdeĠc": 8620,
      "ĠáĬłáĭ²áĪµĠáĬłáīłáī£": 8621,
      "an,": 8622,
      ".org": 8623,
      "ĠkuduĠmaso": 8624,
      "áį¡áĭ¨": 8625,
      "Ġ2010": 8626,
      "Ġjáº¹ÌģĠá»įmá»į": 8627,
      "-o": 8628,
      "ation.": 8629,
      "AĠshekarar": 8630,
      "ĠsamaĠda": 8631,
      "ĠáĪµáĪĿĠáīłáĬ¥áĬķáĮįáĪĬáĭĿáĬĽ": 8632,
      "áĬĵĠáĭ¨": 8633,
      "ĠáīĢáĬķĠáį²áį±áį»": 8634,
      "Ġ1999": 8635,
      "ĠbyĠthe": 8636,
      "ĠtaraĠda": 8637,
      "Ġ2091Ġáĭĵ.áĪĿ.": 8638,
      "ĠnaĠma": 8639,
      ",ĠW": 8640,
      ".ĠÃĮ": 8641,
      "ĠáĬłáīĨáĮ£áĮłáĪŃĠ(áĬ¨": 8642,
      "1892Ġáĭĵ.áĪĿ.ĠáĮĢáĪĿáĪ®ĠáĬ¥áĪµáĬ¨": 8643,
      "ĠáīĢáĬķĠáīłáĬ¢áīµáĭ®áĮµáĭ«ĠáĬłáīĨáĮ£áĮłáĪŃĠ(áĬ¨": 8644,
      "1892Ġáĭĵ.áĪĿ.ĠáĮĢáĪĿáĪ®ĠáĬ¥áĪµáĬ¨Ġ2091Ġáĭĵ.áĪĿ.": 8645,
      "ĠáīĢáĬķĠáīłáĬ¢áīµáĭ®áĮµáĭ«ĠáĬłáīĨáĮ£áĮłáĪŃĠ(áĬ¨1892Ġáĭĵ.áĪĿ.ĠáĮĢáĪĿáĪ®ĠáĬ¥áĪµáĬ¨Ġ2091Ġáĭĵ.áĪĿ.": 8646,
      "ĠBKĠ(BaadaĠyaĠKristo).ĠMatukioĠWaliozaliwaĠWaliofarikiĠKarneĠya": 8647,
      "ĠáĬĲáĭįáį¢Ġáĭ¨": 8648,
      "Ġ(a": 8649,
      "áĪĿĠáĬ¨": 8650,
      "Ġáĭ¨áīĢáĬķĠáĪµáĪĿĠáīłáĬ¥áĬķáĮįáĪĬáĭĿáĬĽ": 8651,
      "ĠáĪ²áĪĨáĬķĠáĭŃáĪħĠáīĢáĬķĠáīłáĬ¢áīµáĭ®áĮµáĭ«ĠáĬłáīĨáĮ£áĮłáĪŃĠ(áĬ¨1892Ġáĭĵ.áĪĿ.ĠáĮĢáĪĿáĪ®ĠáĬ¥áĪµáĬ¨Ġ2091Ġáĭĵ.áĪĿ.": 8652,
      "ĠáīłáĮİáĪŃáĮİáĪŃáĭ«áĬķĠáĬ«áĪĮáĬķáĭ³áĪŃĠáĭ¨áīĢáĬķĠáĪµáĪĿĠáīłáĬ¥áĬķáĮįáĪĬáĭĿáĬĽ": 8653,
      "ĠáīłáĮİáĪŃáĮİáĪŃáĭ«áĬķĠáĬ«áĪĮáĬķáĭ³áĪŃĠáĭ¨áīĢáĬķĠáĪµáĪĿĠáīłáĬ¥áĬķáĮįáĪĬáĭĿáĬĽĠáĪ²áĪĨáĬķĠáĭŃáĪħĠáīĢáĬķĠáīłáĬ¢áīµáĭ®áĮµáĭ«ĠáĬłáīĨáĮ£áĮłáĪŃĠ(áĬ¨1892Ġáĭĵ.áĪĿ.ĠáĮĢáĪĿáĪ®ĠáĬ¥áĪµáĬ¨Ġ2091Ġáĭĵ.áĪĿ.": 8654,
      "ĠáīĢáĬķĠáĪĽáĪĪáīµĠáĬĲáĭįáį¢": 8655,
      "Ġ(áĬ¥áĬķáĮįáĪĬáĭĿáĬĽ": 8656,
      "ĠAfirkaĠta": 8657,
      "ĠáĬĲáĮĪáĪŃĠáĮįáĬķ": 8658,
      "-P": 8659,
      "ji.": 8660,
      "ĠaĠs": 8661,
      ",ĠÃłwá»įn": 8662,
      "ĠtaĠNajeriya": 8663,
      "ĠkwallonĠkafa": 8664,
      "Ġshirye-": 8665,
      "Ġ2018": 8666,
      "ĠMkoaĠwa": 8667,
      "waĠkwa": 8668,
      "Ġ2013": 8669,
      "ĠnaĠwa": 8670,
      "TaĠyi": 8671,
      "-d": 8672,
      "Ġ2009": 8673,
      "ĠsurĠla": 8674,
      "ĠdaĠcewa": 8675,
      "ĠáīĢáĬķĠ-": 8676,
      "ĠlambarĠyabo": 8677,
      "ĠyaĠu": 8678,
      "ariĠwa": 8679,
      "Ġile-": 8680,
      "ĠkasaĠda": 8681,
      "áį¡áīł": 8682,
      ",ĠmwakaĠwa": 8683,
      ":ĠA": 8684,
      "ĠFizikiaĠmwakaĠwa": 8685,
      "ĠdeĠlâĢĻ": 8686,
      "ĠwandaĠaka": 8687,
      "Ġ3.": 8688,
      "ĠKanananĠhukumominĠjihar": 8689,
      ".com/": 8690,
      "Ġ1960": 8691,
      "score0": 8692,
      "áĬĵĠáīł": 8693,
      "Ġd'Ã©": 8694,
      ",Ġun": 8695,
      "áīłáīµĠáĮĬáĭľ": 8696,
      "-n": 8697,
      "-E": 8698,
      "ĠDolaĠla": 8699,
      ",ĠmshindiĠwaĠTuzoĠyaĠNobelĠyaĠTibaĠmwakaĠwa": 8700,
      "ĠhaifeĠshi": 8701,
      "áĬĵáĪįáį¢": 8702,
      "ĠsaniĠda": 8703,
      ",Ġp": 8704,
      "Ġ2002": 8705,
      "ĠáĬłáĪīáį¢": 8706,
      "ĠetĠdes": 8707,
      "ĠyaĠki": 8708,
      "ĠáĬłáįĪĠáī³áĪªáĬŃ": 8709,
      "ĠÃłtiĠÃ¬": 8710,
      "ĠAfrikaĠKusini": 8711,
      "ĠnaĠda": 8712,
      "áĭįĠáĭ¨": 8713,
      "Ġ2016": 8714,
      "ationĠof": 8715,
      "ĠmjiĠmkuuĠwa": 8716,
      "ĠlÃ¡raĠÃłwá»įn": 8717,
      ".ĠÃĢ": 8718,
      "le,": 8719,
      "ĠdeĠson": 8720,
      "ĠáīłáĬĭáĪĭĠáĬ¥áĪµáĬ¨": 8721,
      ")Ġáīł": 8722,
      "-z": 8723,
      ".ĠH": 8724,
      "us.": 8725,
      "Ġ2004": 8726,
      "ĠhaifeĠta": 8727,
      "ĠidadiĠya": 8728,
      "Ġ2019": 8729,
      "áīµáį¢": 8730,
      "Ġ(áĬł": 8731,
      "Ġáī³áĪªáĬ«áĭĬĠáĪĽáĪµáī³áĭĪáĪ»áĭİáī½": 8732,
      "NÃŃĠá»įdÃºnĠ201": 8733,
      "ĠcinĠkofin": 8734,
      "-G": 8735,
      "ĠáīłáĭĺáĪĺáĬĲĠáĪīáīĥáĪµ": 8736,
      "Ġjáº¹ÌģĠÃ²á¹£Ã¨rÃ©": 8737,
      "ĠaĠgarin": 8738,
      "is,": 8739,
      "Ġ(196": 8740,
      "ĠbisaĠga": 8741,
      "ĠáĪĺáĪįáĬŃáĭĵĠáĪĿáĭµáĪŃ": 8742,
      "ĠÃłĠl'": 8743,
      "Ġ1990": 8744,
      "ĠyaĠU": 8745,
      "ĠarÃ¡ĠNÃłÃ¬jÃŃrÃŃÃł": 8746,
      "ĠÃ¨nÃ¬yÃłnĠalÃłÃłyÃ¨": 8747,
      "ĠshiĠneĠdanĠwasanĠÆĻwallonĠÆĻafaĠtaĠÆĻasarĠIngila.": 8748,
      ",Ġwhich": 8749,
      "ĠkifoĠchake": 8750,
      "Ġáĭĭáī¢ĠáĪĿáĬķáĮ®áī½": 8751,
      "Ġ2017": 8752,
      "le.": 8753,
      "ĠginaĠbirnin": 8754,
      ",ĠmshindiĠwaĠTuzoĠyaĠNobelĠyaĠKemia": 8755,
      ".ĠS": 8756,
      "-áº¹ÌĢyáº¹": 8757,
      "ĠkamarĠyadda": 8758,
      "ĠáĬ¨áī°áĪĽĠáĬĲáĭįáį¢": 8759,
      "ĠkwaĠku": 8760,
      "áĪıáĪįáį¢": 8761,
      "ĠnÃŃĠÃł": 8762,
      "áį¤Ġáīł": 8763,
      "-r": 8764,
      ".ĠJ": 8765,
      ":Ġ\"": 8766,
      "ĠnaĠM": 8767,
      "ĠkatikaĠmiaka": 8768,
      "kuwaĠna": 8769,
      "Ġfina-finai": 8770,
      "ĠyaĠkwanza": 8771,
      "ĠyaĠkwamba": 8772,
      ",ĠÃ³ĠsÃ¬": 8773,
      "ĠÃłwá»įnĠÃ¨nÃ¬yÃłn": 8774,
      "ĠndaniĠya": 8775,
      "ĠUmojaĠwa": 8776,
      ",ĠmshindiĠwaĠTuzoĠyaĠNobelĠyaĠFizikiaĠmwakaĠwa": 8777,
      ",Ġk": 8778,
      "Ġ(H": 8779,
      "áĪĭáĪīáį¢": 8780,
      "áĬķĠáĭ«": 8781,
      "ing.": 8782,
      "ĠáĬĵáīµáį¢": 8783,
      "ĠsunĠhadaĠda": 8784,
      "ĠkaramarĠhukumar": 8785,
      ")ĠáĬ¥áĬĵ": 8786,
      "ĠáĭŃáĪĭáĪįáį¢": 8787,
      "ĠdaĠk": 8788,
      "ĠáĪĺáĮ¨áĪ¨áĪ»ĠáĭµáĪ¨áĪµ": 8789,
      ".ĠWaliozaliwa": 8790,
      "ĠáīłáĬĭáĪĭĠáĬ¥áĪµáĬ¨ĠáĭĵáĪĺáī±": 8791,
      ")ĠáĬ¨": 8792,
      "TaĠkuma": 8793,
      "ĠJamiâĢĻar": 8794,
      "ĠyaĠB": 8795,
      "ers.": 8796,
      ",ĠnÃŃ": 8797,
      ",Ġmai": 8798,
      "ĠkamaĠvile": 8799,
      "ĠáĭŃáīĢáĪ«áĪīáį¢": 8800,
      "-Ãºn": 8801,
      "áĬķĠáĬ¨": 8802,
      "-D": 8803,
      "anoĠwa": 8804,
      "Ġ(ya": 8805,
      "Ġ1980": 8806,
      ",ĠÃ¨yÃŃ": 8807,
      "wezaĠku": 8808,
      "ĠtÃŃĠÃ³ĠwÃłĠnÃŃ": 8809,
      "ĠáīłáĬĭáĪĭĠáĬ¥áĪµáĬ¨ĠáĭĵáĪĺáī±ĠáĪĺáĮ¨áĪ¨áĪ»ĠáĭµáĪ¨áĪµ": 8810,
      "0ĠáĭĵáĬŃáĪįáīł.": 8811,
      ",Ġv": 8812,
      "ĠbaĠa": 8813,
      "ĠaraĠAmerika": 8814,
      "Ġma'": 8815,
      ",Ġau": 8816,
      "ed.": 8817,
      "ĠáĭŃáĪĨáĬĵáĪįáį¢": 8818,
      "Ġ1970": 8819,
      "ĠtoĠbe": 8820,
      "-19": 8821,
      "oĠcha": 8822,
      "ĠisĠthe": 8823,
      "ĠwadandaĠsuka": 8824,
      ",Ġwá»įÌģn": 8825,
      "ĠáĭĺáĪĺáĬķĠáĬłáīĨáĮ£áĮłáĪŃ": 8826,
      "ĠyaĠKi": 8827,
      "ers,": 8828,
      "ĠtoĠgbaĠEbun": 8829,
      "ĠáĬ¥áĬķáĭ°Ġáī°": 8830,
      "ĠwaĠK": 8831,
      "ĠkammalaĠkaratun": 8832,
      ".ĠL": 8833,
      "ĠkmÂ²": 8834,
      "ĠbayarĠda": 8835,
      "Ġ(b": 8836,
      "ĠyaĠM": 8837,
      "ĠqueĠle": 8838,
      ".org/": 8839,
      "áĪ³áĪįáį¢": 8840,
      "ĠAgostiĠ-": 8841,
      "r.": 8842,
      "ka,": 8843,
      "taĠa": 8844,
      "sa,": 8845,
      "ĠaĠÆĻasar": 8846,
      "Ġl'a": 8847,
      "NÃŃĠá»įdÃºn": 8848,
      ",ĠmshindiĠwaĠTuzoĠyaĠNobelĠyaĠKemiaĠmwakaĠwa": 8849,
      "áĪĪáį¢": 8850,
      "Â»Ġ(": 8851,
      ")Ġáĭ¨": 8852,
      "áį£ĠáĪĪ": 8853,
      "ĠpourĠla": 8854,
      ")Ġa": 8855,
      "ĠyaĠk": 8856,
      "ĠalikuwaĠmshindiĠwaĠTuzoĠyaĠNobelĠya": 8857,
      "ĠáĭķáĪĪáīµĠáīłáĬĭáĪĭĠáĬ¥áĪµáĬ¨ĠáĭĵáĪĺáī±ĠáĪĺáĮ¨áĪ¨áĪ»ĠáĭµáĪ¨áĪµ": 8858,
      "ĠsunaĠda": 8859,
      "ĠilÃ©-iá¹£áº¹Ìģ": 8860,
      ",Ġ": 8861,
      "ĠáĭŃáī»áĪĭáĪįáį¢": 8862,
      "ĠáĭŃáĪĺáĪµáĪĭáĪįáį¢": 8863,
      "al.": 8864,
      "ationĠde": 8865,
      ".ĠTazamaĠpia": 8866,
      "ĠbirniĠne,ĠdaĠke": 8867,
      "Ġ\"S": 8868,
      "uwaĠda": 8869,
      "ĠáĬłáĪĪáĭįáį¢": 8870,
      "áĬ¨áĭļáĪħĠáĭķáĪĪáīµĠáīłáĬĭáĪĭĠáĬ¥áĪµáĬ¨ĠáĭĵáĪĺáī±ĠáĪĺáĮ¨áĪ¨áĪ»ĠáĭµáĪ¨áĪµ": 8871,
      "ĠnaĠK": 8872,
      "áį£ĠáĬ¥áĬĵ": 8873,
      "ĠOktobaĠ-": 8874,
      "Ġ(kwa": 8875,
      ",ĠY": 8876,
      "ĠsinimÃ¡ĠÃłgbÃ©lÃ©wÃ²": 8877,
      "áĪĿĠáĪĨáĬĲ": 8878,
      ",ĠaĠÆĻasar": 8879,
      "ĠMachiĠ-": 8880,
      ",ĠmwigizajiĠwaĠfilamu": 8881,
      "Ġ(An": 8882,
      "Ã©Ġen": 8883,
      "sĠand": 8884,
      "ĠinĠa": 8885,
      "ĠBKĠ(BaadaĠyaĠKristo).ĠMatukioĠWaliozaliwa": 8886,
      "ĠshekaraĠtaĠalif": 8887,
      ",Ġbut": 8888,
      "taĠda": 8889,
      "ĠniĠIpinle": 8890,
      "ĠÃĢwá»įnĠÃ¨nÃ¬yÃłnĠalÃłÃłyÃ¨": 8891,
      "ĠJulaiĠ-": 8892,
      "ĠIjobaĠIbile": 8893,
      "und)": 8894,
      "áī¸áĭĭáĪįáį¢": 8895,
      "ĠkwaĠajili": 8896,
      "Ġá»įjá»įÌģalÃ¡Ã¬sÃŃĠnÃŃ": 8897,
      "sĠof": 8898,
      "aneĠda": 8899,
      "áĪĪáĭĭáĪįáį¢": 8900,
      "ani,": 8901,
      "ĠyaĠnchi": 8902,
      "ĠSt.": 8903,
      "ĠkumaĠan": 8904,
      "ĠÃĢwá»įnĠá»įjá»įÌģÃ¬bÃŃĠnÃŃ": 8905,
      "saĠna": 8906,
      "Ġ|-Ġ|": 8907,
      ")Ġet": 8908,
      "is.": 8909,
      "ĠÃłwá»įnĠá»įmá»į": 8910,
      ",Ġ195": 8911,
      "oĠna": 8912,
      "Ġ(17": 8913,
      "que.": 8914,
      "Ġ1994": 8915,
      "ĠmataĠta": 8916,
      "Ġráº¹ÌĢĠnÃŃ": 8917,
      "Ġwengi,": 8918,
      "ĠmapokeoĠya": 8919,
      "in,": 8920,
      "Ġsu.": 8921,
      "ĠáĭĺáĪĺáĬĲĠáĪĽáī´áĭİáĪµ": 8922,
      "ĠwandaĠke": 8923,
      "ĠAlakosoĠAgba": 8924,
      "daĠda": 8925,
      "Ã©eĠpar": 8926,
      "áĮ¥áĪ¨ĠáĬĲáĮĪáĪ®áī½": 8927,
      "ĠÉĹayaĠdagaĠcikin": 8928,
      "ĠdakeĠaĠJihar": 8929,
      "ĠáĭķáĪĪáī°ĠáĪŀáīµ": 8930,
      ".ĠO": 8931,
      "Ġoá¹£Ã¹Ġkáº¹": 8932,
      "ĠdhidiĠya": 8933,
      "ĠceĠqui": 8934,
      "ĠkoĠkuma": 8935,
      ",ĠThe": 8936,
      "Ġ\"B": 8937,
      "ĠJuniĠ-": 8938,
      "ĠáĬĲáĭįáį¢ĠáĬ¨": 8939,
      "ĠnaĠNajeriya": 8940,
      "ĠâĢ¢ĠMto": 8941,
      "ĠáĪĽáĪŃáīĨáĪµĠáĭ°áĮįáĪŀ": 8942,
      "ĠtaĠda": 8943,
      "AgbegbeĠIjobaĠIbile": 8944,
      "ĠlambarĠyaboĠta": 8945,
      "-p": 8946,
      "áĪŃáį£": 8947,
      "ĠniĠsikuĠya": 8948,
      "ĠninuĠawon": 8949,
      "ĠUnitedĠStates": 8950,
      "áĪĿĠáĭ¨": 8951,
      "ĠnÃŃĠorÃŃláº¹ÌĢ-Ã¨dÃ¨": 8952,
      "ĠkÃŃĠÃ³ĠtÃ³": 8953,
      "-e": 8954,
      "ĠhadiĠkifoĠchake": 8955,
      "ĠFebruariĠ-": 8956,
      "ĠáĬłáĪĪáį¢": 8957,
      "Ġ2001": 8958,
      "Ġ3,": 8959,
      "áĪįáį£": 8960,
      "ĠyaĠb": 8961,
      "ĠshiĠda": 8962,
      "ĠkaribuĠna": 8963,
      "in.": 8964,
      "áį¡áĬł": 8965,
      "ÃĵĠjáº¹Ìģ": 8966,
      "áīłáī³áĪįáį¢": 8967,
      "ĠáĪ³áĭŃáĬķáĪ³áĭĬĠáĮ¸áī£áĭŃ": 8968,
      "ĠdaĠal": 8969,
      "ĠqueĠles": 8970,
      ",Ġf": 8971,
      "di.": 8972,
      "ĠlughaĠza": 8973,
      ".S.": 8974,
      "aryĠSchool": 8975,
      "-b": 8976,
      ")Ġje": 8977,
      ",Ġmwanamuziki": 8978,
      "ĠÅĦĠjáº¹Ìģ": 8979,
      "edĠa": 8980,
      ",000.": 8981,
      "Ġ(15": 8982,
      "ĠáĬ¥áĬķáĭ°ĠáĬĲáīłáĪŃ": 8983,
      "áĬĲáĮĪáĪŃĠáĮįáĬķ": 8984,
      "kinĠDuniya": 8985,
      ",ĠtÃŃ": 8986,
      ",Ġhasa": 8987,
      "ĠlaĠku": 8988,
      "Ġráº¹ÌĢĠjáº¹Ìģ": 8989,
      "ĠSeptembaĠ-": 8990,
      "-F": 8991,
      "ation,": 8992,
      "zoĠwa": 8993,
      "ĠofĠNigeria": 8994,
      "ĠtunĠdaga": 8995,
      "ĠJanuariĠ-": 8996,
      "-H": 8997,
      "áĬķáį£": 8998,
      "ĠaĠÃ©tÃ©": 8999,
      "ĠyaĠma": 9000,
      "fuĠwa": 9001,
      "Ġ1998": 9002,
      "aĠna": 9003,
      "ĠaĠduk": 9004,
      "uĠda": 9005,
      "Ġ(in": 9006,
      "Ġ4.": 9007,
      "ĠniĠá»įdun": 9008,
      "ine.": 9009,
      "ĠnchiniĠTanzania": 9010,
      "Ġ(1": 9011,
      "ĠRayayyunĠMutane": 9012,
      "iĠna": 9013,
      "ĠsurĠles": 9014,
      "ĠshigaĠcikin": 9015,
      "ĠhaifarĠda": 9016,
      "ĠyaĠmutuĠaĠshekaraĠta": 9017,
      "Ġ\"M": 9018,
      "ĠDesembaĠ-": 9019,
      "ĠdeĠC": 9020,
      "ĠáīµáĪĿáĪħáĪŃáīµĠáī¤áīµ": 9021,
      ")Ġ:": 9022,
      ",Ġn": 9023,
      "áĬķĠáīł": 9024,
      "ĠestĠle": 9025,
      "Ġ1993": 9026,
      "áĪ«áĪīáį¢": 9027,
      "Ġl'in": 9028,
      "Ã©Ġpar": 9029,
      "ĠzaĠa": 9030,
      "ĠdaĠK": 9031,
      "Ġáĭ¨áĪļáĮĪáĬĿáīłáīµĠáĪĺáĪįáĬŃáĭĵĠáĪĿáĭµáĪŃ": 9032,
      "áĭ²áĪµĠáĬłáīłáī£": 9033,
      "yĠof": 9034,
      "Ġ1991": 9035,
      "áį²áį±áį»áį¶": 9036,
      ".ĠÃĵ": 9037,
      "ĠáĭĺáĪĺáĬķĠáĬłáīĨáĮ£áĮłáĪŃĠáĭ¨áĭĵáĪĺáī±": 9038,
      "ĠpourĠles": 9039,
      "ĠdeĠl'Ã©": 9040,
      "áĮ£áĪįáį¢": 9041,
      "ĠkatikaĠmiakaĠmirefu": 9042,
      "-N": 9043,
      "t.": 9044,
      "Ġ(Y": 9045,
      "Ġjami'ar": 9046,
      "ĠwakifuataĠmapokeoĠya": 9047,
      "ĠRoma,Ġhuadhimisha": 9048,
      "ĠtoĠgbaĠEbunĠNobel": 9049,
      "ĠwakifuataĠmapokeoĠyaĠRoma,Ġhuadhimisha": 9050,
      "-T": 9051,
      "Ġáī¥áĭĻĠáĮĬáĭľ": 9052,
      "1=": 9053,
      "ĠtaĠsami": 9054,
      "Ġmá»įÌĢĠsÃŃ": 9055,
      "ĠMeiĠ-": 9056,
      "ĠuisheĠzinabaki": 9057,
      "Ġwengi,ĠwakifuataĠmapokeoĠyaĠRoma,Ġhuadhimisha": 9058,
      "ĠuisheĠzinabakiĠsiku": 9059,
      "DagaĠbaya": 9060,
      "48": 9061,
      "de,": 9062,
      "áĭ«áĪįáį¢": 9063,
      "http://www.": 9064,
      "2ĠâĢĵ": 9065,
      "ĠApriliĠ-": 9066,
      "ĠMpakaĠuisheĠzinabakiĠsiku": 9067,
      "ine,": 9068,
      "-áĬ¢": 9069,
      "áį²áį±áį»áį·": 9070,
      "Ġ(16": 9071,
      "ing,": 9072,
      "ĠaĠNajeriya.": 9073,
      "aĠya": 9074,
      "ĠzaĠwatakatifu": 9075,
      "ĠbÃŃĠnÃŃ": 9076,
      "Ġiláº¹ÌĢĠNÃłÃ¬jÃŃrÃŃÃł": 9077,
      ".ĠW": 9078,
      "ĠáĭĺáĪĺáĬĲĠáĪĽáĪŃáīĨáĪµĠáĭ°áĮįáĪŀ": 9079,
      "AĠshekararĠ201": 9080,
      "Ġal'um": 9081,
      "Ġjam'iyyar": 9082,
      "Ġ(t": 9083,
      "al,": 9084,
      "áį¡áī°": 9085,
      "ĠesĠSalaam": 9086,
      ".ĠT": 9087,
      "falmeĠwa": 9088,
      "Ġhttp://": 9089,
      "38": 9090,
      "5ĠâĢĵ": 9091,
      "ĠnaĠWa": 9092,
      "ĠsuĠne": 9093,
      ",Ġd": 9094,
      "2=": 9095,
      "ĠnÃŃĠÃ¬pÃŃnláº¹ÌĢ": 9096,
      "ĠÃĢwá»įnĠá»įjá»įÌģalÃ¡Ã¬sÃŃĠnÃŃ": 9097,
      "ale.": 9098,
      "Ġwá»įn.": 9099,
      "ĠqueĠla": 9100,
      "ĠkubwaĠya": 9101,
      "ĠaĠJami'ar": 9102,
      "ĠdaĠsauran": 9103,
      "Ġshirye-shiryen": 9104,
      "Ġ2006.": 9105,
      "Ġ1997": 9106,
      "Ġ(2005)": 9107,
      "TaĠkasance": 9108,
      "konĠrayuwa": 9109,
[...]
