{
  "version": "1.0",
  "truncation": null,
  "padding": null,
  "added_tokens": [
    {
      "id": 0,
      "content": "<pad>",
      "single_word": false,
      "lstrip": false,
      "rstrip": false,
      "normalized": false,
      "special": true
    },
    {
      "id": 1,
      "content": "<bos>",
      "single_word": false,
      "lstrip": false,
      "rstrip": false,
      "normalized": false,
      "special": true
    },
    {
      "id": 2,
      "content": "<eos>",
      "single_word": false,
      "lstrip": false,
      "rstrip": false,
      "normalized": false,
      "special": true
    }
  ],
  "normalizer": null,
  "pre_tokenizer": {
    "type": "ByteLevel",
    "add_prefix_space": false,
    "trim_offsets": true,
    "use_regex": false
  },
  "post_processor": {
    "type": "TemplateProcessing",
    "single": [
      {
        "SpecialToken": {
          "id": "<bos>",
          "type_id": 0
        }
      },
      {
        "Sequence": {
          "id": "A",
          "type_id": 0
        }
      },
      {
        "SpecialToken": {
          "id": "<eos>",
          "type_id": 0
        }
      }
    ],
    "pair": [
      {
        "SpecialToken": {
          "id": "<bos>",
          "type_id": 0
        }
      },
      {
        "Sequence": {
          "id": "A",
          "type_id": 0
        }
      },
      {
        "SpecialToken": {
          "id": "<eos>",
          "type_id": 0
        }
      },
      {
        "SpecialToken": {
          "id": "<bos>",
          "type_id": 0
        }
      },
      {
        "Sequence": {
          "id": "B",
          "type_id": 0
        }
      },
      {
        "SpecialToken": {
          "id": "<eos>",
          "type_id": 0
        }
      }
    ],
    "special_tokens": {
      "<bos>": {
        "id": "<bos>",
        "ids": [
          1
        ],
        "tokens": [
          "<bos>"
        ]
      },
      "<eos>": {
        "id": "<eos>",
        "ids": [
          2
        ],
        "tokens": [
          "<eos>"
        ]
      }
    }
  },
  "decoder": {
    "type": "ByteLevel",
    "add_prefix_space": true,
    "trim_offsets": true,
    "use_regex": true
  },
  "model": {
    "type": "BPE",
    "dropout": null,
    "unk_token": null,
    "continuing_subword_prefix": null,
    "end_of_word_suffix": null,
    "fuse_unk": false,
    "byte_fallback": false,
    "ignore_merges": false,
    "vocab": {
      "<pad>": 0,
      "<bos>": 1,
      "<eos>": 2,
      "!": 3,
      "\"": 4,
      "#": 5,
      "$": 6,
      "%": 7,
      "&": 8,
      "'": 9,
      "(": 10,
      ")": 11,
      "*": 12,
      "+": 13,
      ",": 14,
      "-": 15,
      ".": 16,
      "/": 17,
      "0": 18,
      "1": 19,
      "2": 20,
      "3": 21,
      "4": 22,
      "5": 23,
      "6": 24,
      "7": 25,
      "8": 26,
      "9": 27,
      ":": 28,
      ";": 29,
      "<": 30,
      "=": 31,
      ">": 32,
      "?": 33,
      "@": 34,
      "A": 35,
      "B": 36,
      "C": 37,
      "D": 38,
      "E": 39,
      "F": 40,
      "G": 41,
      "H": 42,
      "I": 43,
      "J": 44,
      "K": 45,
      "L": 46,
      "M": 47,
      "N": 48,
      "O": 49,
      "P": 50,
      "Q": 51,
      "R": 52,
      "S": 53,
      "T": 54,
      "U": 55,
      "V": 56,
      "W": 57,
      "X": 58,
      "Y": 59,
      "Z": 60,
      "[": 61,
      "\\": 62,
      "]": 63,
      "^": 64,
      "_": 65,
      "`": 66,
      "a": 67,
      "b": 68,
      "c": 69,
      "d": 70,
      "e": 71,
      "f": 72,
      "g": 73,
      "h": 74,
      "i": 75,
      "j": 76,
      "k": 77,
      "l": 78,
      "m": 79,
      "n": 80,
      "o": 81,
      "p": 82,
      "q": 83,
      "r": 84,
      "s": 85,
      "t": 86,
      "u": 87,
      "v": 88,
      "w": 89,
      "x": 90,
      "y": 91,
      "z": 92,
      "{": 93,
      "|": 94,
      "}": 95,
      "~": 96,
      "¡": 97,
      "¢": 98,
      "£": 99,
      "¤": 100,
      "¥": 101,
      "¦": 102,
      "§": 103,
      "¨": 104,
      "©": 105,
      "ª": 106,
      "«": 107,
      "¬": 108,
      "®": 109,
      "¯": 110,
      "°": 111,
      "±": 112,
      "²": 113,
      "³": 114,
      "´": 115,
      "µ": 116,
      "¶": 117,
      "·": 118,
      "¸": 119,
      "¹": 120,
      "º": 121,
      "»": 122,
      "¼": 123,
      "½": 124,
      "¾": 125,
      "¿": 126,
      "À": 127,
      "Á": 128,
      "Â": 129,
      "Ã": 130,
      "Ä": 131,
      "Å": 132,
      "Æ": 133,
      "Ç": 134,
      "È": 135,
      "É": 136,
      "Ê": 137,
      "Ë": 138,
      "Ì": 139,
      "Í": 140,
      "Î": 141,
      "Ï": 142,
      "Ð": 143,
      "Ñ": 144,
      "Ò": 145,
      "Ó": 146,
      "Ô": 147,
      "Õ": 148,
      "Ö": 149,
      "×": 150,
      "Ø": 151,
      "Ù": 152,
      "Ú": 153,
      "Û": 154,
      "Ü": 155,
      "Ý": 156,
      "Þ": 157,
      "ß": 158,
      "à": 159,
      "á": 160,
      "â": 161,
      "ã": 162,
      "ä": 163,
      "å": 164,
      "æ": 165,
      "ç": 166,
      "è": 167,
      "é": 168,
      "ê": 169,
      "ë": 170,
      "ì": 171,
      "í": 172,
      "î": 173,
      "ï": 174,
      "ð": 175,
      "ñ": 176,
      "ò": 177,
      "ó": 178,
      "ô": 179,
      "õ": 180,
      "ö": 181,
      "÷": 182,
      "ø": 183,
      "ù": 184,
      "ú": 185,
      "û": 186,
      "ü": 187,
      "ý": 188,
      "þ": 189,
      "ÿ": 190,
      "Ā": 191,
      "ā": 192,
      "Ă": 193,
      "ă": 194,
      "Ą": 195,
      "ą": 196,
      "Ć": 197,
      "ć": 198,
      "Ĉ": 199,
      "ĉ": 200,
      "Ċ": 201,
      "ċ": 202,
      "Č": 203,
      "č": 204,
      "Ď": 205,
      "ď": 206,
      "Đ": 207,
      "đ": 208,
      "Ē": 209,
      "ē": 210,
      "Ĕ": 211,
      "ĕ": 212,
      "Ė": 213,
      "ė": 214,
      "Ę": 215,
      "ę": 216,
      "Ě": 217,
      "ě": 218,
      "Ĝ": 219,
      "ĝ": 220,
      "Ğ": 221,
      "ğ": 222,
      "Ġ": 223,
      "ġ": 224,
      "Ģ": 225,
      "ģ": 226,
      "Ĥ": 227,
      "ĥ": 228,
      "Ħ": 229,
      "ħ": 230,
      "Ĩ": 231,
      "ĩ": 232,
      "Ī": 233,
      "ī": 234,
      "Ĭ": 235,
      "ĭ": 236,
      "Į": 237,
      "į": 238,
      "İ": 239,
      "ı": 240,
      "Ĳ": 241,
      "ĳ": 242,
      "Ĵ": 243,
      "ĵ": 244,
      "Ķ": 245,
      "ķ": 246,
      "ĸ": 247,
      "Ĺ": 248,
      "ĺ": 249,
      "Ļ": 250,
      "ļ": 251,
      "Ľ": 252,
      "ľ": 253,
      "Ŀ": 254,
      "ŀ": 255,
      "Ł": 256,
      "ł": 257,
      "Ń": 258,
      "áĪ": 259,
      "Ġá": 260,
      "áī": 261,
      "áĬ": 262,
      "áĭ": 263,
      "an": 264,
      "ar": 265,
      "áĮ": 266,
      "Ġáĭ": 267,
      "in": 268,
      "ĠáĬ": 269,
      "ĠáĪ": 270,
      "áį": 271,
      "Ġd": 272,
      "áĬķ": 273,
      "wa": 274,
      "Ġáī": 275,
      "Ġk": 276,
      "Ġa": 277,
      "Ġt": 278,
      "Ġn": 279,
      "Ġs": 280,
      "Ġm": 281,
      "ya": 282,
      "áīµ": 283,
      "on": 284,
      "en": 285,
      "áĪŃ": 286,
      "Ġl": 287,
      "ĠÃ": 288,
      "er": 289,
      "»į": 290,
      "es": 291,
      "ÃŃ": 292,
      "at": 293,
      "li": 294,
      "Ġáĭ¨": 295,
      "áĭį": 296,
      "un": 297,
      "Ã©": 298,
      "á»į": 299,
      "ka": 300,
      "łáĪ": 301,
      "Ġya": 302,
      "Ġda": 303,
      "áĪĿ": 304,
      "º¹": 305,
      "áĪį": 306,
      "is": 307,
      "áĪµ": 308,
      "am": 309,
      "Ġwa": 310,
      "as": 311,
      "áº¹": 312,
      "Ġc": 313,
      "ĠA": 314,
      "Ġp": 315,
      "or": 316,
      "Ġ(": 317,
      "Ġb": 318,
      "ĠM": 319,
      "it": 320,
      "Ġ1": 321,
      "he": 322,
      "áį¢": 323,
      "ur": 324,
      "al": 325,
      "áĬĵ": 326,
      "Ìģ": 327,
      "Ġáīł": 328,
      "Ġna": 329,
      "áī°": 330,
      "hi": 331,
      "áĭ«": 332,
      "áĪĪ": 333,
      "Ġf": 334,
      "ha": 335,
      "Ãł": 336,
      "ĠáĮ": 337,
      "ÌĢ": 338,
      "áĭŃ": 339,
      "áĪĺ": 340,
      "ĠáĬ¥": 341,
      "Ġo": 342,
      "Ã¡": 343,
      "Ġg": 344,
      "áī½": 345,
      "il": 346,
      "ir": 347,
      "ĠK": 348,
      "Ġku": 349,
      "Ġr": 350,
      "ti": 351,
      "ĠáĬł": 352,
      "ik": 353,
      "ab": 354,
      "ĠS": 355,
      "us": 356,
      "Ġw": 357,
      "ma": 358,
      "áĭ°": 359,
      "áĬĲ": 360,
      "Ġta": 361,
      "le": 362,
      "áī¥": 363,
      "áĮĪ": 364,
      "áĪ¨": 365,
      "áĭµ": 366,
      "da": 367,
      "Ãº": 368,
      "Ġj": 369,
      "ati": 370,
      "ĠN": 371,
      "ia": 372,
      "áĪĭ": 373,
      "ĠáĬĲ": 374,
      "Ġde": 375,
      "áĮį": 376,
      "ĠÃł": 377,
      "Ã¬": 378,
      "ta": 379,
      "ĠáĪĺ": 380,
      "ĠB": 381,
      "áīł": 382,
      "Ġ2": 383,
      "áĪ«": 384,
      "om": 385,
      "ba": 386,
      "áī³": 387,
      "ĠI": 388,
      "ĠáĬ¨": 389,
      "Ġ19": 390,
      "ĠT": 391,
      "Ġma": 392,
      "Ã¨": 393,
      "et": 394,
      "ana": 395,
      "áĬŃ": 396,
      "ent": 397,
      "el": 398,
      "Ġla": 399,
      "Ġz": 400,
      "ĠC": 401,
      "Ġni": 402,
      "áĪĽ": 403,
      "ara": 404,
      "áĪ³": 405,
      "Ġh": 406,
      "to": 407,
      "áī£": 408,
      "di": 409,
      "em": 410,
      "Ġáį": 411,
      "Ġi": 412,
      "la": 413,
      "qu": 414,
      "Ġy": 415,
      "ĠW": 416,
      "and": 417,
      "ut": 418,
      "ĠP": 419,
      "áĬĽ": 420,
      "Ġáī°": 421,
      "um": 422,
      "áĪª": 423,
      "ĠáĭŃ": 424,
      "¹£": 425,
      "ani": 426,
      "ĠáīłáĪ": 427,
      "Ã³": 428,
      "Ġin": 429,
      "Ġáĭ¨áĪ": 430,
      "ri": 431,
      "ĠáĬłáĪ": 432,
      "ed": 433,
      "gb": 434,
      "âĢ": 435,
      "ga": 436,
      "Ġ20": 437,
      "áĪħ": 438,
      "áĬ¨": 439,
      "áĮ¥": 440,
      "sa": 441,
      "áį£": 442,
      "ĠL": 443,
      "ĠD": 444,
      "ĠáĪĿ": 445,
      "ĠnÃŃ": 446,
      "ĠJ": 447,
      "á»įn": 448,
      "ĠG": 449,
      "re": 450,
      "Ġáĭ¨áĬ": 451,
      "Ġthe": 452,
      "ce": 453,
      "ĠF": 454,
      "ke": 455,
      "ĠO": 456,
      "si": 457,
      "ĠáĭĪ": 458,
      "ro": 459,
      "áį¡": 460,
      "ing": 461,
      "ol": 462,
      "áįį": 463,
      "áĭ³": 464,
      "ĠáĬĲáĭį": 465,
      "ĠH": 466,
      "áīĢ": 467,
      "ĠR": 468,
      "ch": 469,
      "áĭ¨": 470,
      "ĠÃ¬": 471,
      "Ġof": 472,
      "ĠáĬ¥áĬķ": 473,
      "uk": 474,
      "wá»įn": 475,
      "Ġ-": 476,
      "Ã¹": 477,
      "ari": 478,
      "áĭĪ": 479,
      "ci": 480,
      "ra": 481,
      "Ġv": 482,
      "ul": 483,
      "áĪ°": 484,
      "áīħ": 485,
      "Ġá»į": 486,
      "Ġha": 487,
      "áĪĮ": 488,
      "Ã²": 489,
      "áĬ«": 490,
      "ay": 491,
      "ĠáĪĪ": 492,
      "á¹£": 493,
      "ali": 494,
      "ĠU": 495,
      "iya": 496,
      "im": 497,
      "áĬł": 498,
      "os": 499,
      "ĠE": 500,
      "uwa": 501,
      "ÆĻ": 502,
      "ama": 503,
      "ji": 504,
      "ĠáĪµ": 505,
      "áī¸": 506,
      "are": 507,
      "te": 508,
      "Ġáĭ«": 509,
      "Ġle": 510,
      "Ãºn": 511,
      "ai": 512,
      "áĪī": 513,
      "Ġáĭĵ": 514,
      "de": 515,
      "ĠtÃŃ": 516,
      "áīłáĪ": 517,
      "áĭĬ": 518,
      "áĭĭ": 519,
      "áĪ®": 520,
      "ko": 521,
      "áī±": 522,
      "İáī½": 523,
      "Ġet": 524,
      "ye": 525,
      "ation": 526,
      "áī¸áĭį": 527,
      "00": 528,
      "áįĪ": 529,
      "ant": 530,
      "Ġkuma": 531,
      "ini": 532,
      "Ġkwa": 533,
      "Ġáĭ¨áĪļ": 534,
      "est": 535,
      "áĭĿ": 536,
      "áĮ£": 537,
      "hek": 538,
      "ĠáĪĽ": 539,
      "áĪĨ": 540,
      "yar": 541,
      "ig": 542,
      "ad": 543,
      "Ġen": 544,
      "áĭļ": 545,
      "áī¶": 546,
      "Ġto": 547,
      "áĪ³áĪĮ": 548,
      "ak": 549,
      "iki": 550,
      "Ġshek": 551,
      "Ġne": 552,
      "áĮł": 553,
      "áĮī": 554,
      "Ġti": 555,
      "19": 556,
      "ĠÆĻ": 557,
      "bi": 558,
      "ang": 559,
      "Ġun": 560,
      "ic": 561,
      "áĮĭ": 562,
      "if": 563,
      "za": 564,
      "ug": 565,
      "áĭ®": 566,
      "ikin": 567,
      "ĠáīłáĬ": 568,
      "yo": 569,
      "ĠáĪĿáĪ³áĪĮ": 570,
      "Ġsu": 571,
      "pa": 572,
      "ann": 573,
      "ina": 574,
      "zi": 575,
      "fa": 576,
      "ĠáĪ²": 577,
      "wan": 578,
      "ĠÃ³": 579,
      "que": 580,
      "ec": 581,
      "áĭ²": 582,
      "me": 583,
      "ata": 584,
      "Ġor": 585,
      "Ġza": 586,
      "áĬķáĭµ": 587,
      "ĠáĮį": 588,
      "Ġu": 589,
      "Ġand": 590,
      "ili": 591,
      "Ġáīµ": 592,
      "og": 593,
      "Ġil": 594,
      "ans": 595,
      "hin": 596,
      "láº¹": 597,
      "Ġba": 598,
      "áĭİáī½": 599,
      "op": 600,
      "ĠY": 601,
      "Ġáĭĺ": 602,
      "ge": 603,
      "Ġdes": 604,
      "áĪ¥": 605,
      "Ġkas": 606,
      "áīĥ": 607,
      "Ġ201": 608,
      "Ġshi": 609,
      "áĬĸ": 610,
      "áĪŀ": 611,
      "áĭĺ": 612,
      "Ġe": 613,
      "Ġkati": 614,
      "Ġáĭ¨áī°": 615,
      ").": 616,
      "ki": 617,
      "har": 618,
      "Ġ\"": 619,
      "toka": 620,
      "ne": 621,
      "Ġal": 622,
      "ĠáĬ¥áĬĵ": 623,
      "jer": 624,
      "áĬĲáīµ": 625,
      "ĠáĪ°": 626,
      "ot": 627,
      "ers": 628,
      "rÃŃ": 629,
      "Ġáī¥": 630,
      "ĠÂ": 631,
      "áĬ¥": 632,
      "our": 633,
      "ub": 634,
      "áĪĬ": 635,
      "áĪ©": 636,
      "st": 637,
      "Ġáĭį": 638,
      "áĪĻ": 639,
      "war": 640,
      "Ġcikin": 641,
      "ist": 642,
      "ĠÃĢ": 643,
      "áĬķáĮį": 644,
      "waka": 645,
      "bo": 646,
      "ung": 647,
      "fi": 648,
      "Ġali": 649,
      "ĠáīĢ": 650,
      "Ġpar": 651,
      "Ġdu": 652,
      "anda": 653,
      "Ãłn": 654,
      "ĠâĢ": 655,
      "Ġles": 656,
      "áīłáĪŃ": 657,
      "Ġáĭ°": 658,
      "ĭáĭŃ": 659,
      "Ġam": 660,
      "ĠÃłwá»įn": 661,
      "ká»į": 662,
      "ĠáĬ¥áĬķáĭ°": 663,
      "Ġdaga": 664,
      "ja": 665,
      "áĭĽ": 666,
      "Ġáĭ¨áĬłáĪ": 667,
      "),": 668,
      "una": 669,
      "ita": 670,
      "Ġce": 671,
      "ine": 672,
      "du": 673,
      "Ġhi": 674,
      "áĪļ": 675,
      "Ġwas": 676,
      "fu": 677,
      "ĠáĬŃ": 678,
      "Ġsa": 679,
      "we": 680,
      "ĠV": 681,
      "áĪİ": 682,
      "ou": 683,
      "yin": 684,
      "Ġkatika": 685,
      "ni": 686,
      "Ġáº¹": 687,
      "áī²": 688,
      "áĮħ": 689,
      "áī¢": 690,
      "cin": 691,
      "Ġau": 692,
      "ont": 693,
      "rÃ©": 694,
      "asa": 695,
      "Ġ200": 696,
      "áĬĳ": 697,
      "id": 698,
      "Ġkar": 699,
      "ag": 700,
      "ĠAf": 701,
      "âĢĻ": 702,
      "áįĭ": 703,
      "ĠáĪį": 704,
      "chi": 705,
      "Ġmat": 706,
      "zo": 707,
      "jeriya": 708,
      "Ġjáº¹": 709,
      "Ġmwaka": 710,
      "já»į": 711,
      "ÉĹ": 712,
      "Ġga": 713,
      "Ġko": 714,
      "áĬĿ": 715,
      "Ġá¹£": 716,
      "áĪ±": 717,
      "ere": 718,
      "ĠÃ©": 719,
      "áį¤": 720,
      "ĠNa": 721,
      "áĪĨáĬķ": 722,
      "Ġshekar": 723,
      "áĪ½": 724,
      "po": 725,
      "ter": 726,
      "kin": 727,
      "Ġbi": 728,
      "Ġka": 729,
      "áĮİ": 730,
      "tion": 731,
      "ho": 732,
      "ob": 733,
      "ĠáĪĭáĭŃ": 734,
      "áĭ«áĬķ": 735,
      "áĪĪáĭį": 736,
      "rin": 737,
      "Ġáī³": 738,
      "res": 739,
      "Ġáĭµ": 740,
      "kan": 741,
      "Ġ18": 742,
      "má»į": 743,
      "Ġqu": 744,
      "Ġkan": 745,
      "áĪŃáĬĽ": 746,
      "ĠMa": 747,
      "Ġse": 748,
      "Ġáī£": 749,
      "Ġ:": 750,
      "áĭ±": 751,
      "ion": 752,
      "áĪģ": 753,
      "ĠÂ«": 754,
      "Ġan": 755,
      "ement": 756,
      "Ġ.": 757,
      "Ġcom": 758,
      "je": 759,
      "ĠIn": 760,
      "Ġmas": 761,
      "ĠÃ¨": 762,
      "Ġre": 763,
      "áĭļáĪħ": 764,
      "ie": 765,
      "¢áīµ": 766,
      "ĠÃłti": 767,
      "kuwa": 768,
      "Ġ3": 769,
      "Ġest": 770,
      "ĽáĪŃáĬĽ": 771,
      "ve": 772,
      "¢áīµáĭ®": 773,
      "áĮµ": 774,
      "ĠAm": 775,
      "ance": 776,
      "fin": 777,
      "áĭķ": 778,
      "áĬĴ": 779,
      "áīĨ": 780,
      "Ġili": 781,
      "ire": 782,
      "áĮĢ": 783,
      "¢áīµáĭ®áĮµ": 784,
      "ĠáīłáĪĺ": 785,
      "ĠÃĮ": 786,
      "ĠAl": 787,
      "Ġar": 788,
      "se": 789,
      "ĠdÃ©": 790,
      "áĪĪáīµ": 791,
      "Ġráº¹": 792,
      "dÃºn": 793,
      "áĮ½": 794,
      "ĠAn": 795,
      "áĮĪáĪŃ": 796,
      "bu": 797,
      "áĪ¬": 798,
      "ila": 799,
      "aba": 800,
      "lo": 801,
      "alio": 802,
      "20": 803,
      "ap": 804,
      "áī¡": 805,
      "áĪµáĮ¥": 806,
      "Ġcon": 807,
      "ku": 808,
      "¢áīµáĭ®áĮµáĭ«": 809,
      "Ġáĭ¨áĬłáĪĽáĪŃáĬĽ": 810,
      "Ġwat": 811,
      "lÃº": 812,
      "Ã¬n": 813,
      "ĠÃĢwá»įn": 814,
      "áĪ¨áīµ": 815,
      "ris": 816,
      "ĠsÃŃ": 817,
      "ÅĦ": 818,
      "th": 819,
      "amu": 820,
      "yan": 821,
      "Ġcha": 822,
      "ĠáĬĲáīłáĪŃ": 823,
      "áīłáīµ": 824,
      "ĠlÃ¡": 825,
      "áĭľ": 826,
      "ĠáĮ¥": 827,
      "ami": 828,
      "áĪĺáĬķ": 829,
      "Ġon": 830,
      "od": 831,
      "ud": 832,
      "Ġke": 833,
      "Ġ199": 834,
      "Ġshekara": 835,
      "ĠÃ²": 836,
      "Ġyi": 837,
      "áĪ»": 838,
      "Ã¹n": 839,
      "Ġje": 840,
      "yi": 841,
      "ile": 842,
      "ĠáĭĪáĭ°": 843,
      "lÃ©": 844,
      "Ġshekarar": 845,
      "Ġlo": 846,
      "anz": 847,
      "ĠáĪĨ": 848,
      "Ġaka": 849,
      "ĠáĮĪ": 850,
      "Ġpro": 851,
      "Ġmai": 852,
      "áĪµáīµ": 853,
      "ĠáĬ¨áī°": 854,
      "Ġfor": 855,
      "áī»": 856,
      "ĠWalio": 857,
      "ada": 858,
      "ĠáĬķ": 859,
      "ĠNajeriya": 860,
      "ov": 861,
      "asar": 862,
      "Ġas": 863,
      "iv": 864,
      "au": 865,
      "wo": 866,
      "ong": 867,
      "áĭ©": 868,
      "ban": 869,
      "enye": 870,
      "Ġis": 871,
      "áĭĵ": 872,
      "Ġso": 873,
      "Ġwá»į": 874,
      "ber": 875,
      "áįĬ": 876,
      "Ġkutoka": 877,
      "áĭįáĬķ": 878,
      "áī¶áī½": 879,
      "ct": 880,
      "les": 881,
      "ÃŃn": 882,
      "ĠáĬ¥áĪµ": 883,
      "ĠÅĦ": 884,
      "ate": 885,
      "Â»": 886,
      "won": 887,
      "ĠáĭįáĪµáĮ¥": 888,
      "ĠáĬłáĭŃ": 889,
      "ah": 890,
      "18": 891,
      "áĪŃáĮī": 892,
      "ly": 893,
      "far": 894,
      "Ġá»įdÃºn": 895,
      "á¹£áº¹": 896,
      "arin": 897,
      "Ġpl": 898,
      "pe": 899,
      "Ĭáĭľ": 900,
      "áĮłáĪ": 901,
      "áĪªáĭ«": 902,
      "dÃ¨": 903,
      "Ġol": 904,
      "áĬĶ": 905,
      "ale": 906,
      "ika": 907,
      "ano": 908,
      "ure": 909,
      "ihar": 910,
      "oni": 911,
      "áīĭ": 912,
      "áĭ¶": 913,
      "ĠáĪģ": 914,
      "jo": 915,
      "anar": 916,
      "end": 917,
      "ane": 918,
      "áĪ²": 919,
      "áĬĽáĭį": 920,
      "áĬłáĪ": 921,
      "ment": 922,
      "Ġwanda": 923,
      "ort": 924,
      "so": 925,
      "Ġati": 926,
      "gbÃł": 927,
      "áī¦": 928,
      "Ġsi": 929,
      "áĭŃáĪĿ": 930,
      "hu": 931,
      "bÃŃ": 932,
      "Ġhu": 933,
      "Ġ198": 934,
      "ĠZ": 935,
      "Ġth": 936,
      "áĪŃáĪµ": 937,
      "ayan": 938,
      "Ã©e": 939,
      "áĪľ": 940,
      "áĬ¤": 941,
      "Ġáīłáī°": 942,
      "áĪĲ": 943,
      "áĭĻ": 944,
      "áĬ®": 945,
      "eng": 946,
      "ĠAfri": 947,
      "ĠbÃŃ": 948,
      "mi": 949,
      "ais": 950,
      "Ġáīħ": 951,
      "Ġ'": 952,
      "mu": 953,
      "áī¤": 954,
      "áĪĭáĪį": 955,
      "tokasi": 956,
      "amar": 957,
      "ĠáĬłáĪµ": 958,
      "ĠáĪ¥": 959,
      "Ġsun": 960,
      "mo": 961,
      "iri": 962,
      "ĠáĬ«": 963,
      "man": 964,
      "Ġáī¤": 965,
      "art": 966,
      "ĠáīµáĪŃáĮī": 967,
      "Ġáĭ¨áĪĺ": 968,
      "Ġ197": 969,
      "áĬ©": 970,
      "Ġdans": 971,
      "Ġfi": 972,
      "áĪªáĬŃ": 973,
      "Ġ4": 974,
      "ĠáĬ¥áĬķáĭ²": 975,
      "lis": 976,
      "Ġki": 977,
      "ĠáĮįáĬķ": 978,
      "ran": 979,
      "Ã¡Ãł": 980,
      "Ġ|": 981,
      "Ġmw": 982,
      "ĠáĮĭ": 983,
      "iyar": 984,
      "be": 985,
      "Ġ196": 986,
      "ala": 987,
      "Ġáĭ¨áĬł": 988,
      "áīģ": 989,
      "áĮ¨": 990,
      "ue": 991,
      "ham": 992,
      "annan": 993,
      "ond": 994,
      "oma": 995,
      "Ġune": 996,
      "áī¹": 997,
      "áīłáĪ¨": 998,
      "Ġwali": 999,
      "ĠáĪ²áĪĨáĬķ": 1000,
      "An": 1001,
      "isi": 1002,
      "ĠItokasi": 1003,
      "zali": 1004,
      "ĭáĪĭ": 1005,
      "áį¡áį¡": 1006,
      "áĮĥ": 1007,
      "isha": 1008,
      "Ã©s": 1009,
      "»Į": 1010,
      "Ġzuwa": 1011,
      "»áį": 1012,
      "áĬŃáĪį": 1013,
      "áĪĥ": 1014,
      "Ġtare": 1015,
      "ĠáīµáĪŃáĮīáĪĻ": 1016,
      "Ġ5": 1017,
      "asi": 1018,
      "sayin": 1019,
      "ĠáīłáĬł": 1020,
      "Ġkama": 1021,
      "Ġdon": 1022,
      "Ġfar": 1023,
      "áĪ´": 1024,
      "ĠáĬłáĬķ": 1025,
      "ua": 1026,
      "kar": 1027,
      "usu": 1028,
      "und": 1029,
      "ux": 1030,
      "zaliwa": 1031,
      "ep": 1032,
      "ĠfÃºn": 1033,
      "uni": 1034,
      "²áį": 1035,
      "Ġá¹£e": 1036,
      "áī´": 1037,
      "ĠáĪ³": 1038,
      "Ġpe": 1039,
      "ori": 1040,
      "Ġmut": 1041,
      "áĮŃ": 1042,
      "rit": 1043,
      "ĠáĪĺáĬķáĮį": 1044,
      "Ġáĭĭ": 1045,
      "ĠáīĢáĬķ": 1046,
      "ĠThe": 1047,
      "ĠáĮĬáĭľ": 1048,
      "ania": 1049,
      "ĠáĭĪáĭŃáĪĿ": 1050,
      "ĠtÃ³": 1051,
      "Ma": 1052,
      "áī³áīµ": 1053,
      "ĠnÃŃn": 1054,
      "ĠKi": 1055,
      "Ã¡n": 1056,
      "abu": 1057,
      "ĠorÃŃ": 1058,
      "yu": 1059,
      "ity": 1060,
      "Ġmo": 1061,
      "obel": 1062,
      "200": 1063,
      "ru": 1064,
      "áĪªáĬ«": 1065,
      "shin": 1066,
      "ĠâĢĵ": 1067,
      "ĠNobel": 1068,
      "ĠAr": 1069,
      "hen": 1070,
      "ĠrÃ©": 1071,
      "Ġyan": 1072,
      "Ġqui": 1073,
      "ĠWa": 1074,
      "ces": 1075,
      "ĠÉĹ": 1076,
      "ĠSt": 1077,
      "ĠMat": 1078,
      "ĠLe": 1079,
      "su": 1080,
      "Ġmatsayin": 1081,
      "ord": 1082,
      "ĠáĪµáĪĪ": 1083,
      "ĠáĬĵ": 1084,
      "ĠáĬłáĪĪ": 1085,
      "ira": 1086,
      "áĪ¨áīµáĬĵ": 1087,
      "Ġhaif": 1088,
      "pp": 1089,
      "áĮ»": 1090,
      "jÃº": 1091,
      "Ġnchi": 1092,
      "ĠáĪĬ": 1093,
      "ust": 1094,
      "Ġkuwa": 1095,
      "Ġáī¢": 1096,
      "uri": 1097,
      "ĠáįĪ": 1098,
      "Ġat": 1099,
      "ck": 1100,
      "tÃ©": 1101,
      "ĠáĬ¥áĪµáĬ¨": 1102,
      "Ġpour": 1103,
      "áĪĪáĪĿ": 1104,
      "Ġch": 1105,
      "ll": 1106,
      "ÃĢ": 1107,
      "amo": 1108,
      "ĠáĬķáĮī": 1109,
      "io": 1110,
      "ĠáīłáĬĭáĪĭ": 1111,
      "Ġwatan": 1112,
      "sÃŃ": 1113,
      "Ġav": 1114,
      "áĪ¥áīµ": 1115,
      "lia": 1116,
      "ĠnÃ¡Ãł": 1117,
      "áį»áį": 1118,
      "Ġsuka": 1119,
      "Ġyake": 1120,
      "ary": 1121,
      "ĠáĭŃáĪħ": 1122,
      "ard": 1123,
      "Ġyana": 1124,
      "ĠáĭĺáĪĺáĬķ": 1125,
      "ĠPa": 1126,
      "áĪ¨áĪµ": 1127,
      "arta": 1128,
      "che": 1129,
      "Ġlá»į": 1130,
      "áĬķáĪĿ": 1131,
      "risto": 1132,
      "Ġsh": 1133,
      "Ġmu": 1134,
      "Ġhar": 1135,
      "Ġ6": 1136,
      "Ġáī°áĪ¨áīµáĬĵ": 1137,
      "áĪ®áī½": 1138,
      "Ġfa": 1139,
      "áĭĭáĪį": 1140,
      "ĠáĬŃáįį": 1141,
      "Ġex": 1142,
      "ĠMare": 1143,
      "áĪķ": 1144,
      "áĮ«": 1145,
      "fan": 1146,
      "ĠáĬ¨áī°áĪĽ": 1147,
      "elle": 1148,
      "ver": 1149,
      "kani": 1150,
      "Ġsur": 1151,
      "aban": 1152,
      "ens": 1153,
      "iti": 1154,
      "jÃŃ": 1155,
      "Ġbir": 1156,
      "uku": 1157,
      "ĠnÃŃnÃº": 1158,
      "erÃ©": 1159,
      "abi": 1160,
      "ĠTu": 1161,
      "áĭİ": 1162,
      "Ġgb": 1163,
      "Ġsha": 1164,
      "wá»į": 1165,
      "Ġ195": 1166,
      "Ġab": 1167,
      "emi": 1168,
      "áĮĪáĬ": 1169,
      "Ġwasan": 1170,
      "pá»į": 1171,
      "ish": 1172,
      "ene": 1173,
      "ff": 1174,
      "fariki": 1175,
      "ĠáĭĵáĪĺ": 1176,
      "ĠÆĻasar": 1177,
      "Ġvya": 1178,
      "Ġá»įmá»į": 1179,
      "na": 1180,
      "Ġ,": 1181,
      "'s": 1182,
      "Ġkw": 1183,
      "ĠNi": 1184,
      "Ã©r": 1185,
      "The": 1186,
      "ĠáĪĪáĪĺ": 1187,
      "Ġdi": 1188,
      "Ġáĭķ": 1189,
      "áįĵ": 1190,
      "áĮĢáĪĺ": 1191,
      "ith": 1192,
      "Ba": 1193,
      "áī°áĬĽ": 1194,
      "kwa": 1195,
      "áĪŃáĭ«": 1196,
      "Ġá»Į": 1197,
      "oli": 1198,
      "uli": 1199,
      "ques": 1200,
      "ĠlÃ¡ti": 1201,
      "ida": 1202,
      "do": 1203,
      "Ġ9": 1204,
      "áĭ´": 1205,
      "tic": 1206,
      "Ġplus": 1207,
      "ráº¹": 1208,
      "rÃŃÃł": 1209,
      "ore": 1210,
      "lá»į": 1211,
      "ction": 1212,
      "áĮįáĪŀ": 1213,
      "Ġst": 1214,
      "ite": 1215,
      "ÃłÃ¬": 1216,
      "Ġbe": 1217,
      "up": 1218,
      "Ġad": 1219,
      "ĠCh": 1220,
      "anaz": 1221,
      "áį¦": 1222,
      "Ġgba": 1223,
      "Ġáĭ«áĪį": 1224,
      "ĠTuzo": 1225,
      "ence": 1226,
      "ĠlÃ³": 1227,
      "Ġ17": 1228,
      "iger": 1229,
      "Ġque": 1230,
      "ishi": 1231,
      "urs": 1232,
      "ĠMar": 1233,
      "áĭµáĪŃ": 1234,
      "rom": 1235,
      "Ġ7": 1236,
      "anazarta": 1237,
      "áĪ¶": 1238,
      "ins": 1239,
      "ĠáĮĢ": 1240,
      "Ġjihar": 1241,
      "ĠáĬĲáĮĪ": 1242,
      "oh": 1243,
      "ĠáĬ¢": 1244,
      "Ġáįį": 1245,
      "cc": 1246,
      "áī³áĭĪ": 1247,
      "Ã¬ÃŃ": 1248,
      "Ta": 1249,
      "ĠAd": 1250,
      "Ġáīģ": 1251,
      "ugha": 1252,
      "wam": 1253,
      "bali": 1254,
      "isa": 1255,
      "áī£áĪį": 1256,
      "jÃŃrÃŃÃł": 1257,
      "ĠMarekani": 1258,
      "ĠsÃ¬": 1259,
      "une": 1260,
      "Ġloka": 1261,
      "áīµáĬķ": 1262,
      "ĠáĪķ": 1263,
      "ĠáĮĭáĪŃ": 1264,
      "ĠNÃłÃ¬": 1265,
      "uniya": 1266,
      "ĠáīłáĪĽ": 1267,
      "..": 1268,
      "Ġhii": 1269,
      "ht": 1270,
      "bar": 1271,
      "ow": 1272,
      "ĠWaliozaliwa": 1273,
      "Ġkasance": 1274,
      "Ġáį¡": 1275,
      "áĬŃáĪįáīł": 1276,
      "ame": 1277,
      "Ġamba": 1278,
      "ĠNÃłÃ¬jÃŃrÃŃÃł": 1279,
      "Ġ8": 1280,
      "ĠKar": 1281,
      "áīĤ": 1282,
      "lu": 1283,
      "nin": 1284,
      "ele": 1285,
      "int": 1286,
      "áĪİáī½": 1287,
      "ÌĢ-": 1288,
      "ĠáĭĵáĬŃáĪįáīł": 1289,
      "ok": 1290,
      "Ġá»įjá»į": 1291,
      "áĮ¡": 1292,
      "áĭ°áĪ¨": 1293,
      "mp": 1294,
      "ĠWaliofariki": 1295,
      "iku": 1296,
      "ĠAfrika": 1297,
      "Ġpia": 1298,
      "¦áĪŃ": 1299,
      "Ġou": 1300,
      "Ġáĭ°áĮįáĪŀ": 1301,
      "ry": 1302,
      "gbe": 1303,
      "ĠáĪļ": 1304,
      "pin": 1305,
      "ĠáĬłáĬķáĭµ": 1306,
      "gun": 1307,
      "gba": 1308,
      "ĠNe": 1309,
      "kati": 1310,
      "áĪĺáĬĲ": 1311,
      "áĭ°áĪŃ": 1312,
      "000": 1313,
      "áī°áĪ¨": 1314,
      "Ġra": 1315,
      "ĠáĬłáĪį": 1316,
      "15": 1317,
      "ukum": 1318,
      "Ã¨re": 1319,
      "16": 1320,
      "Ġtsa": 1321,
      "Ġts": 1322,
      "áĮĪáĬĿ": 1323,
      "áĪŃáīµ": 1324,
      "olog": 1325,
      "ca": 1326,
      "Ġ194": 1327,
      "all": 1328,
      "emp": 1329,
      "ede": 1330,
      "ast": 1331,
      "kÃł": 1332,
      "Ġby": 1333,
      "Baada": 1334,
      "ola": 1335,
      "Ġkam": 1336,
      "anan": 1337,
      "Ġfarko": 1338,
      "ito": 1339,
      "shindi": 1340,
      "áĬķáīµ": 1341,
      "Ã¨s": 1342,
      "Ġáĭ¨áĬ¢áīµáĭ®áĮµáĭ«": 1343,
      "abban": 1344,
      "ĠNiger": 1345,
      "á¹£Ã¹": 1346,
      "áĬķáĪµ": 1347,
      "ĠáĪĺáĬķáĮįáĪ¥áīµ": 1348,
      "Ã¨dÃ¨": 1349,
      "Le": 1350,
      "áĪĶ": 1351,
      "emba": 1352,
      "Ġwani": 1353,
      "ĠÂ»": 1354,
      "ern": 1355,
      "ura": 1356,
      "ass": 1357,
      "ĠorÃŃláº¹": 1358,
      "ĠáĪĪáĪĽ": 1359,
      "áīłáĪ©": 1360,
      "Ġawon": 1361,
      "ande": 1362,
      "Ġdan": 1363,
      "áĬķáīĭ": 1364,
      "vi": 1365,
      "17": 1366,
      "eb": 1367,
      "áĬª": 1368,
      "áī½áĬķ": 1369,
      "Ġáĭ¨áĬĲ": 1370,
      "áĬĵáīµ": 1371,
      "Ġ15": 1372,
      "ĠáĪĨáĬĲ": 1373,
      "rá»į": 1374,
      "jin": 1375,
      "lÃ¡": 1376,
      "yÃłn": 1377,
      "uru": 1378,
      "ĠManazarta": 1379,
      "á¹£Ã¨": 1380,
      "Ãĵ": 1381,
      "usa": 1382,
      "Ġson": 1383,
      "Ġranar": 1384,
      "ĠáĪįáĮħ": 1385,
      "ubu": 1386,
      "Ġsab": 1387,
      "Ġtana": 1388,
      "tá»į": 1389,
      "Ġcomp": 1390,
      "shi": 1391,
      "ĠilÃ©": 1392,
      "pÃŃn": 1393,
      "anta": 1394,
      "Ãª": 1395,
      "min": 1396,
      "ĠáĭĿ": 1397,
      "Ġ16": 1398,
      "ĠáĭµáĪ¨áĪµ": 1399,
      "ition": 1400,
      "mar": 1401,
      "áĭļáĭ«": 1402,
      "Ġwá»įn": 1403,
      "Ġhaife": 1404,
      "ult": 1405,
      "áįī": 1406,
      "Ã©es": 1407,
      "ĠHa": 1408,
      "ect": 1409,
      "Ġáĭ«áĪįáī°": 1410,
      "Ġay": 1411,
      "hari": 1412,
      "llon": 1413,
      "jÃ¬": 1414,
      "sion": 1415,
      "anzania": 1416,
      "Ġmshindi": 1417,
      "inu": 1418,
      "10": 1419,
      "ille": 1420,
      "jáº¹": 1421,
      "atu": 1422,
      "áĭ°áī¥": 1423,
      "kun": 1424,
      "áī°áĪ¨áĮİ": 1425,
      "ungiyar": 1426,
      "ukio": 1427,
      "angu": 1428,
      "dun": 1429,
      "Ġci": 1430,
      "ations": 1431,
      "iko": 1432,
      "vers": 1433,
      "anu": 1434,
      "ĠáĪħ": 1435,
      "ors": 1436,
      "áĮĬ": 1437,
      "omin": 1438,
      "ansa": 1439,
      "Ġpr": 1440,
      "gbo": 1441,
      "ĠáĬ¤": 1442,
      "Ġlokacin": 1443,
      "14": 1444,
      "ĠáĪµáĪĿ": 1445,
      "Ġ10": 1446,
      "Ġáīĭ": 1447,
      "Ġáĭ¨áĬ¥": 1448,
      "ĠpÃ©": 1449,
      "ĠáĪĮ": 1450,
      "ph": 1451,
      "Ġita": 1452,
      "itu": 1453,
      "ĠÃ¬lÃº": 1454,
      "Ġbayan": 1455,
      "Ġmasu": 1456,
      "áĪ£": 1457,
      "áĪ¸": 1458,
      "áĪĨáĬĳ": 1459,
      "ĠáĪĢ": 1460,
      "ĠáĬłáĮĪ": 1461,
      "ĠLa": 1462,
      "ĠSo": 1463,
      "Ġ/": 1464,
      "Ġ;": 1465,
      "Ġit": 1466,
      "ĠAs": 1467,
      "usi": 1468,
      "ote": 1469,
      "ĠáīłáĬ¥": 1470,
      "Ġbiyu": 1471,
      "ĠAb": 1472,
      "áī³áĪį": 1473,
      "²áį±": 1474,
      "yya": 1475,
      "ill": 1476,
      "áĬķáĭ«": 1477,
      "kÃ³": 1478,
      "Ġsuna": 1479,
      "ĠáĪĽáĪĪáīµ": 1480,
      "ib": 1481,
      "Ġkasar": 1482,
      "Ġfil": 1483,
      "kuu": 1484,
      "bÃ¡": 1485,
      "áĬĵáĪį": 1486,
      "Ġmata": 1487,
      "erika": 1488,
      "áĪĬáĭĿ": 1489,
      "âĢĿ": 1490,
      "Ġny": 1491,
      "gu": 1492,
      "kala": 1493,
      "ĠáĪĥ": 1494,
      "áĪłáĪ": 1495,
      "ĠSa": 1496,
      "Ġfun": 1497,
      "áī¸áĭįáĬķ": 1498,
      "ĠáĬķáĮīáĪ¥": 1499,
      "áĬ¨áī°": 1500,
      "Ġhan": 1501,
      "áĭįáĭ«áĬķ": 1502,
      "áī±áĬķ": 1503,
      "era": 1504,
      "Ġzama": 1505,
      "ĠEn": 1506,
      "áĪµáī°": 1507,
      "ĠMatukio": 1508,
      "cha": 1509,
      "Ġáĭ¨áĪļáĭ«": 1510,
      "Ġawá»įn": 1511,
      "ĠPapa": 1512,
      "istor": 1513,
      "áī°áĪ¨áĮİáĪĺ": 1514,
      "Ġhe": 1515,
      "kana": 1516,
      "tern": 1517,
      "áįķ": 1518,
      "ĠTanzania": 1519,
      "ational": 1520,
      "nÃ¬": 1521,
      "pÃŃnláº¹": 1522,
      "wÃ©": 1523,
      "cho": 1524,
      "áī£áī¢": 1525,
      "áĪĢ": 1526,
      "one": 1527,
      "Ġbirnin": 1528,
      "ĠáĬłáĪĺ": 1529,
      "Ġavec": 1530,
      "Ġáī³áĪªáĬŃ": 1531,
      "Ġalikuwa": 1532,
      "Ġsont": 1533,
      "Ġkáº¹": 1534,
      "Ġáĭ«áĪįáī°áī°áĪ¨áĮİáĪĺ": 1535,
      "áĬķáĮ": 1536,
      "²áį±áį»áį": 1537,
      "ĠáīłáĬłáĪ": 1538,
      "Ġ193": 1539,
      "ĠarÃ¡": 1540,
      "Ġju": 1541,
      "Ġwith": 1542,
      "Ġfara": 1543,
      "áĪĦ": 1544,
      "ĠáĮī": 1545,
      "ĠáĪ°áĭį": 1546,
      "din": 1547,
      "áĭĽáīµ": 1548,
      "ingi": 1549,
      "ĠáīĭáĬķáīĭ": 1550,
      "Ġtun": 1551,
      "ĠmÃ©": 1552,
      "áĪŀáī½": 1553,
      "In": 1554,
      "ex": 1555,
      "yÃŃ": 1556,
      "12": 1557,
      "áĮ¥áĪŃ": 1558,
      "áĪ«áīµ": 1559,
      "Ġpáº¹": 1560,
      "Ġfrom": 1561,
      "Ġáĭ³": 1562,
      "ugaban": 1563,
      "Ġmi": 1564,
      "antar": 1565,
      "Ġlati": 1566,
      "Ġhadi": 1567,
      "utar": 1568,
      "Ġáį£": 1569,
      "ereza": 1570,
      "Ġnom": 1571,
      "áī£áīµ": 1572,
      "Ġare": 1573,
      "Ġyawan": 1574,
      "áĪł": 1575,
      "ĠâĢľ": 1576,
      "Ġara": 1577,
      "ĠáĬłáĬ«": 1578,
      "áī¥áĪŃ": 1579,
      "ingereza": 1580,
      "áĪįáĬŃ": 1581,
      "irka": 1582,
      "use": 1583,
      "Ġmji": 1584,
      "Ġáĭ¨áĪĽ": 1585,
      "ĠáĬĵáī¸áĭį": 1586,
      "Ġáī¥áĭĻ": 1587,
      "alis": 1588,
      "gbáº¹": 1589,
      "ell": 1590,
      "Ġcomm": 1591,
      "Ġiláº¹": 1592,
      "Ġkwenye": 1593,
      "ĠÆĻwa": 1594,
      "itÃ©": 1595,
      "ogo": 1596,
      "áĪĭáīµ": 1597,
      "Ġmar": 1598,
      "áĬ¨áĪį": 1599,
      "ĠMas": 1600,
      "ju": 1601,
      "áĪĿáĪ®": 1602,
      "ĠáĭŃáĮĪ": 1603,
      "oc": 1604,
      "Ġiya": 1605,
      "Ġ=": 1606,
      "rÃ¹n": 1607,
      "13": 1608,
      "Ġile": 1609,
      "ĠYor": 1610,
      "ongo": 1611,
      "ĠNijeriya": 1612,
      "ĠAg": 1613,
      "ĠKristo": 1614,
      "ĠáĪŀ": 1615,
      "ze": 1616,
      "ĠMu": 1617,
      "áĪ³áĭŃ": 1618,
      "ĠIs": 1619,
      "ĠerÃ©": 1620,
      "ĠáĮł": 1621,
      "Ġká»į": 1622,
      "anga": 1623,
      "ĠwÃł": 1624,
      "ÃĮ": 1625,
      "âĢĵ": 1626,
      "ĠáĪĻ": 1627,
      "oro": 1628,
      "Ġmag": 1629,
      "Ġlugha": 1630,
      "uko": 1631,
      "áĪĿáĪħ": 1632,
      "lic": 1633,
      "Ġinah": 1634,
      "Ġzai": 1635,
      "anci": 1636,
      "Ġmili": 1637,
      "alla": 1638,
      "land": 1639,
      "áī³áĭĬ": 1640,
      "Ġ14": 1641,
      "ĠáĬłáĪµáī°": 1642,
      "ons": 1643,
      "ĠáĮ½": 1644,
      "áĮĤ": 1645,
      "anin": 1646,
      "ĠKu": 1647,
      "yÃ¬n": 1648,
      "ĠUni": 1649,
      "ĠáĮİ": 1650,
      "Ġaiki": 1651,
      "him": 1652,
      "Makala": 1653,
      "ľáĪªáĬ«": 1654,
      "atar": 1655,
      "wamn": 1656,
      "Ġinahusu": 1657,
      "alin": 1658,
      "áĪĺáĪŃ": 1659,
      "Ġman": 1660,
      "Ġwana": 1661,
      "vel": 1662,
      "ars": 1663,
      "dÃ©": 1664,
      "ise": 1665,
      "Ã§": 1666,
      "ĠáĭĭáĬĵ": 1667,
      "Ġkasa": 1668,
      "ĠáĬ¥áĬķáĭ³": 1669,
      "att": 1670,
      "ĠáĪ³áĭŃ": 1671,
      "uwan": 1672,
      "áĬķáĭ³": 1673,
      "ungu": 1674,
      "Ġ12": 1675,
      "áĭ²áĪµ": 1676,
      "kazi": 1677,
      "199": 1678,
      "ats": 1679,
      "ĠáĬ®": 1680,
      "áĮĨ": 1681,
      "ĠáīłáĪļ": 1682,
      "ĠTa": 1683,
      "wi": 1684,
      "Ġana": 1685,
      "ts": 1686,
      "jen": 1687,
      "ĠáĪĺáĬķ": 1688,
      "for": 1689,
      "ĠprÃ©": 1690,
      "ĠáĪĺáĪµ": 1691,
      "wÃ²": 1692,
      "áĮįáĪŃ": 1693,
      "ĠSh": 1694,
      "tÃł": 1695,
      "yáº¹": 1696,
      "kon": 1697,
      "hemu": 1698,
      "uis": 1699,
      "amba": 1700,
      "Ġbu": 1701,
      "áī·": 1702,
      "Ġinda": 1703,
      "áĮłáĪŃ": 1704,
      "Ġwata": 1705,
      "ember": 1706,
      "ĠAfirka": 1707,
      "ĠÃ¨dÃ¨": 1708,
      "uti": 1709,
      "Ġáį¢": 1710,
      "eri": 1711,
      "Ġáī¤áī°": 1712,
      "La": 1713,
      "áĭĿáī¥": 1714,
      "Ġcont": 1715,
      "ĠJam": 1716,
      "rÃŃkÃł": 1717,
      "áĪĭáĭŃ": 1718,
      "Ġtra": 1719,
      "ĠGu": 1720,
      "Ġbay": 1721,
      "ĠDa": 1722,
      "ĠkÃŃ": 1723,
      "gbÃ¨": 1724,
      "Ġina": 1725,
      "áĮĪáĬĺ": 1726,
      "ĠNew": 1727,
      "Ġkafa": 1728,
      "áįĸ": 1729,
      "Ġgu": 1730,
      "ĠFr": 1731,
      "ward": 1732,
      "rÃ²": 1733,
      "Ġtr": 1734,
      "En": 1735,
      "uth": 1736,
      "ĠáĪģáĪī": 1737,
      "gáº¹": 1738,
      "ĠbÃ¡": 1739,
      "\".": 1740,
      "ash": 1741,
      "umi": 1742,
      "Ġme": 1743,
      "ld": 1744,
      "áĭī": 1745,
      "Ã©n": 1746,
      "Ġdo": 1747,
      "Ġáĭ¨áĪĨ": 1748,
      "ĠáįĬ": 1749,
      "gbÃ¡": 1750,
      "--": 1751,
      "à¤": 1752,
      "Ġuli": 1753,
      "ĠolÃ³": 1754,
      "Ġmá»į": 1755,
      "ĠÆĻa": 1756,
      "Ġcewa": 1757,
      "ĠVi": 1758,
      "Ġup": 1759,
      "Ġmaj": 1760,
      "áĬŀ": 1761,
      "ĠCom": 1762,
      "NÃŃ": 1763,
      "pÃ©": 1764,
      "co": 1765,
      "ĠáĬłáĪĿ": 1766,
      "ĠÆĻwallon": 1767,
      "go": 1768,
      "aya": 1769,
      "gi": 1770,
      "áĮĢáĪĺáĪªáĭ«": 1771,
      "emb": 1772,
      "dan": 1773,
      "Ġthat": 1774,
      "ĠmÃ¡": 1775,
      "fe": 1776,
      "Ġáĭ¨áĪĿ": 1777,
      "áĪŃáĪµáī²": 1778,
      "tÃ¬": 1779,
      "Ġkim": 1780,
      "umani": 1781,
      "áĪ«áĭĬ": 1782,
      "Ġkus": 1783,
      "ĠáĪĺáĭ°áī¥": 1784,
      "ÃĢwá»įn": 1785,
      "enti": 1786,
      "áĪĨáĬĲ": 1787,
      "alme": 1788,
      "ome": 1789,
      "Ġoá¹£Ã¹": 1790,
      "va": 1791,
      "Ġvi": 1792,
      "ĠÃĴ": 1793,
      "ĠyÃ¬ÃŃ": 1794,
      "jerumani": 1795,
      "amoja": 1796,
      "aifa": 1797,
      "ĠkÃ³": 1798,
      "ute": 1799,
      "ĠáĪ°áĭİáī½": 1800,
      "Ġduniya": 1801,
      "báº¹": 1802,
      "Ġ13": 1803,
      "pr": 1804,
      "Il": 1805,
      "isiwa": 1806,
      "hun": 1807,
      "Ġdake": 1808,
      "amb": 1809,
      "lÃ³": 1810,
      "ĠRe": 1811,
      "Ġáīłáĭĺ": 1812,
      "yÃ¨": 1813,
      "Ġweng": 1814,
      "ĠMo": 1815,
      "uwar": 1816,
      "ign": 1817,
      "nÃ¬yÃłn": 1818,
      "ois": 1819,
      "Éĵ": 1820,
      "Ġ192": 1821,
      "Ġáī¦": 1822,
      "ĠII": 1823,
      "ĠÆ": 1824,
      "áįİ": 1825,
      "áĪ«áĪį": 1826,
      "kini": 1827,
      "Ġdaya": 1828,
      "ĠáĬĲáĮĪáĪŃ": 1829,
      "ĠJihar": 1830,
      "Ġmul": 1831,
      "Ġir": 1832,
      "ĠMe": 1833,
      "gin": 1834,
      "Ġsan": 1835,
      "vyo": 1836,
      "ĠNigeria": 1837,
      "wanza": 1838,
      "áĬķáĮįáĪĬáĭĿ": 1839,
      "bin": 1840,
      "Ġmwan": 1841,
      "Ġbáº¹": 1842,
      "º¸": 1843,
      "ĠáĭĵáĪĿ": 1844,
      "illi": 1845,
      "Ġáī°áĪĺ": 1846,
      "áĪĪáī½": 1847,
      "tawa": 1848,
      "Ġmus": 1849,
      "eno": 1850,
      "ĠBK": 1851,
      "Ġbabban": 1852,
      "Ġwon": 1853,
      "áī¦áī½": 1854,
      "ĠIng": 1855,
      "Ġapp": 1856,
      "áī°áĭį": 1857,
      "Ġzam": 1858,
      "Ġwannan": 1859,
      "áĮ¸": 1860,
      "ĠtÃºn": 1861,
      "Ġwad": 1862,
      "kÃ²": 1863,
      "gbÃ©": 1864,
      "Ġwake": 1865,
      "Ġake": 1866,
      "Ġyar": 1867,
      "Ġjama": 1868,
      "aki": 1869,
      "gbá»į": 1870,
      "iaka": 1871,
      "Ġwatu": 1872,
      "ĠÃ¨nÃ¬yÃłn": 1873,
      "ess": 1874,
      "Ġninu": 1875,
      "Ġorile": 1876,
      "ĠáĭĵáĪĺáīµ": 1877,
      "ike": 1878,
      "Ġiá¹£áº¹": 1879,
      "áĮłáīĢ": 1880,
      "hine": 1881,
      "Ġmf": 1882,
      "áį¥": 1883,
      "ĠMus": 1884,
      "ĠUnivers": 1885,
      "ĠOk": 1886,
      "Ġhis": 1887,
      "atun": 1888,
      "áĪĽáĪª": 1889,
      "Ġáĭ¨áĪļáĮĪáĬĿ": 1890,
      "Ġhukum": 1891,
      "ĠáīĨ": 1892,
      "ĠKarne": 1893,
      "elu": 1894,
      "tu": 1895,
      "Ġent": 1896,
      "Ġus": 1897,
      "Ġter": 1898,
      "ohn": 1899,
      "lin": 1900,
      "ziki": 1901,
      "Ġyankin": 1902,
      "son": 1903,
      "eo": 1904,
      "áīħáĪĿ": 1905,
      "Ġsai": 1906,
      "ashin": 1907,
      "áĪ¨áĭį": 1908,
      "Ġsehemu": 1909,
      "mes": 1910,
      "tre": 1911,
      "dÃŃ": 1912,
      "áĮĵ": 1913,
      "áĭŀ": 1914,
      "enn": 1915,
      "ubwa": 1916,
      "sÃ¬": 1917,
      "ende": 1918,
      "iz": 1919,
      "Ġkab": 1920,
      "ĠØ": 1921,
      "ress": 1922,
      "ette": 1923,
      "áįĬáīµ": 1924,
      "yyar": 1925,
      "ĠáĬª": 1926,
      "ogra": 1927,
      "áĮįáī¥": 1928,
      "ose": 1929,
      "ĠáĪĿáĬŃ": 1930,
      "ĠkÃ²": 1931,
      "áĪģáĪĿ": 1932,
      "ena": 1933,
      "Ġmkuu": 1934,
      "áĬ¢": 1935,
      "áĬĸáī½": 1936,
      "ĠRo": 1937,
      "áĭ±áĪµ": 1938,
      "Ġgáº¹": 1939,
      "eshi": 1940,
      "annin": 1941,
      "áĪĭáĬķáĭµ": 1942,
      "Ya": 1943,
      "ĠáĬ¥áĭ¨": 1944,
      "áĭ³áĬķ": 1945,
      "Ġlakini": 1946,
      "ĠÆĻafa": 1947,
      "Ġkamar": 1948,
      "ven": 1949,
      "áįĴ": 1950,
      "Ġpamoja": 1951,
      "ĠIta": 1952,
      "ume": 1953,
      "ĠáĪĭ": 1954,
      "ĠFar": 1955,
      "Ġco": 1956,
      "áĬ¥áĬķ": 1957,
      "Ġáī¤áīµ": 1958,
      "áĮ¨áĪ¨": 1959,
      "Ġmiaka": 1960,
      "Ġcomme": 1961,
      "Ġgab": 1962,
      "áĮĮ": 1963,
      "áī³áī¸áĭį": 1964,
      "ton": 1965,
      "jÃ¡": 1966,
      "11": 1967,
      "ĠCol": 1968,
      "Ġro": 1969,
      "wÃ¡": 1970,
      "dÃ¡": 1971,
      "Ġsamu": 1972,
      "tÃ²": 1973,
      "Ġáīĥ": 1974,
      "ĠUniversity": 1975,
      "Ġnje": 1976,
      "áĭŃáĪħ": 1977,
      "áĬłáī¥": 1978,
      "ĠÃ¬gbÃł": 1979,
      "áĪ¨áĮĥ": 1980,
      "áĪ¨áĬķ": 1981,
      "Ġmutane": 1982,
      "ĠáĪĲ": 1983,
      "ĠáĪĺáĬ«": 1984,
      "istoria": 1985,
      "mba": 1986,
      "ron": 1987,
      "ĠÃ¡": 1988,
      "Ġgbo": 1989,
      "ĠCo": 1990,
      "áĮ¦": 1991,
      "Al": 1992,
      "Ġwak": 1993,
      "ouv": 1994,
      "ĠáĬłáī¥": 1995,
      "Ġnot": 1996,
      "iss": 1997,
      "kea": 1998,
      "per": 1999,
      "Ã©ri": 2000,
      "ese": 2001,
      "ath": 2002,
      "ĠáĬ¨áĬł": 2003,
      "198": 2004,
      "Ġwasu": 2005,
      "ikia": 2006,
      "ĠIb": 2007,
      "Ġtáº¹": 2008,
      "ora": 2009,
      "áīĨáĮ£": 2010,
      "áī°áĪŃ": 2011,
      "Ġgr": 2012,
      "ĠIngila": 2013,
      "ĠáĬĲáīłáĪ¨": 2014,
      "Ġáī°áīĢ": 2015,
      "ĠJami": 2016,
      "Ġduk": 2017,
      "ÌĢ.": 2018,
      "áĪĪáĭ«": 2019,
      "able": 2020,
      "áĭµáĬķ": 2021,
      "ula": 2022,
      "ĠáĬłáĮĪáĪŃ": 2023,
      "tÃŃ": 2024,
      "Les": 2025,
      "áĪ°áĭį": 2026,
      "Ġmáº¹": 2027,
      "ĠÃ²á¹£Ã¨": 2028,
      "fani": 2029,
      "ĠáĪĨáĬĸ": 2030,
      "ĠdÃ¡": 2031,
      "dÃ¬": 2032,
      "Ã´": 2033,
      "yÃ©": 2034,
      "anen": 2035,
      "ope": 2036,
      "lim": 2037,
      "ĠáīłáĪµ": 2038,
      "áĮĪáĭµ": 2039,
      "áĪĺáĪµ": 2040,
      "ĠáīłáĬ¢áīµáĭ®áĮµáĭ«": 2041,
      "Ġasi": 2042,
      "ĠáĬłáī£": 2043,
      "der": 2044,
      "bwa": 2045,
      "áĬĲáĭļáĪħ": 2046,
      "áĪīáīµ": 2047,
      "áĪ¨áĭ³": 2048,
      "Â«": 2049,
      "áĪĽáĭĬ": 2050,
      "Ġáįķ": 2051,
      "Ġpas": 2052,
      "ĠáĪ´": 2053,
      "áĪ°áī¥": 2054,
      "Ġsana": 2055,
      "áĪĶáĪŃ": 2056,
      "áīª": 2057,
      "Ġsam": 2058,
      "unt": 2059,
      "tique": 2060,
      "Ġyin": 2061,
      "Ġkwanza": 2062,
      "ires": 2063,
      "ĠáĭĺáĬķáĭµ": 2064,
      "ĠáĮ¨": 2065,
      "Ġáĭ¨áĪ°": 2066,
      "áīµáĬĵ": 2067,
      "ona": 2068,
      "áįħ": 2069,
      "ĠBa": 2070,
      "áĮĪáĬĻ": 2071,
      "Ġbaada": 2072,
      "Ġdin": 2073,
      "Ġper": 2074,
      "ÙĦ": 2075,
      "can": 2076,
      "áĭ¥": 2077,
      "ĠáĮĢáĪĿáĪ®": 2078,
      "fáº¹": 2079,
      "Ġáī£áĪĪ": 2080,
      "zini": 2081,
      "áĪĭáī¸áĭį": 2082,
      "jÃł": 2083,
      "Ġgir": 2084,
      "áĮ½áĪĲ": 2085,
      "ĠáĪ«": 2086,
      "ost": 2087,
      "Ġsiku": 2088,
      "ĠRoma": 2089,
      "Ġsy": 2090,
      "ĠUn": 2091,
      "ĠPar": 2092,
      "áĪŃáĪ±": 2093,
      "Ġ190": 2094,
      "andishi": 2095,
      "ept": 2096,
      "Ġáįĵ": 2097,
      "onn": 2098,
      "ĠáĬ¢áīµáĭ®áĮµáĭ«": 2099,
      "Ġpa": 2100,
      "atin": 2101,
      "ĠQ": 2102,
      "Ġgarin": 2103,
      "ĠPro": 2104,
      "ato": 2105,
      "com": 2106,
      "ĠáĮ¦áĪŃ": 2107,
      "ww": 2108,
      "Ġ2015": 2109,
      "cl": 2110,
      "ĠDe": 2111,
      "ĠÃĮpÃŃnláº¹": 2112,
      "bre": 2113,
      "Ġkai": 2114,
      "Ġzili": 2115,
      "Ġshugaban": 2116,
      "Ġáĭ«áĪĪáĭį": 2117,
      "Ġaikin": 2118,
      "áī¡áī¥": 2119,
      "áĭ¨áĪŃ": 2120,
      "ase": 2121,
      "ĠáĮ¸": 2122,
      "Ġeneo": 2123,
      "Ġáī¥áī»": 2124,
      "Ġmakar": 2125,
      "á¹£e": 2126,
      "áĬķáĬķ": 2127,
      "áĬ¤áĪį": 2128,
      "lan": 2129,
      "áĮ£áĪį": 2130,
      "isp": 2131,
      "katifu": 2132,
      "Ġáī°áĭĪ": 2133,
      "Ùİ": 2134,
      "Ã³n": 2135,
      "ungo": 2136,
      "gion": 2137,
      "Ġhasa": 2138,
      "chini": 2139,
      "ated": 2140,
      "Ġpremi": 2141,
      "hana": 2142,
      "Ġac": 2143,
      "ĠÉĹan": 2144,
      "org": 2145,
      "ime": 2146,
      "áĭµáĪĿ": 2147,
      "ĠáĬ¨áįį": 2148,
      "ĥáĭŃ": 2149,
      "ĠáĭĺáĪĺ": 2150,
      "Ġáĭ¨áĭĪ": 2151,
      "já»įba": 2152,
      "áĪłáĪ¨": 2153,
      "ĠáĬłáĭį": 2154,
      "ĠáĪĺáĪį": 2155,
      "kazini": 2156,
      "Ġwakazi": 2157,
      "Ġji": 2158,
      "Ġáĭ«áĪĪ": 2159,
      "áĬĵáĭĬ": 2160,
      "áĪįáĮ£": 2161,
      "Ġgwamn": 2162,
      "ĠBo": 2163,
      "ĠJanu": 2164,
      "áĪĿáĬĵ": 2165,
      "ants": 2166,
      "hili": 2167,
      "Ġob": 2168,
      "Ġann": 2169,
      "Ġwengi": 2170,
      "ĠáĬ¦": 2171,
      "Ġáī°áĬ¨": 2172,
      "hariki": 2173,
      "Ġcan": 2174,
      "50": 2175,
      "lÃ¨": 2176,
      "Ġkya": 2177,
      "orn": 2178,
      "yÃł": 2179,
      "ited": 2180,
      "Ġ2011": 2181,
      "Ġgaba": 2182,
      "ishwa": 2183,
      "Ġes": 2184,
      "áį²áį±áį»áį": 2185,
      "ert": 2186,
      "21": 2187,
      "olo": 2188,
      "ĠÃĪ": 2189,
      "ĠtÃł": 2190,
      "áĪļáĭ«": 2191,
      "áĬħ": 2192,
      "Ġbin": 2193,
      "ĠBen": 2194,
      "Ġmaha": 2195,
      "ashe": 2196,
      "Ġaux": 2197,
      "yoyin": 2198,
      "ĠáīģáĮ¥áĪŃ": 2199,
      "ĠJohn": 2200,
      "Ġzaidi": 2201,
      "Ġjina": 2202,
      "ashi": 2203,
      "enda": 2204,
      "ĠáĪī": 2205,
      "ĠAmáº¹": 2206,
      "Ġcin": 2207,
      "Ġkubwa": 2208,
      "Ġray": 2209,
      "Ġtu": 2210,
      "oda": 2211,
      "gn": 2212,
      "ĠáĪ¥áĪŃ": 2213,
      "Ġnchini": 2214,
      "ĠTh": 2215,
      "Ġ2014": 2216,
      "zaji": 2217,
      "ibi": 2218,
      "alement": 2219,
      "rÃłn": 2220,
      "Ġshine": 2221,
      "kasÃŃ": 2222,
      "ĠwÃ¡": 2223,
      "arr": 2224,
      "eric": 2225,
      "Ġlit": 2226,
      "ĠlÃ³rÃŃ": 2227,
      "els": 2228,
      "Da": 2229,
      "Ġáĭ®": 2230,
      "Ġibi": 2231,
      "ĠáĬłáīł": 2232,
      "mad": 2233,
      "Ġáĭ¨áīĢ": 2234,
      "pt": 2235,
      "jir": 2236,
      "Ġib": 2237,
      "Ġáĭ¨áĪĨáĬĲ": 2238,
      "ambo": 2239,
      "ĠTur": 2240,
      "ĠáĮ£": 2241,
      "áĪ¥áī³áīµ": 2242,
      "ĠMay": 2243,
      "Ġlili": 2244,
      "áĪŃáĬŃ": 2245,
      "dio": 2246,
      "Ġ2016": 2247,
      "ĠáīłáĪĿ": 2248,
      "Ġtro": 2249,
      "ĠáĭĪáĬķ": 2250,
      "áī¢áĭ«": 2251,
      "áĬ¦": 2252,
      "eni": 2253,
      "áĮ¨áĪ¨áĪ»": 2254,
      "áīĥáĪį": 2255,
      "ĠáĭµáĪŃ": 2256,
      "Ġkungiyar": 2257,
      "Ġbaya": 2258,
      "áĮ¤": 2259,
      "ashen": 2260,
      "áĮłáĪ«": 2261,
      "ĠáĪľ": 2262,
      "ĠáīłáĭļáĪħ": 2263,
      "gÃºn": 2264,
      "Ġgud": 2265,
      "dha": 2266,
      "kanin": 2267,
      "Ġ11": 2268,
      "ĠHar": 2269,
      "Ġsá»į": 2270,
      "ĠNov": 2271,
      "ĠAmerika": 2272,
      "chool": 2273,
      "uran": 2274,
      "áĪľáĬķ": 2275,
      "cial": 2276,
      "Ġáĭ¨áī°áī£": 2277,
      "ĠSe": 2278,
      "áĪ³áīµ": 2279,
      "Ġamfani": 2280,
      "Ġáī¡": 2281,
      "Ġnd": 2282,
      "áĬķáĮī": 2283,
      "áĭİáī¹": 2284,
      "ĠáīłáĭĺáĪĺáĬĲ": 2285,
      "ĠáĬ¨áĪĺ": 2286,
      "ĠáīłáĪĭáĭŃ": 2287,
      "Ġtara": 2288,
      "ĠOkto": 2289,
      "ĠKa": 2290,
      "Ġ2019": 2291,
      "ukan": 2292,
      "vu": 2293,
      "wÃ³": 2294,
      "Ġhaka": 2295,
      "ĠáĪĺáĬ«áĬ¨áĪį": 2296,
      "ĠAust": 2297,
      "Ġik": 2298,
      "Ġlab": 2299,
      "ĠGhana": 2300,
      "yana": 2301,
      "insi": 2302,
      "Ġmafi": 2303,
      "ĠAp": 2304,
      "ĠSept": 2305,
      "Ġgasar": 2306,
      "30": 2307,
      "ĠAbu": 2308,
      "ĠáīłáĪ°": 2309,
      "Ġjir": 2310,
      "enya": 2311,
      "áĮįáĭļ": 2312,
      "Ġshiga": 2313,
      "oir": 2314,
      "áĬ³": 2315,
      "omi": 2316,
      "enne": 2317,
      "Ġfim": 2318,
      "idan": 2319,
      "Ġte": 2320,
      "cy": 2321,
      "jia": 2322,
      "Ġiliyo": 2323,
      "áīħáĪŃ": 2324,
      "endele": 2325,
      "áī¥áĪ¨": 2326,
      "áĪĽáĭŃ": 2327,
      "Ġmon": 2328,
      "Ġ2012": 2329,
      "Ġum": 2330,
      "ĠáĬŃáįįáĪĪ": 2331,
      "Ġhali": 2332,
      "fic": 2333,
      "iwa": 2334,
      "ĠAmur": 2335,
      "Mwaka": 2336,
      "Ġpo": 2337,
      "áĪħáĪį": 2338,
      "alisar": 2339,
      "ebru": 2340,
      "áĪĿáĪħáĪŃáīµ": 2341,
      "Ġmbali": 2342,
      "iá¹£áº¹": 2343,
      "ĠmÃ¡a": 2344,
      "ĠÃ²á¹£Ã¨rÃ©": 2345,
      "ĠáĬłáĪŃ": 2346,
      "Ġsiya": 2347,
      "tp": 2348,
      "197": 2349,
      "Ġkir": 2350,
      "ram": 2351,
      "ian": 2352,
      "196": 2353,
      "Ġres": 2354,
      "cip": 2355,
      "áĪĺáĪĪ": 2356,
      "Ġjami": 2357,
      "ilaya": 2358,
      "kÃ¬": 2359,
      "phi": 2360,
      "Ġwhi": 2361,
      "ĠChi": 2362,
      "ÌĢ,": 2363,
      "áĭŃáĭĪ": 2364,
      "ĠGe": 2365,
      "ents": 2366,
      "//": 2367,
      "Ġtarehe": 2368,
      "ĠdÃ©p": 2369,
      "Ġmara": 2370,
      "áįĥ": 2371,
      "áīĦ": 2372,
      "ates": 2373,
      "áĬķáĮįáĪĬáĭĿáĬĽ": 2374,
      "Ã®": 2375,
      "ranÃ§": 2376,
      "ĠJap": 2377,
      "ĠyÃŃ": 2378,
      "ĠtÃłbÃŃ": 2379,
      "://": 2380,
      "ĠkÃ©": 2381,
      "ĠáĬ¥áĬķáĭ²áĪģáĪĿ": 2382,
      "Ġsannan": 2383,
      "áĬķáĬĵ": 2384,
      "dar": 2385,
      "akar": 2386,
      "áīĨáĮ£áĮłáĪŃ": 2387,
      "\",": 2388,
      "Ali": 2389,
      "ĠMuham": 2390,
      "Kati": 2391,
      "ĠOr": 2392,
      "ĠalÃ¡": 2393,
      "uba": 2394,
      "Ġ)": 2395,
      "ty": 2396,
      "Ġtele": 2397,
      "ĠáĪ½": 2398,
      "ussi": 2399,
      "ĠÃ¨yÃŃ": 2400,
      "ĠOktoba": 2401,
      "Ġkup": 2402,
      "ingine": 2403,
      "ĠRa": 2404,
      "Ġ2006": 2405,
      "gar": 2406,
      "Ġáĭ¨áĮį": 2407,
      "tawala": 2408,
      "ikwa": 2409,
      "Ġmaka": 2410,
      "Ġdif": 2411,
      "cce": 2412,
      "ÃłÃ¡": 2413,
      "áĭ°áīµ": 2414,
      "Ġjuu": 2415,
      "Ġdeux": 2416,
      "ela": 2417,
      "imbo": 2418,
      "Ġáī¦áī³": 2419,
      "Ġ2018": 2420,
      "Ġfir": 2421,
      "Ġwakati": 2422,
      "iste": 2423,
      "Ġkuto": 2424,
      "lÃ¹": 2425,
      "áĮģ": 2426,
      "ugu": 2427,
      "Ġ2017": 2428,
      "anzu": 2429,
      "áĮįáĭļáĬłáī¥": 2430,
      "isho": 2431,
      "ves": 2432,
      "Ġláº¹": 2433,
      "haribi": 2434,
      "ĠÃłká»į": 2435,
      "Ġáº¹gbáº¹": 2436,
      "its": 2437,
      "ures": 2438,
      "Ġfin": 2439,
      "bun": 2440,
      "Ã¢": 2441,
      "22": 2442,
      "áĮĪáĬķ": 2443,
      "áĭįáĪĿ": 2444,
      "itwa": 2445,
      "Ġamma": 2446,
      "áĪµáī³": 2447,
      "fo": 2448,
      "ĠáīłáīĢ": 2449,
      "Ġshir": 2450,
      "wani": 2451,
      "ĠáĬĲáīłáĪ©": 2452,
      "Ġmais": 2453,
      "ĠOn": 2454,
      "ĠonÃŃ": 2455,
      "kwai": 2456,
      "Ġap": 2457,
      "Ġ[": 2458,
      "oloni": 2459,
      "áĬŀáī½": 2460,
      "fri": 2461,
      "Ġáī°áī¥": 2462,
      "ĠâĢĺ": 2463,
      "ines": 2464,
      "ony": 2465,
      "form": 2466,
      "Ġohun": 2467,
      "istan": 2468,
      "uka": 2469,
      "tor": 2470,
      "ĠAre": 2471,
      "hy": 2472,
      "tar": 2473,
      "ima": 2474,
      "ĠBir": 2475,
      "Ġshekaru": 2476,
      "áĭ¬": 2477,
      "áĮĨáī½": 2478,
      "áī¤áīµ": 2479,
      "Ġras": 2480,
      "ulo": 2481,
      "Ġhiyo": 2482,
      "ĠAt": 2483,
      "Ni": 2484,
      "Ġja": 2485,
      "ree": 2486,
      "ĠMata": 2487,
      "Ġ2010": 2488,
      "zama": 2489,
      "yá»į": 2490,
      "áĪŃáĪµáī²áĭ«áĬķ": 2491,
      "velop": 2492,
      "áĮ¥áĬķ": 2493,
      "ĠBe": 2494,
      "Ġáīħáĭ±áĪµ": 2495,
      "Ġ2007": 2496,
      "ĠWak": 2497,
      "Ġuku": 2498,
      "port": 2499,
      "92": 2500,
      "ĠFebru": 2501,
      "áĭķáĪ«": 2502,
      "Ġses": 2503,
      "ĠItalia": 2504,
      "zwa": 2505,
      "Ġáĭ¨áĪµ": 2506,
      "³áĪµ": 2507,
      "lah": 2508,
      "ĠáĭŃáĮĪáĬĽ": 2509,
      "usini": 2510,
      "ks": 2511,
      "ĠMut": 2512,
      "áĭ¶áī½": 2513,
      "Ġkaratun": 2514,
      "ĠAmurka": 2515,
      "ĠáĪ¨": 2516,
      "ĠAward": 2517,
      "áĮįáĭļáĬłáī¥áĪĶáĪŃ": 2518,
      "áĬŃáīµ": 2519,
      "ĠUjerumani": 2520,
      "orld": 2521,
      "Ġnan": 2522,
      "áĪµáĬĵ": 2523,
      "Ġimp": 2524,
      "ĠáĪĿáĬŃáĬķáĭ«": 2525,
      "ĠolÃ¹": 2526,
      "ero": 2527,
      "Ġomo": 2528,
      "áĪº": 2529,
      "ĠáĬłáĪī": 2530,
      "Ġhanyar": 2531,
      "ĠKas": 2532,
      "cal": 2533,
      "áī¥áĪ«": 2534,
      "lÃł": 2535,
      "wai": 2536,
      "ĠUingereza": 2537,
      "ĠáĪĿáĬķ": 2538,
      "Ġyawa": 2539,
      "Ġhada": 2540,
      "ĠDes": 2541,
      "urin": 2542,
      "Ġkut": 2543,
      "Ġbuga": 2544,
      "han": 2545,
      "Ġ2013": 2546,
      "Ġzina": 2547,
      "ĠjÃ¹": 2548,
      "Ġkm": 2549,
      "ĠáĭŃáī£": 2550,
      "Ġabin": 2551,
      "Ġgbogbo": 2552,
      "Ġáº¸": 2553,
      "ĠlÃ¨": 2554,
      "Ġkif": 2555,
      "Ġilikuwa": 2556,
      "anza": 2557,
      "omo": 2558,
      "mÃ¹": 2559,
      "sc": 2560,
      "erin": 2561,
      "Ġparti": 2562,
      "Ġkal": 2563,
      "áĮĪáĬĵ": 2564,
      "ĠX": 2565,
      "Ġupande": 2566,
      "Ġsama": 2567,
      "ĠNai": 2568,
      "áĭŃáĬķ": 2569,
      "ays": 2570,
      "Ġ30": 2571,
      "Ġwenye": 2572,
      "Ġri": 2573,
      "ĠJa": 2574,
      "ĠáĬŃáįįáĪį": 2575,
      "Ġáĭ¨áĬĲáīłáĪ¨": 2576,
      "Ġpla": 2577,
      "Ġform": 2578,
      "áĬĴáĭ«": 2579,
      "ory": 2580,
      "ĠSchool": 2581,
      "Ġmoja": 2582,
      "ansu": 2583,
      "áīĢáīµ": 2584,
      "áī±áĪĿ": 2585,
      "Kwa": 2586,
      "ĠLag": 2587,
      "áĬĸáĪŃ": 2588,
      "Ġnyingi": 2589,
      "Ġpos": 2590,
      "wu": 2591,
      "anni": 2592,
      "ĠKenya": 2593,
      "fuata": 2594,
      "Ġentre": 2595,
      "Ġdig": 2596,
      "ĠnÃŃgbÃł": 2597,
      "Ġáĭ²": 2598,
      "ĠKis": 2599,
      "old": 2600,
      "ĠBar": 2601,
      "mÃŃ": 2602,
      "gas": 2603,
      "bÃł": 2604,
      "Ġmaso": 2605,
      "olu": 2606,
      "lish": 2607,
      "ĠáĬłáĬ«áī£áī¢": 2608,
      "ĠgbÃ©": 2609,
      "áĭ°áĪ¨áĮĪ": 2610,
      "koa": 2611,
      "ĠáĪŃ": 2612,
      "Ġakan": 2613,
      "ĠKusini": 2614,
      "ys": 2615,
      "áĪĪáī°": 2616,
      "ĠHe": 2617,
      "Ġyali": 2618,
      "ĠKam": 2619,
      "mma": 2620,
      "Ġáįĸ": 2621,
      "ĠáĬ¥áĬķáĮį": 2622,
      "áĮ½áĪĲáįį": 2623,
      "thi": 2624,
      "ther": 2625,
      "ternational": 2626,
      "Ġkarne": 2627,
      "ĠBur": 2628,
      "mbali": 2629,
      "Ġtsakanin": 2630,
      "áĭ¨áīµ": 2631,
      "ĠáĬłáīĨáĮ£áĮłáĪŃ": 2632,
      "ĠUr": 2633,
      "ĠCon": 2634,
      "erre": 2635,
      "Ġtso": 2636,
      "uma": 2637,
      "Ġhad": 2638,
      "undi": 2639,
      "Ġbar": 2640,
      "Ġcl": 2641,
      "áĭ®áĬķ": 2642,
      "unia": 2643,
      "23": 2644,
      "Ġche": 2645,
      "fanin": 2646,
      "Ġtrans": 2647,
      "á»Į": 2648,
      "uta": 2649,
      "áĪŃáĭĿ": 2650,
      "Ġmin": 2651,
      "ĠAfrica": 2652,
      "uki": 2653,
      "ĠáĮįáĭĽáīµ": 2654,
      "ĠhaÉĹ": 2655,
      "ĠáīłáĮį": 2656,
      "ĠTi": 2657,
      "kÃłn": 2658,
      "Ġchini": 2659,
      "áĪ¨áĮį": 2660,
      "Ġrec": 2661,
      "á¹£Ãł": 2662,
      "áįĪáĪŃ": 2663,
      "ĠáĬłáĬķáĭ±": 2664,
      "erv": 2665,
      "Ġ25": 2666,
      "ĠKan": 2667,
      "áĪĿáĬķ": 2668,
      "ayo": 2669,
      "áĪįáīħ": 2670,
      "áįĢ": 2671,
      "Ġkum": 2672,
      "áĬķáĮĭ": 2673,
      "Ġáīłáī¥": 2674,
      "Ġwhich": 2675,
      "ĠáĬ¥áĭ«": 2676,
      "erikali": 2677,
      "áĭµáĪŀ": 2678,
      "áĮĪáī£": 2679,
      "lex": 2680,
      "hon": 2681,
      "kÃ¹n": 2682,
      "jini": 2683,
      "lem": 2684,
      "ĠJe": 2685,
      "Ġcour": 2686,
      "elles": 2687,
      "áĮİáĪŃ": 2688,
      "yen": 2689,
      "Ġáīłáĭ°": 2690,
      "áĮĪáĪĪ": 2691,
      "Ġá»įdun": 2692,
      "oth": 2693,
      "ĠÆĻar": 2694,
      "ĠWar": 2695,
      "Ġyanzu": 2696,
      "ĠáĬ¨áī°áĪŀáī½": 2697,
      "Ġhal": 2698,
      "áīĢáĭį": 2699,
      "Ġorin": 2700,
      "Ġconst": 2701,
      "Ġkuna": 2702,
      "ĠHausa": 2703,
      "ĠáĬĥáĭŃ": 2704,
      "ger": 2705,
      "atoli": 2706,
      "low": 2707,
      "ett": 2708,
      "ĠáĬłáĪĭ": 2709,
      "ight": 2710,
      "ĠáīłáįĬáīµ": 2711,
      "Ø§": 2712,
      "áĭŃáĬĵ": 2713,
      "aux": 2714,
      "ĠáĬ¥áĬķáĭ°áĪļ": 2715,
      "ĠArewa": 2716,
      "fiya": 2717,
      "Ġmk": 2718,
      "ĠáĪ¶": 2719,
      "Ġaut": 2720,
      "ales": 2721,
      "Ã¬bÃŃ": 2722,
      "emia": 2723,
      "Ġtari": 2724,
      "fÃ©r": 2725,
      "Ġsin": 2726,
      "ĠAli": 2727,
      "Ġak": 2728,
      "dá»į": 2729,
      "yn": 2730,
      "ĠKwa": 2731,
      "faransa": 2732,
      "ĠViungo": 2733,
      "jiria": 2734,
      "iro": 2735,
      "ĠBr": 2736,
      "unci": 2737,
      "ranÃ§ais": 2738,
      "ĠáĪĽáĪŃ": 2739,
      "áīµáĪŃ": 2740,
      "áĪĭáĪī": 2741,
      "áīħáīµ": 2742,
      "ision": 2743,
      "Ġms": 2744,
      "áĬĺ": 2745,
      "Ġpart": 2746,
      "ĠáĭŃáī½": 2747,
      "eneo": 2748,
      "Ġwato": 2749,
      "aribu": 2750,
      "Ġmbalimbali": 2751,
      "ĠFran": 2752,
      "áī¥áĪµ": 2753,
      "áĪĽáĬĸ": 2754,
      "ĠNor": 2755,
      "áĮ£áĪĿ": 2756,
      "ĠfÃŃ": 2757,
      "Ġtak": 2758,
      "Ãªme": 2759,
      "Ã©t": 2760,
      "ĠáĪģáĪĪáīµ": 2761,
      "Ã¹bÃ¡": 2762,
      "Ġbo": 2763,
      "Ġim": 2764,
      "ĠáĭŃáī³": 2765,
      "ublic": 2766,
      "abar": 2767,
      "ĠMal": 2768,
      "ĠAng": 2769,
      "áĪĳ": 2770,
      "Ġrep": 2771,
      "Ġmp": 2772,
      "takatifu": 2773,
      "Ġmwandishi": 2774,
      "áĪĪáĭ«áĭ©": 2775,
      "ule": 2776,
      "áĪı": 2777,
      "Ġala": 2778,
      "áĬ¬": 2779,
      "áĭĸ": 2780,
      "ges": 2781,
      "Ã¬nrin": 2782,
      "25": 2783,
      "Ġáī´": 2784,
      "áĬŃáĪµ": 2785,
      "ĠNaijiria": 2786,
      "ĠDuniya": 2787,
      "Ġ189": 2788,
      "ĠáĪ¸": 2789,
      "fun": 2790,
      "Ġ&": 2791,
      "Ġ24": 2792,
      "ular": 2793,
      "rÃ¨": 2794,
      "aren": 2795,
      "áĪĪáĬķ": 2796,
      "Ġcent": 2797,
      "ĠáĪĿáĬķáĮ": 2798,
      "ĠáĭĺáĪĺáĬĲ": 2799,
      "Ġáĭ©": 2800,
      "ĠáĬłáīłáī£": 2801,
      "tiv": 2802,
      "ĠMag": 2803,
      "Ġime": 2804,
      "tÃłn": 2805,
      "ambar": 2806,
      "áĪ«áīħ": 2807,
      "ĠáĪĮáĪĭ": 2808,
      "fer": 2809,
      "rÃ¬": 2810,
      "Ġsami": 2811,
      "Ġwacce": 2812,
      "Ġsaboda": 2813,
      "Ġguda": 2814,
      "ĠlÃ©": 2815,
      "umia": 2816,
      "áĪĪáĭŃ": 2817,
      "áĪ°áĪ«": 2818,
      "áĪįáĮį": 2819,
      "Ġcol": 2820,
      "dition": 2821,
      "áī£áĭŃ": 2822,
      "joba": 2823,
      "Ġ21": 2824,
      "ĠÃ©c": 2825,
      "mÃ¬": 2826,
      "³áį": 2827,
      "eme": 2828,
      "Ġsamar": 2829,
      "rie": 2830,
      "des": 2831,
      "Ġmal": 2832,
      "Ġsec": 2833,
      "rodha": 2834,
      "ical": 2835,
      "áĪĺáīµ": 2836,
      "umo": 2837,
      "pinle": 2838,
      "iláº¹": 2839,
      "áĪĿáĪŃ": 2840,
      "ĠáĮ¦áĪŃáĬĲáīµ": 2841,
      "áĪ®áįĵ": 2842,
      "Ġkwamba": 2843,
      "ĠKing": 2844,
      "áĪªáĬ«áĭĬ": 2845,
      "laya": 2846,
      "Ġáĭ¨áĭĵ": 2847,
      "ĠáĪĥáĭŃ": 2848,
      "áĪĺáĪ¨": 2849,
      "ĠáĭĵáĪĺáī³áīµ": 2850,
      "Katika": 2851,
      "par": 2852,
      "ric": 2853,
      "áĪŃáĪĺáĬķ": 2854,
      "ugh": 2855,
      "ĠMin": 2856,
      "Ġáĭ¨áĪĺáĮĢáĪĺáĪªáĭ«": 2857,
      "ĠáĪµáĪ«": 2858,
      "Ãºká»į": 2859,
      "Ġnuna": 2860,
      "Ġalif": 2861,
      "Ġ188": 2862,
      "Ġáĭ¨áĭį": 2863,
      "ĠTe": 2864,
      "ĠáĬłáĪ¨": 2865,
      "dda": 2866,
      "ĠáĪµáĪŃ": 2867,
      "bia": 2868,
      "Ãī": 2869,
      "ĠUs": 2870,
      "áĪĲáĬķáĪµ": 2871,
      "ĠáĬ¨áĪļ": 2872,
      "ĠáĬłáĭŃáĬĲáīµ": 2873,
      "Ġ2009": 2874,
      "áĮłáĪ¨": 2875,
      "ĠKano": 2876,
      "ĠáĪ²áĭ«": 2877,
      "yp": 2878,
      "áĮłáīĥ": 2879,
      "áĪįáĪĿ": 2880,
      "Ġmwa": 2881,
      "ley": 2882,
      "II": 2883,
      "abe": 2884,
      "ĠPe": 2885,
      "áī·áĪį": 2886,
      "Ġ23": 2887,
      "Ar": 2888,
      "ĠÃī": 2889,
      "Ġkafin": 2890,
      "ĠRD": 2891,
      "Ġaf": 2892,
      "lect": 2893,
      "ĠwÃŃ": 2894,
      "áīłáī¥": 2895,
      "áĪįáĭµ": 2896,
      "umba": 2897,
      "Ġsababu": 2898,
      "ĠáĭĽ": 2899,
      "ĠfranÃ§ais": 2900,
      "áĪŃáĭµ": 2901,
      "ĠOl": 2902,
      "ĠLagos": 2903,
      "aye": 2904,
      "vent": 2905,
      "áĪĭáĪĿ": 2906,
      "Ġmwana": 2907,
      "bit": 2908,
      "áī£áī¸áĭį": 2909,
      "ĠnÃŃpa": 2910,
      "sent": 2911,
      "Ġmto": 2912,
      "huri": 2913,
      "pÃ²": 2914,
      "ĠáĬ¨áįįáī°áĬĽ": 2915,
      "Ġáį²áį±áį»áį": 2916,
      "bili": 2917,
      "áĭ°áĪį": 2918,
      "kÃ¨": 2919,
      "ĠáĬ¨áĭļáĭ«": 2920,
      "ences": 2921,
      "ĠYorÃ¹bÃ¡": 2922,
      "ria": 2923,
      "áĪ¬áīµ": 2924,
      "áĮįáĪ«": 2925,
      "Ġdis": 2926,
      "ĠÃłrÃ¹n": 2927,
      "ĠáĬ¥áĪŃ": 2928,
      "ĠáĬłáĭ²áĪµ": 2929,
      "Ġgame": 2930,
      "áĬĲáĮĪáĪŃ": 2931,
      "ĠáĪłáĪ": 2932,
      "Ġkil": 2933,
      "Ġlang": 2934,
      "Ġ2005": 2935,
      "his": 2936,
      "áįįáĪ«": 2937,
      "cent": 2938,
      "fanya": 2939,
      "ĠáĬ³áĪµ": 2940,
      "ĠáĪĽáĪµ": 2941,
      "ĠáĬĲáĮĪáĪ¥áī³áīµ": 2942,
      "áī£áĪŃ": 2943,
      "ĠáĭĪáĪŃ": 2944,
      "Ġkusini": 2945,
      "áĭĮ": 2946,
      "ĠáĪĮáĪİáī½": 2947,
      "ten": 2948,
      "ĠUlaya": 2949,
      "Ġmulkin": 2950,
      "eral": 2951,
      "Ġexp": 2952,
      "Ġabo": 2953,
      "Ġ2020": 2954,
      "Ġfito": 2955,
      "ĠrÃŃ": 2956,
      "áĮĢáĪĺáĪŃáĭ«": 2957,
      "irin": 2958,
      "aut": 2959,
      "Ġtaka": 2960,
      "imo": 2961,
      "Ġdomin": 2962,
      "kokin": 2963,
      "Ġkoma": 2964,
      "Ġmakarantar": 2965,
      "vo": 2966,
      "Ġaussi": 2967,
      "áĬĲáĭį": 2968,
      "ĠÆĻasa": 2969,
      "Ùħ": 2970,
      "own": 2971,
      "ĠáĬ¥áĮħ": 2972,
      "ĠGo": 2973,
      "Ġ2008": 2974,
      "ui": 2975,
      "Ã¨me": 2976,
      "ĠáĪĺáĮł": 2977,
      "ĠáĬ©": 2978,
      "umu": 2979,
      "ĠMaj": 2980,
      "áĭİáī½áĬķ": 2981,
      "anzia": 2982,
      "aro": 2983,
      "unan": 2984,
      "Ġfam": 2985,
      "ĠáĭŃáī£áĪĭáĪį": 2986,
      "ĠáĭĪáīħáīµ": 2987,
      "áĭĵáīµ": 2988,
      "gan": 2989,
      "ĠáĪįáĭ©": 2990,
      "moja": 2991,
      "ĠAla": 2992,
      "ĠjÃ¡": 2993,
      "Ġprodu": 2994,
      "ĠáĬłáįį": 2995,
      "ĠáĪĿáĭµáĪŃ": 2996,
      "Sa": 2997,
      "ango": 2998,
      "áīłáĪĭ": 2999,
      "áĭ°áĭį": 3000,
      "osti": 3001,
      "ĠáĪĺáĪ°": 3002,
      "®áī½": 3003,
      "Ġgida": 3004,
      "Ġhivyo": 3005,
      "Ġwasa": 3006,
      "ĠMusul": 3007,
      "Ġsamun": 3008,
      "Ġpoli": 3009,
      "áįĪáĪ¨áĬķ": 3010,
      "Ġodun": 3011,
      "Ġbak": 3012,
      "Ġfilamu": 3013,
      "hir": 3014,
      "atoliki": 3015,
      "atta": 3016,
      "asu": 3017,
      "Ġtake": 3018,
      "igi": 3019,
      "Ġcar": 3020,
      "pen": 3021,
      "aniya": 3022,
      "Ġkad": 3023,
      "kali": 3024,
      "illiam": 3025,
      "Bayan": 3026,
      "ative": 3027,
      "áī¶áĪµ": 3028,
      "áī³áĭŃ": 3029,
      "ĠáĭķáĪĪáīµ": 3030,
      "áĬ¨áĭļáĪħ": 3031,
      "ĠÃ©g": 3032,
      "dia": 3033,
      "ĠLo": 3034,
      "amp": 3035,
      "áĬ¥áĪµ": 3036,
      "Ġsous": 3037,
      "áī²áĬ«": 3038,
      "gne": 3039,
      "áįįáīµ": 3040,
      "Ġwalio": 3041,
      "ĠbÃŃi": 3042,
      "ante": 3043,
      "ĠáĭĻ": 3044,
      "Ġáĭľ": 3045,
      "áī£áĪĪ": 3046,
      "amin": 3047,
      "áĭİáĪµ": 3048,
      "á¹£á»į": 3049,
      "Ġyayin": 3050,
      "áįĭáīµ": 3051,
      "endelea": 3052,
      "ft": 3053,
      "áĪµáĪĪ": 3054,
      "ĠComm": 3055,
      "Wak": 3056,
      "gbÃ²": 3057,
      "áĮ¨áĪĽáĪª": 3058,
      "áįĪáĭį": 3059,
      "ĠAmeric": 3060,
      "Wa": 3061,
      "atik": 3062,
      "24": 3063,
      "iji": 3064,
      "ĠÃ©tÃ©": 3065,
      "ble": 3066,
      "Ġwajen": 3067,
      "paka": 3068,
      "ĠÃ¬tá»į": 3069,
      "áĮ¢": 3070,
      "Ġwan": 3071,
      "Ġnombre": 3072,
      "ĠáĬłáĭµáĪŃ": 3073,
      "ĠSha": 3074,
      "anzi": 3075,
      "dÃŃn": 3076,
      "ĠLi": 3077,
      "ĠSan": 3078,
      "Ġye": 3079,
      "ĠáĪĽáĭķ": 3080,
      "Ġ2003": 3081,
      "ĠmÃº": 3082,
      "Ġgro": 3083,
      "ivers": 3084,
      "áĪĽáīµ": 3085,
      "nÃł": 3086,
      "194": 3087,
      "eth": 3088,
      "ĠkÃº": 3089,
      "ĠáīłáĪŃ": 3090,
      "áĪĭáīħ": 3091,
      "ĠÃ¬já»įba": 3092,
      "Ã©c": 3093,
      "Ġyao": 3094,
      "Ġuh": 3095,
      "ĠpÃ¨": 3096,
      "Ġáĭ«áĪµ": 3097,
      "Ġuna": 3098,
      "Ġ27": 3099,
      "áĬ¨áĪĪ": 3100,
      "ulu": 3101,
      "ĠÃ¨tÃ²": 3102,
      "ĠÃĵ": 3103,
      "Ġwere": 3104,
      "ĠKo": 3105,
      "husu": 3106,
      "Ġilu": 3107,
      "áĪ¹": 3108,
      "Ġgar": 3109,
      "arabu": 3110,
      "ĠBel": 3111,
      "áĭ²áĭ«": 3112,
      "Ġkili": 3113,
      "edia": 3114,
      "sáº¹": 3115,
      "Ġfait": 3116,
      "erta": 3117,
      "áĪªáĭİáī½": 3118,
      "ģáĬķ": 3119,
      "áĪĭáĭĬ": 3120,
      "vid": 3121,
      "ople": 3122,
      "áī«": 3123,
      "Ġáī¥áĪİ": 3124,
      "weza": 3125,
      "ĠáīĥáĪį": 3126,
      "Ġhas": 3127,
      "Ġ28": 3128,
      "ĠYork": 3129,
      "ĠáĬłáĪµáī°áĭ³": 3130,
      "áĪĭáĬŃ": 3131,
      "ature": 3132,
      "dadi": 3133,
      "áīłáĪį": 3134,
      "wn": 3135,
      "Ġprin": 3136,
      "áĬ¢áīµáĭ®áĮµáĭ«": 3137,
      "áīłáĭļáĪħ": 3138,
      "áĪ½áĬķ": 3139,
      "Ġpop": 3140,
      "áĪĬáĭ«": 3141,
      "ĠáīµáĪĿáĪħáĪŃáīµ": 3142,
      "ananan": 3143,
      "áī¨": 3144,
      "ĠAk": 3145,
      "Ġjam": 3146,
      "Ġáī£áĪħ": 3147,
      "icha": 3148,
      "Ġuk": 3149,
      "ĠUfaransa": 3150,
      "Ġbayyana": 3151,
      "san": 3152,
      "any": 3153,
      "áīĢáĪĺ": 3154,
      "ĠayÃ©": 3155,
      "lie": 3156,
      "Ġáį²áį": 3157,
      "ĠgÃ©n": 3158,
      "ilu": 3159,
      "ĠáĬ¨áĬĲ": 3160,
      "ĠAug": 3161,
      "áĭ®áī½": 3162,
      "ukuma": 3163,
      "áĪ«áĬķ": 3164,
      "Ġáī°áĪ«": 3165,
      "ĠáĬłáĪ«": 3166,
      "Ġmanyan": 3167,
      "Yan": 3168,
      "wÃł": 3169,
      "Ġ22": 3170,
      "áįĮ": 3171,
      "imu": 3172,
      "Ġáĭ¨áī³": 3173,
      "Ġ2000": 3174,
      "lla": 3175,
      "ĠFrance": 3176,
      "Ġyenye": 3177,
      "áīĢáĪŃ": 3178,
      "ashara": 3179,
      "orin": 3180,
      "Ġ100": 3181,
      "195": 3182,
      "ĠáĬ¨áĭļáĪħ": 3183,
      "Ġcette": 3184,
      "áī³áĭį": 3185,
      "ĠJos": 3186,
      "áĭŃáĭĪáīµ": 3187,
      "Ã¨res": 3188,
      "Ġ0": 3189,
      "ĠJanuari": 3190,
      "áĭŃáīµ": 3191,
      "ĠáĪĿáĬŃáĬķáĭ«áīµ": 3192,
      "falme": 3193,
      "Ġambayo": 3194,
      "Ġwadanda": 3195,
      "Ġáĭ®áĪĲáĬķáĪµ": 3196,
      "ĠáĪĦ": 3197,
      "áĪ³áĪį": 3198,
      "Ġgina": 3199,
      "Ġpri": 3200,
      "Ġmod": 3201,
      "Ġyadda": 3202,
      "antu": 3203,
      "wahili": 3204,
      "60": 3205,
      "Ġinter": 3206,
      "Ġvita": 3207,
      "shen": 3208,
      "Ġaká»į": 3209,
      "Ġáº¹láº¹": 3210,
      "ĠÉĹaya": 3211,
      "Ġ2002": 3212,
      "ĠdÃ©c": 3213,
      "ĠáĬ¨áĬłáĪ": 3214,
      "28": 3215,
      "ĠAgosti": 3216,
      "He": 3217,
      "lamu": 3218,
      "ĠáĭŃáĮĪáĬĽáĪį": 3219,
      "Ġuti": 3220,
      "mÃ¬n": 3221,
      "áĭ°áĪĿ": 3222,
      "áīłáĪ«": 3223,
      "ulai": 3224,
      "áĮĬáĭľ": 3225,
      "ĠKe": 3226,
      "ĠYa": 3227,
      "Ġdama": 3228,
      "ĠáīłáĭĪ": 3229,
      "ĠáīłáĮ£áĪĿ": 3230,
      "ĠáĭŃáī³áĭĪ": 3231,
      "ĠáĬłáĪĽ": 3232,
      "Ġserikali": 3233,
      "Ġáī¥áĪŃ": 3234,
      "ĠEng": 3235,
      "ĠShe": 3236,
      "fuat": 3237,
      "ous": 3238,
      "ĠBan": 3239,
      "ukar": 3240,
      "Ha": 3241,
      "ĠGre": 3242,
      "páº¹": 3243,
      "oman": 3244,
      "Ġkaskazini": 3245,
      "ondon": 3246,
      "ĠkÃ©k": 3247,
      "Am": 3248,
      "uc": 3249,
      "áīłáī°": 3250,
      "Ġmaji": 3251,
      "ÙĬ": 3252,
      "áĬĸáĪµ": 3253,
      "áĪ³áĭĬ": 3254,
      "ĠBah": 3255,
      "ĠÃ¬pÃŃnláº¹": 3256,
      "ĠáĬ£": 3257,
      "Ġpers": 3258,
      "áĪ«áĪ±": 3259,
      "27": 3260,
      "sÃłn": 3261,
      "esi": 3262,
      "Ġtas": 3263,
      "Ġsar": 3264,
      "ĠCar": 3265,
      "Ġakwai": 3266,
      "ĠJulai": 3267,
      "lege": 3268,
      "Ġkira": 3269,
      "ĠáĪ¥áĪ«": 3270,
      "áĮĪáĪ©": 3271,
      "ĠKáº¹": 3272,
      "bur": 3273,
      "Ġont": 3274,
      "ĠDan": 3275,
      "áĪ³áī¥": 3276,
      "iga": 3277,
      "ĠChar": 3278,
      "Ġáį¡áį¡": 3279,
      "ĠkÃ©kerÃ©": 3280,
      "áĬķáī²": 3281,
      "Ġmak": 3282,
      "ound": 3283,
      "ĠWat": 3284,
      "áĭĪáĭ°": 3285,
      "Ġzin": 3286,
      "ĠKad": 3287,
      "áĮĭáĪį": 3288,
      "ind": 3289,
      "Ġdang": 3290,
      "Ġmaeneo": 3291,
      "yy": 3292,
      "ĠUnited": 3293,
      "dÃº": 3294,
      "urope": 3295,
      "29": 3296,
      "tun": 3297,
      "Ġtab": 3298,
      "ĠÃ¬wÃ©": 3299,
      "Ġ1960": 3300,
      "ps": 3301,
      "gbÃ¨gbÃ¨": 3302,
      "áĭĲ": 3303,
      "izikia": 3304,
      "áĪ«áĪī": 3305,
      "Ġdai": 3306,
      "Ġpad": 3307,
      "Un": 3308,
      "Ġdara": 3309,
      "ĠáĬłáīĢ": 3310,
      "áī¥áīµ": 3311,
      "Ġgudanar": 3312,
      "ĠáĪ±": 3313,
      "Ġsp": 3314,
      "Ġgidan": 3315,
      "gbegbe": 3316,
      "rÃ³": 3317,
      "ĠáĬłáĪľáĪªáĬ«": 3318,
      "ĠáĬłáīµ": 3319,
      "áĮĪáĬĺáĭį": 3320,
      "Ġáĭ¨áĪħ": 3321,
      "Ġ29": 3322,
      "Ġáĭ°áĪ¨áĮĥ": 3323,
      "ology": 3324,
      "ĠáĪĺáĮ½áĪĲáįį": 3325,
      "áĮ£áīµ": 3326,
      "ĠáĪª": 3327,
      "áĬĸáĪ©": 3328,
      "ĠáĭĪáĬķáĭµ": 3329,
      "ispania": 3330,
      "uf": 3331,
      "ĠáĪĺáĪłáĪ¨": 3332,
      "Ġ26": 3333,
      "Ġáĭ¶": 3334,
      "áĪįáĪµ": 3335,
      "Ġdont": 3336,
      "Ġid": 3337,
      "áĪįáĮ£áĬķ": 3338,
      "Ġalso": 3339,
      "Ġsiyasa": 3340,
      "Ġ2004": 3341,
      "gÃ©": 3342,
      "ĠáĪĪáĬł": 3343,
      "ĠKim": 3344,
      "ĠáĮ¥áīħáĪĿ": 3345,
      "Ġ*": 3346,
      "ĠAfrican": 3347,
      "Ġjag": 3348,
      "Ç¹": 3349,
      "ĠFizikia": 3350,
      "Daga": 3351,
      "Ġáī½": 3352,
      "ologie": 3353,
      "ĠWas": 3354,
      "26": 3355,
      "ĠAllah": 3356,
      "ĠáīĭáĬķáīĭáĭİáī½": 3357,
      "áīĥáĪµ": 3358,
      "ĠdÃ©part": 3359,
      "ĠAnd": 3360,
      "Ġáĭ¨áĬ¤": 3361,
      "fia": 3362,
      "amma": 3363,
      "Ġsanya": 3364,
      "Ġ1999": 3365,
      "ĠáĬłáĭ«": 3366,
      "alo": 3367,
      "ĠáĬ¥áĮįáĪŃ": 3368,
      "iyyar": 3369,
      "ĠJuni": 3370,
      "Ġmutum": 3371,
      "ĠMachi": 3372,
      "ĠTiba": 3373,
      "áĭĪáĪ°": 3374,
      "ĠáĪĽáĬķ": 3375,
      "ac": 3376,
      "Ġ1990": 3377,
      "ient": 3378,
      "ique": 3379,
      "áĬĻ": 3380,
      "Ã³Ã²": 3381,
      "áĪĬáĬŃ": 3382,
      "wood": 3383,
      "ĠáĪ¥áĬĲ": 3384,
      "áįĲ": 3385,
      "Ġkit": 3386,
      "ms": 3387,
      "áĪĽáĬķ": 3388,
      "áĬĵáī¸áĭį": 3389,
      "âĢİ": 3390,
      "ĠáĪĿáĪµ": 3391,
      "als": 3392,
      "mala": 3393,
      "áĪ¨áĪĿ": 3394,
      "kÃº": 3395,
      "ĠGab": 3396,
      "Ġáī°áī¥áĪİ": 3397,
      "ĠÃ©t": 3398,
      "Ġfáº¹": 3399,
      "ĠAh": 3400,
      "ĠAnn": 3401,
      "áĪŃáĪµáī¶áĪµ": 3402,
      "Ġáīłáī³": 3403,
      "oso": 3404,
      "áĬ¨áīµ": 3405,
      "ip": 3406,
      "Ġgabatar": 3407,
      "Ġmahaif": 3408,
      "áĪĿáĬĲáīµ": 3409,
      "uss": 3410,
      "ĠáĭĪáĬķáĭĿ": 3411,
      "ĠUg": 3412,
      "Ġlake": 3413,
      "stáº¹": 3414,
      "ĠTara": 3415,
      "Ġpays": 3416,
      "rili": 3417,
      "ÙĨ": 3418,
      "ĠAc": 3419,
      "Ġmfalme": 3420,
      "BC": 3421,
      "Ã¬dÃ¬": 3422,
      "esa": 3423,
      "Ġact": 3424,
      "asihi": 3425,
      "nÃŃ": 3426,
      "bá»į": 3427,
      "ĠCha": 3428,
      "ĠkÃ³pa": 3429,
      "ĠáĭĿáĪŃáĭĿ": 3430,
      "Ġprop": 3431,
      "hil": 3432,
      "Ġsay": 3433,
      "ĠMuhammad": 3434,
      "aron": 3435,
      "áĪµáĬķ": 3436,
      "áĭĭáīĤ": 3437,
      "ĠáĮŃ": 3438,
      "igizaji": 3439,
      "ĠáĪįáĮĨáī½": 3440,
      "amman": 3441,
      "yon": 3442,
      "ĠGr": 3443,
      "ĠAbd": 3444,
      "áĬĵáĬķ": 3445,
      "liwa": 3446,
      "ĠáĬłáįĪ": 3447,
      "Ġbut": 3448,
      "Ġtangu": 3449,
      "sid": 3450,
      "ĠáĮįáī¥": 3451,
      "ĠÃģ": 3452,
      "ĠMtakatifu": 3453,
      "ws": 3454,
      "Ġmita": 3455,
      "áīŃ": 3456,
      "ĠÃ©ta": 3457,
      "ler": 3458,
      "ctions": 3459,
      "kama": 3460,
      "onde": 3461,
      "áĭĬáīµ": 3462,
      "áĪĺáĭį": 3463,
      "tÃ³": 3464,
      "ĠMei": 3465,
      "pend": 3466,
      "áĭĭáĬķ": 3467,
      "áĪĪáī²áĬ«": 3468,
      "Ġmutu": 3469,
      "Ġwo": 3470,
      "áĪĭáĭį": 3471,
      "Ġkammala": 3472,
      "ĠMashariki": 3473,
      "Ġut": 3474,
      "Ġáī¥áĪĶ": 3475,
      "ĠWorld": 3476,
      "Ġirin": 3477,
      "ral": 3478,
      "ĠlÃ¡ra": 3479,
      "ĠÃ¡stáº¹": 3480,
      "kÃ¡": 3481,
      "aru": 3482,
      "40": 3483,
      "91": 3484,
      "Ġáĭ¨áĬ¢": 3485,
      "áįĪáĪį": 3486,
      "Ġpeke": 3487,
      "SB": 3488,
      "mer": 3489,
      "áĮłáīħ": 3490,
      "áĪŁ": 3491,
      "chn": 3492,
      "Ġndani": 3493,
      "soci": 3494,
      "ĠáĪ®": 3495,
      "ĠLondon": 3496,
      "ros": 3497,
      "áĭĪáĪĪ": 3498,
      "ĠáĮ¥áĬĵáīµ": 3499,
      "ĠDesemba": 3500,
      "ĠPet": 3501,
      "Ġkilom": 3502,
      "ĠpÃł": 3503,
      "Ġyayi": 3504,
      "áĭĪáī½": 3505,
      "uwanci": 3506,
      "ĠáĮ¥áĬķ": 3507,
      "ĠrÃ©gion": 3508,
      "prÃ¨s": 3509,
      "rÃ¡": 3510,
      "Ġsyst": 3511,
      "Ġkaribu": 3512,
      "tes": 3513,
      "ĠHo": 3514,
      "Ġver": 3515,
      "ĠEl": 3516,
      "bÃ¹n": 3517,
      "ĠáĪĺáĬķáĮĪáĭµ": 3518,
      "upe": 3519,
      "ĠáĪĺáĪŃ": 3520,
      "ĠDo": 3521,
      "pÃ¡": 3522,
      "Ġtemp": 3523,
      "...": 3524,
      "Ġwaje": 3525,
      "ĠKir": 3526,
      "Ġkuanzia": 3527,
      "Ġrubu": 3528,
      "Ġcons": 3529,
      "ĠáĪīáīĥáĪµ": 3530,
      "Ġjirgin": 3531,
      "med": 3532,
      "ĠBrit": 3533,
      "ĠEd": 3534,
      "80": 3535,
      "esha": 3536,
      "70": 3537,
      "áĪµáįĭ": 3538,
      "ĠáĪĪáĪĿ": 3539,
      "Ġpeut": 3540,
      "Ġsak": 3541,
      "Ġacc": 3542,
      "Ġbas": 3543,
      "ombe": 3544,
      "ĠLegas": 3545,
      "Ġbirni": 3546,
      "Ġhukumar": 3547,
      "ĠAprili": 3548,
      "Ġyamma": 3549,
      "adar": 3550,
      "áĬĶáī³": 3551,
      "lima": 3552,
      "ĠKaduna": 3553,
      "Wá»į": 3554,
      "Ġhann": 3555,
      "atic": 3556,
      "áĭĺáĮĭ": 3557,
      "Ġáī°áĪ°": 3558,
      "Ġgirma": 3559,
      "Ġmeng": 3560,
      "áĭ«áĪį": 3561,
      "áĮłáĭį": 3562,
      "ikuu": 3563,
      "Ġáĭ¨áĬłáĪľáĪªáĬ«": 3564,
      "ĠOs": 3565,
      "Ġdaban": 3566,
      "illa": 3567,
      "Ġchake": 3568,
      "áĭķáĪ«áī¥": 3569,
      "ife": 3570,
      "ĠdÃ©partement": 3571,
      "ĠInternational": 3572,
      "Ġlar": 3573,
      "Ġhuko": 3574,
      "ĠPart": 3575,
      "ĠWilliam": 3576,
      "Ġdir": 3577,
      "Ġáĭ¨áĪķ": 3578,
      "áĪ¾": 3579,
      "ĠState": 3580,
      "Ġáīłáĭ¨": 3581,
      "Ġkwaikwa": 3582,
      "áįİáī½": 3583,
      "Ġsake": 3584,
      "Ġfirst": 3585,
      "ach": 3586,
      "Ġcor": 3587,
      "áĪ®áĪµ": 3588,
      "ĠÃĪkÃ³": 3589,
      "Ġáīłáĭĵ": 3590,
      "Ġkula": 3591,
      "Ġaliye": 3592,
      "ĠSeptemba": 3593,
      "ĠáīħáĪŃ": 3594,
      "uage": 3595,
      "ĠwaÉĹ": 3596,
      "Ġsuke": 3597,
      "ffi": 3598,
      "Ġdur": 3599,
      "umb": 3600,
      "ĠáĬ¥áĬķáĮĤ": 3601,
      "ange": 3602,
      "ĠIndi": 3603,
      "nu": 3604,
      "ĠMan": 3605,
      "she": 3606,
      "Ġtabi": 3607,
      "Ġipa": 3608,
      "hali": 3609,
      "áĪİáīµ": 3610,
      "ally": 3611,
      "ĠáĮīáĭ³": 3612,
      "wara": 3613,
      "ĠBu": 3614,
      "ĠWest": 3615,
      "Ġmad": 3616,
      "Ġkudu": 3617,
      "Ġáĭ¨áĪļáĪĪáĭį": 3618,
      "ographi": 3619,
      "ĠNational": 3620,
      "ĠáĬ¨áĬ¥": 3621,
      "atsina": 3622,
      "Ġits": 3623,
      "áī°áĬķ": 3624,
      "ĠmÃªme": 3625,
      "Ġfina": 3626,
      "enta": 3627,
      "Ġmis": 3628,
      "ĠáĭŃáīĢ": 3629,
      "ĠáĬķáĮį": 3630,
      "ĠáĬŃáĪį": 3631,
      "Ġáĭ¨áīµ": 3632,
      "sai": 3633,
      "ĠáĭĪáĭŃ": 3634,
      "Ġsau": 3635,
      "ĠWan": 3636,
      "Ġleur": 3637,
      "kiya": 3638,
      "jar": 3639,
      "Ġmwigizaji": 3640,
      "As": 3641,
      "ĠáįķáĪ¬": 3642,
      "ĠáĬ¥áĬķáĭ²áĪħ": 3643,
      "Ġuhuru": 3644,
      "Ġno": 3645,
      "193": 3646,
      "Ã¡náº¹": 3647,
      "utu": 3648,
      "Ġsc": 3649,
      "ĠáĮĮ": 3650,
      "ogun": 3651,
      "ĠáĪĺáĮ¨áĪ¨áĪ»": 3652,
      "Ġáī³áĪªáĬ«áĭĬ": 3653,
      "asara": 3654,
      "ĠáīµáĬķ": 3655,
      "ĠáĪģáĪĪ": 3656,
      "ĠParis": 3657,
      "ĠáĪķáĭĿáī¥": 3658,
      "Ġkutokana": 3659,
      "ifa": 3660,
      "met": 3661,
      "Walio": 3662,
      "Ġfannin": 3663,
      "áī¥áĪ¨áīµ": 3664,
      "áĬĲáī±": 3665,
      "áīłáĪ©áīµ": 3666,
      "iru": 3667,
      "ĠTr": 3668,
      "ĠSaint": 3669,
      ".,": 3670,
      "Ġshug": 3671,
      "zu": 3672,
      "ĠáīłáĬĲ": 3673,
      "Ġos": 3674,
      "ĠFebruari": 3675,
      "áĬŃáĪī": 3676,
      "iter": 3677,
      "thiop": 3678,
      "ĠjÃ¹lá»į": 3679,
      "Ġag": 3680,
      "áĪ¨áĪ°": 3681,
      "ĠFil": 3682,
      "ĠCollege": 3683,
      "ĠÃ¬dÃŃ": 3684,
      "joibi": 3685,
      "áĪŃáī²": 3686,
      "Ġ1980": 3687,
      "ĠgbÃł": 3688,
      "90": 3689,
      "ĠAugust": 3690,
      "ouver": 3691,
      "ĠáĭĿáĪŃáĭĿáĪŃ": 3692,
      "ifu": 3693,
      ")áį£": 3694,
      "assi": 3695,
      "Ġmutanen": 3696,
      "cess": 3697,
      "ĠNovemba": 3698,
      "arai": 3699,
      "Ã¯": 3700,
      "Ġmab": 3701,
      "Ġbiyar": 3702,
      "ete": 3703,
      "áĭįáĪ®áįĵ": 3704,
      "ĠIpinle": 3705,
      "ĠRais": 3706,
      "lÃŃ": 3707,
      "madu": 3708,
      "áĪĺáĭµ": 3709,
      "áĬ¨áī°áĪĽ": 3710,
      "lig": 3711,
      "ĠBabban": 3712,
      "alle": 3713,
      "áī°áĭĭáĪį": 3714,
      "Ġainsi": 3715,
      "áĪħáĬķ": 3716,
      "ĠÃª": 3717,
      "unin": 3718,
      "ĠáīłáĬ©": 3719,
      "Ġpuis": 3720,
      "ulation": 3721,
      "SBN": 3722,
      "¶áį": 3723,
      "78": 3724,
      "áĪĺáĪį": 3725,
      "Ġlong": 3726,
      "Ġáįĭ": 3727,
      "ĠÃ¬gbÃłjÃ¡": 3728,
      "dÃł": 3729,
      "Ġder": 3730,
      "ĠPort": 3731,
      "ĠÃ¬má»į": 3732,
      "Ġarewa": 3733,
      "ĠáĮĬ": 3734,
      "www": 3735,
      "ĠcrÃ©": 3736,
      "ĠplÃ¡náº¹": 3737,
      "cÃ©": 3738,
      "Ġáī»": 3739,
      "áīłáĬł": 3740,
      "ĠOrodha": 3741,
      "Ġkaramar": 3742,
      "Ġban": 3743,
      "ubli": 3744,
      "ced": 3745,
      "áĪ«áĪ²": 3746,
      "Ġcommun": 3747,
      "ĠáĬłáĪĺáīµ": 3748,
      "rop": 3749,
      "áī¤áī°": 3750,
      "asiasa": 3751,
      "rÃ¬n": 3752,
      "Ġáĭ¨áĬ¥áĪµ": 3753,
      "áī»áī¸áĭį": 3754,
      "ĠáĭŃáī½áĪĭáĪį": 3755,
      "udi": 3756,
      "Ġel": 3757,
      "Ġmawa": 3758,
      "ĠáĮįáĭµáĪĿ": 3759,
      "ury": 3760,
      "fÃł": 3761,
      "áĬĲáĪ³": 3762,
      "ĠáĪģáĬĶáī³": 3763,
      "ĠChina": 3764,
      "áĭ«áĭĬ": 3765,
      "Ġutilis": 3766,
      "Ġáī±": 3767,
      "ĠÐ": 3768,
      "ĠMis": 3769,
      "Ġwilaya": 3770,
      "ĠDis": 3771,
      "áĪģáĬķ": 3772,
      "Ġnaa": 3773,
      "ours": 3774,
      "ĠKemia": 3775,
      "gÃ¹n": 3776,
      "Ġbai": 3777,
      "col": 3778,
      "fs": 3779,
      "ĠáįĪáĪŃ": 3780,
      "ĠáĪĺáĪįáĬŃ": 3781,
      "áĪ¶áī½": 3782,
      "áĪĪáĪĽ": 3783,
      "áĭ¨áĪĿ": 3784,
      "Ita": 3785,
      "áĮĦ": 3786,
      "áĭļáīĥ": 3787,
      "ages": 3788,
      "tions": 3789,
      "vir": 3790,
      "Ġruwa": 3791,
      "Ġgrand": 3792,
      "ĠáĬĲáĮ»": 3793,
      "hel": 3794,
      "Ġkilomita": 3795,
      "ork": 3796,
      "overn": 3797,
      "ĠáĪļáĬĴ": 3798,
      "Ġaki": 3799,
      "Ġpekee": 3800,
      "ÃĴ": 3801,
      "áĮįáĬķ": 3802,
      "ĠSouth": 3803,
      "kawa": 3804,
      "wanda": 3805,
      "áī´áĭİáĪµ": 3806,
      "ĠShugaban": 3807,
      "áĭĪáĮ£": 3808,
      "lam": 3809,
      "orge": 3810,
      "ĠCity": 3811,
      "dic": 3812,
      "wana": 3813,
      "Ġsauran": 3814,
      "Ġmusul": 3815,
      "ĠáĭŃáĪĺáĪµ": 3816,
      "atur": 3817,
      "jeo": 3818,
      "Ku": 3819,
      "hidi": 3820,
      "Ġáī¢áĪĨáĬķ": 3821,
      "ĠdÃŃ": 3822,
      "ĠáĬŃáĪŃáĪµáī²áĭ«áĬķ": 3823,
      "Ġlin": 3824,
      "Ġlui": 3825,
      "ĠBab": 3826,
      "ling": 3827,
      "Ġkik": 3828,
      "ĠSar": 3829,
      "áĭĭáĬĵ": 3830,
      "ĠáĬĲáĮĪáĪ®áī½": 3831,
      "Ġrayuwa": 3832,
      "Ġrasmi": 3833,
      "ĠFor": 3834,
      "ĠCent": 3835,
      "ĠPer": 3836,
      "ĠáĭŃáĪħáĪĿ": 3837,
      "Ġduni": 3838,
      "Ġtena": 3839,
      "Ġwote": 3840,
      "kiyar": 3841,
      "ĠmÃ©jÃ¬": 3842,
      "ĠOb": 3843,
      "Ġáīłáĭį": 3844,
      "ĠMai": 3845,
      "Ġrais": 3846,
      "yÃ¡": 3847,
      "Ġdist": 3848,
      "ÙĪ": 3849,
      "ĠáĭĺáĪŃ": 3850,
      "áĬ¸": 3851,
      "Ġmaza": 3852,
      "Ġáįª": 3853,
      "Ġ1991": 3854,
      "áĭ¨áĬł": 3855,
      "orun": 3856,
      "risti": 3857,
      "áĪĽáĬĸáīµ": 3858,
      "ĠMad": 3859,
      "Äģ": 3860,
      "ĠLes": 3861,
      "ateur": 3862,
      "ĠÃªtre": 3863,
      "FA": 3864,
      "ĠáĭµáĪŃáĮħ": 3865,
      "ĠShi": 3866,
      "juli": 3867,
      "ĠPol": 3868,
      "ĠáĭŃáĪĨ": 3869,
      "cher": 3870,
      "ĠSec": 3871,
      "áĪĤ": 3872,
      "Ġvo": 3873,
      "áĮĪáĭ°": 3874,
      "Ġáĭ«áĪħáĪį": 3875,
      "áĪ«áī¸áĭį": 3876,
      "Ġhak": 3877,
      "Ġáĭ¨áĪĽáĭŃ": 3878,
      "Ġhave": 3879,
      "Ġret": 3880,
      "ĠBra": 3881,
      "zer": 3882,
      "ĠAde": 3883,
      "ĠáĬłáĪĪáĭį": 3884,
      "ken": 3885,
      "Ġca": 3886,
      "áĪīáĪĿ": 3887,
      "ondo": 3888,
      "Ġhukumomin": 3889,
      "áĪĽáĪį": 3890,
      "cto": 3891,
      "áįĶ": 3892,
      "tain": 3893,
      "áº¸": 3894,
      "ĠDar": 3895,
      "ĠorÃºká»į": 3896,
      "ĠkejÃ¬": 3897,
      "Ġ%": 3898,
      "indi": 3899,
      "ourn": 3900,
      "Ġzamani": 3901,
      "Ġasili": 3902,
      "aima": 3903,
      "kashin": 3904,
      "Ìģ,": 3905,
      "rÃł": 3906,
      "Ġsign": 3907,
      "ĠáĬ¥áĬĲ": 3908,
      "ater": 3909,
      "Ġiko": 3910,
      "Pa": 3911,
      "ĠÃ©galement": 3912,
      "ĠáĪ¦": 3913,
      "ĠSal": 3914,
      "red": 3915,
      "áĮĢáĪŃáĪĺáĬķ": 3916,
      "Ġkarni": 3917,
      "áĬ¥áĬķáĮįáĪĬáĭĿáĬĽ": 3918,
      "ĠÃĮtá»į": 3919,
      "ĠCor": 3920,
      "áįĪáĮ¥": 3921,
      "fauti": 3922,
      "áĮĪáĪį": 3923,
      "Ġeni": 3924,
      "ich": 3925,
      "ĠáīłáĪĻ": 3926,
      "ĠáĬ¡": 3927,
      "Ġyau": 3928,
      "amad": 3929,
      "Ġilimi": 3930,
      "attalin": 3931,
      "ĠáīłáĪ½": 3932,
      "asha": 3933,
      "Ġrel": 3934,
      "Ġ1970": 3935,
      "Ġsim": 3936,
      "lejin": 3937,
      "áĪĭáĪ´": 3938,
      "Ġtsarin": 3939,
      "tan": 3940,
      "ĠáĪĺáĮĢáĪĺáĪŃáĭ«": 3941,
      "rÃŃn": 3942,
      "Ġlashe": 3943,
      "ĠáĪĿáĬķáĪĿ": 3944,
      "wezi": 3945,
      "Ġpartie": 3946,
      "áĪ°áĬķ": 3947,
      "Ġmot": 3948,
      "ĠSp": 3949,
      "ĠIlÃ©": 3950,
      "ĠgbajÃº": 3951,
      "ĠáĭŃáĭĺ": 3952,
      "amuziki": 3953,
      "Ġmkubwa": 3954,
      "Ġdigiri": 3955,
      "ĠáĪĿáĬķáĮ®áī½": 3956,
      "Ġáĭ¨áī£": 3957,
      "aben": 3958,
      "ĠáĪĿáĪŃ": 3959,
      "Ġht": 3960,
      "Ġvile": 3961,
      "ements": 3962,
      "lor": 3963,
      "Ġinayo": 3964,
      "áī£áĪĪáĭį": 3965,
      "On": 3966,
      "ĠParty": 3967,
      "áĪ·": 3968,
      "umma": 3969,
      "pele": 3970,
      "Ġnon": 3971,
      "Ġge": 3972,
      "ĠKik": 3973,
      "áĭ¨áĪ±": 3974,
      "Ġáĭĭáī¢": 3975,
      "áĬ¥áĬķáĭ°": 3976,
      "ĠYar": 3977,
      "ulture": 3978,
      "ĠáĪł": 3979,
      "Ġhttp": 3980,
      "ĠTo": 3981,
      "Ġáĭ¨áĬ«": 3982,
      "Ġhai": 3983,
      "arch": 3984,
      "Ġtal": 3985,
      "ĠáĪĽáĪŃáīĨ": 3986,
      "Ġaji": 3987,
      "ĠTazama": 3988,
      "áīłáĪĪ": 3989,
      "Ġalors": 3990,
      "ĠBer": 3991,
      "ĠOgun": 3992,
      "ĠáĭŃáĪ°": 3993,
      "ĠáĭŃáĪħáĬķ": 3994,
      "eman": 3995,
      "Ġkuli": 3996,
      "áĬŃáĪŃ": 3997,
      "Ġáĭ¨áī°áĪ°": 3998,
      "uro": 3999,
      "Ġsub": 4000,
      "·áį": 4001,
      "Ġ2001": 4002,
      "¹¢": 4003,
      "Ġall": 4004,
      "ĠAsia": 4005,
      "ets": 4006,
      "ĠRob": 4007,
      "ĠâĢ¢": 4008,
      "áĬķáĭ±": 4009,
      "yika": 4010,
      "jan": 4011,
      "ĠnÃŃbi": 4012,
      "lÃ³gÃºn": 4013,
      "ĠjÃ¡de": 4014,
      "áĪĺáĪ°": 4015,
      "áīłáĪĺ": 4016,
      "ĠáĪĺáĪĨáĬĳ": 4017,
      "ĠOá¹£Ã¹": 4018,
      "Ġkamfanin": 4019,
      "Ġwakil": 4020,
      "ĠáĪ¥áĪŃáĭĪ": 4021,
      "Ġcap": 4022,
      "1892": 4023,
      "ĠáĮ½áĪĳ": 4024,
      "ĠÆĺ": 4025,
      "ĠáĪłáĪ«": 4026,
      "táº¹": 4027,
      "ĠáĮłáĪ": 4028,
      "ĠDi": 4029,
      "lá»įpá»į": 4030,
      "ĠwÃŃpÃ©": 4031,
      "ĠgÃ©nÃ©r": 4032,
      "ukuu": 4033,
      "Ġmusamman": 4034,
      "Ġkwaikwayo": 4035,
      "lement": 4036,
      "ĠáĪµáĪĻ": 4037,
      "káº¹": 4038,
      "áĬķáĭ°": 4039,
      "Ġcerta": 4040,
      "toire": 4041,
      "ĠAwards": 4042,
      "ĠBahari": 4043,
      "con": 4044,
      "haa": 4045,
      "áĪĭáĪĪ": 4046,
      "Ġtout": 4047,
      "ĠCl": 4048,
      "itt": 4049,
      "Ġjus": 4050,
      "ĠTs": 4051,
      "ĠáĬħ": 4052,
      "áĭ³áĪŃ": 4053,
      "ĠáĪĺáĪª": 4054,
      "ĠáĬłáĪ³": 4055,
      "itin": 4056,
      "Ġ1993": 4057,
      "áī¶áī½áĬķ": 4058,
      "ĠNigerian": 4059,
      "Ġher": 4060,
      "Ġáĭ°áĪ´": 4061,
      "ily": 4062,
      "ĠáĪĺáĭµ": 4063,
      "áĪĭáĪĽ": 4064,
      "Ġtaima": 4065,
      "Ġkila": 4066,
      "ĠMak": 4067,
      "ĠáĪĿáĪįáĬŃ": 4068,
      "ĠáĪĤ": 4069,
      "angi": 4070,
      "Ġáĭ¨áĪ¥": 4071,
      "ĠDec": 4072,
      "áįĪáĪ¨áĬķáĪ³áĭŃ": 4073,
      "ĠYamma": 4074,
      "ĠMajalisar": 4075,
      "Ġbila": 4076,
      "ander": 4077,
      "ungi": 4078,
      "Ġprof": 4079,
      "ches": 4080,
      "bert": 4081,
      "áĭļáĪģ": 4082,
      "Tare": 4083,
      "ĠMto": 4084,
      "ĠáĬĴ": 4085,
      "áĪ¡": 4086,
      "yoyi": 4087,
      "Ġutawala": 4088,
      "istory": 4089,
      "Ġzaman": 4090,
      "mÃ©": 4091,
      "áĪĺáĮ£": 4092,
      "áī½áĭį": 4093,
      "ĠáĭĪáĮĪáĬķ": 4094,
      "áĭķáĪį": 4095,
      "Ø±": 4096,
      "Ġáį¤": 4097,
      "ĠáĬłáĪĪáīĥ": 4098,
      "áĪłáĪ«": 4099,
      "ĠáĮħ": 4100,
      "ĠáĬĸ": 4101,
      "ĠPri": 4102,
      "ones": 4103,
      "ĠAare": 4104,
      "190": 4105,
      "opo": 4106,
      "Ġmap": 4107,
      "Ġidadi": 4108,
      "sá»į": 4109,
      "ilia": 4110,
      "áĪ¯": 4111,
      "AN": 4112,
      "rent": 4113,
      "Ġlambar": 4114,
      "ĠKatsina": 4115,
      "ulani": 4116,
      "ĠEthiop": 4117,
      "ĠáĭķáĪĪ": 4118,
      "Ġayy": 4119,
      "ĠFaransa": 4120,
      "Ġjagor": 4121,
      "Ġduniani": 4122,
      "Ġrap": 4123,
      "ras": 4124,
      "áĪ³áī¸áĭį": 4125,
      "ÃĪ": 4126,
      "ista": 4127,
      "Ìģ.": 4128,
      "Ġáĭ¨áĭĺ": 4129,
      "Ġbab": 4130,
      "Ġhukuma": 4131,
      "ĠKiingereza": 4132,
      "ĠBro": 4133,
      "ĠSer": 4134,
      "ĠáĭĪáĪ¨áĭ³": 4135,
      "áįĪáīµ": 4136,
      "Ġkarkashin": 4137,
      "ĠáĪ´áīµ": 4138,
      "amment": 4139,
      "Ãłráº¹": 4140,
      "Ġ186": 4141,
      "45": 4142,
      "Ġ1998": 4143,
      "áĭĳ": 4144,
      "Ġlangu": 4145,
      "Ġ1994": 4146,
      "http": 4147,
      "julikana": 4148,
      "vin": 4149,
      "Ġdunia": 4150,
      "sin": 4151,
      "ĠáĬłáĪ¸": 4152,
      "gozi": 4153,
      "áĬ¹": 4154,
      "Ġsani": 4155,
      "keo": 4156,
      "áĬ«áĪį": 4157,
      "Ġkazi": 4158,
      "atikana": 4159,
      "ĠáĬłáĮ¥": 4160,
      "Ġbara": 4161,
      "Ġdep": 4162,
      "ffun": 4163,
      "bÃ²": 4164,
      "urn": 4165,
      "ancin": 4166,
      "ĠKati": 4167,
      "áĮĪáīł": 4168,
      "Ġsunan": 4169,
      "ĠáĭŃáĪĨáĬĵáĪį": 4170,
      "Ġbec": 4171,
      "Ġjari": 4172,
      "endo": 4173,
      "Ġlim": 4174,
      "áĮįáī¥áĮ½": 4175,
      "ĠoÃ¹": 4176,
      "ĠáĬ¥áĭį": 4177,
      "badan": 4178,
      "ĠáīłáĪĮ": 4179,
      "ÉĹa": 4180,
      "ĠáĪº": 4181,
      "ĠSte": 4182,
      "Ġáī³áĭĭáīĤ": 4183,
      "áĮ¦áĪŃ": 4184,
      "áĬ®áī½": 4185,
      "ĠAmerican": 4186,
      "Ġlori": 4187,
      "adin": 4188,
      "áĪıáĪį": 4189,
      "fÃŃ": 4190,
      "áĪ©áīµ": 4191,
      "Ġbang": 4192,
      "Ġáīłáī°áĪĪáĭŃ": 4193,
      "sÃ¡": 4194,
      "way": 4195,
      "áĮĪáī¥": 4196,
      "áĮ¥áĪ¨": 4197,
      "ĠIli": 4198,
      "Ġkifo": 4199,
      "ĠBal": 4200,
      "Ġleo": 4201,
      "lÃ²": 4202,
      "uv": 4203,
      "diyo": 4204,
      "áĭ²áĪħ": 4205,
      "ĠáĬłáĭŃáĭ°": 4206,
      "yyun": 4207,
      "ĠEurope": 4208,
      "áĪ±áĪĿ": 4209,
      "ĠáĬŃáįįáĪĭ": 4210,
      "Ġli": 4211,
      "ĠáĬłáĭ°": 4212,
      "á¹£o": 4213,
      "gh": 4214,
      "Ġasalin": 4215,
      "ĠagbÃ¨gbÃ¨": 4216,
      "ĠPr": 4217,
      "adhi": 4218,
      "á¹£Ã¨lÃº": 4219,
      "anna": 4220,
      "ide": 4221,
      "Ġmam": 4222,
      "áĭ³áĪĿ": 4223,
      "áĪ¨áī¥": 4224,
      "ĠFasihi": 4225,
      "Ġ1996": 4226,
      "Ġdali": 4227,
      "áĪĿáĪħáĪŃ": 4228,
      "hed": 4229,
      "ĠáīĢáĮ¥": 4230,
      "áĬĲáĮĪ": 4231,
      "rid": 4232,
      "yuka": 4233,
      "aifaffun": 4234,
      "Ġces": 4235,
      "ĠdÃ©velop": 4236,
      "aria": 4237,
      "cer": 4238,
      "ĠáīłáĪģ": 4239,
      "Ġ1995": 4240,
      "anisha": 4241,
      "Ġdiv": 4242,
      "Ġmalla": 4243,
      "ĠáĬłáĮĪáĪįáĮį": 4244,
      "Ġchi": 4245,
      "áĪķáĪŃ": 4246,
      "Ġkayan": 4247,
      "Ġmace": 4248,
      "áĮłáĪ©": 4249,
      "ism": 4250,
      "áįĳ": 4251,
      "ĠmÃŃ": 4252,
      "ĠáīłáĮ¥": 4253,
      "Ġmn": 4254,
      "ĠÃŃ": 4255,
      "ando": 4256,
      "arci": 4257,
      "ĠEm": 4258,
      "ĠAsi": 4259,
      "Ġbisa": 4260,
      "ikukuu": 4261,
      "ĠSud": 4262,
      "Ġkwallon": 4263,
      "ilar": 4264,
      "cia": 4265,
      "áĪĺáī±": 4266,
      "áįĪáĪµ": 4267,
      "ĠRay": 4268,
      "Ġkawa": 4269,
      "ĠTari": 4270,
      "Ġnau": 4271,
      "Ġvari": 4272,
      "ĠáĭŃáī³áĭĪáīĥáĪį": 4273,
      "Ġáº¹ni": 4274,
      "áĭµáĪ¨áĮį": 4275,
      "ĠáĬ¥áĬķáĮįáĪĬáĭĿ": 4276,
      "ģáĬĳ": 4277,
      "ĠáĬĵáīµ": 4278,
      "Ġnyingine": 4279,
      "dÃ³": 4280,
      "ĠáĪ»": 4281,
      "ĠÃłmÃ¬": 4282,
      "El": 4283,
      "áĭ³áĪį": 4284,
      "Ġfe": 4285,
      "rÃº": 4286,
      "Ġako": 4287,
      "ĠKananan": 4288,
      "áĪŃáĭ«áĪĿ": 4289,
      "Ġtheir": 4290,
      "Ġprog": 4291,
      "cs": 4292,
      "Ġnada": 4293,
      "ĠHot": 4294,
      "ĠRep": 4295,
      "huwar": 4296,
      "Ġhuo": 4297,
      "Ġthis": 4298,
      "ayansi": 4299,
      "Ġambao": 4300,
      "Ġkara": 4301,
      "log": 4302,
      "olly": 4303,
      "Ki": 4304,
      "ayi": 4305,
      "Ġshirin": 4306,
      "Ġbiashara": 4307,
      "ings": 4308,
      "Ġeff": 4309,
      "aik": 4310,
      "anada": 4311,
      "ĠsÃ©": 4312,
      "chumi": 4313,
      "Ġtsohon": 4314,
      "ĠDola": 4315,
      "ĠáĪĺáĪłáĪ¨áīµ": 4316,
      "onge": 4317,
      "áįĵáĬķ": 4318,
      "cri": 4319,
      "ĠagbÃ¡": 4320,
      "Ġnjia": 4321,
      "Ġkuhusu": 4322,
      "huo": 4323,
      "eli": 4324,
      "áĮłáĬĵ": 4325,
      "uld": 4326,
      "ĠáĬ¥áĭ¨áī°": 4327,
      "score": 4328,
      "áĬĹ": 4329,
      "ĠáĪĽáī´áĭİáĪµ": 4330,
      "ĠEx": 4331,
      "ĠrÃ¨": 4332,
      "35": 4333,
      "Ġyabo": 4334,
      "ĠIII": 4335,
      "Ġvit": 4336,
      "ĠannÃ©es": 4337,
      "hara": 4338,
      "isme": 4339,
      "Ġyote": 4340,
      "ieurs": 4341,
      "unge": 4342,
      "ĠKudu": 4343,
      "áĬĥ": 4344,
      "Ġciki": 4345,
      "ĠáĬ¥áĬĲáĭļáĪħ": 4346,
      "ĠKanisa": 4347,
      "sÃ¹": 4348,
      "ĪáĪĿ": 4349,
      "hal": 4350,
      "áį²áį": 4351,
      "himu": 4352,
      "Ã¬mÃ¹": 4353,
      "áī£áĭĬ": 4354,
      "day": 4355,
      "pas": 4356,
      "´áį": 4357,
      "Ġáĭ´": 4358,
      "áĪ¨áĮĭ": 4359,
      "Ġ1997": 4360,
      "Ġpremier": 4361,
      "ner": 4362,
      "Ġvol": 4363,
      "ĠKiswahili": 4364,
      "Ġjerin": 4365,
      "Ġhata": 4366,
      "Ġpá»į": 4367,
      "ĠáĪµáīµ": 4368,
      "ĠáĭķáĪĪáī³áīµ": 4369,
      "omen": 4370,
      "Ġlokaci": 4371,
      "áĭ°áĮį": 4372,
      "ĠáīĢáĬĵáīµ": 4373,
      "phy": 4374,
      "ĠGer": 4375,
      "Ġvisiwa": 4376,
      "dini": 4377,
      "mani": 4378,
      "ĠnÃ©": 4379,
      "ĠRaya": 4380,
      "ode": 4381,
      "Ġed": 4382,
      "Ġáį³áį": 4383,
      "atique": 4384,
      "tokea": 4385,
      "âĢº": 4386,
      "ĠáĪĺáĭĿ": 4387,
      "ĠtrÃ¨s": 4388,
      "Ġáĭįáĭµ": 4389,
      "Ġone": 4390,
      "Ab": 4391,
      "but": 4392,
      "ĠáĪĺáĬĲ": 4393,
      "Ġsci": 4394,
      "asaha": 4395,
      "ĠØ§": 4396,
      "ĠáĬ¬": 4397,
      "hindi": 4398,
      "gra": 4399,
      "Ġelle": 4400,
      "Ġoffi": 4401,
      "Ġang": 4402,
      "Ġdari": 4403,
      "ĠÎ": 4404,
      "ĠHistoria": 4405,
      "ado": 4406,
      "Ġpwani": 4407,
      "Ġmajalisar": 4408,
      "Ġmulki": 4409,
      "ĠJanuary": 4410,
      "áĮĪáĭį": 4411,
      "ĠSi": 4412,
      "75": 4413,
      "ĠQu": 4414,
      "Ã²rÃ¹n": 4415,
      "ĠMungu": 4416,
      "Ġmasana": 4417,
      "Ġpres": 4418,
      "ĠÃłwon": 4419,
      "áĭ®áĪŃ": 4420,
      "unif": 4421,
      "olution": 4422,
      "ĠáĭŃáĪĭáĪį": 4423,
      "Ġ1992": 4424,
      "jiya": 4425,
      "ĠMusulunci": 4426,
      "ĠKya": 4427,
      "ĠÂ»,": 4428,
      "ĠáĮ¥áĬķáī³áĭĬ": 4429,
      "here": 4430,
      "ĠáĪŀáīµ": 4431,
      "AS": 4432,
      "ĠáĬłáĪģáĬķ": 4433,
      "áĭ¨áī°": 4434,
      "ĠáīłáĬłáĬķáĭµ": 4435,
      "av": 4436,
      "Ġ1976": 4437,
      "áĪŃáĪµáī²áĭ«": 4438,
      "Ġsoci": 4439,
      "ĠáįĵáĪŃáī²": 4440,
      "áĮĪáĪª": 4441,
      "Ġkawaida": 4442,
      "atri": 4443,
      "omon": 4444,
      "áĪĽáī½": 4445,
      "Ġáĭ¨áĪĻ": 4446,
      "/)": 4447,
      "Ġada": 4448,
      "Ġkaratu": 4449,
      "Ġpeu": 4450,
      "ĠMutane": 4451,
      "lob": 4452,
      "áĪĵ": 4453,
      "áĪ»áĭİáī½": 4454,
      "ĠáĭĵáĪĪáĪĿ": 4455,
      "ĠAbdul": 4456,
      "my": 4457,
      "áĭ®áĪµ": 4458,
      "Ġdini": 4459,
      "hes": 4460,
      "Ġpelu": 4461,
      "ĠDem": 4462,
      "ĠáĪĺáĬķáĮįáĪµáīµ": 4463,
      "ĠSy": 4464,
      "ĠIle": 4465,
      "Ġmbili": 4466,
      "áĪĽáĪŃ": 4467,
      "ĠyÃ³Ã²": 4468,
      "Åĵ": 4469,
      "ÙĲ": 4470,
      "Ġfilm": 4471,
      "fika": 4472,
      "Ġáīłáīµ": 4473,
      "Ġser": 4474,
      "áĪĪáī¥": 4475,
      "áĭĭáīµ": 4476,
      "ption": 4477,
      "Ġzote": 4478,
      "áįĦ": 4479,
      "Ġmasa": 4480,
      "ĠHer": 4481,
      "Ġother": 4482,
      "ĠHaifaffun": 4483,
      "Ġbahari": 4484,
      "De": 4485,
      "31": 4486,
      "dom": 4487,
      "ĠBib": 4488,
      "pata": 4489,
      "áĮįáī£": 4490,
      "lack": 4491,
      "Ġinc": 4492,
      "Ġinf": 4493,
      "ĠsÃŃláº¹": 4494,
      "áī³áī¸áĭįáĬķ": 4495,
      "áĭĪáĪŃ": 4496,
      "Ġfit": 4497,
      "ĠSin": 4498,
      "ente": 4499,
      "áįĪáĪĪ": 4500,
      "ĠÃ²á¹£": 4501,
      "ĠáĬłáĬ«áĪį": 4502,
      "áĮ¹": 4503,
      "ĠáĭŃáĪĺáĪµáĪĭáĪį": 4504,
      "Ch": 4505,
      "Ġyara": 4506,
      "Ġpartic": 4507,
      "áĮįáĪį": 4508,
      "Ġá¹£iá¹£áº¹": 4509,
      "ĠáĭĪáĪ¨": 4510,
      "guzi": 4511,
      "Ġasa": 4512,
      "arautar": 4513,
      "Ġilimin": 4514,
      "áĮłáīĢáĪĿ": 4515,
      "ĠKil": 4516,
      "ĠáĬłáĬķáĭ³": 4517,
      "vis": 4518,
      "let": 4519,
      "Ġmwanamuziki": 4520,
      "Ġshirya": 4521,
      "ĠwaÉĹanda": 4522,
      "usta": 4523,
      "Ġáĭ¨áĬĲáīłáĪ¨áĭį": 4524,
      "ĠIl": 4525,
      "Ä«": 4526,
      "Ġwe": 4527,
      "ĠáĬ¥áĬķáĪµ": 4528,
      "áĪ«áĭį": 4529,
      "ÆĻa": 4530,
      "Ġ50": 4531,
      "Ġmagharibi": 4532,
      "Ġáĭ°áī¡áī¥": 4533,
      "áĬĵáĪįáī£áīµ": 4534,
      "Ã¹gbá»į": 4535,
      "cid": 4536,
      "unga": 4537,
      "ĠáįĪáĪŃáĭĸ": 4538,
      "áĪįáĭ°": 4539,
      "asan": 4540,
      "bila": 4541,
      "Ġrubuta": 4542,
      "áĭ¨áĪ±áĪµ": 4543,
      "CO": 4544,
      "Ġwho": 4545,
      "áīº": 4546,
      "ford": 4547,
      "ĠDel": 4548,
      "ĠÃ¬gb": 4549,
      "imÃ¡": 4550,
      "uliwa": 4551,
      "oto": 4552,
      "Ġáī¥áĪĪáĭį": 4553,
      "áĪ©áĬķ": 4554,
      "ĠÃłgbÃ©": 4555,
      "âĢ¦": 4556,
      "áī»áĭŃáĬĵ": 4557,
      "áĪĮáĬŃáīµ": 4558,
      "ojoibi": 4559,
      "Ġmet": 4560,
      "ĠSun": 4561,
      "ĠáĬŃáĪįáĪį": 4562,
      "ĠáĭµáĪĿ": 4563,
      "áī¥áĭĻ": 4564,
      "ino": 4565,
      "ely": 4566,
      "Ġáĭ¨áĪļáĪį": 4567,
      "ĠAlex": 4568,
      "finai": 4569,
      "ĠJamhuri": 4570,
      "ĠMon": 4571,
      "ĠPl": 4572,
      "ky": 4573,
      "ĠNorth": 4574,
      "76": 4575,
      "Ġhaifi": 4576,
      "kunan": 4577,
      "Ġmagana": 4578,
      "ĠPi": 4579,
      "ĠKongo": 4580,
      "Ġ185": 4581,
      "áī¼": 4582,
      "áĬ©áĪį": 4583,
      "ĠáĬķáĮīáĪµ": 4584,
      "Ġemp": 4585,
      "yama": 4586,
      "hur": 4587,
      "wala": 4588,
      "ĠUganda": 4589,
      "run": 4590,
      "Ġtit": 4591,
      "áĬĲáīłáĪŃ": 4592,
      "issa": 4593,
      "ĠHukum": 4594,
      "tr": 4595,
      "atan": 4596,
      "Ġhudu": 4597,
      "Ġfarkon": 4598,
      "Ġprincip": 4599,
      "ĠRayayyun": 4600,
      "34": 4601,
      "ĠGa": 4602,
      "Ġáĭ¨áĪĿáīµ": 4603,
      "áĮłáīĥáĪĭáĭŃ": 4604,
      "Ġkis": 4605,
      "Ġhalarci": 4606,
      "ĠáĪĨáĬĲáĭį": 4607,
      "andi": 4608,
      "ĠEs": 4609,
      "Ġlors": 4610,
      "ĠdiffÃ©r": 4611,
      "Ð°": 4612,
      "ĠMart": 4613,
      "ĠgÃŃ": 4614,
      "Ġjim": 4615,
      "áĪ«áĪµ": 4616,
      "ĠKaskazini": 4617,
      "ĠPas": 4618,
      "ĠAgba": 4619,
      "Ġ|-": 4620,
      "frika": 4621,
      "Ġnu": 4622,
      "Ġmwenye": 4623,
      "Ġbaba": 4624,
      "pÃ¨": 4625,
      "hab": 4626,
      "Ġ1989": 4627,
      "áĪįáīµ": 4628,
      "elon": 4629,
      "ĠnÃŃnu": 4630,
      "tics": 4631,
      "idi": 4632,
      "ĠSeptember": 4633,
      "Ġfut": 4634,
      "áī³áĭ°": 4635,
      "uly": 4636,
      "endant": 4637,
      "Ġtafi": 4638,
      "umwa": 4639,
      "Ġharshen": 4640,
      "gent": 4641,
      "ĠÃ²un": 4642,
      "Ġimport": 4643,
      "áī¬": 4644,
      "Ġanci": 4645,
      "Ġgen": 4646,
      "Ġ1987": 4647,
      "ĠáĪ³áĭŃáĪĨáĬķ": 4648,
      "Ġogun": 4649,
      "Ġren": 4650,
      "ĠBenin": 4651,
      "ĠáĪĽáĪµáī³áĭĪ": 4652,
      "Ġáīłáīħ": 4653,
      "teur": 4654,
      "Ġ1967": 4655,
      "Ġgwamnatin": 4656,
      "áĮ³": 4657,
      "áĭ«áĭį": 4658,
      "ĠNchi": 4659,
      "dÃ¹": 4660,
      "wiki": 4661,
      "áī²áĬķ": 4662,
      "ĠDecember": 4663,
      "dhi": 4664,
      "ĠÃłkÃ³": 4665,
      "bakar": 4666,
      "ĠIbadan": 4667,
      "ĠáĪĽáĪħ": 4668,
      "Ùı": 4669,
      "ĠáĬĳ": 4670,
      "Ġcutar": 4671,
      "áĮłáįĭ": 4672,
      "Ġtarihi": 4673,
      "ĠáĭĲ": 4674,
      "ĠáĪĺáĮ»": 4675,
      "áĪĦáĭµ": 4676,
      "sance": 4677,
      "Ã¼": 4678,
      "ĠTan": 4679,
      "taniya": 4680,
      "sÃ¬n": 4681,
      "µáį": 4682,
      "inta": 4683,
      "ĠMkoa": 4684,
      "áĪĥáĬķ": 4685,
      "ĠKiarabu": 4686,
      "olojia": 4687,
      "ĠáĬłáī£áĪį": 4688,
      "gbon": 4689,
      "sh": 4690,
      "Tana": 4691,
      "gen": 4692,
      "Ġáĭ¨áĮĪ": 4693,
      "Ġkisiwa": 4694,
      "hem": 4695,
      "Ġsosai": 4696,
      "Ġ1975": 4697,
      "Ġatt": 4698,
      "ĠGeorge": 4699,
      "Ġáĭ¨áĭ°": 4700,
      "Ġfon": 4701,
      "ĠáĪĪáĭį": 4702,
      "Ġ31": 4703,
      "adem": 4704,
      "2005": 4705,
      "Ġkun": 4706,
      "áĭ¨áĭį": 4707,
      "Ġáĭ¨áī°áĪĪáĭ«áĭ©": 4708,
      "ĠáīłáĬ¥áĬķáĮįáĪĬáĭĿáĬĽ": 4709,
      "ĠAir": 4710,
      "rew": 4711,
      "ataifa": 4712,
      "Ġkasuwanci": 4713,
      "Ġshida": 4714,
      "ĠÂ».": 4715,
      "ĠáĪĢáĮĪáĪŃ": 4716,
      "Ġbinc": 4717,
      "ject": 4718,
      "á¹£u": 4719,
      "ĠJames": 4720,
      "áĪµáī±": 4721,
      "ĠáĬłáĭµ": 4722,
      "Ġáī°áĬĲ": 4723,
      "Ġáī³áĪĭáīħ": 4724,
      "ctober": 4725,
      "inst": 4726,
      "itÃ©s": 4727,
      "Ġitace": 4728,
      "imb": 4729,
      "ĠFa": 4730,
      "gal": 4731,
      "kÃ¹nrin": 4732,
      "36": 4733,
      "ĠPress": 4734,
      "Na": 4735,
      "ĠISBN": 4736,
      "eld": 4737,
      "Or": 4738,
      "gawa": 4739,
      "Ġáīłáĭļáĭ«": 4740,
      "ĠÃ©tait": 4741,
      "ollywood": 4742,
      "Ġpili": 4743,
      "Ġint": 4744,
      "ĠHen": 4745,
      "ĠHispania": 4746,
      "igh": 4747,
      "áĬĲáīµáĬķ": 4748,
      "ĠáĪ©": 4749,
      "Ġzaben": 4750,
      "ĠMarejeo": 4751,
      "Ġplusieurs": 4752,
      "tive": 4753,
      "áĪİáĬķ": 4754,
      "Ġsans": 4755,
      "ĠBBC": 4756,
      "Ġlafiya": 4757,
      "ĠWaz": 4758,
      "Ġáĭ¨áī°áī£áĪĪáĭį": 4759,
      "Ġigba": 4760,
      "ĠgbajÃºmá»į": 4761,
      "Ġindi": 4762,
      "eries": 4763,
      "Ġterrit": 4764,
      "48": 4765,
      "bÃº": 4766,
      "ĠHan": 4767,
      "áĮ¥áĬķáī³áĭĬ": 4768,
      "rahim": 4769,
      "ĠáĭĻáĪªáĭ«": 4770,
      "koso": 4771,
      "áĬŃáĪĪ": 4772,
      "ĠsinimÃ¡": 4773,
      "por": 4774,
      "ĠáĮĨ": 4775,
      "áįįáĬĵ": 4776,
      "amawa": 4777,
      "eph": 4778,
      "Har": 4779,
      "Ġá¹£áº¹": 4780,
      "Ġáĭ¨áĪĮ": 4781,
      "ĠGir": 4782,
      "áīłáĪĮ": 4783,
      "áĪ²áĬķ": 4784,
      "Tarehe": 4785,
      "ĠYan": 4786,
      "áĮłáĪį": 4787,
      "Ġpáº¹lu": 4788,
      "Ġdisp": 4789,
      "áī¶áī¹": 4790,
      "áĭ¨áĪĺ": 4791,
      "áĪ±áĬķ": 4792,
      "Ġneman": 4793,
      "ÆĻin": 4794,
      "ĠKwalejin": 4795,
      "ĠØ§ÙĦ": 4796,
      "Ã©tÃ©": 4797,
      "ĠáĭŃáĭĪ": 4798,
      "ĠfÃŃÃ¬mÃ¹": 4799,
      "ĠpadÃł": 4800,
      "áĭĺáī¥": 4801,
      "uve": 4802,
      "Ġgo": 4803,
      "áĬ«áī£áī¢": 4804,
      "ĠEthiopia": 4805,
      "ĠMakar": 4806,
      "ĠojÃº": 4807,
      "dinin": 4808,
      "Ġmiji": 4809,
      "Åį": 4810,
      "ils": 4811,
      "dai": 4812,
      "áĪŃáĪĭáĬķáĭµ": 4813,
      "áīłáĭį": 4814,
      "oselu": 4815,
      "ital": 4816,
      "ense": 4817,
      "ĠáįĢ": 4818,
      "Ġsud": 4819,
      "áĭŃáĬĲáīµ": 4820,
      "Ġ40": 4821,
      "áĪŃáĮį": 4822,
      "áĬ¨áĪŃ": 4823,
      "ĠáĬ«áĪį": 4824,
      "ĠpremiÃ¨re": 4825,
      "Ġkwam": 4826,
      "ĠNijar": 4827,
      "áī¨áĪŃ": 4828,
      "ites": 4829,
      "ennes": 4830,
      "wÃ¡jÃº": 4831,
      "Ġkusa": 4832,
      "Ġ1983": 4833,
      "Ġnord": 4834,
      "ĠMusa": 4835,
      "riban": 4836,
      "Ġmashariki": 4837,
      "akin": 4838,
      "ĠáĬ¥áĮħáĮį": 4839,
      "áĪªáī³": 4840,
      "iver": 4841,
      "cle": 4842,
      "ĠáĪĺáĪ¨áĮĥ": 4843,
      "Ġdhidi": 4844,
      "eria": 4845,
      "islamu": 4846,
      "Ġijoba": 4847,
      "áĬĲáīłáĪ¨": 4848,
      "Ġ1979": 4849,
      "ĠKib": 4850,
      "Ad": 4851,
      "Dans": 4852,
      "ÃłÃł": 4853,
      "Ġ1988": 4854,
      "Tangu": 4855,
      "ogi": 4856,
      "veau": 4857,
      "áĮĪáĬĽ": 4858,
      "37": 4859,
      "áĬŃáĪŃáĪµáī²áĭ«áĬķ": 4860,
      "Ġinst": 4861,
      "ĠÃ¬tÃłn": 4862,
      "ĠlÃ¡Ãł": 4863,
      "áĬ½": 4864,
      "ĠÆĻungiyar": 4865,
      "áī²áĬŃ": 4866,
      "Ġkadhaa": 4867,
      "amaduni": 4868,
      "Ġsasa": 4869,
      "Ġfond": 4870,
      "Ġ1982": 4871,
      "cis": 4872,
      "Ġten": 4873,
      "Ġwao": 4874,
      "antes": 4875,
      "áĭĺáĬķ": 4876,
      "yer": 4877,
      "Ġyaani": 4878,
      "Ġrashin": 4879,
      "bihi": 4880,
      "iongozi": 4881,
      "irefu": 4882,
      "ĠAnnabi": 4883,
      "ĠwÃ³n": 4884,
      "Ġamb": 4885,
      "ĠAll": 4886,
      "Ġnotamment": 4887,
      "ĠáĭŃáī»": 4888,
      "abo": 4889,
      "ics": 4890,
      "Ġagb": 4891,
      "tiki": 4892,
      "ĠGwamn": 4893,
      "ĠáĪĽáĮ£": 4894,
      "ellement": 4895,
      "Ġbeen": 4896,
      "rÃ²yÃ¬n": 4897,
      "áĪĪáī°áĬĽáĭį": 4898,
      "áĪ³áī°": 4899,
      "ĠÃłÃ¬": 4900,
      "ĠáīłáĬ©áĪį": 4901,
      "Ġáī°áįĪ": 4902,
      "ĠáīłáĪį": 4903,
      "ĠáĬłáĬĲ": 4904,
      "aman": 4905,
      "ĠJapani": 4906,
      "overnment": 4907,
      "Ġlangue": 4908,
      "ĠáĪĺáĪĪ": 4909,
      "ĠBay": 4910,
      "ĠOlÃ³": 4911,
      "ilo": 4912,
      "áĪ«áĪĿ": 4913,
      "áĬķáĮ«": 4914,
      "Wannan": 4915,
      "illes": 4916,
      "warar": 4917,
      "anzishwa": 4918,
      "Ġbayar": 4919,
      "áīµáĪĿ": 4920,
      "áīłáĬĽ": 4921,
      "ĠáĬ¥áĭµ": 4922,
      "bai": 4923,
      "ĠFI": 4924,
      "Ġáī°áīĭ": 4925,
      "Ġere": 4926,
      "ĠsÃ¡": 4927,
      "Ã©lÃ©": 4928,
      "ĠáĬ¥áĬķáĭ°áĪĨáĬĲ": 4929,
      "áĬ¾": 4930,
      "Ġáĭ¨áĪĨáĬĳ": 4931,
      "ington": 4932,
      "Ġáĭ©áĬĴ": 4933,
      "áī¸áĭĭáĪį": 4934,
      "Ġ1984": 4935,
      "Ġáĭ¨áĪĭ": 4936,
      "áĭ«áĪµ": 4937,
      "ĠFo": 4938,
      "osop": 4939,
      "Ġmjini": 4940,
      "áī¥áĪĬáĬŃ": 4941,
      "áĮ¼": 4942,
      "Ġáĭ«áĪī": 4943,
      "Ġ1986": 4944,
      "gy": 4945,
      "sy": 4946,
      "iriki": 4947,
      "zing": 4948,
      "áĬĭáĪĭ": 4949,
      "Ġwaka": 4950,
      "the": 4951,
      "pi": 4952,
      "ret": 4953,
      "ĠMic": 4954,
      "ĠPaul": 4955,
      "anti": 4956,
      "rika": 4957,
      "bÃŃláº¹": 4958,
      "áįĵáĬķáĭ«": 4959,
      "Ġáīłáĭ°áī¡áī¥": 4960,
      "Ġnum": 4961,
      "Ġmpya": 4962,
      "Ġagba": 4963,
      "ĠAustra": 4964,
      "áĭĽáĪ¬": 4965,
      "Ġconsi": 4966,
      "Ġhawa": 4967,
      "oup": 4968,
      "ĠáĬ«áĪĮ": 4969,
      "ĠLugha": 4970,
      "áīģáĪŃ": 4971,
      "Éĵa": 4972,
      "ãĥ": 4973,
      "áĭ«áĭ«": 4974,
      "ĠáĪĺáĭĭ": 4975,
      "Ġiye": 4976,
      "inea": 4977,
      "ĠComp": 4978,
      "Se": 4979,
      "Ġvers": 4980,
      "áĪ©áĪĿ": 4981,
      "emple": 4982,
      "Láº¹": 4983,
      "aj": 4984,
      "Ġmur": 4985,
      "Ġ1985": 4986,
      "Ġpoint": 4987,
      "Ġop": 4988,
      "ĠÆ´": 4989,
      "ĠáĪĺáī¶": 4990,
      "DP": 4991,
      "unda": 4992,
      "sha": 4993,
      "lymp": 4994,
      "áĬ¡": 4995,
      "Ġdro": 4996,
      "áĬĲáī¶áī½": 4997,
      "alÃ¡": 4998,
      "ĠáīłáĬ¨": 4999,
      "áįĪáĬķ": 5000,
      "rise": 5001,
      "iran": 5002,
      "áĮ¥áĪĿ": 5003,
      "ĠáĭĵáĪĺáī±": 5004,
      "Ġsaur": 5005,
      "alu": 5006,
      "áī¢áīµ": 5007,
      "áįįáĪªáĬ«": 5008,
      "áĬłáĭŃ": 5009,
      "Ġforme": 5010,
      "Ġ1966": 5011,
      "anzibar": 5012,
      "ĠCharles": 5013,
      "Ġkn": 5014,
      "limu": 5015,
      "ĠMiji": 5016,
      "Ġnaf": 5017,
      "hairi": 5018,
      "ĠNuwa": 5019,
      "ĠáīłáĪ¨": 5020,
      "Kuna": 5021,
      "arab": 5022,
      "áīĢáĪį": 5023,
      "ĠAdam": 5024,
      "áĭ°áĪ¨áĮī": 5025,
      "lÃ¬": 5026,
      "Ġáĭ¨áįĸ": 5027,
      "Ġáĭ¨áī°áĬŃáĪī": 5028,
      "áĪĪáĭ°": 5029,
      "áĪĬáĭ®áĬķ": 5030,
      "ĠBi": 5031,
      "Ġsupp": 5032,
      "áĬĳáĪµ": 5033,
      "Ġlitta": 5034,
      "Ġtarihin": 5035,
      "Ġfus": 5036,
      "ica": 5037,
      "Ġdubu": 5038,
      "aract": 5039,
      "á¹£i": 5040,
      "á¹£Ã²": 5041,
      "yal": 5042,
      "Ġtakar": 5043,
      "Ġtsawon": 5044,
      "It": 5045,
      "ĠSara": 5046,
      "ott": 5047,
      "Ġmilli": 5048,
      "ĠáĮĪáī¥": 5049,
      "dili": 5050,
      "áĮłáĪĭ": 5051,
      "Manazarta": 5052,
      "Ġkid": 5053,
      "Ġtattalin": 5054,
      "Ã©m": 5055,
      "Ġgoma": 5056,
      "áī³áī½áĬķ": 5057,
      "ĠUmoja": 5058,
      "iyya": 5059,
      "Ġkina": 5060,
      "Ġ1974": 5061,
      "abab": 5062,
      "áĭ¨áĬłáĪ": 5063,
      "Ġorig": 5064,
      "ĠaprÃ¨s": 5065,
      "Ġrub": 5066,
      "Ġáį«": 5067,
      "ĠJana": 5068,
      "ĠKit": 5069,
      "Ġwurin": 5070,
      "mai": 5071,
      "Ġinto": 5072,
      "Ġtofauti": 5073,
      "Ġlabarai": 5074,
      "ifuata": 5075,
      "ames": 5076,
      "istr": 5077,
      "Ġbakwai": 5078,
      "ĠVer": 5079,
      "iew": 5080,
      "áĪĪáĭĭáĪį": 5081,
      "ĠBorn": 5082,
      "ĠUk": 5083,
      "ieu": 5084,
      "Ġused": 5085,
      "áĬ¨áĪ«": 5086,
      "ĠáĪľáīµáĪŃ": 5087,
      "ĠáįķáĪ¬áĭļ": 5088,
      "Ġkabisa": 5089,
      "Ġshirye": 5090,
      "Wakati": 5091,
      "Ne": 5092,
      "áĮĪáĬĲ": 5093,
      "áĪªáīµ": 5094,
      "ĠOrÃŃ": 5095,
      "áīħáĪµ": 5096,
      "ĠáĭįáĮ¤": 5097,
      "Ġoloselu": 5098,
      "Ġpi": 5099,
      "uses": 5100,
      "lewa": 5101,
      "Ġnou": 5102,
      "omb": 5103,
      "umla": 5104,
      "ĠáĭŃáĮłáīĢ": 5105,
      "ĠáĪ¥áĪĭáĪ´": 5106,
      "chaguzi": 5107,
      "Ġbabbar": 5108,
      "zil": 5109,
      "ĠinÃº": 5110,
      "ribu": 5111,
      "áĭ£": 5112,
      "chuk": 5113,
      "ĠáĬłáĪ°": 5114,
      "2004": 5115,
      "ĠáĪĺáĮłáĬķ": 5116,
      "Par": 5117,
      "áĭµáĪµáīµ": 5118,
      "ĠLou": 5119,
      "bÃ¬nrin": 5120,
      "Ġolu": 5121,
      "Ġ||": 5122,
      "dÃ²": 5123,
      "Ġáĭ¨áĪ°áĭį": 5124,
      "osition": 5125,
      "ĠFebruary": 5126,
      "ĠJi": 5127,
      "áĬ¥áĮįáĭļáĬłáī¥áĪĶáĪŃ": 5128,
      "ĠáĪķáĭĿ": 5129,
      "Ġkumb": 5130,
      "áī£áĪī": 5131,
      "ukumbu": 5132,
      "cul": 5133,
      "gon": 5134,
      "ĠCap": 5135,
      "ingia": 5136,
      "ĠNovember": 5137,
      "ĠLib": 5138,
      "áĭķáĭĿ": 5139,
      "ĠáĮįáī¥áĮ½": 5140,
      "ĠáĭŃáī»áĪĭáĪį": 5141,
      "ĠMaka": 5142,
      "Ġdepuis": 5143,
      "gá»į": 5144,
      "Ġgre": 5145,
      "Mji": 5146,
      "Ġing": 5147,
      "hilosop": 5148,
      "Ġáĭ±": 5149,
      "fara": 5150,
      "ĠáīµáĪįáīħ": 5151,
      "Ã¶": 5152,
      "bon": 5153,
      "men": 5154,
      "áĪµáī°áĬĽ": 5155,
      "Ġgaban": 5156,
      "Ġtayi": 5157,
      "akini": 5158,
      "Ġmuda": 5159,
      "Ġmuhimu": 5160,
      "Ġhankali": 5161,
      "Ġmwanasiasa": 5162,
      "Ġgra": 5163,
      "ĠCal": 5164,
      "áĬķáĭ³áĪŃ": 5165,
      "mÃ¬nÃł": 5166,
      "nes": 5167,
      "tim": 5168,
      "ĠOba": 5169,
      "LÃ¡": 5170,
      "via": 5171,
      "ĠáīģáĮ¥": 5172,
      "ĠÃĢÃłráº¹": 5173,
      "Ġ()": 5174,
      "áĭ³áĮħ": 5175,
      "Ġ1950": 5176,
      "Ã¤": 5177,
      "áĬ¨áī°áĪĪáĭį": 5178,
      "áĬłáĬķ": 5179,
      "2006": 5180,
      "ÙĴ": 5181,
      "Ġáĭŀ": 5182,
      "Ġkasashen": 5183,
      "Ġayyukan": 5184,
      "uke": 5185,
      "ĠJama": 5186,
      "Ġshu": 5187,
      "Ġaina": 5188,
      "ĠáĬ¥áĬķáĭ°áī°": 5189,
      "emble": 5190,
      "ĠPo": 5191,
      "Ã³mÃ¬nÃł": 5192,
      "ĠáĬ¨áĪĽ": 5193,
      "sÃŃláº¹": 5194,
      "Ġeniyan": 5195,
      "ĠMk": 5196,
      "áĪ¥áī±": 5197,
      "Ġkuj": 5198,
      "áĭ³áĬķáīµ": 5199,
      "ruct": 5200,
      "pril": 5201,
      "ĠWakristo": 5202,
      "ĠAbubakar": 5203,
      "ago": 5204,
      "Ġá¹£ÃŃ": 5205,
      "Ġáĭ¨áĪĺáĮĢáĪĺáĪªáĭ«áĭį": 5206,
      "ĠáĮ½áĪĳáįį": 5207,
      "Au": 5208,
      "Ġkale": 5209,
      "ĠEbun": 5210,
      "ĠáīłáĪĺáĪĨáĬĳ": 5211,
      "ĠáĭµáĬķ": 5212,
      "Ġgwamnati": 5213,
      "ĠMayu": 5214,
      "ĠÃłgbÃł": 5215,
      "ĠVol": 5216,
      "áĮİáĪŃáĮİáĪŃ": 5217,
      "ĠáĭµáĪŃáĮħáīµ": 5218,
      "áĪŀáīµ": 5219,
      "39": 5220,
      "tal": 5221,
      "ved": 5222,
      "rÃ©sent": 5223,
      "ĠáĪĿáĬķáĮŃ": 5224,
      "ĠJean": 5225,
      "app": 5226,
      "ĠáĪµáĪĪáĭļáĪħ": 5227,
      "Ġcika": 5228,
      "hamp": 5229,
      "Ġmilima": 5230,
      "Ġkimanin": 5231,
      "torÃŃ": 5232,
      "áĮ¾": 5233,
      "ĠáįĬáĭ°áĪį": 5234,
      "ĠTra": 5235,
      "ĠCa": 5236,
      "ariya": 5237,
      "Ġ1978": 5238,
      "áī½áĪį": 5239,
      "ĠáĪĪáī°": 5240,
      "áī§": 5241,
      "ambu": 5242,
      "áĭĽáĭĿ": 5243,
      "Ġmwisho": 5244,
      "Ġ1965": 5245,
      "áĬ³áĬķ": 5246,
      "áįĪáĮ¥áĪ®": 5247,
      "rÃ¡n": 5248,
      "ĠáĪ«áĪµ": 5249,
      "sib": 5250,
      "tiques": 5251,
      "jet": 5252,
      "áĪĪáĪģ": 5253,
      "ĠáĬłáī£áīµ": 5254,
      "Ġnasara": 5255,
      "Ġenc": 5256,
      "Ġmilioni": 5257,
      "himman": 5258,
      "ID": 5259,
      "Ġhili": 5260,
      "ĠAcadem": 5261,
      "ery": 5262,
      "Ġise": 5263,
      "ĠEnglish": 5264,
      "wili": 5265,
      "Ã©rÃ©": 5266,
      "ĠSat": 5267,
      "ots": 5268,
      "Ġáĭ¨áĬĸ": 5269,
      "ĠTurai": 5270,
      "ĠAtlan": 5271,
      "Ġ(Â«": 5272,
      "angan": 5273,
      "áĬłáĪį": 5274,
      "Ġkirk": 5275,
      "ĠáĬłáĭ¨áĪŃ": 5276,
      "ĠáĬłáĪĿáĪĭáĬŃ": 5277,
      "ĠáĪĽáĪŃáīĨáĪµ": 5278,
      "71": 5279,
      "daban": 5280,
      "Ġkuu": 5281,
      "Ġyo": 5282,
      "ĠOctober": 5283,
      "futa": 5284,
      "áĬ¨áī¥": 5285,
      "ĠáĪħáĭĿáī¥": 5286,
      "Ġshe": 5287,
      "Ġreg": 5288,
      "win": 5289,
      "Ġfo": 5290,
      "ĠMarch": 5291,
      "ĠFM": 5292,
      "nia": 5293,
      "Â²": 5294,
      "Ġincl": 5295,
      "pokeo": 5296,
      "ĠáĬłáĭŃáĭ°áĪĪáĪĿ": 5297,
      "áī£áī¥": 5298,
      "áĬĿáĬĲáīµ": 5299,
      "hoto": 5300,
      "ments": 5301,
      "Ġpublic": 5302,
      "uman": 5303,
      "ĠáīłáĪĨ": 5304,
      "yd": 5305,
      "ĠáĬŃáĪŃáĪµáī¶áĪµ": 5306,
      "2003": 5307,
      "Ġjusqu": 5308,
      "Ġkin": 5309,
      "áĪĭáĬķ": 5310,
      "Ġcibi": 5311,
      "fuatana": 5312,
      "istori": 5313,
      "ĠMaris": 5314,
      "Ġsome": 5315,
      "áĪįáĬķ": 5316,
      "ĠâĢĶ": 5317,
      "lÃ©wÃ²": 5318,
      "Ġ1981": 5319,
      "burg": 5320,
      "volution": 5321,
      "ĠáīłáĪ«": 5322,
      "ĠRÃ©": 5323,
      "áĮ¡áīµ": 5324,
      "ĠMor": 5325,
      "áĭĿáĪĽáī½": 5326,
      "ĠÆ³": 5327,
      "ibiyar": 5328,
      "áĪ«áĬ¤áĪį": 5329,
      "áīłáĪ¬": 5330,
      "\")": 5331,
      "Ø¨": 5332,
      "Ġpre": 5333,
      "ĠÃīt": 5334,
      "ĠáĬłáĬķáĭ³áĬķáĭµ": 5335,
      "ĠáĬ¨áī°áĪĽáĭį": 5336,
      "kÃ¹": 5337,
      "arÃŃ": 5338,
      "omas": 5339,
      "Ġmaana": 5340,
      "ĠYoh": 5341,
      "ĠSw": 5342,
      "ĠáĪĺáĮ¥": 5343,
      "adu": 5344,
      "Ana": 5345,
      "Ġsitu": 5346,
      "Ġ180": 5347,
      "sp": 5348,
      "áĪŃáĬķ": 5349,
      "Ġpat": 5350,
      "kw": 5351,
      "sions": 5352,
      "ĠáĪĺáĪ³": 5353,
      "ĠWatu": 5354,
      "Ġ1971": 5355,
      "Ġsakand": 5356,
      "Ġkumbukumbu": 5357,
      "áĭ«áĭĿ": 5358,
      "77": 5359,
      "áĪµáī¶": 5360,
      "áĬ«áī³": 5361,
      "áīłáī³áĪį": 5362,
      "die": 5363,
      "Ġâ": 5364,
      "ĠáĬ¨áĪ°": 5365,
      "ÆĻi": 5366,
      "ĠáĬ«áĪĮáĬķáĭ³áĪŃ": 5367,
      "Ġng": 5368,
      "ĠWe": 5369,
      "ĠáīłáĬ¢": 5370,
      "Ġdawo": 5371,
      "Ġconf": 5372,
      "ĠáīłáĪ½áī³": 5373,
      "ĠkÃ¡": 5374,
      "ĠáĬ¥áĬķáĭ°áĮĪáĬĵ": 5375,
      "ateurs": 5376,
      "ĠáįķáĪ®": 5377,
      "Ġlanguage": 5378,
      "Ġatom": 5379,
      "Ġlilikuwa": 5380,
      "ather": 5381,
      "ĠgÃŃga": 5382,
      "áĮİáĪŃáĮİáĪŃáĭ«áĬķ": 5383,
      "áĪŀáĬŃ": 5384,
      "46": 5385,
      "ren": 5386,
      "áĮ£áĪįáĭ«áĬķ": 5387,
      "ĠáīłáĪĻáĪī": 5388,
      "ĠáĪĺáĮ£": 5389,
      "Ġáī°áĬĵ": 5390,
      "Ġsune": 5391,
      "onekana": 5392,
      "ĠYe": 5393,
      "áīĭáĬķáīĭ": 5394,
      "áĬķáĭ³áĬķáĭµ": 5395,
      "ety": 5396,
      "85": 5397,
      "Ġnor": 5398,
      "nÃ¹": 5399,
      "ĠbÃł": 5400,
      "Ġmirefu": 5401,
      "adhim": 5402,
      "abijin": 5403,
      "Ġwadda": 5404,
      "Ġnafasi": 5405,
      "ĠáĪİ": 5406,
      "ĠAbuja": 5407,
      "ĠáĬłáĪĪáĪĿ": 5408,
      "áĪįáįį": 5409,
      "áĪįáĮħ": 5410,
      "Ġidan": 5411,
      "ĠEle": 5412,
      "áĪµáīµáĬĵ": 5413,
      "gÃ¡": 5414,
      "ĠáĬĹ": 5415,
      "rig": 5416,
      "Ġhuu": 5417,
      "bunge": 5418,
      "ĠIndiya": 5419,
      "Ġajili": 5420,
      "ĠZa": 5421,
      "mon": 5422,
      "mÃº": 5423,
      "áĪ«áĪ½": 5424,
      "arren": 5425,
      "ĠáĪĽáĮ£áīĢ": 5426,
      "Ġafter": 5427,
      "32": 5428,
      "berg": 5429,
      "áĭ³áĬķáĭ±": 5430,
      "áī°áĬĽáĭį": 5431,
      "Ġjin": 5432,
      "anne": 5433,
      "áĭ´áīµ": 5434,
      "áĭ®áĪŃáĮĬ": 5435,
      "Ġiki": 5436,
      "áĪĺáĪ«": 5437,
      "araka": 5438,
      "Ġmost": 5439,
      "Ġmkoa": 5440,
      "aso": 5441,
      "Ġáīłáįį": 5442,
      "Ġmapokeo": 5443,
      "Ġwalikuwa": 5444,
      "Ġmengine": 5445,
      "ĠTanbihi": 5446,
      "Â°": 5447,
      "Ġtwo": 5448,
      "áīłáĪ°": 5449,
      "ĠáĪįáĭ°áīµ": 5450,
      "unis": 5451,
      "ĠBritish": 5452,
      "dÃłn": 5453,
      "ĠáĪĿáĬĵáĪįáī£áīµ": 5454,
      "Ġhizi": 5455,
      "áĬłáĪĿ": 5456,
      "Ġrayuwar": 5457,
      "Ġáīłáī¥áĭĽáīµ": 5458,
      "ĠSc": 5459,
      "ºáį": 5460,
      "ĠmÃ¬ÃŃ": 5461,
      "áī½áĪģ": 5462,
      "ĠPrin": 5463,
      "áĬªáĭ«": 5464,
      "Ġáĭ¨áĭĵáĪĪáĪĿ": 5465,
      "Ġila": 5466,
      "áĪįáīģ": 5467,
      "Ġmiliyan": 5468,
      "Ġtrois": 5469,
      "Ġgarga": 5470,
      "ĠTarayyar": 5471,
      "Ġass": 5472,
      "ĠolÃ³rin": 5473,
      "=\"": 5474,
      "igne": 5475,
      "Papa": 5476,
      "cen": 5477,
      "Ġhakan": 5478,
      "engo": 5479,
      "Ġbaadaye": 5480,
      "Ã¬sÃŃ": 5481,
      "stit": 5482,
      "ĠGuinea": 5483,
      "ĠAcademy": 5484,
      "ĠáįĪáĪ¨áĬķ": 5485,
      "Ġáĭ¨áīĢáĬķ": 5486,
      "ĠNo": 5487,
      "ĠVal": 5488,
      "ografia": 5489,
      "ĠPeople": 5490,
      "Ġ~": 5491,
      "ĠMari": 5492,
      "Ġáīµáĭį": 5493,
      "47": 5494,
      "áĮİáĬķ": 5495,
      "Ġpopulation": 5496,
      "Ġáī°áĭĭ": 5497,
      "ĠáīłáĪķ": 5498,
      "Ġbien": 5499,
      "ĠJapan": 5500,
      "Ġocc": 5501,
      "áĮĪáīµ": 5502,
      "¹áį": 5503,
      "áĪ¥áĪ«áīħ": 5504,
      "isation": 5505,
      "arly": 5506,
      "ĠáĪ¹": 5507,
      "uniyar": 5508,
      "ĠFir": 5509,
      "Ġ1977": 5510,
      "Ġmarubu": 5511,
      "96": 5512,
      "ĠIndia": 5513,
      "ĠáĪĽáĪµáī³áĭĪáĪ»áĭİáī½": 5514,
      "áĪµáĪĿ": 5515,
      "ĠáĬłáĮĪáĪ«áīµ": 5516,
      "Ġtalla": 5517,
      "asashen": 5518,
      "ĠáīłáĮİáĪŃáĮİáĪŃáĭ«áĬķ": 5519,
      "Ġjeshi": 5520,
      "kofu": 5521,
      "ĠpÃ©ri": 5522,
      "assa": 5523,
      "ĠSch": 5524,
      "áīłáĪī": 5525,
      "ĠMov": 5526,
      "Ġhilo": 5527,
      "Ġdonn": 5528,
      "ĠmÃ¬ÃŃrÃłn": 5529,
      "ĠMil": 5530,
      "áĭĺáĪĺ": 5531,
      "vision": 5532,
      "ubuwan": 5533,
      "dáº¹": 5534,
      "ĠáĪįáī¥": 5535,
      "Ġ1973": 5536,
      "Ġkij": 5537,
      "Ð¸": 5538,
      "Ġwaki": 5539,
      "nie": 5540,
      "Ġáĭ¨áĪŀ": 5541,
      "Ġáĭ¨áĪļáĭ«áĪµ": 5542,
      "ĠMont": 5543,
      "Ġkofin": 5544,
      "kuta": 5545,
      "idayar": 5546,
      "Ġwengine": 5547,
      "Vi": 5548,
      "Ġport": 5549,
      "sim": 5550,
      "ĠrÃ©p": 5551,
      "Ġáĭ¨áī¥": 5552,
      "áĭĪáĪ¨": 5553,
      "ĠIbrahim": 5554,
      "ĠáĮ³": 5555,
      "áī¦áīµ": 5556,
      "diyya": 5557,
      "áĭ«áĬķáĭ³áĬķáĭ±": 5558,
      "ĠobÃ¬nrin": 5559,
      "ĠreprÃ©sent": 5560,
      "Lakini": 5561,
      "Ġkundi": 5562,
      "Ġmch": 5563,
      "ĠáĮ«": 5564,
      "áĪ³áĬķ": 5565,
      "ĠFab": 5566,
      "ĠáĭµáĬķáĮĭ": 5567,
      "To": 5568,
      "Ġmore": 5569,
      "ictor": 5570,
      "yota": 5571,
      "Ġ1962": 5572,
      "ĠáĬŃáįįáĪİáī½": 5573,
      "---": 5574,
      "ĠdÃ¡ra": 5575,
      "¸áį": 5576,
      "ĠáĭĪáĪįáĭ°": 5577,
      "ĠAfr": 5578,
      "pindi": 5579,
      "Ġ1964": 5580,
      "Ġzilizo": 5581,
      "ĠhaÉĹa": 5582,
      "Ce": 5583,
      "Ġáĭ³áĪŃ": 5584,
      "ĠDavid": 5585,
      "99": 5586,
      "Ġáĭ¨áĮ¥": 5587,
      "áĭĵáĬķ": 5588,
      "ĠZanzibar": 5589,
      "sociation": 5590,
      "hÃ¹n": 5591,
      "rÃºn": 5592,
      "áĬĲáī±áĬķ": 5593,
      "áĬłáīµ": 5594,
      "neo": 5595,
      "esse": 5596,
      "Ġchar": 5597,
      "ĠGro": 5598,
      "Ġ1972": 5599,
      "86": 5600,
      "abin": 5601,
      "Ġáĭ¨áĬ®": 5602,
      "tali": 5603,
      "áĪ³áĪ³áĭŃ": 5604,
      "Ġvili": 5605,
      "Ġá¹£Ãł": 5606,
      "dÃºgbÃ²": 5607,
      "ĠÆ³an": 5608,
      "alth": 5609,
      "áĪĪáĪĺ": 5610,
      "ĠáĬ¨áĪģ": 5611,
      "rodu": 5612,
      "ĠStates": 5613,
      "Ġáī¶": 5614,
      "ĠáĬłáī¶": 5615,
      "Ġout": 5616,
      "ĠáĪĽáĪŃáĭ«áĪĿ": 5617,
      "áĮĪáĪªáī±": 5618,
      "kÃŃ": 5619,
      "Ġtatu": 5620,
      "ĠÃ¬á¹£áº¹": 5621,
      "Ã®t": 5622,
      "Ġzake": 5623,
      "Ġáī¥áĭĽáīµ": 5624,
      "Ġkabila": 5625,
      "Ġáī¡áĭµáĬķ": 5626,
      "ĠUrusi": 5627,
      "ĠáĪĪáĪĿáĪ³áĪĮ": 5628,
      "Ġart": 5629,
      "ĠipÃ²": 5630,
      "onne": 5631,
      "ister": 5632,
      "ĠáĬ¥áĬķáĭ²áĭ«": 5633,
      "Ġaga": 5634,
      "esu": 5635,
      "ĠSala": 5636,
      "Ġ1969": 5637,
      "ĠYohane": 5638,
      "Ġmik": 5639,
      "omme": 5640,
      "Ġhistoria": 5641,
      "kad": 5642,
      "ĠAlakoso": 5643,
      "Ġmonde": 5644,
      "Ø¯": 5645,
      "ĠKasa": 5646,
      "Ġáī¢áĪĨáĬķáĪĿ": 5647,
      "ĠFIFA": 5648,
      "Ġans": 5649,
      "Ġmil": 5650,
      "ella": 5651,
      "Ġ2091": 5652,
      "Ġambako": 5653,
      "assan": 5654,
      "Ġmfano": 5655,
      "Ġtabb": 5656,
      "Elle": 5657,
      "Ġagbegbe": 5658,
      "Ġomi": 5659,
      "áĪŃáī±": 5660,
      "ĠáĭĿáĪŃáĭ«": 5661,
      "Ð¾": 5662,
      "áĬķáĭ¶": 5663,
      "Ġ1963": 5664,
      "abiwa": 5665,
      "ĠMagharibi": 5666,
      "Ġlangues": 5667,
      "áī¾": 5668,
      "Ġáĭ¨áĪĪáĭį": 5669,
      "Ka": 5670,
      "ware": 5671,
      "áĬķáĪ³áĭĬ": 5672,
      "ography": 5673,
      "Ġáĭ¨áĬ¦": 5674,
      "Ġele": 5675,
      "sÃ¬kÃ²": 5676,
      "ensi": 5677,
      "ĠMkuu": 5678,
      "Ġjimbo": 5679,
      "kubali": 5680,
      "ĠHukumar": 5681,
      "''": 5682,
      "33": 5683,
      "Ġmaa": 5684,
      "Ġcas": 5685,
      "anzisha": 5686,
      "Ġasali": 5687,
      "ĠMer": 5688,
      "ĠJuly": 5689,
      "vient": 5690,
      "ĠShug": 5691,
      "áĪµáĪĽ": 5692,
      "ĠáĮĪáĭ°": 5693,
      "Ġabout": 5694,
      "áĪĮáĬŃáīµáĪªáĬŃ": 5695,
      ");": 5696,
      "hol": 5697,
      "At": 5698,
      "ĠKale": 5699,
      "ĠáĮłáīħ": 5700,
      "ouvent": 5701,
      "Ġáĭ¨áĭ«": 5702,
      "hudi": 5703,
      "Ġkare": 5704,
      "ĠáĬĥáĭŃáĪĪ": 5705,
      "Ġáĭ¨áīĨ": 5706,
      "ĠSikukuu": 5707,
      "ĠáĭŃáĪĦ": 5708,
      "Ġáīłáī°áĮ¨áĪĽáĪª": 5709,
      "áī¥áĪ«áĭŃ": 5710,
      "Mar": 5711,
      "Ġph": 5712,
      "ush": 5713,
      "Ġwu": 5714,
      "Ġkowa": 5715,
      "TA": 5716,
      "tum": 5717,
      "Ġáī°áīĥ": 5718,
      "Ġpet": 5719,
      "áĬ¨áĭļáĭ«": 5720,
      "ĠprÃ©sent": 5721,
      "Ġáĭ¨áĭįáĮŃ": 5722,
      "ĠLove": 5723,
      "Jina": 5724,
      "ĠKif": 5725,
      "Ġáĭĺáĭ´": 5726,
      "áĪĻáīµ": 5727,
      "Ġhuadhim": 5728,
      "Ġmnamo": 5729,
      "Ġcaract": 5730,
      "ĠáĬ¥áĬĶ": 5731,
      "ĠUmar": 5732,
      "ole": 5733,
      "ĠáĮĪáĬķ": 5734,
      "áĪĲáįĬ": 5735,
      "ĠáĭľáĬĵ": 5736,
      "Ġgwa": 5737,
      "ĠLu": 5738,
      "Ġmahali": 5739,
      "Ġabinci": 5740,
      "Ġhannu": 5741,
      "Ġáĭ¨áĪļáī³áĭĪ": 5742,
      "49": 5743,
      "ef": 5744,
      "áĪŃáī£": 5745,
      "Ġbet": 5746,
      "Ġáĭ¨áĪĢ": 5747,
      "autres": 5748,
      "ĠBank": 5749,
      "SA": 5750,
      "wali": 5751,
      "Ġáī£áĪį": 5752,
      "Ġreli": 5753,
      "mpire": 5754,
      "áĪŃáĪ±áĪĿ": 5755,
      "ĠÆĻidayar": 5756,
      "Ġmoins": 5757,
      "anya": 5758,
      "Cette": 5759,
      "fois": 5760,
      "Ġover": 5761,
      "ĠáĮįáĭĽ": 5762,
      "Ġ1961": 5763,
      "áĭ¨áĪļ": 5764,
      "nam": 5765,
      "ĠTV": 5766,
      "wun": 5767,
      "Ġkoloni": 5768,
      "ison": 5769,
      "Ġbikin": 5770,
      "ĠáĬłáīħ": 5771,
      "ĠCibiyar": 5772,
      "hysi": 5773,
      "ishe": 5774,
      "ĠáĪĺáĪ¬áīµ": 5775,
      "Ġthey": 5776,
      "ĠáĪĪáĬ¥": 5777,
      "áĬ«áĪĿ": 5778,
      "zarin": 5779,
      "Ġáĭ¨áĬŃ": 5780,
      "Ġlina": 5781,
      "ombo": 5782,
      "ĠáĪµáĪĪáĪļ": 5783,
      "tÃłkÃ¬": 5784,
      "ĠÃģf": 5785,
      "42": 5786,
      "79": 5787,
      "ĠPak": 5788,
      "ĠEast": 5789,
      "áĭĽáĬĽáĭį": 5790,
      "ĠIsland": 5791,
      "Waliozaliwa": 5792,
      "ĠHotuna": 5793,
      "ĠMakarantar": 5794,
      "ĠNuwamba": 5795,
      "ĠáĬ¨áĪĮ": 5796,
      "ĠDen": 5797,
      "áĭĺáĭį": 5798,
      "abaki": 5799,
      "ographie": 5800,
      "Ġ<": 5801,
      "ĠNÃŃ": 5802,
      "ĠGar": 5803,
      "oss": 5804,
      "Ġville": 5805,
      "áįĭáĪį": 5806,
      "ĠáĬ¥áĬķáĮįáĪĬáĭĿáĬĽ": 5807,
      "Ġconc": 5808,
      "ĠhaÉĹin": 5809,
      "ĠáĪĺáĪįáĬŃáĭĵ": 5810,
      "áĭµáĬĵ": 5811,
      "ĠolÃº": 5812,
      "ĠáĬłáĪħ": 5813,
      "ĠUt": 5814,
      "unifÃ¡": 5815,
      "ĠáĪĺáĮ»áĪķ": 5816,
      "Mo": 5817,
      "áīłáīħ": 5818,
      "ĠDr": 5819,
      "áī°áīµ": 5820,
      "ĠáīĢáĭ³": 5821,
      "jÃ²": 5822,
      "ĠApril": 5823,
      "Ġigb": 5824,
      "Ġáī¥áĪĶáĪ«áĭĬ": 5825,
      "line": 5826,
      "Ġáĭ¨áī°áĪĺ": 5827,
      "Ġautres": 5828,
      "áĬķáī³": 5829,
      "áĭµáĪ¨áĪµ": 5830,
      "kiti": 5831,
      "áĬĵáĭŃáīµ": 5832,
      "Ã¨ne": 5833,
      "áīłáĪ³": 5834,
      "ross": 5835,
      "Ġá¹¢": 5836,
      "Ġsara": 5837,
      "Ġmt": 5838,
      "Ġmatsa": 5839,
      "Ġá¹£Ã¹gbá»į": 5840,
      "ĠáĬłáĮĪáĪ®áī½": 5841,
      "Ġur": 5842,
      "atre": 5843,
      "ĠDemoc": 5844,
      "2015": 5845,
      "ĠáĭĪáĭŃáĬķáĪĿ": 5846,
      "ĠFin": 5847,
      "oshi": 5848,
      "ick": 5849,
      "Ġáī£áĭŃ": 5850,
      "áĭ°áĪ¨áĮĪáĭį": 5851,
      "ĠáĬĥáĭŃáĪį": 5852,
      "ĠÃģfrÃŃkÃł": 5853,
      "zz": 5854,
      "âĢľ": 5855,
      "áīĢáĭµáĪŀ": 5856,
      "ĠBas": 5857,
      "áĭįáĬķáīµ": 5858,
      "ĠMoham": 5859,
      "ĠAy": 5860,
      "áĬ¨áī³": 5861,
      "áīłáĪµ": 5862,
      "akati": 5863,
      "opÃ©": 5864,
      "Ùĩ": 5865,
      "kam": 5866,
      "2007": 5867,
      "88": 5868,
      "las": 5869,
      "pace": 5870,
      "áĪĪáĪĿáĪ³áĪĮ": 5871,
      "kamakon": 5872,
      "Ġ(\"": 5873,
      "ĠáĪĻáĪī": 5874,
      "áĬŃáĬķ": 5875,
      "áĬĳáĬķ": 5876,
      "ĠMali": 5877,
      "maji": 5878,
      "Ġappel": 5879,
      "ĠáīĢáĮ¥áĪİ": 5880,
      "ĠMt": 5881,
      "AC": 5882,
      "Ġáįİ": 5883,
      "bele": 5884,
      "Ġosere": 5885,
      "74": 5886,
      "Ã©rica": 5887,
      "tho": 5888,
      "ĠWil": 5889,
      "Ġ1968": 5890,
      "uel": 5891,
      "áĮĪáĪ«áīµ": 5892,
      "Ġsuch": 5893,
      "ĠYo": 5894,
      "aransa": 5895,
      "Ġtar": 5896,
      "Ġspe": 5897,
      "Ġjinsi": 5898,
      "áīłáīĥ": 5899,
      "akatifu": 5900,
      "amia": 5901,
      "ĠAba": 5902,
      "ĠMw": 5903,
      "ĠDunia": 5904,
      "Ġáī£áĪħáĪŃ": 5905,
      "kai": 5906,
      "áĮĪáī¡": 5907,
      "ĠBello": 5908,
      "kta": 5909,
      "Ġnatur": 5910,
      "Th": 5911,
      "Î±": 5912,
      "áī¥áĬķ": 5913,
      "áĪ¸áĬĲ": 5914,
      "ĠÃ²á¹£erÃ©": 5915,
      "hiyar": 5916,
      "ĠáĬ¥áĮįáĭļáĬłáī¥áĪĶáĪŃ": 5917,
      "Ġkanta": 5918,
      "Ġaddinin": 5919,
      "aimakin": 5920,
      "sar": 5921,
      "Ġlik": 5922,
      "ĠJo": 5923,
      "Ġconn": 5924,
      "ES": 5925,
      "ĠáĭŃáĭ©": 5926,
      "Ã©rie": 5927,
      "Ġgas": 5928,
      "áĭĪáīħ": 5929,
      "formation": 5930,
      "55": 5931,
      "Ġfili": 5932,
      "Ġmaisha": 5933,
      "ĠJune": 5934,
      "Ġalipo": 5935,
      "ĠÉĹa": 5936,
      "ishin": 5937,
      "bÃłdÃłn": 5938,
      "Itokasi": 5939,
      "áĬĵáĮĪ": 5940,
      "Ġconstitu": 5941,
      "01": 5942,
      "ait": 5943,
      "ĠKais": 5944,
      "áĪ°áĪŃ": 5945,
      "ĠáĪĽáĮ£áīĢáĪ»": 5946,
      "agen": 5947,
      "alsa": 5948,
      "Ġalb": 5949,
      "Ko": 5950,
      "pÃ¹": 5951,
      "ĠnÃ¬": 5952,
      "Ġáĭ¨áįĪ": 5953,
      "entomon": 5954,
      "ÃŃnÃŃ": 5955,
      "Ġ1957": 5956,
      "ĠgÃ©": 5957,
      "ĠSak": 5958,
      "áīħáĭ«": 5959,
      "ĠEnugu": 5960,
      "ĠGerman": 5961,
      "ĠIsa": 5962,
      "ĠOpen": 5963,
      "áĬ®áīµ": 5964,
      "ichael": 5965,
      "ĠMuhammadu": 5966,
      "ĠáįĸáĪĪáī²áĬ«": 5967,
      "áĬĺáīµ": 5968,
      "Ġpartir": 5969,
      "jwa": 5970,
      "áĬłáĬķáĭµ": 5971,
      "ĠAlÃ¡": 5972,
      "ĠKaramar": 5973,
      "Ġsouvent": 5974,
      "tical": 5975,
      "ÃºsÃ¹": 5976,
      "Ġ1945": 5977,
      "Ġkáº¹ta": 5978,
      "ĠáĬłáįįáĪªáĬ«": 5979,
      "ĠÃłgbÃ©lÃ©wÃ²": 5980,
      "geme": 5981,
      "Ġwatakatifu": 5982,
      "Ġkimataifa": 5983,
      "Ġderni": 5984,
      "Ã©d": 5985,
      "áĭ©áĪµ": 5986,
      "áī³áĬķ": 5987,
      "ĠáĮ¥áĪ©": 5988,
      "38": 5989,
      "Ġamin": 5990,
      "uts": 5991,
      "ĠáīłáĪħ": 5992,
      "áĬłáĪĪ": 5993,
      "ĠthÃ©": 5994,
      "Ġtime": 5995,
      "ĠAbi": 5996,
      "Ġkawo": 5997,
      "Ġrawar": 5998,
      "Ġcheo": 5999,
      "Î¿": 6000,
      "ichard": 6001,
      "ĠFilm": 6002,
      "sÃł": 6003,
      "ĠáīłáĪĽáĪĪáīµ": 6004,
      "ĠSu": 6005,
      "áĮįáī£áĪŃ": 6006,
      "áĪªáĪµ": 6007,
      "Ġsuiv": 6008,
      "ĠArab": 6009,
      "áĪŃáī¶": 6010,
      "ĠWais": 6011,
      "ĠBorno": 6012,
      "Ġá»Įjá»į": 6013,
      "Ġinclud": 6014,
      "Ġpermet": 6015,
      "Ġconstru": 6016,
      "ench": 6017,
      "ĠLab": 6018,
      "Ġ1959": 6019,
      "áī¥áĪ«áĭŃáĪµáĮ¥": 6020,
      "ĠáĬ¥áĬķáĭ³áĭŃ": 6021,
      "Ġnasar": 6022,
      "ĠnÃŃtorÃŃ": 6023,
      "otes": 6024,
      "Ġcompos": 6025,
      "Ġkusan": 6026,
      "Ġzinazo": 6027,
      "ÃłÃłyÃ¨": 6028,
      "ball": 6029,
      "ĠáĬłáĭ³": 6030,
      "áĭµáĪ®": 6031,
      "ourt": 6032,
      "áīĤáīµ": 6033,
      "ĠáĮīáĭ³áĭŃ": 6034,
      "áĭ®áĪŃáĮĬáĪµ": 6035,
      "Ġede": 6036,
      "ikan": 6037,
      "ague": 6038,
      "ĠáĪ¬": 6039,
      "Ġmmoja": 6040,
      "Ġojo": 6041,
      "ĠÃ¬wá»į": 6042,
      "angwa": 6043,
      "ĠalÃłÃłyÃ¨": 6044,
      "gbÃ¡yÃ©": 6045,
      "ĠáĭĽáĪ¬": 6046,
      "zung": 6047,
      "ciyar": 6048,
      "ween": 6049,
      "Ġkawai": 6050,
      "Ġmuziki": 6051,
      "Ġ1952": 6052,
      "Ġjamii": 6053,
      "Ġyaliyo": 6054,
      "ĠIlimi": 6055,
      "Ġgargajiya": 6056,
      "ĠMy": 6057,
      "ĠáĪ³áĭŃáĬķáĪ³áĭĬ": 6058,
      "CC": 6059,
      "Ġkuk": 6060,
      "Ġsecond": 6061,
      "Å«": 6062,
      "ĠTim": 6063,
      "ĠÃ¬bÃŃláº¹": 6064,
      "ĠNews": 6065,
      "yÃłwÃ³": 6066,
      "ĠpÃłtÃłkÃ¬": 6067,
      "tÃ¡": 6068,
      "lit": 6069,
      "kacin": 6070,
      "irgin": 6071,
      "chungu": 6072,
      "ĠzaÉĵ": 6073,
      "ĠJoseph": 6074,
      "Ġexemple": 6075,
      "áĮ«áĭĪ": 6076,
      "áĪłáĪ¨áī°": 6077,
      "hÃłn": 6078,
      "ĠGáº¹": 6079,
      "ambia": 6080,
      "Ġáī°áĬ¨áī³": 6081,
      "ĠMs": 6082,
      "ies": 6083,
      "amani": 6084,
      "ĠáĪµáī¥áĪµ": 6085,
      "BA": 6086,
      "Ġáį»áį": 6087,
      "Ġvie": 6088,
      "áĪľáīµ": 6089,
      "ĠáĪļáĪĬáĭ®áĬķ": 6090,
      "Ġgwamnan": 6091,
      "Ġáĭ¨áĪļáĮĪáĬĻ": 6092,
      "Ġloc": 6093,
      "Ġáīłáī£": 6094,
      "áĬ®áĬĸ": 6095,
      "ĠChristi": 6096,
      "elui": 6097,
      "áĪµáī´": 6098,
      "ower": 6099,
      "Ðµ": 6100,
      "ĠRobert": 6101,
      "ĠdÃ©velopp": 6102,
      "historia": 6103,
      "Ġrangi": 6104,
      "áĬ¨áĪĭ": 6105,
      "Ġmes": 6106,
      "ĠáĪļáĬĴáĪµáīµ": 6107,
      "ĠáĭŃáĮł": 6108,
      "95": 6109,
      "°áį»áį": 6110,
      "ĠMex": 6111,
      "72": 6112,
      "julo": 6113,
      "ĠkÃ¬": 6114,
      "papá»į": 6115,
      "taka": 6116,
      "áĮŃáĪŃ": 6117,
      "Ġwenyewe": 6118,
      "Ġcal": 6119,
      "Ġáĭ¨áįį": 6120,
      "áĪİáĮĤ": 6121,
      "ĠáĭįáĮŃ": 6122,
      "Ġáĭ°áĪ«áĪ²": 6123,
      "ĠáīłáĪµáī°": 6124,
      "Ġtemps": 6125,
      "ords": 6126,
      "Ġnde": 6127,
      "ikisho": 6128,
      "ĠáĪĺáīħ": 6129,
      "Ġyanki": 6130,
      "Ġfur": 6131,
      "ĠáĬ¨áĪĨáĬĲ": 6132,
      "ĠWilaya": 6133,
      "poque": 6134,
      "ĠdÃł": 6135,
      "ĠRu": 6136,
      "áĮħáĪĿ": 6137,
      "Ġ60": 6138,
      "ĠWomen": 6139,
      "áĭµáĪĺ": 6140,
      "áĪĭáīģ": 6141,
      "qui": 6142,
      "Ġáĭ¨áĪļáĪ°": 6143,
      "Ġambapo": 6144,
      "ĠáĪĥáĭŃáĪĽáĬĸáīµ": 6145,
      "ĠJuli": 6146,
      "ĠáĬķáĮīáĪł": 6147,
      "Sh": 6148,
      "zon": 6149,
      "áĪĭáĮĬ": 6150,
      "ĠLin": 6151,
      "áĬ«áĪŃ": 6152,
      "imba": 6153,
      "ĠáīħáĪŃáĪµ": 6154,
      "Mu": 6155,
      "This": 6156,
      "ĠáĪ²áīĢ": 6157,
      "áĪĻáĬķ": 6158,
      "ĠSoci": 6159,
      "ĠáĮ¸áī£áĭŃ": 6160,
      "Ġáĭ«áĪ³": 6161,
      "Ġá»ĮdÃºn": 6162,
      "pasáº¹": 6163,
      "ii": 6164,
      "mis": 6165,
      "ĠáīłáĬ®": 6166,
      "abawa": 6167,
      "ĠáīµáĪŃáĮīáĪĿ": 6168,
      "2016": 6169,
      "Ġgari": 6170,
      "Ġá»įká»į": 6171,
      "áĬŀáī¹": 6172,
      "Ġresp": 6173,
      "ĠGeorg": 6174,
      "Lugha": 6175,
      "ĠKijerumani": 6176,
      "ester": 6177,
      "áĬĵáĭŃáīµáĭµ": 6178,
      "ful": 6179,
      "sÃ³": 6180,
      "andan": 6181,
      "ĠGold": 6182,
      "aient": 6183,
      "estiv": 6184,
      "ĠáĬ¥áĪĿáĬĲáīµ": 6185,
      "áĪĭáĪµ": 6186,
      "Ġ--": 6187,
      "Ġavant": 6188,
      "Ġtradition": 6189,
      "ĠAustralia": 6190,
      "Ġmtu": 6191,
      "umiwa": 6192,
      "pedia": 6193,
      "ĠAct": 6194,
      "Ġ1958": 6195,
      "Ġgur": 6196,
      "ĠáĬłáĮĭ": 6197,
      "usin": 6198,
      "koki": 6199,
      "ĠolÃ³á¹£Ã¨lÃº": 6200,
      "atho": 6201,
      "ĠOlymp": 6202,
      "ĠHars": 6203,
      "ĠáĪ²áĪĨáĬĳ": 6204,
      "nement": 6205,
      "wari": 6206,
      "Ġknown": 6207,
      "Ġkuf": 6208,
      "áĪ°áĪį": 6209,
      "Ġgrande": 6210,
      "ĠAustria": 6211,
      "Ġimani": 6212,
      "hesabiwa": 6213,
      "ĠdÃº": 6214,
      "ney": 6215,
      "ublique": 6216,
      "ĠRepublic": 6217,
      "ĠIV": 6218,
      "ĠGra": 6219,
      "Ġprob": 6220,
      "Ġplace": 6221,
      "ĠáĪĺáĪĨáĬĳáĬķ": 6222,
      "van": 6223,
      "ĠKal": 6224,
      "Ġru": 6225,
      "atia": 6226,
      "ĠIsra": 6227,
      "ĠáĭŃáīĢáĪ«áĪī": 6228,
      "ĠMpaka": 6229,
      "ĠáĭĪáī³áĭ°": 6230,
      "limfuata": 6231,
      "Ġkyautar": 6232,
      "ĠBiranen": 6233,
      "huwa": 6234,
      "áĬķáĭ²": 6235,
      "emo": 6236,
      "ĠáīłáĬ¦": 6237,
      "exp": 6238,
      "Ġaure": 6239,
      "Ġtex": 6240,
      "velopment": 6241,
      "ĠDelta": 6242,
      "Uni": 6243,
      "Ġmambo": 6244,
      "istes": 6245,
      "wÃ¹": 6246,
      "ament": 6247,
      "ĠAwá»įn": 6248,
      "ĠSci": 6249,
      "ĠÃ¬l": 6250,
      "ĠáĮįáĬķáĬĻ": 6251,
      "ĠáĪĿáĪįáĬŃáīµ": 6252,
      "Ray": 6253,
      "haif": 6254,
      "dad": 6255,
      "áīħáĬĵ": 6256,
      "engene": 6257,
      "ĠáĪµáĪĪáĪĨáĬĲ": 6258,
      "ministr": 6259,
      "dancin": 6260,
      "Ġwakifuata": 6261,
      "Ġsal": 6262,
      "ĠprÃ©sid": 6263,
      "binrin": 6264,
      "Ġprogram": 6265,
      "áĬķáĬŃ": 6266,
      "Ġdonc": 6267,
      "ald": 6268,
      "áĪĺáĪ©": 6269,
      "áĬ¨áĪ¨áĪĿ": 6270,
      "ĠáĮİáĬķ": 6271,
      "áĬŃáĪ²": 6272,
      "áĬ«áĬ¨áĪĪ": 6273,
      "áĮ£áĬķ": 6274,
      "Ġuishe": 6275,
      "istri": 6276,
      "Ġarziki": 6277,
      "Ġshari": 6278,
      "ĠDisamba": 6279,
      "ĠSalaam": 6280,
      "Ġhuadhimisha": 6281,
      "Ġáĭ¨áīħ": 6282,
      "ĠáĭµáĪį": 6283,
      "ĠáĪ¥áįįáĪ«": 6284,
      "rÃ¹": 6285,
      "ĠrÃ©s": 6286,
      "áĪĨáĬĸ": 6287,
      "áĬłáĪµ": 6288,
      "ĠMaria": 6289,
      "chag": 6290,
      "ĠáĭĺáĪĺáĬĵáĭĬ": 6291,
      "ĠapÃ¡": 6292,
      "73": 6293,
      "ushe": 6294,
      "Ġáĭĺáįĭ": 6295,
      "Ġcours": 6296,
      "lus": 6297,
      "Ġer": 6298,
      "ĠGÃ³mÃ¬nÃł": 6299,
      "ĠFed": 6300,
      "ĠInd": 6301,
      "alafu": 6302,
      "Ġtakriban": 6303,
      "ababisha": 6304,
      "ville": 6305,
      "ĠowÃ³": 6306,
      "ĠPal": 6307,
      "56": 6308,
      "irun": 6309,
      "áĮĢáīµ": 6310,
      "ĠáĪ¦áĪµáīµ": 6311,
      "PC": 6312,
      "uropÃ©": 6313,
      "áĮĭáīµ": 6314,
      "Ġbá»į": 6315,
      "Ġzao": 6316,
      "Ġkoyar": 6317,
      "186": 6318,
      "Ġyanayin": 6319,
      "ĠArewacin": 6320,
      "dÃŃnlÃ³gÃºn": 6321,
      "Ġzinabaki": 6322,
      "ĠMed": 6323,
      "ĠáĪµáĪŀáī½": 6324,
      "ouest": 6325,
      "áī¨áĪŃáĪ²": 6326,
      "áĬķáĮİ": 6327,
      "amban": 6328,
      "Ġsoit": 6329,
      "áī£áī³": 6330,
      "fofin": 6331,
      "ĠIjoba": 6332,
      "áīĢáĪ¨": 6333,
      "fawa": 6334,
      "áīłáīµáĬķ": 6335,
      "ĠArt": 6336,
      "shir": 6337,
      "à¤ķ": 6338,
      "Afri": 6339,
      "Ġdaida": 6340,
      "Ġhab": 6341,
      "Ġkwenda": 6342,
      "Ġyammacin": 6343,
      "Ġtri": 6344,
      "áĪµáĭ«": 6345,
      "Shi": 6346,
      "%)": 6347,
      "áĭ°áĬķ": 6348,
      "omp": 6349,
      "ĠAdÃ©": 6350,
      "áīħáĪµáīĥ": 6351,
      "llo": 6352,
      "arar": 6353,
      "Ġtaron": 6354,
      "ĠáīµáĪĿáĪħáĪŃ": 6355,
      "Ġndogo": 6356,
      "ungiyoyin": 6357,
      "orÃŃ": 6358,
      "Ġhim": 6359,
      "other": 6360,
      "áĮª": 6361,
      "áīĢáĮ¥": 6362,
      "Ġonimo": 6363,
      "Ġáĭ«áĪĪáĭįáĬķ": 6364,
      "gor": 6365,
      "Ġaz": 6366,
      "Ġnam": 6367,
      "áĭ²áĭ®": 6368,
      "ĠáĪĺáĪ°áĪ¨áīµ": 6369,
      "Ġif": 6370,
      "áĭĪáĭŃáĪĿ": 6371,
      "Ġmakuu": 6372,
      "ĠWam": 6373,
      "áĪµáĪĪáĭļáĪħ": 6374,
      "ĠKaisari": 6375,
      "áīħáĪµáīĥáĪ´": 6376,
      "Ġphilosop": 6377,
      "alÃ¡Ã¬sÃŃ": 6378,
      "Ġfois": 6379,
      "áĮĪáĪ«": 6380,
      "NA": 6381,
      "irc": 6382,
      "vice": 6383,
      "44": 6384,
      "Lo": 6385,
      "Ġkashe": 6386,
      "ĠFabra": 6387,
      "dis": 6388,
      "ĠáĬ¨áĭĪ": 6389,
      "ĠáĪĿáĭķáĪ«áī¥": 6390,
      "ĠÃītats": 6391,
      "imi": 6392,
      "Ġtour": 6393,
      "Ġáīłáī°áĪĪ": 6394,
      "Awon": 6395,
      "áĪĽáĪ½": 6396,
      "Ġiwe": 6397,
      "áĪĿáįĴ": 6398,
      "ogin": 6399,
      "ĠáĮ½áĪķ": 6400,
      "Ġmpaka": 6401,
      "ĠáĬŃáĪŃáĪµáī²áĭ«": 6402,
      "hamia": 6403,
      "kwas": 6404,
      "ultur": 6405,
      "Ġtalabijin": 6406,
      "Ġencore": 6407,
      "jÃ³": 6408,
      "Ġwork": 6409,
      "ĠBlack": 6410,
      "2010": 6411,
      "Ġáī°áĪ«áĪ«": 6412,
      "Ġsamo": 6413,
      "Ġmer": 6414,
      "áĪĿáī¥": 6415,
      "2009": 6416,
      "darÃŃ": 6417,
      "yam": 6418,
      "áĬ¥áĬĲáĭļáĪħ": 6419,
      "fazi": 6420,
      "ivyo": 6421,
      "Ġ1956": 6422,
      "ĠáĬĲáĮĪáĪł": 6423,
      "Ġkabla": 6424,
      "Ġliv": 6425,
      "ĠáĭŃáĭŀ": 6426,
      "áĪ°áīµ": 6427,
      "tein": 6428,
      "Ãªte": 6429,
      "onais": 6430,
      "orte": 6431,
      "ables": 6432,
      "ĠáĮĪáĮ½": 6433,
      "Ġneno": 6434,
      "Ġtakwas": 6435,
      "Ġáĭ¨áĪ´": 6436,
      "Ġkashi": 6437,
      "ube": 6438,
      "Ġkarshe": 6439,
      "ĠQue": 6440,
      "Ġmakabila": 6441,
      "alsafa": 6442,
      "Ġáį©": 6443,
      "Ġá»įba": 6444,
      "áĬ¥áĬķáĭ²": 6445,
      "ice": 6446,
      "Ġmemb": 6447,
      "ĠBau": 6448,
      "ĠáīµáĪŃ": 6449,
      "Ġcontre": 6450,
      "98": 6451,
      "Â»)": 6452,
      "yr": 6453,
      "Ġdest": 6454,
      "ĠáįĪáĪŃáĭĸáĬķ": 6455,
      "Ġtá»į": 6456,
      "Ġmemba": 6457,
      "Ġdamar": 6458,
      "Ġwrit": 6459,
      "akana": 6460,
      "wiwa": 6461,
      "Wakristo": 6462,
      "atini": 6463,
      "urt": 6464,
      "Ġáĭ¨áĪ®": 6465,
      "ayya": 6466,
      "ĠBrazil": 6467,
      "utt": 6468,
      "ĠáĪµáĪĭ": 6469,
      "Ġáĭ¨áĪĪáĪĿ": 6470,
      "atif": 6471,
      "gbÃ³": 6472,
      "ĠJu": 6473,
      "ico": 6474,
      "cole": 6475,
      "Ġterrito": 6476,
      "ĠáĬĽ": 6477,
      "Ġtura": 6478,
      "Ġmen": 6479,
      "urch": 6480,
      "áĪĺáĬĵ": 6481,
      "Ġinay": 6482,
      "oll": 6483,
      "Ġacikin": 6484,
      "ĠTarihi": 6485,
      "ix": 6486,
      "anai": 6487,
      "pindu": 6488,
      "ĠPakistan": 6489,
      "mÃ²": 6490,
      "áĭ°áĪµ": 6491,
      "ĠáĮĭáĪ«": 6492,
      "irÃŃ": 6493,
      "ĠKK": 6494,
      "ĠáįįáĪ¬": 6495,
      "Ġfilin": 6496,
      "Ġ2021": 6497,
      "lished": 6498,
      "ĠáĬłáĪīáīµ": 6499,
      "pewa": 6500,
      "):": 6501,
      "baki": 6502,
      "ĠId": 6503,
      "Ġquel": 6504,
      "áĬķáĮĮ": 6505,
      "Awá»įn": 6506,
      "ĠkÃł": 6507,
      "Ġmont": 6508,
      "Ġáĭ¨áĬ¨": 6509,
      "Ġwhen": 6510,
      "Ġegbe": 6511,
      "ĠáĭįáĪĢ": 6512,
      "sÃŃtÃ¬": 6513,
      "kur": 6514,
      "Ġdab": 6515,
      "Ġáĭ¨áĪ±": 6516,
      "ollow": 6517,
      "áĮłáĪĪ": 6518,
      "Ġdirect": 6519,
      "rist": 6520,
      "ĠáĪĺáĮį": 6521,
      "ĠáĭķáĪĪáī°": 6522,
      "kia": 6523,
      "áĮłáīµ": 6524,
      "ĠInstit": 6525,
      "ĬáĭľáĪĿ": 6526,
      "Ġsauransu": 6527,
      "ĠáĪįáĮģ": 6528,
      "áĬĽáĭįáĪĿ": 6529,
      "áĭ³áĭµ": 6530,
      "áĬ£": 6531,
      "Ġáĭ¨áīł": 6532,
      "Ġcro": 6533,
      "2014": 6534,
      "ĠYoruba": 6535,
      "ker": 6536,
      "zation": 6537,
      "Ġani": 6538,
      "led": 6539,
      "áī¥áĪŃáĪĥ": 6540,
      "viron": 6541,
      "estival": 6542,
      "Ġx": 6543,
      "Ġngu": 6544,
      "asayansi": 6545,
      "Ġbro": 6546,
      "ĠWá»į": 6547,
      "ĠáĭŃáĪĺ": 6548,
      "ĠÃ¬dÃ¡": 6549,
      "Ġakoko": 6550,
      "Ġáīª": 6551,
      "quement": 6552,
      "ĠGen": 6553,
      "chni": 6554,
      "ules": 6555,
      "Ġthan": 6556,
      "Ġáĭ¨áĮĭ": 6557,
      "utan": 6558,
      "ĠDu": 6559,
      "taire": 6560,
      "áĭĿáĪĿ": 6561,
      "duc": 6562,
      "ĠÃĮbÃłdÃłn": 6563,
      "ĠáīłáĪĺáĪĨáĬķ": 6564,
      "Ġkáº¹rin": 6565,
      "Ge": 6566,
      "ĠKin": 6567,
      "ĠBest": 6568,
      "ĠOmo": 6569,
      "ĠÆĻars": 6570,
      "ÉĹu": 6571,
      "Ġbetween": 6572,
      "ĠáĬ¨áĪĿ": 6573,
      "ĠCong": 6574,
      "ĠRiver": 6575,
      "ists": 6576,
      "áĪ²áĭ«": 6577,
      "Ġpolitique": 6578,
      "zuri": 6579,
      "ating": 6580,
      "Ġáī°áĮĪ": 6581,
      "Ġáī¢áĭ«": 6582,
      "Ġtaken": 6583,
      "ĠlÃ²": 6584,
      "Ã¬má»į": 6585,
      "áĪİáī¹": 6586,
      "41": 6587,
      "Duk": 6588,
      "Ġname": 6589,
      "Ġhut": 6590,
      "jenga": 6591,
      "áīłáĬĭáĪĭ": 6592,
      "Ġáĭ«áĭĺ": 6593,
      "Ġ),": 6594,
      "ĠÃłÃł": 6595,
      "ĠlÃ¡báº¹": 6596,
      "Ġidi": 6597,
      "ĠPop": 6598,
      "ĠOf": 6599,
      "áįįáĬķ": 6600,
      "áĬ«áĬ¤áĪį": 6601,
      "Ġáĭ¨áĬłáĭ¨áĪŃ": 6602,
      "ories": 6603,
      "anth": 6604,
      "ĠáĭįáĪĥ": 6605,
      "áīĤáĭ«": 6606,
      "Ġgroup": 6607,
      "umar": 6608,
      "ĠáīłáĬ¤": 6609,
      "Ġwasannin": 6610,
      "ĠIbn": 6611,
      "Ġmshairi": 6612,
      "ĠfranÃ§aise": 6613,
      "Ġmakubwa": 6614,
      "Ġsignif": 6615,
      "ek": 6616,
      "Ġsaba": 6617,
      "koto": 6618,
      "ĠMac": 6619,
      "sive": 6620,
      "Ġáī£áĪķáĪŃ": 6621,
      "ĠLouis": 6622,
      "Ġinv": 6623,
      "ĠBook": 6624,
      "ithi": 6625,
      "ĠáĪłáĪ«áĭĬáīµ": 6626,
      "áī¨áĪŃáĪ²áī²": 6627,
      "patikana": 6628,
      "Ġgbe": 6629,
      "ĠáĪĪáĪļ": 6630,
      "Ġshekarun": 6631,
      "Ġabubuwan": 6632,
      "Ġayáº¹": 6633,
      "fuatwa": 6634,
      "ĠAj": 6635,
      "lementi": 6636,
      "áĭ«áĪľ": 6637,
      "iken": 6638,
      "ĠáīłáĪĭ": 6639,
      "Ġfound": 6640,
      "Ġcentury": 6641,
      "Agbegbe": 6642,
      "ayin": 6643,
      "Ġpeople": 6644,
      "liya": 6645,
      "ĠáĮĥ": 6646,
      "Ġip": 6647,
      "ĠJamus": 6648,
      "Ġáįªáį»áį": 6649,
      "89": 6650,
      "fen": 6651,
      "ĠMos": 6652,
      "abba": 6653,
      "ĠGabas": 6654,
      "pro": 6655,
      "rement": 6656,
      "áīłáĬłáĪ": 6657,
      "ĠSah": 6658,
      "Ġáī°áĮ½": 6659,
      "áĬ¨áī°áĪĽáĭį": 6660,
      "atis": 6661,
      "ĠáĪĿáĬķáĮĬáĭľáĪĿ": 6662,
      "John": 6663,
      "haji": 6664,
      "iction": 6665,
      "Ġibn": 6666,
      "chukua": 6667,
      "ratic": 6668,
      "Ġparticuli": 6669,
      "Ø©": 6670,
      "Ġnipa": 6671,
      "ĠáĭŃáīĨ": 6672,
      "wane": 6673,
      "ĠáĬłáĭĭ": 6674,
      "âĢ¹": 6675,
      "ple": 6676,
      "sÃ¨": 6677,
      "Ġcelui": 6678,
      "ĠCali": 6679,
      "rÃ©s": 6680,
      "htm": 6681,
      "Ġmwezi": 6682,
      "Ġáĭ¨áįĬ": 6683,
      "eto": 6684,
      "Ġhalafu": 6685,
      "ĠáĪ²áĪį": 6686,
      "ovuti": 6687,
      "ĠIbile": 6688,
      "ĠáĬłáĪ«áīµ": 6689,
      "Ġsakandare": 6690,
      "Ġcig": 6691,
      "ÃºÃºsÃ¹": 6692,
      "mark": 6693,
      "Ġpersonn": 6694,
      "áĪĨáĬĸáĪĿ": 6695,
      "ĠBC": 6696,
      "áĪªáīĥ": 6697,
      "ĠáĬłáĪįáī°": 6698,
      "ĠWal": 6699,
      "ĠáĪĬáīĥ": 6700,
      "Ġ1951": 6701,
      "Ġband": 6702,
      "ĠáĪ°áĬĲ": 6703,
      "Ġkuji": 6704,
      "áī¸áĭī": 6705,
      "Ġsojo": 6706,
      "Ġmuka": 6707,
      "val": 6708,
      "xim": 6709,
      "Ġ+": 6710,
      "Ġnation": 6711,
      "ĠÃ©le": 6712,
      "ĠdÃ©but": 6713,
      "Ġ70": 6714,
      "áĬķáĮīáĪ¥": 6715,
      "áĬķáī¥": 6716,
      "ĠKig": 6717,
      "áĪīáĬķ": 6718,
      "tra": 6719,
      "ĠáīĦ": 6720,
      "áĭŃáĪģ": 6721,
      "Ġjiki": 6722,
      "ĠáĬĲáĮ¥": 6723,
      "Ġ1948": 6724,
      "----": 6725,
      "Ġorgan": 6726,
      "áī¡áĬķ": 6727,
      "ĠrÃ©fÃ©r": 6728,
      "Ġsour": 6729,
      "Ġmama": 6730,
      "Ġlib": 6731,
      "ĠáįĮ": 6732,
      "Ġhizo": 6733,
      "áīģáīµ": 6734,
      "ĠÉĹin": 6735,
      "Ġhaifar": 6736,
      "Ġtsohuwar": 6737,
      "gemea": 6738,
      "mah": 6739,
      "ĠNollywood": 6740,
      "undin": 6741,
      "gani": 6742,
      "áĬķáīĢ": 6743,
      "Ġ(;": 6744,
      "ties": 6745,
      "ternet": 6746,
      "Ġyears": 6747,
      "ĠáĮĬáĭ®áĪŃáĮĬáĪµ": 6748,
      "view": 6749,
      "áī¥áĬĽ": 6750,
      "áĬķáĮįáĪį": 6751,
      "ĠáīĨáĭŃ": 6752,
      "ĠáĭĪáĮ¥": 6753,
      "áĪįáĪµáįįáĬĵ": 6754,
      "Ġfonction": 6755,
      "zani": 6756,
      "lafazi": 6757,
      "ĠáĬłáĪĺáī³áīµ": 6758,
      "Ġhannun": 6759,
      "ĠáĮĮáī³": 6760,
      "Ġmusi": 6761,
      "Ġgi": 6762,
      "Ġáī°áĬŃáĪį": 6763,
      "áĪĬáĬķ": 6764,
      "Ġwar": 6765,
      "Ġjá»į": 6766,
      "ĠTai": 6767,
      "Ġ1940": 6768,
      "ĠSudan": 6769,
      "ĠáĪĺáĮ»áĪķáįįáīµ": 6770,
      "ĠRichard": 6771,
      "ĠáĪĬáīĢ": 6772,
      "Ġ1930": 6773,
      "ĠIm": 6774,
      "uter": 6775,
      "sili": 6776,
      "ĠáĮĪáĭ¥": 6777,
      "hiri": 6778,
      "áĪĺáĮ¥": 6779,
      "áĪĽáĭįáĭ«áĬķ": 6780,
      "chÃ©": 6781,
      "Ġkaya": 6782,
      "ĠáĪĨáĬĳ": 6783,
      "ĠáĬłáĭĺ": 6784,
      "áĪªáĬ®áī½": 6785,
      "áĬ«áĪĦ": 6786,
      "Ġleurs": 6787,
      "Ġkansa": 6788,
      "áĪĪáīĢ": 6789,
      "Ġind": 6790,
      "Hak": 6791,
      "Ġpouv": 6792,
      "áĪ¨áĪŃ": 6793,
      "Ġunder": 6794,
      "ĠáĭŃáĮĪáĬĽáĪī": 6795,
      "43": 6796,
      "wer": 6797,
      "ĠáĬĥ": 6798,
      "Ġganin": 6799,
      "Ġwur": 6800,
      "ĠÃłjá»į": 6801,
      "ĠTer": 6802,
      "Ġhuk": 6803,
      "Ġharkokin": 6804,
      "Ġgbá»į": 6805,
      "Ġambazo": 6806,
      "Ġiyaka": 6807,
      "áī·áĬķ": 6808,
      "Ġkuliko": 6809,
      "Ġfitar": 6810,
      "Ġáĭ¨áĪļáĮĪáĬĿáīłáīµ": 6811,
      "ĠáĬ¥áĬ©áĪį": 6812,
      "Ġáĭ¨áīĢáĭµáĪŀ": 6813,
      "::": 6814,
      "by": 6815,
      "owe": 6816,
      "ensa": 6817,
      "ĠtÃŃtÃŃ": 6818,
      "áĬĴáĪįáĬŃ": 6819,
      "ĠLim": 6820,
      "Ġáĭķáĭµ": 6821,
      "ĠáīłáĬłáĪģáĬĳ": 6822,
      "áĭŃáĪħáĪĿ": 6823,
      "Ġsyn": 6824,
      "ĠKamusi": 6825,
      "Af": 6826,
      "Ġ×": 6827,
      "ĠÉĵ": 6828,
      "Ġmort": 6829,
      "iles": 6830,
      "ĠáįĴ": 6831,
      "ĠáīłáĪĢ": 6832,
      "ĠáĪĺáĬķáĮįáĪ¥áī³áīµ": 6833,
      "dogo": 6834,
      "Ġtous": 6835,
      "Ġsáº¹": 6836,
      "ument": 6837,
      "rich": 6838,
      "áįĬáĭ«": 6839,
      "ĠBauchi": 6840,
      "Mat": 6841,
      "Ġsou": 6842,
      "áĪ°áĪĽ": 6843,
      "Ġ1954": 6844,
      "ĠáīĤ": 6845,
      "Ġaj": 6846,
      "ator": 6847,
      "ĠMary": 6848,
      "Ġkudancin": 6849,
      "áĬĲáĮį": 6850,
      "row": 6851,
      "ĠáĬłáīĢáįį": 6852,
      "adarwa": 6853,
      "Ġnufin": 6854,
      "Ġtur": 6855,
      "ĠáĬ¨áī£": 6856,
      "ĠáīłáĪŀ": 6857,
      "Ġterme": 6858,
      "áĭŀáī½": 6859,
      "Ġserv": 6860,
      "hai": 6861,
      "ĠIr": 6862,
      "rian": 6863,
      "ĠRoyal": 6864,
      "Ġsystem": 6865,
      "Ġselon": 6866,
      "ĠSab": 6867,
      "Ġáĭ¨áĪģ": 6868,
      "ulin": 6869,
      "limia": 6870,
      "ĠLiber": 6871,
      "ged": 6872,
      "alitÃ©": 6873,
      "ection": 6874,
      "Ġáī¥áĪĶáĪŃ": 6875,
      "Ġhivi": 6876,
      "Ġwatumwa": 6877,
      "Ġkutumia": 6878,
      "ĠáĬłáĮĪáĪįáĮįáĪİáīµ": 6879,
      "ĠWaislamu": 6880,
      "ain": 6881,
      "ues": 6882,
      "ĠAkin": 6883,
      "did": 6884,
      "Ġonly": 6885,
      "áĭ°áĪŃáĮį": 6886,
      "angaza": 6887,
      "ĠUsman": 6888,
      "Ġtiti": 6889,
      "Ġáī°áĮ«": 6890,
      "ĠáĬŃáĪĪáī¥": 6891,
      "ĠáĮĪáī¥áĪ¨": 6892,
      "....": 6893,
      "áĭ¨áĪ©": 6894,
      "áĮĬáĭľáĭį": 6895,
      "ĠDon": 6896,
      "ught": 6897,
      "Ġstr": 6898,
      "ĠáĬĲáĮĪáĪ¥áīµ": 6899,
      "Ġáĭ¨áĭĵáĪĺáī±": 6900,
      "áįı": 6901,
      "ĠMwaka": 6902,
      "stan": 6903,
      "Ġwatsa": 6904,
      "ĠhuÉĹu": 6905,
      "Ġsaman": 6906,
      "arufu": 6907,
      "bes": 6908,
      "ĠHistory": 6909,
      "Ġáĭ¨áĬĲáĮĪ": 6910,
      "áĮĬáĭ«": 6911,
      "Ġorigin": 6912,
      "áĭ·": 6913,
      "etu": 6914,
      "Ġáĭ¨áĬĲáīłáĪ©áīµ": 6915,
      "ĠMichael": 6916,
      "Ġoko": 6917,
      "Ġmay": 6918,
      "ĠáĬ¥áĬķáīħáĪµáīĥáĪ´": 6919,
      "jiji": 6920,
      "ĠÃ©crit": 6921,
      "ridge": 6922,
      "ĠGod": 6923,
      "ĠáīłáĪĺáī£áĪį": 6924,
      "lisha": 6925,
      "ĠgboyÃ¨": 6926,
      "Ġibile": 6927,
      "Ġáĭ¨áī°áī£áĪĪ": 6928,
      "Ġnational": 6929,
      "Ġnahiyar": 6930,
      "Ġkuta": 6931,
      "abwe": 6932,
      "Ġjumla": 6933,
      "Ġhayo": 6934,
      "Ġáĭ¨áĪļáĪ°áĪ«": 6935,
      "ĠAmani": 6936,
      "Ġ1947": 6937,
      "ĠBurtaniya": 6938,
      "kaa": 6939,
      "ĠáĬ¨áĮį": 6940,
      "ĠPres": 6941,
      "áĬ¨áĬĵ": 6942,
      "oly": 6943,
      "ultani": 6944,
      "omina": 6945,
      "ĠyÃłn": 6946,
      "ices": 6947,
      "ĠâĢ¹": 6948,
      "ĠGrand": 6949,
      ")áį¢": 6950,
      "áĭŃáĪį": 6951,
      "áĪ³áĪ°": 6952,
      "jÃ¡de": 6953,
      "ĠOrÃŃláº¹": 6954,
      "Ġáĭ¨áĮĢáĪŃáĪĺáĬķ": 6955,
      "ĠáĬłáĬĵ": 6956,
      "ĠEr": 6957,
      "lÃ©e": 6958,
      "Yana": 6959,
      "ĠáĪĺáĬ®": 6960,
      "ĠGasar": 6961,
      "ciya": 6962,
      "Ġáĭ«áĪĭáī¸áĭį": 6963,
      "Ġsuite": 6964,
      "Ġaskofu": 6965,
      "ĠáĬłáĪµáįĪ": 6966,
      "Ġulio": 6967,
      "Ġmengi": 6968,
      "áĬĵáĮĪáĪŃ": 6969,
      "ĠdÃ©si": 6970,
      "ding": 6971,
      "ĠáĬ¨áĮ¥": 6972,
      "cus": 6973,
      "ĠáĬłáĮł": 6974,
      "ĠFrench": 6975,
      "ĠáĪºáĪħ": 6976,
      "ĠáĬ¨áĪµ": 6977,
      "Ġnew": 6978,
      "áĭ±áīµ": 6979,
      "Ġáī°áĪĺáĪ³áĪ³áĭŃ": 6980,
      "pande": 6981,
      "enga": 6982,
      "Ġpap": 6983,
      "Ġrana": 6984,
      "ĠáĪĺáĪ£": 6985,
      "dian": 6986,
      "ĠáĪĽáĬħ": 6987,
      "ĠÉĹari": 6988,
      "Ġsabon": 6989,
      "kuna": 6990,
      "tÃº": 6991,
      "Ġtaba": 6992,
      "ĠáĬ¥áĪĿ": 6993,
      "Ġáĭ¨áĪĨáĬĲáĭį": 6994,
      "Ġpu": 6995,
      "papa": 6996,
      "ĠáĪĬáĭ«": 6997,
      "Ġgouver": 6998,
      "rÃ©e": 6999,
      "ĠáĮĢáĪŃáĪĺáĬķ": 7000,
      "ĠThomas": 7001,
      "áĬ®áĬĸáĪļ": 7002,
      "ĠAma": 7003,
      "ayÃ©": 7004,
      "Ġfamilia": 7005,
      "Ġgroupe": 7006,
      "onom": 7007,
      "isan": 7008,
      "ĠKÃ¡": 7009,
      "ĠHigh": 7010,
      "Ġhaya": 7011,
      "jejen": 7012,
      "ĠwÃ¡yÃ©": 7013,
      "ĠáīµáĬķáĪ½": 7014,
      "ĠMisri": 7015,
      "áĪįáĮĭ": 7016,
      "Ġrem": 7017,
      "ĠCO": 7018,
      "inguis": 7019,
      "Ġ36": 7020,
      "So": 7021,
      "ĠspÃ©": 7022,
      "ĠáĪµáĬķ": 7023,
      "áĪ¥áĪ«": 7024,
      "2008": 7025,
      "ĠáĪĪáĪĽáĪµ": 7026,
      "Ġduring": 7027,
      "Ġabu": 7028,
      "Ġpass": 7029,
      "ĠUN": 7030,
      "ĠáĬłáī£áĪĭáīµ": 7031,
      "Ġáĭ°áĪ´áīµ": 7032,
      "hÃ¬n": 7033,
      "ĠtÃ¬": 7034,
      "ĠÃ¬rÃ²yÃ¬n": 7035,
      "ieux": 7036,
      "ĠlÃ³rÃŃláº¹": 7037,
      "Ġgege": 7038,
      "Babban": 7039,
      "Jihar": 7040,
      "inin": 7041,
      "Ġapa": 7042,
      "ĠcÃ´": 7043,
      "umika": 7044,
      "andika": 7045,
      "TV": 7046,
      "ãĤ": 7047,
      "orig": 7048,
      "Ġweb": 7049,
      "áĭ³áĪª": 7050,
      "Ġclassi": 7051,
      "Ġjo": 7052,
      "áĪĭáĪĭ": 7053,
      "2011": 7054,
      "Ġáĭ¨áĬłáĭįáĪ®áįĵ": 7055,
      "58": 7056,
      "Ġcho": 7057,
      "Ġciv": 7058,
      "lay": 7059,
      "Ġcommer": 7060,
      "07": 7061,
      "PP": 7062,
      "áĬĲáĬĽ": 7063,
      "embe": 7064,
      "sible": 7065,
      "ĠáĬłáĪĿáī£": 7066,
      "wahi": 7067,
      "Ġphysi": 7068,
      "ĠKanada": 7069,
      "illar": 7070,
      "onyesha": 7071,
      "Ġcibiyar": 7072,
      "Ġtabbatar": 7073,
      "Nchi": 7074,
      "áĬĲáĪ£": 7075,
      "Ġika": 7076,
      "utes": 7077,
      "ĠáĮįáĭµ": 7078,
      "Ġgabas": 7079,
      "ĠáĬłáĮį": 7080,
      "ĠTar": 7081,
      "áĬŃáĪŃáĪµáī¶áĪµ": 7082,
      "ĠáĬ¥áĪ«áĪ±": 7083,
      "Ġáĭ¨áĬ¡": 7084,
      "ĠRec": 7085,
      "ĠáīĥáĪĭáīµ": 7086,
      "ĠáĬŃáįįáĪĭáĮĪáĪŃ": 7087,
      "ĠGirl": 7088,
      "cil": 7089,
      "kn": 7090,
      "eland": 7091,
      "umm": 7092,
      "Ġsakamakon": 7093,
      "Ġmallaka": 7094,
      "Ġjap": 7095,
      "Ġhuwa": 7096,
      "ĠyÃł": 7097,
      "Ġeyi": 7098,
      "ĠáĮĢáĪĺáĪ¨": 7099,
      "imbabwe": 7100,
      "Ġmit": 7101,
      "emu": 7102,
      "ĠOyo": 7103,
      "ĠYesu": 7104,
      "upi": 7105,
      "ĠáĭĵáĭŃáĬĲáīµ": 7106,
      "¢áīµáĭ®áĮµáĭ«áĬķ": 7107,
      "Ġmajor": 7108,
      "olowo": 7109,
      "Ġdim": 7110,
      "tÃ©r": 7111,
      "áī£áī¢áĪİáĬķ": 7112,
      "Ġáī°áĬ¨áī³áĭŃ": 7113,
      "áĪ¯áĪį": 7114,
      "Hivyo": 7115,
      "Ġyaki": 7116,
      "uruki": 7117,
      "Ã¬wÃ©": 7118,
      "Ġzaune": 7119,
      "áĪİáĪµ": 7120,
      "ĠMusic": 7121,
      "Ġgirm": 7122,
      "ĠHausawa": 7123,
      "Ġami": 7124,
      "ĠJapon": 7125,
      "03": 7126,
      "Ġmani": 7127,
      "ident": 7128,
      "odo": 7129,
      "ĠáĮ£áĪį": 7130,
      "97": 7131,
      "onin": 7132,
      "Ġáĭ¨áĪ«áĪ±": 7133,
      "Ġáī°áĭ°áĪŃ": 7134,
      "ĠáĪ°áĪŃ": 7135,
      "ĠáīĢáĭŃ": 7136,
      "áĮİáī½": 7137,
      "itali": 7138,
      "ĠáĮĦ": 7139,
      "Ġá»įlá»į": 7140,
      "hind": 7141,
      "2002": 7142,
      "Ġ1953": 7143,
      "Ġtrava": 7144,
      "ĠpÃ©riode": 7145,
      "áĬķáĮ»": 7146,
      "ĠáīłáĬ«": 7147,
      "ĠKwam": 7148,
      "Ġvis": 7149,
      "2017": 7150,
      "Ġyanayi": 7151,
      "ryen": 7152,
      "Ġlittafin": 7153,
      "tÃºn": 7154,
      "Ġhistori": 7155,
      "ĠáĪµáĭ«áĪľ": 7156,
      "áĬķáĮįáĪ¥áīµ": 7157,
      "ĠInstitute": 7158,
      "ĠáĪĿáĪħ": 7159,
      "oles": 7160,
      "ashington": 7161,
      "gine": 7162,
      "yle": 7163,
      "Ġáĭ¨áĪħáĭĿáī¥": 7164,
      "100": 7165,
      "93": 7166,
      "Ġzane": 7167,
      "ohann": 7168,
      "ĠáĪĺáĪįáĬ©": 7169,
      "acc": 7170,
      "Ġndi": 7171,
      "Ġfulani": 7172,
      "ĠoyÃ¨": 7173,
      "áĭµáĪ¨": 7174,
      "Ġipo": 7175,
      "ston": 7176,
      "ities": 7177,
      "Ãªt": 7178,
      "áĪĽáī¸áĭį": 7179,
      "Ġáĭ°áī¥": 7180,
      "Ġmats": 7181,
      "Ġtaifa": 7182,
      "Ġmakao": 7183,
      "ĠBiblia": 7184,
      "áī³áĪĿ": 7185,
      "ĠYuni": 7186,
      "áīĭáīĭ": 7187,
      "unifÃ¡sÃŃtÃ¬": 7188,
      "ĠáĬŃáĪŃ": 7189,
      "oud": 7190,
      "endre": 7191,
      "Ġ80": 7192,
      "áĪªáī³áĬķáĭ«": 7193,
      "Ġhana": 7194,
      "cont": 7195,
      "áĪĪáī±": 7196,
      "Ġáī¤áī¶áī½": 7197,
      "Orodha": 7198,
      "Ġuko": 7199,
      "Ġsho": 7200,
      "Ġmv": 7201,
      "ÉĹin": 7202,
      "Ġjiho": 7203,
      "Ġkyau": 7204,
      "Tari": 7205,
      "ĠáĮ¤": 7206,
      "ĠSup": 7207,
      "olf": 7208,
      "ĠKingdom": 7209,
      "ĠáĬĽáĭį": 7210,
      "Ġaff": 7211,
      "áĪŃáĬĵ": 7212,
      "ĠNg": 7213,
      "Ġáĭ¨áĪĻáĭļáīĥ": 7214,
      "ĠáĮįáĬķáĬĻáĬĲáīµ": 7215,
      "inter": 7216,
      "ĠáīłáĭŃ": 7217,
      "ĠjÃ©": 7218,
      "ĠOlÃº": 7219,
      "iques": 7220,
      "Ġfadin": 7221,
      "Ġriki": 7222,
      "Ġanti": 7223,
      "Ġshafi": 7224,
      "ĠGreg": 7225,
      "áįĲáī¥áĪĬáĬŃ": 7226,
      "ĠsystÃ¨me": 7227,
      "Kar": 7228,
      "pia": 7229,
      "Ġlanga": 7230,
      "amare": 7231,
      "áĮįáĪĽáĭĬ": 7232,
      "áĪµáīµáĪª": 7233,
      "ĠáĬ¥áĪµáĬ«": 7234,
      "Ãºpá»į": 7235,
      "áĮįáĬĵ": 7236,
      "Ġ1946": 7237,
      "Bi": 7238,
      "Far": 7239,
      "ĠBak": 7240,
      "tÃłgÃ©": 7241,
      "vant": 7242,
      "Ġcelle": 7243,
      "entes": 7244,
      "Ġzo": 7245,
      "ĠáĪĿáĭķáĪ«": 7246,
      "ĠRoman": 7247,
      "ĠáĬ¥áĬķáĭ´áīµ": 7248,
      "ĠAgusta": 7249,
      "Ġkitu": 7250,
      "Ġkufuatana": 7251,
      "Ġrike": 7252,
      "Ġjar": 7253,
      "Ġkiasi": 7254,
      "Ã´le": 7255,
      "Hasa": 7256,
      "cr": 7257,
      "ayen": 7258,
      "ĠEli": 7259,
      "ovu": 7260,
      "Ġá»Įba": 7261,
      "ĠOffi": 7262,
      "sÃ¡ra": 7263,
      "ĠáĭĭáĮĭ": 7264,
      "enza": 7265,
      "Ġáĭ¨áĪį": 7266,
      "ĠWah": 7267,
      "kula": 7268,
      "áįĸáĪŃáīµ": 7269,
      "Ġbuk": 7270,
      "ÉĹi": 7271,
      "Waliofariki": 7272,
      "ĠKibantu": 7273,
      "ĠCongress": 7274,
      "aribi": 7275,
      "over": 7276,
      "áĮ»áįĪ": 7277,
      "áĮłáī¥": 7278,
      "áī¢áĭŃ": 7279,
      "Ġkok": 7280,
      "ĠáĪģáĪĪáī°áĬĽ": 7281,
      "OR": 7282,
      "site": 7283,
      "Ġáĭ©áĬĴáī¨áĪŃáĪ²áī²": 7284,
      "otun": 7285,
      "jáº¹sÃ¡ra": 7286,
      "Ġyawancin": 7287,
      "ĠáĬłáĭįáĪ«": 7288,
      "ĠKifaransa": 7289,
      "áĮĭáĮĪáĪŃ": 7290,
      "ĠáĬ¨áĭļáĭ«áĪĿ": 7291,
      "ĠAlexander": 7292,
      "inc": 7293,
      "Ġmy": 7294,
      "ĠTsa": 7295,
      "ĠUm": 7296,
      "ĠAssociation": 7297,
      "ĠFrank": 7298,
      "ĠáĮ¨áĪĿáĪ®": 7299,
      "ĠMartin": 7300,
      "gÃ³": 7301,
      "ĠÃłgbÃ¡yÃ©": 7302,
      "ĠIk": 7303,
      "ried": 7304,
      "ĠÃ©lect": 7305,
      "AR": 7306,
      "Ġyakin": 7307,
      "Ġdashi": 7308,
      "elli": 7309,
      "ĠCam": 7310,
      "ecti": 7311,
      "ĠamÃ©rica": 7312,
      "2013": 7313,
      "áįĬáĭİáī½": 7314,
      "Ġwadannan": 7315,
      "áīĢáĪĺáĮ«": 7316,
      "Ġbangaren": 7317,
      "ĠáĮ½áĪķáįĪáīµ": 7318,
      "Ø³": 7319,
      "ĠBos": 7320,
      "áīħáĭ«áĬĸáĪµ": 7321,
      "vement": 7322,
      "ĠGree": 7323,
      "Ġáī°áĪĺáĪį": 7324,
      "no": 7325,
      "Ġpub": 7326,
      "áī¹áĬķ": 7327,
      "áĭ°áī¥áĪ¨": 7328,
      "irobi": 7329,
      "ĠSahara": 7330,
      "ĠAwon": 7331,
      "ĠáĬłáĬŃ": 7332,
      "áĬŃáĪĿáĬĵ": 7333,
      "ĠáīłáĪ¥": 7334,
      "ĠAnamb": 7335,
      "Ġáīłáī¥áĭĻ": 7336,
      "pond": 7337,
      "ªáĭ«": 7338,
      "amini": 7339,
      "ĠáĮ¥áīłáī¥": 7340,
      "engwa": 7341,
      "Ġakiwa": 7342,
      "Re": 7343,
      "ĠÙ": 7344,
      "áĪ¦": 7345,
      "ĠWab": 7346,
      "áĪ¬áĬķ": 7347,
      "endera": 7348,
      "ĠáĬłáī¡": 7349,
      "áĪĲáĪ´": 7350,
      "artar": 7351,
      "Ġayáº¹yáº¹": 7352,
      "fr": 7353,
      "ĠAw": 7354,
      "ĠáīłáĮĭ": 7355,
      "áĭµáīħ": 7356,
      "áĪ³áĭį": 7357,
      "ĠGi": 7358,
      "áĮ½áĭĭáīµ": 7359,
      "Ġ1939": 7360,
      "ĠáĬłáĪµáī°áĭ³áĭ°áĮį": 7361,
      "ĠTri": 7362,
      "Ġsuc": 7363,
      "dua": 7364,
      "Ġyanke": 7365,
      "ĠáįĪáĪ¨áĬķáĪ³áĭŃ": 7366,
      "html": 7367,
      "ression": 7368,
      "Ġká»įkÃłn": 7369,
      "Ġmanu": 7370,
      "ĠMala": 7371,
      "obe": 7372,
      "ĠáĮĪáĬĵ": 7373,
      "fore": 7374,
      "áĭ«áīĦ": 7375,
      "ĠáĪĺáī¥": 7376,
      "ĠáĪĺáĬĸ": 7377,
      "áĪ«áĭįáĭ«áĬķ": 7378,
      "rough": 7379,
      "2018": 7380,
      "</": 7381,
      "Ġáī²": 7382,
      "áĪŃáī³": 7383,
      "Ġáĭĺáĭį": 7384,
      "Ġguerre": 7385,
      "ĠFarans": 7386,
      "Kuma": 7387,
      "bÃ©": 7388,
      "anc": 7389,
      "Ġast": 7390,
      "ĠApp": 7391,
      "Ġzabe": 7392,
      "Ġule": 7393,
      "Ġchama": 7394,
      "Ġshahar": 7395,
      "Ġwanao": 7396,
      "entifi": 7397,
      "ĠWatakatifu": 7398,
      "anguage": 7399,
      "áĪµáī°áĪŃ": 7400,
      "Ġjiha": 7401,
      "Is": 7402,
      "ĠáĬĲáįĥ": 7403,
      "ĠPhili": 7404,
      "ĠáĭĵáĪĭáĪĽ": 7405,
      "áĮĭáī¢áīµ": 7406,
      "ĠrÃ©g": 7407,
      "ĠlÃ©g": 7408,
      "ĠAtlantiki": 7409,
      "500": 7410,
      "Ġkur": 7411,
      "ĠKur": 7412,
      "ĠLÃ¡": 7413,
      "ĠáĪĿáĬĴáĪįáĬŃ": 7414,
      "ull": 7415,
      "ĠVictor": 7416,
      "Ġinflu": 7417,
      "ĠáĮłáīħáĪĭáĭŃ": 7418,
      "87": 7419,
      "ĠAth": 7420,
      "áī°áĬĵ": 7421,
      "áĪĺáĬĵáĭĬ": 7422,
      "Ġosu": 7423,
      "oule": 7424,
      "Ġpeup": 7425,
      "ĠáĪļáĬĴáĪµáīµáĪŃ": 7426,
      "ides": 7427,
      "ĠáĪ¥áĮĭ": 7428,
      "Ġnombreux": 7429,
      "Ġyasa": 7430,
      "ĠáĪĺáĮĢáĪĺáĪªáĭ«": 7431,
      "ĠWag": 7432,
      "ĠHindi": 7433,
      "Ġáĭķáĭį": 7434,
      "05": 7435,
      "andard": 7436,
      "ĠOt": 7437,
      "yote": 7438,
      "Ġáĭ¨áĪĺáĮ£": 7439,
      "ĠáĪľáĭ³": 7440,
      "ĠRom": 7441,
      "ĠAngel": 7442,
      "III": 7443,
      "insa": 7444,
      "áĭ«áĭįáĭ«áĬķ": 7445,
      "ĠáĪĺáĪĭ": 7446,
      "enegal": 7447,
      "Ġstate": 7448,
      "ĠáĬªáĭ³áĬķ": 7449,
      "Åĵuv": 7450,
      "Ġnoma": 7451,
      "Ġsanar": 7452,
      "Ġlau": 7453,
      "áĬķáĭµáĪµáĬĵ": 7454,
      "áĬķáĮįáĪµáīµ": 7455,
      "áĬĴáīµ": 7456,
      "Ġhuma": 7457,
      "Ġ1949": 7458,
      "ĠProg": 7459,
      "arrun": 7460,
      "Ġinganta": 7461,
      "ype": 7462,
      "ĠáĪĪáĭĪ": 7463,
      "ĠáĪĬáĪĨáĬķ": 7464,
      "ĠáĬ¢áĬķ": 7465,
      "1998": 7466,
      "ĠDemocratic": 7467,
      "fá»į": 7468,
      "áĪĪáĪį": 7469,
      "Ġhigh": 7470,
      "Ġabáº¹": 7471,
      "áĪĪáīłáīµ": 7472,
      "ĠáĪįáĪĽ": 7473,
      "Ġsite": 7474,
      "lian": 7475,
      "ĠPan": 7476,
      "áĮ»áįį": 7477,
      "ĠáĪļáĬ«áĬ¤áĪį": 7478,
      "ĠPeter": 7479,
      "Mas": 7480,
      "jÃ¹": 7481,
      "Ġwame": 7482,
      "Ġkuzaliwa": 7483,
      "ĠTal": 7484,
      "Ġsiyasan": 7485,
      "huriyar": 7486,
      "áĪĿáīłáĪŃ": 7487,
      "ĠpÃłÃ¡": 7488,
      "ĠIá¹£áº¹": 7489,
      "ĠÃ¬p": 7490,
      "áīłáĪ®": 7491,
      "NÃŃgbÃł": 7492,
      "ĠMovie": 7493,
      "ĠAz": 7494,
      "ĠSil": 7495,
      "áĭ°áĪŃáĪµ": 7496,
      "ĠDom": 7497,
      "áĮ¥áĬĲáīµ": 7498,
      "áī¤áī±": 7499,
      "ĠPremi": 7500,
      "Ġmor": 7501,
      "ĠOli": 7502,
      "áĮĥáĭĿáĪĽáī½": 7503,
      "ĠArts": 7504,
      "ĠSokoto": 7505,
      "Ġcount": 7506,
      "shiryen": 7507,
      "áĪµáī³áĬķ": 7508,
      "ĠáĬłáĪµáī°áĭ³áĭ°áĪŃ": 7509,
      "ÃĴun": 7510,
      "chunguza": 7511,
      "yc": 7512,
      "zed": 7513,
      "áĭ¨áĪµ": 7514,
      "ĠFrancis": 7515,
      "ĠGood": 7516,
      "Ġran": 7517,
      "abili": 7518,
      "udes": 7519,
      "ouvelle": 7520,
      "ĠáĮ¸áĪĲáįĬ": 7521,
      "hat": 7522,
      "ĠáĭĪáĭĺ": 7523,
      "Ġáĭ«áĭį": 7524,
      "ĠáĪĻáĭļáīĥ": 7525,
      "ĠáĬªáĪİ": 7526,
      "ĠáīłáĪŃáĬ«áī³": 7527,
      "ĠáĬłáĪĽáĬ«": 7528,
      "AF": 7529,
      "ĠfÃ¬": 7530,
      "usha": 7531,
      "Ġmach": 7532,
      "ĠÃ²á¹£Ã¨lÃº": 7533,
      "dÃŃnlá»į": 7534,
      "ession": 7535,
      "áĪĿáĪĮ": 7536,
      "áĮįáĬĺáīµ": 7537,
      "2012": 7538,
      "ĠIslam": 7539,
      "Ġcertains": 7540,
      "ĠáĬĹáĪª": 7541,
      "ĠAfrilu": 7542,
      "mir": 7543,
      "áįīáīµ": 7544,
      "ĠáĪĨáĬĸáĪĿ": 7545,
      "Î¹": 7546,
      "Ġdog": 7547,
      "ĠIra": 7548,
      "Ġlead": 7549,
      "áĮ£áĪª": 7550,
      "Ġoffici": 7551,
      "Ġjaponais": 7552,
      "her": 7553,
      "áĬ»": 7554,
      "áĬ«áĬķ": 7555,
      "Ġstruct": 7556,
      "ĠáĬłáĭµáĪŃáĮİ": 7557,
      "ussia": 7558,
      "kara": 7559,
      "nÃ©": 7560,
      "unta": 7561,
      "ĠTrans": 7562,
      "ĠSarkin": 7563,
      "ĠHenry": 7564,
      "She": 7565,
      "nÃº": 7566,
      "áĮ©": 7567,
      "ĠMji": 7568,
      "Ġruk": 7569,
      "omm": 7570,
      "âĢĶ": 7571,
      "ĠFulani": 7572,
      "áĪĬáĭ«áĬķ": 7573,
      "Ġtsakiyar": 7574,
      "ĠPoland": 7575,
      "ĠJanairu": 7576,
      "Ġnasarar": 7577,
      "Ġanal": 7578,
      "ĠáĪŃáĭķ": 7579,
      "Ġcity": 7580,
      "ĠpÃ¡": 7581,
      "Ġwhere": 7582,
      "elf": 7583,
      "umbe": 7584,
      "ĠJina": 7585,
      "teurs": 7586,
      "Ġelect": 7587,
      "ĠLatin": 7588,
      "ĠáĮĪáĬķáĭĺáī¥": 7589,
      "ĠKab": 7590,
      "ĠWo": 7591,
      "ĠJac": 7592,
      "ĠáĬ¦áĪŃ": 7593,
      "Ġfada": 7594,
      "Ġruwan": 7595,
      "áĪ¨áįĪ": 7596,
      "áĪ«áĪª": 7597,
      "Ġmain": 7598,
      "Ġkananan": 7599,
      "ĠsiÃ¨": 7600,
      "áĪĲáĭŃ": 7601,
      "Ġulikuwa": 7602,
      "ning": 7603,
      "ÑĢ": 7604,
      "ĠMoro": 7605,
      "áĪĪáĪ°": 7606,
      "Ġfollow": 7607,
      "Ã¬lÃº": 7608,
      "ĠáĬ¥áĬķáĭµ": 7609,
      "áĭ²áĪ±": 7610,
      "istry": 7611,
      "áĮ¨áīµ": 7612,
      "wÃ²rÃ¡n": 7613,
      "68": 7614,
      "kÃ©": 7615,
      "ĠChuo": 7616,
      "52": 7617,
      "ds": 7618,
      "xt": 7619,
      "||": 7620,
      "ĠMet": 7621,
      "ĠMul": 7622,
      "Ġzar": 7623,
      "áīĥáĪī": 7624,
      "haria": 7625,
      "ĠáĪļáĬĴáĪµáī´": 7626,
      "áĪĽáĭŃáĪµáĮ¥": 7627,
      "don": 7628,
      "Ġkiongozi": 7629,
      "ĠÃłá¹£Ãł": 7630,
      "Ġhalin": 7631,
      "Ġvid": 7632,
      "rÃŃwÃ¡": 7633,
      "ctor": 7634,
      "áī¦áĪŃ": 7635,
      "wamna": 7636,
      "ĠáĪķáĭŃáĭĪáīµ": 7637,
      "Ġtsara": 7638,
      "Ġhalit": 7639,
      "Ġtransl": 7640,
      "llaye": 7641,
      "ĠDay": 7642,
      "ĠáīłáĪĺáĪµ": 7643,
      "ensis": 7644,
      "depend": 7645,
      "Ġáĭ¨áĪļáī£áĪį": 7646,
      "áĮĭáĪª": 7647,
      "Ġsoja": 7648,
      "BÃŃ": 7649,
      "ij": 7650,
      "Ġthere": 7651,
      "Ã©sÃŃ": 7652,
      "ĠAsiya": 7653,
      "Ġtant": 7654,
      "ĠáĭĪáĮ£": 7655,
      "osp": 7656,
      "ĠÆĻir": 7657,
      "otball": 7658,
      "ungano": 7659,
      "ĠAlf": 7660,
      "ĠTuranci": 7661,
      "Ġtechni": 7662,
      "Ġbata": 7663,
      "lahi": 7664,
      "Ġáīłáī°áĪĪáĭŃáĪĿ": 7665,
      "firi": 7666,
      "Ã»": 7667,
      "ĠMc": 7668,
      "Ġalim": 7669,
      "kua": 7670,
      "ship": 7671,
      "ĠdÃ¬": 7672,
      "lique": 7673,
      "unar": 7674,
      "ĠáĬ¥áĪŃáĪ±": 7675,
      "igu": 7676,
      "áĮłáĬķ": 7677,
      "áĬĶáīµ": 7678,
      "ardin": 7679,
      "ĠáĪĺáī¥áīµ": 7680,
      "Ġ1955": 7681,
      "Ġ90": 7682,
      "Ġmany": 7683,
      "attle": 7684,
      "ĠáĪģáĪīáĪĿ": 7685,
      "Ġwould": 7686,
      "lot": 7687,
      "Ġkisi": 7688,
      "Ġlissa": 7689,
      "ĠMand": 7690,
      "ĠSir": 7691,
      "Ġtawa": 7692,
      "cept": 7693,
      "Ġuwan": 7694,
      "Ġshawara": 7695,
      "Ġsayari": 7696,
      "ĠKikatoliki": 7697,
      "badi": 7698,
      "Ãīt": 7699,
      "cident": 7700,
      "hampion": 7701,
      "Ġnigba": 7702,
      "ĠFestival": 7703,
      "Ġeto": 7704,
      "fication": 7705,
      "kÃ¡láº¹": 7706,
      "ĠChristian": 7707,
      "gro": 7708,
      "Ġbase": 7709,
      "ĠKid": 7710,
      "ypti": 7711,
      "ĠHai": 7712,
      "áĭĿáĬĵ": 7713,
      "Ġáĭ°áĮĭ": 7714,
      "áī²áīµ": 7715,
      "Akwai": 7716,
      "Alimfuata": 7717,
      "pl": 7718,
      "zim": 7719,
      "áĭ«áīµ": 7720,
      "Ġfasaha": 7721,
      "Ġgani": 7722,
      "ĠDara": 7723,
      "Ġkasuwa": 7724,
      "ĠáįįáīħáĪŃ": 7725,
      "ĠUnion": 7726,
      "áį²áį±áį»áį¶áį": 7727,
      "rasia": 7728,
      "Viungo": 7729,
      "ĠáĭµáĬķáĮĭáĭŃ": 7730,
      "Ġamince": 7731,
      "AM": 7732,
      "áĭ°áĮĪ": 7733,
      "Ġdevient": 7734,
      "okana": 7735,
      "wor": 7736,
      "áĮĲ": 7737,
      "áī£áī±": 7738,
      "xes": 7739,
      "rey": 7740,
      "2019": 7741,
      "ĠáĮĵ": 7742,
      "Ġham": 7743,
      "áĪĬáĪµ": 7744,
      "ĠZimbabwe": 7745,
      "Ġiá¹£": 7746,
      "ĠOá¹£u": 7747,
      "á¹£irÃŃ": 7748,
      "Ġmasarautar": 7749,
      "shinda": 7750,
      "Ġmahaifiyar": 7751,
      "ĠKilatini": 7752,
      "Ġshule": 7753,
      "áĪįáĪĿáĬĵ": 7754,
      "Ġrest": 7755,
      "ĠDuba": 7756,
      "áĭĭáĪŃáĭ«": 7757,
      "áĭļáĭ«áĬķ": 7758,
      "54": 7759,
      "ÏĤ": 7760,
      "áĭ°áī¡áī¥": 7761,
      "áī³áĪªáĬŃ": 7762,
      "ĠUb": 7763,
      "Ġtuntun": 7764,
      "Ġáī¤áī°áĬŃáĪŃáĪµáī²áĭ«áĬķ": 7765,
      "ĠáĮłáĪĭ": 7766,
      "Ġbecame": 7767,
      "02": 7768,
      "SO": 7769,
      "ÉĻ": 7770,
      "ĠSol": 7771,
      "áĮ¥áĪ¨áīµ": 7772,
      "Ġaká»įrin": 7773,
      "Ġá¹£ÃŃá¹£e": 7774,
      "ĠMiss": 7775,
      "ĠáīłáĭļáĪģ": 7776,
      "Ġkufanya": 7777,
      "ĠáīłáĬłáĭ²áĪµ": 7778,
      "ĠrÃ©alis": 7779,
      "elekea": 7780,
      "áį²áį±áį»áį·áį": 7781,
      "Ġarewacin": 7782,
      "Ġáĭ¨áįĸáĪĪáī²áĬ«": 7783,
      "origine": 7784,
      "ĠáĬĶ": 7785,
      "wal": 7786,
      "Ġnit": 7787,
      "Ġfer": 7788,
      "áĬĲáĪµ": 7789,
      "ĠáīłáĪ®": 7790,
      "áĭ¨áĬķ": 7791,
      "áĬ«áĭµ": 7792,
      "ĠCalifor": 7793,
      "Pia": 7794,
      "Ġaye": 7795,
      "ĠAu": 7796,
      "ĠWashington": 7797,
      "áĭ®áīµ": 7798,
      "Ġref": 7799,
      "2000": 7800,
      "ĠáĬłáĪįáįĭ": 7801,
      "mas": 7802,
      "Ġ1918": 7803,
      "olin": 7804,
      "Ġá»įwá»į": 7805,
      "ĠPaulo": 7806,
      "isto": 7807,
      "alamu": 7808,
      "Ġgano": 7809,
      "Ġáĭ¨áī°áīĢ": 7810,
      "Unis": 7811,
      "test": 7812,
      "tokana": 7813,
      "Ġhaki": 7814,
      "ĠáĪµáī´": 7815,
      "ĠVita": 7816,
      "Ġmatan": 7817,
      "Ġfiye": 7818,
      "ĠHanyoyin": 7819,
      "Ġcikak": 7820,
      "itia": 7821,
      "ifiki": 7822,
      "nyÃŃ": 7823,
      "sta": 7824,
      "áĪĿáĪµ": 7825,
      "kejÃ¬": 7826,
      "áī¡áĪŃ": 7827,
      "Ġáīłáī°áĪĪáĭ«áĭ©": 7828,
      "Ġsym": 7829,
      "gement": 7830,
      "Ġinap": 7831,
      "áĭ¨áĬ¢áīµáĭ®áĮµáĭ«": 7832,
      "ĠáĬłáĬķáĭ°": 7833,
      "Ġáĭ¨áĬĲáīłáĪ©": 7834,
      "Une": 7835,
      "lab": 7836,
      "ĠBern": 7837,
      "ĠDin": 7838,
      "Ġfaire": 7839,
      "ĠáĪķáĮį": 7840,
      "ĠAnambra": 7841,
      "Ġauri": 7842,
      "Ã©li": 7843,
      "ĠAnt": 7844,
      "Ġmfumo": 7845,
      "ĠáīłáĭĵáĪĪáĪĿ": 7846,
      "kata": 7847,
      "ono": 7848,
      "ĠMara": 7849,
      "rea": 7850,
      "ĠdÃ©fin": 7851,
      "ĠáįĬáĪį": 7852,
      "ĠáįĬáĭ°": 7853,
      "ĠolÃ¹darÃŃ": 7854,
      "áĮĪáĪĪáĮį": 7855,
      "ĠdÃ©veloppement": 7856,
      "pinduzi": 7857,
      "NN": 7858,
      "Ġáĭ¨áĮ¦áĪŃ": 7859,
      "Ġ1920": 7860,
      "áīĢáĪĿ": 7861,
      "unawa": 7862,
      "finan": 7863,
      "ĠáĪªáįĲáī¥áĪĬáĬŃ": 7864,
      "áĭįáĬĵ": 7865,
      "ands": 7866,
      "kewa": 7867,
      "áįįáī°áĬĽ": 7868,
      "ĠáĭŃáī½áĪĭáĪī": 7869,
      "ĠTechn": 7870,
      "alled": 7871,
      "zari": 7872,
      "Ġáĭ¨áĭķ": 7873,
      "áĪħáĪŃ": 7874,
      "ovi": 7875,
      "ulit": 7876,
      "ĠAngola": 7877,
      "Ġsera": 7878,
      "Ġlat": 7879,
      "ÆĻo": 7880,
      "Ġáĭ¨áī°áĬĲáĪ³": 7881,
      "ĠKuu": 7882,
      "ĠolÃ¹ká»į": 7883,
      "ĠHouse": 7884,
      "Ġbincike": 7885,
      "ĠbÃłbÃ¡": 7886,
      "83": 7887,
      "áĬĲáĭĵáĬķ": 7888,
      "áĪ«áĬĴ": 7889,
      "add": 7890,
      "ĠáīłáĪĺáĮ¨áĪ¨áĪ»": 7891,
      "áĬķáĮĢ": 7892,
      "áĭįáĪµ": 7893,
      "áĭĵáĪĪáĪĿ": 7894,
      "áįĵáĬķáĬĽ": 7895,
      "04": 7896,
      "à¥": 7897,
      "ĠáīłáĬŃ": 7898,
      "irs": 7899,
      "ĠFer": 7900,
      "ĠLeague": 7901,
      "ĠáĬ¢áĭ¨áĪ±áĪµ": 7902,
      "áĪĺáĪĪáĪµ": 7903,
      "Ġterritoire": 7904,
      "Ìģ-": 7905,
      "áĪŀáĬķ": 7906,
      "ĠáĬ¥áĬķáĭ°áĬĲáīłáĪŃ": 7907,
      "Ġáĭ¨áĬłáĪŃ": 7908,
      "ĠáĬłáĪµáī°áĭĭ": 7909,
      "Ġpataki": 7910,
      "ĠáĪĬáīĥáĭįáĬķáīµ": 7911,
      "gari": 7912,
      "zikin": 7913,
      "inent": 7914,
      "ĠFasaha": 7915,
      "Ġval": 7916,
      "Ġáĭ°áĪŃ": 7917,
      "Ġáĭ°áī¥áĪ¨": 7918,
      "Ġwase": 7919,
      "Ġwasanni": 7920,
      "Ġkarshen": 7921,
      "Ġukoloni": 7922,
      "ĠYammacin": 7923,
      "arabci": 7924,
      "Ġáĭ¨áĪĪáĭįáĪĿ": 7925,
      "Ïģ": 7926,
      "Ġculture": 7927,
      "itect": 7928,
      "Ã©ration": 7929,
      "eau": 7930,
      "Ġdat": 7931,
      "ĠáīłáĬłáĪľáĪªáĬ«": 7932,
      "66": 7933,
      "ĠÃº": 7934,
      "ĠáīłáĪ±": 7935,
      "áĭ³áĭĬ": 7936,
      "ĠáĪħáĮį": 7937,
      "áĬ¨áī°áĪį": 7938,
      "Kam": 7939,
      "of": 7940,
      "wango": 7941,
      "Ã©ra": 7942,
      "ĠEmpire": 7943,
      "uge": 7944,
      "pagn": 7945,
      "ĠeuropÃ©": 7946,
      "áĭĽáĪį": 7947,
      "Ġjimillar": 7948,
      "Ġfai": 7949,
      "ĠáĬ¥áĮ½áĭĭáīµ": 7950,
      "ĠáĬ¥áĬķáĬ³áĬķ": 7951,
      "ĠCount": 7952,
      "ĠáĬłáĪĭáī¸áĭį": 7953,
      "áĬ«áīµ": 7954,
      "fici": 7955,
      "ĠZe": 7956,
      "ĠáĪ¥áĪŃáĭĵáīµ": 7957,
      "Ġcla": 7958,
      "ĠHam": 7959,
      "ĠáĮįáĪ«": 7960,
      "chie": 7961,
      "ĠáĭĪáĭĺáī°": 7962,
      "ket": 7963,
      "Ġcre": 7964,
      "áĭ°áĮĭ": 7965,
      "ĠLit": 7966,
      "poli": 7967,
      "ĠáĮīáĪį": 7968,
      "Ġmondi": 7969,
      "oja": 7970,
      "pha": 7971,
      "Ġlenye": 7972,
      "Ġáĭ¨áįĭ": 7973,
      "Ġbaki": 7974,
      "Ġhapo": 7975,
      "ster": 7976,
      "ĠâĢİ": 7977,
      "áĪłáī¥": 7978,
      "Historia": 7979,
      "atiques": 7980,
      "áĪ³áī¸áĭįáĬķ": 7981,
      "Ġáĭ¨áĪ¶": 7982,
      "adun": 7983,
      "ĠArgent": 7984,
      "ĠKuma": 7985,
      "Ã´t": 7986,
      "Son": 7987,
      "áĪĺáĬĵáĪį": 7988,
      "Ġunivers": 7989,
      "áī°áĬŀáī½": 7990,
      "ĠáĮ»": 7991,
      "Ã¡Ã¡": 7992,
      "59": 7993,
      "Ġáĭ¨áįĪáĪ¨áĬķáĪ³áĭŃ": 7994,
      "ĠKai": 7995,
      "áįĪáĪ«": 7996,
      "Ã©rique": 7997,
      "Ġuse": 7998,
      "Ġmbunge": 7999,
      "atsayin": 8000,
      "Ġhuru": 8001,
      "ĠZiwa": 8002,
      "ĠáĭŃáĮĪáĪĺ": 8003,
      "Ġasilimia": 8004,
      "Ġwatoto": 8005,
      "ĠkÃºrÃ²": 8006,
      "Ġwasemaji": 8007,
      "hus": 8008,
      "onst": 8009,
      "hawa": 8010,
      "ĠKol": 8011,
      "ĠJari": 8012,
      "Ġori": 8013,
      "ĠáĮįáĪį": 8014,
      "ĠÃ©lÃ©": 8015,
      "Ġ400": 8016,
      "Ġ(,": 8017,
      "ĠShek": 8018,
      "ĠJon": 8019,
      "áĪķáĪį": 8020,
      "ĠáĪµáī¥áĪµáī¥": 8021,
      "áīħáĪį": 8022,
      "ĠÃ©v": 8023,
      "ĠAnti": 8024,
      "ĠáīłáĪ³": 8025,
      "áĭĿáī¡": 8026,
      "Ã¡nÃ¬": 8027,
      "ticle": 8028,
      "ĠáĪĺáĭĭáĭķáĪį": 8029,
      "á¹£irÃŃá¹£i": 8030,
      "áĮ®": 8031,
      "áĭ©áīµ": 8032,
      "Ġlililo": 8033,
      "Ġwenyeji": 8034,
      "ĠTarayya": 8035,
      "ual": 8036,
      "Ġwasi": 8037,
      "ĠNairobi": 8038,
      "xford": 8039,
      "Ġtype": 8040,
      "ĠáĬĲáī½": 8041,
      "Ġinternational": 8042,
      "riv": 8043,
      "lection": 8044,
      "lais": 8045,
      "ĠLife": 8046,
      "ception": 8047,
      "áĪ´áīµ": 8048,
      "ĠáĭĺáĪĺáī»": 8049,
      "ration": 8050,
      "Ġame": 8051,
      "Ġcrit": 8052,
      "Ġworld": 8053,
      "áįĪáĪ¨": 8054,
      "bal": 8055,
      "áĭ¢": 8056,
      "Ġnyota": 8057,
      "erson": 8058,
      "huli": 8059,
      "Ġ''": 8060,
      "Ġshugabar": 8061,
      "ĠSatumba": 8062,
      "zungum": 8063,
      "1997": 8064,
      "ĠáĬĲáīłáĪ¨áī½": 8065,
      "fari": 8066,
      "Ã©ro": 8067,
      "Ġipinle": 8068,
      "cep": 8069,
      "81": 8070,
      "Ġvon": 8071,
      "ĠáĪĺáĬķáĮĪ": 8072,
      "ĠáīłáĪ°áĪľáĬķ": 8073,
      "pita": 8074,
      "Ð½": 8075,
      "Ġsaka": 8076,
      "yahudi": 8077,
      "Ġdasu": 8078,
      "Ġdauke": 8079,
      "áĭŃáīħ": 8080,
      "Ġoun": 8081,
      "ĠPulit": 8082,
      "Ġend": 8083,
      "pole": 8084,
      "amua": 8085,
      "ĠáīħáĬĿ": 8086,
      "Ġfamille": 8087,
      "holanzi": 8088,
      "Ġndege": 8089,
      "ĠPulitzer": 8090,
      "gwa": 8091,
      "rol": 8092,
      "hui": 8093,
      "kÃ³so": 8094,
      "Ġdisc": 8095,
      "ĠShehu": 8096,
      "Ġpouvoir": 8097,
      "ĠIt": 8098,
      "ĠáĬłáĪ¥": 8099,
      "57": 8100,
      "mw": 8101,
      "Ġáĭĳ": 8102,
      "ĠáĪĿáĬŃáĪŃ": 8103,
      "ĠáĬłáĭįáĪ®áįĵ": 8104,
      "ĠBunge": 8105,
      "áĪ®áĪŀ": 8106,
      "Ġroya": 8107,
      "ĠáīłáĪĮáĪĭ": 8108,
      "ey": 8109,
      "Ġkakar": 8110,
      "ĠsÃ¬n": 8111,
      "tice": 8112,
      "Ġcewar": 8113,
      "Ġmatakin": 8114,
      "ĠáĪ¥áĪįáĮ£áĬķ": 8115,
      "Ġkipindi": 8116,
      "Ġsheria": 8117,
      "uwancin": 8118,
      "ĠolÃ³rÃŃ": 8119,
      "Ġgabashin": 8120,
      "Ġmamaye": 8121,
      "ĠÆ´ar": 8122,
      "Ġtakarar": 8123,
      "ĠMohammed": 8124,
      "Ġmvua": 8125,
      "82": 8126,
      "Ġnye": 8127,
      "ĠáĭŃáĮĪáĪĺáī³áĪį": 8128,
      "ĠáĪĺáīĢáĪĺáĮ«": 8129,
      "Ġáī°áĪĽáĪª": 8130,
      "umbi": 8131,
      "ĠDut": 8132,
      "Ġavoir": 8133,
      "ĠBirnin": 8134,
      "Mut": 8135,
      "áĭ°áĪŃáĮī": 8136,
      "ĠáĪĺáĬĲáĪ»": 8137,
      "]]": 8138,
      "ĠSenegal": 8139,
      "Ġtoute": 8140,
      "ĠáĮįáĪªáĬŃ": 8141,
      "Ġáĭ¨áĬłáĪĪáĪĿ": 8142,
      "ĠáĮ¥áĭ«áīĦ": 8143,
      "ĠLaw": 8144,
      "ĠJohnson": 8145,
      "kari": 8146,
      "Ġdoma": 8147,
      "Ġuchumi": 8148,
      "Ġakafuatwa": 8149,
      "Ġmsingi": 8150,
      "ĠElezo": 8151,
      "bÃ³": 8152,
      "áĬ¨áĪ°": 8153,
      "itude": 8154,
      "Bisa": 8155,
      "IC": 8156,
      "car": 8157,
      "áĭįáĪį": 8158,
      "áĪµáī²": 8159,
      "ĠáĪĺáī³": 8160,
      "ĠFound": 8161,
      "eren": 8162,
      "áĪµáī³áīµ": 8163,
      "ĠAcc": 8164,
      "atives": 8165,
      "áĪĭáĮħ": 8166,
      "Ġhus": 8167,
      "ĠConst": 8168,
      "ĠÃłÃ¬sÃłn": 8169,
      "anganyika": 8170,
      "rand": 8171,
      "Ġlater": 8172,
      "áĪµáĪĬ": 8173,
      "abara": 8174,
      "ĠSoma": 8175,
      "áīĢáĪµ": 8176,
      "Ġáĭ¨áī°áĭĪáĪ°": 8177,
      "Ãªtre": 8178,
      "áĭ°áĬķáīµ": 8179,
      "Ġjou": 8180,
      "Ġáĭ¨áĪļáĪĺ": 8181,
      "pokea": 8182,
      "Ġmaneno": 8183,
      "athan": 8184,
      "Ġasilia": 8185,
      "áĭ¥áĬķ": 8186,
      "Rayuwar": 8187,
      "Ġmito": 8188,
      "Ġáĭ¨áĮİ": 8189,
      "áĪ£áĭŃ": 8190,
      "ĠPasifiki": 8191,
      "His": 8192,
      "wÃłÃ¡": 8193,
      "Ġprom": 8194,
      "áī°áĭ³": 8195,
      "áĪĪáĭ±": 8196,
      "ĠDam": 8197,
      "ĠáĪµáī¥": 8198,
      "ĠInternet": 8199,
      "áĭŃáĪŃáĪĭáĬķáĭµ": 8200,
      "tient": 8201,
      "ĠGida": 8202,
      "áĭķáīĨ": 8203,
      "ĠCommun": 8204,
      "áĬĹáĪį": 8205,
      "53": 8206,
      "mÃ¡": 8207,
      "ĠAri": 8208,
      "ĠHis": 8209,
      "kiri": 8210,
      "rer": 8211,
      "Ġdauki": 8212,
      "Ġmaarufu": 8213,
      "ĠPoli": 8214,
      "Ġáī°áĮĪáĬĿ": 8215,
      "Ġaddini": 8216,
      "ports": 8217,
      "wikipedia": 8218,
      "chaguliwa": 8219,
      "ĠáĪĺáĪ£áĪªáĭ«": 8220,
      "Ġolo": 8221,
      "áī½áĬ¹": 8222,
      "ilÃ©": 8223,
      "Ġwit": 8224,
      "áĪĽáĪ¨": 8225,
      "ĠGud": 8226,
      "ĠáĭĪáĭ²áĭ«": 8227,
      "áīłáĪ»": 8228,
      "ĠÃ²kÃ¨": 8229,
      "ominira": 8230,
      "1999": 8231,
      "ĠirÃº": 8232,
      "Ġáī°áīĢáĪĿ": 8233,
      "ĠGroup": 8234,
      "enant": 8235,
      "ĠáĮ¨áĭĭ": 8236,
      "Ġlarge": 8237,
      "enu": 8238,
      "usse": 8239,
      "áĪ¨áī°": 8240,
      "ĠChin": 8241,
      "Ġauto": 8242,
      "ĠáĬłáĪįáįİ": 8243,
      "Ġáĭ¨áĬ¥áĬķáĮįáĪĬáĭĿ": 8244,
      "áī¥áĪ¨áī°": 8245,
      "Ġkalenda": 8246,
      "pya": 8247,
      "áīħáĭ±áĪµ": 8248,
      "áĪµáī°áĬĽáĭį": 8249,
      "ĠRadio": 8250,
      "à¤ķà¤": 8251,
      "oris": 8252,
      "ĠKikuu": 8253,
      "Ġkowane": 8254,
      "respond": 8255,
      "Ġnguvu": 8256,
      "64": 8257,
      "Ùĳ": 8258,
      "urar": 8259,
      "eter": 8260,
      "team": 8261,
      "ĠáĪ½áĪį": 8262,
      "ËĪ": 8263,
      "Ġdare": 8264,
      "Ġáĭ¨áĪ«": 8265,
      "ĠAbe": 8266,
      "Ġpin": 8267,
      "áįİáĪŃ": 8268,
      "Ġáī°áĭĪáĪĪáĭ°": 8269,
      "udies": 8270,
      "Ġáĭ¶áĪ®": 8271,
      "Iá¹£áº¹": 8272,
      "áº¹ráº¹": 8273,
      "ĠSho": 8274,
      "áīłáĭ«": 8275,
      "ĠÃĮlÃº": 8276,
      "ĠáĪµáĪĿáĪĿáĬĲáīµ": 8277,
      "Eneo": 8278,
      "Ã£": 8279,
      "áī®": 8280,
      "anzo": 8281,
      "áĪĪáĪµ": 8282,
      "ĠEdo": 8283,
      "áī¶áĭ¶": 8284,
      "face": 8285,
      "Ġisi": 8286,
      "Ġthree": 8287,
      "iriwa": 8288,
      "ĠWaarabu": 8289,
      "Ġyarjejen": 8290,
      "ĠáĭŃáī³áĪĺáĬĵáĪį": 8291,
      "Ġutamaduni": 8292,
      "Ġsing": 8293,
      "áĪ©áĬŃ": 8294,
      "ĠáĭµáĬķáĮįáĪį": 8295,
      "Ġ1944": 8296,
      "kundu": 8297,
      "ĠáĬ¨áĬłáĬķáĭµ": 8298,
      "fai": 8299,
      "ser": 8300,
      "waju": 8301,
      "kasa": 8302,
      "ĠIya": 8303,
      "geria": 8304,
      "áĬ¥áĬķáĭ²áĪģáĪĿ": 8305,
      "áī¿": 8306,
      "áĮĪáĭĽ": 8307,
      "ĠNd": 8308,
      "Ġdeven": 8309,
      "ĠÃłÃ¡": 8310,
      "ĠÃłjáº¹sÃ¡ra": 8311,
      "Ġáĭ«áĭ°áĪŃ": 8312,
      "ĠAlhaji": 8313,
      "Ces": 8314,
      "Niger": 8315,
      "zak": 8316,
      "ĠáĭĬ": 8317,
      "Ġsens": 8318,
      "ĠAle": 8319,
      "ĠRed": 8320,
      "ĠáĪµáĪŃáĭĵáīµ": 8321,
      "Pro": 8322,
      "á¹¢": 8323,
      "ĠNic": 8324,
      "ÆĻe": 8325,
      "áĪ³áĪĮáĪĿ": 8326,
      "Ġkamfan": 8327,
      "attun": 8328,
      "áī§áĪį": 8329,
      "Ġhabari": 8330,
      "Mal": 8331,
      "UN": 8332,
      "ĠNations": 8333,
      "ĠáĬłáĪµáįĪáĪĭáĮĬ": 8334,
      "ĠImo": 8335,
      "áĭĭáī¸áĭį": 8336,
      "oton": 8337,
      "áĪŁáĪį": 8338,
      "VID": 8339,
      "áĮĪáĪ¨": 8340,
      "ĠáĪĽáĪ¨": 8341,
      "ĠYou": 8342,
      "ourd": 8343,
      "Ġáī°áĮ«áĭĭ": 8344,
      "ywa": 8345,
      "áĬķáĪ°": 8346,
      "Ġáĭ¨áĪĺáĬķ": 8347,
      "Ġbado": 8348,
      "refu": 8349,
      "ilishi": 8350,
      "ĠWaingereza": 8351,
      "ccen": 8352,
      "Ġactiv": 8353,
      "Ġkiran": 8354,
      "Ġrubutu": 8355,
      "sÃ¡n": 8356,
      "áĪĺáĪĿ": 8357,
      "áī¥áĪĭ": 8358,
      "Ã¬yÃłn": 8359,
      "ĠChe": 8360,
      "laka": 8361,
      "ication": 8362,
      "Ġclass": 8363,
      "ĠKejÃ¬": 8364,
      "Ġáīłáī³áĪªáĬŃ": 8365,
      "63": 8366,
      "Ġáī£áĪħáĪį": 8367,
      "áĪŃáīµáĪ«": 8368,
      "mary": 8369,
      "ĠáīłáĪ¶": 8370,
      "ĠJohann": 8371,
      "Ġ1942": 8372,
      "ĠWilliams": 8373,
      "usal": 8374,
      "áī£áī£": 8375,
      "ĠáĪ°áįĬ": 8376,
      "ĠáĬķáĮ¥áĪ¨": 8377,
      "ĠáĭĭáĬķáĮ«": 8378,
      "áĪ£áĪ¥": 8379,
      "áĬķáĮīáĪł": 8380,
      "áĪ¨áĮĭáĮĪ": 8381,
      "ĠSociety": 8382,
      "Ġnamba": 8383,
      "Ġmatasa": 8384,
      "Ġyankunan": 8385,
      "wamba": 8386,
      "Ġmeji": 8387,
      "Ġtir": 8388,
      "onia": 8389,
      "ĠSim": 8390,
      "áī¥áī»": 8391,
      "ĠPh": 8392,
      "Ġáĭ¨áī°áĭĪáĪĪ": 8393,
      "bobi": 8394,
      "Ġáī°áĪ«áĪ®áī½": 8395,
      "New": 8396,
      "áĪģáįį": 8397,
      "ĠEdward": 8398,
      "Ø¹": 8399,
      "Ġ$": 8400,
      "ĠSau": 8401,
      "áīłáĬ¥": 8402,
      "ĠHab": 8403,
      "Ġáĭ¨áĪļáī£áĪĪáĭį": 8404,
      "»áįī": 8405,
      "Ġikan": 8406,
      "Ġproduction": 8407,
      "lar": 8408,
      "itÃ¬": 8409,
      "utun": 8410,
      "utÃ©": 8411,
      "ĠPra": 8412,
      "chang": 8413,
      "ÃŃnÃº": 8414,
      "ĠolÃ³gun": 8415,
      "Ġquelques": 8416,
      "AL": 8417,
      "áĬŃáĬĸ": 8418,
      "umin": 8419,
      "ĠUS": 8420,
      "Ġáĭ¨áĪļáĬĸáĪŃ": 8421,
      "adamu": 8422,
      "Ġuwe": 8423,
      "ĠáĬ¥áĬĵáīµ": 8424,
      "ĠáĪ°áĪĽ": 8425,
      "Ġáĭįáīħáĭ«áĬĸáĪµ": 8426,
      "ĠVisiwa": 8427,
      "2001": 8428,
      "Ġwanyama": 8429,
      "ournal": 8430,
      "Ġfem": 8431,
      "Ġáĭ«áĪµáī°": 8432,
      "áĭ°áĪ¨áĮį": 8433,
      "ĠAmerica": 8434,
      "ĠáĭįáĮ¤áīµ": 8435,
      "áĪŀáĬŃáĪ«áĪ²": 8436,
      "prÃ©": 8437,
      "Ġáĭ¨áī´": 8438,
      "Ã©g": 8439,
      "Ġcalled": 8440,
      "áįįáī°": 8441,
      "áīĢáĮ½": 8442,
      "áĪ»áĪ»": 8443,
      "Äĵ": 8444,
      "Ġáī«": 8445,
      "Ġcad": 8446,
      "ĠáĬłáĭĪ": 8447,
      "Ġhor": 8448,
      "ĠOla": 8449,
      "áĭ³áīµ": 8450,
      "lise": 8451,
      "áĪĪáĭµ": 8452,
      "Ġalbum": 8453,
      "áĬķáī°": 8454,
      "Ġáĭ¨áĭļáĪħ": 8455,
      "áĭµáĪį": 8456,
      "ungiya": 8457,
      "pokuwa": 8458,
      "Ġardhi": 8459,
      "Ġ1922": 8460,
      "ĠDevelopment": 8461,
      "Ġkilimo": 8462,
      "ĠWanasayansi": 8463,
      "Ġcigaba": 8464,
      "gali": 8465,
      "ĠáĭĪáĮĪ": 8466,
      "Ġvina": 8467,
      "áĮĭáĬķ": 8468,
      "áĪłáĪ©": 8469,
      "zza": 8470,
      "Ġmic": 8471,
      "Ġjan": 8472,
      "áĭ²áīµ": 8473,
      "ĠáĪ°áĭĵáīµ": 8474,
      "Ġoni": 8475,
      "Ġtáº¹li": 8476,
      "wÃ¹já»į": 8477,
      "ĠLar": 8478,
      "áĬ«áĪ«": 8479,
      "áī±áĪŃáĬŃ": 8480,
      "áįĭáĬķ": 8481,
      "ĠáĪļáĪµáīµ": 8482,
      "Ili": 8483,
      "Ġtyp": 8484,
      "áĬłáĪŃ": 8485,
      "auc": 8486,
      "Ġmoto": 8487,
      "orea": 8488,
      "Ġ1943": 8489,
      "ĠáĬłáĪįáįĭáī¤áīµ": 8490,
      "wÃº": 8491,
      "Ġtashi": 8492,
      "áĪ«áĪŃ": 8493,
      "ĠáīłáĪĪ": 8494,
      "ĠJanar": 8495,
      "áĭĺáĪŃ": 8496,
      "Ġelimu": 8497,
      "ĠÃºn": 8498,
      "61": 8499,
      "ĠáĬĲáĭįáį¢": 8500,
      "Ġl'": 8501,
      "Ġd'": 8502,
      "Ìģn": 8503,
      "Ġjáº¹Ìģ": 8504,
      "ĠáĪĿáĪ³áĪĮĠáĬĲáĭįáį¢": 8505,
      "Ġáĭ¨áĬłáĪĽáĪŃáĬĽĠáĪĿáĪ³áĪĮĠáĬĲáĭįáį¢": 8506,
      "ĠtÃŃĠÃ³": 8507,
      "ĠdeĠla": 8508,
      "ĠshekaraĠta": 8509,
      "Ġwá»įÌģn": 8510,
      "Ġráº¹ÌĢ": 8511,
      "ĠofĠthe": 8512,
      "ĠaĠcikin": 8513,
      "ĠáĬĲáīłáĪŃáį¢": 8514,
      ".áĪĿ": 8515,
      "Ġáĭ¨áĬłáĪĽáĪŃáĬĽĠáĪĿáĪ³áĪĮĠáĬĲáĭįáį¢ĠáīµáĪŃáĮīáĪĻ": 8516,
      "ĠdaĠkuma": 8517,
      "Ġáĭĵ.áĪĿ": 8518,
      "Ġáº¹ÌĢ": 8519,
      "áº¹ÌĢ": 8520,
      "'a": 8521,
      "Ġáī°áĪ¨áīµáĬĵĠáĪĿáĪ³áĪĮ": 8522,
      "ĠdeĠl'": 8523,
      ".ĠItokasi": 8524,
      "Ġá»įÌĢ": 8525,
      "Ġáĭĵ.áĪĿ.": 8526,
      "ĠaĠmatsayin": 8527,
      "ká»įÌģ": 8528,
      "ĠTuzoĠya": 8529,
      ",Ġa": 8530,
      "ĠtareĠda": 8531,
      "ĠTuzoĠyaĠNobel": 8532,
      "ĠTuzoĠyaĠNobelĠya": 8533,
      "ĠáĭĵáĬŃáĪįáīł.": 8534,
      "ĠmwakaĠwa": 8535,
      ",Ġda": 8536,
      "ĠaĠshekaraĠta": 8537,
      "Ġá»įjá»įÌģ": 8538,
      "BaadaĠya": 8539,
      "ĠwaĠTuzoĠyaĠNobelĠya": 8540,
      "á»įÌģ": 8541,
      "ÌĢ-Ã¨dÃ¨": 8542,
      "ĠtÃŃĠwá»įÌģn": 8543,
      "ĠmshindiĠwaĠTuzoĠyaĠNobelĠya": 8544,
      "Ġáĭ«áĪįáī°áī°áĪ¨áĮİáĪĺĠáĪĿáĪ³áĪĮ": 8545,
      "áº¹Ìģ": 8546,
      "Ġáĭ¨áĬłáĪĽáĪŃáĬĽĠáĪĿáĪ³áĪĮĠáĬĲáĭįáį¢ĠáīµáĪŃáĮīáĪĻĠáĭ«áĪįáī°áī°áĪ¨áĮİáĪĺĠáĪĿáĪ³áĪĮ": 8547,
      "ĠaĠshekarar": 8548,
      "/áĪĿ": 8549,
      "Ġáĭĵ/áĪĿ": 8550,
      ",Ġkuma": 8551,
      ",000": 8552,
      "ĠdagaĠcikin": 8553,
      ",Ġle": 8554,
      "á»įÌĢ": 8555,
      "MakalaĠhii": 8556,
      "láº¹ÌĢ": 8557,
      "MakalaĠhiiĠinahusu": 8558,
      "MakalaĠhiiĠinahusuĠmwaka": 8559,
      "ĠinĠthe": 8560,
      "ĠdaĠaka": 8561,
      ",Ġand": 8562,
      "Ġiláº¹ÌĢ": 8563,
      ").ĠMatukio": 8564,
      ",Ġta": 8565,
      "waĠna": 8566,
      "ĠgaĠwatan": 8567,
      ".áĬł": 8568,
      "ĠorÃŃláº¹ÌĢ-Ã¨dÃ¨": 8569,
      "ĠKristo).ĠMatukio": 8570,
      "Ġ(BaadaĠya": 8571,
      "-ede": 8572,
      "Ġ(BaadaĠyaĠKristo).ĠMatukio": 8573,
      "ĠtiĠo": 8574,
      ",Ġwanda": 8575,
      ",Ġna": 8576,
      "ĠshiĠne": 8577,
      "ĠÃłĠla": 8578,
      ",ĠmshindiĠwaĠTuzoĠyaĠNobelĠya": 8579,
      "Ġáĭ¨áĬłáĪĽáĪŃáĬĽĠáĪĿáĪ³áĪĮĠáĬĲáĭįáį¢ĠáīµáĪŃáĮīáĪĻĠáĭ«áĪįáī°áī°áĪ¨áĮİáĪĺĠáĪĿáĪ³áĪĮĠáī°áĪ¨áīµáĬĵĠáĪĿáĪ³áĪĮ": 8580,
      "ĠlâĢĻ": 8581,
      "ĠkatiĠya": 8582,
      "ĠdaĠke": 8583,
      "'ar": 8584,
      "ĠnaĠku": 8585,
      "Ġ(an": 8586,
      "ĠKarneĠya": 8587,
      "Ġ(anĠhaife": 8588,
      "Ġ(BaadaĠyaĠKristo).ĠMatukioĠWaliozaliwa": 8589,
      "ĠáĪĺáĭ°áī¥Ġ:": 8590,
      ".áĬ¤": 8591,
      ",ĠÃ³": 8592,
      "ĠÆĻwallonĠÆĻafa": 8593,
      "gáº¹Ìģ": 8594,
      "Ġorile-ede": 8595,
      "s,": 8596,
      "ĠÃłĠl'": 8597,
      ".áĬł.": 8598,
      "áĪįáį¢": 8599,
      ",Ġet": 8600,
      ",Ġla": 8601,
      "ĠáĬĵáī¸áĭįáį¢": 8602,
      "Ġpáº¹ÌĢ": 8603,
      "pá»įÌĢ": 8604,
      "ĠkutokaĠMarekani": 8605,
      "ĠaĠranar": 8606,
      "Ġlá»įÌģ": 8607,
      ".ĠManazarta": 8608,
      "ĠÃĮpÃŃnláº¹ÌĢ": 8609,
      ",Ġya": 8610,
      "ĠnÃŃĠá»įdÃºn": 8611,
      "ĠdaĠta": 8612,
      "Ġgáº¹Ìģ": 8613,
      "ráº¹ÌĢ": 8614,
      ".ĠItokasiĠÃĢwá»įn": 8615,
      ")Ġje": 8616,
      "Ġs'": 8617,
      ",Ġil": 8618,
      "Ġgáº¹Ìģgáº¹Ìģ": 8619,
      "ĠáĬ¥.áĬ¤": 8620,
      ",Ġthe": 8621,
      "ĠpamojaĠna": 8622,
      "Ġiá¹£áº¹Ìģ": 8623,
      "Ġpáº¹ÌĢlÃº": 8624,
      "ĠwasanĠÆĻwallonĠÆĻafa": 8625,
      "áĪīáį¢": 8626,
      "Ġqu'": 8627,
      "Ġjama'a": 8628,
      "ĠAmáº¹Ìģ": 8629,
      "ĠáĪĺáĭ°áī¥Ġ:Ġáī°áĪ¨áīµáĬĵĠáĪĿáĪ³áĪĮ": 8630,
      "ĠAmáº¹ÌģrÃŃkÃł": 8631,
      "s.": 8632,
      ")Ġni": 8633,
      ",ĠS": 8634,
      ",ĠM": 8635,
      "Ġ'yan": 8636,
      "ĠnaĠfarko": 8637,
      "Ġmáº¹Ìģ": 8638,
      ",Ġan": 8639,
      "ĠtaĠÆĻasar": 8640,
      "Ġ(BaadaĠyaĠKristo).ĠMatukioĠWaliozaliwaĠWaliofariki": 8641,
      "-áº¹ÌĢ": 8642,
      "ĠdaĠya": 8643,
      "es,": 8644,
      "ĠdaĠsuka": 8645,
      "ĠdâĢĻ": 8646,
      "ÌĢráº¹ÌĢ": 8647,
      "Ġal'": 8648,
      "ÌģkasÃŃ": 8649,
      "ĠtoĠthe": 8650,
      "ĠwasanĠÆĻwallonĠÆĻafaĠtaĠÆĻasar": 8651,
      "ká»įÌĢ": 8652,
      "ĠáĬ¥.áĬ¤.áĬł.": 8653,
      ")Ġ(": 8654,
      ",ĠK": 8655,
      ",Ġm": 8656,
      "Ġáĭĵ/áĪĿĠ-": 8657,
      "ĠyaĠku": 8658,
      ",ĠO": 8659,
      "ĠaĠNajeriya": 8660,
      "ĠbaĠda": 8661,
      ",ĠB": 8662,
      ",Ġles": 8663,
      "Ġd'un": 8664,
      "ĠdansĠle": 8665,
      "ĠniĠÃ³": 8666,
      "ĠtanaĠda": 8667,
      "1-": 8668,
      "ĠvyaĠnje": 8669,
      "Ġ(C": 8670,
      "áĭĭáĪįáį¢": 8671,
      "Ġ(S": 8672,
      "Ġ(anĠhaifeĠshi": 8673,
      "ĠnchiĠya": 8674,
      "Ġ(M": 8675,
      "ĠneĠa": 8676,
      "Ġ(m": 8677,
      "ĠtÃŃĠa": 8678,
      "Ġá»ĮÌĢ": 8679,
      "ĠJami'ar": 8680,
      "ĠmkuuĠwa": 8681,
      "jáº¹Ìģ": 8682,
      "wá»įÌģ": 8683,
      "anaĠna": 8684,
      "rá»įÌĢ": 8685,
      "'est": 8686,
      "Ġd'une": 8687,
      ".ĠÃĢwá»įn": 8688,
      "ĠupandeĠwa": 8689,
      "Ìģká»įÌģ": 8690,
      "Ġal-": 8691,
      "áĪĿáį¢": 8692,
      "ĠtaĠyi": 8693,
      ",ĠA": 8694,
      "Ġ(A": 8695,
      "AĠcikin": 8696,
      "ĠamfaniĠda": 8697,
      "ÌĢn": 8698,
      "ĠwasanĠÆĻwallonĠÆĻafaĠtaĠÆĻasarĠIngila": 8699,
      "Ġáº¹ÌĢká»įÌģ": 8700,
      ")Ġalikuwa": 8701,
      ".ĠA": 8702,
      ",Ġen": 8703,
      "áį¢Ġáīł": 8704,
      "o,": 8705,
      "ziĠwa": 8706,
      "ÌģyÃ¬n": 8707,
      "Ġá»įjá»įÌģÃ¬bÃŃ": 8708,
      "ĠitaĠce": 8709,
      "ĠwÃłĠnÃŃ": 8710,
      "má»įÌĢ": 8711,
      ",Ġqui": 8712,
      "ĠáĪĽáĪĪáīµĠáĬĲáĭįáį¢": 8713,
      "ĠáĬĲáīłáĪ¨áį¢": 8714,
      "Ġne.": 8715,
      "ĠwandaĠya": 8716,
      ",Ġinda": 8717,
      "Ġgáº¹Ìģgáº¹ÌģĠbÃŃ": 8718,
      "Ġá»įjá»įÌģÃ¬bÃŃĠnÃŃ": 8719,
      ",ĠC": 8720,
      "L'": 8721,
      "er,": 8722,
      "já»įÌģ": 8723,
      ",Ġo": 8724,
      "Ìģáº¹ÌĢ": 8725,
      "es.": 8726,
      "ĠlughaĠya": 8727,
      "ÌĢĠÃ¨dÃ¨": 8728,
      "Ġ(BaadaĠyaĠKristo).ĠMatukioĠWaliozaliwaĠWaliofarikiĠKarneĠya": 8729,
      "Ġ(B": 8730,
      "ĠyaĠkasance": 8731,
      "ĠdaĠake": 8732,
      "ĠbaadaĠya": 8733,
      "ĠViungoĠvyaĠnje": 8734,
      "wa.": 8735,
      ",ĠT": 8736,
      ",ĠN": 8737,
      "Ġáº¹gbáº¹Ìģ": 8738,
      ",ĠI": 8739,
      "ĠetĠde": 8740,
      "áī³áĪįáį¢": 8741,
      "ĠNÃłÃ¬jÃŃrÃŃÃł.": 8742,
      "Ġmá»įÌģ": 8743,
      "ĠkarneĠya": 8744,
      "ĠdansĠla": 8745,
      "ĠchiniĠya": 8746,
      "y,": 8747,
      "rá»įÌģ": 8748,
      "ĠyaĠyi": 8749,
      "ĠgameĠda": 8750,
      "ĠyanaĠda": 8751,
      "edĠby": 8752,
      "áį£Ġáīł": 8753,
      "Ġ(áĬ¨": 8754,
      "ĠandĠthe": 8755,
      "ĠjinaĠla": 8756,
      ",ĠD": 8757,
      "ĠÃ¬pÃŃnláº¹ÌĢ": 8758,
      ",Ġl'": 8759,
      "ĠNajeriya.": 8760,
      "Ġ(18": 8761,
      "ĠaĠkan": 8762,
      "oĠwa": 8763,
      "ĠciĠgaba": 8764,
      "wa,": 8765,
      "áį£Ġáĭ¨": 8766,
      "ĠeneoĠla": 8767,
      "ĠkumaĠta": 8768,
      ",ĠE": 8769,
      "ĠwaĠMarekani": 8770,
      "ĠsamarĠda": 8771,
      "k.": 8772,
      "ĠniĠa": 8773,
      "ĠniĠwá»įÌģn": 8774,
      "Ġ|ĠRD": 8775,
      "Ġlá»įĠsÃŃ": 8776,
      "ĠaĠjihar": 8777,
      "áĪĪáī½áį¢": 8778,
      "ĠkwaĠsababu": 8779,
      "ĠáĬŃáįįáĪĪĠáĭĺáĪĺáĬķ": 8780,
      "'in": 8781,
      ",ĠG": 8782,
      "ĠdansĠles": 8783,
      "Ìģrá»įÌģ": 8784,
      "-áº¹ÌĢká»įÌģ": 8785,
      "Ìģrá»įÌģÃ¬dÃ¬": 8786,
      "ĠáĬĲáīłáĪ©áį¢": 8787,
      "\"Ġ(": 8788,
      "ĠNijeriya.": 8789,
      "Ġ(anĠhaifeĠshiĠaĠshekaraĠta": 8790,
      "edĠto": 8791,
      "ĠÃ¡stáº¹Ìģrá»įÌģÃ¬dÃ¬": 8792,
      "lá»įÌģ": 8793,
      ")Ġjáº¹Ìģ": 8794,
      "ingĠthe": 8795,
      ".com": 8796,
      "Ġ1.": 8797,
      "Ġ1,": 8798,
      "Ġma'": 8799,
      "fáº¹Ìģ": 8800,
      "ĠhadaĠda": 8801,
      ",ĠdaĠkuma": 8802,
      "ĠkumaĠya": 8803,
      "Ġ(N": 8804,
      "on,": 8805,
      "ĠnÃŃĠibi": 8806,
      "ĠdaĠyawa": 8807,
      "ĠáĭŃáī£áĪĭáĪįáį¢": 8808,
      "ĠtaĠhanyar": 8809,
      "Wá»įÌģn": 8810,
      "ĠáĪĨáĬĲáį¢": 8811,
      "ĠtaĠkasance": 8812,
      "Ġáº¹láº¹Ìģ": 8813,
      "ĠilÃ©-": 8814,
      ",ĠF": 8815,
      "ĠsehemuĠya": 8816,
      "ĠmÃ¡aĠÅĦ": 8817,
      ",ĠL": 8818,
      "Ġ(P": 8819,
      "ĠetĠla": 8820,
      "ĠNewĠYork": 8821,
      "ĠneĠdaga": 8822,
      "NÃŃĠá»įdÃºn": 8823,
      "ĠjuuĠya": 8824,
      "ÌģtÃ¬": 8825,
      "ĠetĠle": 8826,
      "ĠáĬĲáĭįáį¡áį¡": 8827,
      "á¹£áº¹Ìģ": 8828,
      "ĠáĭĭáĬĵĠáĬ¨áī°áĪĽ": 8829,
      "Ġn.": 8830,
      "jiĠwa": 8831,
      "AĠshekarar": 8832,
      "www.": 8833,
      "ĠyaĠK": 8834,
      "Ġtáº¹Ìģ": 8835,
      "ÌģtÃ¬ĠkÃ©kerÃ©": 8836,
      ",ĠR": 8837,
      "ĠfromĠthe": 8838,
      "ĠnaĠbiyu": 8839,
      "ĠdayaĠdagaĠcikin": 8840,
      "waĠda": 8841,
      "ĠorÃŃláº¹ÌĢĠÃ¨dÃ¨": 8842,
      "Ġbáº¹ÌĢráº¹ÌĢ": 8843,
      "ĠbabbanĠbirnin": 8844,
      "ĠtiĠa": 8845,
      "ĠnÃŃĠibiĠÃ¬gbÃłjÃ¡": 8846,
      "ĠplÃ¡náº¹ÌģtÃ¬ĠkÃ©kerÃ©": 8847,
      "ĠnÃŃĠibiĠÃ¬gbÃłjÃ¡ĠÃ¡stáº¹Ìģrá»įÌģÃ¬dÃ¬": 8848,
      "Ġ(T": 8849,
      "us,": 8850,
      "ĠOrodhaĠya": 8851,
      "Ġ(K": 8852,
      "ĠplÃ¡náº¹ÌģtÃ¬ĠkÃ©kerÃ©ĠnÃŃĠibiĠÃ¬gbÃłjÃ¡ĠÃ¡stáº¹Ìģrá»įÌģÃ¬dÃ¬": 8853,
      ")ĠshiĠne": 8854,
      "Ġ(F": 8855,
      "edĠthe": 8856,
      "ĠkutokanaĠna": 8857,
      "ĠyawanĠjama'a": 8858,
      "://www.": 8859,
      "Ġ(198": 8860,
      ",Ġmwandishi": 8861,
      "ĠonĠthe": 8862,
      "-M": 8863,
      "-B": 8864,
      "ĠdaĠdama": 8865,
      "-C": 8866,
      "ĠáĭŃáĮĪáĬĽáĪįáį¢": 8867,
      "a.": 8868,
      ",Ġamma": 8869,
      "áī½áį¢": 8870,
      "Ġ(19": 8871,
      "wá»įÌĢ": 8872,
      "i,": 8873,
      "ĠneĠna": 8874,
      "ĠnaĠm": 8875,
      "Ġ-ĠMtakatifu": 8876,
      "áī·áĪįáį¢": 8877,
      "ĠÃ¬tá»įÌģkasÃŃ": 8878,
      "i.": 8879,
      ",Ġb": 8880,
      "arĠda": 8881,
      "áį£ĠáĬ¨": 8882,
      "e,": 8883,
      "jáº¹ÌģĠplÃ¡náº¹ÌģtÃ¬ĠkÃ©kerÃ©ĠnÃŃĠibiĠÃ¬gbÃłjÃ¡ĠÃ¡stáº¹Ìģrá»įÌģÃ¬dÃ¬": 8884,
      "1.": 8885,
      "ĠparĠle": 8886,
      "Ġ(áĭ¨": 8887,
      "ĠáĬ¥áĮįáĪŃĠáĬ³áĪµ": 8888,
      "ĠTazamaĠpia": 8889,
      "ĠarÃ¡ĠAmáº¹ÌģrÃŃkÃł": 8890,
      "ĠtÃŃĠÃ³ĠsÃ¬": 8891,
      "ĠyaĠmwaka": 8892,
      ",Ġni": 8893,
      ",ĠdaĠke": 8894,
      "2.": 8895,
      ",Ġde": 8896,
      "ĠaĠwatan": 8897,
      "en.": 8898,
      "Ġba.": 8899,
      "Ġmá»įÌĢ": 8900,
      "áĪ«áĪįáį¢": 8901,
      ",Ġati": 8902,
      "c.": 8903,
      "ĠwakatiĠwa": 8904,
      "ĠetĠles": 8905,
      "ĠÂ«áĭ¨": 8906,
      ",Ġin": 8907,
      "Ġbáº¹Ìģáº¹ÌĢ": 8908,
      ",ĠH": 8909,
      "ĠaĠlokacin": 8910,
      ")Ġ-": 8911,
      "ĠtaĠfarko": 8912,
      "1892Ġáĭĵ.áĪĿ.": 8913,
      "jáº¹ÌģĠplÃ¡náº¹ÌģtÃ¬ĠkÃ©kerÃ©ĠnÃŃĠibiĠÃ¬gbÃłjÃ¡ĠÃ¡stáº¹Ìģrá»įÌģÃ¬dÃ¬.ĠItokasi": 8914,
      "ĠUniversityĠof": 8915,
      ")Ġna": 8916,
      ",ĠP": 8917,
      "o.": 8918,
      "ĠnÃŃĠá»įjá»įÌģ": 8919,
      "ĠaĠfannin": 8920,
      "ĠmjiĠwa": 8921,
      "ĠkarniĠna": 8922,
      "áĬĽáį¦": 8923,
      "ĠwaĠni": 8924,
      "en,": 8925,
      "ta.": 8926,
      "ĠestĠun": 8927,
      "-áĬł": 8928,
      ".ĠI": 8929,
      ",Ġlakini": 8930,
      "má»įÌģ": 8931,
      "Ġ(199": 8932,
      "áĪĿáį¡": 8933,
      "âĢĻar": 8934,
      "taĠna": 8935,
      "ĠforĠthe": 8936,
      "ĠÃ¬má»įÌĢ": 8937,
      "ĠwaĠfilamu": 8938,
      "áī£áĪįáį¢": 8939,
      "ĠparĠles": 8940,
      "ĠÃłká»įÌģká»įÌģ": 8941,
      "ĠnÃŃĠÃ¬lÃº": 8942,
      "ĠharĠzuwa": 8943,
      "ĠdakeĠa": 8944,
      "-O": 8945,
      "ĠaĠgasar": 8946,
      "ia,": 8947,
      ",ĠÃł": 8948,
      "ĠkÃŃĠÃ³": 8949,
      "ĠÃĮtá»įÌģkasÃŃ": 8950,
      "2-": 8951,
      "a,": 8952,
      "ĠparĠla": 8953,
      "Ġ'yar": 8954,
      "Ġ'Yan": 8955,
      "Ġ(D": 8956,
      "ĠtÃŃĠÃłwá»įn": 8957,
      "ĠatĠthe": 8958,
      "MwakaĠwa": 8959,
      ",ĠmshindiĠwaĠTuzoĠyaĠNobelĠyaĠTiba": 8960,
      "ia.": 8961,
      "4.": 8962,
      ",Ġmais": 8963,
      ",Ġmwigizaji": 8964,
      "ĠwasanĠkwaikwayo": 8965,
      "ĠAfrikaĠya": 8966,
      ",ĠÃłti": 8967,
      "ĠRoma,": 8968,
      "Ġfina-": 8969,
      ",Ġto": 8970,
      "ĠdaĠna": 8971,
      "edĠin": 8972,
      ":ĠThe": 8973,
      "sáº¹ÌĢ": 8974,
      "Ġá»įÌĢpá»įÌĢ": 8975,
      "Ġ(I": 8976,
      "ká»įÌĢá»įÌģ": 8977,
      "áĪĿáį£": 8978,
      "ka.": 8979,
      "ĠwaĠTanzania": 8980,
      "ĠyaĠm": 8981,
      ",Ġsai": 8982,
      "Ġ(G": 8983,
      "ĠniĠo": 8984,
      "ĠáĪ¥áĪŃáĭĪĠáĪĺáĬķáĮįáĪ¥áīµ": 8985,
      "ĠtÃŃĠÃ³Ġti": 8986,
      "e.": 8987,
      "Ġ2.": 8988,
      "ĠáīĢáĬķĠáīłáĬ¢áīµáĭ®áĮµáĭ«": 8989,
      "ĠnÃŃĠÃĮpÃŃnláº¹ÌĢ": 8990,
      ",Ġc": 8991,
      "-S": 8992,
      "-I": 8993,
      "ĠwaĠkwanza": 8994,
      "ĠsikuĠya": 8995,
      "ta,": 8996,
      "ĠciĠgabaĠda": 8997,
      "ĠsurĠle": 8998,
      "ĠdanĠwasanĠÆĻwallonĠÆĻafaĠtaĠÆĻasarĠIngila": 8999,
      "waĠa": 9000,
      "Ġn.k.": 9001,
      "Ġ(d": 9002,
      "ĠtaĠzama": 9003,
      "ĠnÃ¡Ãł.": 9004,
      "ĠofĠa": 9005,
      "ĠkutokaĠnchiĠya": 9006,
      "ĠyaĠzama": 9007,
      "tá»įÌĢ": 9008,
      "5.": 9009,
      "sa.": 9010,
      "Ġ(L": 9011,
      ",Ġun": 9012,
      "ĠáĬ¥áĬĵĠáĭ¨": 9013,
      ",Ġsannan": 9014,
      ".ĠK": 9015,
      "ĠdagaĠbaya": 9016,
      "ĠáĭĵáĬŃáĪįáīł.ĠáĮįáĭµáĪĿ": 9017,
      "-A": 9018,
      "AĠwatan": 9019,
      "ĠilÃ©-áº¹ÌĢká»įÌģ": 9020,
      "-m": 9021,
      "in,": 9022,
      "ĠáĮĢáĪĿáĪ®ĠáĬ¥áĪµáĬ¨": 9023,
      "3.": 9024,
      "ĠnaĠu": 9025,
      ",Ġ\"": 9026,
      "ĠnÃŃĠÃ¬": 9027,
      ",ĠtareĠda": 9028,
      ",ĠJ": 9029,
      "báº¹ÌĢráº¹ÌĢ": 9030,
      "ĠgabatarĠda": 9031,
      "-s": 9032,
      "Ġáº¹láº¹ÌģbÃ¹n": 9033,
      "Ġáĭ¨áĬłáĪĽáĪŃáĬĽĠáĪĿáĪ³áĪĮĠáĬĲáĭįáį¢ĠáīµáĪŃáĮīáĪĻĠáĪĺáĭ°áī¥Ġ:Ġáī°áĪ¨áīµáĬĵĠáĪĿáĪ³áĪĮ": 9034,
      "ĠmaiĠsuna": 9035,
      "ĠBKĠ(BaadaĠyaĠKristo).ĠMatukioĠWaliozaliwaĠWaliofarikiĠKarneĠya": 9036,
      "ĠceĠta": 9037,
      "Ġ(ojoibi": 9038,
      "Ġ(R": 9039,
      "esĠde": 9040,
      "u,": 9041,
      "Ġ(s": 9042,
      "ĠaĠyankin": 9043,
      "er.": 9044,
      "ya,": 9045,
      "-19": 9046,
      "u.": 9047,
      "ĠMkoaĠwa": 9048,
      "Ġáº¸ÌĢ": 9049,
      "-Ã¬": 9050,
      "ĠáĬ¥áĬĵĠáīł": 9051,
      ",ĠmshindiĠwaĠTuzoĠyaĠNobelĠyaĠTibaĠmwakaĠwa": 9052,
      "Ġ(J": 9053,
      "'i": 9054,
      "ya.": 9055,
      "Ġ2,": 9056,
      "ĠsurĠla": 9057,
      "báº¹ÌĢ": 9058,
      "Ġ(U": 9059,
      "ĠnÃŃnÃºĠÃłwá»įn": 9060,
      ",ĠmwakaĠwa": 9061,
      "ĠdeĠlâĢĻ": 9062,
      "-R": 9063,
      "ĠtÃŃĠÃ³Ġjáº¹Ìģ": 9064,
      "áī°áĭĭáĪįáį¢": 9065,
      "ĠFizikiaĠmwakaĠwa": 9066,
      "-1": 9067,
      "Ġ(E": 9068,
      ",ĠU": 9069,
      "ani.": 9070,
      "y.": 9071,
      "Ġqu'il": 9072,
      ",Ġs": 9073,
      "ĠdaĠshi": 9074,
      "ĠgbajÃºmá»įÌĢ": 9075,
      "Ġráº¹ÌĢ.": 9076,
      "ĠáĮį.": 9077,
      "ĠnaĠshekarar": 9078,
      "ĠfimĠdin": 9079,
      "AĠranar": 9080,
      "ĠáĭŃáī½áĪĭáĪįáį¢": 9081,
      "ĠtoĠgba": 9082,
      ".ĠB": 9083,
      "Ġfáº¹Ìģ": 9084,
      ")Ġa": 9085,
      "áĬķáį¡": 9086,
      "ĠDolaĠla": 9087,
      "ĠfÃºnĠÃłwá»įn": 9088,
      "ĠKanananĠhukumomin": 9089,
      "-K": 9090,
      "gbá»įÌĢn": 9091,
      ",Ġt": 9092,
      "ĠáĭŃáī³áĭĪáīĥáĪįáį¢": 9093,
      "ĠAfrikaĠKusini": 9094,
      "ĠnaĠwa": 9095,
      ",Ġko": 9096,
      "ĠyaĠu": 9097,
      "ĠnaĠma": 9098,
      "ĠnÃŃnÃºĠerÃ©": 9099,
      "S.": 9100,
      "ĠyaĠU": 9101,
      "ĠhukumaĠce": 9102,
      "A.": 9103,
      "ĠtÃŃĠÃ³ĠÅĦ": 9104,
      "ĠyaĠkwanza": 9105,
      "ce-": 9106,
      "ĠáĭįáĪµáĮ¥Ġáĭ¨áĪļáĮĪáĬĿ": 9107,
      "ĠyaĠkwamba": 9108,
      "ĠetĠdes": 9109,
      "ĠmjiĠmkuuĠwa": 9110,
      "lá»įpá»įÌĢ": 9111,
      "áĪĭáĪįáį¢": 9112,
      "Ġ(197": 9113,
      "áĪĿĠáīł": 9114,
      "ÌĢáº¹Ìģ": 9115,
      "Ġáī¤áī°ĠáĬŃáĪŃáĪµáī²áĭ«áĬķ": 9116,
      "Ġtele.ĠItokasiĠÃĢwá»įn": 9117,
      "ĠidadiĠya": 9118,
      "Ġáº¹ÌĢyÃł": 9119,
      "Ġ-ĠPapa": 9120,
      "ĠdeĠson": 9121,
      "ĠáīłáĭĺáĪĺáĬĲĠáĭ®áĪĲáĬķáĪµ": 9122,
      "ĠdansĠl'": 9123,
      ".ĠTazamaĠpia": 9124,
      "an,": 9125,
      "ĠaĠduniya": 9126,
      "áĪŃ-": 9127,
      "ĠyaĠma": 9128,
      ",ĠmshindiĠwaĠTuzoĠyaĠNobelĠyaĠKemia": 9129,
      "-d": 9130,
      "Ġ(áīł": 9131,
      "ĠyaĠmutu": 9132,
      "áĬĽáĭįĠáĬŃáįįáĪĪĠáĭĺáĪĺáĬķ": 9133,
      "ĠwithĠthe": 9134,
      "Ġ(W": 9135,
      "ĠaĠkasar": 9136,
      "Ġ(O": 9137,
      "ĠtiĠwon": 9138,
      "ĠkulaĠda": 9139,
      "ĠkifoĠchake": 9140,
      "Ġ(1": 9141,
      "ĠmaĠÅĦ": 9142,
      "gbáº¹Ìģ": 9143,
      "ĠJamhuriĠya": 9144,
      "ĠasĠa": 9145,
      ",Ġp": 9146,
      "ĠtaĠfara": 9147,
      "Ġkáº¹Ìģ": 9148,
      "ĠaikiĠa": 9149,
      "Ġ|ĠRD1-": 9150,
      ".ĠWaliozaliwa": 9151,
      "ĠkatikaĠmiaka": 9152,
      "Ġáº¹láº¹ÌģbÃ¹nĠNobel": 9153,
      "ĠndaniĠya": 9154,
      "7.": 9155,
      ".org": 9156,
      "ĠáĪ²áĪĨáĬķáį£": 9157,
      "ĠáĪ²áĪĨáĬķĠáĭŃáĪħ": 9158,
      "ĠUmojaĠwa": 9159,
      ",ĠmshindiĠwaĠTuzoĠyaĠNobelĠyaĠFizikiaĠmwakaĠwa": 9160,
      "ĠasĠthe": 9161,
      "Ġpá»įÌĢ": 9162,
      "ĠorÃŃláº¹ÌĢ-Ã¨dÃ¨ĠNÃłÃ¬jÃŃrÃŃÃł": 9163,
      "-Ãł": 9164,
      "ĠlokacinĠda": 9165,
      "Ġ(n": 9166,
      ",ĠW": 9167,
      "iá¹£áº¹Ìģ": 9168,
      ")Ġáĭ¨": 9169,
      "ĠpÃ¨ĠnÃŃ": 9170,
      "ĠkwaĠku": 9171,
      ")Ġet": 9172,
      "áī¸áĭįáį¢": 9173,
      ",Ġau": 9174,
      "-daban": 9175,
      ".ĠS": 9176,
      "ĠyaĠfara": 9177,
      "ĠaikiĠaĠmatsayin": 9178,
      "Ġláº¹ÌģyÃ¬n": 9179,
      ")Ġ:": 9180,
      "ĠÃłwá»įnĠá»įjá»įÌģÃ¬bÃŃĠnÃŃ": 9181,
      "ĠkamaĠvile": 9182,
      "Ġdaban-daban": 9183,
      "Ġá¹£iá¹£áº¹Ìģ": 9184,
      "ĠÃłtiĠÃłwá»įn": 9185,
      "ĠtaĠsamu": 9186,
      "Ġ(anĠhaifeĠta": 9187,
      "ráº¹Ìģ": 9188,
      "oĠcha": 9189,
      "ĠisĠa": 9190,
      "ĠyayinĠda": 9191,
      "9.": 9192,
      "Ġá¹£eĠÃł": 9193,
      "ĠgudanarĠda": 9194,
      "Ġne,": 9195,
      "ziĠya": 9196,
      ",ĠwandaĠya": 9197,
      ".ĠM": 9198,
      "Ġne,ĠdaĠke": 9199,
      "ka,": 9200,
      "áĬĵĠáĬ¨": 9201,
      "-P": 9202,
      "-18": 9203,
      "láº¹Ìģ": 9204,
      "ĠbaĠta": 9205,
      ".com/": 9206,
      "ĠdeĠc": 9207,
      "an.": 9208,
      "ĠÃłká»įÌģ": 9209,
      "oĠya": 9210,
      "ĠáĬłáĭ²áĪµĠáĬłáīłáī£": 9211,
      "Ġá»įÌĢkan": 9212,
      "sÃŃláº¹ÌĢ": 9213,
      "-o": 9214,
      "ĠkuduĠmaso": 9215,
      "ĠáīłáĮİáĪŃáĮİáĪŃáĭ«áĬķĠáĬ«áĪĮáĬķáĭ³áĪŃ": 9216,
      ",Ġwá»įÌģn": 9217,
      "Ġ(ya": 9218,
      ",ĠmshindiĠwaĠTuzoĠyaĠNobelĠyaĠKemiaĠmwakaĠwa": 9219,
      "dá»įÌĢ": 9220,
      "áį¡áĭ¨": 9221,
      ",Ġg": 9222,
      "Ġ3.": 9223,
      "yarĠda": 9224,
      "Ġáīł18": 9225,
      "ĠsÃŃláº¹ÌĢ": 9226,
      ".ĠH": 9227,
      "ĠsamaĠda": 9228,
      "8.": 9229,
      "-n": 9230,
      "áĬĵĠáĭ¨": 9231,
[...]
